{
  "version": "1.0",
  "truncation": null,
  "padding": null,
  "added_tokens": [
    {
      "id": 0,
      "content": "[PAD]",
      "single_word": false,
      "lstrip": false,
      "rstrip": false,
      "normalized": false,
      "special": true
    },
    {
      "id": 1,
      "content": "[UNK]",
      "single_word": false,
      "lstrip": false,
      "rstrip": false,
      "normalized": false,
      "special": true
    },
    {
      "id": 2,
      "content": "[CLS]",
      "single_word": false,
      "lstrip": false,
      "rstrip": false,
      "normalized": false,
      "special": true
    },
    {
      "id": 3,
      "content": "[SEP]",
      "single_word": false,
      "lstrip": false,
      "rstrip": false,
      "normalized": false,
      "special": true
    },
    {
      "id": 4,
      "content": "[MASK]",
      "single_word": false,
      "lstrip": false,
      "rstrip": false,
      "normalized": false,
      "special": true
    }
  ],
  "normalizer": {
    "type": "NFKC"
  },
  "pre_tokenizer": {
    "type": "Whitespace"
  },
  "post_processor": null,
  "decoder": null,
  "model": {
    "type": "WordPiece",
    "unk_token": "[UNK]",
    "continuing_subword_prefix": "##",
    "max_input_chars_per_word": 100,
    "vocab": {
      "[PAD]": 0,
      "[UNK]": 1,
      "[CLS]": 2,
      "[SEP]": 3,
      "[MASK]": 4,
      "!": 5,
      "#": 6,
      "$": 7,
      "%": 8,
      "&": 9,
      "'": 10,
      "(": 11,
      ")": 12,
      "*": 13,
      "+": 14,
      ",": 15,
      "-": 16,
      ".": 17,
      "/": 18,
      "0": 19,
      "1": 20,
      "2": 21,
      "3": 22,
      "4": 23,
      "5": 24,
      "6": 25,
      "7": 26,
      "8": 27,
      "9": 28,
      ":": 29,
      ";": 30,
      "<": 31,
      "=": 32,
      ">": 33,
      "?": 34,
      "@": 35,
      "A": 36,
      "B": 37,
      "C": 38,
      "D": 39,
      "E": 40,
      "F": 41,
      "G": 42,
      "H": 43,
      "I": 44,
      "J": 45,
      "K": 46,
      "L": 47,
      "M": 48,
      "N": 49,
      "O": 50,
      "P": 51,
      "Q": 52,
      "R": 53,
      "S": 54,
      "T": 55,
      "U": 56,
      "V": 57,
      "W": 58,
      "X": 59,
      "Y": 60,
      "Z": 61,
      "[": 62,
      "\\": 63,
      "]": 64,
      "_": 65,
      "`": 66,
      "a": 67,
      "b": 68,
      "c": 69,
      "d": 70,
      "e": 71,
      "f": 72,
      "g": 73,
      "h": 74,
      "i": 75,
      "j": 76,
      "k": 77,
      "l": 78,
      "m": 79,
      "n": 80,
      "o": 81,
      "p": 82,
      "q": 83,
      "r": 84,
      "s": 85,
      "t": 86,
      "u": 87,
      "v": 88,
      "w": 89,
      "x": 90,
      "y": 91,
      "z": 92,
      "{": 93,
      "|": 94,
      "}": 95,
      "~": 96,
      "##y": 97,
      "##m": 98,
      "##a": 99,
      "##l": 100,
      "##t": 101,
      "##i": 102,
      "##O": 103,
      "##7": 104,
      "##C": 105,
      "##e": 106,
      "##J": 107,
      "##9": 108,
      "##F": 109,
      "##s": 110,
      "##p": 111,
      "##o": 112,
      "##n": 113,
      "##T": 114,
      "##u": 115,
      "##z": 116,
      "##8": 117,
      "##1": 118,
      "##5": 119,
      "##q": 120,
      "##h": 121,
      "##v": 122,
      "##r": 123,
      "##3": 124,
      "##H": 125,
      "##d": 126,
      "##A": 127,
      "##X": 128,
      "##_": 129,
      "##2": 130,
      "##P": 131,
      "##U": 132,
      "##c": 133,
      "##6": 134,
      "##j": 135,
      "##b": 136,
      "##L": 137,
      "##W": 138,
      "##g": 139,
      "##x": 140,
      "##0": 141,
      "##B": 142,
      "##w": 143,
      "##V": 144,
      "##N": 145,
      "##E": 146,
      "##4": 147,
      "##f": 148,
      "##D": 149,
      "##k": 150,
      "##M": 151,
      "##Z": 152,
      "##I": 153,
      "##G": 154,
      "##Q": 155,
      "##S": 156,
      "##R": 157,
      "##+": 158,
      "##.": 159,
      "##%": 160,
      "##K": 161,
      "##Y": 162,
      "##|": 163,
      "##/": 164,
      "##(": 165,
      "##@": 166,
      "##&": 167,
      "##*": 168,
      "##)": 169,
      "##<": 170,
      "##'": 171,
      "##]": 172,
      "##?": 173,
      "##$": 174,
      "##[": 175,
      "##\\": 176,
      "##;": 177,
      "##-": 178,
      "##~": 179,
      "##>": 180,
      "##:": 181,
      "##!": 182,
      "##{": 183,
      "##,": 184,
      "##}": 185,
      "###": 186,
      "##`": 187,
      "SE": 188,
      "SEP": 189,
      "##SC": 190,
      "##EQ": 191,
      "##SC_": 192,
      "ESC_": 193,
      "ESC_EQ": 194,
      "##on": 195,
      "##en": 196,
      "##er": 197,
      "##os": 198,
      "##ti": 199,
      "##ml": 200,
      "##ep": 201,
      "##cc": 202,
      "##ent": 203,
      "##ac": 204,
      "Con": 205,
      "##ag": 206,
      "##ept": 207,
      "##ccept": 208,
      "Accept": 209,
      "##LL": 210,
      "##tion": 211,
      "=<": 212,
      "NU": 213,
      "NULL": 214,
      "##he": 215,
      "##ost": 216,
      "##ca": 217,
      "##ache": 218,
      "##li": 219,
      "##et": 220,
      "##in": 221,
      "##ex": 222,
      "##ext": 223,
      "text": 224,
      "##ec": 225,
      "xml": 226,
      "##ar": 227,
      "##tent": 228,
      "Content": 229,
      "Host": 230,
      "ap": 231,
      "no": 232,
      "##la": 233,
      "##age": 234,
      "##ng": 235,
      "##cation": 236,
      "##pli": 237,
      "##plication": 238,
      "application": 239,
      "##ET": 240,
      "##uer": 241,
      "GET": 242,
      "cache": 243,
      "##tr": 244,
      "##od": 245,
      "##or": 246,
      "##tf": 247,
      "##tml": 248,
      "utf": 249,
      "##ad": 250,
      "##ie": 251,
      "##ta": 252,
      "##OS": 253,
      "##OST": 254,
      "POST": 255,
      "##ma": 256,
      "##tro": 257,
      "##il": 258,
      "##oo": 259,
      "##th": 260,
      "##EC": 261,
      "##ser": 262,
      "##pe": 263,
      "##le": 264,
      "##kie": 265,
      "##ookie": 266,
      "##set": 267,
      "##nec": 268,
      "La": 269,
      "##ND": 270,
      "##RI": 271,
      "##ata": 272,
      "##eth": 273,
      "##har": 274,
      "con": 275,
      "##rag": 276,
      "##ead": 277,
      "##eng": 278,
      "Ag": 279,
      "##TT": 280,
      "=/": 281,
      "##ype": 282,
      "##ngu": 283,
      "##uery": 284,
      "##trol": 285,
      "##eader": 286,
      "Char": 287,
      "Type": 288,
      "##*;": 289,
      "Connec": 290,
      "##ethod": 291,
      "Data": 292,
      "REC": 293,
      "control": 294,
      "Agent": 295,
      "Cache": 296,
      "Cookie": 297,
      "END": 298,
      "HTT": 299,
      "Header": 300,
      "Leng": 301,
      "Method": 302,
      "Prag": 303,
      "Query": 304,
      "User": 305,
      "URI": 306,
      "Langu": 307,
      "Charset": 308,
      "Connection": 309,
      "HTTP": 310,
      "Length": 311,
      "Pragma": 312,
      "Language": 313,
      "lo": 314,
      "im": 315,
      "##om": 316,
      "##oz": 317,
      "##80": 318,
      "##illa": 319,
      "en": 320,
      "##*/": 321,
      "Moz": 322,
      "Mozilla": 323,
      "##pa": 324,
      "##ko": 325,
      "##los": 326,
      "Gec": 327,
      "Gecko": 328,
      "##lose": 329,
      "close": 330,
      "##da": 331,
      "com": 332,
      "##*/*;": 333,
      "80": 334,
      "image": 335,
      "##lh": 336,
      "##ble": 337,
      "##ke": 338,
      "##pati": 339,
      "compati": 340,
      "compatible": 341,
      "ti": 342,
      "##ux": 343,
      "html": 344,
      "png": 345,
      "li": 346,
      "##SI": 347,
      "Lin": 348,
      "Linux": 349,
      "##html": 350,
      "##quer": 351,
      "Kon": 352,
      "##queror": 353,
      "Konqueror": 354,
      "##lain": 355,
      "plain": 356,
      "##ON": 357,
      "##SE": 358,
      "##ID": 359,
      "##TM": 360,
      "like": 361,
      "##lhost": 362,
      "KH": 363,
      "loca": 364,
      "localhost": 365,
      "##SES": 366,
      "##TML": 367,
      "*;": 368,
      ",*/*;": 369,
      "JSES": 370,
      "xhtml": 371,
      "##SION": 372,
      "KHTML": 373,
      "JSESSION": 374,
      "JSESSIONID": 375,
      "8080": 376,
      "##enda": 377,
      "tienda": 378,
      "tienda1": 379,
      "##sp": 380,
      "jsp": 381,
      "##++": 382,
      "##re": 383,
      "##co": 384,
      "##is": 385,
      "##ww": 386,
      "##es": 387,
      "www": 388,
      "##ub": 389,
      "25": 390,
      "##ubli": 391,
      "publi": 392,
      "publico": 393,
      "##mb": 394,
      "##ed": 395,
      "##as": 396,
      "##an": 397,
      "##eg": 398,
      "2F": 399,
      "##enc": 400,
      "##el": 401,
      "27": 402,
      "##orm": 403,
      "##ri": 404,
      "##rl": 405,
      "##ia": 406,
      "B1": 407,
      "##io": 408,
      "##egis": 409,
      "##trar": 410,
      "+++": 411,
      "form": 412,
      "url": 413,
      "##oded": 414,
      "##encoded": 415,
      "urlencoded": 416,
      "##ir": 417,
      "pr": 418,
      "##al": 419,
      "##to": 420,
      "##85": 421,
      "##do": 422,
      "##te": 423,
      "##odo": 424,
      "##25": 425,
      "modo": 426,
      "##ud": 427,
      "##ni": 428,
      "##ee": 429,
      "##so": 430,
      "29": 431,
      "log": 432,
      "##11": 433,
      "##tt": 434,
      "28": 435,
      "##74": 436,
      "40": 437,
      "##86": 438,
      "##29": 439,
      "##23": 440,
      "in": 441,
      "##eo": 442,
      "login": 443,
      "##mbre": 444,
      "nombre": 445,
      "##63": 446,
      "regis": 447,
      "registro": 448,
      "2C": 449,
      "##64": 450,
      "##27": 451,
      "##tc": 452,
      "##am": 453,
      "3D": 454,
      "##sw": 455,
      "##65": 456,
      "##00": 457,
      "##15": 458,
      "##69": 459,
      "##83": 460,
      "##it": 461,
      "car": 462,
      "##89": 463,
      "##13": 464,
      "##24": 465,
      "##87": 466,
      ">%": 467,
      "##ov": 468,
      "##20": 469,
      "##lo": 470,
      "##ros": 471,
      "##14": 472,
      "##ws": 473,
      "##84": 474,
      "##67": 475,
      "##id": 476,
      "##10": 477,
      "##19": 478,
      "mie": 479,
      "##mbros": 480,
      "miembros": 481,
      "##60": 482,
      "##if": 483,
      "##ss": 484,
      "cp": 485,
      "3A": 486,
      "=*;": 487,
      "##inc": 488,
      "=*": 489,
      "##17": 490,
      "##ea": 491,
      "##indo": 492,
      "##ut": 493,
      "##ion": 494,
      "di": 495,
      "##mail": 496,
      "##ra": 497,
      "##em": 498,
      "##73": 499,
      "##22": 500,
      "pas": 501,
      "##90": 502,
      "ci": 503,
      "##lid": 504,
      "passw": 505,
      "##ord": 506,
      "22": 507,
      "##75": 508,
      "##ro": 509,
      "##enes": 510,
      "##34": 511,
      "id": 512,
      "##indows": 513,
      "##agenes": 514,
      "##udad": 515,
      "imagenes": 516,
      "##ccion": 517,
      "dni": 518,
      "ntc": 519,
      "password": 520,
      "##un": 521,
      "email": 522,
      "##ovinc": 523,
      "dire": 524,
      "apel": 525,
      "provinc": 526,
      "ciudad": 527,
      "##lidos": 528,
      "direccion": 529,
      "apellidos": 530,
      "provincia": 531,
      "##ecio": 532,
      "##ve": 533,
      "precio": 534,
      "##94": 535,
      "##+%": 536,
      "Regis": 537,
      "##70": 538,
      "Registrar": 539,
      "##adir": 540,
      "##95": 541,
      "mac": 542,
      "##ic": 543,
      "##tn": 544,
      "iso": 545,
      "##tica": 546,
      "##12": 547,
      "##35": 548,
      "##rito": 549,
      "##ts": 550,
      "carrito": 551,
      "##30": 552,
      "rv": 553,
      "5C": 554,
      "entrar": 555,
      "an": 556,
      "##6F": 557,
      "##ch": 558,
      "##eh": 559,
      "3C": 560,
      ">'": 561,
      "##pt": 562,
      "+%": 563,
      "##sc": 564,
      "##eep": 565,
      "gif": 566,
      "##54": 567,
      "##2F": 568,
      "##at": 569,
      "ali": 570,
      "##sf": 571,
      "##93": 572,
      "##sh": 573,
      "##rr": 574,
      "keep": 575,
      "##ei": 576,
      "alive": 577,
      "##AB": 578,
      "##iar": 579,
      "##50": 580,
      "##ED": 581,
      "##859": 582,
      "##st": 583,
      "##6C": 584,
      "##E4": 585,
      "##AD": 586,
      "3B": 587,
      "##8D": 588,
      "ma": 589,
      "##A4": 590,
      "##6B": 591,
      "##AC": 592,
      "on": 593,
      "##EB": 594,
      "##61": 595,
      "##//": 596,
      "##8F": 597,
      "##aciar": 598,
      "##EF": 599,
      "##8C": 600,
      "or": 601,
      "##6D": 602,
      "##8B": 603,
      "##99": 604,
      "##AF": 605,
      "3E": 606,
      "##77": 607,
      "8859": 608,
      "##E0": 609,
      "##A0": 610,
      "##55": 611,
      "##82": 612,
      "##1D": 613,
      "##33": 614,
      "##1C": 615,
      "24": 616,
      "##uc": 617,
      "##1B": 618,
      "ed": 619,
      "##wd": 620,
      "jp": 621,
      "253": 622,
      "##sn": 623,
      "F1": 624,
      "##ter": 625,
      "##ae": 626,
      "al": 627,
      "##62": 628,
      "##ttp": 629,
      "##1F": 630,
      "##tm": 631,
      "##79": 632,
      "##se": 633,
      "st": 634,
      "##ja": 635,
      "##E5": 636,
      "+&": 637,
      "##A5": 638,
      "##tos": 639,
      "##A3": 640,
      "##..": 641,
      "##44": 642,
      "##ne": 643,
      "2B": 644,
      "##2B": 645,
      "/*;": 646,
      "/*": 647,
      "##um": 648,
      "max": 649,
      "de": 650,
      "##E3": 651,
      "##nt": 652,
      "##ai": 653,
      "##sg": 654,
      "##2D": 655,
      "=*/": 656,
      "=*/*": 657,
      "##E9": 658,
      "=*/*;": 659,
      "##2C": 660,
      "##ao": 661,
      "windows": 662,
      "##sr": 663,
      "##ur": 664,
      "##7D": 665,
      "##tar": 666,
      "##40": 667,
      "+++++": 668,
      "23": 669,
      "##7C": 670,
      "##ge": 671,
      "##7B": 672,
      "##7F": 673,
      "##ho": 674,
      "##nn": 675,
      "125": 676,
      "##ul": 677,
      "En": 678,
      "##A9": 679,
      "jpg": 680,
      "3F": 681,
      "##les": 682,
      "##av": 683,
      "##ript": 684,
      "##si": 685,
      "##eme": 686,
      "##aa": 687,
      "##16": 688,
      "Mac": 689,
      "##tid": 690,
      "##ue": 691,
      "##uten": 692,
      "##oe": 693,
      "##39": 694,
      "##de": 695,
      "inser": 696,
      "##mber": 697,
      "auten": 698,
      "##ticar": 699,
      "autenticar": 700,
      "##agar": 701,
      "pwd": 702,
      "20": 703,
      "reme": 704,
      "remember": 705,
      "pagar": 706,
      "##sa": 707,
      "##itar": 708,
      "10": 709,
      "##oi": 710,
      "##68": 711,
      "can": 712,
      "editar": 713,
      "##red": 714,
      "Entrar": 715,
      "##na": 716,
      "5D": 717,
      "##BC": 718,
      "anadir": 719,
      "ch": 720,
      "##udio": 721,
      "##DD": 722,
      "##ideo": 723,
      "##FF": 724,
      "insertar": 725,
      "##im": 726,
      "##tidad": 727,
      "##ol": 728,
      "audio": 729,
      "cantidad": 730,
      "..": 731,
      "video": 732,
      "##ff": 733,
      "##bal": 734,
      "--": 735,
      "##45": 736,
      "##ht": 737,
      "F1adir": 738,
      "##ild": 739,
      "##18": 740,
      "##me": 741,
      "++": 742,
      "##BB": 743,
      "##tu": 744,
      "##6E": 745,
      "##hn": 746,
      "##D5": 747,
      "tr": 748,
      "##au": 749,
      "7C": 750,
      "##DC": 751,
      "##43": 752,
      "##FC": 753,
      "##ly": 754,
      "##28": 755,
      "##lobal": 756,
      "global": 757,
      "##md": 758,
      "##eb": 759,
      "##49": 760,
      "##encia": 761,
      "##ore": 762,
      "++++": 763,
      "++%": 764,
      "##59": 765,
      "##no": 766,
      "++++%": 767,
      "##ii": 768,
      "##ys": 769,
      "##72": 770,
      "##td": 771,
      "##F0": 772,
      "##hp": 773,
      "F3": 774,
      "+++%": 775,
      "5B": 776,
      "##AE": 777,
      "##66": 778,
      "##53": 779,
      "##D0": 780,
      "##FB": 781,
      "##go": 782,
      "##DB": 783,
      "##ticas": 784,
      "carac": 785,
      "##isticas": 786,
      "##teristicas": 787,
      "caracteristicas": 788,
      "##nd": 789,
      "##orr": 790,
      "##ha": 791,
      "##tas": 792,
      "vaciar": 793,
      "Windows": 794,
      "err": 795,
      "inc": 796,
      "B2": 797,
      "##88": 798,
      "##rn": 799,
      "error": 800,
      "##32": 801,
      "##Msg": 802,
      "errorMsg": 803,
      "##oc": 804,
      "##CC": 805,
      "##AA": 806,
      "##pen": 807,
      "##EE": 808,
      "..%": 809,
      "##ot": 810,
      "##ues": 811,
      "##78": 812,
      "##script": 813,
      "##intos": 814,
      "##exec": 815,
      "##intosh": 816,
      "if": 817,
      "##ah": 818,
      "http": 819,
      "##ih": 820,
      "##ig": 821,
      "##B0": 822,
      "##ob": 823,
      "##DF": 824,
      "##1E": 825,
      "##C0": 826,
      "##ll": 827,
      "26": 828,
      "##we": 829,
      "##us": 830,
      "Vaciar": 831,
      "##orrec": 832,
      "##ce": 833,
      "##up": 834,
      "Cred": 835,
      "##enciales": 836,
      "incorrec": 837,
      "Credenciales": 838,
      "##ns": 839,
      "##ls": 840,
      "##2E": 841,
      "incorrectas": 842,
      "##nr": 843,
      "##gi": 844,
      "##ess": 845,
      "19": 846,
      "##oa": 847,
      "sta": 848,
      "##di": 849,
      "##hs": 850,
      "##3C": 851,
      "ex": 852,
      "15": 853,
      "##D9": 854,
      "##1A": 855,
      "##hr": 856,
      "270": 857,
      "##B5": 858,
      "21": 859,
      "://": 860,
      "##D4": 861,
      "ca": 862,
      "##child": 863,
      "store": 864,
      "##tp": 865,
      "##76": 866,
      "##osi": 867,
      "/*,": 868,
      "es": 869,
      "##8E": 870,
      "##ect": 871,
      "##F5": 872,
      "##ing": 873,
      "##26": 874,
      "##wn": 875,
      "age": 876,
      "##21": 877,
      "##9C": 878,
      "##D3": 879,
      "##71": 880,
      "Win": 881,
      "##mo": 882,
      "##81": 883,
      "##F4": 884,
      "##eu": 885,
      "stale": 886,
      "tran": 887,
      "E9": 888,
      "##peg": 889,
      "##sform": 890,
      "##mar": 891,
      "Mach": 892,
      "##\\\\": 893,
      "##tl": 894,
      "transform": 895,
      "Machintosh": 896,
      "##osition": 897,
      "39": 898,
      "only": 899,
      "##36": 900,
      "cached": 901,
      "##B4": 902,
      "##iz": 903,
      "##7A": 904,
      "##rs": 905,
      "Pas": 906,
      "sh": 907,
      "##nh": 908,
      "F3n": 909,
      "##rc": 910,
      "min": 911,
      "##7E": 912,
      "##8A": 913,
      "X11": 914,
      "fre": 915,
      "##ey": 916,
      "##oh": 917,
      "##UT": 918,
      "##F9": 919,
      "85": 920,
      "##ef": 921,
      "##6A": 922,
      "fresh": 923,
      "##ab": 924,
      "##ld": 925,
      "##ru": 926,
      "##B9": 927,
      "##tem": 928,
      "##04": 929,
      "##09": 930,
      "##rt": 931,
      "##alle": 932,
      "##37": 933,
      "co": 934,
      "##05": 935,
      "##nc": 936,
      "##2A": 937,
      "14": 938,
      "##C5": 939,
      "##ip": 940,
      "##sm": 941,
      "##str": 942,
      "##rm": 943,
      "##sd": 944,
      "ee": 945,
      "##http": 946,
      "##ln": 947,
      "euc": 948,
      "por": 949,
      "##ument": 950,
      "##ev": 951,
      "##B3": 952,
      "##ew": 953,
      "PUT": 954,
      "##98": 955,
      "##ua": 956,
      "##amp": 957,
      "##ty": 958,
      "##C4": 959,
      "##BF": 960,
      "##fir": 961,
      "logo": 962,
      "caja": 963,
      "Pasar": 964,
      "##ph": 965,
      "##EA": 966,
      "##yr": 967,
      "Confir": 968,
      "Confirmar": 969,
      "2Fchild": 970,
      "##wh": 971,
      "##net": 972,
      "Calle": 973,
      "##ert": 974,
      "##ui": 975,
      "##tb": 976,
      "off": 977,
      "##ame": 978,
      "##dex": 979,
      "##03": 980,
      "##ino": 981,
      "##F3": 982,
      "##dn": 983,
      "250": 984,
      "##anc": 985,
      "sa": 986,
      "##ba": 987,
      "##cs": 988,
      "##DA": 989,
      "##PC": 990,
      "##C3": 991,
      "##hi": 992,
      "index": 993,
      "OS": 994,
      "css": 995,
      "fr": 996,
      "33": 997,
      "--%": 998,
      "##C9": 999,
      "##lr": 1000,
      "##fr": 1001,
      "##ay": 1002,
      "##dr": 1003,
      "17": 1004,
      "##ds": 1005,
      "##cn": 1006,
      "##ystem": 1007,
      "##log": 1008,
      "##mn": 1009,
      "##ib": 1010,
      "##DE": 1011,
      "##lt": 1012,
      "##uo": 1013,
      "##doc": 1014,
      "##////": 1015,
      "##CB": 1016,
      "De": 1017,
      "it": 1018,
      "##hh": 1019,
      "100": 1020,
      ".%": 1021,
      "##za": 1022,
      "##db": 1023,
      "13": 1024,
      "##dm": 1025,
      "##man": 1026,
      "*%": 1027,
      "##FD": 1028,
      "eo": 1029,
      "##97": 1030,
      "cookie": 1031,
      "PPC": 1032,
      "##ek": 1033,
      "##position": 1034,
      "ED": 1035,
      "er": 1036,
      "##ps": 1037,
      "##aros": 1038,
      "##ya": 1039,
      "##document": 1040,
      "##unt": 1041,
      "7E": 1042,
      "##ye": 1043,
      "##57": 1044,
      "##NT": 1045,
      "##BE": 1046,
      "2574": 1047,
      "org": 1048,
      "##tg": 1049,
      "##47": 1050,
      "##FE": 1051,
      "##ez": 1052,
      "##hd": 1053,
      "ro": 1054,
      "php": 1055,
      "Al": 1056,
      "Rio": 1057,
      "##92": 1058,
      "##etc": 1059,
      "et": 1060,
      "ea": 1061,
      "##pass": 1062,
      "2e": 1063,
      "##hl": 1064,
      "##yo": 1065,
      ">+": 1066,
      "##lud": 1067,
      "jpeg": 1068,
      "##ap": 1069,
      "##A7": 1070,
      "San": 1071,
      "##BD": 1072,
      "##yn": 1073,
      "##af": 1074,
      "Rioja": 1075,
      "##dt": 1076,
      "##5C": 1077,
      "##mt": 1078,
      "##lac": 1079,
      "44": 1080,
      "##mr": 1081,
      "##uh": 1082,
      "##anche": 1083,
      "##ide": 1084,
      "##og": 1085,
      "##ona": 1086,
      "##FA": 1087,
      "2563": 1088,
      "##cr": 1089,
      "##eta": 1090,
      "cmd": 1091,
      "##sl": 1092,
      "##bo": 1093,
      "##ci": 1094,
      "##oot": 1095,
      "34": 1096,
      "##CE": 1097,
      "##fe": 1098,
      "##pas": 1099,
      "bin": 1100,
      "te": 1101,
      "asp": 1102,
      "##py": 1103,
      "##52": 1104,
      "##dh": 1105,
      "exe": 1106,
      "count": 1107,
      "43": 1108,
      "##tw": 1109,
      "Manche": 1110,
      "Ques": 1111,
      "##07": 1112,
      "##RO": 1113,
      "Manchego": 1114,
      "##96": 1115,
      "##su": 1116,
      "##cript": 1117,
      "Ib": 1118,
      "##56": 1119,
      "##CD": 1120,
      "##pro": 1121,
      "##rh": 1122,
      "##be": 1123,
      "og": 1124,
      "ini": 1125,
      "##innt": 1126,
      "##men": 1127,
      "##bs": 1128,
      "74": 1129,
      "ei": 1130,
      "60": 1131,
      "net": 1132,
      "##91": 1133,
      "Vino": 1134,
      "##ati": 1135,
      "##nk": 1136,
      "##bg": 1137,
      "##lay": 1138,
      "90": 1139,
      "##ode": 1140,
      "i3": 1141,
      "##SD": 1142,
      "E1": 1143,
      "i5": 1144,
      "##CF": 1145,
      "##BA": 1146,
      "##E7": 1147,
      "##fm": 1148,
      "##31": 1149,
      "##includ": 1150,
      "##passw": 1151,
      "64": 1152,
      "cn": 1153,
      "##va": 1154,
      "##ject": 1155,
      "256F": 1156,
      "E9ri": 1157,
      "be": 1158,
      "ta": 1159,
      "##yle": 1160,
      "##nl": 1161,
      "##fo": 1162,
      "##ete": 1163,
      "##58": 1164,
      "253A": 1165,
      "##3F": 1166,
      "Jam": 1167,
      "##alert": 1168,
      "##rab": 1169,
      "##iu": 1170,
      "##D7": 1171,
      "##--": 1172,
      "Queso": 1173,
      "##rd": 1174,
      "##PT": 1175,
      "ae": 1176,
      "##ms": 1177,
      "##wt": 1178,
      "##eplac": 1179,
      "##mp": 1180,
      "##/..": 1181,
      "##ug": 1182,
      "##A2": 1183,
      "##bn": 1184,
      "asf": 1185,
      "##iv": 1186,
      "##E2": 1187,
      "##ada": 1188,
      "\\\\": 1189,
      "+++++%": 1190,
      "kr": 1191,
      "##ick": 1192,
      "open": 1193,
      "##9F": 1194,
      "##ono": 1195,
      "##und": 1196,
      "75": 1197,
      "70": 1198,
      "##38": 1199,
      "##wf": 1200,
      "##mi": 1201,
      "##A8": 1202,
      "##0a": 1203,
      "E9rico": 1204,
      "qu": 1205,
      "wide": 1206,
      "##wg": 1207,
      "##oi8": 1208,
      "##ere": 1209,
      "tn": 1210,
      "##wp": 1211,
      "##E6": 1212,
      "oe": 1213,
      "##ck": 1214,
      "##ft": 1215,
      "uk": 1216,
      "##wo": 1217,
      "eh": 1218,
      "##2e": 1219,
      "##fn": 1220,
      "2565": 1221,
      "htm": 1222,
      "50": 1223,
      "koi8": 1224,
      "##9B": 1225,
      "##3B": 1226,
      "2569": 1227,
      "##lu": 1228,
      "##tmp": 1229,
      "ar": 1230,
      "##8e": 1231,
      "##46": 1232,
      "##erra": 1233,
      "##CA": 1234,
      "##9E": 1235,
      "##je": 1236,
      "63": 1237,
      "##mh": 1238,
      "##dd": 1239,
      "##42": 1240,
      "##era": 1241,
      "##sb": 1242,
      "##5F": 1243,
      "##5E": 1244,
      "##jo": 1245,
      "arab": 1246,
      "arabic": 1247,
      "cz": 1248,
      "##wa": 1249,
      "##48": 1250,
      "##indow": 1251,
      "##..\\\\": 1252,
      "cgi": 1253,
      "##p_": 1254,
      "##hc": 1255,
      "chin": 1256,
      "##passwd": 1257,
      "##vb": 1258,
      "ce": 1259,
      "##9D": 1260,
      "##4D": 1261,
      "gb": 1262,
      "38": 1263,
      "30": 1264,
      "to": 1265,
      "##vi": 1266,
      "##cat": 1267,
      "##toexec": 1268,
      "fo": 1269,
      "##ga": 1270,
      "2022": 1271,
      "el": 1272,
      "##yi": 1273,
      "##wr": 1274,
      "##4F": 1275,
      "##4B": 1276,
      "()": 1277,
      "18": 1278,
      "se": 1279,
      "##Ee": 1280,
      "##640": 1281,
      "##pr": 1282,
      "##5B": 1283,
      "##time": 1284,
      "quick": 1285,
      "Open": 1286,
      "la": 1287,
      "##pn": 1288,
      "##4u": 1289,
      "##fa": 1290,
      "quicktime": 1291,
      "BSD": 1292,
      "bas": 1293,
      "##3D": 1294,
      "##fi": 1295,
      "##110": 1296,
      "wav": 1297,
      "5Bposition": 1298,
      "##lc": 1299,
      "35": 1300,
      "##qu": 1301,
      "##var": 1302,
      "##3E": 1303,
      "49": 1304,
      "##yt": 1305,
      "##fs": 1306,
      "ne": 1307,
      "##ou": 1308,
      "##123": 1309,
      "##A6": 1310,
      "##RE": 1311,
      "252F": 1312,
      "ts": 1313,
      "ie": 1314,
      "##elect": 1315,
      "i386": 1316,
      "##include": 1317,
      "##AS": 1318,
      "at": 1319,
      "th": 1320,
      "##ak": 1321,
      "##4C": 1322,
      "##41": 1323,
      "pa": 1324,
      "##0B": 1325,
      "##gro": 1326,
      "i586": 1327,
      "as": 1328,
      "67": 1329,
      "us": 1330,
      "##06": 1331,
      "##tE": 1332,
      "##rb": 1333,
      "##4E": 1334,
      "biz": 1335,
      "##ese": 1336,
      "child": 1337,
      "46": 1338,
      "so": 1339,
      "##iy": 1340,
      "basic": 1341,
      "65": 1342,
      "tw": 1343,
      "##po": 1344,
      "##hu": 1345,
      "##HE": 1346,
      "##gn": 1347,
      "##ccess": 1348,
      "##and": 1349,
      "12": 1350,
      "Val": 1351,
      "sn": 1352,
      "##9e": 1353,
      "##0C": 1354,
      "##B7": 1355,
      "3A0": 1356,
      "##tel": 1357,
      "cas": 1358,
      "##wai": 1359,
      "##0e": 1360,
      "re": 1361,
      "##mc": 1362,
      "##node": 1363,
      "##bul": 1364,
      "##0d": 1365,
      "tiff": 1366,
      "##uestr": 1367,
      "##essing": 1368,
      "instr": 1369,
      "##atierra": 1370,
      "73": 1371,
      "by": 1372,
      "men": 1373,
      "nn": 1374,
      "##min": 1375,
      "##itos": 1376,
      "##uction": 1377,
      "##--%": 1378,
      "instruction": 1379,
      "nuestr": 1380,
      "##din": 1381,
      "##bin": 1382,
      "253C": 1383,
      "253E": 1384,
      "nuestratierra": 1385,
      "cmen": 1386,
      "ec": 1387,
      "js": 1388,
      "##br": 1389,
      "##En": 1390,
      "cmenbul": 1391,
      "##bt": 1392,
      "##bi": 1393,
      "##rip": 1394,
      "zar": 1395,
      "##az": 1396,
      "mpeg": 1397,
      "##3e": 1398,
      "##bh": 1399,
      "9x": 1400,
      "ns": 1401,
      "##51": 1402,
      "##Paros": 1403,
      "shtml": 1404,
      "tt": 1405,
      "##5D": 1406,
      "##..\\\\..\\\\": 1407,
      "59": 1408,
      "cred": 1409,
      "gov": 1410,
      "##7n": 1411,
      "##op": 1412,
      "##yl": 1413,
      "##5A": 1414,
      "##hf": 1415,
      "##tfor": 1416,
      "2522": 1417,
      "##auz": 1418,
      "creditos": 1419,
      "@/": 1420,
      "##rg": 1421,
      "esti": 1422,
      "69": 1423,
      "68": 1424,
      "##ka": 1425,
      "##nion": 1426,
      "ad": 1427,
      "##eam": 1428,
      "##3A": 1429,
      "##ct": 1430,
      "em": 1431,
      "##F2": 1432,
      "##qe": 1433,
      "##utdo": 1434,
      "delay": 1435,
      "##per": 1436,
      "##4e": 1437,
      "3A15": 1438,
      "3Bwai": 1439,
      "3Bwaitfor": 1440,
      "##9A": 1441,
      "##1e": 1442,
      "##1n": 1443,
      "##2n": 1444,
      "zarauz": 1445,
      "estilos": 1446,
      "aa": 1447,
      "##eplace": 1448,
      "menum": 1449,
      "is": 1450,
      "ss": 1451,
      "##7e": 1452,
      "##tulo": 1453,
      "72": 1454,
      "94": 1455,
      "NT": 1456,
      "##of": 1457,
      "##6e": 1458,
      "##0n": 1459,
      "##wi": 1460,
      "oa": 1461,
      "##_str": 1462,
      "##oduc": 1463,
      "##yh": 1464,
      "##cd": 1465,
      "##gs": 1466,
      "##0D": 1467,
      "##Es": 1468,
      "titulo": 1469,
      "ogono": 1470,
      "##oductos": 1471,
      "##5e": 1472,
      "##6a": 1473,
      "##IN": 1474,
      "##tacc": 1475,
      "##ccess_": 1476,
      "##646": 1477,
      "WinNT": 1478,
      "53": 1479,
      "84": 1480,
      "##con": 1481,
      "##E8": 1482,
      "productos": 1483,
      "37": 1484,
      "fotos": 1485,
      "-/": 1486,
      "55": 1487,
      "##4n": 1488,
      "##date": 1489,
      "##style": 1490,
      "castro": 1491,
      "./": 1492,
      "89": 1493,
      "he": 1494,
      "na": 1495,
      "##E1": 1496,
      "##etwe": 1497,
      "##253": 1498,
      "79": 1499,
      "##727": 1500,
      "##window": 1501,
      "##amper": 1502,
      "##tacces": 1503,
      "45": 1504,
      "93": 1505,
      "##vo": 1506,
      "##xe": 1507,
      "##4A": 1508,
      "2BT": 1509,
      "41": 1510,
      "95": 1511,
      "ai": 1512,
      "ao": 1513,
      "##SIE": 1514,
      "MSIE": 1515,
      "eu": 1516,
      "pl": 1517,
      "##08": 1518,
      "##02": 1519,
      "##lir": 1520,
      "and": 1521,
      "2BTamper": 1522,
      "sr": 1523,
      "##pi": 1524,
      "##ze": 1525,
      "##104": 1526,
      "##ROM": 1527,
      "##ccess_log": 1528,
      "##yd": 1529,
      "##tT": 1530,
      "##jn": 1531,
      "##Ea": 1532,
      "##ECT": 1533,
      "::": 1534,
      "##ala": 1535,
      "##9n": 1536,
      "##uu": 1537,
      "##qn": 1538,
      "##gt": 1539,
      "##0F": 1540,
      "##ow": 1541,
      "##gh": 1542,
      "##B2": 1543,
      "##A1": 1544,
      "##bc": 1545,
      "##2s": 1546,
      "##6n": 1547,
      "##////////": 1548,
      "##vic": 1549,
      "##01": 1550,
      "##D6": 1551,
      "##ora": 1552,
      "253D": 1553,
      "16": 1554,
      "62": 1555,
      "##dl": 1556,
      "##uf": 1557,
      "##5s": 1558,
      "##5n": 1559,
      "##_c": 1560,
      "##etween": 1561,
      "##aw": 1562,
      "##ana": 1563,
      "11": 1564,
      "57": 1565,
      "83": 1566,
      "del": 1567,
      "##8n": 1568,
      "##6o": 1569,
      "ob": 1570,
      "##rI": 1571,
      "##ks": 1572,
      "##ody": 1573,
      "idA": 1574,
      "##..%": 1575,
      "ot": 1576,
      "##8a": 1577,
      "##ome": 1578,
      "##_stream": 1579,
      "io": 1580,
      "sc": 1581,
      "##D2": 1582,
      "##arc": 1583,
      "##290": 1584,
      "253F": 1585,
      "##ull": 1586,
      "B2A": 1587,
      "##7a": 1588,
      "##C7": 1589,
      "##3n": 1590,
      "##2t": 1591,
      "##gr": 1592,
      "##4t": 1593,
      "##D1": 1594,
      "54": 1595,
      "71": 1596,
      "rn": 1597,
      "##C6": 1598,
      "##F7": 1599,
      "##hm": 1600,
      "61": 1601,
      "ef": 1602,
      "ir": 1603,
      "##Ri": 1604,
      "##ara": 1605,
      "47": 1606,
      "system": 1607,
      "##lm": 1608,
      "##Oe": 1609,
      "##Te": 1610,
      "##del": 1611,
      "##_j": 1612,
      "##ki": 1613,
      "##autoexec": 1614,
      "##zo": 1615,
      "##qo": 1616,
      "##Ae": 1617,
      "##aving": 1618,
      "tf": 1619,
      "##cessing": 1620,
      "os": 1621,
      "##rad": 1622,
      "##2o": 1623,
      "eg": 1624,
      "ii": 1625,
      "nr": 1626,
      "##3r": 1627,
      "##all": 1628,
      "Win98": 1629,
      "##1s": 1630,
      "##F6": 1631,
      "##Tn": 1632,
      "##1t": 1633,
      "##0s": 1634,
      "##0E": 1635,
      "##kn": 1636,
      "##object": 1637,
      "salir": 1638,
      "FROM": 1639,
      "ja": 1640,
      "ra": 1641,
      "##9o": 1642,
      "##uel": 1643,
      "##ern": 1644,
      "##601": 1645,
      "##usr": 1646,
      "##hy": 1647,
      "##3o": 1648,
      "##fd": 1649,
      "##rop": 1650,
      "##/../..": 1651,
      "66": 1652,
      "##5o": 1653,
      "##bd": 1654,
      "##B6": 1655,
      "B1A": 1656,
      "##utdown": 1657,
      "##9s": 1658,
      "##8r": 1659,
      "##An": 1660,
      "##_5": 1661,
      "##Et": 1662,
      "##4s": 1663,
      "/.": 1664,
      "87": 1665,
      "tm": 1666,
      "td": 1667,
      "##zn": 1668,
      "##pan": 1669,
      "Mar": 1670,
      "ia": 1671,
      "nc": 1672,
      "##9a": 1673,
      "##vn": 1674,
      "3Anode": 1675,
      "250AS": 1676,
      "250ASet": 1677,
      "56": 1678,
      "##On": 1679,
      "##8s": 1680,
      "##1a": 1681,
      "##Er": 1682,
      "2Fc": 1683,
      "48": 1684,
      "oh": 1685,
      "##7s": 1686,
      "##js": 1687,
      "##4a": 1688,
      "92": 1689,
      "le": 1690,
      "##iw": 1691,
      "##name": 1692,
      "##5a": 1693,
      "##jt": 1694,
      "##ish": 1695,
      "2561": 1696,
      "##ifr": 1697,
      "##div": 1698,
      "##passth": 1699,
      "77": 1700,
      "eb": 1701,
      "ht": 1702,
      "##xt": 1703,
      "##0A": 1704,
      "##link": 1705,
      "##uy": 1706,
      "##5r": 1707,
      "##qt": 1708,
      "##cl": 1709,
      "##xy": 1710,
      "##Ne": 1711,
      "##arr": 1712,
      "errorMsgA": 1713,
      "52": 1714,
      "99": 1715,
      "##2a": 1716,
      "##xn": 1717,
      "##lic": 1718,
      "27http": 1719,
      "ep": 1720,
      "nsf": 1721,
      "##6s": 1722,
      "##xa": 1723,
      "00": 1724,
      "hz": 1725,
      "position": 1726,
      "##mm": 1727,
      "##hg": 1728,
      "##625": 1729,
      "09": 1730,
      "ni": 1731,
      "sd": 1732,
      "##Ar": 1733,
      "##Ei": 1734,
      "##ina": 1735,
      "hr": 1736,
      "##lf": 1737,
      "##3s": 1738,
      "##ero": 1739,
      "42": 1740,
      "58": 1741,
      "##7r": 1742,
      "##1r": 1743,
      "##In": 1744,
      "##inp": 1745,
      "##sound": 1746,
      "##F1": 1747,
      "dn": 1748,
      "ri": 1749,
      "##8o": 1750,
      "##1o": 1751,
      "##6r": 1752,
      "##Se": 1753,
      "##ers": 1754,
      "Cas": 1755,
      "cfm": 1756,
      "ls": 1757,
      "##Nn": 1758,
      "##Eo": 1759,
      "2FN": 1760,
      "path": 1761,
      "950": 1762,
      "si": 1763,
      "##3a": 1764,
      "##3t": 1765,
      "##623": 1766,
      "##xs": 1767,
      "##0t": 1768,
      "##0r": 1769,
      "##4r": 1770,
      "##....": 1771,
      "##lb": 1772,
      "##5t": 1773,
      "##RIPT": 1774,
      "##++++": 1775,
      "oo": 1776,
      "##C2": 1777,
      "##qr": 1778,
      "##vt": 1779,
      "##vices": 1780,
      "##7h": 1781,
      "##zs": 1782,
      "##qa": 1783,
      "##qs": 1784,
      "##2h": 1785,
      "##Ed": 1786,
      "##Rn": 1787,
      "##ascript": 1788,
      "##730": 1789,
      "23include": 1790,
      "Gu": 1791,
      "sun": 1792,
      "##wl": 1793,
      "##winnt": 1794,
      "##kr": 1795,
      "##eto": 1796,
      "##eee": 1797,
      "76": 1798,
      "##cu": 1799,
      "##0o": 1800,
      "##wm": 1801,
      "98": 1802,
      "Sol": 1803,
      "gre": 1804,
      "##Ta": 1805,
      "##hb": 1806,
      "##cp": 1807,
      "##6t": 1808,
      "##processing": 1809,
      "ks": 1810,
      "rs": 1811,
      "##9r": 1812,
      "##3h": 1813,
      "##xml": 1814,
      "##Ie": 1815,
      "##admin": 1816,
      "##cha": 1817,
      "au": 1818,
      "mo": 1819,
      "rr": 1820,
      "##jr": 1821,
      "##ack": 1822,
      "##ano": 1823,
      "2Fetc": 1824,
      "mdb": 1825,
      "##mg": 1826,
      "##lg": 1827,
      "##7o": 1828,
      "##qi": 1829,
      "##ji": 1830,
      "##ena": 1831,
      "Sun": 1832,
      "ey": 1833,
      "##C1": 1834,
      "##F8": 1835,
      "##err": 1836,
      "location": 1837,
      "##img": 1838,
      "##HERE": 1839,
      "sun4u": 1840,
      "SunOS": 1841,
      "874": 1842,
      "##bl": 1843,
      "##xo": 1844,
      "##nect": 1845,
      "##rew": 1846,
      "##ift": 1847,
      "##342": 1848,
      "05": 1849,
      "97": 1850,
      "##aris": 1851,
      "##lass": 1852,
      "##637": 1853,
      "##group": 1854,
      "78": 1855,
      "##Ts": 1856,
      "##qd": 1857,
      "##6d": 1858,
      "##fh": 1859,
      "##Ro": 1860,
      "from": 1861,
      "roman": 1862,
      "##yc": 1863,
      "##7t": 1864,
      "##7i": 1865,
      "##4o": 1866,
      "##ets": 1867,
      "asc": 1868,
      "hn": 1869,
      "##To": 1870,
      "##B8": 1871,
      "##B1": 1872,
      "##Ss": 1873,
      "##So": 1874,
      "##SCRIPT": 1875,
      "##land": 1876,
      "-<": 1877,
      "03": 1878,
      "86": 1879,
      "##8t": 1880,
      "##ile": 1881,
      "2529": 1882,
      "##term": 1883,
      "32": 1884,
      "36": 1885,
      "81": 1886,
      "ah": 1887,
      "hs": 1888,
      "nt": 1889,
      "oi": 1890,
      "##8i": 1891,
      "##8h": 1892,
      "##1i": 1893,
      "##echo": 1894,
      "2528": 1895,
      "1257": 1896,
      "51": 1897,
      "ac": 1898,
      "ev": 1899,
      "ucs": 1900,
      "##pl": 1901,
      "##3d": 1902,
      "##AR": 1903,
      "##234": 1904,
      "##9h": 1905,
      "##6i": 1906,
      "##NI": 1907,
      "##like": 1908,
      "rd": 1909,
      "##text": 1910,
      "##qh": 1911,
      "##gu": 1912,
      "##inser": 1913,
      "##eses": 1914,
      "##sock": 1915,
      "10646": 1916,
      "hi": 1917,
      "ln": 1918,
      "##mu": 1919,
      "##zi": 1920,
      "##Na": 1921,
      "82": 1922,
      "936": 1923,
      "cyr": 1924,
      "dll": 1925,
      "ho": 1926,
      "me": 1927,
      "rt": 1928,
      "tc": 1929,
      "##Tr": 1930,
      "##As": 1931,
      "##boot": 1932,
      "##fl": 1933,
      "##ftp": 1934,
      "##D8": 1935,
      "##ene": 1936,
      "##lan": 1937,
      "greek": 1938,
      "am": 1939,
      "heb": 1940,
      "tur": 1941,
      "##C8": 1942,
      "##zt": 1943,
      "##5i": 1944,
      "##4i": 1945,
      "##tin": 1946,
      "##imp": 1947,
      "##htpass": 1948,
      "ascii": 1949,
      "ih": 1950,
      "##pd": 1951,
      "##Sr": 1952,
      "##lib": 1953,
      "##amples": 1954,
      "ew": 1955,
      "winnt": 1956,
      "##Class": 1957,
      "##At": 1958,
      "##jh": 1959,
      "##Eh": 1960,
      "##kt": 1961,
      "2527": 1962,
      "2573": 1963,
      "##location": 1964,
      "aspx": 1965,
      "##zr": 1966,
      "##vr": 1967,
      "##Is": 1968,
      "##ell": 1969,
      "##update": 1970,
      "88": 1971,
      "96": 1972,
      "##9t": 1973,
      "##9i": 1974,
      "##Ti": 1975,
      "##1h": 1976,
      "##2d": 1977,
      "##0i": 1978,
      "##St": 1979,
      "2Fpasswd": 1980,
      "shift": 1981,
      "##_jis": 1982,
      "shift_jis": 1983,
      "##Or": 1984,
      "##1d": 1985,
      "##2r": 1986,
      "##cmd": 1987,
      "##gd": 1988,
      "##xh": 1989,
      "##Re": 1990,
      "##illic": 1991,
      "1251": 1992,
      "cyrillic": 1993,
      "swf": 1994,
      "tl": 1995,
      "##eset": 1996,
      "2570": 1997,
      "91": 1998,
      "nh": 1999,
      "tar": 2000,
      "##Oo": 2001,
      "##system": 2002,
      "##bu": 2003,
      "##LECT": 2004,
      "##form": 2005,
      "##lin": 2006,
      "hebrew": 2007,
      "##9d": 2008,
      "##zd": 2009,
      "##Aa": 2010,
      "##4h": 2011,
      "256E": 2012,
      "252E": 2013,
      "1258": 2014,
      "##wget": 2015,
      "##passthru": 2016,
      "##sock_stream": 2017,
      "31": 2018,
      "##6l": 2019,
      "##xr": 2020,
      "msp": 2021,
      "msf": 2022,
      "##He": 2023,
      "##Ad": 2024,
      "##0h": 2025,
      "##Nt": 2026,
      "##Io": 2027,
      "2Bdocument": 2028,
      "1250": 2029,
      "##orean": 2030,
      "japan": 2031,
      "Solaris": 2032,
      "japanese": 2033,
      "WHERE": 2034,
      "da": 2035,
      "korean": 2036,
      "tb": 2037,
      "##ql": 2038,
      "##vh": 2039,
      "##tan": 2040,
      "##res": 2041,
      "##tee": 2042,
      "##stdin": 2043,
      "bat": 2044,
      "isi": 2045,
      "##bri": 2046,
      "##enn": 2047
    }
  }
}