{
  "version": "1.0",
  "truncation": null,
  "padding": null,
  "added_tokens": [
    {
      "id": 0,
      "content": "[PAD]",
      "single_word": false,
      "lstrip": false,
      "rstrip": false,
      "normalized": false,
      "special": true
    },
    {
      "id": 1,
      "content": "[UNK]",
      "single_word": false,
      "lstrip": false,
      "rstrip": false,
      "normalized": false,
      "special": true
    },
    {
      "id": 2,
      "content": "[CLS]",
      "single_word": false,
      "lstrip": false,
      "rstrip": false,
      "normalized": false,
      "special": true
    },
    {
      "id": 3,
      "content": "[SEP]",
      "single_word": false,
      "lstrip": false,
      "rstrip": false,
      "normalized": false,
      "special": true
    },
    {
      "id": 4,
      "content": "[MASK]",
      "single_word": false,
      "lstrip": false,
      "rstrip": false,
      "normalized": false,
      "special": true
    }
  ],
  "normalizer": {
    "type": "NFKC"
  },
  "pre_tokenizer": {
    "type": "Whitespace"
  },
  "post_processor": null,
  "decoder": null,
  "model": {
    "type": "WordPiece",
    "unk_token": "[UNK]",
    "continuing_subword_prefix": "##",
    "max_input_chars_per_word": 100,
    "vocab": {
      "[PAD]": 0,
      "[UNK]": 1,
      "[CLS]": 2,
      "[SEP]": 3,
      "[MASK]": 4,
      "!": 5,
      "#": 6,
      "$": 7,
      "%": 8,
      "&": 9,
      "'": 10,
      "(": 11,
      ")": 12,
      "*": 13,
      "+": 14,
      ",": 15,
      "-": 16,
      ".": 17,
      "/": 18,
      "0": 19,
      "1": 20,
      "2": 21,
      "3": 22,
      "4": 23,
      "5": 24,
      "6": 25,
      "7": 26,
      "8": 27,
      "9": 28,
      ":": 29,
      ";": 30,
      "<": 31,
      "=": 32,
      ">": 33,
      "?": 34,
      "@": 35,
      "A": 36,
      "B": 37,
      "C": 38,
      "D": 39,
      "E": 40,
      "F": 41,
      "G": 42,
      "H": 43,
      "I": 44,
      "J": 45,
      "K": 46,
      "L": 47,
      "M": 48,
      "N": 49,
      "O": 50,
      "P": 51,
      "Q": 52,
      "R": 53,
      "S": 54,
      "T": 55,
      "U": 56,
      "V": 57,
      "W": 58,
      "X": 59,
      "Y": 60,
      "Z": 61,
      "[": 62,
      "\\": 63,
      "]": 64,
      "_": 65,
      "`": 66,
      "a": 67,
      "b": 68,
      "c": 69,
      "d": 70,
      "e": 71,
      "f": 72,
      "g": 73,
      "h": 74,
      "i": 75,
      "j": 76,
      "k": 77,
      "l": 78,
      "m": 79,
      "n": 80,
      "o": 81,
      "p": 82,
      "q": 83,
      "r": 84,
      "s": 85,
      "t": 86,
      "u": 87,
      "v": 88,
      "w": 89,
      "x": 90,
      "y": 91,
      "z": 92,
      "{": 93,
      "|": 94,
      "}": 95,
      "~": 96,
      "##s": 97,
      "##i": 98,
      "##v": 99,
      "##o": 100,
      "##t": 101,
      "##b": 102,
      "##w": 103,
      "##E": 104,
      "##0": 105,
      "##h": 106,
      "##n": 107,
      "##F": 108,
      "##Z": 109,
      "##m": 110,
      "##j": 111,
      "##e": 112,
      "##c": 113,
      "##l": 114,
      "##p": 115,
      "##a": 116,
      "##r": 117,
      "##u": 118,
      "##A": 119,
      "##H": 120,
      "##d": 121,
      "##q": 122,
      "##9": 123,
      "##7": 124,
      "##D": 125,
      "##I": 126,
      "##g": 127,
      "##z": 128,
      "##k": 129,
      "##M": 130,
      "##J": 131,
      "##S": 132,
      "##T": 133,
      "##3": 134,
      "##U": 135,
      "##G": 136,
      "##1": 137,
      "##6": 138,
      "##4": 139,
      "##8": 140,
      "##5": 141,
      "##x": 142,
      "##y": 143,
      "##2": 144,
      "##C": 145,
      "##B": 146,
      "##N": 147,
      "##W": 148,
      "##f": 149,
      "##V": 150,
      "##O": 151,
      "##P": 152,
      "##X": 153,
      "##Q": 154,
      "##R": 155,
      "##_": 156,
      "##L": 157,
      "##Y": 158,
      "##K": 159,
      "##<": 160,
      "##!": 161,
      "##-": 162,
      "###": 163,
      "##.": 164,
      "##/": 165,
      "##\\": 166,
      "##'": 167,
      "##;": 168,
      "##>": 169,
      "##(": 170,
      "##:": 171,
      "##[": 172,
      "##%": 173,
      "##?": 174,
      "##)": 175,
      "##@": 176,
      "##*": 177,
      "##~": 178,
      "##|": 179,
      "##+": 180,
      "##$": 181,
      "##&": 182,
      "##]": 183,
      "##,": 184,
      "##}": 185,
      "##{": 186,
      "##`": 187,
      "SE": 188,
      "SEP": 189,
      "##SC": 190,
      "##EQ": 191,
      "##SC_": 192,
      "ESC_": 193,
      "ESC_EQ": 194,
      "##on": 195,
      "##en": 196,
      "##er": 197,
      "##os": 198,
      "##ti": 199,
      "##ml": 200,
      "##ep": 201,
      "##cc": 202,
      "##ac": 203,
      "##ent": 204,
      "Con": 205,
      "##ag": 206,
      "##ept": 207,
      "##ccept": 208,
      "Accept": 209,
      "##LL": 210,
      "=<": 211,
      "NU": 212,
      "NULL": 213,
      "##tion": 214,
      "##he": 215,
      "##ca": 216,
      "##ost": 217,
      "##ache": 218,
      "##li": 219,
      "##et": 220,
      "##in": 221,
      "##ex": 222,
      "##ext": 223,
      "text": 224,
      "xml": 225,
      "##ec": 226,
      "##ar": 227,
      "##tent": 228,
      "Host": 229,
      "Content": 230,
      "ap": 231,
      "no": 232,
      "##la": 233,
      "##age": 234,
      "##ng": 235,
      "##cation": 236,
      "##pli": 237,
      "##plication": 238,
      "application": 239,
      "##uer": 240,
      "##ET": 241,
      "GET": 242,
      "cache": 243,
      "##tr": 244,
      "##od": 245,
      "##tf": 246,
      "##or": 247,
      "##tml": 248,
      "utf": 249,
      "##ad": 250,
      "##ie": 251,
      "##ta": 252,
      "##OS": 253,
      "##OST": 254,
      "POST": 255,
      "##ma": 256,
      "##tro": 257,
      "##il": 258,
      "##oo": 259,
      "##th": 260,
      "##EC": 261,
      "##ser": 262,
      "##pe": 263,
      "##le": 264,
      "##kie": 265,
      "##ookie": 266,
      "La": 267,
      "##ND": 268,
      "##set": 269,
      "##nec": 270,
      "##RI": 271,
      "##ata": 272,
      "##eth": 273,
      "##har": 274,
      "con": 275,
      "##ead": 276,
      "##eng": 277,
      "##rag": 278,
      "##TT": 279,
      "Ag": 280,
      "=/": 281,
      "##ype": 282,
      "##ngu": 283,
      "##uery": 284,
      "Char": 285,
      "##eader": 286,
      "##trol": 287,
      "Type": 288,
      "##ethod": 289,
      "##TTP": 290,
      "User": 291,
      "Connec": 292,
      "Cache": 293,
      "Cookie": 294,
      "Data": 295,
      "END": 296,
      "Header": 297,
      "HTTP": 298,
      "Leng": 299,
      "Method": 300,
      "Prag": 301,
      "Query": 302,
      "REC": 303,
      "URI": 304,
      "Langu": 305,
      "control": 306,
      "Agent": 307,
      "Charset": 308,
      "Connection": 309,
      "Length": 310,
      "Pragma": 311,
      "Language": 312,
      "##*;": 313,
      "lo": 314,
      "im": 315,
      "##om": 316,
      "##oz": 317,
      "##08": 318,
      "##illa": 319,
      "en": 320,
      "##*/": 321,
      "Moz": 322,
      "Mozilla": 323,
      "##pa": 324,
      "##ko": 325,
      "##los": 326,
      "Gec": 327,
      "Gecko": 328,
      "##lose": 329,
      "close": 330,
      "##da": 331,
      "com": 332,
      "##*/*;": 333,
      "image": 334,
      "##lh": 335,
      "##ke": 336,
      "##ble": 337,
      "##pati": 338,
      "compati": 339,
      "compatible": 340,
      "html": 341,
      "ti": 342,
      "##ux": 343,
      "png": 344,
      "li": 345,
      "Lin": 346,
      "##SI": 347,
      "Linux": 348,
      "##html": 349,
      "##quer": 350,
      "Kon": 351,
      "##queror": 352,
      "Konqueror": 353,
      "##SE": 354,
      "pla": 355,
      "##NI": 356,
      "plain": 357,
      "##TM": 358,
      "##080": 359,
      "like": 360,
      "##lhost": 361,
      "loca": 362,
      "localhost": 363,
      "KH": 364,
      "##SES": 365,
      "##ONI": 366,
      "*;": 367,
      ",*/*;": 368,
      "JSES": 369,
      "xhtml": 370,
      "##SIONI": 371,
      "##TML": 372,
      "KHTML": 373,
      "JSESSIONI": 374,
      "JSESSIONID": 375,
      "8080": 376,
      "##enda": 377,
      "tienda": 378,
      "tienda1": 379,
      "##sp": 380,
      "jsp": 381,
      "##++": 382,
      "##re": 383,
      "##is": 384,
      "##co": 385,
      "##es": 386,
      "##ww": 387,
      "www": 388,
      "##ub": 389,
      "25": 390,
      "##lico": 391,
      "pub": 392,
      "publico": 393,
      "##mb": 394,
      "##ed": 395,
      "##as": 396,
      "##eg": 397,
      "##an": 398,
      "2F": 399,
      "##el": 400,
      "##enc": 401,
      "27": 402,
      "##ri": 403,
      "##orm": 404,
      "##rl": 405,
      "##ia": 406,
      "B1": 407,
      "##io": 408,
      "##egis": 409,
      "##trar": 410,
      "+++": 411,
      "form": 412,
      "url": 413,
      "##oded": 414,
      "##encoded": 415,
      "urlencoded": 416,
      "##to": 417,
      "##al": 418,
      "pr": 419,
      "##ir": 420,
      "##25": 421,
      "##do": 422,
      "##te": 423,
      "##85": 424,
      "##odo": 425,
      "##ud": 426,
      "modo": 427,
      "##ni": 428,
      "29": 429,
      "##ee": 430,
      "log": 431,
      "##so": 432,
      "##11": 433,
      "28": 434,
      "##74": 435,
      "##tt": 436,
      "##63": 437,
      "40": 438,
      "##23": 439,
      "##64": 440,
      "##29": 441,
      "##mbre": 442,
      "nombre": 443,
      "##65": 444,
      "in": 445,
      "##eo": 446,
      "regis": 447,
      "registro": 448,
      "##27": 449,
      "login": 450,
      "##69": 451,
      "2C": 452,
      "##00": 453,
      "##tc": 454,
      "##am": 455,
      "##sw": 456,
      "car": 457,
      "##lo": 458,
      "3D": 459,
      "##15": 460,
      "##it": 461,
      "##ros": 462,
      "##13": 463,
      "##67": 464,
      "##ov": 465,
      "mie": 466,
      "##19": 467,
      "##mbros": 468,
      "miembros": 469,
      "##24": 470,
      "##09": 471,
      "##28": 472,
      "##04": 473,
      "##id": 474,
      ">%": 475,
      "##14": 476,
      "##68": 477,
      "##05": 478,
      "##if": 479,
      "##ws": 480,
      "##73": 481,
      "##03": 482,
      "cp": 483,
      "##78": 484,
      "##18": 485,
      "##inc": 486,
      "##ss": 487,
      "=*": 488,
      "3A": 489,
      "##75": 490,
      "##ion": 491,
      "=*;": 492,
      "##ea": 493,
      "##indo": 494,
      "##79": 495,
      "di": 496,
      "##22": 497,
      "##mail": 498,
      "##ut": 499,
      "##em": 500,
      "pas": 501,
      "##ra": 502,
      "ci": 503,
      "##ord": 504,
      "##enes": 505,
      "id": 506,
      "##lid": 507,
      "passw": 508,
      "##ro": 509,
      "##98": 510,
      "##agenes": 511,
      "imagenes": 512,
      "##38": 513,
      "##adir": 514,
      "##udad": 515,
      "dni": 516,
      "22": 517,
      "##ccion": 518,
      "ntc": 519,
      "##12": 520,
      "##34": 521,
      "5C": 522,
      "email": 523,
      "prov": 524,
      "password": 525,
      "apel": 526,
      "##reccion": 527,
      "##incia": 528,
      "direccion": 529,
      "ciudad": 530,
      "##lidos": 531,
      "provincia": 532,
      "apellidos": 533,
      "Regis": 534,
      "Registrar": 535,
      "##un": 536,
      "##ecio": 537,
      "precio": 538,
      "##indows": 539,
      "mac": 540,
      "##rito": 541,
      "##+%": 542,
      "carrito": 543,
      "##ve": 544,
      "##ic": 545,
      "##tn": 546,
      "##35": 547,
      "iso": 548,
      "##6F": 549,
      "##95": 550,
      "##45": 551,
      "##//": 552,
      "##tica": 553,
      "##60": 554,
      "##ts": 555,
      "rv": 556,
      "##48": 557,
      "an": 558,
      "##17": 559,
      "##eh": 560,
      "entrar": 561,
      "##D5": 562,
      "##ch": 563,
      "##39": 564,
      "##2F": 565,
      "gif": 566,
      "+%": 567,
      "##0A": 568,
      "##iar": 569,
      "##pt": 570,
      "##6C": 571,
      "##6E": 572,
      "##BC": 573,
      "##sh": 574,
      "3C": 575,
      "##eep": 576,
      ">'": 577,
      "##st": 578,
      "##sc": 579,
      "##BF": 580,
      "##07": 581,
      "##61": 582,
      "ali": 583,
      "##rr": 584,
      "##2A": 585,
      "##6D": 586,
      "##859": 587,
      "##6A": 588,
      "##ei": 589,
      "##BA": 590,
      "##sf": 591,
      "##aciar": 592,
      "keep": 593,
      "alive": 594,
      "##at": 595,
      "##B5": 596,
      "##BE": 597,
      "on": 598,
      "##49": 599,
      "3E": 600,
      "3B": 601,
      "ma": 602,
      "##3A": 603,
      "##B8": 604,
      "##DF": 605,
      "8859": 606,
      "##DC": 607,
      "##DA": 608,
      "##2E": 609,
      "or": 610,
      "jp": 611,
      "##0F": 612,
      "##1C": 613,
      "##uc": 614,
      "##99": 615,
      "##33": 616,
      "##1A": 617,
      "##2C": 618,
      "##DE": 619,
      "##1F": 620,
      "ed": 621,
      "##44": 622,
      "##D8": 623,
      "al": 624,
      "##sn": 625,
      "##ae": 626,
      "##77": 627,
      "F1": 628,
      "##ter": 629,
      "##20": 630,
      "##se": 631,
      "##3C": 632,
      "##ja": 633,
      "##wd": 634,
      "##58": 635,
      "##3E": 636,
      "2B": 637,
      "##tos": 638,
      "##0C": 639,
      "##ttp": 640,
      "+&": 641,
      "de": 642,
      "##nt": 643,
      "##ai": 644,
      "st": 645,
      "##um": 646,
      "##1E": 647,
      "##3F": 648,
      "##B4": 649,
      "##D9": 650,
      "/*;": 651,
      "##ao": 652,
      "##ne": 653,
      "##0E": 654,
      "/*": 655,
      "##B9": 656,
      "##sg": 657,
      "##tm": 658,
      "##ur": 659,
      "##7A": 660,
      "=*/": 661,
      "=*/*": 662,
      "windows": 663,
      "##.%": 664,
      "max": 665,
      "=*/*;": 666,
      "##D4": 667,
      "+++++": 668,
      "jpg": 669,
      "##62": 670,
      "##les": 671,
      "##7C": 672,
      "##88": 673,
      "##aa": 674,
      "##ge": 675,
      "125": 676,
      "##7F": 677,
      "##10": 678,
      "3F": 679,
      "##ho": 680,
      "##nn": 681,
      "##de": 682,
      "##7E": 683,
      "##55": 684,
      "##sert": 685,
      "##dad": 686,
      "##av": 687,
      "##ul": 688,
      "En": 689,
      "##si": 690,
      "##sr": 691,
      "##anti": 692,
      "##ript": 693,
      "##itar": 694,
      "##sa": 695,
      "editar": 696,
      "anadir": 697,
      "##no": 698,
      "##antidad": 699,
      "Mac": 700,
      "cantidad": 701,
      "##eme": 702,
      "##bal": 703,
      "##ue": 704,
      "##70": 705,
      "##32": 706,
      "##94": 707,
      "##uten": 708,
      "24": 709,
      "F1adir": 710,
      "##udio": 711,
      "##im": 712,
      "##red": 713,
      "auten": 714,
      "##ticar": 715,
      "autenticar": 716,
      "##mber": 717,
      "##au": 718,
      "##agar": 719,
      "audio": 720,
      "pwd": 721,
      "##oe": 722,
      "reme": 723,
      "remember": 724,
      "##6B": 725,
      "##ideo": 726,
      "insert": 727,
      "##ly": 728,
      "pagar": 729,
      "ch": 730,
      "80": 731,
      "Entrar": 732,
      "glo": 733,
      "video": 734,
      "##tu": 735,
      "global": 736,
      "++": 737,
      "##EE": 738,
      "7C": 739,
      "##AA": 740,
      "##ah": 741,
      "5D": 742,
      "##ol": 743,
      "##oi": 744,
      "##eb": 745,
      "##84": 746,
      "insertar": 747,
      "--": 748,
      "##me": 749,
      "##FF": 750,
      "##89": 751,
      "##ff": 752,
      "##na": 753,
      "##ht": 754,
      "23": 755,
      "tr": 756,
      "##md": 757,
      "##ild": 758,
      "##nd": 759,
      "##ii": 760,
      "##3D": 761,
      "++++": 762,
      "##54": 763,
      "##BB": 764,
      "##..": 765,
      "++%": 766,
      "##3n": 767,
      "##encia": 768,
      "##td": 769,
      "##ys": 770,
      "++++%": 771,
      "vaciar": 772,
      "##AC": 773,
      "##ore": 774,
      "##72": 775,
      "##66": 776,
      "##ticas": 777,
      "##acter": 778,
      "##acteris": 779,
      "caracteris": 780,
      "caracteristicas": 781,
      "+++%": 782,
      "##59": 783,
      "..%": 784,
      "##ob": 785,
      "##FC": 786,
      "##orr": 787,
      "##tas": 788,
      "##hp": 789,
      "##1D": 790,
      "##30": 791,
      "##ot": 792,
      "##nr": 793,
      "err": 794,
      "inc": 795,
      "##orM": 796,
      "##AE": 797,
      "##ih": 798,
      "##pen": 799,
      "if": 800,
      "##16": 801,
      "5B": 802,
      "errorM": 803,
      "errorMsg": 804,
      "##BD": 805,
      "##37": 806,
      "##oc": 807,
      "##0D": 808,
      "Windows": 809,
      "##AF": 810,
      "##go": 811,
      "##02": 812,
      "##ns": 813,
      "##nh": 814,
      "##A5": 815,
      "Vaciar": 816,
      "http": 817,
      "##tosh": 818,
      "##intosh": 819,
      "##exec": 820,
      "##ce": 821,
      "##ues": 822,
      "##CC": 823,
      "##script": 824,
      "##us": 825,
      "##gi": 826,
      "15": 827,
      "##EF": 828,
      "##E8": 829,
      "##36": 830,
      "##A8": 831,
      "##ess": 832,
      "##E5": 833,
      "##ll": 834,
      "##orrec": 835,
      "##E9": 836,
      "##1B": 837,
      "Cred": 838,
      "##enciales": 839,
      "incorrec": 840,
      "Credenciales": 841,
      "##oa": 842,
      "##A9": 843,
      "18": 844,
      "##we": 845,
      "##E4": 846,
      "##A4": 847,
      "##2D": 848,
      "incorrectas": 849,
      "##rn": 850,
      "ex": 851,
      "39": 852,
      "26": 853,
      "##ig": 854,
      "##sd": 855,
      "##oh": 856,
      "##tp": 857,
      "##tl": 858,
      "270": 859,
      "21": 860,
      "E9": 861,
      "://": 862,
      "##sm": 863,
      "##21": 864,
      "##01": 865,
      "##di": 866,
      "only": 867,
      "cached": 868,
      "##7D": 869,
      "##76": 870,
      "B2": 871,
      "sta": 872,
      "##06": 873,
      "es": 874,
      "##F5": 875,
      "ca": 876,
      "##child": 877,
      "##ha": 878,
      "##hn": 879,
      "##ect": 880,
      "##osi": 881,
      "19": 882,
      "##F4": 883,
      "##rt": 884,
      "##peg": 885,
      "##up": 886,
      "##F9": 887,
      "age": 888,
      "/*,": 889,
      "ee": 890,
      "##ing": 891,
      "##rc": 892,
      "store": 893,
      "fre": 894,
      "min": 895,
      "Win": 896,
      "##2B": 897,
      "sh": 898,
      "##mo": 899,
      "X11": 900,
      "##nc": 901,
      "##71": 902,
      "##F8": 903,
      "##ls": 904,
      "##7B": 905,
      "F3n": 906,
      "Mach": 907,
      "14": 908,
      "##////": 909,
      "##osition": 910,
      "fresh": 911,
      "Machintosh": 912,
      "##DD": 913,
      "##26": 914,
      "Pas": 915,
      "##3B": 916,
      ".%": 917,
      "##eu": 918,
      "##31": 919,
      "##0B": 920,
      "stale": 921,
      "##C8": 922,
      "##wn": 923,
      "##ru": 924,
      "##C5": 925,
      "##ld": 926,
      "##amp": 927,
      "##ef": 928,
      "##ansf": 929,
      "##ey": 930,
      "##rs": 931,
      "transf": 932,
      "transform": 933,
      "85": 934,
      "##hs": 935,
      "##ba": 936,
      "##iz": 937,
      "##mar": 938,
      "##UT": 939,
      "euc": 940,
      "##hi": 941,
      "##ln": 942,
      "##ua": 943,
      "##rm": 944,
      "##\\\\": 945,
      "##alle": 946,
      "##tem": 947,
      "##str": 948,
      "logo": 949,
      "##rd": 950,
      "##ame": 951,
      "##C9": 952,
      "##C4": 953,
      "##ph": 954,
      "##rh": 955,
      "##wh": 956,
      "##EA": 957,
      "##ument": 958,
      "##DB": 959,
      "por": 960,
      "##ert": 961,
      "##ino": 962,
      "##lt": 963,
      "co": 964,
      "##ev": 965,
      "sa": 966,
      "##net": 967,
      "##ui": 968,
      "##dex": 969,
      "caja": 970,
      "Pasar": 971,
      "##FE": 972,
      "20": 973,
      "Calle": 974,
      "fr": 975,
      "PUT": 976,
      "index": 977,
      "##ab": 978,
      "2Fchild": 979,
      "##hh": 980,
      "##PC": 981,
      "##anc": 982,
      "it": 983,
      "##http": 984,
      "##ye": 985,
      "##FA": 986,
      "##log": 987,
      "css": 988,
      "##ib": 989,
      "##tb": 990,
      "##cs": 991,
      "##fr": 992,
      "off": 993,
      "##ip": 994,
      "##ew": 995,
      "##43": 996,
      "##ds": 997,
      "##dn": 998,
      "##yr": 999,
      "##fir": 1000,
      "33": 1001,
      "##ystem": 1002,
      "OS": 1003,
      "##man": 1004,
      "##hr": 1005,
      "##ya": 1006,
      "##CE": 1007,
      "##50": 1008,
      "100": 1009,
      "17": 1010,
      "Confir": 1011,
      "Confirmar": 1012,
      "##83": 1013,
      "##CF": 1014,
      "##CA": 1015,
      "cookie": 1016,
      "##uo": 1017,
      "##aros": 1018,
      "er": 1019,
      "##ED": 1020,
      "--%": 1021,
      "##40": 1022,
      "2574": 1023,
      "##cn": 1024,
      "##dr": 1025,
      "##yn": 1026,
      "ED": 1027,
      "##ek": 1028,
      "##dt": 1029,
      "##AD": 1030,
      "48": 1031,
      "##ap": 1032,
      "##db": 1033,
      "PPC": 1034,
      "De": 1035,
      "##lr": 1036,
      "##doc": 1037,
      "##mn": 1038,
      "*%": 1039,
      "##position": 1040,
      "##93": 1041,
      "##yo": 1042,
      "##za": 1043,
      "ro": 1044,
      "##ps": 1045,
      "##uh": 1046,
      ">+": 1047,
      "Rio": 1048,
      "php": 1049,
      "et": 1050,
      "##AB": 1051,
      "##lud": 1052,
      "##FB": 1053,
      "##FD": 1054,
      "##NT": 1055,
      "7E": 1056,
      "##be": 1057,
      "##47": 1058,
      "jpeg": 1059,
      "##ga": 1060,
      "##4C": 1061,
      "##document": 1062,
      "##mt": 1063,
      "##pass": 1064,
      "cmd": 1065,
      "##fe": 1066,
      "2563": 1067,
      "org": 1068,
      "eo": 1069,
      "10": 1070,
      "69": 1071,
      "34": 1072,
      "38": 1073,
      "Rioja": 1074,
      "Al": 1075,
      "##va": 1076,
      "##ide": 1077,
      "##etc": 1078,
      "##ty": 1079,
      "##anche": 1080,
      "##unt": 1081,
      "asp": 1082,
      "##ay": 1083,
      "##fo": 1084,
      "##tg": 1085,
      "sc": 1086,
      "Ib": 1087,
      "og": 1088,
      "ini": 1089,
      "##EB": 1090,
      "##hd": 1091,
      "##wf": 1092,
      "##97": 1093,
      "##su": 1094,
      "##lac": 1095,
      "##87": 1096,
      "##57": 1097,
      "##53": 1098,
      "##1n": 1099,
      "##innt": 1100,
      "##wa": 1101,
      "Vino": 1102,
      "##PT": 1103,
      "##ona": 1104,
      "##bo": 1105,
      "##ci": 1106,
      "##ode": 1107,
      "net": 1108,
      "##ms": 1109,
      "##mp": 1110,
      "253A": 1111,
      "Manche": 1112,
      "Ques": 1113,
      "te": 1114,
      "##rico": 1115,
      "exe": 1116,
      "##oot": 1117,
      "Manchego": 1118,
      "ea": 1119,
      "Jam": 1120,
      "256F": 1121,
      "##alert": 1122,
      "##eta": 1123,
      "##sl": 1124,
      "##lay": 1125,
      "San": 1126,
      "##ez": 1127,
      "##dh": 1128,
      "##mi": 1129,
      "##yle": 1130,
      "##pas": 1131,
      "##8E": 1132,
      "##0a": 1133,
      "##wt": 1134,
      "##includ": 1135,
      "##../": 1136,
      "##SD": 1137,
      "+++++%": 1138,
      "##py": 1139,
      "74": 1140,
      "##iv": 1141,
      "##wr": 1142,
      "##hl": 1143,
      "##ck": 1144,
      "##fm": 1145,
      "E9rico": 1146,
      "##pro": 1147,
      "##8A": 1148,
      "##RO": 1149,
      "##wg": 1150,
      "##nl": 1151,
      "##9C": 1152,
      "##min": 1153,
      "##ct": 1154,
      "##ete": 1155,
      "##iu": 1156,
      "##91": 1157,
      "##ati": 1158,
      "##..%": 1159,
      "open": 1160,
      "##B3": 1161,
      "##5C": 1162,
      "##p_": 1163,
      "##9E": 1164,
      "kr": 1165,
      "##96": 1166,
      "Queso": 1167,
      "##passw": 1168,
      "##92": 1169,
      "##8C": 1170,
      "to": 1171,
      "##4E": 1172,
      "##B7": 1173,
      "be": 1174,
      "##5E": 1175,
      "##bs": 1176,
      "##cat": 1177,
      "43": 1178,
      "##F3": 1179,
      "count": 1180,
      "44": 1181,
      "ad": 1182,
      "##D3": 1183,
      "##fa": 1184,
      "##ere": 1185,
      "bin": 1186,
      "##82": 1187,
      "35": 1188,
      "##rab": 1189,
      "##wo": 1190,
      "##4A": 1191,
      "##80": 1192,
      "##2e": 1193,
      "##ft": 1194,
      "##fn": 1195,
      "##ono": 1196,
      "##era": 1197,
      "2569": 1198,
      "\\\\": 1199,
      "##90": 1200,
      "2565": 1201,
      "ae": 1202,
      "cn": 1203,
      "asf": 1204,
      "75": 1205,
      "##bg": 1206,
      "##ject": 1207,
      "##81": 1208,
      "##yt": 1209,
      "ar": 1210,
      "##jo": 1211,
      "eh": 1212,
      "##men": 1213,
      "##ada": 1214,
      "##und": 1215,
      "wide": 1216,
      "##D7": 1217,
      "##eplac": 1218,
      "gb": 1219,
      "se": 1220,
      "##41": 1221,
      "##386": 1222,
      "ta": 1223,
      "##42": 1224,
      "##nk": 1225,
      "##po": 1226,
      "##indow": 1227,
      "ne": 1228,
      "##dd": 1229,
      "##8F": 1230,
      "##////////": 1231,
      "cgi": 1232,
      "##mh": 1233,
      "##9A": 1234,
      "##56": 1235,
      "ce": 1236,
      "##pn": 1237,
      "ei": 1238,
      "##bt": 1239,
      "##cr": 1240,
      "oe": 1241,
      "##mr": 1242,
      "##toexec": 1243,
      "la": 1244,
      "##ug": 1245,
      "..": 1246,
      "68": 1247,
      "fo": 1248,
      "##ick": 1249,
      "##bi": 1250,
      "qu": 1251,
      "tn": 1252,
      "##46": 1253,
      "chin": 1254,
      "##oi8": 1255,
      "el": 1256,
      "js": 1257,
      "##wp": 1258,
      "##ak": 1259,
      "##passwd": 1260,
      "uk": 1261,
      "##4F": 1262,
      "##--": 1263,
      "##og": 1264,
      "##52": 1265,
      "##586": 1266,
      "49": 1267,
      "##erra": 1268,
      "##D2": 1269,
      "##fs": 1270,
      "##Ee": 1271,
      "##elect": 1272,
      "koi8": 1273,
      "th": 1274,
      "2022": 1275,
      "arab": 1276,
      "wav": 1277,
      "5Bposition": 1278,
      "##123": 1279,
      "##86": 1280,
      "Open": 1281,
      "tw": 1282,
      "us": 1283,
      "arabic": 1284,
      "##bn": 1285,
      "##A3": 1286,
      "##qu": 1287,
      "##and": 1288,
      "BSD": 1289,
      "##vi": 1290,
      "##bin": 1291,
      "##gn": 1292,
      "##0d": 1293,
      "59": 1294,
      "252F": 1295,
      "men": 1296,
      "re": 1297,
      "cz": 1298,
      "htm": 1299,
      "##B0": 1300,
      "i386": 1301,
      "tt": 1302,
      "##je": 1303,
      "##9F": 1304,
      "i586": 1305,
      "##ou": 1306,
      "##yi": 1307,
      "##time": 1308,
      "2e": 1309,
      "84": 1310,
      "pa": 1311,
      "ts": 1312,
      "##5F": 1313,
      "##B2": 1314,
      "bas": 1315,
      "##br": 1316,
      "65": 1317,
      "sn": 1318,
      "##wai": 1319,
      "##gt": 1320,
      "##lir": 1321,
      "##icktime": 1322,
      "quicktime": 1323,
      "()": 1324,
      "67": 1325,
      "##C3": 1326,
      "zar": 1327,
      "E1": 1328,
      "##nion": 1329,
      "cas": 1330,
      "##E3": 1331,
      "##include": 1332,
      "13": 1333,
      "##tel": 1334,
      "##node": 1335,
      "##qe": 1336,
      "##vb": 1337,
      "##lc": 1338,
      "##af": 1339,
      "##9e": 1340,
      "##CD": 1341,
      "##4u": 1342,
      "Val": 1343,
      "##9D": 1344,
      "##5A": 1345,
      "menum": 1346,
      "##wi": 1347,
      "##104": 1348,
      "##8D": 1349,
      "##ccess": 1350,
      "##4D": 1351,
      "##auz": 1352,
      "63": 1353,
      "##Paros": 1354,
      "250A": 1355,
      "ogono": 1356,
      "##lu": 1357,
      "##din": 1358,
      "##7e": 1359,
      "58": 1360,
      "titu": 1361,
      "##ese": 1362,
      "3A0": 1363,
      "titulo": 1364,
      "ec": 1365,
      "##gr": 1366,
      "##2n": 1367,
      "so": 1368,
      "##025": 1369,
      "##pr": 1370,
      "basic": 1371,
      "##E0": 1372,
      "as": 1373,
      "instr": 1374,
      "ns": 1375,
      "##gro": 1376,
      "##1e": 1377,
      "##tfor": 1378,
      "##essing": 1379,
      "instruc": 1380,
      "64": 1381,
      "##RE": 1382,
      "zarauz": 1383,
      "instruction": 1384,
      "##6e": 1385,
      "##5e": 1386,
      "##var": 1387,
      "##hc": 1388,
      "##8e": 1389,
      "he": 1390,
      "##4B": 1391,
      "3A15": 1392,
      "3Bwai": 1393,
      "delay": 1394,
      "3Bwaitfor": 1395,
      "198": 1396,
      "mpeg": 1397,
      "##../../": 1398,
      "46": 1399,
      "##En": 1400,
      "##ka": 1401,
      "45": 1402,
      "gov": 1403,
      "##E7": 1404,
      "##amper": 1405,
      "72": 1406,
      "ie": 1407,
      "##4e": 1408,
      "##itos": 1409,
      "2BT": 1410,
      "##uestr": 1411,
      "at": 1412,
      "##cd": 1413,
      "##3e": 1414,
      "##8B": 1415,
      "##yd": 1416,
      "2BTamper": 1417,
      "##hm": 1418,
      "##nm": 1419,
      "##jt": 1420,
      "##pi": 1421,
      "##yl": 1422,
      "##rip": 1423,
      "##utdo": 1424,
      "##E2": 1425,
      "##0e": 1426,
      "##727": 1427,
      "##6a": 1428,
      "253C": 1429,
      "253E": 1430,
      "esti": 1431,
      "##window": 1432,
      "##Set": 1433,
      "##xe": 1434,
      "estilos": 1435,
      "shtml": 1436,
      "##fi": 1437,
      "salir": 1438,
      "io": 1439,
      "nuestr": 1440,
      "td": 1441,
      "##atierra": 1442,
      "nuestratierra": 1443,
      "-/": 1444,
      "60": 1445,
      "95": 1446,
      "cred": 1447,
      "em": 1448,
      "ot": 1449,
      "##374": 1450,
      "##yh": 1451,
      "idA": 1452,
      "##per": 1453,
      "castro": 1454,
      "##ccess_": 1455,
      "55": 1456,
      "##Ea": 1457,
      "##A7": 1458,
      "##gs": 1459,
      "##zo": 1460,
      "2522": 1461,
      "creditos": 1462,
      "11": 1463,
      "biz": 1464,
      "nn": 1465,
      "ai": 1466,
      "##7a": 1467,
      "253D": 1468,
      "83": 1469,
      "##tmp": 1470,
      "sr": 1471,
      "##A0": 1472,
      "##A2": 1473,
      "fotos": 1474,
      "del": 1475,
      "##bh": 1476,
      "05": 1477,
      "73": 1478,
      "ao": 1479,
      "##Es": 1480,
      "##ody": 1481,
      "78": 1482,
      "by": 1483,
      "88": 1484,
      "B2A": 1485,
      "##Te": 1486,
      "##etwe": 1487,
      "##tacc": 1488,
      "aa": 1489,
      "##style": 1490,
      "71": 1491,
      "##bul": 1492,
      "##lm": 1493,
      "##625": 1494,
      "##_c": 1495,
      "child": 1496,
      "12": 1497,
      "##nu": 1498,
      "##ala": 1499,
      "##9s": 1500,
      "##CB": 1501,
      "##oduc": 1502,
      "##640": 1503,
      "##oductos": 1504,
      "9x": 1505,
      "##_str": 1506,
      "##ccess_log": 1507,
      "47": 1508,
      "is": 1509,
      "os": 1510,
      "./": 1511,
      "##613": 1512,
      "##eplace": 1513,
      "89": 1514,
      "cmen": 1515,
      "ia": 1516,
      "##9B": 1517,
      "##IN": 1518,
      "productos": 1519,
      "##autoexec": 1520,
      "##tacces": 1521,
      "cmenbul": 1522,
      "08": 1523,
      "94": 1524,
      "##Er": 1525,
      "##eam": 1526,
      "##9n": 1527,
      "##fh": 1528,
      "##ana": 1529,
      "F3": 1530,
      "##F7": 1531,
      "##D0": 1532,
      "##ze": 1533,
      "##51": 1534,
      "##fd": 1535,
      "Win98": 1536,
      "##--%": 1537,
      "##cript": 1538,
      "##8t": 1539,
      "##5a": 1540,
      "62": 1541,
      "##9o": 1542,
      "##gh": 1543,
      "57": 1544,
      "##1o": 1545,
      "##4t": 1546,
      "##8a": 1547,
      "##5B": 1548,
      "##ero": 1549,
      "##601": 1550,
      "##etween": 1551,
      "98": 1552,
      "eu": 1553,
      "na": 1554,
      "##wl": 1555,
      "##2s": 1556,
      "tiff": 1557,
      "and": 1558,
      "##..\\\\": 1559,
      "oo": 1560,
      "##vo": 1561,
      "##ks": 1562,
      "##all": 1563,
      "pl": 1564,
      "##0n": 1565,
      "##9a": 1566,
      "WinNT": 1567,
      "@/": 1568,
      "##Et": 1569,
      "##HE": 1570,
      "##zn": 1571,
      "##rop": 1572,
      "##F2": 1573,
      "##qt": 1574,
      "##ara": 1575,
      "##ish": 1576,
      "##646": 1577,
      "##278": 1578,
      "ss": 1579,
      "system": 1580,
      "##Eo": 1581,
      "##Ne": 1582,
      "250ASet": 1583,
      "##jn": 1584,
      "##1r": 1585,
      "##xt": 1586,
      "##C0": 1587,
      "##Ri": 1588,
      "79": 1589,
      "MSI": 1590,
      "##bd": 1591,
      "##hu": 1592,
      "##qn": 1593,
      "##6s": 1594,
      "253F": 1595,
      "MSIE": 1596,
      "ht": 1597,
      "##Ed": 1598,
      "##cu": 1599,
      "##1a": 1600,
      "##jr": 1601,
      "41": 1602,
      "nr": 1603,
      "##ers": 1604,
      "53": 1605,
      "##iy": 1606,
      "##7n": 1607,
      "##6n": 1608,
      "##8n": 1609,
      "##ull": 1610,
      "##bc": 1611,
      "##0o": 1612,
      "##_5": 1613,
      "NT": 1614,
      "ks": 1615,
      "oa": 1616,
      "##vic": 1617,
      "##qo": 1618,
      "##Se": 1619,
      "##ROM": 1620,
      "##kt": 1621,
      "37": 1622,
      "##8o": 1623,
      "##C7": 1624,
      "errorMsgA": 1625,
      "42": 1626,
      "nsf": 1627,
      "##4n": 1628,
      "2561": 1629,
      "##object": 1630,
      "##_stream": 1631,
      "50": 1632,
      "##Ei": 1633,
      "##cp": 1634,
      "##cessing": 1635,
      "##6o": 1636,
      "##4r": 1637,
      "##arr": 1638,
      "##utdown": 1639,
      "si": 1640,
      "##mu": 1641,
      "##ki": 1642,
      "##1t": 1643,
      "##5n": 1644,
      "##xa": 1645,
      "3Anode": 1646,
      "##aving": 1647,
      "70": 1648,
      "##name": 1649,
      "##Ie": 1650,
      "##3a": 1651,
      "##ena": 1652,
      "##ina": 1653,
      "09": 1654,
      "ra": 1655,
      "##js": 1656,
      "##pd": 1657,
      "##rad": 1658,
      "##5D": 1659,
      "##date": 1660,
      "ah": 1661,
      "ih": 1662,
      "##0t": 1663,
      "##rI": 1664,
      "##xml": 1665,
      "##_j": 1666,
      "61": 1667,
      "sd": 1668,
      "##E6": 1669,
      "##ECT": 1670,
      "hz": 1671,
      "##del": 1672,
      "##3o": 1673,
      "##5s": 1674,
      "##fl": 1675,
      "##arc": 1676,
      "##wu": 1677,
      "##An": 1678,
      "##8r": 1679,
      "##5o": 1680,
      "##xy": 1681,
      "##ftp": 1682,
      "##RIPT": 1683,
      "##235": 1684,
      "54": 1685,
      "##A6": 1686,
      "##4a": 1687,
      "##5r": 1688,
      "##2t": 1689,
      "93": 1690,
      "rn": 1691,
      "##bl": 1692,
      "##uel": 1693,
      "##9t": 1694,
      "le": 1695,
      "##vt": 1696,
      "##vn": 1697,
      "##qs": 1698,
      "##xo": 1699,
      "##yc": 1700,
      "99": 1701,
      "::": 1702,
      "Cas": 1703,
      "ir": 1704,
      "##qa": 1705,
      "##6t": 1706,
      "##6r": 1707,
      "91": 1708,
      "ob": 1709,
      "##1s": 1710,
      "2Fc": 1711,
      "cfm": 1712,
      "eg": 1713,
      "##winnt": 1714,
      "##put": 1715,
      "##ora": 1716,
      "##ifr": 1717,
      "##5t": 1718,
      "##xs": 1719,
      "##lic": 1720,
      "##img": 1721,
      "##div": 1722,
      "ni": 1723,
      "##789": 1724,
      "82": 1725,
      "##pan": 1726,
      "FROM": 1727,
      "gre": 1728,
      "ii": 1729,
      "rr": 1730,
      "##0s": 1731,
      "##hy": 1732,
      "##7o": 1733,
      "##zs": 1734,
      "##B6": 1735,
      "##Oe": 1736,
      "##land": 1737,
      "30": 1738,
      "77": 1739,
      "me": 1740,
      "##bu": 1741,
      "##F1": 1742,
      "##D1": 1743,
      "##kn": 1744,
      "##4s": 1745,
      "##4o": 1746,
      "##C2": 1747,
      "##onnec": 1748,
      "##ome": 1749,
      "2Fetc": 1750,
      "52": 1751,
      "66": 1752,
      "87": 1753,
      "ja": 1754,
      "##qh": 1755,
      "##3t": 1756,
      "ef": 1757,
      "##dc": 1758,
      "##Tn": 1759,
      "##342": 1760,
      "Ar": 1761,
      "position": 1762,
      "##E1": 1763,
      "##mc": 1764,
      "##A1": 1765,
      "##Sn": 1766,
      "##3r": 1767,
      "##xn": 1768,
      "250D": 1769,
      "2FN": 1770,
      "##cha": 1771,
      "tl": 1772,
      "##F0": 1773,
      "##2i": 1774,
      "##eto": 1775,
      "##..\\\\..\\\\": 1776,
      "92": 1777,
      "##uu": 1778,
      "##3s": 1779,
      "##SCRIPT": 1780,
      "##sound": 1781,
      "##location": 1782,
      "Mar": 1783,
      "##boot": 1784,
      "##wm": 1785,
      "##7i": 1786,
      "##4i": 1787,
      "##yu": 1788,
      "##2a": 1789,
      "##amples": 1790,
      "nh": 1791,
      "##wc": 1792,
      "##pu": 1793,
      "##7r": 1794,
      "950": 1795,
      "##D6": 1796,
      "##gd": 1797,
      "path": 1798,
      "au": 1799,
      "nt": 1800,
      "##xp_": 1801,
      "##echo": 1802,
      "##admin": 1803,
      "253": 1804,
      "##290": 1805,
      "ls": 1806,
      "rs": 1807,
      "ri": 1808,
      "##ym": 1809,
      "27http": 1810,
      "/.": 1811,
      "hn": 1812,
      "tm": 1813,
      "##Ae": 1814,
      "##Ar": 1815,
      "##qr": 1816,
      "##St": 1817,
      "../": 1818,
      "86": 1819,
      "AND": 1820,
      "##F6": 1821,
      "##9d": 1822,
      "##It": 1823,
      "##zr": 1824,
      "##Th": 1825,
      "##325": 1826,
      "##8s": 1827,
      "##5i": 1828,
      "##B1": 1829,
      "##err": 1830,
      "##055": 1831,
      "asc": 1832,
      "hr": 1833,
      "mo": 1834,
      "##system": 1835,
      "##9r": 1836,
      "##2h": 1837,
      "##No": 1838,
      "##Ra": 1839,
      "##ets": 1840,
      "##++%": 1841,
      "90": 1842,
      "936": 1843,
      "Sol": 1844,
      "nc": 1845,
      "##ida": 1846,
      "##pc": 1847,
      "##7t": 1848,
      "##kr": 1849,
      "##xh": 1850,
      "##2o": 1851,
      "##2r": 1852,
      "##On": 1853,
      "221": 1854,
      "##term": 1855,
      "932": 1856,
      "tur": 1857,
      "winnt": 1858,
      "##vs": 1859,
      "##dl": 1860,
      "##Nn": 1861,
      "B1A": 1862,
      "##vices": 1863,
      "sun": 1864,
      "##0r": 1865,
      "##6d": 1866,
      "from": 1867,
      "874": 1868,
      "dll": 1869,
      "ey": 1870,
      "rt": 1871,
      "##063": 1872,
      "##qi": 1873,
      "##Ia": 1874,
      "##aris": 1875,
      "##rew": 1876,
      "##passth": 1877,
      "32": 1878,
      "ho": 1879,
      "##Eh": 1880,
      "##Sa": 1881,
      "##Ro": 1882,
      "##lib": 1883,
      "##processing": 1884,
      "56": 1885,
      "##link": 1886,
      "##ascript": 1887,
      "greek": 1888,
      "97": 1889,
      "Sun": 1890,
      "##jh": 1891,
      "##from": 1892,
      "##lb": 1893,
      "##7h": 1894,
      "##gu": 1895,
      "##To": 1896,
      "##1i": 1897,
      "##1h": 1898,
      "##Re": 1899,
      "##ano": 1900,
      "##imp": 1901,
      "16": 1902,
      "76": 1903,
      "ew": 1904,
      "ha": 1905,
      "oi": 1906,
      "##In": 1907,
      "##zt": 1908,
      "##C6": 1909,
      "##eses": 1910,
      "2529": 1911,
      "2573": 1912,
      "oh": 1913,
      "##pl": 1914,
      "##9h": 1915,
      "##gl": 1916,
      "##Tr": 1917,
      "2570": 1918,
      "sun4u": 1919,
      "SunOS": 1920,
      "81": 1921,
      "do": 1922,
      "##8i": 1923,
      "##fc": 1924,
      "##ern": 1925,
      "##ack": 1926,
      "2528": 1927,
      "ascii": 1928,
      "##Ts": 1929,
      "256E": 1930,
      "252E": 1931,
      "1987": 1932,
      "31": 1933,
      "36": 1934,
      "doc": 1935,
      "tar": 1936,
      "##du": 1937,
      "##Is": 1938,
      "##6i": 1939,
      "##xr": 1940,
      "2527": 1941,
      "##730": 1942,
      "##_c_5": 1943,
      "ks_c_5": 1944,
      "ks_c_5601": 1945,
      "-<": 1946,
      "##At": 1947,
      "##dm": 1948,
      "##Ss": 1949,
      "##So": 1950,
      "##Sr": 1951,
      "##Ti": 1952,
      "##Ta": 1953,
      "##3i": 1954,
      "##sock": 1955,
      "##htpass": 1956,
      "eb": 1957,
      "location": 1958,
      "2Fpasswd": 1959,
      "##64011": 1960,
      "cyr": 1961,
      "ln": 1962,
      "##vl": 1963,
      "##text": 1964,
      "##gc": 1965,
      "##kish": 1966,
      "##Nt": 1967,
      "##eee": 1968,
      "##1264011": 1969,
      "##stdin": 1970,
      "1254": 1971,
      "##1041264011": 1972,
      "##025374": 1973,
      "253D1041264011": 1974,
      "turkish": 1975,
      "##025374727": 1976,
      "253D1041264011025374727": 1977,
      "><": 1978,
      "isi": 1979,
      "ucs": 1980,
      "##vr": 1981,
      "##ji": 1982,
      "##7s": 1983,
      "##enn": 1984,
      "macintosh": 1985,
      "1257": 1986,
      "1252": 1987,
      "##orean": 1988,
      "##group": 1989,
      "96": 1990,
      "korean": 1991,
      "msp": 1992,
      "user": 1993,
      "##He": 1994,
      "##Rr": 1995,
      "roman": 1996,
      "10646": 1997,
      "ice": 1998,
      "swf": 1999,
      "##As": 2000,
      "##qd": 2001,
      "##zi": 2002,
      "##Tt": 2003,
      "##4h": 2004,
      "##C1": 2005,
      "##HERE": 2006,
      "rtf": 2007,
      "##cl": 2008,
      "##5h": 2009,
      "##form": 2010,
      "aspx": 2011,
      "mspx": 2012,
      "hs": 2013,
      "mdb": 2014,
      "od": 2015,
      "##vh": 2016,
      "##between": 2017,
      "##mm": 2018,
      "##3h": 2019,
      "##8h": 2020,
      "##Ns": 2021,
      "##Oa": 2022,
      "##ON": 2023,
      "04": 2024,
      "heb": 2025,
      "##Ao": 2026,
      "##Aa": 2027,
      "##765": 2028,
      "##ente": 2029,
      "##lan": 2030,
      "##tee": 2031,
      "chineses": 2032,
      "chinesesimp": 2033,
      "ms": 2034,
      "msf": 2035,
      "##body": 2036,
      "##0h": 2037,
      "##uf": 2038,
      "##6h": 2039,
      "##Rn": 2040,
      "##ene": 2041,
      "##like": 2042,
      "##las": 2043,
      "##ile": 2044,
      "##illic": 2045,
      "##ell": 2046,
      "##ift": 2047
    }
  }
}