{
  "version": "1.0",
  "truncation": null,
  "padding": null,
  "added_tokens": [
    {
      "id": 0,
      "content": "[PAD]",
      "single_word": false,
      "lstrip": false,
      "rstrip": false,
      "normalized": false,
      "special": true
    },
    {
      "id": 1,
      "content": "[UNK]",
      "single_word": false,
      "lstrip": false,
      "rstrip": false,
      "normalized": false,
      "special": true
    },
    {
      "id": 2,
      "content": "[CLS]",
      "single_word": false,
      "lstrip": false,
      "rstrip": false,
      "normalized": false,
      "special": true
    },
    {
      "id": 3,
      "content": "[SEP]",
      "single_word": false,
      "lstrip": false,
      "rstrip": false,
      "normalized": false,
      "special": true
    },
    {
      "id": 4,
      "content": "[MASK]",
      "single_word": false,
      "lstrip": false,
      "rstrip": false,
      "normalized": false,
      "special": true
    }
  ],
  "normalizer": {
    "type": "NFKC"
  },
  "pre_tokenizer": {
    "type": "Whitespace"
  },
  "post_processor": null,
  "decoder": null,
  "model": {
    "type": "WordPiece",
    "unk_token": "[UNK]",
    "continuing_subword_prefix": "##",
    "max_input_chars_per_word": 100,
    "vocab": {
      "[PAD]": 0,
      "[UNK]": 1,
      "[CLS]": 2,
      "[SEP]": 3,
      "[MASK]": 4,
      "&": 5,
      "(": 6,
      ")": 7,
      "-": 8,
      ".": 9,
      "0": 10,
      "1": 11,
      "2": 12,
      "3": 13,
      "4": 14,
      "5": 15,
      "6": 16,
      "7": 17,
      "8": 18,
      "9": 19,
      "<": 20,
      "=": 21,
      ">": 22,
      "A": 23,
      "B": 24,
      "C": 25,
      "D": 26,
      "E": 27,
      "F": 28,
      "G": 29,
      "H": 30,
      "I": 31,
      "J": 32,
      "L": 33,
      "M": 34,
      "N": 35,
      "O": 36,
      "P": 37,
      "R": 38,
      "S": 39,
      "T": 40,
      "U": 41,
      "V": 42,
      "W": 43,
      "Y": 44,
      "a": 45,
      "b": 46,
      "c": 47,
      "d": 48,
      "e": 49,
      "f": 50,
      "g": 51,
      "h": 52,
      "i": 53,
      "k": 54,
      "l": 55,
      "m": 56,
      "n": 57,
      "o": 58,
      "p": 59,
      "r": 60,
      "s": 61,
      "t": 62,
      "u": 63,
      "v": 64,
      "w": 65,
      "x": 66,
      "y": 67,
      "##8": 68,
      "##5": 69,
      "##7": 70,
      "##1": 71,
      "##4": 72,
      "##3": 73,
      "##9": 74,
      "##6": 75,
      "##2": 76,
      "##0": 77,
      "##o": 78,
      "##r": 79,
      "##c": 80,
      "##e": 81,
      "##s": 82,
      "##u": 83,
      "##t": 84,
      "##l": 85,
      "##y": 86,
      "##i": 87,
      "##n": 88,
      "##g": 89,
      "##a": 90,
      "##h": 91,
      "##p": 92,
      "##m": 93,
      "##d": 94,
      "##U": 95,
      "##L": 96,
      "##v": 97,
      "##S": 98,
      "##N": 99,
      "##D": 100,
      "##b": 101,
      "##V": 102,
      "##I": 103,
      "##f": 104,
      "##w": 105,
      "##E": 106,
      "##P": 107,
      "##F": 108,
      "##k": 109,
      "##<": 110,
      "##C": 111,
      "##x": 112,
      "SE": 113,
      "SEP": 114,
      "##at": 115,
      "##ati": 116,
      "##it": 117,
      "##al": 118,
      "##on": 119,
      "##ation": 120,
      "##ital": 121,
      "##ou": 122,
      "##ss": 123,
      "##er": 124,
      "##ed": 125,
      "##ap": 126,
      "##du": 127,
      "cap": 128,
      "edu": 129,
      "##cation": 130,
      "capital": 131,
      "education": 132,
      "##ar": 133,
      "##tat": 134,
      "##ri": 135,
      "##us": 136,
      "##or": 137,
      "##ac": 138,
      "mar": 139,
      "##el": 140,
      "##hi": 141,
      "##ge": 142,
      "##ai": 143,
      "##ale": 144,
      "##sp": 145,
      "##ve": 146,
      "##la": 147,
      "##shi": 148,
      "rel": 149,
      "##ative": 150,
      "##up": 151,
      "##ex": 152,
      "##nt": 153,
      "hou": 154,
      "Un": 155,
      "##um": 156,
      "##ee": 157,
      "wor": 158,
      "work": 159,
      "EN": 160,
      "RE": 161,
      "age": 162,
      "cou": 163,
      "fn": 164,
      "native": 165,
      "num": 166,
      "oc": 167,
      "rac": 168,
      "stat": 169,
      "sex": 170,
      "##oss": 171,
      "##ry": 172,
      "##rsp": 173,
      "##cla": 174,
      "##cup": 175,
      "##lw": 176,
      "##loss": 177,
      "##gt": 178,
      "##gai": 179,
      "##wee": 180,
      "##ationshi": 181,
      "##erwee": 182,
      "capitalloss": 183,
      "capitalgai": 184,
      "marital": 185,
      "relationshi": 186,
      "##ntry": 187,
      "hoursp": 188,
      "workcla": 189,
      "END": 190,
      "REC": 191,
      "country": 192,
      "fnlw": 193,
      "occup": 194,
      "race": 195,
      "status": 196,
      "##erweek": 197,
      "capitalgain": 198,
      "relationship": 199,
      "hoursperweek": 200,
      "workclass": 201,
      "fnlwgt": 202,
      "occupation": 203,
      "Stat": 204,
      "State": 205,
      "##ried": 206,
      "##ited": 207,
      "United": 208,
      "States": 209,
      "Wh": 210,
      "##ite": 211,
      "White": 212,
      "##an": 213,
      "##ate": 214,
      "Pri": 215,
      "Priv": 216,
      "Private": 217,
      "Male": 218,
      "sp": 219,
      "##iv": 220,
      "##arried": 221,
      "##se": 222,
      "Married": 223,
      "##ouse": 224,
      "spouse": 225,
      "civ": 226,
      "##and": 227,
      "##ra": 228,
      "in": 229,
      "Hus": 230,
      "##band": 231,
      "Husband": 232,
      "##ot": 233,
      "Fe": 234,
      "##male": 235,
      "Female": 236,
      "Ne": 237,
      "##ver": 238,
      "Never": 239,
      "married": 240,
      "HS": 241,
      "gra": 242,
      "grad": 243,
      "##ec": 244,
      "##th": 245,
      "10": 246,
      "##mi": 247,
      "##le": 248,
      "##ly": 249,
      "Not": 250,
      "fa": 251,
      "##mily": 252,
      "family": 253,
      "##ial": 254,
      "##ol": 255,
      "##ic": 256,
      "So": 257,
      "col": 258,
      "##me": 259,
      "##lege": 260,
      "Some": 261,
      "college": 262,
      "13": 263,
      "##oc": 264,
      "##ov": 265,
      "Pr": 266,
      "Bac": 267,
      "##hel": 268,
      "##ors": 269,
      "Bachel": 270,
      "Bachelors": 271,
      "##hil": 272,
      "##ep": 273,
      "##ler": 274,
      "Ow": 275,
      "chil": 276,
      "Own": 277,
      "child": 278,
      "##dm": 279,
      "##of": 280,
      "Prof": 281,
      "##ther": 282,
      "Other": 283,
      "##orc": 284,
      "Div": 285,
      "##orced": 286,
      "Divorced": 287,
      "gov": 288,
      "=<": 289,
      "NU": 290,
      "##LL": 291,
      "NULL": 292,
      "##ana": 293,
      "##ty": 294,
      "spec": 295,
      "##ialty": 296,
      "specialty": 297,
      "Cra": 298,
      "rep": 299,
      "##ft": 300,
      "##air": 301,
      "Craft": 302,
      "repair": 303,
      "11": 304,
      "ser": 305,
      "serv": 306,
      "Ex": 307,
      "mana": 308,
      "##ger": 309,
      "Exec": 310,
      "manager": 311,
      "managerial": 312,
      "##ng": 313,
      "Adm": 314,
      "cler": 315,
      "##ical": 316,
      "clerical": 317,
      "Sel": 318,
      "em": 319,
      "inc": 320,
      "Self": 321,
      "emp": 322,
      "Sale": 323,
      "Sales": 324,
      "##married": 325,
      "Unmarried": 326,
      "##ice": 327,
      "service": 328,
      "##ers": 329,
      "Bl": 330,
      "##ack": 331,
      "Black": 332,
      "14": 333,
      "12": 334,
      "##ort": 335,
      "not": 336,
      "Wi": 337,
      "Ass": 338,
      "Assoc": 339,
      "##ne": 340,
      "Loc": 341,
      "Local": 342,
      "Mac": 343,
      "op": 344,
      "##ct": 345,
      "##hine": 346,
      "##spct": 347,
      "inspct": 348,
      "Machine": 349,
      "##st": 350,
      "16": 351,
      "18": 352,
      "15": 353,
      "19": 354,
      "Ma": 355,
      "##sters": 356,
      "Masters": 357,
      "17": 358,
      "##ran": 359,
      "##nd": 360,
      "##ing": 361,
      "Tran": 362,
      "mov": 363,
      "##sport": 364,
      "Transport": 365,
      "moving": 366,
      "##fe": 367,
      "Wife": 368,
      "20": 369,
      "Hand": 370,
      "cle": 371,
      "##aners": 372,
      "##lers": 373,
      "Handlers": 374,
      "cleaners": 375,
      "voc": 376,
      "##ian": 377,
      "##91": 378,
      "11th": 379,
      "##30": 380,
      "##land": 381,
      "##68": 382,
      "##21": 383,
      "21": 384,
      "##78": 385,
      "##54": 386,
      "##24": 387,
      "##58": 388,
      "##38": 389,
      "##28": 390,
      "##61": 391,
      "##20": 392,
      "##64": 393,
      "##31": 394,
      "ac": 395,
      "acdm": 396,
      "##90": 397,
      "##51": 398,
      "##34": 399,
      "##60": 400,
      "##94": 401,
      "##27": 402,
      "##98": 403,
      "Sep": 404,
      "##ated": 405,
      "##arated": 406,
      "Separated": 407,
      "Far": 408,
      "fi": 409,
      "##shing": 410,
      "##ming": 411,
      "Farming": 412,
      "fishing": 413,
      "##37": 414,
      "As": 415,
      "Is": 416,
      "Pac": 417,
      "##lander": 418,
      "Asian": 419,
      "Islander": 420,
      "##50": 421,
      "##ow": 422,
      "##dow": 423,
      "Widow": 424,
      "Widowed": 425,
      "relative": 426,
      "##67": 427,
      "Tec": 428,
      "sup": 429,
      "##57": 430,
      "##port": 431,
      "Tech": 432,
      "support": 433,
      "Fed": 434,
      "##eral": 435,
      "Federal": 436,
      "10th": 437,
      "##97": 438,
      "24": 439,
      "##26": 440,
      "##ico": 441,
      "##53": 442,
      "##56": 443,
      "##59": 444,
      "##29": 445,
      "##11": 446,
      "##74": 447,
      "##23": 448,
      "##ti": 449,
      "##otec": 450,
      "Protec": 451,
      "##tive": 452,
      "Protective": 453,
      "##70": 454,
      "7th": 455,
      "8th": 456,
      "##ool": 457,
      "##ch": 458,
      "##chool": 459,
      "Mex": 460,
      "Mexico": 461,
      "##63": 462,
      "28": 463,
      "##01": 464,
      "##69": 465,
      "##71": 466,
      "##41": 467,
      "school": 468,
      "##33": 469,
      "##22": 470,
      "##08": 471,
      "##48": 472,
      "##66": 473,
      "##55": 474,
      "9th": 475,
      "##77": 476,
      "##39": 477,
      "##04": 478,
      "34": 479,
      "##99": 480,
      "##25": 481,
      "31": 482,
      "##88": 483,
      "##00": 484,
      "12th": 485,
      "ab": 486,
      "##sent": 487,
      "absent": 488,
      "Ind": 489,
      "Doc": 490,
      "##tor": 491,
      "Doctor": 492,
      "Doctorate": 493,
      "##36": 494,
      "##81": 495,
      "##79": 496,
      "##44": 497,
      "##52": 498,
      "##76": 499,
      "30": 500,
      "##96": 501,
      "##32": 502,
      "5th": 503,
      "6th": 504,
      "##40": 505,
      "##35": 506,
      "Am": 507,
      "Es": 508,
      "##im": 509,
      "##kim": 510,
      "Indian": 511,
      "Amer": 512,
      "Eskim": 513,
      "Eskimo": 514,
      "##62": 515,
      "##95": 516,
      "##80": 517,
      "##93": 518,
      "22": 519,
      "##92": 520,
      "23": 521,
      "##65": 522,
      "##47": 523,
      "##10": 524,
      "##18": 525,
      "##14": 526,
      "##84": 527,
      "27": 528,
      "##07": 529,
      "##83": 530,
      "##46": 531,
      "##49": 532,
      "##09": 533,
      "##87": 534,
      "##03": 535,
      "##43": 536,
      "##75": 537,
      "##15": 538,
      "##73": 539,
      "##82": 540,
      "##72": 541,
      "##02": 542,
      "25": 543,
      "##89": 544,
      "26": 545,
      "##06": 546,
      "##19": 547,
      "##85": 548,
      "##17": 549,
      "Phil": 550,
      "##05": 551,
      "##ip": 552,
      "##ine": 553,
      "##pine": 554,
      "Philip": 555,
      "##pines": 556,
      "Philippines": 557,
      "##ia": 558,
      "##86": 559,
      "##45": 560,
      "##42": 561,
      "##13": 562,
      "##16": 563,
      "29": 564,
      "##ad": 565,
      "##12": 566,
      "1st": 567,
      "4th": 568,
      "##ub": 569,
      "house": 570,
      "37": 571,
      "32": 572,
      "##am": 573,
      "33": 574,
      "35": 575,
      "##ador": 576,
      "Ger": 577,
      "##man": 578,
      "German": 579,
      "Germany": 580,
      "38": 581,
      "Cana": 582,
      "##da": 583,
      "Canada": 584,
      "224": 585,
      "Pu": 586,
      "Rico": 587,
      "##to": 588,
      "##erto": 589,
      "Puerto": 590,
      "174": 591,
      "36": 592,
      "40": 593,
      "El": 594,
      "Sal": 595,
      "##vador": 596,
      "Salvador": 597,
      "220": 598,
      "India": 599,
      "227": 600,
      "39": 601,
      "188": 602,
      "Cub": 603,
      "Cuba": 604,
      "41": 605,
      "221": 606,
      "231": 607,
      "228": 608,
      "238": 609,
      "191": 610,
      "230": 611,
      "117": 612,
      "187": 613,
      "197": 614,
      "234": 615,
      "Chi": 616,
      "Eng": 617,
      "##na": 618,
      "China": 619,
      "England": 620,
      "190": 621,
      "177": 622,
      "Sou": 623,
      "200": 624,
      "South": 625,
      "180": 626,
      "278": 627,
      "298": 628,
      "178": 629,
      "268": 630,
      "258": 631,
      "250": 632,
      "Gu": 633,
      "181": 634,
      "254": 635,
      "44": 636,
      "204": 637,
      "It": 638,
      "##aly": 639,
      "Italy": 640,
      "257": 641,
      "Do": 642,
      "Rep": 643,
      "##lic": 644,
      "##nic": 645,
      "##minic": 646,
      "154": 647,
      "##ublic": 648,
      "Dominic": 649,
      "Republic": 650,
      "Dominican": 651,
      "274": 652,
      "334": 653,
      "Jam": 654,
      "##ca": 655,
      "##aica": 656,
      "157": 657,
      "214": 658,
      "Jamaica": 659,
      "108": 660,
      "111": 661,
      "182": 662,
      "101": 663,
      "184": 664,
      "270": 665,
      "118": 666,
      "194": 667,
      "##277": 668,
      "237": 669,
      "201": 670,
      "308": 671,
      "##es": 672,
      "176": 673,
      "341": 674,
      "168": 675,
      "198": 676,
      "226": 677,
      "98": 678,
      "Jap": 679,
      "##385": 680,
      "Japan": 681,
      "##358": 682,
      "148": 683,
      "124": 684,
      "199": 685,
      "##215": 686,
      "260": 687,
      "##ug": 688,
      "196": 689,
      "175": 690,
      "##246": 691,
      "291": 692,
      "47": 693,
      "104": 694,
      "141": 695,
      "170": 696,
      "271": 697,
      "Col": 698,
      "##bia": 699,
      "##umbia": 700,
      "164": 701,
      "162": 702,
      "##232": 703,
      "Columbia": 704,
      "261": 705,
      "251": 706,
      "331": 707,
      "48": 708,
      "##ce": 709,
      "138": 710,
      "149": 711,
      "161": 712,
      "211": 713,
      "##949": 714,
      "328": 715,
      "##mal": 716,
      "##atemal": 717,
      "116": 718,
      "192": 719,
      "##945": 720,
      "Guatemal": 721,
      "Guatemala": 722,
      "311": 723,
      "Pres": 724,
      "Preschool": 725,
      "264": 726,
      "290": 727,
      "321": 728,
      "171": 729,
      "267": 730,
      "54": 731,
      "110": 732,
      "##781": 733,
      "##789": 734,
      "##540": 735,
      "301": 736,
      "Vi": 737,
      "##oland": 738,
      "##et": 739,
      "##nam": 740,
      "Viet": 741,
      "Vietnam": 742,
      "Poland": 743,
      "147": 744,
      "120": 745,
      "51": 746,
      "169": 747,
      "160": 748,
      "##211": 749,
      "##240": 750,
      "##ag": 751,
      "144": 752,
      "165": 753,
      "163": 754,
      "150": 755,
      "172": 756,
      "158": 757,
      "207": 758,
      "236": 759,
      "320": 760,
      "186": 761,
      "208": 762,
      "##307": 763,
      "99": 764,
      "Ha": 765,
      "##iti": 766,
      "102": 767,
      "183": 768,
      "173": 769,
      "##342": 770,
      "Haiti": 771,
      "297": 772,
      "337": 773,
      "348": 774,
      "Port": 775,
      "121": 776,
      "209": 777,
      "##917": 778,
      "##242": 779,
      "##986": 780,
      "##ugal": 781,
      "Portugal": 782,
      "256": 783,
      "304": 784,
      "106": 785,
      "126": 786,
      "##912": 787,
      "##310": 788,
      "##604": 789,
      "##675": 790,
      "107": 791,
      "103": 792,
      "189": 793,
      "##647": 794,
      "##948": 795,
      "##943": 796,
      "##262": 797,
      "##593": 798,
      "50": 799,
      "128": 800,
      "##372": 801,
      "229": 802,
      "277": 803,
      "330": 804,
      "43": 805,
      "140": 806,
      "123": 807,
      "##302": 808,
      "##683": 809,
      "##583": 810,
      "##271": 811,
      "##504": 812,
      "##571": 813,
      "42": 814,
      "105": 815,
      "151": 816,
      "179": 817,
      "210": 818,
      "##200": 819,
      "##640": 820,
      "##608": 821,
      "##983": 822,
      "##374": 823,
      "##509": 824,
      "##570": 825,
      "##539": 826,
      "223": 827,
      "370": 828,
      "45": 829,
      "991": 830,
      "Tai": 831,
      "##wan": 832,
      "155": 833,
      "##218": 834,
      "##541": 835,
      "##542": 836,
      "##386": 837,
      "##613": 838,
      "##908": 839,
      "##373": 840,
      "##266": 841,
      "##569": 842,
      "Taiwan": 843,
      "294": 844,
      "263": 845,
      "137": 846,
      "114": 847,
      "129": 848,
      "122": 849,
      "166": 850,
      "##304": 851,
      "##306": 852,
      "##584": 853,
      "##618": 854,
      "##616": 855,
      "##900": 856,
      "##343": 857,
      "##985": 858,
      "##508": 859,
      "91": 860,
      "132": 861,
      "112": 862,
      "195": 863,
      "##916": 864,
      "##308": 865,
      "##686": 866,
      "##580": 867,
      "##612": 868,
      "##609": 869,
      "338": 870,
      "##351": 871,
      "100": 872,
      "218": 873,
      "216": 874,
      "##313": 875,
      "##379": 876,
      "##574": 877,
      "##572": 878,
      "##566": 879,
      "##596": 880,
      "61": 881,
      "131": 882,
      "115": 883,
      "206": 884,
      "##681": 885,
      "##216": 886,
      "##786": 887,
      "##615": 888,
      "##643": 889,
      "##646": 890,
      "##317": 891,
      "##671": 892,
      "248": 893,
      "##533": 894,
      "##565": 895,
      "##235": 896,
      "##696": 897,
      "##995": 898,
      "94": 899,
      "Iran": 900,
      "127": 901,
      "167": 902,
      "1691": 903,
      "185": 904,
      "159": 905,
      "##910": 906,
      "##210": 907,
      "##283": 908,
      "##282": 909,
      "##280": 910,
      "##614": 911,
      "##610": 912,
      "##601": 913,
      "##272": 914,
      "##665": 915,
      "Hon": 916,
      "##915": 917,
      "##680": 918,
      "219": 919,
      "##546": 920,
      "##248": 921,
      "##579": 922,
      "##975": 923,
      "##296": 924,
      "358": 925,
      "143": 926,
      "205": 927,
      "##303": 928,
      "##688": 929,
      "##243": 930,
      "##384": 931,
      "##901": 932,
      "##942": 933,
      "240": 934,
      "##535": 935,
      "340": 936,
      "222": 937,
      "##684": 938,
      "##689": 939,
      "##287": 940,
      "##206": 941,
      "##318": 942,
      "##605": 943,
      "##506": 944,
      "##973": 945,
      "##263": 946,
      "##592": 947,
      "233": 948,
      "##309": 949,
      "##212": 950,
      "##784": 951,
      "##319": 952,
      "##907": 953,
      "##902": 954,
      "##603": 955,
      "##600": 956,
      "##984": 957,
      "##980": 958,
      "##674": 959,
      "247": 960,
      "287": 961,
      "87": 962,
      "142": 963,
      "152": 964,
      "193": 965,
      "202": 966,
      "##682": 967,
      "##219": 968,
      "##549": 969,
      "##387": 970,
      "##611": 971,
      "##510": 972,
      "##946": 973,
      "##940": 974,
      "##982": 975,
      "##269": 976,
      "##236": 977,
      "##632": 978,
      "119": 979,
      "1430": 980,
      "##914": 981,
      "##543": 982,
      "##644": 983,
      "##905": 984,
      "##344": 985,
      "##606": 986,
      "##944": 987,
      "##672": 988,
      "##573": 989,
      "241": 990,
      "##532": 991,
      "##562": 992,
      "##599": 993,
      "##635": 994,
      "##699": 995,
      "351": 996,
      "374": 997,
      "300": 998,
      "46": 999,
      "Nic": 1000,
      "##ua": 1001,
      "##arag": 1002,
      "153": 1003,
      "203": 1004,
      "##918": 1005,
      "215": 1006,
      "213": 1007,
      "212": 1008,
      "##785": 1009,
      "##548": 1010,
      "##245": 1011,
      "##589": 1012,
      "##586": 1013,
      "##388": 1014,
      "##381": 1015,
      "##382": 1016,
      "##203": 1017,
      "##312": 1018,
      "##276": 1019,
      "##501": 1020,
      "249": 1021,
      "##666": 1022,
      "Nicarag": 1023
    }
  }
}