{
  "version": "1.0",
  "truncation": null,
  "padding": null,
  "added_tokens": [
    {
      "id": 0,
      "content": "[PAD]",
      "single_word": false,
      "lstrip": false,
      "rstrip": false,
      "normalized": false,
      "special": true
    },
    {
      "id": 1,
      "content": "[UNK]",
      "single_word": false,
      "lstrip": false,
      "rstrip": false,
      "normalized": false,
      "special": true
    },
    {
      "id": 2,
      "content": "[CLS]",
      "single_word": false,
      "lstrip": false,
      "rstrip": false,
      "normalized": false,
      "special": true
    },
    {
      "id": 3,
      "content": "[SEP]",
      "single_word": false,
      "lstrip": false,
      "rstrip": false,
      "normalized": false,
      "special": true
    },
    {
      "id": 4,
      "content": "[MASK]",
      "single_word": false,
      "lstrip": false,
      "rstrip": false,
      "normalized": false,
      "special": true
    }
  ],
  "normalizer": {
    "type": "NFKC"
  },
  "pre_tokenizer": {
    "type": "Whitespace"
  },
  "post_processor": null,
  "decoder": null,
  "model": {
    "type": "Unigram",
    "unk_id": null,
    "vocab": [
      [
        "[PAD]",
        0.0
      ],
      [
        "[UNK]",
        0.0
      ],
      [
        "[CLS]",
        0.0
      ],
      [
        "[SEP]",
        0.0
      ],
      [
        "[MASK]",
        0.0
      ],
      [
        "<",
        -2.58192793577928
      ],
      [
        ">",
        -2.584943938448305
      ],
      [
        "=",
        -3.2305313122980053
      ],
      [
        "SEP",
        -3.288243624169221
      ],
      [
        "-",
        -3.2944833813981873
      ],
      [
        "E",
        -3.359317928838772
      ],
      [
        "/",
        -3.4938346252245225
      ],
      [
        ".",
        -3.554144126496082
      ],
      [
        "SC_",
        -3.640052513056009
      ],
      [
        "EQ",
        -3.6407769579210516
      ],
      [
        "0",
        -3.913800743800362
      ],
      [
        ";",
        -4.035240571985701
      ],
      [
        "5",
        -4.082790234350691
      ],
      [
        ",",
        -4.130508891202577
      ],
      [
        "C",
        -4.239612942417057
      ],
      [
        "8",
        -4.363291369424379
      ],
      [
        "q",
        -4.382853482270255
      ],
      [
        "A",
        -4.405753069511963
      ],
      [
        "1",
        -4.479107540104971
      ],
      [
        "L",
        -4.529661095543144
      ],
      [
        "&",
        -4.738722018342649
      ],
      [
        "T",
        -4.777156350778011
      ],
      [
        "3",
        -4.793335596343267
      ],
      [
        "%",
        -4.871392976787284
      ],
      [
        "ccept",
        -4.89385913539072
      ],
      [
        "NUL",
        -4.959280082586302
      ],
      [
        "P",
        -4.98606994889996
      ],
      [
        "a",
        -5.054758754738549
      ],
      [
        "x",
        -5.061508652476107
      ],
      [
        "9",
        -5.156856095604214
      ],
      [
        "e",
        -5.1666647006861215
      ],
      [
        "text",
        -5.194319985829676
      ],
      [
        "xml",
        -5.215270675480861
      ],
      [
        "t",
        -5.2232828636942
      ],
      [
        "+",
        -5.2916340371697235
      ],
      [
        "n",
        -5.301418370715384
      ],
      [
        "ontent",
        -5.302704569264995
      ],
      [
        "Host",
        -5.303081197749135
      ],
      [
        "no",
        -5.391881328636961
      ],
      [
        "application",
        -5.431302075244851
      ],
      [
        "GE",
        -5.449740620156202
      ],
      [
        "o",
        -5.473811177401476
      ],
      [
        "(",
        -5.4773316558711205
      ],
      [
        ")",
        -5.4824304775263695
      ],
      [
        "cache",
        -5.502149191640374
      ],
      [
        "H",
        -5.602953094991559
      ],
      [
        "html",
        -5.606006246078326
      ],
      [
        "utf",
        -5.62048074595417
      ],
      [
        "M",
        -5.6217889346448295
      ],
      [
        "OST",
        -5.785058566722151
      ],
      [
        "2",
        -5.871106666415798
      ],
      [
        "*",
        -5.89214199562821
      ],
      [
        "K",
        -5.944163855718394
      ],
      [
        "age",
        -5.955780702854163
      ],
      [
        "ion",
        -5.981131910360828
      ],
      [
        "set",
        -5.982393213148777
      ],
      [
        "ND",
        -5.98532860292714
      ],
      [
        "con",
        -5.987578761628921
      ],
      [
        "ype",
        -5.992745161855575
      ],
      [
        "ache",
        -5.992996440992826
      ],
      [
        "Pr",
        -5.993247140917841
      ],
      [
        "ookie",
        -5.994429721033292
      ],
      [
        "gth",
        -5.994943185945441
      ],
      [
        "trol",
        -5.995729595801942
      ],
      [
        "eader",
        -5.995866187932231
      ],
      [
        "Connect",
        -5.995914196758333
      ],
      [
        "angu",
        -5.995974468592237
      ],
      [
        "Char",
        -5.996067260705972
      ],
      [
        "agma",
        -5.996119514807429
      ],
      [
        "Query",
        -5.996164140872786
      ],
      [
        "URI",
        -5.996214523481738
      ],
      [
        "ethod",
        -5.99621512227038
      ],
      [
        "Agent",
        -5.996264317567183
      ],
      [
        "User",
        -5.996276226487543
      ],
      [
        "REC",
        -5.996351790367431
      ],
      [
        "HTT",
        -5.996369195931361
      ],
      [
        "Dat",
        -6.00119847243818
      ],
      [
        "4",
        -6.005688767067976
      ],
      [
        "Len",
        -6.006189192449073
      ],
      [
        "7",
        -6.007630910992887
      ],
      [
        "en",
        -6.033173415770639
      ],
      [
        ":",
        -6.042010953834415
      ],
      [
        "6",
        -6.087500472003708
      ],
      [
        "image",
        -6.105875191914468
      ],
      [
        "illa",
        -6.130693942265022
      ],
      [
        "D",
        -6.136371397208212
      ],
      [
        "Moz",
        -6.1505406826465645
      ],
      [
        "ko",
        -6.160668580492956
      ],
      [
        "Gec",
        -6.192302015201193
      ],
      [
        "clos",
        -6.202946267971537
      ],
      [
        "r",
        -6.222858696777452
      ],
      [
        "p",
        -6.226843343955199
      ],
      [
        "s",
        -6.228746959934414
      ],
      [
        "c",
        -6.275637878507419
      ],
      [
        "ible",
        -6.276647980860384
      ],
      [
        "compa",
        -6.27756834006693
      ],
      [
        "*/*",
        -6.2851984586455885
      ],
      [
        "png",
        -6.292089722084587
      ],
      [
        "ror",
        -6.301241393490757
      ],
      [
        "Linu",
        -6.305912310632788
      ],
      [
        "like",
        -6.305918139271082
      ],
      [
        "onque",
        -6.309053501540825
      ],
      [
        "plai",
        -6.310744468708801
      ],
      [
        "ID",
        -6.317407482397217
      ],
      [
        "JS",
        -6.321970916438101
      ],
      [
        "ION",
        -6.323577419409471
      ],
      [
        "loca",
        -6.324618261891933
      ],
      [
        "lhost",
        -6.32475861132176
      ],
      [
        "KHT",
        -6.324942798505186
      ],
      [
        "ESS",
        -6.325011901563025
      ],
      [
        "8080",
        -6.330715235218246
      ],
      [
        "ML",
        -6.341966167100118
      ],
      [
        "tienda",
        -6.356721198712094
      ],
      [
        "i",
        -6.482286226769798
      ],
      [
        "S",
        -6.486359966183468
      ],
      [
        "jsp",
        -6.558700750443407
      ],
      [
        "N",
        -6.57491057828595
      ],
      [
        "l",
        -6.644219826475307
      ],
      [
        "g",
        -6.6512231648188695
      ],
      [
        "U",
        -6.704608985700359
      ],
      [
        "h",
        -6.7734531969585845
      ],
      [
        "d",
        -6.77925561072473
      ],
      [
        "www",
        -6.79199216877692
      ],
      [
        "B",
        -6.8111717368684666
      ],
      [
        "F",
        -6.861318238028314
      ],
      [
        "public",
        -6.878480417509982
      ],
      [
        "G",
        -6.912848336543256
      ],
      [
        "W",
        -6.927897749165821
      ],
      [
        "ed",
        -6.943106075725092
      ],
      [
        "2F",
        -6.953060343541676
      ],
      [
        "R",
        -6.969579614032867
      ],
      [
        "m",
        -6.988665955133506
      ],
      [
        "27",
        -7.009569797496475
      ],
      [
        "u",
        -7.044979606393062
      ],
      [
        "Y",
        -7.0522011846788715
      ],
      [
        "I",
        -7.055778055446485
      ],
      [
        "B1",
        -7.077239035030768
      ],
      [
        "X",
        -7.086143388870507
      ],
      [
        "V",
        -7.112033300811671
      ],
      [
        "J",
        -7.132579209122602
      ],
      [
        "Z",
        -7.1345522189729085
      ],
      [
        "y",
        -7.1382577445959505
      ],
      [
        "Q",
        -7.142531231086938
      ],
      [
        "form",
        -7.158960893562577
      ],
      [
        "29",
        -7.160138552808698
      ],
      [
        "b",
        -7.170843693647356
      ],
      [
        "k",
        -7.178987024407835
      ],
      [
        "w",
        -7.189801670066949
      ],
      [
        "f",
        -7.204446986785783
      ],
      [
        "O",
        -7.214079676465666
      ],
      [
        "_",
        -7.216081500547935
      ],
      [
        "28",
        -7.229461658513944
      ],
      [
        "j",
        -7.274960027715352
      ],
      [
        "v",
        -7.27924232671022
      ],
      [
        "url",
        -7.299080080343053
      ],
      [
        "encod",
        -7.328381358816479
      ],
      [
        "z",
        -7.345547903028695
      ],
      [
        "@",
        -7.3749129795779265
      ],
      [
        "modo",
        -7.4546563891820945
      ],
      [
        "3D",
        -7.486511856362997
      ],
      [
        "40",
        -7.502623361921701
      ],
      [
        "2C",
        -7.513356396248877
      ],
      [
        "22",
        -7.6537943002866164
      ],
      [
        "id",
        -7.691395015560477
      ],
      [
        "al",
        -7.732463076429722
      ],
      [
        "login",
        -7.741719501371005
      ],
      [
        "nombre",
        -7.744845542445292
      ],
      [
        "registro",
        -7.7532124773098605
      ],
      [
        "an",
        -7.78205250534325
      ],
      [
        "'",
        -7.797286608684908
      ],
      [
        "es",
        -7.847057903398019
      ],
      [
        "cp",
        -7.8628969432754
      ],
      [
        "or",
        -7.866866483756544
      ],
      [
        "bros",
        -7.923791322079867
      ],
      [
        "miem",
        -7.926159528954746
      ],
      [
        "de",
        -7.948780550745432
      ],
      [
        "3B",
        -7.950614199412385
      ],
      [
        "nes",
        -8.025829860743842
      ],
      [
        "3A",
        -8.032686573246618
      ],
      [
        "on",
        -8.068503442415427
      ],
      [
        "rv",
        -8.099008974359698
      ],
      [
        "dni",
        -8.12491498721608
      ],
      [
        "ntc",
        -8.130501265182408
      ],
      [
        "in",
        -8.15042474427451
      ],
      [
        "password",
        -8.154124727713675
      ],
      [
        "iso",
        -8.1544052732072
      ],
      [
        "email",
        -8.154920850435772
      ],
      [
        "apellidos",
        -8.158025902951069
      ],
      [
        "provincia",
        -8.158025902951877
      ],
      [
        "direccion",
        -8.158025903041285
      ],
      [
        "ciudad",
        -8.158050872038668
      ],
      [
        "3C",
        -8.15884215069384
      ],
      [
        "precio",
        -8.16107073948292
      ],
      [
        "mac",
        -8.164655400111801
      ],
      [
        "Registrar",
        -8.167188270567546
      ],
      [
        "/*",
        -8.200098577791966
      ],
      [
        "26",
        -8.209202387663606
      ],
      [
        "=*/*",
        -8.21387070595501
      ],
      [
        "carrito",
        -8.228648772421414
      ],
      [
        "++++",
        -8.229733550555073
      ],
      [
        "+++",
        -8.232505537832605
      ],
      [
        "5D",
        -8.25684966785043
      ],
      [
        "entrar",
        -8.26133847918087
      ],
      [
        "2B",
        -8.266313535185649
      ],
      [
        "is",
        -8.279955677963375
      ],
      [
        "++",
        -8.290548052474797
      ],
      [
        "st",
        -8.308080497584466
      ],
      [
        "ee",
        -8.31224100970081
      ],
      [
        "3F",
        -8.329994145738869
      ],
      [
        "gif",
        -8.33225201518318
      ],
      [
        "os",
        -8.347602871002945
      ],
      [
        "la",
        -8.348220093181578
      ],
      [
        "it",
        -8.354153496721725
      ],
      [
        "live",
        -8.355199241818397
      ],
      [
        "kee",
        -8.357713441903297
      ],
      [
        "re",
        -8.391314187441163
      ],
      [
        "ar",
        -8.394104501862856
      ],
      [
        "ts",
        -8.405510557708368
      ],
      [
        "ia",
        -8.417977836885939
      ],
      [
        "ra",
        -8.427081023661072
      ],
      [
        "as",
        -8.428681270583102
      ],
      [
        "ciar",
        -8.429616148952586
      ],
      [
        "el",
        -8.431820619342721
      ],
      [
        "window",
        -8.438035441485809
      ],
      [
        "7C",
        -8.43915402293407
      ],
      [
        "ie",
        -8.44331202895061
      ],
      [
        "se",
        -8.44576962420429
      ],
      [
        "eh",
        -8.44621470619682
      ],
      [
        ">'",
        -8.447189626158579
      ],
      [
        "8859",
        -8.450653038997988
      ],
      [
        "le",
        -8.455997370479237
      ],
      [
        "io",
        -8.493282067396636
      ],
      [
        "ro",
        -8.498459277736982
      ],
      [
        "he",
        -8.49980141484081
      ],
      [
        "si",
        -8.501459256405209
      ],
      [
        "er",
        -8.505173532973334
      ],
      [
        "so",
        -8.505959963781141
      ],
      [
        "21",
        -8.50931898424718
      ],
      [
        "va",
        -8.512577712911803
      ],
      [
        "ti",
        -8.518120794211038
      ],
      [
        "te",
        -8.523521605881218
      ],
      [
        "ei",
        -8.52688823946026
      ],
      [
        "na",
        -8.541990061479982
      ],
      [
        "24",
        -8.57997407361606
      ],
      [
        "ii",
        -8.600619490945672
      ],
      [
        "39",
        -8.603838994525475
      ],
      [
        "ss",
        -8.606226601029908
      ],
      [
        "th",
        -8.609359271740116
      ],
      [
        "ns",
        -8.609412114905256
      ],
      [
        "sa",
        -8.61186523494749
      ],
      [
        "ai",
        -8.612769522794322
      ],
      [
        "tt",
        -8.61694723210937
      ],
      [
        "ta",
        -8.619357379493795
      ],
      [
        "B2",
        -8.627334047438266
      ],
      [
        "sh",
        -8.628472222115057
      ],
      [
        "ir",
        -8.637182084613958
      ],
      [
        "max",
        -8.637617655767517
      ],
      [
        "ce",
        -8.641797848983959
      ],
      [
        "ho",
        -8.646178169491257
      ],
      [
        "ne",
        -8.65298760591703
      ],
      [
        "ri",
        -8.654050396735713
      ],
      [
        "ea",
        -8.654966471585551
      ],
      [
        "nt",
        -8.670557133852178
      ],
      [
        "et",
        -8.67970861765394
      ],
      [
        "sn",
        -8.681001035385426
      ],
      [
        "+++++",
        -8.681414951944745
      ],
      [
        "5B",
        -8.68370291393818
      ],
      [
        "ni",
        -8.686459454557175
      ],
      [
        "62",
        -8.701125683846723
      ],
      [
        "em",
        -8.704052287093784
      ],
      [
        "64",
        -8.71171712593219
      ],
      [
        "ol",
        -8.714671468848405
      ],
      [
        "tr",
        -8.714830740169685
      ],
      [
        "rr",
        -8.735257012948527
      ],
      [
        "ls",
        -8.73661748386607
      ],
      [
        "ue",
        -8.73882802736918
      ],
      [
        "us",
        -8.739344478027139
      ],
      [
        "if",
        -8.73963321418437
      ],
      [
        "ch",
        -8.739795575308893
      ],
      [
        "do",
        -8.74675101397058
      ],
      [
        "sr",
        -8.747325185782294
      ],
      [
        "jpg",
        -8.753862449183153
      ],
      [
        "da",
        -8.761075395538018
      ],
      [
        "rs",
        -8.769999513880919
      ],
      [
        "pwd",
        -8.773545059894758
      ],
      [
        "67",
        -8.773616751074865
      ],
      [
        "ht",
        -8.773742736555096
      ],
      [
        "hi",
        -8.779652973887263
      ],
      [
        "74",
        -8.781884760098011
      ],
      [
        "eu",
        -8.782214094033282
      ],
      [
        "oi",
        -8.787438000290877
      ],
      [
        "ec",
        -8.793562832014748
      ],
      [
        "icar",
        -8.794180319609218
      ],
      [
        "adir",
        -8.794204549912228
      ],
      [
        "script",
        -8.795378245593493
      ],
      [
        "auten",
        -8.80101700958872
      ],
      [
        "ad",
        -8.805140719575771
      ],
      [
        "rt",
        -8.806468006071924
      ],
      [
        "agar",
        -8.812369406539052
      ],
      [
        "at",
        -8.816664166599434
      ],
      [
        "+&",
        -8.822362021641162
      ],
      [
        "remember",
        -8.825236552483016
      ],
      [
        "me",
        -8.831274384429047
      ],
      [
        "co",
        -8.836469650188267
      ],
      [
        "ditar",
        -8.839944838063909
      ],
      [
        "44",
        -8.841959769420924
      ],
      [
        "be",
        -8.84687195862794
      ],
      [
        "Entrar",
        -8.847488366189205
      ],
      [
        "25",
        -8.848846302965487
      ],
      [
        "66",
        -8.851948685828507
      ],
      [
        "76",
        -8.85521380557227
      ],
      [
        "audio",
        -8.855308831614074
      ],
      [
        "46",
        -8.855358418038808
      ],
      [
        "hs",
        -8.860324073742484
      ],
      [
        "lo",
        -8.861165125568093
      ],
      [
        "video",
        -8.864068842433598
      ],
      [
        "47",
        -8.864453193787933
      ],
      [
        "insertar",
        -8.86500118147969
      ],
      [
        "ih",
        -8.86707953025343
      ],
      [
        "cantidad",
        -8.87024631041223
      ],
      [
        "94",
        -8.875279259366085
      ],
      [
        "34",
        -8.876547898580226
      ],
      [
        "il",
        -8.877835086959617
      ],
      [
        "4D",
        -8.880116888639801
      ],
      [
        "http",
        -8.885829314419748
      ],
      [
        "ma",
        -8.891893126520966
      ],
      [
        "lt",
        -8.89200751868182
      ],
      [
        "42",
        -8.897890666012024
      ],
      [
        "2D",
        -8.899035308122016
      ],
      [
        "li",
        -8.901335592474386
      ],
      [
        "FD",
        -8.907785713811617
      ],
      [
        "ca",
        -8.915820475228532
      ],
      [
        "ha",
        -8.917193787394739
      ],
      [
        "hr",
        -8.920480584373045
      ],
      [
        "mo",
        -8.921954636841772
      ],
      [
        "ah",
        -8.921980961093926
      ],
      [
        "child",
        -8.925775687359117
      ],
      [
        "23",
        -8.92698065953155
      ],
      [
        "72",
        -8.927727895844356
      ],
      [
        "7D",
        -8.928836430341747
      ],
      [
        "BD",
        -8.93707235258719
      ],
      [
        "od",
        -8.942713434041133
      ],
      [
        "BF",
        -8.945207765772999
      ],
      [
        "hn",
        -8.947613456922603
      ],
      [
        "..%",
        -8.947920501788403
      ],
      [
        "43",
        -8.948188358230766
      ],
      [
        "nh",
        -8.948791638769643
      ],
      [
        "di",
        -8.952922697747997
      ],
      [
        "td",
        -8.961636795806886
      ],
      [
        "tl",
        -8.962206822621825
      ],
      [
        "lobal",
        -8.963951445999546
      ],
      [
        "F1adi",
        -8.967559804516384
      ],
      [
        "69",
        -8.970328651763486
      ],
      [
        "97",
        -8.972246354796724
      ],
      [
        "F1",
        -8.981804371243298
      ],
      [
        "eg",
        -8.981828566798317
      ],
      [
        "49",
        -8.991191158177125
      ],
      [
        "6D",
        -8.99510462707455
      ],
      [
        "79",
        -8.995907503492887
      ],
      [
        "77",
        -8.999231658552121
      ],
      [
        "6F",
        -9.007696460332152
      ],
      [
        "96",
        -9.011077052596157
      ],
      [
        "dt",
        -9.012688166350056
      ],
      [
        "oh",
        -9.018323763347679
      ],
      [
        "F3",
        -9.02227849994862
      ],
      [
        "Va",
        -9.022655118999168
      ],
      [
        "D6",
        -9.023911351967204
      ],
      [
        "nd",
        -9.024332189405934
      ],
      [
        "ui",
        -9.029350174426606
      ],
      [
        "nc",
        -9.03396567453455
      ],
      [
        "ac",
        -9.034237797302424
      ],
      [
        "com",
        -9.034670728987479
      ],
      [
        "su",
        -9.036254263738607
      ],
      [
        "ey",
        -9.0384165058735
      ],
      [
        "ticas",
        -9.042819590665882
      ],
      [
        "carac",
        -9.045977009557102
      ],
      [
        "DB",
        -9.048965557033576
      ],
      [
        "B6",
        -9.052001033830496
      ],
      [
        "am",
        -9.052745635100752
      ],
      [
        "F6",
        -9.055078246753233
      ],
      [
        "eris",
        -9.055321734149793
      ],
      [
        "FB",
        -9.057375690975487
      ],
      [
        "DF",
        -9.058412650248265
      ],
      [
        "ut",
        -9.060125393756131
      ],
      [
        "indow",
        -9.066770237975764
      ],
      [
        "ep",
        -9.068846580555075
      ],
      [
        "ur",
        -9.071273859704263
      ],
      [
        "FF",
        -9.074307025439694
      ],
      [
        "D7",
        -9.079835164344887
      ],
      [
        "92",
        -9.080687984952066
      ],
      [
        "rm",
        -9.082435084151008
      ],
      [
        "im",
        -9.08477516663462
      ],
      [
        "61",
        -9.085440386363112
      ],
      [
        "71",
        -9.086452941422653
      ],
      [
        "rh",
        -9.091303100621275
      ],
      [
        "errorMsg",
        -9.095716585811267
      ],
      [
        "mi",
        -9.09572517752649
      ],
      [
        "eb",
        -9.100541474373399
      ],
      [
        "ef",
        -9.10271925729359
      ],
      [
        "17",
        -9.104153337483151
      ],
      [
        "ew",
        -9.109334612501232
      ],
      [
        "FA",
        -9.111344896870133
      ],
      [
        "sl",
        -9.118718347708207
      ],
      [
        "D4",
        -9.120246465985124
      ],
      [
        "9F",
        -9.12254106308383
      ],
      [
        "tu",
        -9.132490756216672
      ],
      [
        "B7",
        -9.134183488259865
      ],
      [
        "BA",
        -9.136712588318261
      ],
      [
        "ci",
        -9.136819605516912
      ],
      [
        "F7",
        -9.137095473199732
      ],
      [
        "dr",
        -9.138412943664584
      ],
      [
        "rd",
        -9.14179308199865
      ],
      [
        "BB",
        -9.142367929544086
      ],
      [
        "sd",
        -9.142871270339139
      ],
      [
        "mt",
        -9.144616167097869
      ],
      [
        "4B",
        -9.145146089455682
      ],
      [
        "99",
        -9.146074798877201
      ],
      [
        "ge",
        -9.148062680636137
      ],
      [
        "ds",
        -9.151908846975157
      ],
      [
        "78",
        -9.15274402983501
      ],
      [
        "60",
        -9.158976483118975
      ],
      [
        "63",
        -9.161185150967292
      ],
      [
        "tosh",
        -9.1644346706434
      ],
      [
        "68",
        -9.166937910904647
      ],
      [
        "hh",
        -9.169540443845015
      ],
      [
        "om",
        -9.187499782401124
      ],
      [
        "4F",
        -9.187891409024083
      ],
      [
        "7B",
        -9.191411483915918
      ],
      [
        "1F",
        -9.191836352942499
      ],
      [
        "au",
        -9.196164205419496
      ],
      [
        "37",
        -9.196739413564888
      ],
      [
        "ye",
        -9.200737039321657
      ],
      [
        "dencial",
        -9.200892315506358
      ],
      [
        "36",
        -9.20357236911751
      ],
      [
        "incorrectas",
        -9.208313412104538
      ],
      [
        "fr",
        -9.20848661009658
      ],
      [
        "Cre",
        -9.212104930898018
      ],
      [
        "ua",
        -9.214819450732847
      ],
      [
        "sc",
        -9.216068659287874
      ],
      [
        "270",
        -9.223948427940112
      ],
      [
        "we",
        -9.224509153680582
      ],
      [
        "min",
        -9.226327398212195
      ],
      [
        "tm",
        -9.231640497972599
      ],
      [
        "2e",
        -9.232051193930442
      ],
      [
        "7F",
        -9.233065589729133
      ],
      [
        "6B",
        -9.247651050318462
      ],
      [
        "B4",
        -9.249143066470225
      ],
      [
        "pe",
        -9.249645226221805
      ],
      [
        "ic",
        -9.252228266791423
      ],
      [
        "un",
        -9.254157759829944
      ],
      [
        "ba",
        -9.256222274008064
      ],
      [
        "B9",
        -9.258356069308629
      ],
      [
        "lr",
        -9.26117396917784
      ],
      [
        "F4",
        -9.264062681952637
      ],
      [
        "41",
        -9.267143337477137
      ],
      [
        "ul",
        -9.270032901289643
      ],
      [
        "73",
        -9.271446840441731
      ],
      [
        "ru",
        -9.27577087494161
      ],
      [
        "F9",
        -9.283309580751322
      ],
      [
        "AF",
        -9.289715101573684
      ],
      [
        "rl",
        -9.290106647258842
      ],
      [
        "store",
        -9.295232777797988
      ],
      [
        "dn",
        -9.29654547441718
      ],
      [
        "://",
        -9.302840075832783
      ],
      [
        "tw",
        -9.308208719758502
      ],
      [
        "ou",
        -9.30891740273628
      ],
      [
        "go",
        -9.309437151831089
      ],
      [
        "hl",
        -9.311761234112883
      ],
      [
        "B3",
        -9.314694753472095
      ],
      [
        "ig",
        -9.315619950700015
      ],
      [
        "CF",
        -9.319165641269837
      ],
      [
        "tc",
        -9.32898002607751
      ],
      [
        "bin",
        -9.330424913231159
      ],
      [
        "D2",
        -9.333083227167105
      ],
      [
        "ez",
        -9.333189500250022
      ],
      [
        "Win",
        -9.335887699146955
      ],
      [
        "and",
        -9.336048207267012
      ],
      [
        "12",
        -9.341794664697012
      ],
      [
        "75",
        -9.343590010778371
      ],
      [
        "pa",
        -9.34453369586181
      ],
      [
        "oc",
        -9.34470403032071
      ],
      [
        "trans",
        -9.34519940555478
      ],
      [
        "stale",
        -9.345234879110258
      ],
      [
        "iu",
        -9.347109008467033
      ],
      [
        "bo",
        -9.349155761937322
      ],
      [
        "ld",
        -9.356633918221526
      ],
      [
        "Machi",
        -9.36108897126424
      ],
      [
        "ms",
        -9.365663540876842
      ],
      [
        "only",
        -9.372721641085509
      ],
      [
        "8F",
        -9.373307134949163
      ],
      [
        "AB",
        -9.380011287230655
      ],
      [
        "ab",
        -9.381141098746344
      ],
      [
        "0F",
        -9.385667223784118
      ],
      [
        "fe",
        -9.386925187514013
      ],
      [
        "9B",
        -9.387203609375016
      ],
      [
        "ay",
        -9.39102206120794
      ],
      [
        "F3n",
        -9.391130392261365
      ],
      [
        "sm",
        -9.391678165343263
      ],
      [
        "por",
        -9.402231404254271
      ],
      [
        "ps",
        -9.404434296296479
      ],
      [
        "1B",
        -9.410547255252819
      ],
      [
        "De",
        -9.414139762197353
      ],
      [
        "mr",
        -9.415357055858838
      ],
      [
        "OS",
        -9.421010363104054
      ],
      [
        "uo",
        -9.421371202219337
      ],
      [
        "fresh",
        -9.425117147753053
      ],
      [
        "X1",
        -9.426182793465387
      ],
      [
        "dh",
        -9.433991440901892
      ],
      [
        "65",
        -9.43559593753907
      ],
      [
        "cmd",
        -9.437183663583859
      ],
      [
        "lh",
        -9.438483418035176
      ],
      [
        "32",
        -9.45322860539478
      ],
      [
        "ya",
        -9.454804870065221
      ],
      [
        "euc",
        -9.458970286089816
      ],
      [
        "ga",
        -9.465964297382028
      ],
      [
        "ll",
        -9.469489287723096
      ],
      [
        "ev",
        -9.47274536554703
      ],
      [
        "84",
        -9.474328670705289
      ],
      [
        "B8",
        -9.479300693111691
      ],
      [
        "cs",
        -9.481451370037384
      ],
      [
        "tf",
        -9.493638349288378
      ],
      [
        "56",
        -9.494353163771141
      ],
      [
        "F2",
        -9.496119685500087
      ],
      [
        "mn",
        -9.496200098300008
      ],
      [
        "nu",
        -9.496779311514128
      ],
      [
        "100",
        -9.500136764483408
      ],
      [
        "ty",
        -9.502114131586758
      ],
      [
        "ve",
        -9.502757589271564
      ],
      [
        "hu",
        -9.510477730795717
      ],
      [
        "asar",
        -9.520578988144507
      ],
      [
        "5F",
        -9.524409833034372
      ],
      [
        "hd",
        -9.525736296708205
      ],
      [
        "ng",
        -9.528448153077987
      ],
      [
        "16",
        -9.534330116871558
      ],
      [
        "tb",
        -9.536009894242138
      ],
      [
        "PUT",
        -9.53686419747942
      ],
      [
        "exec",
        -9.537248094498455
      ],
      [
        "logo",
        -9.541541431346339
      ],
      [
        "pl",
        -9.54237305300708
      ],
      [
        "|",
        -9.542801213861637
      ],
      [
        "off",
        -9.54631807206673
      ],
      [
        "open",
        -9.547407057307936
      ],
      [
        "kr",
        -9.548253109628515
      ],
      [
        "gr",
        -9.553304736001621
      ],
      [
        "caja",
        -9.556892457607013
      ],
      [
        "tg",
        -9.562895884168658
      ],
      [
        "fo",
        -9.563426137425898
      ],
      [
        "pi",
        -9.571508676390165
      ],
      [
        "ini",
        -9.571604690261488
      ],
      [
        "lu",
        -9.572262606654967
      ],
      [
        "86",
        -9.573497484274586
      ],
      [
        "gi",
        -9.57451896340366
      ],
      [
        "87",
        -9.574761097794623
      ],
      [
        "uh",
        -9.578801162382675
      ],
      [
        "Confirmar",
        -9.579907934834079
      ],
      [
        "48",
        -9.581699682716902
      ],
      [
        "dd",
        -9.582142275507701
      ],
      [
        "css",
        -9.583610099364051
      ],
      [
        "yo",
        -9.586087634095485
      ],
      [
        "Calle",
        -9.587268065621961
      ],
      [
        "]",
        -9.590767767104253
      ],
      [
        "fi",
        -9.592097783790965
      ],
      [
        "br",
        -9.594150321737775
      ],
      [
        "nm",
        -9.598284875761557
      ],
      [
        "net",
        -9.598450908056632
      ],
      [
        "ud",
        -9.602012195616396
      ],
      [
        "oy",
        -9.60469799396499
      ],
      [
        "etc",
        -9.60753304645423
      ],
      [
        "ft",
        -9.614510163667273
      ],
      [
        "iw",
        -9.616349530532723
      ],
      [
        "fa",
        -9.616542179834171
      ],
      [
        "ag",
        -9.624439240914416
      ],
      [
        "CB",
        -9.624647315064383
      ],
      [
        "ing",
        -9.625407163066477
      ],
      [
        "rg",
        -9.628498137496031
      ],
      [
        "mh",
        -9.629932223167348
      ],
      [
        "index",
        -9.631644055438493
      ],
      [
        "Mac",
        -9.633517864067617
      ],
      [
        "ej",
        -9.634744575618155
      ],
      [
        "af",
        -9.635767582242671
      ],
      [
        "bi",
        -9.637993949176241
      ],
      [
        "aw",
        -9.641426206961281
      ],
      [
        "dl",
        -9.646714849328049
      ],
      [
        "ys",
        -9.648818362847464
      ],
      [
        "ow",
        -9.649487524980461
      ],
      [
        "8B",
        -9.649929308645874
      ],
      [
        "ib",
        -9.653378204610803
      ],
      [
        "ob",
        -9.660638134139313
      ],
      [
        "NT",
        -9.665338469939272
      ],
      [
        "cu",
        -9.66538621398748
      ],
      [
        "za",
        -9.667395198804725
      ],
      [
        "og",
        -9.667470691223219
      ],
      [
        "bt",
        -9.669794893122877
      ],
      [
        "ip",
        -9.674153342479839
      ],
      [
        "cl",
        -9.676664403217096
      ],
      [
        "B0",
        -9.677716808030777
      ],
      [
        "js",
        -9.678714649233054
      ],
      [
        "wt",
        -9.680861164023892
      ],
      [
        "of",
        -9.684050042745469
      ],
      [
        "uz",
        -9.68541524066765
      ],
      [
        "org",
        -9.687976259979798
      ],
      [
        "wa",
        -9.695017070154083
      ],
      [
        "sp",
        -9.695499638456536
      ],
      [
        "ws",
        -9.697088092964862
      ],
      [
        "nf",
        -9.698331004169454
      ],
      [
        "um",
        -9.698566142994842
      ],
      [
        "gt",
        -9.699694990876234
      ],
      [
        "sf",
        -9.700435652112334
      ],
      [
        "sy",
        -9.705170298743681
      ],
      [
        "du",
        -9.708295274395036
      ],
      [
        "tmp",
        -9.708317119092825
      ],
      [
        "rf",
        -9.712987608115135
      ],
      [
        "ry",
        -9.719665701521054
      ],
      [
        "14",
        -9.723213769090632
      ],
      [
        "bn",
        -9.723592458772249
      ],
      [
        "Ib",
        -9.734614663068395
      ],
      [
        "all",
        -9.734781829426314
      ],
      [
        "wo",
        -9.734879454346636
      ],
      [
        "by",
        -9.734883805761061
      ],
      [
        "nw",
        -9.735196762779912
      ],
      [
        "yi",
        -9.735341628532321
      ],
      [
        "je",
        -9.736164117165181
      ],
      [
        "iy",
        -9.737784534655855
      ],
      [
        "bs",
        -9.74269175411927
      ],
      [
        "hm",
        -9.746973102111715
      ],
      [
        "lm",
        -9.748570634506184
      ],
      [
        "wi",
        -9.750309646487374
      ],
      [
        "sg",
        -9.751668976086627
      ],
      [
        "yr",
        -9.752288122963915
      ],
      [
        "cookie",
        -9.756069534644176
      ],
      [
        "passwd",
        -9.756897465613712
      ],
      [
        "rb",
        -9.759843854907853
      ],
      [
        "uk",
        -9.763018207021478
      ],
      [
        "sw",
        -9.763406313406865
      ],
      [
        "gb",
        -9.765261286890457
      ],
      [
        "cgi",
        -9.766967302136527
      ],
      [
        "386",
        -9.76788861460065
      ],
      [
        "wn",
        -9.774902560309974
      ],
      [
        "sb",
        -9.776630362458667
      ],
      [
        "ke",
        -9.778719719019932
      ],
      [
        "cd",
        -9.787123380832417
      ],
      [
        "yt",
        -9.789224403725653
      ],
      [
        "\\\\",
        -9.791526524567146
      ],
      [
        "yn",
        -9.79571606834208
      ],
      [
        "2574",
        -9.79628811751128
      ],
      [
        "vi",
        -9.797552717856801
      ],
      [
        "jp",
        -9.797691219793881
      ],
      [
        "iz",
        -9.803095145232525
      ],
      [
        "ny",
        -9.80614955132491
      ],
      [
        "e6",
        -9.80791110288347
      ],
      [
        "rw",
        -9.80962439086372
      ],
      [
        "asp",
        -9.809779698401552
      ],
      [
        "cz",
        -9.810708451079933
      ],
      [
        "586",
        -9.812853416341923
      ],
      [
        "dm",
        -9.81630523269944
      ],
      [
        "mc",
        -9.816421916959474
      ],
      [
        "winnt",
        -9.82153601669387
      ],
      [
        "object",
        -9.825580834500832
      ],
      [
        "gu",
        -9.827081737247799
      ],
      [
        "fn",
        -9.828289450442684
      ],
      [
        "mu",
        -9.83181179299959
      ],
      [
        "exe",
        -9.843842544607197
      ],
      [
        "jo",
        -9.855853496394982
      ],
      [
        "fs",
        -9.856387253794393
      ],
      [
        "Rioja",
        -9.858332399347699
      ],
      [
        "system",
        -9.869064572092292
      ],
      [
        "include",
        -9.870293913212688
      ],
      [
        "e7",
        -9.871327786499664
      ],
      [
        "2563",
        -9.875517961812665
      ],
      [
        "gs",
        -9.87710848143179
      ],
      [
        "hf",
        -9.882080240112458
      ],
      [
        "av",
        -9.883526305774309
      ],
      [
        "Ro",
        -9.886766318683923
      ],
      [
        "style",
        -9.89222917090649
      ],
      [
        "pn",
        -9.899573891882198
      ],
      [
        "nb",
        -9.903030169374867
      ],
      [
        "mail",
        -9.9062411172493
      ],
      [
        "ml",
        -9.912613277506509
      ],
      [
        "count",
        -9.914584283029756
      ],
      [
        "hy",
        -9.914611030916614
      ],
      [
        "alert",
        -9.922361372822692
      ],
      [
        "ja",
        -9.926759577898133
      ],
      [
        "ph",
        -9.928328423548098
      ],
      [
        "bh",
        -9.930222660200801
      ],
      [
        "position",
        -9.931480134287046
      ],
      [
        "252",
        -9.93391017526038
      ],
      [
        "gh",
        -9.936464574193394
      ],
      [
        "ek",
        -9.937423676755191
      ],
      [
        "wh",
        -9.93827635336457
      ],
      [
        "Re",
        -9.93937526960432
      ],
      [
        "jpe",
        -9.942603053747394
      ],
      [
        "ze",
        -9.945917150137056
      ],
      [
        "Manchego",
        -9.947832608166852
      ],
      [
        "Ques",
        -9.948167135369928
      ],
      [
        "hw",
        -9.948656419302104
      ],
      [
        "bl",
        -9.949275914966591
      ],
      [
        "wr",
        -9.95049025335467
      ],
      [
        "tz",
        -9.952897044601354
      ],
      [
        "ka",
        -9.953235199700377
      ],
      [
        "uc",
        -9.95628153993487
      ],
      [
        "~",
        -9.960921792793176
      ],
      [
        "document",
        -9.966154885315024
      ],
      [
        "dc",
        -9.968323084380101
      ],
      [
        "ell",
        -9.974167092153131
      ],
      [
        "wp",
        -9.97689920276693
      ],
      [
        "Vino",
        -9.979465355978725
      ],
      [
        "md",
        -9.981993946713928
      ],
      [
        "bu",
        -9.983293411902238
      ],
      [
        "from",
        -9.985523697297932
      ],
      [
        "asf",
        -9.989862232573625
      ],
      [
        "location",
        -9.990876053851672
      ],
      [
        "fl",
        -9.991614095834102
      ],
      [
        "var",
        -9.997908803543233
      ],
      [
        "256F",
        -9.999131043382437
      ],
      [
        "e4",
        -10.000149069493604
      ],
      [
        "eO",
        -10.004422932064287
      ],
      [
        "hp",
        -10.006911739376484
      ],
      [
        "2312",
        -10.010282785453185
      ],
      [
        "hz",
        -10.010696390954859
      ],
      [
        "253A",
        -10.01474892004541
      ],
      [
        "Jam",
        -10.022879083544876
      ],
      [
        "oz",
        -10.027543577999273
      ],
      [
        "del",
        -10.030161878535228
      ],
      [
        "az",
        -10.030859493246705
      ],
      [
        "select",
        -10.031903439614883
      ],
      [
        "hb",
        -10.034808224973226
      ],
      [
        "lf",
        -10.036237163409083
      ],
      [
        "936",
        -10.036863797065202
      ],
      [
        "eee",
        -10.039824061292183
      ],
      [
        "mm",
        -10.041874029789941
      ],
      [
        "htm",
        -10.042158073673498
      ],
      [
        "ug",
        -10.04237793873975
      ],
      [
        "replace",
        -10.043272851779992
      ],
      [
        "php",
        -10.04515343709868
      ],
      [
        "vo",
        -10.046923475806608
      ],
      [
        "dy",
        -10.047736784813306
      ],
      [
        "grou",
        -10.052850904356614
      ],
      [
        "up",
        -10.05497355311826
      ],
      [
        "ly",
        -10.055977658688434
      ],
      [
        "log",
        -10.05834330055782
      ],
      [
        "cat",
        -10.0588580247039
      ],
      [
        "ki",
        -10.059697224707273
      ],
      [
        "250",
        -10.063016861810244
      ],
      [
        "db",
        -10.066931080890981
      ],
      [
        "tj",
        -10.07021687475154
      ],
      [
        "wide",
        -10.07021974675347
      ],
      [
        "2565",
        -10.070687336538995
      ],
      [
        "E9rico",
        -10.07525282235433
      ],
      [
        "lb",
        -10.0764888328901
      ],
      [
        "2569",
        -10.085031046246302
      ],
      [
        "ub",
        -10.086403908358996
      ],
      [
        "era",
        -10.088270105551743
      ],
      [
        "fh",
        -10.093150206995633
      ],
      [
        "hg",
        -10.099239863633901
      ],
      [
        "mb",
        -10.100374884654713
      ],
      [
        "admin",
        -10.102899851537655
      ],
      [
        "ak",
        -10.104725494393323
      ],
      [
        "ov",
        -10.105420945993401
      ],
      [
        "yl",
        -10.112677127006911
      ],
      [
        "sam",
        -10.118383650338867
      ],
      [
        "$",
        -10.120577166855377
      ],
      [
        "nz",
        -10.12174251443837
      ],
      [
        "zo",
        -10.124702715750423
      ],
      [
        "253D",
        -10.129129458042613
      ],
      [
        "gl",
        -10.130736262798248
      ],
      [
        "2022",
        -10.130769312670099
      ],
      [
        "df",
        -10.140216725641242
      ],
      [
        "257",
        -10.14070103623925
      ],
      [
        "arabi",
        -10.142558528802542
      ],
      [
        "for",
        -10.146015168202787
      ],
      [
        "uu",
        -10.153237901945548
      ],
      [
        "3A0",
        -10.154357582057322
      ],
      [
        "eI",
        -10.157724921168338
      ],
      [
        "yh",
        -10.159138991213318
      ],
      [
        "B2A",
        -10.164681215563443
      ],
      [
        "tv",
        -10.166580954874561
      ],
      [
        "tar",
        -10.16862760741132
      ],
      [
        "time",
        -10.170139986625408
      ],
      [
        "koi",
        -10.170505926202472
      ],
      [
        "usr",
        -10.17093748577378
      ],
      [
        "chinese",
        -10.17130182857789
      ],
      [
        "?",
        -10.184394616094345
      ],
      [
        "quick",
        -10.18439590131208
      ],
      [
        "wav",
        -10.185602076436078
      ],
      [
        "950",
        -10.18765413267836
      ],
      [
        "BSD",
        -10.187791678531994
      ],
      [
        "Open",
        -10.1877967734702
      ],
      [
        "ij",
        -10.193297444136075
      ],
      [
        "bd",
        -10.193585246751937
      ],
      [
        "div",
        -10.194518518713522
      ],
      [
        "ierra",
        -10.194688694902691
      ],
      [
        "wl",
        -10.197300527555932
      ],
      [
        "eR",
        -10.200032278493977
      ],
      [
        "iv",
        -10.201317887558648
      ],
      [
        "cme",
        -10.202333451457697
      ],
      [
        "yu",
        -10.2026992937392
      ],
      [
        "Bposition",
        -10.20550289056714
      ],
      [
        "bc",
        -10.206218077906122
      ],
      [
        "uy",
        -10.206846927196107
      ],
      [
        "i7",
        -10.207610457582511
      ],
      [
        "ina",
        -10.21274992539281
      ],
      [
        "jt",
        -10.21370028737848
      ],
      [
        "ata",
        -10.214629699072885
      ],
      [
        "node",
        -10.222828442274913
      ],
      [
        "932",
        -10.222905289076081
      ],
      [
        "connect",
        -10.224743482893466
      ],
      [
        "fd",
        -10.229038780184744
      ],
      [
        "874",
        -10.231188675170813
      ],
      [
        "sta",
        -10.234660695227923
      ],
      [
        "where",
        -10.235396815520064
      ],
      [
        "aj",
        -10.235852992962254
      ],
      [
        "ftp",
        -10.236765828362342
      ],
      [
        "254",
        -10.241114863713152
      ],
      [
        "biz",
        -10.24224005827036
      ],
      [
        "lw",
        -10.243783205311953
      ],
      [
        "lg",
        -10.243790789486846
      ],
      [
        "mp",
        -10.246586667868911
      ],
      [
        "sj",
        -10.249404168874133
      ],
      [
        "cm",
        -10.249677159073975
      ],
      [
        "Ra",
        -10.252713947115978
      ],
      [
        "IPT",
        -10.257601866980451
      ],
      [
        "6e",
        -10.257931576271544
      ],
      [
        "basi",
        -10.26076366739348
      ],
      [
        "aros",
        -10.260928405981039
      ],
      [
        "wd",
        -10.271354275031646
      ],
      [
        "uf",
        -10.273199894771814
      ],
      [
        "sk",
        -10.273755834983323
      ],
      [
        "mpe",
        -10.274860220477429
      ],
      [
        "home",
        -10.27548751473939
      ],
      [
        "fu",
        -10.27959893630451
      ],
      [
        "ogo",
        -10.279707621854982
      ],
      [
        "link",
        -10.280082879292758
      ],
      [
        "any",
        -10.282871282911112
      ],
      [
        "gov",
        -10.287709239106594
      ],
      [
        "echo",
        -10.288002425416039
      ],
      [
        "253E",
        -10.288304044886688
      ],
      [
        "zara",
        -10.29003507454404
      ],
      [
        "OR",
        -10.292352378444278
      ],
      [
        "pu",
        -10.294793890775042
      ],
      [
        "dp",
        -10.295547867814733
      ],
      [
        "kt",
        -10.29857868392681
      ],
      [
        "tiff",
        -10.299709249015345
      ],
      [
        "2522",
        -10.300672758470938
      ],
      [
        "ks",
        -10.30194640808428
      ],
      [
        "Da",
        -10.302499159269011
      ],
      [
        "process",
        -10.303207753064006
      ],
      [
        "tk",
        -10.305830714952862
      ],
      [
        "nk",
        -10.305964818584789
      ],
      [
        "instruction",
        -10.306925187029085
      ],
      [
        "nuestra",
        -10.306925363093416
      ],
      [
        "Set",
        -10.308336265755539
      ],
      [
        "nbul",
        -10.310832511516779
      ],
      [
        "img",
        -10.312092805884255
      ],
      [
        "ete",
        -10.314481884780676
      ],
      [
        "astro",
        -10.322757880599998
      ],
      [
        "pd",
        -10.33318663221577
      ],
      [
        "sv",
        -10.335680034024117
      ],
      [
        "yd",
        -10.335919501625124
      ],
      [
        "[",
        -10.336836811827883
      ],
      [
        "cy",
        -10.339988538870289
      ],
      [
        "dw",
        -10.340910977146144
      ],
      [
        "credito",
        -10.341019388661536
      ],
      [
        "lib",
        -10.341390410241551
      ],
      [
        "Ba",
        -10.343915608678286
      ],
      [
        "htacces",
        -10.344880380853011
      ],
      [
        "java",
        -10.345276361436209
      ],
      [
        "union",
        -10.345393113357657
      ],
      [
        "ok",
        -10.347312448642363
      ],
      [
        "cb",
        -10.347516866709473
      ],
      [
        "rk",
        -10.349165873160896
      ],
      [
        "ik",
        -10.34926813772163
      ],
      [
        "cf",
        -10.35175564289366
      ],
      [
        "vt",
        -10.352389551803144
      ],
      [
        "rj",
        -10.35254614108798
      ],
      [
        "dir",
        -10.352596053732116
      ],
      [
        "3A15",
        -10.352860272303445
      ],
      [
        "opt",
        -10.355024666112467
      ],
      [
        "insert",
        -10.356405074057776
      ],
      [
        "wait",
        -10.357251685695395
      ],
      [
        "null",
        -10.358172121603529
      ],
      [
        "233",
        -10.359431061967587
      ],
      [
        "autoexec",
        -10.360230168655281
      ],
      [
        "Or",
        -10.362384415845112
      ],
      [
        "enum",
        -10.363292559971335
      ],
      [
        "shutdown",
        -10.364412207604325
      ],
      [
        "body",
        -10.365716209371712
      ],
      [
        "sz",
        -10.365870232550192
      ],
      [
        "res",
        -10.365926273874566
      ],
      [
        "189",
        -10.36623379131954
      ],
      [
        "estil",
        -10.368187227058431
      ],
      [
        "mw",
        -10.369212114971255
      ],
      [
        "s4",
        -10.372463155095254
      ],
      [
        "236",
        -10.372699377687395
      ],
      [
        "rz",
        -10.375115878802717
      ],
      [
        "250A",
        -10.375201660358517
      ],
      [
        "186",
        -10.375365176832435
      ],
      [
        "my",
        -10.376127811853582
      ],
      [
        "titulo",
        -10.376317246595798
      ],
      [
        "update",
        -10.376522789638834
      ],
      [
        "copy",
        -10.376756107257421
      ],
      [
        "path",
        -10.376937406892768
      ],
      [
        "eoe",
        -10.378612256546916
      ],
      [
        "zi",
        -10.379170474146163
      ],
      [
        "eae",
        -10.379851765041266
      ],
      [
        "boot",
        -10.379949304744663
      ],
      [
        "ji",
        -10.381050113795702
      ],
      [
        "ada",
        -10.381169068671248
      ],
      [
        "wm",
        -10.381417438171072
      ],
      [
        "nph",
        -10.384602076617234
      ],
      [
        "252F",
        -10.38497799909195
      ],
      [
        "sock_stream",
        -10.388365416730176
      ],
      [
        "gd",
        -10.38870257426586
      ],
      [
        "mar",
        -10.389625686594131
      ],
      [
        "productos",
        -10.392413999728804
      ],
      [
        "ote",
        -10.39243203857457
      ],
      [
        "167",
        -10.393596839234085
      ],
      [
        "access_log",
        -10.39647919019525
      ],
      [
        "fotos",
        -10.396542233624281
      ],
      [
        "delete",
        -10.39660364622046
      ],
      [
        "832",
        -10.398321027997897
      ],
      [
        "249",
        -10.39931295924195
      ],
      [
        "oee",
        -10.401494626085544
      ],
      [
        "Oe",
        -10.402701190080414
      ],
      [
        "ck",
        -10.40297685530518
      ],
      [
        "San",
        -10.405322239057938
      ],
      [
        "vbscript",
        -10.408866651629857
      ],
      [
        "had",
        -10.409440502202493
      ],
      [
        "107",
        -10.411566355394289
      ],
      [
        "i6",
        -10.412109756568924
      ],
      [
        "eet",
        -10.412740133445919
      ],
      [
        "passthru",
        -10.41290695914627
      ],
      [
        "174",
        -10.413020031037478
      ],
      [
        "amper",
        -10.417213765498179
      ],
      [
        "MSI",
        -10.41721459231049
      ],
      [
        "243",
        -10.418834109394206
      ],
      [
        "uw",
        -10.419114320483217
      ],
      [
        "r7",
        -10.420472634786119
      ],
      [
        "In",
        -10.421344468681209
      ],
      [
        "tI",
        -10.4233162326836
      ],
      [
        "zs",
        -10.423926788223401
      ],
      [
        "Is",
        -10.425220923863971
      ],
      [
        "stdin",
        -10.42564927479389
      ],
      [
        "yc",
        -10.428454070744397
      ],
      [
        "telnet",
        -10.429710684979316
      ],
      [
        "mocha",
        -10.429801726448252
      ],
      [
        "156",
        -10.429809325712819
      ],
      [
        "t6",
        -10.433406773431741
      ],
      [
        "253",
        -10.433642340450707
      ],
      [
        "185",
        -10.43403578135734
      ],
      [
        "mg",
        -10.434981125946802
      ],
      [
        "xp_",
        -10.438626588090644
      ],
      [
        "191",
        -10.438876446314449
      ],
      [
        "i2",
        -10.439678874843295
      ],
      [
        "103",
        -10.440095062913656
      ],
      [
        "meta",
        -10.440787606372467
      ],
      [
        "htpass",
        -10.441857846308624
      ],
      [
        "dg",
        -10.442153123054574
      ],
      [
        "FROM",
        -10.442322809355538
      ],
      [
        "244",
        -10.442424885408684
      ],
      [
        "elay",
        -10.442451322567912
      ],
      [
        "Ri",
        -10.44289976113803
      ],
      [
        "input",
        -10.442925189102915
      ],
      [
        "tor",
        -10.445873539930322
      ],
      [
        "bgsound",
        -10.446593838245015
      ],
      [
        "between",
        -10.446593878221755
      ],
      [
        "192",
        -10.446903206393149
      ],
      [
        "ff",
        -10.450229487098948
      ],
      [
        "106",
        -10.450717524714626
      ],
      [
        "i4",
        -10.452099173074345
      ],
      [
        "B1A",
        -10.452478717222075
      ],
      [
        "2s",
        -10.455227182658707
      ],
      [
        "247",
        -10.45692345829086
      ],
      [
        "231",
        -10.458504739855577
      ],
      [
        "rI",
        -10.45890266426644
      ],
      [
        "man",
        -10.461315436465206
      ],
      [
        "157",
        -10.461518689854703
      ],
      [
        "kn",
        -10.461724851629945
      ],
      [
        "cw",
        -10.46180713794002
      ],
      [
        "lv",
        -10.465142849805474
      ],
      [
        "eval",
        -10.465947260300858
      ],
      [
        "wget",
        -10.466216840187258
      ],
      [
        "xterm",
        -10.468805770628201
      ],
      [
        "153",
        -10.469220622837174
      ],
      [
        "sali",
        -10.469238791743198
      ],
      [
        "206",
        -10.470317219943542
      ],
      [
        "IN",
        -10.472642560499468
      ],
      [
        "tte",
        -10.474577080450471
      ],
      [
        "253F",
        -10.475972164624485
      ],
      [
        "246",
        -10.476496503456266
      ],
      [
        "4i",
        -10.476853523870052
      ],
      [
        "ym",
        -10.477066512429507
      ],
      [
        "bm",
        -10.479668770874406
      ],
      [
        "248",
        -10.47983070590131
      ],
      [
        "mer",
        -10.481318672525006
      ],
      [
        "182",
        -10.48343552902946
      ],
      [
        "239",
        -10.484150353328832
      ],
      [
        "r6",
        -10.484150485854098
      ],
      [
        "ste",
        -10.484592567056879
      ],
      [
        "ett",
        -10.48681732404049
      ],
      [
        "241",
        -10.487000029169668
      ],
      [
        "154",
        -10.488076561476914
      ],
      [
        "ice",
        -10.488683520197265
      ],
      [
        "err",
        -10.48872231845574
      ],
      [
        "135",
        -10.488828579347231
      ],
      [
        "iframe",
        -10.490368743989308
      ],
      [
        "drop",
        -10.494684436228585
      ],
      [
        "having",
        -10.494851979654019
      ],
      [
        "tes",
        -10.496893581335165
      ],
      [
        "242",
        -10.49693567485992
      ],
      [
        "159",
        -10.500464283715484
      ],
      [
        "2f",
        -10.50066939634986
      ],
      [
        "2BT",
        -10.501823042997419
      ],
      [
        "230",
        -10.502100998392091
      ],
      [
        "nv",
        -10.502421453771952
      ],
      [
        "oj",
        -10.502775389135909
      ],
      [
        "Bdocument",
        -10.50396534220285
      ],
      [
        "ish",
        -10.507456061913615
      ],
      [
        "pw",
        -10.507697817340205
      ],
      [
        "136",
        -10.50833756932251
      ],
      [
        "netcat",
        -10.50861063385646
      ],
      [
        "tO",
        -10.50999345936436
      ],
      [
        "ana",
        -10.511027087871716
      ],
      [
        "see",
        -10.511118255487895
      ],
      [
        "204",
        -10.512115990944901
      ],
      [
        "zt",
        -10.516592530333238
      ],
      [
        "nO",
        -10.516949892674509
      ],
      [
        "hj",
        -10.517922821038495
      ],
      [
        "eta",
        -10.519081500440443
      ],
      [
        "pm",
        -10.519527363506903
      ],
      [
        "6s",
        -10.520329052940657
      ],
      [
        "vr",
        -10.52108668143785
      ],
      [
        "hk",
        -10.521281237182468
      ],
      [
        "2561",
        -10.521469535884648
      ],
      [
        "https",
        -10.52484418584929
      ],
      [
        "6i",
        -10.526032858831925
      ],
      [
        "180",
        -10.526073936678461
      ],
      [
        "aee",
        -10.526130086927505
      ],
      [
        "mf",
        -10.526481332799714
      ],
      [
        "wc",
        -10.528432860347102
      ],
      [
        "nsf",
        -10.528686500006975
      ],
      [
        "183",
        -10.529195129257271
      ],
      [
        "nj",
        -10.529458353941488
      ],
      [
        "nto",
        -10.529592991949649
      ],
      [
        "130",
        -10.529714970497793
      ],
      [
        "s6",
        -10.531425833713584
      ],
      [
        "184",
        -10.53197295039527
      ],
      [
        "255",
        -10.533410907192541
      ],
      [
        "eea",
        -10.533593254149668
      ],
      [
        "ter",
        -10.534328244458386
      ],
      [
        "s7",
        -10.534653674204561
      ],
      [
        "vs",
        -10.53474186893019
      ],
      [
        "dk",
        -10.535149528232024
      ],
      [
        "ate",
        -10.536029384848499
      ],
      [
        "4s",
        -10.537387683877997
      ],
      [
        "iI",
        -10.53779236902654
      ],
      [
        "vh",
        -10.538173940264727
      ],
      [
        "131",
        -10.54135976713988
      ],
      [
        "r4",
        -10.541712079819622
      ],
      [
        "uel",
        -10.543037284180961
      ],
      [
        "132",
        -10.545793516562117
      ],
      [
        "ara",
        -10.545953345823708
      ],
      [
        "ero",
        -10.546119296743516
      ],
      [
        "146",
        -10.549790370834485
      ],
      [
        "eei",
        -10.55002019479134
      ],
      [
        "104",
        -10.550550700947404
      ],
      [
        "197",
        -10.551464771002767
      ],
      [
        "209",
        -10.551753244148792
      ],
      [
        "bar",
        -10.552212557148081
      ],
      [
        "187",
        -10.55334088014255
      ],
      [
        "6r",
        -10.55411325078371
      ],
      [
        "ku",
        -10.554298695596582
      ],
      [
        "7i",
        -10.556025383534923
      ],
      [
        "7r",
        -10.55667570839889
      ],
      [
        "nee",
        -10.557098515217909
      ],
      [
        "aO",
        -10.560593336977737
      ],
      [
        "ria",
        -10.561354599986949
      ],
      [
        "gg",
        -10.564588015750488
      ],
      [
        "133",
        -10.568603359981072
      ],
      [
        "services",
        -10.56947595216699
      ],
      [
        "203",
        -10.57050194690952
      ],
      [
        "221",
        -10.571302592301546
      ],
      [
        "207",
        -10.57191391874208
      ],
      [
        "gm",
        -10.57251904817364
      ],
      [
        "245",
        -10.575908175817172
      ],
      [
        "176",
        -10.57676387533906
      ],
      [
        "oI",
        -10.578127957456514
      ],
      [
        "fc",
        -10.578837526159328
      ],
      [
        "7h",
        -10.579500881323515
      ],
      [
        "142",
        -10.579588797487897
      ],
      [
        "sto",
        -10.583859743925267
      ],
      [
        "sO",
        -10.584461285056815
      ],
      [
        "155",
        -10.585194111002552
      ],
      [
        "ere",
        -10.586669878607236
      ],
      [
        "s2",
        -10.588398035734823
      ],
      [
        "ern",
        -10.592586321207115
      ],
      [
        "iee",
        -10.592860163448979
      ],
      [
        "105",
        -10.59289634615046
      ],
      [
        "cfm",
        -10.593092106997016
      ],
      [
        "Mar",
        -10.59468486328526
      ],
      [
        "205",
        -10.596395293459583
      ],
      [
        "Vi",
        -10.600383463777655
      ],
      [
        "jh",
        -10.601878176139486
      ],
      [
        "2i",
        -10.601974768132555
      ],
      [
        "193",
        -10.602129359706497
      ],
      [
        "170",
        -10.603375063959675
      ],
      [
        "237",
        -10.605583553767016
      ],
      [
        "118",
        -10.606855859274503
      ],
      [
        "194",
        -10.607709921567832
      ],
      [
        "199",
        -10.608682210677813
      ],
      [
        "27http",
        -10.60914395138223
      ],
      [
        "oO",
        -10.611447852412212
      ],
      [
        "234",
        -10.612610947893007
      ],
      [
        "jr",
        -10.61282244362975
      ],
      [
        "109",
        -10.612957829839909
      ],
      [
        "ser",
        -10.613084105939926
      ],
      [
        "114",
        -10.613490468026084
      ],
      [
        "tra",
        -10.616001067184207
      ],
      [
        "perl",
        -10.616998187419739
      ],
      [
        "168",
        -10.617123219690463
      ],
      [
        "235",
        -10.618307252578315
      ],
      [
        "name",
        -10.618369837604472
      ],
      [
        "251",
        -10.62123506215173
      ],
      [
        "111",
        -10.621518391927806
      ],
      [
        "tos",
        -10.622621566104536
      ],
      [
        "108",
        -10.623168785531927
      ],
      [
        "hv",
        -10.623180255129935
      ],
      [
        "ver",
        -10.627503461071711
      ],
      [
        "py",
        -10.628155851038553
      ],
      [
        "ual",
        -10.628280130538169
      ],
      [
        "tet",
        -10.628640359310163
      ],
      [
        "bg",
        -10.628932709995706
      ],
      [
        "jn",
        -10.629051813457398
      ],
      [
        "7s",
        -10.629086505302507
      ],
      [
        "kh",
        -10.629236181687038
      ],
      [
        "zr",
        -10.62987374738342
      ],
      [
        "ers",
        -10.631111631639586
      ],
      [
        "144",
        -10.631507188277233
      ],
      [
        "cia",
        -10.633755450288742
      ],
      [
        "h7",
        -10.634067117561838
      ],
      [
        "vn",
        -10.635933957925317
      ],
      [
        "h6",
        -10.636679246589097
      ],
      [
        "232",
        -10.636910262030785
      ],
      [
        "4r",
        -10.638783920827134
      ],
      [
        "119",
        -10.63936393750674
      ],
      [
        "bp",
        -10.640344875880379
      ],
      [
        "200",
        -10.641676433988096
      ],
      [
        "102",
        -10.645402316981036
      ],
      [
        "195",
        -10.645978109235205
      ],
      [
        "zn",
        -10.646074203149562
      ],
      [
        "ucs",
        -10.6472183969628
      ],
      [
        "bat",
        -10.647278523261237
      ],
      [
        "ard",
        -10.648223739471703
      ],
      [
        "Anode",
        -10.648454206226454
      ],
      [
        "idA",
        -10.651748472620586
      ],
      [
        "ees",
        -10.651752352597889
      ],
      [
        "wu",
        -10.652752768384548
      ],
      [
        "lz",
        -10.654443217989009
      ],
      [
        "218",
        -10.654919660326456
      ],
      [
        "Ir",
        -10.655537125518638
      ],
      [
        "mdb",
        -10.656474484730055
      ],
      [
        "ju",
        -10.659079082082762
      ],
      [
        "166",
        -10.66273616698593
      ],
      [
        "139",
        -10.663584847777166
      ],
      [
        "152",
        -10.665928547990962
      ],
      [
        "tee",
        -10.665979428483586
      ],
      [
        "Ol",
        -10.668625737657838
      ],
      [
        "178",
        -10.669003364735836
      ],
      [
        "151",
        -10.671870196619043
      ],
      [
        "ret",
        -10.673097429476364
      ],
      [
        "lk",
        -10.673985047398785
      ],
      [
        "181",
        -10.674013434456072
      ],
      [
        "fm",
        -10.674903841170122
      ],
      [
        "137",
        -10.674994082382703
      ],
      [
        "259",
        -10.67551581106462
      ],
      [
        "ite",
        -10.678989448709505
      ],
      [
        "les",
        -10.679816635448777
      ],
      [
        "vd",
        -10.68019585276567
      ],
      [
        "201",
        -10.680832101952578
      ],
      [
        "190",
        -10.680842196258627
      ],
      [
        "bb",
        -10.685063206916169
      ],
      [
        "Os",
        -10.686118585363248
      ],
      [
        "112",
        -10.686688419567417
      ],
      [
        "roman",
        -10.687850606546148
      ],
      [
        "h4",
        -10.688458242206632
      ],
      [
        "158",
        -10.688727581334984
      ],
      [
        "2529",
        -10.689628991142502
      ],
      [
        "n4u",
        -10.690043853689367
      ],
      [
        "bf",
        -10.690614868987762
      ],
      [
        "rO",
        -10.691211946426481
      ],
      [
        "188",
        -10.69281242357695
      ],
      [
        "164",
        -10.695989005872569
      ],
      [
        "1257",
        -10.69651945442077
      ],
      [
        "ira",
        -10.696619426447622
      ],
      [
        "238",
        -10.696778677510114
      ],
      [
        "116",
        -10.6972576681881
      ],
      [
        "uj",
        -10.698133644986164
      ],
      [
        "115",
        -10.69844129003991
      ],
      [
        "179",
        -10.698686035592509
      ],
      [
        "dll",
        -10.699741652087738
      ],
      [
        "161",
        -10.700659694558901
      ],
      [
        "iet",
        -10.70145944720632
      ],
      [
        "car",
        -10.701512232087632
      ],
      [
        "134",
        -10.701608040387075
      ],
      [
        "ien",
        -10.701940486792015
      ],
      [
        "wy",
        -10.702295311596238
      ],
      [
        "2FN",
        -10.702854453522
      ],
      [
        "ier",
        -10.703760477255571
      ],
      [
        "40c",
        -10.703777955728182
      ],
      [
        "WHERE",
        -10.70404480399199
      ],
      [
        "asm",
        -10.704741337970038
      ],
      [
        "216",
        -10.705945090684027
      ],
      [
        "wf",
        -10.70754921216449
      ],
      [
        "dz",
        -10.710928210100127
      ],
      [
        "seo",
        -10.71138301601248
      ],
      [
        "989",
        -10.711812821311533
      ],
      [
        "110",
        -10.712463619153224
      ],
      [
        "143",
        -10.713413068757422
      ],
      [
        "150",
        -10.713493847965747
      ],
      [
        "fy",
        -10.717417182610383
      ],
      [
        "iO",
        -10.71863534130969
      ],
      [
        "ree",
        -10.719326434240887
      ],
      [
        "yg",
        -10.720139820254417
      ],
      [
        "lass",
        -10.720153361770576
      ],
      [
        "120",
        -10.720430920584858
      ],
      [
        "nte",
        -10.721664368131766
      ],
      [
        "169",
        -10.722838446545275
      ],
      [
        "496",
        -10.72314391441817
      ],
      [
        "eot",
        -10.7242383913268
      ],
      [
        "226",
        -10.725762295939003
      ],
      [
        "2528",
        -10.727512523462785
      ],
      [
        "196",
        -10.728656424083006
      ],
      [
        "165",
        -10.72987784827317
      ],
      [
        "208",
        -10.730092356135742
      ],
      [
        "172",
        -10.730517877540251
      ],
      [
        "1251",
        -10.731995711913635
      ],
      [
        "253C",
        -10.73253671745868
      ],
      [
        "160",
        -10.733181672094645
      ],
      [
        "rtf",
        -10.733974358233521
      ],
      [
        "let",
        -10.734211594215628
      ],
      [
        "1987",
        -10.734277590690425
      ],
      [
        "113",
        -10.736271565229504
      ],
      [
        "202",
        -10.73802714628308
      ],
      [
        "rcp",
        -10.739731535261493
      ],
      [
        "paros",
        -10.741166885340455
      ],
      [
        "2527",
        -10.7441113427144
      ],
      [
        "ner",
        -10.74534434672017
      ],
      [
        "163",
        -10.745596436936403
      ],
      [
        "2573",
        -10.746001482883813
      ],
      [
        "eeo",
        -10.747009222249835
      ],
      [
        "173",
        -10.748344837573704
      ],
      [
        "886",
        -10.748545097048337
      ],
      [
        "zu",
        -10.749023741312715
      ],
      [
        "149",
        -10.749272356398585
      ],
      [
        "ros",
        -10.749272988108363
      ],
      [
        "der",
        -10.75083546500733
      ],
      [
        "177",
        -10.753324329757369
      ],
      [
        "1258",
        -10.75459646181206
      ],
      [
        "eie",
        -10.754643551039125
      ],
      [
        "141",
        -10.75472990563798
      ],
      [
        "10646",
        -10.755595012042091
      ],
      [
        "258",
        -10.756208570360233
      ],
      [
        "scii",
        -10.756911045213096
      ],
      [
        "171",
        -10.758029508368828
      ],
      [
        "gy",
        -10.758163055639951
      ],
      [
        "sI",
        -10.758305197874039
      ],
      [
        "hO",
        -10.758307015188212
      ],
      [
        "609",
        -10.759347906149099
      ],
      [
        "zh",
        -10.7595770287801
      ],
      [
        "219",
        -10.760263451878828
      ],
      [
        "217",
        -10.761104964291818
      ],
      [
        "msp",
        -10.761171141590868
      ],
      [
        "sea",
        -10.762315312585427
      ],
      [
        "trad",
        -10.763478593947593
      ],
      [
        "reek",
        -10.76372610490516
      ],
      [
        "msf",
        -10.767426014047405
      ],
      [
        "d2",
        -10.76807713643911
      ],
      [
        "tea",
        -10.768676657698219
      ],
      [
        "nta",
        -10.768943750698536
      ],
      [
        "aae",
        -10.769838695486277
      ],
      [
        "ras",
        -10.77117372745523
      ],
      [
        "F1a",
        -10.772717839043683
      ],
      [
        "eri",
        -10.775149396480966
      ],
      [
        "148",
        -10.775834430039797
      ],
      [
        "1041",
        -10.776744266082353
      ],
      [
        "arra",
        -10.777380097860881
      ],
      [
        "fg",
        -10.778218223876504
      ],
      [
        "884",
        -10.778331465051814
      ],
      [
        "lin",
        -10.779488251795101
      ],
      [
        "iR",
        -10.782143457040045
      ],
      [
        "1250",
        -10.783356383264522
      ],
      [
        "5601",
        -10.783832821940283
      ],
      [
        "eto",
        -10.785693726572068
      ],
      [
        "llic",
        -10.786062885610018
      ],
      [
        "906",
        -10.786098958593765
      ],
      [
        "rte",
        -10.787445532257317
      ],
      [
        "jm",
        -10.787772189976405
      ],
      [
        "145",
        -10.789377764674262
      ],
      [
        "swf",
        -10.791033158154585
      ],
      [
        "her",
        -10.79123281942181
      ],
      [
        "256E",
        -10.792007944919781
      ],
      [
        "263",
        -10.793486242707816
      ],
      [
        "Ii",
        -10.79546122620515
      ],
      [
        "215",
        -10.795511293498768
      ],
      [
        "t_j",
        -10.797045456679045
      ],
      [
        "147",
        -10.797137923932876
      ],
      [
        "454",
        -10.797155497167022
      ],
      [
        "gw",
        -10.797304018084219
      ],
      [
        "shif",
        -10.798306902711147
      ],
      [
        "6l",
        -10.798640568180103
      ],
      [
        "357",
        -10.802065274077346
      ],
      [
        "cyri",
        -10.803278648161744
      ],
      [
        "zd",
        -10.803929694965761
      ],
      [
        "680",
        -10.804346853874602
      ],
      [
        "213",
        -10.80526818950511
      ],
      [
        "7l",
        -10.807022848189325
      ],
      [
        "1252",
        -10.807253700120054
      ],
      [
        "kl",
        -10.807712460241301
      ],
      [
        "dj",
        -10.807729977819855
      ],
      [
        "1255",
        -10.808415331653885
      ],
      [
        "556",
        -10.809203931267293
      ],
      [
        "214",
        -10.809235653499012
      ],
      [
        "Oh",
        -10.80993769734279
      ],
      [
        "art",
        -10.810095388015991
      ],
      [
        "Id",
        -10.813355667705943
      ],
      [
        "2570",
        -10.81378525572094
      ],
      [
        "eat",
        -10.813857282334455
      ],
      [
        "ato",
        -10.814985044786004
      ],
      [
        "hebre",
        -10.815386115757802
      ],
      [
        "eti",
        -10.815767351002368
      ],
      [
        "wb",
        -10.816311467350818
      ],
      [
        "904",
        -10.817919759354442
      ],
      [
        "ila",
        -10.819082184935834
      ],
      [
        "pb",
        -10.82082341861285
      ],
      [
        "d6",
        -10.82129332424877
      ],
      [
        "SELECT",
        -10.821481239979217
      ],
      [
        "jap",
        -10.82175441981865
      ],
      [
        "gf",
        -10.821826960287298
      ],
      [
        "mj",
        -10.823273278254565
      ],
      [
        "389",
        -10.82355618328273
      ],
      [
        "458",
        -10.825094739971043
      ],
      [
        "437",
        -10.82579459481624
      ],
      [
        "oet",
        -10.826479734155125
      ],
      [
        "ado",
        -10.826719840707934
      ],
      [
        "tae",
        -10.82846475111894
      ],
      [
        "40s",
        -10.828853821228426
      ],
      [
        "dI",
        -10.829701457693623
      ],
      [
        "neo",
        -10.830987776538304
      ],
      [
        "lj",
        -10.831974576679666
      ],
      [
        "Oi",
        -10.832079703898968
      ],
      [
        "des",
        -10.832506885471822
      ],
      [
        "4l",
        -10.832512005635383
      ],
      [
        "250D",
        -10.832843569919756
      ],
      [
        "982",
        -10.832899512771915
      ],
      [
        "ati",
        -10.833430376416588
      ],
      [
        "nie",
        -10.833690207342718
      ],
      [
        "laris",
        -10.834520307984782
      ],
      [
        "anese",
        -10.834737612881518
      ],
      [
        "yy",
        -10.836656990170804
      ],
      [
        "korea",
        -10.838059149067522
      ],
      [
        "353",
        -10.838570125598887
      ],
      [
        "934",
        -10.839397945755904
      ],
      [
        "tre",
        -10.845475546762348
      ],
      [
        "cha",
        -10.845895254357796
      ],
      [
        "307",
        -10.846829023271223
      ],
      [
        "489",
        -10.848478192963363
      ],
      [
        "757",
        -10.849169407999273
      ],
      [
        "aet",
        -10.850568113669107
      ],
      [
        "nne",
        -10.851597169829333
      ],
      [
        "vu",
        -10.85237318178303
      ],
      [
        "ks_c",
        -10.853131758411587
      ],
      [
        "459",
        -10.853844919411658
      ],
      [
        "854",
        -10.854082116090932
      ],
      [
        "fw",
        -10.854187020146268
      ],
      [
        "yf",
        -10.85432977023203
      ],
      [
        "ran",
        -10.855512305909143
      ],
      [
        "Rs",
        -10.855667340423226
      ],
      [
        "l4",
        -10.855935310504393
      ],
      [
        "teo",
        -10.858103992610104
      ],
      [
        "jl",
        -10.858153237632333
      ],
      [
        "hee",
        -10.858235598163855
      ],
      [
        "684",
        -10.858766325394875
      ],
      [
        "d4",
        -10.858874582892696
      ],
      [
        "759",
        -10.858901608767312
      ],
      [
        "162",
        -10.859156522071725
      ],
      [
        "74727",
        -10.859625140908797
      ],
      [
        "simp",
        -10.860006466554937
      ],
      [
        "mk",
        -10.860237720557443
      ],
      [
        "post",
        -10.860253109164798
      ],
      [
        "jc",
        -10.860431578834158
      ],
      [
        "jd",
        -10.860703975661053
      ],
      [
        "tel",
        -10.863011859845827
      ],
      [
        "837",
        -10.863640046585711
      ],
      [
        "Il",
        -10.86424314040265
      ],
      [
        "vl",
        -10.864407784125394
      ],
      [
        "889",
        -10.86560466711661
      ],
      [
        "ela",
        -10.865733088280754
      ],
      [
        "toe",
        -10.865864185013148
      ],
      [
        "turk",
        -10.866317716400317
      ],
      [
        "486",
        -10.866332897664506
      ],
      [
        "hI",
        -10.866805660410527
      ],
      [
        "384",
        -10.867525111121154
      ],
      [
        "987",
        -10.868501915929848
      ],
      [
        "etn",
        -10.868791274182106
      ],
      [
        "559",
        -10.868830591988917
      ],
      [
        "ber",
        -10.868883180708004
      ],
      [
        "3342",
        -10.869320213615355
      ],
      [
        "834",
        -10.870124479582165
      ],
      [
        "ehe",
        -10.87026699515587
      ],
      [
        "bw",
        -10.871253844326418
      ],
      [
        "267",
        -10.871921373188012
      ],
      [
        "26401",
        -10.872951848078113
      ],
      [
        "bj",
        -10.87331135098546
      ],
      [
        "806",
        -10.874354243621571
      ],
      [
        "089",
        -10.874551788689637
      ],
      [
        "sae",
        -10.875138543669415
      ],
      [
        "ele",
        -10.875166386905722
      ],
      [
        "266",
        -10.876314096280176
      ],
      [
        "ito",
        -10.876529672217861
      ],
      [
        "377",
        -10.877092308680258
      ],
      [
        "4m",
        -10.877382697381957
      ],
      [
        "dO",
        -10.877494198251743
      ],
      [
        "ler",
        -10.878100070242215
      ],
      [
        "lI",
        -10.878747767340005
      ],
      [
        "l6",
        -10.879219132610148
      ],
      [
        "10253",
        -10.879749350893182
      ],
      [
        "cio",
        -10.879845278394356
      ],
      [
        "siri",
        -10.879907039157427
      ],
      [
        "eia",
        -10.879984614613363
      ],
      [
        "446",
        -10.880731929471667
      ],
      [
        "ast",
        -10.880826267757381
      ],
      [
        "504",
        -10.881381939845767
      ],
      [
        "tne",
        -10.881422370697422
      ],
      [
        "eli",
        -10.883046563088694
      ],
      [
        "cv",
        -10.883058771158332
      ],
      [
        "554",
        -10.885540671057864
      ],
      [
        "4h",
        -10.88586578038943
      ],
      [
        "big5",
        -10.885952338429604
      ],
      [
        "387",
        -10.886082876498929
      ],
      [
        "689",
        -10.886193446515259
      ],
      [
        "zl",
        -10.886297951009153
      ],
      [
        "007",
        -10.886895216406447
      ],
      [
        "zm",
        -10.888363568965701
      ],
      [
        "ies",
        -10.888541621527558
      ],
      [
        "ipt",
        -10.890120341229565
      ],
      [
        "oea",
        -10.890685964023248
      ],
      [
        "981",
        -10.89239426755075
      ],
      [
        "ita",
        -10.892909965496187
      ],
      [
        "301",
        -10.894499229912805
      ],
      [
        "685",
        -10.894705888823783
      ],
      [
        "138",
        -10.895019085969448
      ],
      [
        "yb",
        -10.895044856803109
      ],
      [
        "unO",
        -10.895063818634394
      ],
      [
        "887",
        -10.895176460110537
      ],
      [
        "264",
        -10.895653467683427
      ],
      [
        "354",
        -10.896578132351394
      ],
      [
        "306",
        -10.89844192607883
      ],
      [
        "ton",
        -10.89908637114177
      ],
      [
        "oae",
        -10.899708121596781
      ],
      [
        "per",
        -10.899764772449927
      ],
      [
        "zip",
        -10.900816035004448
      ],
      [
        "eer",
        -10.90181050009614
      ],
      [
        "654",
        -10.905229016295255
      ],
      [
        "aoe",
        -10.905504240575828
      ],
      [
        "359",
        -10.905705261094978
      ],
      [
        "virt",
        -10.90654301755016
      ],
      [
        "m6",
        -10.907157069744557
      ],
      [
        "482",
        -10.908542154897873
      ],
      [
        "659",
        -10.91029562947077
      ],
      [
        "ico",
        -10.912208775732385
      ],
      [
        "646",
        -10.912953955701523
      ],
      [
        "212",
        -10.913179310434657
      ],
      [
        "903",
        -10.915198062563691
      ],
      [
        "illo",
        -10.916502250630558
      ],
      [
        "754",
        -10.917226752738603
      ],
      [
        "456",
        -10.917306258584528
      ],
      [
        "1254",
        -10.918262906165776
      ],
      [
        "986",
        -10.919381968425371
      ],
      [
        "Rl",
        -10.919683820341731
      ],
      [
        "ert",
        -10.91982019385516
      ],
      [
        "457",
        -10.919970072842546
      ],
      [
        "pro",
        -10.92162450870996
      ],
      [
        "tei",
        -10.921887363186183
      ],
      [
        "937",
        -10.922663737429449
      ],
      [
        "mv",
        -10.922862401031487
      ],
      [
        "wz",
        -10.923370667489145
      ],
      [
        ")[",
        -10.927101896882744
      ],
      [
        "yw",
        -10.928316162782197
      ],
      [
        "uv",
        -10.929170326675571
      ],
      [
        "687",
        -10.929386683962905
      ],
      [
        "eoo",
        -10.929810640659007
      ],
      [
        "955",
        -10.930562586747417
      ],
      [
        "oto",
        -10.931033794227382
      ],
      [
        "054",
        -10.931978021076267
      ],
      [
        "931",
        -10.933424105355936
      ],
      [
        "933",
        -10.93368231666879
      ],
      [
        "fb",
        -10.934241540043907
      ],
      [
        "ill",
        -10.934853394635997
      ],
      [
        "057",
        -10.935266369546294
      ],
      [
        "557",
        -10.936670592757348
      ],
      [
        "osa",
        -10.93675983634699
      ],
      [
        "707",
        -10.938325509029253
      ],
      [
        "480",
        -10.938665738899747
      ],
      [
        "RO",
        -10.93899310233785
      ],
      [
        "999",
        -10.939093604674877
      ],
      [
        "857",
        -10.939199011694244
      ],
      [
        "1253",
        -10.939423504957446
      ],
      [
        "php4",
        -10.939513489407194
      ],
      [
        "304",
        -10.939775084050538
      ],
      [
        "Uni",
        -10.939927615786551
      ],
      [
        "ww",
        -10.941554958786963
      ],
      [
        "959",
        -10.941556907281523
      ],
      [
        "856",
        -10.94373796889948
      ],
      [
        "604",
        -10.944206142925411
      ],
      [
        "607",
        -10.945676816929499
      ],
      [
        "ona",
        -10.945964769026027
      ],
      [
        "494",
        -10.94960865057791
      ],
      [
        "rne",
        -10.949973416922715
      ],
      [
        "836",
        -10.951543201738367
      ],
      [
        "957",
        -10.953488531380167
      ],
      [
        "447",
        -10.954245814863928
      ],
      [
        "uO",
        -10.954685739607578
      ],
      [
        "381",
        -10.95483630875409
      ],
      [
        "956",
        -10.95525034484828
      ],
      [
        "eit",
        -10.957342524061382
      ],
      [
        "907",
        -10.958879502644006
      ],
      [
        "tti",
        -10.960276330751364
      ],
      [
        "ment",
        -10.960937179250967
      ],
      [
        "cO",
        -10.961257757548488
      ],
      [
        "587",
        -10.96170355055418
      ],
      [
        "eoa",
        -10.961737839469201
      ],
      [
        "702",
        -10.962602220533483
      ],
      [
        "082",
        -10.96360220621732
      ],
      [
        "985",
        -10.963628322337849
      ],
      [
        "782",
        -10.963865518703654
      ],
      [
        "eos",
        -10.964234943269457
      ],
      [
        "383",
        -10.965210340837478
      ],
      [
        "474",
        -10.966472628991358
      ],
      [
        "tat",
        -10.967686631939104
      ],
      [
        "lia",
        -10.969017731828833
      ],
      [
        "eaa",
        -10.969400631616992
      ],
      [
        "736",
        -10.969637834627216
      ],
      [
        "356",
        -10.969658471477288
      ],
      [
        "694",
        -10.969734607725393
      ],
      [
        "landi",
        -10.969764939233231
      ],
      [
        "uI",
        -10.971913174261847
      ],
      [
        "eoi",
        -10.972361069835031
      ],
      [
        "aeo",
        -10.974210676264939
      ],
      [
        "yv",
        -10.974607965500322
      ],
      [
        "cj",
        -10.976002376879904
      ],
      [
        "198",
        -10.977747806927866
      ],
      [
        "mz",
        -10.978434257762085
      ],
      [
        "758",
        -10.980442367228484
      ],
      [
        "tto",
        -10.980986702683204
      ],
      [
        "eao",
        -10.982096976366478
      ],
      [
        "iea",
        -10.982539502043657
      ],
      [
        "oli",
        -10.986208963511874
      ],
      [
        "sat",
        -10.98628305466043
      ],
      [
        "433",
        -10.986302876932843
      ],
      [
        "004",
        -10.988110754849199
      ],
      [
        "909",
        -10.988445224870027
      ],
      [
        "706",
        -10.988760566839337
      ],
      [
        "Rd",
        -10.989788117797216
      ],
      [
        "786",
        -10.989981974036244
      ],
      [
        "954",
        -10.991015120233929
      ],
      [
        "inc",
        -10.992840137405263
      ],
      [
        "kd",
        -10.99356927166632
      ],
      [
        "453",
        -10.995320559660243
      ],
      [
        "224",
        -10.995379888640606
      ],
      [
        "953",
        -10.996270725753384
      ],
      [
        "sti",
        -10.997893312121096
      ],
      [
        "Ru",
        -10.998004116759073
      ],
      [
        "str",
        -10.998424053414253
      ],
      [
        "ses",
        -11.001483109873602
      ],
      [
        "686",
        -11.002570077134202
      ],
      [
        "eth",
        -11.003215942551861
      ],
      [
        "739",
        -11.00382839344488
      ],
      [
        "nea",
        -11.004010141049802
      ],
      [
        "984",
        -11.004259825665011
      ],
      [
        "eeh",
        -11.004814140001125
      ],
      [
        "3FB",
        -11.006294091019267
      ],
      [
        "994",
        -11.006441234747129
      ],
      [
        "tri",
        -11.008445032622301
      ],
      [
        "374",
        -11.01204017298858
      ],
      [
        "704",
        -11.013156253509266
      ],
      [
        "497",
        -11.013625267105812
      ],
      [
        "ear",
        -11.014238933442943
      ],
      [
        "wg",
        -11.014794604056522
      ],
      [
        "mI",
        -11.015742321687519
      ],
      [
        "647",
        -11.017427875482483
      ],
      [
        "639",
        -11.018962531630432
      ],
      [
        "753",
        -11.019593860761052
      ],
      [
        "493",
        -11.020836503084604
      ],
      [
        "aei",
        -11.020858149989083
      ],
      [
        "2787",
        -11.02091324060429
      ],
      [
        "731",
        -11.02109133621087
      ],
      [
        "2572",
        -11.023663159726478
      ],
      [
        "sei",
        -11.023753591784029
      ],
      [
        "797",
        -11.02497533351253
      ],
      [
        "683",
        -11.025978355721758
      ],
      [
        "302",
        -11.026294554837342
      ],
      [
        "kf",
        -11.026654885725383
      ],
      [
        "u4",
        -11.027662351403196
      ],
      [
        "php3",
        -11.027757004259179
      ],
      [
        "807",
        -11.028674663691023
      ],
      [
        "rin",
        -11.029301222287703
      ],
      [
        "434",
        -11.030531911336379
      ],
      [
        "988",
        -11.031234493820111
      ],
      [
        "dR",
        -11.032366775134678
      ],
      [
        "784",
        -11.032618321949228
      ],
      [
        "Ih",
        -11.033137089039773
      ],
      [
        "pv",
        -11.033304410732859
      ],
      [
        "697",
        -11.033601926215315
      ],
      [
        "amples",
        -11.035134071661528
      ],
      [
        "7u",
        -11.035561765993943
      ],
      [
        "iti",
        -11.035867743822678
      ],
      [
        "396",
        -11.035948366355065
      ],
      [
        "3FF",
        -11.036864580760795
      ],
      [
        "507",
        -11.03706504813986
      ],
      [
        "zw",
        -11.03712618855339
      ],
      [
        "656",
        -11.037673215233518
      ],
      [
        "436",
        -11.039428861892796
      ],
      [
        "796",
        -11.04116722169484
      ],
      [
        "sse",
        -11.043068625352998
      ],
      [
        "las",
        -11.0441835461057
      ],
      [
        "317",
        -11.044637235645908
      ],
      [
        "zg",
        -11.046548142404527
      ],
      [
        "rei",
        -11.047580324346711
      ],
      [
        "rel",
        -11.0476185467887
      ],
      [
        "974",
        -11.048773987942846
      ],
      [
        "dv",
        -11.049165181264884
      ],
      [
        "mO",
        -11.051020616249737
      ],
      [
        "itt",
        -11.05255250784949
      ],
      [
        "eir",
        -11.052700594123522
      ],
      [
        "256B",
        -11.05310552700643
      ],
      [
        "804",
        -11.053618265597986
      ],
      [
        "414",
        -11.055092324227964
      ],
      [
        "nse",
        -11.055607905989547
      ],
      [
        "977",
        -11.055957231542365
      ],
      [
        "iss",
        -11.056846001559267
      ],
      [
        "ica",
        -11.0572091729071
      ],
      [
        "son",
        -11.057698560068303
      ],
      [
        "967",
        -11.058683969170833
      ],
      [
        "lO",
        -11.059007330948823
      ],
      [
        "733",
        -11.059711370245891
      ],
      [
        "256C",
        -11.060302618807071
      ],
      [
        "983",
        -11.062649701186686
      ],
      [
        "los",
        -11.063095013567768
      ],
      [
        "708",
        -11.06359995836829
      ],
      [
        "lee",
        -11.064731714624553
      ],
      [
        "407",
        -11.064900116563631
      ],
      [
        "452",
        -11.065358648921112
      ],
      [
        "935",
        -11.065812697663931
      ],
      [
        "952",
        -11.065877422044448
      ],
      [
        "701",
        -11.0666872910773
      ],
      [
        "756",
        -11.0668843500715
      ],
      [
        "bv",
        -11.067523427662245
      ],
      [
        "vm",
        -11.068606453031762
      ],
      [
        "256D",
        -11.069540760619866
      ],
      [
        "nti",
        -11.072197513898171
      ],
      [
        "432",
        -11.072899268710586
      ],
      [
        "406",
        -11.073020608913197
      ],
      [
        "jw",
        -11.07342575046444
      ],
      [
        "yj",
        -11.074381027123765
      ],
      [
        "fj",
        -11.075174761405382
      ],
      [
        "EXEC",
        -11.076412951847477
      ],
      [
        "603",
        -11.076645421743429
      ],
      [
        "379",
        -11.076719878049943
      ],
      [
        "ect",
        -11.077433523913047
      ],
      [
        "src",
        -11.077970133245245
      ],
      [
        "614",
        -11.078425427835949
      ],
      [
        "jf",
        -11.079167524574107
      ],
      [
        "404",
        -11.080168015819094
      ],
      [
        "789",
        -11.080665217685244
      ],
      [
        "ias",
        -11.085438910406051
      ],
      [
        "oei",
        -11.085902503799772
      ],
      [
        "732",
        -11.086307961703504
      ],
      [
        "657",
        -11.088198917720021
      ],
      [
        "309",
        -11.088530683840903
      ],
      [
        "Om",
        -11.089350208285941
      ],
      [
        "cas",
        -11.089479091908466
      ],
      [
        "ente",
        -11.089924444058791
      ],
      [
        "752",
        -11.090779124991183
      ],
      [
        "376",
        -11.095876279707067
      ],
      [
        "469",
        -11.095952009530382
      ],
      [
        "Od",
        -11.099996528013767
      ],
      [
        "451",
        -11.101745545200863
      ],
      [
        "997",
        -11.103239268146332
      ],
      [
        "644",
        -11.103762815979444
      ],
      [
        "system3",
        -11.104076754023144
      ],
      [
        "477",
        -11.104257179107051
      ],
      [
        "976",
        -11.105094780714012
      ],
      [
        "337",
        -11.108039629933927
      ],
      [
        "764",
        -11.109023121594316
      ],
      [
        "382",
        -11.11161122206252
      ],
      [
        "toa",
        -11.11206815666847
      ],
      [
        "ota",
        -11.113380899218203
      ],
      [
        "787",
        -11.117967517986102
      ],
      [
        "606",
        -11.118305030302604
      ],
      [
        "iel",
        -11.118523388910589
      ],
      [
        "483",
        -11.119874472903101
      ],
      [
        "709",
        -11.12135774236489
      ],
      [
        "ets",
        -11.123218610211476
      ],
      [
        "dia",
        -11.125555978394228
      ],
      [
        "rto",
        -11.127053230191
      ],
      [
        "ky",
        -11.127304076766961
      ],
      [
        "ric",
        -11.13338271994079
      ],
      [
        "416",
        -11.133530176587445
      ],
      [
        "file",
        -11.13451356293488
      ],
      [
        "zz",
        -11.136364231928022
      ],
      [
        "iei",
        -11.136443857251894
      ],
      [
        "911",
        -11.13654505353534
      ],
      [
        "jb",
        -11.137112441798664
      ],
      [
        "336",
        -11.140168432599385
      ],
      [
        "802",
        -11.140590243083988
      ],
      [
        "vw",
        -11.14192144308014
      ],
      [
        "Ou",
        -11.142514788471088
      ],
      [
        "ella",
        -11.142958807664037
      ],
      [
        "oot",
        -11.146927066195193
      ],
      [
        "767",
        -11.147373149519373
      ],
      [
        "737",
        -11.147552469404047
      ],
      [
        "oeo",
        -11.147871511410814
      ],
      [
        "nda",
        -11.148547304452624
      ],
      [
        "666",
        -11.148837922652069
      ],
      [
        "89730",
        -11.150542719589339
      ],
      [
        "fk",
        -11.151478254580937
      ],
      [
        "wv",
        -11.151611532372971
      ],
      [
        "637",
        -11.156939920450125
      ],
      [
        "699",
        -11.15806181107546
      ],
      [
        "ooe",
        -11.15811688797437
      ],
      [
        "774",
        -11.159319204268044
      ],
      [
        "48613",
        -11.159420058873682
      ],
      [
        "492",
        -11.161689268463013
      ],
      [
        "62529",
        -11.16380162007854
      ],
      [
        "ris",
        -11.163806486432005
      ],
      [
        "413",
        -11.164008204978611
      ],
      [
        "734",
        -11.164487296259486
      ],
      [
        "449",
        -11.16463004185173
      ],
      [
        "667",
        -11.165425823041698
      ],
      [
        "799",
        -11.166430964330923
      ],
      [
        "vy",
        -11.16714243664677
      ],
      [
        "tnn",
        -11.167208163219323
      ],
      [
        "back",
        -11.168258787811046
      ],
      [
        "439",
        -11.168468187384008
      ],
      [
        "aat",
        -11.168511859519862
      ],
      [
        "aaa",
        -11.16979360405215
      ],
      [
        "sch",
        -11.170994507145043
      ],
      [
        "zb",
        -11.171576511131558
      ],
      [
        "602",
        -11.172420608762675
      ],
      [
        "696",
        -11.174485228890628
      ],
      [
        "Barcelon",
        -11.176820165228584
      ],
      [
        "aot",
        -11.177455217113248
      ],
      [
        "919",
        -11.18034163818318
      ],
      [
        "bO",
        -11.1834913649774
      ],
      [
        "Iw",
        -11.184129429846333
      ],
      [
        "fv",
        -11.18572927612087
      ],
      [
        "uer",
        -11.18592224758465
      ],
      [
        "996",
        -11.188075786682102
      ],
      [
        "vf",
        -11.188666971328264
      ],
      [
        "6909",
        -11.189552375899709
      ],
      [
        "bz",
        -11.192457034694943
      ],
      [
        "vb",
        -11.199200786371648
      ],
      [
        "676",
        -11.199496114797633
      ],
      [
        "692",
        -11.199878189331518
      ],
      [
        "fz",
        -11.202108793871753
      ],
      [
        "484",
        -11.20477916287718
      ],
      [
        "Ob",
        -11.205661625078392
      ],
      [
        "703",
        -11.206756441717634
      ],
      [
        "lor",
        -11.20737712465247
      ],
      [
        "tot",
        -11.207932234532603
      ],
      [
        "nna",
        -11.211657228685304
      ],
      [
        "314",
        -11.212430255274501
      ],
      [
        "712",
        -11.214682201125663
      ],
      [
        "716",
        -11.215277968623083
      ],
      [
        "D8B",
        -11.21646123678401
      ],
      [
        "Ow",
        -11.218440938931488
      ],
      [
        "794",
        -11.21849053774807
      ],
      [
        "bri",
        -11.22172537993216
      ],
      [
        "674",
        -11.22445009808418
      ],
      [
        "ster",
        -11.22822070507986
      ],
      [
        "499",
        -11.231116490938845
      ],
      [
        "776",
        -11.231753704062598
      ],
      [
        "sas",
        -11.233863693105786
      ],
      [
        "AAD",
        -11.241356861500742
      ],
      [
        "yz",
        -11.243721253000324
      ],
      [
        "636",
        -11.250667615579054
      ],
      [
        "466",
        -11.25121327157461
      ],
      [
        "030637",
        -11.260209558895259
      ],
      [
        "652",
        -11.262335308789137
      ],
      [
        "old",
        -11.262920413279721
      ],
      [
        "jy",
        -11.269676930104009
      ],
      [
        "ername",
        -11.270578381110196
      ],
      [
        "56329",
        -11.270974122449541
      ],
      [
        "634",
        -11.271288974792615
      ],
      [
        "SCR",
        -11.271296105830865
      ],
      [
        "632",
        -11.276421274054957
      ],
      [
        "Seg",
        -11.278932706363328
      ],
      [
        "777",
        -11.278933763391978
      ],
      [
        "aoa",
        -11.279245052069857
      ],
      [
        "Salamanca",
        -11.279713836105392
      ],
      [
        "bob",
        -11.28079183603979
      ],
      [
        "chi",
        -11.284272257379701
      ],
      [
        "hes",
        -11.284345029171721
      ],
      [
        "D0D",
        -11.28520461898508
      ],
      [
        "D5F",
        -11.285286927210564
      ],
      [
        "oll",
        -11.285775747435709
      ],
      [
        "erc",
        -11.287377911741558
      ],
      [
        "2568",
        -11.287556585743374
      ],
      [
        "gar",
        -11.288320148629223
      ],
      [
        "442",
        -11.292742621868824
      ],
      [
        "DD3",
        -11.292949258783683
      ],
      [
        "D1D",
        -11.293622971384966
      ],
      [
        "476",
        -11.293740969860696
      ],
      [
        "616",
        -11.298053777027341
      ],
      [
        "902",
        -11.298677424415104
      ],
      [
        "D9D",
        -11.300976644711922
      ],
      [
        "664",
        -11.303037155017769
      ],
      [
        "BCD",
        -11.30633702376727
      ],
      [
        "5AD",
        -11.306930432980629
      ],
      [
        "98D",
        -11.309987263902991
      ],
      [
        "717",
        -11.313296499027913
      ],
      [
        "dor",
        -11.314191658536897
      ],
      [
        "2564",
        -11.314623214019013
      ],
      [
        "B7D",
        -11.315229577179789
      ],
      [
        "746",
        -11.316671297425106
      ],
      [
        "ure",
        -11.316700692524927
      ],
      [
        "2AD",
        -11.319049861089091
      ],
      [
        "Burgo",
        -11.319934041676476
      ],
      [
        "2567",
        -11.324578663457483
      ],
      [
        "BED",
        -11.325060866510562
      ],
      [
        "487",
        -11.325589424943988
      ],
      [
        "DDD",
        -11.327935839398801
      ],
      [
        "3exec",
        -11.334873664304094
      ],
      [
        "914",
        -11.33587115054107
      ],
      [
        "ooo",
        -11.338040680982587
      ],
      [
        "otn",
        -11.339299297614584
      ],
      [
        "D1B",
        -11.352986736671555
      ],
      [
        "Santa",
        -11.355569037578173
      ],
      [
        "F0B",
        -11.355641479511188
      ],
      [
        "253CSCR",
        -11.36200932172887
      ],
      [
        "BB4",
        -11.362631961156431
      ],
      [
        "roxy",
        -11.36581905142836
      ],
      [
        "ador",
        -11.371547338416413
      ],
      [
        "too",
        -11.373401296058748
      ],
      [
        "D9A",
        -11.373879610153825
      ],
      [
        "FCD",
        -11.381684997684104
      ],
      [
        "2Fscr",
        -11.382734243519494
      ],
      [
        "D9B",
        -11.389277450310408
      ],
      [
        "nnn",
        -11.389940198874527
      ],
      [
        "792",
        -11.390849783563908
      ],
      [
        "display",
        -11.394421741547362
      ],
      [
        "FC8",
        -11.399289573225923
      ],
      [
        "oaa",
        -11.400735255466653
      ],
      [
        "BCB",
        -11.401884649521335
      ],
      [
        "6A7",
        -11.405587738663062
      ],
      [
        "79D",
        -11.409522347640472
      ],
      [
        "ley",
        -11.41061515716453
      ],
      [
        "714",
        -11.411505674799958
      ],
      [
        "FC6",
        -11.412476609897986
      ],
      [
        "mas",
        -11.413310880266831
      ],
      [
        "B8D",
        -11.414719324690127
      ],
      [
        "B6B",
        -11.41588701745582
      ],
      [
        "9CD",
        -11.416812775368989
      ],
      [
        "htr",
        -11.417639105598688
      ],
      [
        "7A4",
        -11.418898289947542
      ],
      [
        "spa",
        -11.420727949168208
      ],
      [
        "7A7",
        -11.421817554512938
      ],
      [
        "BEB",
        -11.42253053259733
      ],
      [
        "aoo",
        -11.422993011725097
      ],
      [
        "DD9",
        -11.423868132975272
      ],
      [
        "avi",
        -11.427696436770198
      ],
      [
        "DC6",
        -11.428078064031633
      ],
      [
        "Valenci",
        -11.428132965314681
      ],
      [
        "765205",
        -11.428142110159552
      ],
      [
        "76235",
        -11.428573415207293
      ],
      [
        "67234",
        -11.428589074806519
      ],
      [
        "612",
        -11.429235167439554
      ],
      [
        "417",
        -11.430965170155496
      ],
      [
        "27br",
        -11.43121271186439
      ],
      [
        "ooa",
        -11.435184737679233
      ],
      [
        "mes",
        -11.435380654861184
      ],
      [
        "ajar",
        -11.435620530741108
      ],
      [
        "WINNT",
        -11.43962690012168
      ],
      [
        "UNION",
        -11.439913218436416
      ],
      [
        "D7B",
        -11.442114122714766
      ],
      [
        "7AD",
        -11.449011337842801
      ],
      [
        "3CSCR",
        -11.451553501477541
      ],
      [
        "bal",
        -11.454183523981943
      ],
      [
        "FC7",
        -11.455094144317844
      ],
      [
        "aao",
        -11.455343905918092
      ],
      [
        "252B",
        -11.455540538047519
      ],
      [
        "B0B",
        -11.456302412930675
      ],
      [
        "Mont",
        -11.45640167769376
      ],
      [
        "DCD",
        -11.457542601856638
      ],
      [
        "B8F",
        -11.459597449241127
      ],
      [
        "4A4",
        -11.463989111035753
      ],
      [
        "B9D",
        -11.465343020605642
      ],
      [
        "F8C",
        -11.469158930514219
      ],
      [
        "DDA",
        -11.470533255716003
      ],
      [
        "ante",
        -11.472558947436742
      ],
      [
        "web",
        -11.473292972179891
      ],
      [
        "Guadal",
        -11.474924093153497
      ],
      [
        "4C7",
        -11.482842434753808
      ],
      [
        "2EF",
        -11.483034975161637
      ],
      [
        "4AD",
        -11.484793658460834
      ],
      [
        "412",
        -11.485364064517343
      ],
      [
        "F56",
        -11.485395791715227
      ],
      [
        "BC3",
        -11.489260553548062
      ],
      [
        "ger",
        -11.490133228333718
      ],
      [
        "1DD",
        -11.494890267252963
      ],
      [
        "BCA",
        -11.498728871223655
      ],
      [
        "Zamora",
        -11.49916743942172
      ],
      [
        "F07",
        -11.499179787784502
      ],
      [
        "sessi",
        -11.500540968747647
      ],
      [
        "F04",
        -11.502920095221988
      ],
      [
        "F01",
        -11.505701057620437
      ],
      [
        "iana",
        -11.50663791078553
      ],
      [
        "D7F",
        -11.507373895923884
      ],
      [
        "F0D",
        -11.509720429107016
      ],
      [
        "Palencia",
        -11.511513083856592
      ],
      [
        "FC4",
        -11.516339211525224
      ],
      [
        "F86",
        -11.51660786198698
      ],
      [
        "tnr",
        -11.517720570077103
      ],
      [
        "fer",
        -11.518913720355094
      ],
      [
        "2A7",
        -11.523532390135266
      ],
      [
        "FDF",
        -11.525299363786363
      ],
      [
        "B5F",
        -11.532361872919957
      ],
      [
        "F81",
        -11.532783218027241
      ],
      [
        "DA7",
        -11.538202385211397
      ],
      [
        "B7F",
        -11.538316364287617
      ],
      [
        "F7F",
        -11.541442574746387
      ],
      [
        "B59",
        -11.545510845317999
      ],
      [
        "DAD",
        -11.547135764614495
      ],
      [
        "example",
        -11.55115388742249
      ],
      [
        "D04",
        -11.553421594750358
      ],
      [
        "ham",
        -11.553450101087515
      ],
      [
        "uni",
        -11.558701945858683
      ],
      [
        "FCB",
        -11.559816331020999
      ],
      [
        "zar",
        -11.562825283201033
      ],
      [
        "Alc",
        -11.564022002980689
      ],
      [
        "ovia",
        -11.566839147062552
      ],
      [
        "DA4",
        -11.568977966733254
      ],
      [
        "B9F",
        -11.573503592451324
      ],
      [
        "6A4",
        -11.573547097364965
      ],
      [
        "guer",
        -11.574424813915975
      ],
      [
        "Zaragoz",
        -11.575636716061851
      ],
      [
        "BFF",
        -11.575996291917956
      ],
      [
        "8DD",
        -11.576547002873397
      ],
      [
        "F4B",
        -11.577527817237112
      ],
      [
        "B53",
        -11.57852735361271
      ],
      [
        "F84",
        -11.584696164705445
      ],
      [
        "FE6",
        -11.58630728171277
      ],
      [
        "Giron",
        -11.58903434418786
      ],
      [
        "Torre",
        -11.590174303185297
      ],
      [
        "BC6",
        -11.591079304976443
      ],
      [
        "Camp",
        -11.592586304620337
      ],
      [
        "F9B",
        -11.595792412243703
      ],
      [
        "gona",
        -11.595919356647673
      ],
      [
        "mad",
        -11.596072223582242
      ],
      [
        "rnr",
        -11.59610434851001
      ],
      [
        "BC7",
        -11.600490688469792
      ],
      [
        "Soria",
        -11.602517781415326
      ],
      [
        "4C6",
        -11.608951185458256
      ],
      [
        "FFF",
        -11.612757184196688
      ],
      [
        "BEF",
        -11.613837711261256
      ],
      [
        "uenc",
        -11.615925168343818
      ],
      [
        "B54",
        -11.620440939181076
      ],
      [
        "lles",
        -11.621041589685802
      ],
      [
        "D0B",
        -11.62218086668721
      ],
      [
        "B7B",
        -11.62579083541964
      ],
      [
        "BE7",
        -11.62968040230531
      ],
      [
        "Madrid",
        -11.630071286050466
      ],
      [
        "Name",
        -11.631016810791103
      ],
      [
        "FEF",
        -11.63515976680962
      ],
      [
        "F89",
        -11.637543022473253
      ],
      [
        "F8D",
        -11.641364479865782
      ],
      [
        "C1vila",
        -11.644156116901495
      ],
      [
        "6C7",
        -11.645374251822862
      ],
      [
        "eruel",
        -11.646602015780758
      ],
      [
        "F1B",
        -11.653590314771453
      ],
      [
        "../..%",
        -11.658836090751851
      ],
      [
        "F4F",
        -11.666951983615258
      ],
      [
        "B9B",
        -11.67142818504632
      ],
      [
        "BAF",
        -11.672028843699396
      ],
      [
        "B57",
        -11.6723476145304
      ],
      [
        "6A6",
        -11.67817544900515
      ],
      [
        "BC2",
        -11.682880136065048
      ],
      [
        "7A6",
        -11.68356768115613
      ],
      [
        "9DD",
        -11.684338949440386
      ],
      [
        "3D12",
        -11.687219396871605
      ],
      [
        "Navar",
        -11.718650845271714
      ],
      [
        "..\\\\..\\\\..\\\\",
        -11.720062389424154
      ],
      [
        "DOW",
        -11.724061279583363
      ],
      [
        "F54",
        -11.764439734463789
      ],
      [
        "D_P",
        -11.798577739069355
      ],
      [
        "5Cautoexec",
        -11.814837520705648
      ],
      [
        "scap",
        -11.831248330996416
      ],
      [
        "archivo",
        -11.847979150643106
      ],
      [
        "Vallad",
        -11.847981768062414
      ],
      [
        "ilter",
        -11.866149099911075
      ],
      [
        "targe",
        -11.866205456152612
      ],
      [
        "hacker",
        -11.883380865901897
      ],
      [
        "TABLE",
        -11.883424199070937
      ],
      [
        "eRoo",
        -11.883871951855072
      ],
      [
        "database",
        -11.901562008730966
      ],
      [
        "secret",
        -11.901566509366743
      ],
      [
        "Juan",
        -11.901732688505323
      ],
      [
        "////////////////",
        -11.920080468615472
      ],
      [
        "DELETE",
        -11.920081911994286
      ],
      [
        ">\\\\\\",
        -11.920084048922005
      ],
      [
        "Alba",
        -11.926674928664386
      ],
      [
        "USER",
        -11.958188696230154
      ],
      [
        "uesca",
        -11.97812018399276
      ],
      [
        "Jose",
        -11.978662706339744
      ],
      [
        "uario",
        -11.978889101569921
      ],
      [
        "\\\\.\\.\\\\/\\.\\\\.\\/",
        -12.060305097855089
      ],
      [
        "../../../../",
        -12.126993723239437
      ],
      [
        "Granad",
        -12.150268856601816
      ],
      [
        "Carrer",
        -12.17407050762395
      ],
      [
        "_vti_",
        -12.249090352065164
      ],
      [
        "table",
        -12.249489471423967
      ],
      [
        "#",
        -12.33021092482435
      ],
      [
        "><!--",
        -12.330210924870219
      ],
      [
        "Traves",
        -12.330211675736964
      ],
      [
        "Cantabri",
        -12.358782402056717
      ],
      [
        "Castell",
        -12.358787716041395
      ],
      [
        "Inetpub",
        -12.388194119857747
      ],
      [
        "date_",
        -12.416937250492342
      ],
      [
        "............",
        -12.418497148404771
      ],
      [
        "40hiper",
        -12.418497720702538
      ],
      [
        "..\\\\..\\\\..\\\\..\\\\",
        -12.44650496468541
      ],
      [
        "40ajuntament",
        -12.515338546254174
      ],
      [
        "Francis",
        -12.622572636821438
      ],
      [
        "Rodrig",
        -12.661034697811655
      ],
      [
        "\\",
        -12.786164970988764
      ],
      [
        "2Faccess",
        -12.929250804201192
      ],
      [
        "Urbaniz",
        -12.981884266597179
      ],
      [
        "professional",
        -12.981884310081773
      ],
      [
        "40automoviles",
        -13.457114998964048
      ],
      [
        "40intercambio",
        -13.648024089874175
      ],
      [
        "`",
        -13.884135200996871
      ],
      [
        "}",
        -14.393559010560642
      ],
      [
        "!",
        -14.393659010560642
      ],
      [
        "{",
        -14.393659010560642
      ]
    ],
    "byte_fallback": false
  }
}