{
  "version": "1.0",
  "truncation": null,
  "padding": null,
  "added_tokens": [
    {
      "id": 0,
      "content": "[PAD]",
      "single_word": false,
      "lstrip": false,
      "rstrip": false,
      "normalized": false,
      "special": true
    },
    {
      "id": 1,
      "content": "[UNK]",
      "single_word": false,
      "lstrip": false,
      "rstrip": false,
      "normalized": false,
      "special": true
    },
    {
      "id": 2,
      "content": "[CLS]",
      "single_word": false,
      "lstrip": false,
      "rstrip": false,
      "normalized": false,
      "special": true
    },
    {
      "id": 3,
      "content": "[SEP]",
      "single_word": false,
      "lstrip": false,
      "rstrip": false,
      "normalized": false,
      "special": true
    },
    {
      "id": 4,
      "content": "[MASK]",
      "single_word": false,
      "lstrip": false,
      "rstrip": false,
      "normalized": false,
      "special": true
    }
  ],
  "normalizer": {
    "type": "NFKC"
  },
  "pre_tokenizer": {
    "type": "Whitespace"
  },
  "post_processor": null,
  "decoder": null,
  "model": {
    "type": "BPE",
    "dropout": null,
    "unk_token": "[UNK]",
    "continuing_subword_prefix": null,
    "end_of_word_suffix": null,
    "fuse_unk": false,
    "byte_fallback": false,
    "ignore_merges": false,
    "vocab": {
      "[PAD]": 0,
      "[UNK]": 1,
      "[CLS]": 2,
      "[SEP]": 3,
      "[MASK]": 4,
      "!": 5,
      "#": 6,
      "$": 7,
      "%": 8,
      "&": 9,
      "'": 10,
      "(": 11,
      ")": 12,
      "*": 13,
      "+": 14,
      ",": 15,
      "-": 16,
      ".": 17,
      "/": 18,
      "0": 19,
      "1": 20,
      "2": 21,
      "3": 22,
      "4": 23,
      "5": 24,
      "6": 25,
      "7": 26,
      "8": 27,
      "9": 28,
      ":": 29,
      ";": 30,
      "<": 31,
      "=": 32,
      ">": 33,
      "?": 34,
      "@": 35,
      "A": 36,
      "B": 37,
      "C": 38,
      "D": 39,
      "E": 40,
      "F": 41,
      "G": 42,
      "H": 43,
      "I": 44,
      "J": 45,
      "K": 46,
      "L": 47,
      "M": 48,
      "N": 49,
      "O": 50,
      "P": 51,
      "Q": 52,
      "R": 53,
      "S": 54,
      "T": 55,
      "U": 56,
      "V": 57,
      "W": 58,
      "X": 59,
      "Y": 60,
      "Z": 61,
      "[": 62,
      "\\": 63,
      "]": 64,
      "_": 65,
      "`": 66,
      "a": 67,
      "b": 68,
      "c": 69,
      "d": 70,
      "e": 71,
      "f": 72,
      "g": 73,
      "h": 74,
      "i": 75,
      "j": 76,
      "k": 77,
      "l": 78,
      "m": 79,
      "n": 80,
      "o": 81,
      "p": 82,
      "q": 83,
      "r": 84,
      "s": 85,
      "t": 86,
      "u": 87,
      "v": 88,
      "w": 89,
      "x": 90,
      "y": 91,
      "z": 92,
      "{": 93,
      "|": 94,
      "}": 95,
      "~": 96,
      "SE": 97,
      "SEP": 98,
      "SC": 99,
      "EQ": 100,
      "ESC": 101,
      "_EQ": 102,
      "ESC_EQ": 103,
      "on": 104,
      "en": 105,
      "ti": 106,
      "ca": 107,
      "er": 108,
      "os": 109,
      "ml": 110,
      "li": 111,
      "ce": 112,
      "ent": 113,
      "pt": 114,
      "ag": 115,
      "cce": 116,
      "Con": 117,
      "ccept": 118,
      "Accept": 119,
      "ch": 120,
      "LL": 121,
      "tion": 122,
      "NU": 123,
      "=<": 124,
      "NULL": 125,
      "ost": 126,
      "che": 127,
      "te": 128,
      "in": 129,
      "et": 130,
      "ec": 131,
      "xt": 132,
      "text": 133,
      "xml": 134,
      "tent": 135,
      "Content": 136,
      "Host": 137,
      "no": 138,
      "ar": 139,
      "ap": 140,
      "la": 141,
      "age": 142,
      "ng": 143,
      "cation": 144,
      "app": 145,
      "lication": 146,
      "application": 147,
      "ET": 148,
      "uer": 149,
      "GET": 150,
      "HT": 151,
      "*;": 152,
      "ht": 153,
      "co": 154,
      "80": 155,
      "cache": 156,
      "ut": 157,
      "or": 158,
      "tr": 159,
      "html": 160,
      "ad": 161,
      "utf": 162,
      "ma": 163,
      "ie": 164,
      "od": 165,
      "ta": 166,
      "OS": 167,
      "POS": 168,
      "POST": 169,
      "tro": 170,
      "il": 171,
      "th": 172,
      "oo": 173,
      "lo": 174,
      "EC": 175,
      "ser": 176,
      "pe": 177,
      "Ca": 178,
      "le": 179,
      "La": 180,
      "kie": 181,
      "Da": 182,
      "con": 183,
      "set": 184,
      "He": 185,
      "nec": 186,
      "ND": 187,
      "RI": 188,
      "Ag": 189,
      "eth": 190,
      "Ch": 191,
      "Pr": 192,
      "Ty": 193,
      "eng": 194,
      "TP": 195,
      "=/": 196,
      "ader": 197,
      "ngu": 198,
      "Coo": 199,
      "uery": 200,
      "trol": 201,
      "Connec": 202,
      "Data": 203,
      "control": 204,
      "Char": 205,
      "Type": 206,
      "Query": 207,
      "REC": 208,
      "User": 209,
      "URI": 210,
      "agma": 211,
      "ethod": 212,
      "Cache": 213,
      "Agent": 214,
      "END": 215,
      "Leng": 216,
      "Method": 217,
      "HTTP": 218,
      "Langu": 219,
      "Header": 220,
      "Pragma": 221,
      "Cookie": 222,
      "Connection": 223,
      "Charset": 224,
      "Length": 225,
      "Language": 226,
      "pa": 227,
      "im": 228,
      "++": 229,
      "ww": 230,
      "oz": 231,
      "illa": 232,
      "cl": 233,
      "ke": 234,
      "ko": 235,
      "/*;": 236,
      "Moz": 237,
      "Mozilla": 238,
      "ose": 239,
      "da": 240,
      "Gec": 241,
      "Gecko": 242,
      "close": 243,
      "com": 244,
      "*/*;": 245,
      "image": 246,
      "lh": 247,
      "ble": 248,
      "pati": 249,
      "compati": 250,
      "compatible": 251,
      "pla": 252,
      "ux": 253,
      "png": 254,
      "SI": 255,
      "Lin": 256,
      "Linux": 257,
      "quer": 258,
      "like": 259,
      "Kon": 260,
      "queror": 261,
      "Konqueror": 262,
      "plain": 263,
      "NI": 264,
      "ML": 265,
      "lhost": 266,
      "loca": 267,
      "ONI": 268,
      "KHT": 269,
      "SES": 270,
      "localhost": 271,
      ",*/*;": 272,
      "JSES": 273,
      "xhtml": 274,
      "SIONI": 275,
      "KHTML": 276,
      "JSESSIONI": 277,
      "JSESSIONID": 278,
      "8080": 279,
      "re": 280,
      "tien": 281,
      "da1": 282,
      "tienda1": 283,
      "25": 284,
      "sp": 285,
      "is": 286,
      "de": 287,
      "jsp": 288,
      "ci": 289,
      "27": 290,
      "www": 291,
      "ub": 292,
      "2F": 293,
      "es": 294,
      "pub": 295,
      "lico": 296,
      "publico": 297,
      "mb": 298,
      "ir": 299,
      "29": 300,
      "B1": 301,
      "an": 302,
      "ur": 303,
      "40": 304,
      "28": 305,
      "ss": 306,
      "it": 307,
      "for": 308,
      "form": 309,
      "io": 310,
      "pr": 311,
      "al": 312,
      "gis": 313,
      "len": 314,
      "3D": 315,
      "ee": 316,
      "ded": 317,
      "22": 318,
      "85": 319,
      "coded": 320,
      "urlen": 321,
      "urlencoded": 322,
      "el": 323,
      "do": 324,
      "nt": 325,
      "11": 326,
      "2C": 327,
      "as": 328,
      "23": 329,
      "3A": 330,
      "odo": 331,
      "log": 332,
      "modo": 333,
      "10": 334,
      "car": 335,
      "ni": 336,
      "20": 337,
      "ud": 338,
      "24": 339,
      "15": 340,
      "26": 341,
      "=*": 342,
      "17": 343,
      "19": 344,
      "me": 345,
      "86": 346,
      "16": 347,
      "3C": 348,
      "st": 349,
      "id": 350,
      "13": 351,
      "if": 352,
      "87": 353,
      "46": 354,
      "++++": 355,
      "+%": 356,
      "3E": 357,
      "mbre": 358,
      "login": 359,
      "39": 360,
      "nombre": 361,
      "ri": 362,
      "cia": 363,
      "regis": 364,
      "registro": 365,
      "5C": 366,
      "trar": 367,
      "47": 368,
      "37": 369,
      "49": 370,
      "89": 371,
      "ea": 372,
      "3B": 373,
      "pass": 374,
      "cp": 375,
      "ov": 376,
      "45": 377,
      "30": 378,
      ">%": 379,
      "3F": 380,
      "ws": 381,
      "ros": 382,
      "ed": 383,
      "36": 384,
      "mie": 385,
      "2B": 386,
      "mbros": 387,
      "miembros": 388,
      "oe": 389,
      "56": 390,
      "/*": 391,
      "=*;": 392,
      "256": 393,
      "passw": 394,
      "sh": 395,
      "ep": 396,
      "Re": 397,
      "indo": 398,
      "mail": 399,
      "ra": 400,
      "50": 401,
      "90": 402,
      "ia": 403,
      "ro": 404,
      "18": 405,
      "57": 406,
      "sa": 407,
      "..": 408,
      "ne": 409,
      "dir": 410,
      "14": 411,
      "na": 412,
      "se": 413,
      "ve": 414,
      "5D": 415,
      "E9": 416,
      "ac": 417,
      "lid": 418,
      "70": 419,
      "ord": 420,
      "F1": 421,
      "59": 422,
      "tp": 423,
      "cion": 424,
      "enes": 425,
      "indows": 426,
      "dni": 427,
      "rv": 428,
      "ntc": 429,
      "34": 430,
      "agenes": 431,
      "imagenes": 432,
      "udad": 433,
      "prov": 434,
      "password": 435,
      "email": 436,
      "eccion": 437,
      "incia": 438,
      "apel": 439,
      "ecio": 440,
      "ciudad": 441,
      "direccion": 442,
      "lidos": 443,
      "provincia": 444,
      "apellidos": 445,
      "precio": 446,
      "ito": 447,
      "60": 448,
      "Regis": 449,
      "Registrar": 450,
      "tt": 451,
      "iso": 452,
      "5B": 453,
      "mac": 454,
      "adir": 455,
      "7C": 456,
      "21": 457,
      "so": 458,
      "carr": 459,
      "rar": 460,
      "carrito": 461,
      "ae": 462,
      "he": 463,
      "38": 464,
      "ED": 465,
      "69": 466,
      "entrar": 467,
      "at": 468,
      "67": 469,
      "ot": 470,
      "ali": 471,
      "sc": 472,
      ">'": 473,
      "rr": 474,
      "74": 475,
      "2A": 476,
      "gif": 477,
      "35": 478,
      "ic": 479,
      "859": 480,
      "E0": 481,
      "keep": 482,
      "alive": 483,
      "am": 484,
      "vi": 485,
      "84": 486,
      "eo": 487,
      "aci": 488,
      "79": 489,
      "sr": 490,
      "un": 491,
      "2D": 492,
      "//": 493,
      "EA": 494,
      "uc": 495,
      "66": 496,
      "aciar": 497,
      "ja": 498,
      "44": 499,
      "8859": 500,
      "jp": 501,
      "to": 502,
      "99": 503,
      "88": 504,
      "F0": 505,
      "tn": 506,
      "FC": 507,
      "EB": 508,
      "En": 509,
      "FA": 510,
      "wd": 511,
      "FD": 512,
      "ue": 513,
      "77": 514,
      "sn": 515,
      "00": 516,
      "54": 517,
      "FB": 518,
      "sg": 519,
      "ha": 520,
      "+&": 521,
      "1C": 522,
      "ho": 523,
      "1D": 524,
      "76": 525,
      "AD": 526,
      "tar": 527,
      "um": 528,
      "AC": 529,
      "http": 530,
      "aut": 531,
      "ript": 532,
      "ei": 533,
      "nn": 534,
      "--": 535,
      "si": 536,
      "125": 537,
      "33": 538,
      "8D": 539,
      "E6": 540,
      "ex": 541,
      "max": 542,
      "windows": 543,
      "8C": 544,
      "aa": 545,
      "1B": 546,
      "AB": 547,
      "55": 548,
      "F9": 549,
      "eh": 550,
      "=*/*": 551,
      "A0": 552,
      "ts": 553,
      "=*/*;": 554,
      "inser": 555,
      "ul": 556,
      "F3": 557,
      "8B": 558,
      "md": 559,
      "E7": 560,
      "ns": 561,
      "F6": 562,
      "cas": 563,
      "can": 564,
      "ter": 565,
      "ol": 566,
      "A9": 567,
      "ph": 568,
      "tm": 569,
      "4D": 570,
      "enti": 571,
      "jpg": 572,
      "75": 573,
      "tos": 574,
      "4C": 575,
      "pwd": 576,
      "les": 577,
      "09": 578,
      "oa": 579,
      "2E": 580,
      "deo": 581,
      "dad": 582,
      "4B": 583,
      "agar": 584,
      "autenti": 585,
      "autenticar": 586,
      "mber": 587,
      "us": 588,
      "reme": 589,
      "ff": 590,
      "remember": 591,
      "pagar": 592,
      "ih": 593,
      "aud": 594,
      "script": 595,
      "itar": 596,
      "min": 597,
      "red": 598,
      "editar": 599,
      "nr": 600,
      "Entrar": 601,
      "anadir": 602,
      "..%": 603,
      "ly": 604,
      "audio": 605,
      "insertar": 606,
      "bal": 607,
      "83": 608,
      "video": 609,
      "tidad": 610,
      "cantidad": 611,
      "err": 612,
      "12": 613,
      "wa": 614,
      "we": 615,
      "nd": 616,
      "7D": 617,
      "ob": 618,
      "F1adir": 619,
      "tu": 620,
      "++%": 621,
      "ild": 622,
      "65": 623,
      "++++%": 624,
      "1A": 625,
      "ys": 626,
      "mo": 627,
      "rt": 628,
      "be": 629,
      "ii": 630,
      "+++": 631,
      "+++%": 632,
      "8A": 633,
      "glo": 634,
      "64": 635,
      "child": 636,
      "chin": 637,
      "nh": 638,
      "ls": 639,
      "\\\\": 640,
      "BC": 641,
      "global": 642,
      "go": 643,
      "ore": 644,
      "7E": 645,
      "td": 646,
      "encia": 647,
      "ao": 648,
      "73": 649,
      "ab": 650,
      "DD": 651,
      "43": 652,
      "hr": 653,
      "96": 654,
      "EE": 655,
      "Ma": 656,
      "ig": 657,
      "+++++": 658,
      "ln": 659,
      "isti": 660,
      "tas": 661,
      "op": 662,
      "carac": 663,
      "teristi": 664,
      "caracteristi": 665,
      "caracteristicas": 666,
      "270": 667,
      "BB": 668,
      "48": 669,
      "vaciar": 670,
      "4A": 671,
      "Windows": 672,
      "78": 673,
      "cn": 674,
      "ll": 675,
      "FF": 676,
      "orM": 677,
      "58": 678,
      "di": 679,
      "up": 680,
      "sta": 681,
      "41": 682,
      "6C": 683,
      "DC": 684,
      "gi": 685,
      "oh": 686,
      "ah": 687,
      "ai": 688,
      "errorM": 689,
      "errorMsg": 690,
      "98": 691,
      "2e": 692,
      "AA": 693,
      "B2": 694,
      "68": 695,
      "B0": 696,
      "ues": 697,
      "hs": 698,
      "FE": 699,
      "em": 700,
      "rn": 701,
      "tosh": 702,
      "og": 703,
      "eg": 704,
      "hn": 705,
      "BD": 706,
      "inco": 707,
      "mar": 708,
      "95": 709,
      "au": 710,
      "Vaciar": 711,
      "rs": 712,
      "F7": 713,
      "ans": 714,
      "rrec": 715,
      "Cred": 716,
      "oi": 717,
      "enciales": 718,
      "incorrec": 719,
      "Credenciales": 720,
      "ms": 721,
      "97": 722,
      "incorrectas": 723,
      "32": 724,
      "31": 725,
      "--%": 726,
      "fr": 727,
      "E1": 728,
      "lt": 729,
      "E5": 730,
      "F5": 731,
      "06": 732,
      "wn": 733,
      "hi": 734,
      "0A": 735,
      "ba": 736,
      "CC": 737,
      "://": 738,
      "fre": 739,
      "ect": 740,
      "eb": 741,
      "sd": 742,
      "wi": 743,
      "store": 744,
      "B9": 745,
      "osi": 746,
      "eu": 747,
      "iz": 748,
      "07": 749,
      "/*,": 750,
      "lr": 751,
      "mt": 752,
      "wh": 753,
      "Win": 754,
      "6D": 755,
      "qu": 756,
      "0D": 757,
      "yr": 758,
      "BA": 759,
      "ing": 760,
      "stale": 761,
      "bin": 762,
      "dn": 763,
      "peg": 764,
      "05": 765,
      "NT": 766,
      "dr": 767,
      "ye": 768,
      "trans": 769,
      "chintosh": 770,
      "Machintosh": 771,
      "transform": 772,
      "4E": 773,
      "81": 774,
      "men": 775,
      "osition": 776,
      "dt": 777,
      "only": 778,
      "CD": 779,
      "cached": 780,
      "ge": 781,
      "ua": 782,
      "mr": 783,
      "F3n": 784,
      "cr": 785,
      "7A": 786,
      "position": 787,
      "ef": 788,
      "63": 789,
      "UT": 790,
      "ds": 791,
      "por": 792,
      "X11": 793,
      "net": 794,
      "fresh": 795,
      "str": 796,
      "Pas": 797,
      "ty": 798,
      "94": 799,
      "nc": 800,
      "doc": 801,
      "8E": 802,
      "5A": 803,
      "9C": 804,
      "om": 805,
      "6A": 806,
      "i8": 807,
      "lle": 808,
      "tem": 809,
      "1E": 810,
      "hh": 811,
      "ru": 812,
      "tw": 813,
      "De": 814,
      "*%": 815,
      "tl": 816,
      "53": 817,
      "tc": 818,
      "euc": 819,
      "tf": 820,
      "kr": 821,
      "ui": 822,
      "ev": 823,
      "100": 824,
      "9D": 825,
      "72": 826,
      "mn": 827,
      "71": 828,
      "tb": 829,
      "ument": 830,
      "ey": 831,
      "per": 832,
      "i5": 833,
      "cmd": 834,
      "ld": 835,
      "PUT": 836,
      "fir": 837,
      "php": 838,
      "document": 839,
      "mi": 840,
      "0C": 841,
      "6B": 842,
      "logo": 843,
      "61": 844,
      "caja": 845,
      "Pasar": 846,
      "oc": 847,
      "7B": 848,
      "EF": 849,
      "dex": 850,
      "93": 851,
      "i3": 852,
      "ya": 853,
      "va": 854,
      ".%": 855,
      "Confir": 856,
      "Confirmar": 857,
      "2Fchild": 858,
      "ew": 859,
      "off": 860,
      "Al": 861,
      "ert": 862,
      "Calle": 863,
      "za": 864,
      "ip": 865,
      "uo": 866,
      "css": 867,
      "08": 868,
      "uh": 869,
      "51": 870,
      "tg": 871,
      "F4": 872,
      "PC": 873,
      "01": 874,
      "04": 875,
      "mp": 876,
      "bo": 877,
      "index": 878,
      "coo": 879,
      "fe": 880,
      "5E": 881,
      "win": 882,
      "mh": 883,
      "Mac": 884,
      "dh": 885,
      "sw": 886,
      "sl": 887,
      "2563": 888,
      "rh": 889,
      "F8": 890,
      "ib": 891,
      "yo": 892,
      "cookie": 893,
      "Ib": 894,
      "ino": 895,
      "org": 896,
      "cf": 897,
      "E4": 898,
      "sys": 899,
      "DA": 900,
      "man": 901,
      "exec": 902,
      "91": 903,
      "9A": 904,
      "and": 905,
      "open": 906,
      "av": 907,
      "62": 908,
      "sf": 909,
      "af": 910,
      "uk": 911,
      "////": 912,
      "../": 913,
      "gb": 914,
      "nl": 915,
      "rm": 916,
      "nk": 917,
      "etc": 918,
      "ay": 919,
      "CA": 920,
      "js": 921,
      "of": 922,
      "node": 923,
      "82": 924,
      "unt": 925,
      "PPC": 926,
      "0a": 927,
      "cs": 928,
      "rd": 929,
      "E8": 930,
      "Man": 931,
      "ek": 932,
      "Rio": 933,
      "ps": 934,
      "aros": 935,
      "42": 936,
      "DB": 937,
      "bn": 938,
      "cgi": 939,
      "2574": 940,
      "cz": 941,
      "ct": 942,
      "xec": 943,
      "ga": 944,
      "ude": 945,
      "by": 946,
      "C0": 947,
      "hl": 948,
      "pl": 949,
      "6E": 950,
      "bg": 951,
      "acce": 952,
      "br": 953,
      "ez": 954,
      "wt": 955,
      "py": 956,
      "nf": 957,
      "9B": 958,
      "ks": 959,
      "San": 960,
      "iu": 961,
      "hd": 962,
      "jpeg": 963,
      "Rioja": 964,
      "Ar": 965,
      "52": 966,
      "iy": 967,
      "92": 968,
      "Op": 969,
      "system": 970,
      "exe": 971,
      "lu": 972,
      "4F": 973,
      "ona": 974,
      "CB": 975,
      "oy": 976,
      "pro": 977,
      "ini": 978,
      "eta": 979,
      "5F": 980,
      "asp": 981,
      "bas": 982,
      "je": 983,
      "passwd": 984,
      "su": 985,
      "ck": 986,
      "03": 987,
      "DE": 988,
      "los": 989,
      "ou": 990,
      "sty": 991,
      "count": 992,
      "oot": 993,
      "0B": 994,
      "A7": 995,
      "ft": 996,
      "incl": 997,
      "cat": 998,
      "ow": 999,
      "sb": 1000,
      "A6": 1001,
      "sm": 1002,
      "var": 1003,
      "1F": 1004,
      "RO": 1005,
      "alert": 1006,
      "dd": 1007,
      "yn": 1008,
      "BS": 1009,
      "chego": 1010,
      "Ques": 1011,
      "+++++%": 1012,
      "Manchego": 1013,
      "8F": 1014,
      "winnt": 1015,
      ">+": 1016,
      "ati": 1017,
      "iv": 1018,
      "xp": 1019,
      "hf": 1020,
      "e9": 1021,
      "wg": 1022,
      "wr": 1023,
      "e7": 1024,
      "AE": 1025,
      "e6": 1026,
      "wp": 1027,
      "7F": 1028,
      "Vino": 1029,
      "asf": 1030,
      "include": 1031,
      "sy": 1032,
      "vb": 1033,
      "obj": 1034,
      "D9": 1035,
      "e0": 1036,
      "PT": 1037,
      "gr": 1038,
      "nb": 1039,
      "zar": 1040,
      "253A": 1041,
      "D0": 1042,
      "256F": 1043,
      "cd": 1044,
      "E9ri": 1045,
      "fro": 1046,
      "ny": 1047,
      "sel": 1048,
      "ada": 1049,
      "Jam": 1050,
      "9x": 1051,
      "ej": 1052,
      "fa": 1053,
      "cu": 1054,
      "style": 1055,
      "Queso": 1056,
      "2312": 1057,
      "location": 1058,
      "B6": 1059,
      "wo": 1060,
      "tmp": 1061,
      "e1": 1062,
      "9E": 1063,
      "B7": 1064,
      "BE": 1065,
      "nu": 1066,
      "eE": 1067,
      "e3": 1068,
      "bt": 1069,
      "rf": 1070,
      "nm": 1071,
      "np": 1072,
      "erra": 1073,
      "htm": 1074,
      "place": 1075,
      "ick": 1076,
      "C6": 1077,
      "D7": 1078,
      "hu": 1079,
      "e5": 1080,
      "rl": 1081,
      "ono": 1082,
      "era": 1083,
      "und": 1084,
      "wide": 1085,
      "E9rico": 1086,
      "110": 1087,
      "106": 1088,
      "Sa": 1089,
      "ere": 1090,
      "3A0": 1091,
      "A5": 1092,
      "fi": 1093,
      "BF": 1094,
      "hz": 1095,
      "2565": 1096,
      "()": 1097,
      "aw": 1098,
      "Es": 1099,
      "D5": 1100,
      "fo": 1101,
      "gs": 1102,
      "e8": 1103,
      "gt": 1104,
      "nw": 1105,
      "2569": 1106,
      "..\\\\": 1107,
      "arab": 1108,
      "koi8": 1109,
      "6F": 1110,
      "IN": 1111,
      "hm": 1112,
      "iw": 1113,
      "C9": 1114,
      "CE": 1115,
      "bs": 1116,
      "253D": 1117,
      "4u": 1118,
      "tz": 1119,
      "eq": 1120,
      "Val": 1121,
      "mx": 1122,
      "0d": 1123,
      "2022": 1124,
      "arabic": 1125,
      "e2": 1126,
      "indow": 1127,
      "B5": 1128,
      "gro": 1129,
      "hy": 1130,
      "jo": 1131,
      "mc": 1132,
      "A8": 1133,
      "AF": 1134,
      "object": 1135,
      "0E": 1136,
      "e4": 1137,
      "i1": 1138,
      "eT": 1139,
      "replace": 1140,
      "admin": 1141,
      "t5": 1142,
      "time": 1143,
      "C7": 1144,
      "dl": 1145,
      "ug": 1146,
      "Na": 1147,
      "ER": 1148,
      "bh": 1149,
      "quick": 1150,
      "ka": 1151,
      "Open": 1152,
      "BSD": 1153,
      "quicktime": 1154,
      "pn": 1155,
      "oexec": 1156,
      "wav": 1157,
      "D6": 1158,
      "2529": 1159,
      "252F": 1160,
      "rc": 1161,
      "yi": 1162,
      "5Bposition": 1163,
      "A4": 1164,
      "CF": 1165,
      "fn": 1166,
      "bi": 1167,
      "tT": 1168,
      "mu": 1169,
      "C5": 1170,
      "name": 1171,
      "window": 1172,
      "hc": 1173,
      "i386": 1174,
      "lc": 1175,
      "t8": 1176,
      "t3": 1177,
      "Ea": 1178,
      "fs": 1179,
      "t4": 1180,
      "tq": 1181,
      "i586": 1182,
      "B4": 1183,
      "nq": 1184,
      "OR": 1185,
      "rI": 1186,
      "tv": 1187,
      "from": 1188,
      "biz": 1189,
      "t6": 1190,
      "cess": 1191,
      "02": 1192,
      "C1": 1193,
      "cript": 1194,
      "pi": 1195,
      "connec": 1196,
      "253E": 1197,
      "lay": 1198,
      "bul": 1199,
      "gn": 1200,
      "uni": 1201,
      "basic": 1202,
      "E3": 1203,
      "El": 1204,
      "po": 1205,
      "t7": 1206,
      "az": 1207,
      "gh": 1208,
      "arr": 1209,
      "struc": 1210,
      "DF": 1211,
      "tE": 1212,
      "din": 1213,
      "date": 1214,
      "253C": 1215,
      "a1": 1216,
      "t1": 1217,
      "esti": 1218,
      "B1A": 1219,
      "..\\\\..\\\\": 1220,
      "./": 1221,
      "uy": 1222,
      "eO": 1223,
      "fot": 1224,
      "tiff": 1225,
      "uestr": 1226,
      "Ri": 1227,
      "dm": 1228,
      "gov": 1229,
      "t9": 1230,
      "136": 1231,
      "D8": 1232,
      "ak": 1233,
      "nuestr": 1234,
      "tj": 1235,
      "instruc": 1236,
      "itos": 1237,
      "cessing": 1238,
      "instruction": 1239,
      "ry": 1240,
      "atierra": 1241,
      "nuestratierra": 1242,
      "@/": 1243,
      "cmen": 1244,
      "lb": 1245,
      "rb": 1246,
      "cmenbul": 1247,
      "i7": 1248,
      "vo": 1249,
      "9F": 1250,
      "mpeg": 1251,
      "nE": 1252,
      "auz": 1253,
      "Paros": 1254,
      "du": 1255,
      "lm": 1256,
      "2522": 1257,
      "Tam": 1258,
      "hb": 1259,
      "shtml": 1260,
      "Set": 1261,
      "cred": 1262,
      "dy": 1263,
      "rg": 1264,
      "t0": 1265,
      "uf": 1266,
      "db": 1267,
      "t2": 1268,
      "xe": 1269,
      "a0": 1270,
      "hp": 1271,
      "ese": 1272,
      "936": 1273,
      "3A15": 1274,
      "creditos": 1275,
      "B2A": 1276,
      "processing": 1277,
      "950": 1278,
      "htacce": 1279,
      "del": 1280,
      "usr": 1281,
      "cho": 1282,
      "250A": 1283,
      "hg": 1284,
      "my": 1285,
      "utdo": 1286,
      "delay": 1287,
      "wait": 1288,
      "8e": 1289,
      "titu": 1290,
      "3Bwait": 1291,
      "3Bwaitfor": 1292,
      "2o": 1293,
      "zarauz": 1294,
      "select": 1295,
      "estilos": 1296,
      "D4": 1297,
      "_log": 1298,
      "df": 1299,
      "iq": 1300,
      "tS": 1301,
      "link": 1302,
      "path": 1303,
      "menum": 1304,
      "3r": 1305,
      "WH": 1306,
      "prod": 1307,
      "Ee": 1308,
      "strea": 1309,
      "_strea": 1310,
      "lf": 1311,
      "nz": 1312,
      "../../": 1313,
      "-/": 1314,
      "ogono": 1315,
      "titulo": 1316,
      "produc": 1317,
      "123": 1318,
      "div": 1319,
      "fotos": 1320,
      "ss_log": 1321,
      "WinNT": 1322,
      "productos": 1323,
      "2f": 1324,
      "6a": 1325,
      "A3": 1326,
      "sk": 1327,
      "tk": 1328,
      "lir": 1329,
      "cha": 1330,
      "B8": 1331,
      "C8": 1332,
      "mm": 1333,
      "xa": 1334,
      "ara": 1335,
      "lete": 1336,
      "rp": 1337,
      "ody": 1338,
      "castro": 1339,
      "MSI": 1340,
      "cb": 1341,
      "etwe": 1342,
      "4e": 1343,
      "iE": 1344,
      "oq": 1345,
      "sj": 1346,
      "o1": 1347,
      "xy": 1348,
      "i0": 1349,
      "mg": 1350,
      "ora": 1351,
      "ECT": 1352,
      "Ta": 1353,
      "s5": 1354,
      "all": 1355,
      "2BTam": 1356,
      "MSIE": 1357,
      "2BTamper": 1358,
      "_c": 1359,
      "o7": 1360,
      "ROM": 1361,
      "3e": 1362,
      "4a": 1363,
      "A1": 1364,
      "inp": 1365,
      "any": 1366,
      "idA": 1367,
      "::": 1368,
      "o0": 1369,
      "eS": 1370,
      "i6": 1371,
      "tx": 1372,
      "tur": 1373,
      "wl": 1374,
      "235": 1375,
      "hav": 1376,
      "874": 1377,
      "passth": 1378,
      "s1": 1379,
      "t_": 1380,
      "////////": 1381,
      "eI": 1382,
      "had": 1383,
      "i9": 1384,
      "uu": 1385,
      "erm": 1386,
      "cc": 1387,
      "ix": 1388,
      "vas": 1389,
      "img": 1390,
      "update": 1391,
      "aq": 1392,
      "user": 1393,
      "253F": 1394,
      "etween": 1395,
      "2s": 1396,
      "D3": 1397,
      "Le": 1398,
      "teln": 1399,
      "htpass": 1400,
      "xp_": 1401,
      "4n": 1402,
      "FROM": 1403,
      "Mar": 1404,
      "gu": 1405,
      "ces": 1406,
      "250": 1407,
      "home": 1408,
      "cy": 1409,
      "ste": 1410,
      "tI": 1411,
      "290": 1412,
      "2a": 1413,
      "Ro": 1414,
      "To": 1415,
      "Tr": 1416,
      "eN": 1417,
      "s7": 1418,
      "2n": 1419,
      "Gu": 1420,
      "fh": 1421,
      "sz": 1422,
      "lib": 1423,
      "shutdo": 1424,
      "ull": 1425,
      "ana": 1426,
      "o5": 1427,
      "s0": 1428,
      "ck_strea": 1429,
      "9a": 1430,
      "C4": 1431,
      "lg": 1432,
      "s6": 1433,
      "tA": 1434,
      "205": 1435,
      "telnet": 1436,
      "rad": 1437,
      "sv": 1438,
      "234": 1439,
      "Er": 1440,
      "Te": 1441,
      "fd": 1442,
      "hw": 1443,
      "copy": 1444,
      "vbscript": 1445,
      "rw": 1446,
      "ze": 1447,
      "7a": 1448,
      "B3": 1449,
      "tN": 1450,
      "sock_strea": 1451,
      "Win98": 1452,
      "0F": 1453,
      "delete": 1454,
      "n4": 1455,
      "o3": 1456,
      "salir": 1457,
      "aj": 1458,
      "bre": 1459,
      "h8": 1460,
      "i4": 1461,
      "n5": 1462,
      "215": 1463,
      "i2": 1464,
      "s8": 1465,
      "s9": 1466,
      "897": 1467,
      "bj": 1468,
      "cm": 1469,
      "fl": 1470,
      "gre": 1471,
      "h6": 1472,
      "o9": 1473,
      "uel": 1474,
      "249": 1475,
      "140": 1476,
      "486": 1477,
      "a3": 1478,
      "ifra": 1479,
      "2561": 1480,
      "9090": 1481,
      "rop": 1482,
      "0e": 1483,
      "334": 1484,
      "iI": 1485,
      "n3": 1486,
      "oE": 1487,
      "sq": 1488,
      "bl": 1489,
      "n9": 1490,
      "3Anode": 1491,
      "bgso": 1492,
      "250ASet": 1493,
      "127": 1494,
      "227": 1495,
      "h5": 1496,
      "ish": 1497,
      "D1": 1498,
      "cg": 1499,
      "n1": 1500,
      "o6": 1501,
      "s3": 1502,
      "wm": 1503,
      "servi": 1504,
      "stdin": 1505,
      "input": 1506,
      "7e": 1507,
      "Bar": 1508,
      "ij": 1509,
      "qe": 1510,
      "having": 1511,
      "146": 1512,
      "Or": 1513,
      "fil": 1514,
      "ena": 1515,
      "nsf": 1516,
      "group": 1517,
      "gd": 1518,
      "o8": 1519,
      "oN": 1520,
      "s4": 1521,
      "yd": 1522,
      "errorMsgA": 1523,
      "a6": 1524,
      "hE": 1525,
      "ik": 1526,
      "sun": 1527,
      "27http": 1528,
      "bd": 1529,
      "a5": 1530,
      "bri": 1531,
      "ok": 1532,
      "tR": 1533,
      "....": 1534,
      "129": 1535,
      "n8": 1536,
      "tO": 1537,
      "illi": 1538,
      "cfm": 1539,
      "Ne": 1540,
      "ice": 1541,
      "n2": 1542,
      "ell": 1543,
      "union": 1544,
      "219": 1545,
      "7r": 1546,
      "qr": 1547,
      "9e": 1548,
      "boot": 1549,
      "hk": 1550,
      "iT": 1551,
      "mw": 1552,
      "nS": 1553,
      "185": 1554,
      "6e": 1555,
      "C3": 1556,
      "sx": 1557,
      "ax": 1558,
      "c1": 1559,
      "sT": 1560,
      "uz": 1561,
      "2FN": 1562,
      "130": 1563,
      "186": 1564,
      "5e": 1565,
      "hq": 1566,
      "jr": 1567,
      "ox": 1568,
      "javas": 1569,
      "229": 1570,
      "210": 1571,
      "iS": 1572,
      "o4": 1573,
      "yu": 1574,
      "SCRI": 1575,
      "autoexec": 1576,
      "SCRIPT": 1577,
      "216": 1578,
      "Gr": 1579,
      "Sol": 1580,
      "h3": 1581,
      "lw": 1582,
      "oT": 1583,
      "240": 1584,
      "217": 1585,
      "bc": 1586,
      "sE": 1587,
      "255": 1588,
      "23include": 1589,
      "306": 1590,
      "0n": 1591,
      "Ra": 1592,
      "iA": 1593,
      "9r": 1594,
      "lv": 1595,
      "bu": 1596,
      "tor": 1597,
      "iri": 1598,
      "eee": 1599,
      "mdb": 1600,
      "wget": 1601,
      "In": 1602,
      "Sun": 1603,
      "o2": 1604,
      "cel": 1605,
      "land": 1606,
      "ERE": 1607,
      "1a": 1608,
      "h7": 1609,
      "2528": 1610,
      "2Fetc": 1611,
      "230": 1612,
      "1257": 1613,
      "189": 1614,
      "225": 1615,
      "Pa": 1616,
      "Pl": 1617,
      "cyr": 1618,
      "h4": 1619,
      "yl": 1620,
      "ero": 1621,
      "cii": 1622,
      "120": 1623,
      "nv": 1624,
      "s2": 1625,
      "sS": 1626,
      "119": 1627,
      "167": 1628,
      "sam": 1629,
      "WHERE": 1630,
      "shutdown": 1631,
      "sun4u": 1632,
      "SunOS": 1633,
      "-<": 1634,
      "ON": 1635,
      "a8": 1636,
      "c0": 1637,
      "tte": 1638,
      "ern": 1639,
      "ucs": 1640,
      "AR": 1641,
      "dp": 1642,
      "gl": 1643,
      "h1": 1644,
      "hT": 1645,
      "ina": 1646,
      "aris": 1647,
      "javascript": 1648,
      "5r": 1649,
      "yt": 1650,
      "SEL": 1651,
      "221": 1652,
      "roman": 1653,
      "passthru": 1654,
      "Av": 1655,
      "Cla": 1656,
      "h0": 1657,
      "iN": 1658,
      "n6": 1659,
      "nj": 1660,
      "oS": 1661,
      "sN": 1662,
      "126": 1663,
      "2B1": 1664,
      "Ed": 1665,
      "a9": 1666,
      "c6": 1667,
      "lz": 1668,
      "sO": 1669,
      "876": 1670,
      "a7": 1671,
      "dll": 1672,
      "eR": 1673,
      "hv": 1674,
      "nO": 1675,
      "nx": 1676,
      "tH": 1677,
      "imp": 1678,
      "247": 1679,
      "1987": 1680,
      "218": 1681,
      "h9": 1682,
      "hS": 1683,
      "jis": 1684,
      "226": 1685,
      "236": 1686,
      "iframe": 1687,
      "228": 1688,
      "4r": 1689,
      "EX": 1690,
      "bar": 1691,
      "hj": 1692,
      "nN": 1693,
      "oA": 1694,
      "2527": 1695,
      "body": 1696,
      "iO": 1697,
      "nT": 1698,
      "pd": 1699,
      "tL": 1700,
      "xr": 1701,
      "116": 1702,
      "139": 1703,
      "ack": 1704,
      "where": 1705,
      "10646": 1706,
      "180": 1707,
      "eA": 1708,
      "l3": 1709,
      "mf": 1710,
      "qa": 1711,
      "wf": 1712,
      "/.": 1713,
      "0r": 1714,
      "bat": 1715,
      "l5": 1716,
      "mer": 1717,
      "6r": 1718,
      "xterm": 1719,
      "2570": 1720,
      "107": 1721,
      "243": 1722,
      "245": 1723,
      "greek": 1724,
      "1r": 1725,
      "dc": 1726,
      "mq": 1727,
      "n7": 1728,
      "paros": 1729,
      "zr": 1730,
      "ascii": 1731,
      "567": 1732,
      "bgsound": 1733,
      "msp": 1734,
      "oO": 1735,
      "239": 1736,
      "between": 1737,
      "dw": 1738,
      "n0": 1739,
      "sA": 1740,
      "2573": 1741,
      "3747": 1742,
      "aspx": 1743,
      "objectCla": 1744,
      "objectClass": 1745,
      ")(": 1746,
      "><": 1747,
      "gg": 1748,
      "uw": 1749,
      "tes": 1750,
      "252E": 1751,
      "eses": 1752,
      "170": 1753,
      "135": 1754,
      "shif": 1755,
      "1251": 1756,
      "swf": 1757,
      ".<": 1758,
      "a4": 1759,
      "dk": 1760,
      "2Fpasswd": 1761,
      "160": 1762,
      "256E": 1763,
      "1250": 1764,
      "msf": 1765,
      "t_jis": 1766,
      "shift_jis": 1767,
      "187": 1768,
      "Ae": 1769,
      "big": 1770,
      "tD": 1771,
      "254": 1772,
      "illic": 1773,
      "cyrillic": 1774,
      "EDa": 1775,
      "hA": 1776,
      "lp": 1777,
      "nI": 1778,
      "oI": 1779,
      "oj": 1780,
      "115": 1781,
      "118": 1782,
      "199": 1783,
      "1258": 1784,
      "cw": 1785,
      "dg": 1786,
      "ftp": 1787,
      "ten": 1788,
      "vir": 1789,
      "yh": 1790,
      "155": 1791,
      "190": 1792,
      "hebre": 1793,
      "rtf": 1794,
      "SELECT": 1795,
      "hebrew": 1796,
      "2r": 1797,
      "932": 1798,
      "@<": 1799,
      "aE": 1800,
      "dis": 1801,
      "eset": 1802,
      "jap": 1803,
      "ment": 1804,
      "uj": 1805,
      "lan": 1806,
      "244": 1807,
      "246": 1808,
      "248": 1809,
      "5601": 1810,
      "ses": 1811,
      "zo": 1812,
      "lin": 1813,
      "250D": 1814,
      "2640": 1815,
      "145": 1816,
      "ber": 1817,
      "eL": 1818,
      "kore": 1819,
      "l1": 1820,
      "m3": 1821,
      "uen": 1822,
      "anese": 1823,
      "2Bdocument": 1824,
      "Solaris": 1825,
      "japanese": 1826,
      "AND": 1827,
      "d8": 1828,
      "m8": 1829,
      "vr": 1830,
      "156": 1831,
      "174": 1832,
      "korean": 1833,
      "122": 1834,
      "149": 1835,
      "Si": 1836,
      "aT": 1837,
      "m6": 1838,
      "1252": 1839,
      "ks_c": 1840,
      "mspx": 1841,
      "_5601": 1842,
      "c4": 1843,
      "hO": 1844,
      "wy": 1845,
      "1041": 1846,
      "chineset": 1847,
      "ks_c_5601": 1848,
      "chinesetrad": 1849,
      ".+": 1850,
      "280": 1851,
      "8r": 1852,
      "aS": 1853,
      "ida": 1854,
      "intosh": 1855,
      "176": 1856,
      "195": 1857,
      "137": 1858,
      "macintosh": 1859,
      "Ir": 1860,
      "dz": 1861,
      "kish": 1862,
      "ote": 1863,
      "post": 1864,
      "253": 1865,
      "237": 1866,
      "200": 1867,
      "179": 1868,
      "chineses": 1869,
      "chinesesimp": 1870,
      "*)": 1871,
      "9l": 1872,
      "nA": 1873,
      "las": 1874,
      "114": 1875,
      "233": 1876,
      "103": 1877,
      "access_log": 1878,
      "turkish": 1879,
      "postscript": 1880,
      "2t": 1881,
      "d5": 1882,
      "fu": 1883,
      "150": 1884,
      "11025": 1885,
      "big5": 1886,
      "1e": 1887,
      "dj": 1888,
      "mj": 1889,
      "oR": 1890,
      "ver": 1891,
      "206": 1892,
      "168": 1893,
      "169": 1894,
      "1255": 1895,
      "253D1041": 1896,
      "374727": 1897,
      "264011025": 1898,
      "253D1041264011025": 1899,
      "253D1041264011025374727": 1900,
      "+--%": 1901,
      "147": 1902,
      "cq": 1903,
      "fy": 1904,
      "104": 1905,
      "197": 1906,
      "c8": 1907,
      "iH": 1908,
      "lk": 1909,
      "m5": 1910,
      "u8": 1911,
      "zip": 1912,
      "271": 1913,
      "166": 1914,
      "183": 1915,
      "6o": 1916,
      "Se": 1917,
      "u3": 1918,
      "uq": 1919,
      "159": 1920,
      "tual": 1921,
      "-&": 1922,
      "213": 1923,
      "iR": 1924,
      "l8": 1925,
      "nR": 1926,
      "ets": 1927,
      "3Atext": 1928,
      "--&": 1929,
      "1o": 1930,
      "Ba": 1931,
      "Is": 1932,
      "hI": 1933,
      "tin": 1934,
      "tee": 1935,
      "157": 1936,
      "143": 1937,
      "virtual": 1938,
      "2h": 1939,
      "Et": 1940,
      "cx": 1941,
      "d6": 1942,
      "m9": 1943,
      "u0": 1944,
      "isiri": 1945,
      "409": 1946,
      "209": 1947,
      "()[": 1948,
      "3342": 1949,
      "5c": 1950,
      "Nr": 1951,
      "bp": 1952,
      "c9": 1953,
      "d1": 1954,
      "nph": 1955,
      "sR": 1956,
      "eto": 1957,
      "2Fscript": 1958,
      "113": 1959,
      "193": 1960,
      "1254": 1961,
      "1t": 1962,
      "128": 1963,
      "Uni": 1964,
      "aO": 1965,
      "d3": 1966,
      "eH": 1967,
      "gy": 1968,
      "ki": 1969,
      "lj": 1970,
      "lx": 1971,
      "uE": 1972,
      "177": 1973,
      "lE": 1974,
      "mO": 1975,
      "u4": 1976,
      "osa": 1977,
      "tel": 1978,
      "ett": 1979,
      "105": 1980,
      "php4": 1981,
      "lI": 1982,
      "mk": 1983,
      "mv": 1984,
      "pc": 1985,
      "rq": 1986,
      "tC": 1987,
      "url": 1988,
      "175": 1989,
      "144": 1990,
      "124": 1991,
      "5a": 1992,
      "Ad": 1993,
      "Mon": 1994,
      "tP": 1995,
      "u9": 1996,
      "ers": 1997,
      "446": 1998,
      "Ju": 1999,
      "bf": 2000,
      "d0": 2001,
      "hx": 2002,
      "lq": 2003,
      "r6": 2004,
      "r9": 2005,
      "res": 2006,
      "220": 2007,
      "modoA": 2008,
      "109": 2009,
      "met": 2010,
      "wz": 2011,
      "165": 2012,
      "1s": 2013,
      "d7": 2014,
      "dE": 2015,
      "dT": 2016,
      "dq": 2017,
      "hN": 2018,
      "lT": 2019,
      "opt": 2020,
      "sI": 2021,
      "tU": 2022,
      "uS": 2023,
      "196": 2024,
      "3FC": 2025,
      "1253": 2026,
      "()<": 2027,
      "LI": 2028,
      "OL": 2029,
      "eY": 2030,
      "l7": 2031,
      "r3": 2032,
      "173": 2033,
      "system32": 2034,
      "sock_stream": 2035,
      "iceland": 2036,
      "Unix": 2037,
      "icelandic": 2038,
      "211": 2039,
      "dI": 2040,
      "eM": 2041,
      "hH": 2042,
      "see": 2043,
      "108": 2044,
      "178": 2045,
      "148": 2046,
      "php3": 2047
    },
    "merges": [
      [
        "S",
        "E"
      ],
      [
        "SE",
        "P"
      ],
      [
        "S",
        "C"
      ],
      [
        "E",
        "Q"
      ],
      [
        "E",
        "SC"
      ],
      [
        "_",
        "EQ"
      ],
      [
        "ESC",
        "_EQ"
      ],
      [
        "o",
        "n"
      ],
      [
        "e",
        "n"
      ],
      [
        "t",
        "i"
      ],
      [
        "c",
        "a"
      ],
      [
        "e",
        "r"
      ],
      [
        "o",
        "s"
      ],
      [
        "m",
        "l"
      ],
      [
        "l",
        "i"
      ],
      [
        "c",
        "e"
      ],
      [
        "en",
        "t"
      ],
      [
        "p",
        "t"
      ],
      [
        "a",
        "g"
      ],
      [
        "c",
        "ce"
      ],
      [
        "C",
        "on"
      ],
      [
        "cce",
        "pt"
      ],
      [
        "A",
        "ccept"
      ],
      [
        "c",
        "h"
      ],
      [
        "L",
        "L"
      ],
      [
        "ti",
        "on"
      ],
      [
        "N",
        "U"
      ],
      [
        "=",
        "<"
      ],
      [
        "NU",
        "LL"
      ],
      [
        "os",
        "t"
      ],
      [
        "ch",
        "e"
      ],
      [
        "t",
        "e"
      ],
      [
        "i",
        "n"
      ],
      [
        "e",
        "t"
      ],
      [
        "e",
        "c"
      ],
      [
        "x",
        "t"
      ],
      [
        "te",
        "xt"
      ],
      [
        "x",
        "ml"
      ],
      [
        "t",
        "ent"
      ],
      [
        "Con",
        "tent"
      ],
      [
        "H",
        "ost"
      ],
      [
        "n",
        "o"
      ],
      [
        "a",
        "r"
      ],
      [
        "a",
        "p"
      ],
      [
        "l",
        "a"
      ],
      [
        "ag",
        "e"
      ],
      [
        "n",
        "g"
      ],
      [
        "ca",
        "tion"
      ],
      [
        "ap",
        "p"
      ],
      [
        "li",
        "cation"
      ],
      [
        "app",
        "lication"
      ],
      [
        "E",
        "T"
      ],
      [
        "u",
        "er"
      ],
      [
        "G",
        "ET"
      ],
      [
        "H",
        "T"
      ],
      [
        "*",
        ";"
      ],
      [
        "h",
        "t"
      ],
      [
        "c",
        "o"
      ],
      [
        "8",
        "0"
      ],
      [
        "ca",
        "che"
      ],
      [
        "u",
        "t"
      ],
      [
        "o",
        "r"
      ],
      [
        "t",
        "r"
      ],
      [
        "ht",
        "ml"
      ],
      [
        "a",
        "d"
      ],
      [
        "ut",
        "f"
      ],
      [
        "m",
        "a"
      ],
      [
        "i",
        "e"
      ],
      [
        "o",
        "d"
      ],
      [
        "t",
        "a"
      ],
      [
        "O",
        "S"
      ],
      [
        "P",
        "OS"
      ],
      [
        "POS",
        "T"
      ],
      [
        "tr",
        "o"
      ],
      [
        "i",
        "l"
      ],
      [
        "t",
        "h"
      ],
      [
        "o",
        "o"
      ],
      [
        "l",
        "o"
      ],
      [
        "E",
        "C"
      ],
      [
        "s",
        "er"
      ],
      [
        "p",
        "e"
      ],
      [
        "C",
        "a"
      ],
      [
        "l",
        "e"
      ],
      [
        "L",
        "a"
      ],
      [
        "k",
        "ie"
      ],
      [
        "D",
        "a"
      ],
      [
        "c",
        "on"
      ],
      [
        "s",
        "et"
      ],
      [
        "H",
        "e"
      ],
      [
        "n",
        "ec"
      ],
      [
        "N",
        "D"
      ],
      [
        "R",
        "I"
      ],
      [
        "A",
        "g"
      ],
      [
        "et",
        "h"
      ],
      [
        "C",
        "h"
      ],
      [
        "P",
        "r"
      ],
      [
        "T",
        "y"
      ],
      [
        "en",
        "g"
      ],
      [
        "T",
        "P"
      ],
      [
        "=",
        "/"
      ],
      [
        "ad",
        "er"
      ],
      [
        "ng",
        "u"
      ],
      [
        "C",
        "oo"
      ],
      [
        "uer",
        "y"
      ],
      [
        "tro",
        "l"
      ],
      [
        "Con",
        "nec"
      ],
      [
        "Da",
        "ta"
      ],
      [
        "con",
        "trol"
      ],
      [
        "Ch",
        "ar"
      ],
      [
        "Ty",
        "pe"
      ],
      [
        "Q",
        "uery"
      ],
      [
        "R",
        "EC"
      ],
      [
        "U",
        "ser"
      ],
      [
        "U",
        "RI"
      ],
      [
        "ag",
        "ma"
      ],
      [
        "eth",
        "od"
      ],
      [
        "Ca",
        "che"
      ],
      [
        "Ag",
        "ent"
      ],
      [
        "E",
        "ND"
      ],
      [
        "L",
        "eng"
      ],
      [
        "M",
        "ethod"
      ],
      [
        "HT",
        "TP"
      ],
      [
        "La",
        "ngu"
      ],
      [
        "He",
        "ader"
      ],
      [
        "Pr",
        "agma"
      ],
      [
        "Coo",
        "kie"
      ],
      [
        "Connec",
        "tion"
      ],
      [
        "Char",
        "set"
      ],
      [
        "Leng",
        "th"
      ],
      [
        "Langu",
        "age"
      ],
      [
        "p",
        "a"
      ],
      [
        "i",
        "m"
      ],
      [
        "+",
        "+"
      ],
      [
        "w",
        "w"
      ],
      [
        "o",
        "z"
      ],
      [
        "il",
        "la"
      ],
      [
        "c",
        "l"
      ],
      [
        "k",
        "e"
      ],
      [
        "k",
        "o"
      ],
      [
        "/",
        "*;"
      ],
      [
        "M",
        "oz"
      ],
      [
        "Moz",
        "illa"
      ],
      [
        "os",
        "e"
      ],
      [
        "d",
        "a"
      ],
      [
        "G",
        "ec"
      ],
      [
        "Gec",
        "ko"
      ],
      [
        "cl",
        "ose"
      ],
      [
        "co",
        "m"
      ],
      [
        "*",
        "/*;"
      ],
      [
        "im",
        "age"
      ],
      [
        "l",
        "h"
      ],
      [
        "b",
        "le"
      ],
      [
        "pa",
        "ti"
      ],
      [
        "com",
        "pati"
      ],
      [
        "compati",
        "ble"
      ],
      [
        "p",
        "la"
      ],
      [
        "u",
        "x"
      ],
      [
        "p",
        "ng"
      ],
      [
        "S",
        "I"
      ],
      [
        "L",
        "in"
      ],
      [
        "Lin",
        "ux"
      ],
      [
        "q",
        "uer"
      ],
      [
        "li",
        "ke"
      ],
      [
        "K",
        "on"
      ],
      [
        "quer",
        "or"
      ],
      [
        "Kon",
        "queror"
      ],
      [
        "pla",
        "in"
      ],
      [
        "N",
        "I"
      ],
      [
        "M",
        "L"
      ],
      [
        "lh",
        "ost"
      ],
      [
        "lo",
        "ca"
      ],
      [
        "O",
        "NI"
      ],
      [
        "K",
        "HT"
      ],
      [
        "SE",
        "S"
      ],
      [
        "loca",
        "lhost"
      ],
      [
        ",",
        "*/*;"
      ],
      [
        "J",
        "SES"
      ],
      [
        "x",
        "html"
      ],
      [
        "SI",
        "ONI"
      ],
      [
        "KHT",
        "ML"
      ],
      [
        "JSES",
        "SIONI"
      ],
      [
        "JSESSIONI",
        "D"
      ],
      [
        "80",
        "80"
      ],
      [
        "r",
        "e"
      ],
      [
        "ti",
        "en"
      ],
      [
        "da",
        "1"
      ],
      [
        "tien",
        "da1"
      ],
      [
        "2",
        "5"
      ],
      [
        "s",
        "p"
      ],
      [
        "i",
        "s"
      ],
      [
        "d",
        "e"
      ],
      [
        "j",
        "sp"
      ],
      [
        "c",
        "i"
      ],
      [
        "2",
        "7"
      ],
      [
        "ww",
        "w"
      ],
      [
        "u",
        "b"
      ],
      [
        "2",
        "F"
      ],
      [
        "e",
        "s"
      ],
      [
        "p",
        "ub"
      ],
      [
        "li",
        "co"
      ],
      [
        "pub",
        "lico"
      ],
      [
        "m",
        "b"
      ],
      [
        "i",
        "r"
      ],
      [
        "2",
        "9"
      ],
      [
        "B",
        "1"
      ],
      [
        "a",
        "n"
      ],
      [
        "u",
        "r"
      ],
      [
        "4",
        "0"
      ],
      [
        "2",
        "8"
      ],
      [
        "s",
        "s"
      ],
      [
        "i",
        "t"
      ],
      [
        "f",
        "or"
      ],
      [
        "for",
        "m"
      ],
      [
        "i",
        "o"
      ],
      [
        "p",
        "r"
      ],
      [
        "a",
        "l"
      ],
      [
        "g",
        "is"
      ],
      [
        "l",
        "en"
      ],
      [
        "3",
        "D"
      ],
      [
        "e",
        "e"
      ],
      [
        "de",
        "d"
      ],
      [
        "2",
        "2"
      ],
      [
        "8",
        "5"
      ],
      [
        "co",
        "ded"
      ],
      [
        "ur",
        "len"
      ],
      [
        "urlen",
        "coded"
      ],
      [
        "e",
        "l"
      ],
      [
        "d",
        "o"
      ],
      [
        "n",
        "t"
      ],
      [
        "1",
        "1"
      ],
      [
        "2",
        "C"
      ],
      [
        "a",
        "s"
      ],
      [
        "2",
        "3"
      ],
      [
        "3",
        "A"
      ],
      [
        "od",
        "o"
      ],
      [
        "lo",
        "g"
      ],
      [
        "m",
        "odo"
      ],
      [
        "1",
        "0"
      ],
      [
        "ca",
        "r"
      ],
      [
        "n",
        "i"
      ],
      [
        "2",
        "0"
      ],
      [
        "u",
        "d"
      ],
      [
        "2",
        "4"
      ],
      [
        "1",
        "5"
      ],
      [
        "2",
        "6"
      ],
      [
        "=",
        "*"
      ],
      [
        "1",
        "7"
      ],
      [
        "1",
        "9"
      ],
      [
        "m",
        "e"
      ],
      [
        "8",
        "6"
      ],
      [
        "1",
        "6"
      ],
      [
        "3",
        "C"
      ],
      [
        "s",
        "t"
      ],
      [
        "i",
        "d"
      ],
      [
        "1",
        "3"
      ],
      [
        "i",
        "f"
      ],
      [
        "8",
        "7"
      ],
      [
        "4",
        "6"
      ],
      [
        "++",
        "++"
      ],
      [
        "+",
        "%"
      ],
      [
        "3",
        "E"
      ],
      [
        "mb",
        "re"
      ],
      [
        "log",
        "in"
      ],
      [
        "3",
        "9"
      ],
      [
        "no",
        "mbre"
      ],
      [
        "r",
        "i"
      ],
      [
        "ci",
        "a"
      ],
      [
        "re",
        "gis"
      ],
      [
        "regis",
        "tro"
      ],
      [
        "5",
        "C"
      ],
      [
        "tr",
        "ar"
      ],
      [
        "4",
        "7"
      ],
      [
        "3",
        "7"
      ],
      [
        "4",
        "9"
      ],
      [
        "8",
        "9"
      ],
      [
        "e",
        "a"
      ],
      [
        "3",
        "B"
      ],
      [
        "pa",
        "ss"
      ],
      [
        "c",
        "p"
      ],
      [
        "o",
        "v"
      ],
      [
        "4",
        "5"
      ],
      [
        "3",
        "0"
      ],
      [
        ">",
        "%"
      ],
      [
        "3",
        "F"
      ],
      [
        "w",
        "s"
      ],
      [
        "r",
        "os"
      ],
      [
        "e",
        "d"
      ],
      [
        "3",
        "6"
      ],
      [
        "m",
        "ie"
      ],
      [
        "2",
        "B"
      ],
      [
        "mb",
        "ros"
      ],
      [
        "mie",
        "mbros"
      ],
      [
        "o",
        "e"
      ],
      [
        "5",
        "6"
      ],
      [
        "/",
        "*"
      ],
      [
        "=",
        "*;"
      ],
      [
        "25",
        "6"
      ],
      [
        "pass",
        "w"
      ],
      [
        "s",
        "h"
      ],
      [
        "e",
        "p"
      ],
      [
        "R",
        "e"
      ],
      [
        "in",
        "do"
      ],
      [
        "ma",
        "il"
      ],
      [
        "r",
        "a"
      ],
      [
        "5",
        "0"
      ],
      [
        "9",
        "0"
      ],
      [
        "i",
        "a"
      ],
      [
        "r",
        "o"
      ],
      [
        "1",
        "8"
      ],
      [
        "5",
        "7"
      ],
      [
        "s",
        "a"
      ],
      [
        ".",
        "."
      ],
      [
        "n",
        "e"
      ],
      [
        "d",
        "ir"
      ],
      [
        "1",
        "4"
      ],
      [
        "n",
        "a"
      ],
      [
        "s",
        "e"
      ],
      [
        "v",
        "e"
      ],
      [
        "5",
        "D"
      ],
      [
        "E",
        "9"
      ],
      [
        "a",
        "c"
      ],
      [
        "li",
        "d"
      ],
      [
        "7",
        "0"
      ],
      [
        "or",
        "d"
      ],
      [
        "F",
        "1"
      ],
      [
        "5",
        "9"
      ],
      [
        "t",
        "p"
      ],
      [
        "ci",
        "on"
      ],
      [
        "en",
        "es"
      ],
      [
        "indo",
        "ws"
      ],
      [
        "d",
        "ni"
      ],
      [
        "r",
        "v"
      ],
      [
        "nt",
        "c"
      ],
      [
        "3",
        "4"
      ],
      [
        "ag",
        "enes"
      ],
      [
        "im",
        "agenes"
      ],
      [
        "ud",
        "ad"
      ],
      [
        "pr",
        "ov"
      ],
      [
        "passw",
        "ord"
      ],
      [
        "e",
        "mail"
      ],
      [
        "ec",
        "cion"
      ],
      [
        "in",
        "cia"
      ],
      [
        "ap",
        "el"
      ],
      [
        "ec",
        "io"
      ],
      [
        "ci",
        "udad"
      ],
      [
        "dir",
        "eccion"
      ],
      [
        "lid",
        "os"
      ],
      [
        "prov",
        "incia"
      ],
      [
        "apel",
        "lidos"
      ],
      [
        "pr",
        "ecio"
      ],
      [
        "it",
        "o"
      ],
      [
        "6",
        "0"
      ],
      [
        "Re",
        "gis"
      ],
      [
        "Regis",
        "trar"
      ],
      [
        "t",
        "t"
      ],
      [
        "is",
        "o"
      ],
      [
        "5",
        "B"
      ],
      [
        "ma",
        "c"
      ],
      [
        "ad",
        "ir"
      ],
      [
        "7",
        "C"
      ],
      [
        "2",
        "1"
      ],
      [
        "s",
        "o"
      ],
      [
        "car",
        "r"
      ],
      [
        "r",
        "ar"
      ],
      [
        "carr",
        "ito"
      ],
      [
        "a",
        "e"
      ],
      [
        "h",
        "e"
      ],
      [
        "3",
        "8"
      ],
      [
        "E",
        "D"
      ],
      [
        "6",
        "9"
      ],
      [
        "ent",
        "rar"
      ],
      [
        "a",
        "t"
      ],
      [
        "6",
        "7"
      ],
      [
        "o",
        "t"
      ],
      [
        "a",
        "li"
      ],
      [
        "s",
        "c"
      ],
      [
        ">",
        "'"
      ],
      [
        "r",
        "r"
      ],
      [
        "7",
        "4"
      ],
      [
        "2",
        "A"
      ],
      [
        "g",
        "if"
      ],
      [
        "3",
        "5"
      ],
      [
        "i",
        "c"
      ],
      [
        "85",
        "9"
      ],
      [
        "E",
        "0"
      ],
      [
        "ke",
        "ep"
      ],
      [
        "ali",
        "ve"
      ],
      [
        "a",
        "m"
      ],
      [
        "v",
        "i"
      ],
      [
        "8",
        "4"
      ],
      [
        "e",
        "o"
      ],
      [
        "a",
        "ci"
      ],
      [
        "7",
        "9"
      ],
      [
        "s",
        "r"
      ],
      [
        "u",
        "n"
      ],
      [
        "2",
        "D"
      ],
      [
        "/",
        "/"
      ],
      [
        "E",
        "A"
      ],
      [
        "u",
        "c"
      ],
      [
        "6",
        "6"
      ],
      [
        "aci",
        "ar"
      ],
      [
        "j",
        "a"
      ],
      [
        "4",
        "4"
      ],
      [
        "8",
        "859"
      ],
      [
        "j",
        "p"
      ],
      [
        "t",
        "o"
      ],
      [
        "9",
        "9"
      ],
      [
        "8",
        "8"
      ],
      [
        "F",
        "0"
      ],
      [
        "t",
        "n"
      ],
      [
        "F",
        "C"
      ],
      [
        "E",
        "B"
      ],
      [
        "E",
        "n"
      ],
      [
        "F",
        "A"
      ],
      [
        "w",
        "d"
      ],
      [
        "F",
        "D"
      ],
      [
        "u",
        "e"
      ],
      [
        "7",
        "7"
      ],
      [
        "s",
        "n"
      ],
      [
        "0",
        "0"
      ],
      [
        "5",
        "4"
      ],
      [
        "F",
        "B"
      ],
      [
        "s",
        "g"
      ],
      [
        "h",
        "a"
      ],
      [
        "+",
        "&"
      ],
      [
        "1",
        "C"
      ],
      [
        "h",
        "o"
      ],
      [
        "1",
        "D"
      ],
      [
        "7",
        "6"
      ],
      [
        "A",
        "D"
      ],
      [
        "t",
        "ar"
      ],
      [
        "u",
        "m"
      ],
      [
        "A",
        "C"
      ],
      [
        "ht",
        "tp"
      ],
      [
        "a",
        "ut"
      ],
      [
        "ri",
        "pt"
      ],
      [
        "e",
        "i"
      ],
      [
        "n",
        "n"
      ],
      [
        "-",
        "-"
      ],
      [
        "s",
        "i"
      ],
      [
        "1",
        "25"
      ],
      [
        "3",
        "3"
      ],
      [
        "8",
        "D"
      ],
      [
        "E",
        "6"
      ],
      [
        "e",
        "x"
      ],
      [
        "ma",
        "x"
      ],
      [
        "w",
        "indows"
      ],
      [
        "8",
        "C"
      ],
      [
        "a",
        "a"
      ],
      [
        "1",
        "B"
      ],
      [
        "A",
        "B"
      ],
      [
        "5",
        "5"
      ],
      [
        "F",
        "9"
      ],
      [
        "e",
        "h"
      ],
      [
        "=*",
        "/*"
      ],
      [
        "A",
        "0"
      ],
      [
        "t",
        "s"
      ],
      [
        "=",
        "*/*;"
      ],
      [
        "in",
        "ser"
      ],
      [
        "u",
        "l"
      ],
      [
        "F",
        "3"
      ],
      [
        "8",
        "B"
      ],
      [
        "m",
        "d"
      ],
      [
        "E",
        "7"
      ],
      [
        "n",
        "s"
      ],
      [
        "F",
        "6"
      ],
      [
        "ca",
        "s"
      ],
      [
        "ca",
        "n"
      ],
      [
        "t",
        "er"
      ],
      [
        "o",
        "l"
      ],
      [
        "A",
        "9"
      ],
      [
        "p",
        "h"
      ],
      [
        "t",
        "m"
      ],
      [
        "4",
        "D"
      ],
      [
        "en",
        "ti"
      ],
      [
        "jp",
        "g"
      ],
      [
        "7",
        "5"
      ],
      [
        "t",
        "os"
      ],
      [
        "4",
        "C"
      ],
      [
        "p",
        "wd"
      ],
      [
        "le",
        "s"
      ],
      [
        "0",
        "9"
      ],
      [
        "o",
        "a"
      ],
      [
        "2",
        "E"
      ],
      [
        "de",
        "o"
      ],
      [
        "d",
        "ad"
      ],
      [
        "4",
        "B"
      ],
      [
        "ag",
        "ar"
      ],
      [
        "aut",
        "enti"
      ],
      [
        "autenti",
        "car"
      ],
      [
        "mb",
        "er"
      ],
      [
        "u",
        "s"
      ],
      [
        "re",
        "me"
      ],
      [
        "f",
        "f"
      ],
      [
        "reme",
        "mber"
      ],
      [
        "p",
        "agar"
      ],
      [
        "i",
        "h"
      ],
      [
        "a",
        "ud"
      ],
      [
        "sc",
        "ript"
      ],
      [
        "it",
        "ar"
      ],
      [
        "m",
        "in"
      ],
      [
        "re",
        "d"
      ],
      [
        "ed",
        "itar"
      ],
      [
        "n",
        "r"
      ],
      [
        "En",
        "trar"
      ],
      [
        "an",
        "adir"
      ],
      [
        "..",
        "%"
      ],
      [
        "l",
        "y"
      ],
      [
        "aud",
        "io"
      ],
      [
        "inser",
        "tar"
      ],
      [
        "b",
        "al"
      ],
      [
        "8",
        "3"
      ],
      [
        "vi",
        "deo"
      ],
      [
        "ti",
        "dad"
      ],
      [
        "can",
        "tidad"
      ],
      [
        "er",
        "r"
      ],
      [
        "1",
        "2"
      ],
      [
        "w",
        "a"
      ],
      [
        "w",
        "e"
      ],
      [
        "n",
        "d"
      ],
      [
        "7",
        "D"
      ],
      [
        "o",
        "b"
      ],
      [
        "F1",
        "adir"
      ],
      [
        "t",
        "u"
      ],
      [
        "++",
        "%"
      ],
      [
        "il",
        "d"
      ],
      [
        "6",
        "5"
      ],
      [
        "++++",
        "%"
      ],
      [
        "1",
        "A"
      ],
      [
        "y",
        "s"
      ],
      [
        "m",
        "o"
      ],
      [
        "r",
        "t"
      ],
      [
        "b",
        "e"
      ],
      [
        "i",
        "i"
      ],
      [
        "++",
        "+"
      ],
      [
        "++",
        "+%"
      ],
      [
        "8",
        "A"
      ],
      [
        "g",
        "lo"
      ],
      [
        "6",
        "4"
      ],
      [
        "ch",
        "ild"
      ],
      [
        "ch",
        "in"
      ],
      [
        "n",
        "h"
      ],
      [
        "l",
        "s"
      ],
      [
        "\\",
        "\\"
      ],
      [
        "B",
        "C"
      ],
      [
        "glo",
        "bal"
      ],
      [
        "g",
        "o"
      ],
      [
        "or",
        "e"
      ],
      [
        "7",
        "E"
      ],
      [
        "t",
        "d"
      ],
      [
        "en",
        "cia"
      ],
      [
        "a",
        "o"
      ],
      [
        "7",
        "3"
      ],
      [
        "a",
        "b"
      ],
      [
        "D",
        "D"
      ],
      [
        "4",
        "3"
      ],
      [
        "h",
        "r"
      ],
      [
        "9",
        "6"
      ],
      [
        "E",
        "E"
      ],
      [
        "M",
        "a"
      ],
      [
        "i",
        "g"
      ],
      [
        "++++",
        "+"
      ],
      [
        "l",
        "n"
      ],
      [
        "is",
        "ti"
      ],
      [
        "ta",
        "s"
      ],
      [
        "o",
        "p"
      ],
      [
        "car",
        "ac"
      ],
      [
        "ter",
        "isti"
      ],
      [
        "carac",
        "teristi"
      ],
      [
        "caracteristi",
        "cas"
      ],
      [
        "27",
        "0"
      ],
      [
        "B",
        "B"
      ],
      [
        "4",
        "8"
      ],
      [
        "v",
        "aciar"
      ],
      [
        "4",
        "A"
      ],
      [
        "W",
        "indows"
      ],
      [
        "7",
        "8"
      ],
      [
        "c",
        "n"
      ],
      [
        "l",
        "l"
      ],
      [
        "F",
        "F"
      ],
      [
        "or",
        "M"
      ],
      [
        "5",
        "8"
      ],
      [
        "d",
        "i"
      ],
      [
        "u",
        "p"
      ],
      [
        "s",
        "ta"
      ],
      [
        "4",
        "1"
      ],
      [
        "6",
        "C"
      ],
      [
        "D",
        "C"
      ],
      [
        "g",
        "i"
      ],
      [
        "o",
        "h"
      ],
      [
        "a",
        "h"
      ],
      [
        "a",
        "i"
      ],
      [
        "err",
        "orM"
      ],
      [
        "errorM",
        "sg"
      ],
      [
        "9",
        "8"
      ],
      [
        "2",
        "e"
      ],
      [
        "A",
        "A"
      ],
      [
        "B",
        "2"
      ],
      [
        "6",
        "8"
      ],
      [
        "B",
        "0"
      ],
      [
        "u",
        "es"
      ],
      [
        "h",
        "s"
      ],
      [
        "F",
        "E"
      ],
      [
        "e",
        "m"
      ],
      [
        "r",
        "n"
      ],
      [
        "tos",
        "h"
      ],
      [
        "o",
        "g"
      ],
      [
        "e",
        "g"
      ],
      [
        "h",
        "n"
      ],
      [
        "B",
        "D"
      ],
      [
        "in",
        "co"
      ],
      [
        "m",
        "ar"
      ],
      [
        "9",
        "5"
      ],
      [
        "a",
        "u"
      ],
      [
        "V",
        "aciar"
      ],
      [
        "r",
        "s"
      ],
      [
        "F",
        "7"
      ],
      [
        "an",
        "s"
      ],
      [
        "rr",
        "ec"
      ],
      [
        "C",
        "red"
      ],
      [
        "o",
        "i"
      ],
      [
        "encia",
        "les"
      ],
      [
        "inco",
        "rrec"
      ],
      [
        "Cred",
        "enciales"
      ],
      [
        "m",
        "s"
      ],
      [
        "9",
        "7"
      ],
      [
        "incorrec",
        "tas"
      ],
      [
        "3",
        "2"
      ],
      [
        "3",
        "1"
      ],
      [
        "--",
        "%"
      ],
      [
        "f",
        "r"
      ],
      [
        "E",
        "1"
      ],
      [
        "l",
        "t"
      ],
      [
        "E",
        "5"
      ],
      [
        "F",
        "5"
      ],
      [
        "0",
        "6"
      ],
      [
        "w",
        "n"
      ],
      [
        "h",
        "i"
      ],
      [
        "0",
        "A"
      ],
      [
        "b",
        "a"
      ],
      [
        "C",
        "C"
      ],
      [
        ":",
        "//"
      ],
      [
        "f",
        "re"
      ],
      [
        "ec",
        "t"
      ],
      [
        "e",
        "b"
      ],
      [
        "s",
        "d"
      ],
      [
        "w",
        "i"
      ],
      [
        "st",
        "ore"
      ],
      [
        "B",
        "9"
      ],
      [
        "os",
        "i"
      ],
      [
        "e",
        "u"
      ],
      [
        "i",
        "z"
      ],
      [
        "0",
        "7"
      ],
      [
        "/*",
        ","
      ],
      [
        "l",
        "r"
      ],
      [
        "m",
        "t"
      ],
      [
        "w",
        "h"
      ],
      [
        "W",
        "in"
      ],
      [
        "6",
        "D"
      ],
      [
        "q",
        "u"
      ],
      [
        "0",
        "D"
      ],
      [
        "y",
        "r"
      ],
      [
        "B",
        "A"
      ],
      [
        "in",
        "g"
      ],
      [
        "sta",
        "le"
      ],
      [
        "b",
        "in"
      ],
      [
        "d",
        "n"
      ],
      [
        "pe",
        "g"
      ],
      [
        "0",
        "5"
      ],
      [
        "N",
        "T"
      ],
      [
        "d",
        "r"
      ],
      [
        "y",
        "e"
      ],
      [
        "tr",
        "ans"
      ],
      [
        "chin",
        "tosh"
      ],
      [
        "Ma",
        "chintosh"
      ],
      [
        "trans",
        "form"
      ],
      [
        "4",
        "E"
      ],
      [
        "8",
        "1"
      ],
      [
        "m",
        "en"
      ],
      [
        "osi",
        "tion"
      ],
      [
        "d",
        "t"
      ],
      [
        "on",
        "ly"
      ],
      [
        "C",
        "D"
      ],
      [
        "cache",
        "d"
      ],
      [
        "g",
        "e"
      ],
      [
        "u",
        "a"
      ],
      [
        "m",
        "r"
      ],
      [
        "F3",
        "n"
      ],
      [
        "c",
        "r"
      ],
      [
        "7",
        "A"
      ],
      [
        "p",
        "osition"
      ],
      [
        "e",
        "f"
      ],
      [
        "6",
        "3"
      ],
      [
        "U",
        "T"
      ],
      [
        "d",
        "s"
      ],
      [
        "p",
        "or"
      ],
      [
        "X",
        "11"
      ],
      [
        "n",
        "et"
      ],
      [
        "fre",
        "sh"
      ],
      [
        "s",
        "tr"
      ],
      [
        "P",
        "as"
      ],
      [
        "t",
        "y"
      ],
      [
        "9",
        "4"
      ],
      [
        "n",
        "c"
      ],
      [
        "do",
        "c"
      ],
      [
        "8",
        "E"
      ],
      [
        "5",
        "A"
      ],
      [
        "9",
        "C"
      ],
      [
        "o",
        "m"
      ],
      [
        "6",
        "A"
      ],
      [
        "i",
        "8"
      ],
      [
        "l",
        "le"
      ],
      [
        "te",
        "m"
      ],
      [
        "1",
        "E"
      ],
      [
        "h",
        "h"
      ],
      [
        "r",
        "u"
      ],
      [
        "t",
        "w"
      ],
      [
        "D",
        "e"
      ],
      [
        "*",
        "%"
      ],
      [
        "t",
        "l"
      ],
      [
        "5",
        "3"
      ],
      [
        "t",
        "c"
      ],
      [
        "e",
        "uc"
      ],
      [
        "t",
        "f"
      ],
      [
        "k",
        "r"
      ],
      [
        "u",
        "i"
      ],
      [
        "e",
        "v"
      ],
      [
        "10",
        "0"
      ],
      [
        "9",
        "D"
      ],
      [
        "7",
        "2"
      ],
      [
        "m",
        "n"
      ],
      [
        "7",
        "1"
      ],
      [
        "t",
        "b"
      ],
      [
        "um",
        "ent"
      ],
      [
        "e",
        "y"
      ],
      [
        "p",
        "er"
      ],
      [
        "i",
        "5"
      ],
      [
        "c",
        "md"
      ],
      [
        "l",
        "d"
      ],
      [
        "P",
        "UT"
      ],
      [
        "f",
        "ir"
      ],
      [
        "ph",
        "p"
      ],
      [
        "doc",
        "ument"
      ],
      [
        "m",
        "i"
      ],
      [
        "0",
        "C"
      ],
      [
        "6",
        "B"
      ],
      [
        "log",
        "o"
      ],
      [
        "6",
        "1"
      ],
      [
        "ca",
        "ja"
      ],
      [
        "Pas",
        "ar"
      ],
      [
        "o",
        "c"
      ],
      [
        "7",
        "B"
      ],
      [
        "E",
        "F"
      ],
      [
        "de",
        "x"
      ],
      [
        "9",
        "3"
      ],
      [
        "i",
        "3"
      ],
      [
        "y",
        "a"
      ],
      [
        "v",
        "a"
      ],
      [
        ".",
        "%"
      ],
      [
        "Con",
        "fir"
      ],
      [
        "Confir",
        "mar"
      ],
      [
        "2F",
        "child"
      ],
      [
        "e",
        "w"
      ],
      [
        "o",
        "ff"
      ],
      [
        "A",
        "l"
      ],
      [
        "er",
        "t"
      ],
      [
        "Ca",
        "lle"
      ],
      [
        "z",
        "a"
      ],
      [
        "i",
        "p"
      ],
      [
        "u",
        "o"
      ],
      [
        "c",
        "ss"
      ],
      [
        "0",
        "8"
      ],
      [
        "u",
        "h"
      ],
      [
        "5",
        "1"
      ],
      [
        "t",
        "g"
      ],
      [
        "F",
        "4"
      ],
      [
        "P",
        "C"
      ],
      [
        "0",
        "1"
      ],
      [
        "0",
        "4"
      ],
      [
        "m",
        "p"
      ],
      [
        "b",
        "o"
      ],
      [
        "in",
        "dex"
      ],
      [
        "co",
        "o"
      ],
      [
        "f",
        "e"
      ],
      [
        "5",
        "E"
      ],
      [
        "w",
        "in"
      ],
      [
        "m",
        "h"
      ],
      [
        "M",
        "ac"
      ],
      [
        "d",
        "h"
      ],
      [
        "s",
        "w"
      ],
      [
        "s",
        "l"
      ],
      [
        "256",
        "3"
      ],
      [
        "r",
        "h"
      ],
      [
        "F",
        "8"
      ],
      [
        "i",
        "b"
      ],
      [
        "y",
        "o"
      ],
      [
        "coo",
        "kie"
      ],
      [
        "I",
        "b"
      ],
      [
        "in",
        "o"
      ],
      [
        "or",
        "g"
      ],
      [
        "c",
        "f"
      ],
      [
        "E",
        "4"
      ],
      [
        "s",
        "ys"
      ],
      [
        "D",
        "A"
      ],
      [
        "ma",
        "n"
      ],
      [
        "ex",
        "ec"
      ],
      [
        "9",
        "1"
      ],
      [
        "9",
        "A"
      ],
      [
        "an",
        "d"
      ],
      [
        "op",
        "en"
      ],
      [
        "a",
        "v"
      ],
      [
        "6",
        "2"
      ],
      [
        "s",
        "f"
      ],
      [
        "a",
        "f"
      ],
      [
        "u",
        "k"
      ],
      [
        "//",
        "//"
      ],
      [
        "..",
        "/"
      ],
      [
        "g",
        "b"
      ],
      [
        "n",
        "l"
      ],
      [
        "r",
        "m"
      ],
      [
        "n",
        "k"
      ],
      [
        "et",
        "c"
      ],
      [
        "a",
        "y"
      ],
      [
        "C",
        "A"
      ],
      [
        "j",
        "s"
      ],
      [
        "o",
        "f"
      ],
      [
        "no",
        "de"
      ],
      [
        "8",
        "2"
      ],
      [
        "u",
        "nt"
      ],
      [
        "P",
        "PC"
      ],
      [
        "0",
        "a"
      ],
      [
        "c",
        "s"
      ],
      [
        "r",
        "d"
      ],
      [
        "E",
        "8"
      ],
      [
        "M",
        "an"
      ],
      [
        "e",
        "k"
      ],
      [
        "R",
        "io"
      ],
      [
        "p",
        "s"
      ],
      [
        "ar",
        "os"
      ],
      [
        "4",
        "2"
      ],
      [
        "D",
        "B"
      ],
      [
        "b",
        "n"
      ],
      [
        "c",
        "gi"
      ],
      [
        "25",
        "74"
      ],
      [
        "c",
        "z"
      ],
      [
        "c",
        "t"
      ],
      [
        "x",
        "ec"
      ],
      [
        "g",
        "a"
      ],
      [
        "u",
        "de"
      ],
      [
        "b",
        "y"
      ],
      [
        "C",
        "0"
      ],
      [
        "h",
        "l"
      ],
      [
        "p",
        "l"
      ],
      [
        "6",
        "E"
      ],
      [
        "b",
        "g"
      ],
      [
        "a",
        "cce"
      ],
      [
        "b",
        "r"
      ],
      [
        "e",
        "z"
      ],
      [
        "w",
        "t"
      ],
      [
        "p",
        "y"
      ],
      [
        "n",
        "f"
      ],
      [
        "9",
        "B"
      ],
      [
        "k",
        "s"
      ],
      [
        "S",
        "an"
      ],
      [
        "i",
        "u"
      ],
      [
        "h",
        "d"
      ],
      [
        "j",
        "peg"
      ],
      [
        "Rio",
        "ja"
      ],
      [
        "A",
        "r"
      ],
      [
        "5",
        "2"
      ],
      [
        "i",
        "y"
      ],
      [
        "9",
        "2"
      ],
      [
        "O",
        "p"
      ],
      [
        "sys",
        "tem"
      ],
      [
        "ex",
        "e"
      ],
      [
        "l",
        "u"
      ],
      [
        "4",
        "F"
      ],
      [
        "on",
        "a"
      ],
      [
        "C",
        "B"
      ],
      [
        "o",
        "y"
      ],
      [
        "pr",
        "o"
      ],
      [
        "in",
        "i"
      ],
      [
        "et",
        "a"
      ],
      [
        "5",
        "F"
      ],
      [
        "a",
        "sp"
      ],
      [
        "b",
        "as"
      ],
      [
        "j",
        "e"
      ],
      [
        "passw",
        "d"
      ],
      [
        "s",
        "u"
      ],
      [
        "c",
        "k"
      ],
      [
        "0",
        "3"
      ],
      [
        "D",
        "E"
      ],
      [
        "l",
        "os"
      ],
      [
        "o",
        "u"
      ],
      [
        "st",
        "y"
      ],
      [
        "co",
        "unt"
      ],
      [
        "oo",
        "t"
      ],
      [
        "0",
        "B"
      ],
      [
        "A",
        "7"
      ],
      [
        "f",
        "t"
      ],
      [
        "in",
        "cl"
      ],
      [
        "ca",
        "t"
      ],
      [
        "o",
        "w"
      ],
      [
        "s",
        "b"
      ],
      [
        "A",
        "6"
      ],
      [
        "s",
        "m"
      ],
      [
        "v",
        "ar"
      ],
      [
        "1",
        "F"
      ],
      [
        "R",
        "O"
      ],
      [
        "al",
        "ert"
      ],
      [
        "d",
        "d"
      ],
      [
        "y",
        "n"
      ],
      [
        "B",
        "S"
      ],
      [
        "che",
        "go"
      ],
      [
        "Q",
        "ues"
      ],
      [
        "++++",
        "+%"
      ],
      [
        "Man",
        "chego"
      ],
      [
        "8",
        "F"
      ],
      [
        "win",
        "nt"
      ],
      [
        ">",
        "+"
      ],
      [
        "a",
        "ti"
      ],
      [
        "i",
        "v"
      ],
      [
        "x",
        "p"
      ],
      [
        "h",
        "f"
      ],
      [
        "e",
        "9"
      ],
      [
        "w",
        "g"
      ],
      [
        "w",
        "r"
      ],
      [
        "e",
        "7"
      ],
      [
        "A",
        "E"
      ],
      [
        "e",
        "6"
      ],
      [
        "w",
        "p"
      ],
      [
        "7",
        "F"
      ],
      [
        "V",
        "ino"
      ],
      [
        "as",
        "f"
      ],
      [
        "incl",
        "ude"
      ],
      [
        "s",
        "y"
      ],
      [
        "v",
        "b"
      ],
      [
        "ob",
        "j"
      ],
      [
        "D",
        "9"
      ],
      [
        "e",
        "0"
      ],
      [
        "P",
        "T"
      ],
      [
        "g",
        "r"
      ],
      [
        "n",
        "b"
      ],
      [
        "z",
        "ar"
      ],
      [
        "25",
        "3A"
      ],
      [
        "D",
        "0"
      ],
      [
        "256",
        "F"
      ],
      [
        "c",
        "d"
      ],
      [
        "E9",
        "ri"
      ],
      [
        "f",
        "ro"
      ],
      [
        "n",
        "y"
      ],
      [
        "s",
        "el"
      ],
      [
        "ad",
        "a"
      ],
      [
        "J",
        "am"
      ],
      [
        "9",
        "x"
      ],
      [
        "e",
        "j"
      ],
      [
        "f",
        "a"
      ],
      [
        "c",
        "u"
      ],
      [
        "sty",
        "le"
      ],
      [
        "Ques",
        "o"
      ],
      [
        "23",
        "12"
      ],
      [
        "lo",
        "cation"
      ],
      [
        "B",
        "6"
      ],
      [
        "w",
        "o"
      ],
      [
        "tm",
        "p"
      ],
      [
        "e",
        "1"
      ],
      [
        "9",
        "E"
      ],
      [
        "B",
        "7"
      ],
      [
        "B",
        "E"
      ],
      [
        "n",
        "u"
      ],
      [
        "e",
        "E"
      ],
      [
        "e",
        "3"
      ],
      [
        "b",
        "t"
      ],
      [
        "r",
        "f"
      ],
      [
        "n",
        "m"
      ],
      [
        "n",
        "p"
      ],
      [
        "er",
        "ra"
      ],
      [
        "ht",
        "m"
      ],
      [
        "pla",
        "ce"
      ],
      [
        "ic",
        "k"
      ],
      [
        "C",
        "6"
      ],
      [
        "D",
        "7"
      ],
      [
        "h",
        "u"
      ],
      [
        "e",
        "5"
      ],
      [
        "r",
        "l"
      ],
      [
        "on",
        "o"
      ],
      [
        "er",
        "a"
      ],
      [
        "un",
        "d"
      ],
      [
        "wi",
        "de"
      ],
      [
        "E9ri",
        "co"
      ],
      [
        "11",
        "0"
      ],
      [
        "10",
        "6"
      ],
      [
        "S",
        "a"
      ],
      [
        "er",
        "e"
      ],
      [
        "3A",
        "0"
      ],
      [
        "A",
        "5"
      ],
      [
        "f",
        "i"
      ],
      [
        "B",
        "F"
      ],
      [
        "h",
        "z"
      ],
      [
        "256",
        "5"
      ],
      [
        "(",
        ")"
      ],
      [
        "a",
        "w"
      ],
      [
        "E",
        "s"
      ],
      [
        "D",
        "5"
      ],
      [
        "f",
        "o"
      ],
      [
        "g",
        "s"
      ],
      [
        "e",
        "8"
      ],
      [
        "g",
        "t"
      ],
      [
        "n",
        "w"
      ],
      [
        "256",
        "9"
      ],
      [
        "..",
        "\\\\"
      ],
      [
        "ar",
        "ab"
      ],
      [
        "ko",
        "i8"
      ],
      [
        "6",
        "F"
      ],
      [
        "I",
        "N"
      ],
      [
        "h",
        "m"
      ],
      [
        "i",
        "w"
      ],
      [
        "C",
        "9"
      ],
      [
        "C",
        "E"
      ],
      [
        "b",
        "s"
      ],
      [
        "25",
        "3D"
      ],
      [
        "4",
        "u"
      ],
      [
        "t",
        "z"
      ],
      [
        "e",
        "q"
      ],
      [
        "V",
        "al"
      ],
      [
        "m",
        "x"
      ],
      [
        "0",
        "d"
      ],
      [
        "20",
        "22"
      ],
      [
        "arab",
        "ic"
      ],
      [
        "e",
        "2"
      ],
      [
        "indo",
        "w"
      ],
      [
        "B",
        "5"
      ],
      [
        "g",
        "ro"
      ],
      [
        "h",
        "y"
      ],
      [
        "j",
        "o"
      ],
      [
        "m",
        "c"
      ],
      [
        "A",
        "8"
      ],
      [
        "A",
        "F"
      ],
      [
        "obj",
        "ect"
      ],
      [
        "0",
        "E"
      ],
      [
        "e",
        "4"
      ],
      [
        "i",
        "1"
      ],
      [
        "e",
        "T"
      ],
      [
        "re",
        "place"
      ],
      [
        "ad",
        "min"
      ],
      [
        "t",
        "5"
      ],
      [
        "ti",
        "me"
      ],
      [
        "C",
        "7"
      ],
      [
        "d",
        "l"
      ],
      [
        "u",
        "g"
      ],
      [
        "N",
        "a"
      ],
      [
        "E",
        "R"
      ],
      [
        "b",
        "h"
      ],
      [
        "qu",
        "ick"
      ],
      [
        "k",
        "a"
      ],
      [
        "Op",
        "en"
      ],
      [
        "BS",
        "D"
      ],
      [
        "quick",
        "time"
      ],
      [
        "p",
        "n"
      ],
      [
        "oe",
        "xec"
      ],
      [
        "wa",
        "v"
      ],
      [
        "D",
        "6"
      ],
      [
        "25",
        "29"
      ],
      [
        "25",
        "2F"
      ],
      [
        "r",
        "c"
      ],
      [
        "y",
        "i"
      ],
      [
        "5B",
        "position"
      ],
      [
        "A",
        "4"
      ],
      [
        "C",
        "F"
      ],
      [
        "f",
        "n"
      ],
      [
        "b",
        "i"
      ],
      [
        "t",
        "T"
      ],
      [
        "m",
        "u"
      ],
      [
        "C",
        "5"
      ],
      [
        "na",
        "me"
      ],
      [
        "w",
        "indow"
      ],
      [
        "h",
        "c"
      ],
      [
        "i3",
        "86"
      ],
      [
        "l",
        "c"
      ],
      [
        "t",
        "8"
      ],
      [
        "t",
        "3"
      ],
      [
        "E",
        "a"
      ],
      [
        "f",
        "s"
      ],
      [
        "t",
        "4"
      ],
      [
        "t",
        "q"
      ],
      [
        "i5",
        "86"
      ],
      [
        "B",
        "4"
      ],
      [
        "n",
        "q"
      ],
      [
        "O",
        "R"
      ],
      [
        "r",
        "I"
      ],
      [
        "t",
        "v"
      ],
      [
        "fro",
        "m"
      ],
      [
        "b",
        "iz"
      ],
      [
        "t",
        "6"
      ],
      [
        "ce",
        "ss"
      ],
      [
        "0",
        "2"
      ],
      [
        "C",
        "1"
      ],
      [
        "c",
        "ript"
      ],
      [
        "p",
        "i"
      ],
      [
        "con",
        "nec"
      ],
      [
        "25",
        "3E"
      ],
      [
        "la",
        "y"
      ],
      [
        "b",
        "ul"
      ],
      [
        "g",
        "n"
      ],
      [
        "u",
        "ni"
      ],
      [
        "bas",
        "ic"
      ],
      [
        "E",
        "3"
      ],
      [
        "E",
        "l"
      ],
      [
        "p",
        "o"
      ],
      [
        "t",
        "7"
      ],
      [
        "a",
        "z"
      ],
      [
        "g",
        "h"
      ],
      [
        "ar",
        "r"
      ],
      [
        "str",
        "uc"
      ],
      [
        "D",
        "F"
      ],
      [
        "t",
        "E"
      ],
      [
        "d",
        "in"
      ],
      [
        "da",
        "te"
      ],
      [
        "25",
        "3C"
      ],
      [
        "a",
        "1"
      ],
      [
        "t",
        "1"
      ],
      [
        "es",
        "ti"
      ],
      [
        "B1",
        "A"
      ],
      [
        "..\\\\",
        "..\\\\"
      ],
      [
        ".",
        "/"
      ],
      [
        "u",
        "y"
      ],
      [
        "e",
        "O"
      ],
      [
        "f",
        "ot"
      ],
      [
        "ti",
        "ff"
      ],
      [
        "ues",
        "tr"
      ],
      [
        "R",
        "i"
      ],
      [
        "d",
        "m"
      ],
      [
        "g",
        "ov"
      ],
      [
        "t",
        "9"
      ],
      [
        "13",
        "6"
      ],
      [
        "D",
        "8"
      ],
      [
        "a",
        "k"
      ],
      [
        "n",
        "uestr"
      ],
      [
        "t",
        "j"
      ],
      [
        "in",
        "struc"
      ],
      [
        "it",
        "os"
      ],
      [
        "cess",
        "ing"
      ],
      [
        "instruc",
        "tion"
      ],
      [
        "r",
        "y"
      ],
      [
        "ati",
        "erra"
      ],
      [
        "nuestr",
        "atierra"
      ],
      [
        "@",
        "/"
      ],
      [
        "c",
        "men"
      ],
      [
        "l",
        "b"
      ],
      [
        "r",
        "b"
      ],
      [
        "cmen",
        "bul"
      ],
      [
        "i",
        "7"
      ],
      [
        "v",
        "o"
      ],
      [
        "9",
        "F"
      ],
      [
        "m",
        "peg"
      ],
      [
        "n",
        "E"
      ],
      [
        "au",
        "z"
      ],
      [
        "P",
        "aros"
      ],
      [
        "d",
        "u"
      ],
      [
        "l",
        "m"
      ],
      [
        "25",
        "22"
      ],
      [
        "T",
        "am"
      ],
      [
        "h",
        "b"
      ],
      [
        "s",
        "html"
      ],
      [
        "S",
        "et"
      ],
      [
        "c",
        "red"
      ],
      [
        "d",
        "y"
      ],
      [
        "r",
        "g"
      ],
      [
        "t",
        "0"
      ],
      [
        "u",
        "f"
      ],
      [
        "d",
        "b"
      ],
      [
        "t",
        "2"
      ],
      [
        "x",
        "e"
      ],
      [
        "a",
        "0"
      ],
      [
        "h",
        "p"
      ],
      [
        "es",
        "e"
      ],
      [
        "9",
        "36"
      ],
      [
        "3A",
        "15"
      ],
      [
        "cred",
        "itos"
      ],
      [
        "B",
        "2A"
      ],
      [
        "pro",
        "cessing"
      ],
      [
        "9",
        "50"
      ],
      [
        "ht",
        "acce"
      ],
      [
        "de",
        "l"
      ],
      [
        "u",
        "sr"
      ],
      [
        "ch",
        "o"
      ],
      [
        "25",
        "0A"
      ],
      [
        "h",
        "g"
      ],
      [
        "m",
        "y"
      ],
      [
        "ut",
        "do"
      ],
      [
        "de",
        "lay"
      ],
      [
        "wa",
        "it"
      ],
      [
        "8",
        "e"
      ],
      [
        "ti",
        "tu"
      ],
      [
        "3B",
        "wait"
      ],
      [
        "3Bwait",
        "for"
      ],
      [
        "2",
        "o"
      ],
      [
        "zar",
        "auz"
      ],
      [
        "sel",
        "ect"
      ],
      [
        "esti",
        "los"
      ],
      [
        "D",
        "4"
      ],
      [
        "_",
        "log"
      ],
      [
        "d",
        "f"
      ],
      [
        "i",
        "q"
      ],
      [
        "t",
        "S"
      ],
      [
        "li",
        "nk"
      ],
      [
        "pa",
        "th"
      ],
      [
        "men",
        "um"
      ],
      [
        "3",
        "r"
      ],
      [
        "W",
        "H"
      ],
      [
        "pr",
        "od"
      ],
      [
        "E",
        "e"
      ],
      [
        "str",
        "ea"
      ],
      [
        "_",
        "strea"
      ],
      [
        "l",
        "f"
      ],
      [
        "n",
        "z"
      ],
      [
        "../",
        "../"
      ],
      [
        "-",
        "/"
      ],
      [
        "og",
        "ono"
      ],
      [
        "titu",
        "lo"
      ],
      [
        "prod",
        "uc"
      ],
      [
        "1",
        "23"
      ],
      [
        "di",
        "v"
      ],
      [
        "fot",
        "os"
      ],
      [
        "ss",
        "_log"
      ],
      [
        "Win",
        "NT"
      ],
      [
        "produc",
        "tos"
      ],
      [
        "2",
        "f"
      ],
      [
        "6",
        "a"
      ],
      [
        "A",
        "3"
      ],
      [
        "s",
        "k"
      ],
      [
        "t",
        "k"
      ],
      [
        "li",
        "r"
      ],
      [
        "ch",
        "a"
      ],
      [
        "B",
        "8"
      ],
      [
        "C",
        "8"
      ],
      [
        "m",
        "m"
      ],
      [
        "x",
        "a"
      ],
      [
        "ar",
        "a"
      ],
      [
        "le",
        "te"
      ],
      [
        "r",
        "p"
      ],
      [
        "od",
        "y"
      ],
      [
        "cas",
        "tro"
      ],
      [
        "M",
        "SI"
      ],
      [
        "c",
        "b"
      ],
      [
        "et",
        "we"
      ],
      [
        "4",
        "e"
      ],
      [
        "i",
        "E"
      ],
      [
        "o",
        "q"
      ],
      [
        "s",
        "j"
      ],
      [
        "o",
        "1"
      ],
      [
        "x",
        "y"
      ],
      [
        "i",
        "0"
      ],
      [
        "m",
        "g"
      ],
      [
        "or",
        "a"
      ],
      [
        "EC",
        "T"
      ],
      [
        "T",
        "a"
      ],
      [
        "s",
        "5"
      ],
      [
        "al",
        "l"
      ],
      [
        "2B",
        "Tam"
      ],
      [
        "MSI",
        "E"
      ],
      [
        "2BTam",
        "per"
      ],
      [
        "_",
        "c"
      ],
      [
        "o",
        "7"
      ],
      [
        "RO",
        "M"
      ],
      [
        "3",
        "e"
      ],
      [
        "4",
        "a"
      ],
      [
        "A",
        "1"
      ],
      [
        "in",
        "p"
      ],
      [
        "an",
        "y"
      ],
      [
        "id",
        "A"
      ],
      [
        ":",
        ":"
      ],
      [
        "o",
        "0"
      ],
      [
        "e",
        "S"
      ],
      [
        "i",
        "6"
      ],
      [
        "t",
        "x"
      ],
      [
        "t",
        "ur"
      ],
      [
        "w",
        "l"
      ],
      [
        "23",
        "5"
      ],
      [
        "ha",
        "v"
      ],
      [
        "87",
        "4"
      ],
      [
        "pass",
        "th"
      ],
      [
        "s",
        "1"
      ],
      [
        "t",
        "_"
      ],
      [
        "////",
        "////"
      ],
      [
        "e",
        "I"
      ],
      [
        "h",
        "ad"
      ],
      [
        "i",
        "9"
      ],
      [
        "u",
        "u"
      ],
      [
        "er",
        "m"
      ],
      [
        "c",
        "c"
      ],
      [
        "i",
        "x"
      ],
      [
        "v",
        "as"
      ],
      [
        "im",
        "g"
      ],
      [
        "up",
        "date"
      ],
      [
        "a",
        "q"
      ],
      [
        "u",
        "ser"
      ],
      [
        "25",
        "3F"
      ],
      [
        "etwe",
        "en"
      ],
      [
        "2",
        "s"
      ],
      [
        "D",
        "3"
      ],
      [
        "L",
        "e"
      ],
      [
        "te",
        "ln"
      ],
      [
        "ht",
        "pass"
      ],
      [
        "xp",
        "_"
      ],
      [
        "4",
        "n"
      ],
      [
        "F",
        "ROM"
      ],
      [
        "M",
        "ar"
      ],
      [
        "g",
        "u"
      ],
      [
        "ce",
        "s"
      ],
      [
        "25",
        "0"
      ],
      [
        "ho",
        "me"
      ],
      [
        "c",
        "y"
      ],
      [
        "s",
        "te"
      ],
      [
        "t",
        "I"
      ],
      [
        "29",
        "0"
      ],
      [
        "2",
        "a"
      ],
      [
        "R",
        "o"
      ],
      [
        "T",
        "o"
      ],
      [
        "T",
        "r"
      ],
      [
        "e",
        "N"
      ],
      [
        "s",
        "7"
      ],
      [
        "2",
        "n"
      ],
      [
        "G",
        "u"
      ],
      [
        "f",
        "h"
      ],
      [
        "s",
        "z"
      ],
      [
        "li",
        "b"
      ],
      [
        "sh",
        "utdo"
      ],
      [
        "ul",
        "l"
      ],
      [
        "an",
        "a"
      ],
      [
        "o",
        "5"
      ],
      [
        "s",
        "0"
      ],
      [
        "ck",
        "_strea"
      ],
      [
        "9",
        "a"
      ],
      [
        "C",
        "4"
      ],
      [
        "l",
        "g"
      ],
      [
        "s",
        "6"
      ],
      [
        "t",
        "A"
      ],
      [
        "20",
        "5"
      ],
      [
        "teln",
        "et"
      ],
      [
        "r",
        "ad"
      ],
      [
        "s",
        "v"
      ],
      [
        "23",
        "4"
      ],
      [
        "E",
        "r"
      ],
      [
        "T",
        "e"
      ],
      [
        "f",
        "d"
      ],
      [
        "h",
        "w"
      ],
      [
        "co",
        "py"
      ],
      [
        "vb",
        "script"
      ],
      [
        "r",
        "w"
      ],
      [
        "z",
        "e"
      ],
      [
        "7",
        "a"
      ],
      [
        "B",
        "3"
      ],
      [
        "t",
        "N"
      ],
      [
        "so",
        "ck_strea"
      ],
      [
        "Win",
        "98"
      ],
      [
        "0",
        "F"
      ],
      [
        "de",
        "lete"
      ],
      [
        "n",
        "4"
      ],
      [
        "o",
        "3"
      ],
      [
        "sa",
        "lir"
      ],
      [
        "a",
        "j"
      ],
      [
        "b",
        "re"
      ],
      [
        "h",
        "8"
      ],
      [
        "i",
        "4"
      ],
      [
        "n",
        "5"
      ],
      [
        "2",
        "15"
      ],
      [
        "i",
        "2"
      ],
      [
        "s",
        "8"
      ],
      [
        "s",
        "9"
      ],
      [
        "89",
        "7"
      ],
      [
        "b",
        "j"
      ],
      [
        "c",
        "m"
      ],
      [
        "f",
        "l"
      ],
      [
        "g",
        "re"
      ],
      [
        "h",
        "6"
      ],
      [
        "o",
        "9"
      ],
      [
        "u",
        "el"
      ],
      [
        "24",
        "9"
      ],
      [
        "1",
        "40"
      ],
      [
        "4",
        "86"
      ],
      [
        "a",
        "3"
      ],
      [
        "if",
        "ra"
      ],
      [
        "256",
        "1"
      ],
      [
        "90",
        "90"
      ],
      [
        "ro",
        "p"
      ],
      [
        "0",
        "e"
      ],
      [
        "3",
        "34"
      ],
      [
        "i",
        "I"
      ],
      [
        "n",
        "3"
      ],
      [
        "o",
        "E"
      ],
      [
        "s",
        "q"
      ],
      [
        "b",
        "l"
      ],
      [
        "n",
        "9"
      ],
      [
        "3A",
        "node"
      ],
      [
        "bg",
        "so"
      ],
      [
        "250A",
        "Set"
      ],
      [
        "1",
        "27"
      ],
      [
        "2",
        "27"
      ],
      [
        "h",
        "5"
      ],
      [
        "is",
        "h"
      ],
      [
        "D",
        "1"
      ],
      [
        "c",
        "g"
      ],
      [
        "n",
        "1"
      ],
      [
        "o",
        "6"
      ],
      [
        "s",
        "3"
      ],
      [
        "w",
        "m"
      ],
      [
        "ser",
        "vi"
      ],
      [
        "st",
        "din"
      ],
      [
        "inp",
        "ut"
      ],
      [
        "7",
        "e"
      ],
      [
        "B",
        "ar"
      ],
      [
        "i",
        "j"
      ],
      [
        "q",
        "e"
      ],
      [
        "hav",
        "ing"
      ],
      [
        "1",
        "46"
      ],
      [
        "O",
        "r"
      ],
      [
        "f",
        "il"
      ],
      [
        "en",
        "a"
      ],
      [
        "ns",
        "f"
      ],
      [
        "gro",
        "up"
      ],
      [
        "g",
        "d"
      ],
      [
        "o",
        "8"
      ],
      [
        "o",
        "N"
      ],
      [
        "s",
        "4"
      ],
      [
        "y",
        "d"
      ],
      [
        "errorMsg",
        "A"
      ],
      [
        "a",
        "6"
      ],
      [
        "h",
        "E"
      ],
      [
        "i",
        "k"
      ],
      [
        "s",
        "un"
      ],
      [
        "27",
        "http"
      ],
      [
        "b",
        "d"
      ],
      [
        "a",
        "5"
      ],
      [
        "b",
        "ri"
      ],
      [
        "o",
        "k"
      ],
      [
        "t",
        "R"
      ],
      [
        "..",
        ".."
      ],
      [
        "1",
        "29"
      ],
      [
        "n",
        "8"
      ],
      [
        "t",
        "O"
      ],
      [
        "il",
        "li"
      ],
      [
        "cf",
        "m"
      ],
      [
        "N",
        "e"
      ],
      [
        "i",
        "ce"
      ],
      [
        "n",
        "2"
      ],
      [
        "el",
        "l"
      ],
      [
        "uni",
        "on"
      ],
      [
        "2",
        "19"
      ],
      [
        "7",
        "r"
      ],
      [
        "q",
        "r"
      ],
      [
        "9",
        "e"
      ],
      [
        "b",
        "oot"
      ],
      [
        "h",
        "k"
      ],
      [
        "i",
        "T"
      ],
      [
        "m",
        "w"
      ],
      [
        "n",
        "S"
      ],
      [
        "1",
        "85"
      ],
      [
        "6",
        "e"
      ],
      [
        "C",
        "3"
      ],
      [
        "s",
        "x"
      ],
      [
        "a",
        "x"
      ],
      [
        "c",
        "1"
      ],
      [
        "s",
        "T"
      ],
      [
        "u",
        "z"
      ],
      [
        "2F",
        "N"
      ],
      [
        "13",
        "0"
      ],
      [
        "1",
        "86"
      ],
      [
        "5",
        "e"
      ],
      [
        "h",
        "q"
      ],
      [
        "j",
        "r"
      ],
      [
        "o",
        "x"
      ],
      [
        "ja",
        "vas"
      ],
      [
        "2",
        "29"
      ],
      [
        "2",
        "10"
      ],
      [
        "i",
        "S"
      ],
      [
        "o",
        "4"
      ],
      [
        "y",
        "u"
      ],
      [
        "SC",
        "RI"
      ],
      [
        "aut",
        "oexec"
      ],
      [
        "SCRI",
        "PT"
      ],
      [
        "2",
        "16"
      ],
      [
        "G",
        "r"
      ],
      [
        "S",
        "ol"
      ],
      [
        "h",
        "3"
      ],
      [
        "l",
        "w"
      ],
      [
        "o",
        "T"
      ],
      [
        "2",
        "40"
      ],
      [
        "2",
        "17"
      ],
      [
        "b",
        "c"
      ],
      [
        "s",
        "E"
      ],
      [
        "25",
        "5"
      ],
      [
        "23",
        "include"
      ],
      [
        "30",
        "6"
      ],
      [
        "0",
        "n"
      ],
      [
        "R",
        "a"
      ],
      [
        "i",
        "A"
      ],
      [
        "9",
        "r"
      ],
      [
        "l",
        "v"
      ],
      [
        "b",
        "u"
      ],
      [
        "t",
        "or"
      ],
      [
        "ir",
        "i"
      ],
      [
        "ee",
        "e"
      ],
      [
        "md",
        "b"
      ],
      [
        "wg",
        "et"
      ],
      [
        "I",
        "n"
      ],
      [
        "S",
        "un"
      ],
      [
        "o",
        "2"
      ],
      [
        "ce",
        "l"
      ],
      [
        "la",
        "nd"
      ],
      [
        "ER",
        "E"
      ],
      [
        "1",
        "a"
      ],
      [
        "h",
        "7"
      ],
      [
        "25",
        "28"
      ],
      [
        "2F",
        "etc"
      ],
      [
        "23",
        "0"
      ],
      [
        "125",
        "7"
      ],
      [
        "1",
        "89"
      ],
      [
        "2",
        "25"
      ],
      [
        "P",
        "a"
      ],
      [
        "P",
        "l"
      ],
      [
        "c",
        "yr"
      ],
      [
        "h",
        "4"
      ],
      [
        "y",
        "l"
      ],
      [
        "er",
        "o"
      ],
      [
        "ci",
        "i"
      ],
      [
        "1",
        "20"
      ],
      [
        "n",
        "v"
      ],
      [
        "s",
        "2"
      ],
      [
        "s",
        "S"
      ],
      [
        "11",
        "9"
      ],
      [
        "16",
        "7"
      ],
      [
        "sa",
        "m"
      ],
      [
        "WH",
        "ERE"
      ],
      [
        "shutdo",
        "wn"
      ],
      [
        "sun",
        "4u"
      ],
      [
        "Sun",
        "OS"
      ],
      [
        "-",
        "<"
      ],
      [
        "O",
        "N"
      ],
      [
        "a",
        "8"
      ],
      [
        "c",
        "0"
      ],
      [
        "t",
        "te"
      ],
      [
        "er",
        "n"
      ],
      [
        "uc",
        "s"
      ],
      [
        "A",
        "R"
      ],
      [
        "d",
        "p"
      ],
      [
        "g",
        "l"
      ],
      [
        "h",
        "1"
      ],
      [
        "h",
        "T"
      ],
      [
        "in",
        "a"
      ],
      [
        "ar",
        "is"
      ],
      [
        "javas",
        "cript"
      ],
      [
        "5",
        "r"
      ],
      [
        "y",
        "t"
      ],
      [
        "SE",
        "L"
      ],
      [
        "22",
        "1"
      ],
      [
        "ro",
        "man"
      ],
      [
        "passth",
        "ru"
      ],
      [
        "A",
        "v"
      ],
      [
        "C",
        "la"
      ],
      [
        "h",
        "0"
      ],
      [
        "i",
        "N"
      ],
      [
        "n",
        "6"
      ],
      [
        "n",
        "j"
      ],
      [
        "o",
        "S"
      ],
      [
        "s",
        "N"
      ],
      [
        "1",
        "26"
      ],
      [
        "2",
        "B1"
      ],
      [
        "E",
        "d"
      ],
      [
        "a",
        "9"
      ],
      [
        "c",
        "6"
      ],
      [
        "l",
        "z"
      ],
      [
        "s",
        "O"
      ],
      [
        "87",
        "6"
      ],
      [
        "a",
        "7"
      ],
      [
        "d",
        "ll"
      ],
      [
        "e",
        "R"
      ],
      [
        "h",
        "v"
      ],
      [
        "n",
        "O"
      ],
      [
        "n",
        "x"
      ],
      [
        "t",
        "H"
      ],
      [
        "im",
        "p"
      ],
      [
        "24",
        "7"
      ],
      [
        "19",
        "87"
      ],
      [
        "2",
        "18"
      ],
      [
        "h",
        "9"
      ],
      [
        "h",
        "S"
      ],
      [
        "j",
        "is"
      ],
      [
        "22",
        "6"
      ],
      [
        "23",
        "6"
      ],
      [
        "ifra",
        "me"
      ],
      [
        "2",
        "28"
      ],
      [
        "4",
        "r"
      ],
      [
        "E",
        "X"
      ],
      [
        "b",
        "ar"
      ],
      [
        "h",
        "j"
      ],
      [
        "n",
        "N"
      ],
      [
        "o",
        "A"
      ],
      [
        "25",
        "27"
      ],
      [
        "b",
        "ody"
      ],
      [
        "i",
        "O"
      ],
      [
        "n",
        "T"
      ],
      [
        "p",
        "d"
      ],
      [
        "t",
        "L"
      ],
      [
        "x",
        "r"
      ],
      [
        "11",
        "6"
      ],
      [
        "13",
        "9"
      ],
      [
        "ac",
        "k"
      ],
      [
        "wh",
        "ere"
      ],
      [
        "106",
        "46"
      ],
      [
        "1",
        "80"
      ],
      [
        "e",
        "A"
      ],
      [
        "l",
        "3"
      ],
      [
        "m",
        "f"
      ],
      [
        "q",
        "a"
      ],
      [
        "w",
        "f"
      ],
      [
        "/",
        "."
      ],
      [
        "0",
        "r"
      ],
      [
        "b",
        "at"
      ],
      [
        "l",
        "5"
      ],
      [
        "m",
        "er"
      ],
      [
        "6",
        "r"
      ],
      [
        "xt",
        "erm"
      ],
      [
        "25",
        "70"
      ],
      [
        "10",
        "7"
      ],
      [
        "24",
        "3"
      ],
      [
        "24",
        "5"
      ],
      [
        "gre",
        "ek"
      ],
      [
        "1",
        "r"
      ],
      [
        "d",
        "c"
      ],
      [
        "m",
        "q"
      ],
      [
        "n",
        "7"
      ],
      [
        "p",
        "aros"
      ],
      [
        "z",
        "r"
      ],
      [
        "as",
        "cii"
      ],
      [
        "56",
        "7"
      ],
      [
        "bgso",
        "und"
      ],
      [
        "m",
        "sp"
      ],
      [
        "o",
        "O"
      ],
      [
        "23",
        "9"
      ],
      [
        "b",
        "etween"
      ],
      [
        "d",
        "w"
      ],
      [
        "n",
        "0"
      ],
      [
        "s",
        "A"
      ],
      [
        "25",
        "73"
      ],
      [
        "37",
        "47"
      ],
      [
        "asp",
        "x"
      ],
      [
        "object",
        "Cla"
      ],
      [
        "objectCla",
        "ss"
      ],
      [
        ")",
        "("
      ],
      [
        ">",
        "<"
      ],
      [
        "g",
        "g"
      ],
      [
        "u",
        "w"
      ],
      [
        "te",
        "s"
      ],
      [
        "25",
        "2E"
      ],
      [
        "es",
        "es"
      ],
      [
        "17",
        "0"
      ],
      [
        "13",
        "5"
      ],
      [
        "sh",
        "if"
      ],
      [
        "125",
        "1"
      ],
      [
        "sw",
        "f"
      ],
      [
        ".",
        "<"
      ],
      [
        "a",
        "4"
      ],
      [
        "d",
        "k"
      ],
      [
        "2F",
        "passwd"
      ],
      [
        "16",
        "0"
      ],
      [
        "256",
        "E"
      ],
      [
        "125",
        "0"
      ],
      [
        "ms",
        "f"
      ],
      [
        "t_",
        "jis"
      ],
      [
        "shif",
        "t_jis"
      ],
      [
        "1",
        "87"
      ],
      [
        "A",
        "e"
      ],
      [
        "b",
        "ig"
      ],
      [
        "t",
        "D"
      ],
      [
        "25",
        "4"
      ],
      [
        "illi",
        "c"
      ],
      [
        "cyr",
        "illic"
      ],
      [
        "E",
        "Da"
      ],
      [
        "h",
        "A"
      ],
      [
        "l",
        "p"
      ],
      [
        "n",
        "I"
      ],
      [
        "o",
        "I"
      ],
      [
        "o",
        "j"
      ],
      [
        "11",
        "5"
      ],
      [
        "11",
        "8"
      ],
      [
        "19",
        "9"
      ],
      [
        "125",
        "8"
      ],
      [
        "c",
        "w"
      ],
      [
        "d",
        "g"
      ],
      [
        "f",
        "tp"
      ],
      [
        "t",
        "en"
      ],
      [
        "v",
        "ir"
      ],
      [
        "y",
        "h"
      ],
      [
        "15",
        "5"
      ],
      [
        "19",
        "0"
      ],
      [
        "he",
        "bre"
      ],
      [
        "rt",
        "f"
      ],
      [
        "SEL",
        "ECT"
      ],
      [
        "hebre",
        "w"
      ],
      [
        "2",
        "r"
      ],
      [
        "9",
        "32"
      ],
      [
        "@",
        "<"
      ],
      [
        "a",
        "E"
      ],
      [
        "d",
        "is"
      ],
      [
        "e",
        "set"
      ],
      [
        "j",
        "ap"
      ],
      [
        "m",
        "ent"
      ],
      [
        "u",
        "j"
      ],
      [
        "la",
        "n"
      ],
      [
        "24",
        "4"
      ],
      [
        "24",
        "6"
      ],
      [
        "24",
        "8"
      ],
      [
        "56",
        "01"
      ],
      [
        "s",
        "es"
      ],
      [
        "z",
        "o"
      ],
      [
        "li",
        "n"
      ],
      [
        "25",
        "0D"
      ],
      [
        "26",
        "40"
      ],
      [
        "1",
        "45"
      ],
      [
        "b",
        "er"
      ],
      [
        "e",
        "L"
      ],
      [
        "k",
        "ore"
      ],
      [
        "l",
        "1"
      ],
      [
        "m",
        "3"
      ],
      [
        "u",
        "en"
      ],
      [
        "an",
        "ese"
      ],
      [
        "2B",
        "document"
      ],
      [
        "Sol",
        "aris"
      ],
      [
        "jap",
        "anese"
      ],
      [
        "A",
        "ND"
      ],
      [
        "d",
        "8"
      ],
      [
        "m",
        "8"
      ],
      [
        "v",
        "r"
      ],
      [
        "15",
        "6"
      ],
      [
        "17",
        "4"
      ],
      [
        "kore",
        "an"
      ],
      [
        "1",
        "22"
      ],
      [
        "1",
        "49"
      ],
      [
        "S",
        "i"
      ],
      [
        "a",
        "T"
      ],
      [
        "m",
        "6"
      ],
      [
        "125",
        "2"
      ],
      [
        "ks",
        "_c"
      ],
      [
        "msp",
        "x"
      ],
      [
        "_",
        "5601"
      ],
      [
        "c",
        "4"
      ],
      [
        "h",
        "O"
      ],
      [
        "w",
        "y"
      ],
      [
        "10",
        "41"
      ],
      [
        "chin",
        "eset"
      ],
      [
        "ks_c",
        "_5601"
      ],
      [
        "chineset",
        "rad"
      ],
      [
        ".",
        "+"
      ],
      [
        "2",
        "80"
      ],
      [
        "8",
        "r"
      ],
      [
        "a",
        "S"
      ],
      [
        "i",
        "da"
      ],
      [
        "in",
        "tosh"
      ],
      [
        "17",
        "6"
      ],
      [
        "19",
        "5"
      ],
      [
        "13",
        "7"
      ],
      [
        "mac",
        "intosh"
      ],
      [
        "I",
        "r"
      ],
      [
        "d",
        "z"
      ],
      [
        "k",
        "ish"
      ],
      [
        "o",
        "te"
      ],
      [
        "p",
        "ost"
      ],
      [
        "25",
        "3"
      ],
      [
        "23",
        "7"
      ],
      [
        "20",
        "0"
      ],
      [
        "17",
        "9"
      ],
      [
        "chin",
        "eses"
      ],
      [
        "chineses",
        "imp"
      ],
      [
        "*",
        ")"
      ],
      [
        "9",
        "l"
      ],
      [
        "n",
        "A"
      ],
      [
        "la",
        "s"
      ],
      [
        "11",
        "4"
      ],
      [
        "23",
        "3"
      ],
      [
        "10",
        "3"
      ],
      [
        "acce",
        "ss_log"
      ],
      [
        "tur",
        "kish"
      ],
      [
        "post",
        "script"
      ],
      [
        "2",
        "t"
      ],
      [
        "d",
        "5"
      ],
      [
        "f",
        "u"
      ],
      [
        "15",
        "0"
      ],
      [
        "110",
        "25"
      ],
      [
        "big",
        "5"
      ],
      [
        "1",
        "e"
      ],
      [
        "d",
        "j"
      ],
      [
        "m",
        "j"
      ],
      [
        "o",
        "R"
      ],
      [
        "v",
        "er"
      ],
      [
        "20",
        "6"
      ],
      [
        "16",
        "8"
      ],
      [
        "16",
        "9"
      ],
      [
        "125",
        "5"
      ],
      [
        "253D",
        "1041"
      ],
      [
        "3747",
        "27"
      ],
      [
        "2640",
        "11025"
      ],
      [
        "253D1041",
        "264011025"
      ],
      [
        "253D1041264011025",
        "374727"
      ],
      [
        "+",
        "--%"
      ],
      [
        "1",
        "47"
      ],
      [
        "c",
        "q"
      ],
      [
        "f",
        "y"
      ],
      [
        "10",
        "4"
      ],
      [
        "19",
        "7"
      ],
      [
        "c",
        "8"
      ],
      [
        "i",
        "H"
      ],
      [
        "l",
        "k"
      ],
      [
        "m",
        "5"
      ],
      [
        "u",
        "8"
      ],
      [
        "z",
        "ip"
      ],
      [
        "27",
        "1"
      ],
      [
        "16",
        "6"
      ],
      [
        "18",
        "3"
      ],
      [
        "6",
        "o"
      ],
      [
        "S",
        "e"
      ],
      [
        "u",
        "3"
      ],
      [
        "u",
        "q"
      ],
      [
        "15",
        "9"
      ],
      [
        "tu",
        "al"
      ],
      [
        "-",
        "&"
      ],
      [
        "2",
        "13"
      ],
      [
        "i",
        "R"
      ],
      [
        "l",
        "8"
      ],
      [
        "n",
        "R"
      ],
      [
        "et",
        "s"
      ],
      [
        "3A",
        "text"
      ],
      [
        "--",
        "&"
      ],
      [
        "1",
        "o"
      ],
      [
        "B",
        "a"
      ],
      [
        "I",
        "s"
      ],
      [
        "h",
        "I"
      ],
      [
        "ti",
        "n"
      ],
      [
        "te",
        "e"
      ],
      [
        "15",
        "7"
      ],
      [
        "14",
        "3"
      ],
      [
        "vir",
        "tual"
      ],
      [
        "2",
        "h"
      ],
      [
        "E",
        "t"
      ],
      [
        "c",
        "x"
      ],
      [
        "d",
        "6"
      ],
      [
        "m",
        "9"
      ],
      [
        "u",
        "0"
      ],
      [
        "is",
        "iri"
      ],
      [
        "40",
        "9"
      ],
      [
        "20",
        "9"
      ],
      [
        "()",
        "["
      ],
      [
        "334",
        "2"
      ],
      [
        "5",
        "c"
      ],
      [
        "N",
        "r"
      ],
      [
        "b",
        "p"
      ],
      [
        "c",
        "9"
      ],
      [
        "d",
        "1"
      ],
      [
        "n",
        "ph"
      ],
      [
        "s",
        "R"
      ],
      [
        "et",
        "o"
      ],
      [
        "2F",
        "script"
      ],
      [
        "11",
        "3"
      ],
      [
        "19",
        "3"
      ],
      [
        "125",
        "4"
      ],
      [
        "1",
        "t"
      ],
      [
        "1",
        "28"
      ],
      [
        "U",
        "ni"
      ],
      [
        "a",
        "O"
      ],
      [
        "d",
        "3"
      ],
      [
        "e",
        "H"
      ],
      [
        "g",
        "y"
      ],
      [
        "k",
        "i"
      ],
      [
        "l",
        "j"
      ],
      [
        "l",
        "x"
      ],
      [
        "u",
        "E"
      ],
      [
        "17",
        "7"
      ],
      [
        "l",
        "E"
      ],
      [
        "m",
        "O"
      ],
      [
        "u",
        "4"
      ],
      [
        "os",
        "a"
      ],
      [
        "te",
        "l"
      ],
      [
        "et",
        "t"
      ],
      [
        "10",
        "5"
      ],
      [
        "php",
        "4"
      ],
      [
        "l",
        "I"
      ],
      [
        "m",
        "k"
      ],
      [
        "m",
        "v"
      ],
      [
        "p",
        "c"
      ],
      [
        "r",
        "q"
      ],
      [
        "t",
        "C"
      ],
      [
        "ur",
        "l"
      ],
      [
        "17",
        "5"
      ],
      [
        "14",
        "4"
      ],
      [
        "1",
        "24"
      ],
      [
        "5",
        "a"
      ],
      [
        "A",
        "d"
      ],
      [
        "M",
        "on"
      ],
      [
        "t",
        "P"
      ],
      [
        "u",
        "9"
      ],
      [
        "er",
        "s"
      ],
      [
        "4",
        "46"
      ],
      [
        "J",
        "u"
      ],
      [
        "b",
        "f"
      ],
      [
        "d",
        "0"
      ],
      [
        "h",
        "x"
      ],
      [
        "l",
        "q"
      ],
      [
        "r",
        "6"
      ],
      [
        "r",
        "9"
      ],
      [
        "re",
        "s"
      ],
      [
        "22",
        "0"
      ],
      [
        "modo",
        "A"
      ],
      [
        "10",
        "9"
      ],
      [
        "m",
        "et"
      ],
      [
        "w",
        "z"
      ],
      [
        "16",
        "5"
      ],
      [
        "1",
        "s"
      ],
      [
        "d",
        "7"
      ],
      [
        "d",
        "E"
      ],
      [
        "d",
        "T"
      ],
      [
        "d",
        "q"
      ],
      [
        "h",
        "N"
      ],
      [
        "l",
        "T"
      ],
      [
        "o",
        "pt"
      ],
      [
        "s",
        "I"
      ],
      [
        "t",
        "U"
      ],
      [
        "u",
        "S"
      ],
      [
        "19",
        "6"
      ],
      [
        "3F",
        "C"
      ],
      [
        "125",
        "3"
      ],
      [
        "()",
        "<"
      ],
      [
        "L",
        "I"
      ],
      [
        "O",
        "L"
      ],
      [
        "e",
        "Y"
      ],
      [
        "l",
        "7"
      ],
      [
        "r",
        "3"
      ],
      [
        "17",
        "3"
      ],
      [
        "system",
        "32"
      ],
      [
        "sock_strea",
        "m"
      ],
      [
        "ice",
        "land"
      ],
      [
        "Uni",
        "x"
      ],
      [
        "iceland",
        "ic"
      ],
      [
        "2",
        "11"
      ],
      [
        "d",
        "I"
      ],
      [
        "e",
        "M"
      ],
      [
        "h",
        "H"
      ],
      [
        "s",
        "ee"
      ],
      [
        "10",
        "8"
      ],
      [
        "17",
        "8"
      ],
      [
        "14",
        "8"
      ],
      [
        "php",
        "3"
      ]
    ]
  }
}