{
  "[PAD]": 0,
  "[UNK]": 1,
  "[CLS]": 2,
  "[SEP]": 3,
  "[MASK]": 4,
  "<END>": 5,
  "<ID_LONG>": 6,
  "<NULL>": 7,
  "<NUM_LONG>": 8,
  "<REC>": 9,
  "<SEP>": 10,
  "=": 11,
  "a": 12,
  "t": 13,
  "e": 14,
  "i": 15,
  "c": 16,
  "n": 17,
  "s": 18,
  "o": 19,
  "l": 20,
  "r": 21,
  "-": 22,
  "u": 23,
  "at": 24,
  "d": 25,
  "ta": 26,
  "it": 27,
  "al": 28,
  "N": 29,
  "ca": 30,
  "p": 31,
  "ti": 32,
  "ed": 33,
  "ati": 34,
  "g": 35,
  "m": 36,
  "te": 37,
  "0": 38,
  "L": 39,
  "O": 40,
  "v": 41,
  "tal": 42,
  "on": 43,
  "atio": 44,
  "ation": 45,
  "tio": 46,
  "tion": 47,
  "io": 48,
  "ion": 49,
  "ita": 50,
  "ital": 51,
  "<": 52,
  ">": 53,
  "ri": 54,
  "G": 55,
  "_": 56,
  "_L": 57,
  "_LO": 58,
  "_LON": 59,
  "_LONG": 60,
  "_LONG>": 61,
  "LO": 62,
  "LON": 63,
  "LONG": 64,
  "LONG>": 65,
  "ON": 66,
  "ONG": 67,
  "ONG>": 68,
  "NG": 69,
  "NG>": 70,
  "G>": 71,
  "iv": 72,
  "w": 73,
  "D": 74,
  "M": 75,
  "ss": 76,
  "I": 77,
  "pi": 78,
  "ap": 79,
  "du": 80,
  "edu": 81,
  "educ": 82,
  "educa": 83,
  "educat": 84,
  "educati": 85,
  "educatio": 86,
  "education": 87,
  "duc": 88,
  "duca": 89,
  "ducat": 90,
  "ducati": 91,
  "ducatio": 92,
  "ducation": 93,
  "uc": 94,
  "uca": 95,
  "ucat": 96,
  "ucati": 97,
  "ucatio": 98,
  "ucation": 99,
  "cat": 100,
  "cati": 101,
  "catio": 102,
  "cation": 103,
  "<I": 104,
  "<ID": 105,
  "<ID_": 106,
  "<ID_L": 107,
  "<ID_LO": 108,
  "<ID_LON": 109,
  "<ID_LONG": 110,
  "ID": 111,
  "ID_": 112,
  "ID_L": 113,
  "ID_LO": 114,
  "ID_LON": 115,
  "ID_LONG": 116,
  "ID_LONG>": 117,
  "D_": 118,
  "D_L": 119,
  "D_LO": 120,
  "D_LON": 121,
  "D_LONG": 122,
  "D_LONG>": 123,
  "cap": 124,
  "capi": 125,
  "capit": 126,
  "capita": 127,
  "capital": 128,
  "api": 129,
  "apit": 130,
  "apita": 131,
  "apital": 132,
  "pit": 133,
  "pita": 134,
  "pital": 135,
  "-c": 136,
  "ar": 137,
  "U": 138,
  "tat": 139,
  "ma": 140,
  "us": 141,
  "-s": 142,
  "ite": 143,
  "S": 144,
  "f": 145,
  "ate": 146,
  "h": 147,
  "se": 148,
  "in": 149,
  "ra": 150,
  "le": 151,
  "ou": 152,
  "n-": 153,
  "mar": 154,
  "or": 155,
  "y": 156,
  "ac": 157,
  "ve": 158,
  "ed-": 159,
  "d-": 160,
  "e-": 161,
  "ge": 162,
  "Ma": 163,
  "co": 164,
  "ce": 165,
  "e-c": 166,
  "e-co": 167,
  "-co": 168,
  "ll": 169,
  "1": 170,
  "oc": 171,
  "la": 172,
  "lo": 173,
  "cl": 174,
  "pa": 175,
  "x": 176,
  "na": 177,
  "ai": 178,
  "ag": 179,
  "age": 180,
  "ale": 181,
  "hi": 182,
  "k": 183,
  "l-": 184,
  "al-": 185,
  "-n": 186,
  "er": 187,
  "st": 188,
  "as": 189,
  "tiv": 190,
  "tive": 191,
  "ive": 192,
  "ativ": 193,
  "ative": 194,
  "up": 195,
  "tive-": 196,
  "ive-": 197,
  "ve-": 198,
  "ex": 199,
  "es": 200,
  "nt": 201,
  "Un": 202,
  "um": 203,
  "ga": 204,
  "2": 205,
  "tu": 206,
  "cu": 207,
  "os": 208,
  "un": 209,
  "ry": 210,
  "wo": 211,
  "wor": 212,
  "work": 213,
  "ork": 214,
  "rk": 215,
  "workc": 216,
  "workcl": 217,
  "workcla": 218,
  "workclas": 219,
  "workclass": 220,
  "orkc": 221,
  "orkcl": 222,
  "orkcla": 223,
  "orkclas": 224,
  "orkclass": 225,
  "rkc": 226,
  "rkcl": 227,
  "rkcla": 228,
  "rkclas": 229,
  "rkclass": 230,
  "kc": 231,
  "kcl": 232,
  "kcla": 233,
  "kclas": 234,
  "kclass": 235,
  "cla": 236,
  "clas": 237,
  "class": 238,
  "las": 239,
  "lass": 240,
  "ass": 241,
  "fn": 242,
  "fnl": 243,
  "fnlw": 244,
  "fnlwg": 245,
  "fnlwgt": 246,
  "nl": 247,
  "nlw": 248,
  "nlwg": 249,
  "nlwgt": 250,
  "lw": 251,
  "lwg": 252,
  "lwgt": 253,
  "wg": 254,
  "wgt": 255,
  "gt": 256,
  ".": 257,
  ".0": 258,
  "education-": 259,
  "education-n": 260,
  "education-nu": 261,
  "education-num": 262,
  "ducation-": 263,
  "ducation-n": 264,
  "ducation-nu": 265,
  "ducation-num": 266,
  "ucation-": 267,
  "ucation-n": 268,
  "ucation-nu": 269,
  "ucation-num": 270,
  "cation-": 271,
  "cation-n": 272,
  "cation-nu": 273,
  "cation-num": 274,
  "ation-": 275,
  "ation-n": 276,
  "ation-nu": 277,
  "ation-num": 278,
  "tion-": 279,
  "tion-n": 280,
  "tion-nu": 281,
  "tion-num": 282,
  "ion-": 283,
  "ion-n": 284,
  "ion-nu": 285,
  "ion-num": 286,
  "on-": 287,
  "on-n": 288,
  "on-nu": 289,
  "on-num": 290,
  "n-n": 291,
  "n-nu": 292,
  "n-num": 293,
  "-nu": 294,
  "-num": 295,
  "nu": 296,
  "num": 297,
  "mari": 298,
  "marit": 299,
  "marita": 300,
  "marital": 301,
  "marital-": 302,
  "marital-s": 303,
  "marital-st": 304,
  "marital-sta": 305,
  "marital-stat": 306,
  "marital-statu": 307,
  "marital-status": 308,
  "ari": 309,
  "arit": 310,
  "arita": 311,
  "arital": 312,
  "arital-": 313,
  "arital-s": 314,
  "arital-st": 315,
  "arital-sta": 316,
  "arital-stat": 317,
  "arital-statu": 318,
  "arital-status": 319,
  "rit": 320,
  "rita": 321,
  "rital": 322,
  "rital-": 323,
  "rital-s": 324,
  "rital-st": 325,
  "rital-sta": 326,
  "rital-stat": 327,
  "rital-statu": 328,
  "rital-status": 329,
  "ital-": 330,
  "ital-s": 331,
  "ital-st": 332,
  "ital-sta": 333,
  "ital-stat": 334,
  "ital-statu": 335,
  "ital-status": 336,
  "tal-": 337,
  "tal-s": 338,
  "tal-st": 339,
  "tal-sta": 340,
  "tal-stat": 341,
  "tal-statu": 342,
  "tal-status": 343,
  "al-s": 344,
  "al-st": 345,
  "al-sta": 346,
  "al-stat": 347,
  "al-statu": 348,
  "al-status": 349,
  "l-s": 350,
  "l-st": 351,
  "l-sta": 352,
  "l-stat": 353,
  "l-statu": 354,
  "l-status": 355,
  "-st": 356,
  "-sta": 357,
  "-stat": 358,
  "-statu": 359,
  "-status": 360,
  "sta": 361,
  "stat": 362,
  "statu": 363,
  "status": 364,
  "tatu": 365,
  "tatus": 366,
  "atu": 367,
  "atus": 368,
  "tus": 369,
  "occ": 370,
  "occu": 371,
  "occup": 372,
  "occupa": 373,
  "occupat": 374,
  "occupati": 375,
  "occupatio": 376,
  "occupation": 377,
  "cc": 378,
  "ccu": 379,
  "ccup": 380,
  "ccupa": 381,
  "ccupat": 382,
  "ccupati": 383,
  "ccupatio": 384,
  "ccupation": 385,
  "cup": 386,
  "cupa": 387,
  "cupat": 388,
  "cupati": 389,
  "cupatio": 390,
  "cupation": 391,
  "upa": 392,
  "upat": 393,
  "upati": 394,
  "upatio": 395,
  "upation": 396,
  "pat": 397,
  "pati": 398,
  "patio": 399,
  "pation": 400,
  "rac": 401,
  "race": 402,
  "ace": 403,
  "sex": 404,
  "capitalg": 405,
  "capitalga": 406,
  "capitalgai": 407,
  "capitalgain": 408,
  "apitalg": 409,
  "apitalga": 410,
  "apitalgai": 411,
  "apitalgain": 412,
  "pitalg": 413,
  "pitalga": 414,
  "pitalgai": 415,
  "pitalgain": 416,
  "italg": 417,
  "italga": 418,
  "italgai": 419,
  "italgain": 420,
  "talg": 421,
  "talga": 422,
  "talgai": 423,
  "talgain": 424,
  "alg": 425,
  "alga": 426,
  "algai": 427,
  "algain": 428,
  "lg": 429,
  "lga": 430,
  "lgai": 431,
  "lgain": 432,
  "gai": 433,
  "gain": 434,
  "ain": 435,
  "capitall": 436,
  "capitallo": 437,
  "capitallos": 438,
  "capitalloss": 439,
  "apitall": 440,
  "apitallo": 441,
  "apitallos": 442,
  "apitalloss": 443,
  "pitall": 444,
  "pitallo": 445,
  "pitallos": 446,
  "pitalloss": 447,
  "itall": 448,
  "itallo": 449,
  "itallos": 450,
  "italloss": 451,
  "tall": 452,
  "tallo": 453,
  "tallos": 454,
  "talloss": 455,
  "all": 456,
  "allo": 457,
  "allos": 458,
  "alloss": 459,
  "llo": 460,
  "llos": 461,
  "lloss": 462,
  "los": 463,
  "loss": 464,
  "oss": 465,
  "nat": 466,
  "nati": 467,
  "nativ": 468,
  "native": 469,
  "native-": 470,
  "native-c": 471,
  "native-co": 472,
  "native-cou": 473,
  "native-coun": 474,
  "native-count": 475,
  "native-countr": 476,
  "native-country": 477,
  "ative-": 478,
  "ative-c": 479,
  "ative-co": 480,
  "ative-cou": 481,
  "ative-coun": 482,
  "ative-count": 483,
  "ative-countr": 484,
  "ative-country": 485,
  "tive-c": 486,
  "tive-co": 487,
  "tive-cou": 488,
  "tive-coun": 489,
  "tive-count": 490,
  "tive-countr": 491,
  "tive-country": 492,
  "ive-c": 493,
  "ive-co": 494,
  "ive-cou": 495,
  "ive-coun": 496,
  "ive-count": 497,
  "ive-countr": 498,
  "ive-country": 499,
  "ve-c": 500,
  "ve-co": 501,
  "ve-cou": 502,
  "ve-coun": 503,
  "ve-count": 504,
  "ve-countr": 505,
  "ve-country": 506,
  "e-cou": 507,
  "e-coun": 508,
  "e-count": 509,
  "e-countr": 510,
  "e-country": 511,
  "-cou": 512,
  "-coun": 513,
  "-count": 514,
  "-countr": 515,
  "-country": 516,
  "cou": 517,
  "coun": 518,
  "count": 519,
  "countr": 520,
  "country": 521,
  "oun": 522,
  "ount": 523,
  "ountr": 524,
  "ountry": 525,
  "unt": 526,
  "untr": 527,
  "untry": 528,
  "ntr": 529,
  "ntry": 530,
  "tr": 531,
  "try": 532,
  "<N": 533,
  "<NU": 534,
  "NU": 535,
  "St": 536,
  "Sta": 537,
  "Stat": 538,
  "State": 539,
  "tate": 540,
  "W": 541,
  "ted": 542,
  "ie": 543,
  "arr": 544,
  "arri": 545,
  "arrie": 546,
  "arried": 547,
  "rr": 548,
  "rri": 549,
  "rrie": 550,
  "rried": 551,
  "rie": 552,
  "ried": 553,
  "ied": 554,
  "P": 555,
  "-S": 556,
  "ni": 557,
  "Uni": 558,
  "Unit": 559,
  "Unite": 560,
  "United": 561,
  "United-": 562,
  "United-S": 563,
  "United-St": 564,
  "United-Sta": 565,
  "United-Stat": 566,
  "United-State": 567,
  "United-States": 568,
  "nit": 569,
  "nite": 570,
  "nited": 571,
  "nited-": 572,
  "nited-S": 573,
  "nited-St": 574,
  "nited-Sta": 575,
  "nited-Stat": 576,
  "nited-State": 577,
  "nited-States": 578,
  "ited": 579,
  "ited-": 580,
  "ited-S": 581,
  "ited-St": 582,
  "ited-Sta": 583,
  "ited-Stat": 584,
  "ited-State": 585,
  "ited-States": 586,
  "ted-": 587,
  "ted-S": 588,
  "ted-St": 589,
  "ted-Sta": 590,
  "ted-Stat": 591,
  "ted-State": 592,
  "ted-States": 593,
  "ed-S": 594,
  "ed-St": 595,
  "ed-Sta": 596,
  "ed-Stat": 597,
  "ed-State": 598,
  "ed-States": 599,
  "d-S": 600,
  "d-St": 601,
  "d-Sta": 602,
  "d-Stat": 603,
  "d-State": 604,
  "d-States": 605,
  "-St": 606,
  "-Sta": 607,
  "-Stat": 608,
  "-State": 609,
  "-States": 610,
  "States": 611,
  "tates": 612,
  "ates": 613,
  "tes": 614,
  "Pr": 615,
  "Wh": 616,
  "Whi": 617,
  "Whit": 618,
  "White": 619,
  "hit": 620,
  "hite": 621,
  "<NUM": 622,
  "<NUM_": 623,
  "<NUM_L": 624,
  "<NUM_LO": 625,
  "<NUM_LON": 626,
  "<NUM_LONG": 627,
  "<NUM_LONG>.": 628,
  "<NUM_LONG>.0": 629,
  "NUM": 630,
  "NUM_": 631,
  "NUM_L": 632,
  "NUM_LO": 633,
  "NUM_LON": 634,
  "NUM_LONG": 635,
  "NUM_LONG>": 636,
  "NUM_LONG>.": 637,
  "NUM_LONG>.0": 638,
  "UM": 639,
  "UM_": 640,
  "UM_L": 641,
  "UM_LO": 642,
  "UM_LON": 643,
  "UM_LONG": 644,
  "UM_LONG>": 645,
  "UM_LONG>.": 646,
  "UM_LONG>.0": 647,
  "M_": 648,
  "M_L": 649,
  "M_LO": 650,
  "M_LON": 651,
  "M_LONG": 652,
  "M_LONG>": 653,
  "M_LONG>.": 654,
  "M_LONG>.0": 655,
  "_LONG>.": 656,
  "_LONG>.0": 657,
  "LONG>.": 658,
  "LONG>.0": 659,
  "ONG>.": 660,
  "ONG>.0": 661,
  "NG>.": 662,
  "NG>.0": 663,
  "G>.": 664,
  "G>.0": 665,
  ">.": 666,
  ">.0": 667,
  "H": 668,
  "an": 669,
  "sp": 670,
  "Pri": 671,
  "Priv": 672,
  "riv": 673,
  "va": 674,
  "Priva": 675,
  "Privat": 676,
  "Private": 677,
  "riva": 678,
  "rivat": 679,
  "rivate": 680,
  "iva": 681,
  "ivat": 682,
  "ivate": 683,
  "vat": 684,
  "vate": 685,
  "Mal": 686,
  "Male": 687,
  "3": 688,
  "-sp": 689,
  "ci": 690,
  "po": 691,
  "spo": 692,
  "t-": 693,
  "-m": 694,
  "nd": 695,
  "and": 696,
  "ous": 697,
  "ouse": 698,
  "use": 699,
  "er-": 700,
  "r-": 701,
  "Mar": 702,
  "Marr": 703,
  "Marri": 704,
  "Marrie": 705,
  "Married": 706,
  "Married-": 707,
  "arried-": 708,
  "rried-": 709,
  "ried-": 710,
  "ied-": 711,
  "-spo": 712,
  "-spou": 713,
  "-spous": 714,
  "-spouse": 715,
  "spou": 716,
  "spous": 717,
  "spouse": 718,
  "pou": 719,
  "pous": 720,
  "pouse": 721,
  "iv-": 722,
  "v-": 723,
  "Married-c": 724,
  "Married-ci": 725,
  "Married-civ": 726,
  "Married-civ-": 727,
  "Married-civ-s": 728,
  "Married-civ-sp": 729,
  "Married-civ-spo": 730,
  "Married-civ-spou": 731,
  "arried-c": 732,
  "arried-ci": 733,
  "arried-civ": 734,
  "arried-civ-": 735,
  "arried-civ-s": 736,
  "arried-civ-sp": 737,
  "arried-civ-spo": 738,
  "arried-civ-spou": 739,
  "arried-civ-spous": 740,
  "rried-c": 741,
  "rried-ci": 742,
  "rried-civ": 743,
  "rried-civ-": 744,
  "rried-civ-s": 745,
  "rried-civ-sp": 746,
  "rried-civ-spo": 747,
  "rried-civ-spou": 748,
  "rried-civ-spous": 749,
  "rried-civ-spouse": 750,
  "ried-c": 751,
  "ried-ci": 752,
  "ried-civ": 753,
  "ried-civ-": 754,
  "ried-civ-s": 755,
  "ried-civ-sp": 756,
  "ried-civ-spo": 757,
  "ried-civ-spou": 758,
  "ried-civ-spous": 759,
  "ried-civ-spouse": 760,
  "ied-c": 761,
  "ied-ci": 762,
  "ied-civ": 763,
  "ied-civ-": 764,
  "ied-civ-s": 765,
  "ied-civ-sp": 766,
  "ied-civ-spo": 767,
  "ied-civ-spou": 768,
  "ied-civ-spous": 769,
  "ied-civ-spouse": 770,
  "ed-c": 771,
  "ed-ci": 772,
  "ed-civ": 773,
  "ed-civ-": 774,
  "ed-civ-s": 775,
  "ed-civ-sp": 776,
  "ed-civ-spo": 777,
  "ed-civ-spou": 778,
  "ed-civ-spous": 779,
  "ed-civ-spouse": 780,
  "d-c": 781,
  "d-ci": 782,
  "d-civ": 783,
  "d-civ-": 784,
  "d-civ-s": 785,
  "d-civ-sp": 786,
  "d-civ-spo": 787,
  "d-civ-spou": 788,
  "d-civ-spous": 789,
  "d-civ-spouse": 790,
  "-ci": 791,
  "-civ": 792,
  "-civ-": 793,
  "-civ-s": 794,
  "-civ-sp": 795,
  "-civ-spo": 796,
  "-civ-spou": 797,
  "-civ-spous": 798,
  "-civ-spouse": 799,
  "civ": 800,
  "civ-": 801,
  "civ-s": 802,
  "civ-sp": 803,
  "civ-spo": 804,
  "civ-spou": 805,
  "civ-spous": 806,
  "civ-spouse": 807,
  "iv-s": 808,
  "iv-sp": 809,
  "iv-spo": 810,
  "iv-spou": 811,
  "iv-spous": 812,
  "iv-spouse": 813,
  "v-s": 814,
  "v-sp": 815,
  "v-spo": 816,
  "v-spou": 817,
  "v-spous": 818,
  "v-spouse": 819,
  "-g": 820,
  "-ma": 821,
  "em": 822,
  "9": 823,
  "marr": 824,
  "marri": 825,
  "marrie": 826,
  "married": 827,
  "-i": 828,
  "-in": 829,
  "ch": 830,
  "b": 831,
  "il": 832,
  "ba": 833,
  "Hu": 834,
  "Hus": 835,
  "Husb": 836,
  "Husba": 837,
  "Husban": 838,
  "Husband": 839,
  "usb": 840,
  "usba": 841,
  "usban": 842,
  "usband": 843,
  "sb": 844,
  "sba": 845,
  "sban": 846,
  "sband": 847,
  "ban": 848,
  "band": 849,
  "F": 850,
  "Fe": 851,
  "4": 852,
  "ot": 853,
  "ad": 854,
  "ot-": 855,
  "ot-i": 856,
  "ot-in": 857,
  "t-i": 858,
  "t-in": 859,
  "ema": 860,
  "emal": 861,
  "mal": 862,
  "Ne": 863,
  "Nev": 864,
  "Neve": 865,
  "Never": 866,
  "Never-": 867,
  "ev": 868,
  "eve": 869,
  "ever": 870,
  "ever-": 871,
  "ver": 872,
  "ver-": 873,
  "Never-m": 874,
  "Never-ma": 875,
  "Never-mar": 876,
  "Never-marr": 877,
  "Never-marri": 878,
  "Never-marrie": 879,
  "Never-married": 880,
  "ever-m": 881,
  "ever-ma": 882,
  "ever-mar": 883,
  "ever-marr": 884,
  "ever-marri": 885,
  "ever-marrie": 886,
  "ever-married": 887,
  "ver-m": 888,
  "ver-ma": 889,
  "ver-mar": 890,
  "ver-marr": 891,
  "ver-marri": 892,
  "ver-marrie": 893,
  "ver-married": 894,
  "er-m": 895,
  "er-ma": 896,
  "er-mar": 897,
  "er-marr": 898,
  "er-marri": 899,
  "er-marrie": 900,
  "er-married": 901,
  "r-m": 902,
  "r-ma": 903,
  "r-mar": 904,
  "r-marr": 905,
  "r-marri": 906,
  "r-marrie": 907,
  "r-married": 908,
  "-mar": 909,
  "-marr": 910,
  "-marri": 911,
  "-marrie": 912,
  "-married": 913,
  "Fem": 914,
  "Fema": 915,
  "Femal": 916,
  "Female": 917,
  "emale": 918,
  "male": 919,
  "HS": 920,
  "HS-": 921,
  "HS-g": 922,
  "HS-gr": 923,
  "HS-gra": 924,
  "HS-grad": 925,
  "S-": 926,
  "S-g": 927,
  "S-gr": 928,
  "S-gra": 929,
  "S-grad": 930,
  "-gr": 931,
  "-gra": 932,
  "-grad": 933,
  "gr": 934,
  "gra": 935,
  "grad": 936,
  "rad": 937,
  "el": 938,
  "he": 939,
  "rs": 940,
  "th": 941,
  "ec": 942,
  "ia": 943,
  "mi": 944,
  "-f": 945,
  "B": 946,
  "am": 947,
  "ly": 948,
  "10": 949,
  "No": 950,
  "Not": 951,
  "Not-": 952,
  "Not-i": 953,
  "Not-in": 954,
  "Not-in-": 955,
  "Not-in-f": 956,
  "Not-in-fa": 957,
  "Not-in-fam": 958,
  "Not-in-fami": 959,
  "Not-in-famil": 960,
  "Not-in-family": 961,
  "ot-in-": 962,
  "ot-in-f": 963,
  "ot-in-fa": 964,
  "ot-in-fam": 965,
  "ot-in-fami": 966,
  "ot-in-famil": 967,
  "ot-in-family": 968,
  "t-in-": 969,
  "t-in-f": 970,
  "t-in-fa": 971,
  "t-in-fam": 972,
  "t-in-fami": 973,
  "t-in-famil": 974,
  "t-in-family": 975,
  "-in-": 976,
  "-in-f": 977,
  "-in-fa": 978,
  "-in-fam": 979,
  "-in-fami": 980,
  "-in-famil": 981,
  "-in-family": 982,
  "in-": 983,
  "in-f": 984,
  "in-fa": 985,
  "in-fam": 986,
  "in-fami": 987,
  "in-famil": 988,
  "in-family": 989,
  "n-f": 990,
  "n-fa": 991,
  "n-fam": 992,
  "n-fami": 993,
  "n-famil": 994,
  "n-family": 995,
  "-fa": 996,
  "-fam": 997,
  "-fami": 998,
  "-famil": 999,
  "-family": 1000,
  "fa": 1001,
  "fam": 1002,
  "fami": 1003,
  "famil": 1004,
  "family": 1005,
  "ami": 1006,
  "amil": 1007,
  "amily": 1008,
  "mil": 1009,
  "mily": 1010,
  "ily": 1011,
  "f-": 1012,
  "ic": 1013,
  "ial": 1014,
  "ol": 1015,
  "eri": 1016,
  "me": 1017,
  "A": 1018,
  "c-": 1019,
  "ach": 1020,
  "om": 1021,
  "So": 1022,
  "Som": 1023,
  "Some": 1024,
  "Some-": 1025,
  "Some-c": 1026,
  "Some-co": 1027,
  "Some-col": 1028,
  "Some-coll": 1029,
  "Some-colle": 1030,
  "Some-colleg": 1031,
  "Some-college": 1032,
  "ome": 1033,
  "ome-": 1034,
  "ome-c": 1035,
  "ome-co": 1036,
  "ome-col": 1037,
  "ome-coll": 1038,
  "ome-colle": 1039,
  "ome-colleg": 1040,
  "ome-college": 1041,
  "me-": 1042,
  "me-c": 1043,
  "me-co": 1044,
  "me-col": 1045,
  "me-coll": 1046,
  "me-colle": 1047,
  "me-colleg": 1048,
  "me-college": 1049,
  "e-col": 1050,
  "e-coll": 1051,
  "e-colle": 1052,
  "e-colleg": 1053,
  "e-college": 1054,
  "-col": 1055,
  "-coll": 1056,
  "-colle": 1057,
  "-colleg": 1058,
  "-college": 1059,
  "col": 1060,
  "coll": 1061,
  "colle": 1062,
  "colleg": 1063,
  "college": 1064,
  "oll": 1065,
  "olle": 1066,
  "olleg": 1067,
  "ollege": 1068,
  "lle": 1069,
  "lleg": 1070,
  "llege": 1071,
  "leg": 1072,
  "lege": 1073,
  "eg": 1074,
  "ege": 1075,
  "chi": 1076,
  "ov": 1077,
  "cal": 1078,
  "vo": 1079,
  "p-": 1080,
  "13": 1081,
  "Ba": 1082,
  "Bac": 1083,
  "Bach": 1084,
  "Bache": 1085,
  "Bachel": 1086,
  "Bachelo": 1087,
  "Bachelor": 1088,
  "Bachelors": 1089,
  "ache": 1090,
  "achel": 1091,
  "achelo": 1092,
  "achelor": 1093,
  "achelors": 1094,
  "che": 1095,
  "chel": 1096,
  "chelo": 1097,
  "chelor": 1098,
  "chelors": 1099,
  "hel": 1100,
  "helo": 1101,
  "helor": 1102,
  "helors": 1103,
  "elo": 1104,
  "elor": 1105,
  "elors": 1106,
  "lor": 1107,
  "lors": 1108,
  "ors": 1109,
  "Pro": 1110,
  "ro": 1111,
  "re": 1112,
  "hil": 1113,
  "-cl": 1114,
  "-cle": 1115,
  "cle": 1116,
  "ler": 1117,
  "ep": 1118,
  "-r": 1119,
  "-re": 1120,
  "epa": 1121,
  "Ow": 1122,
  "Own": 1123,
  "Own-": 1124,
  "Own-c": 1125,
  "Own-ch": 1126,
  "Own-chi": 1127,
  "Own-chil": 1128,
  "Own-child": 1129,
  "wn": 1130,
  "wn-": 1131,
  "wn-c": 1132,
  "wn-ch": 1133,
  "wn-chi": 1134,
  "wn-chil": 1135,
  "wn-child": 1136,
  "n-c": 1137,
  "n-ch": 1138,
  "n-chi": 1139,
  "n-chil": 1140,
  "n-child": 1141,
  "-ch": 1142,
  "-chi": 1143,
  "-chil": 1144,
  "-child": 1145,
  "chil": 1146,
  "child": 1147,
  "hild": 1148,
  "ild": 1149,
  "ld": 1150,
  "vi": 1151,
  "dm": 1152,
  "7": 1153,
  "E": 1154,
  "Ot": 1155,
  "Oth": 1156,
  "Othe": 1157,
  "Other": 1158,
  "the": 1159,
  "ther": 1160,
  "her": 1161,
  "Se": 1162,
  "Prof": 1163,
  "Prof-": 1164,
  "Prof-s": 1165,
  "rof": 1166,
  "rof-": 1167,
  "rof-s": 1168,
  "of": 1169,
  "of-": 1170,
  "of-s": 1171,
  "f-s": 1172,
  "6": 1173,
  "ers": 1174,
  "go": 1175,
  "C": 1176,
  "-go": 1177,
  "-gov": 1178,
  "gov": 1179,
  "orc": 1180,
  "orce": 1181,
  "rc": 1182,
  "rce": 1183,
  "Di": 1184,
  "Div": 1185,
  "Divo": 1186,
  "Divor": 1187,
  "Divorc": 1188,
  "Divorce": 1189,
  "Divorced": 1190,
  "ivo": 1191,
  "ivor": 1192,
  "ivorc": 1193,
  "ivorce": 1194,
  "ivorced": 1195,
  "vor": 1196,
  "vorc": 1197,
  "vorce": 1198,
  "vorced": 1199,
  "orced": 1200,
  "rced": 1201,
  "ced": 1202,
  "5": 1203,
  "Other-": 1204,
  "ther-": 1205,
  "her-": 1206,
  "<NUL": 1207,
  "<NULL": 1208,
  "NUL": 1209,
  "NULL": 1210,
  "NULL>": 1211,
  "UL": 1212,
  "ULL": 1213,
  "ULL>": 1214,
  "LL": 1215,
  "LL>": 1216,
  "L>": 1217,
  "man": 1218,
  "ana": 1219,
  "-se": 1220,
  "-ser": 1221,
  "-serv": 1222,
  "ser": 1223,
  "serv": 1224,
  "erv": 1225,
  "rv": 1226,
  "Cr": 1227,
  "Cra": 1228,
  "Craf": 1229,
  "Craft": 1230,
  "Craft-": 1231,
  "Craft-r": 1232,
  "Craft-re": 1233,
  "Craft-rep": 1234,
  "Craft-repa": 1235,
  "Craft-repai": 1236,
  "Craft-repair": 1237,
  "raf": 1238,
  "raft": 1239,
  "raft-": 1240,
  "raft-r": 1241,
  "raft-re": 1242,
  "raft-rep": 1243,
  "raft-repa": 1244,
  "raft-repai": 1245,
  "raft-repair": 1246,
  "af": 1247,
  "aft": 1248,
  "aft-": 1249,
  "aft-r": 1250,
  "aft-re": 1251,
  "aft-rep": 1252,
  "aft-repa": 1253,
  "aft-repai": 1254,
  "aft-repair": 1255,
  "ft": 1256,
  "ft-": 1257,
  "ft-r": 1258,
  "ft-re": 1259,
  "ft-rep": 1260,
  "ft-repa": 1261,
  "ft-repai": 1262,
  "ft-repair": 1263,
  "t-r": 1264,
  "t-re": 1265,
  "t-rep": 1266,
  "t-repa": 1267,
  "t-repai": 1268,
  "t-repair": 1269,
  "-rep": 1270,
  "-repa": 1271,
  "-repai": 1272,
  "-repair": 1273,
  "rep": 1274,
  "repa": 1275,
  "repai": 1276,
  "repair": 1277,
  "epai": 1278,
  "epair": 1279,
  "pai": 1280,
  "pair": 1281,
  "air": 1282,
  "ir": 1283,
  "Ex": 1284,
  "Exe": 1285,
  "Exec": 1286,
  "Exec-": 1287,
  "Exec-m": 1288,
  "Exec-ma": 1289,
  "Exec-man": 1290,
  "Exec-mana": 1291,
  "Exec-manag": 1292,
  "Exec-manage": 1293,
  "Exec-manager": 1294,
  "Exec-manageri": 1295,
  "Exec-manageria": 1296,
  "Exec-managerial": 1297,
  "xe": 1298,
  "xec": 1299,
  "xec-": 1300,
  "xec-m": 1301,
  "xec-ma": 1302,
  "xec-man": 1303,
  "xec-mana": 1304,
  "xec-manag": 1305,
  "xec-manage": 1306,
  "xec-manager": 1307,
  "xec-manageri": 1308,
  "xec-manageria": 1309,
  "xec-managerial": 1310,
  "ec-": 1311,
  "ec-m": 1312,
  "ec-ma": 1313,
  "ec-man": 1314,
  "ec-mana": 1315,
  "ec-manag": 1316,
  "ec-manage": 1317,
  "ec-manager": 1318,
  "ec-manageri": 1319,
  "ec-manageria": 1320,
  "ec-managerial": 1321,
  "c-m": 1322,
  "c-ma": 1323,
  "c-man": 1324,
  "c-mana": 1325,
  "c-manag": 1326,
  "c-manage": 1327,
  "c-manager": 1328,
  "c-manageri": 1329,
  "c-manageria": 1330,
  "c-managerial": 1331,
  "-man": 1332,
  "-mana": 1333,
  "-manag": 1334,
  "-manage": 1335,
  "-manager": 1336,
  "-manageri": 1337,
  "-manageria": 1338,
  "-managerial": 1339,
  "mana": 1340,
  "manag": 1341,
  "manage": 1342,
  "manager": 1343,
  "manageri": 1344,
  "manageria": 1345,
  "managerial": 1346,
  "anag": 1347,
  "anage": 1348,
  "anager": 1349,
  "anageri": 1350,
  "anageria": 1351,
  "anagerial": 1352,
  "nag": 1353,
  "nage": 1354,
  "nager": 1355,
  "nageri": 1356,
  "nageria": 1357,
  "nagerial": 1358,
  "ager": 1359,
  "ageri": 1360,
  "ageria": 1361,
  "agerial": 1362,
  "ger": 1363,
  "geri": 1364,
  "geria": 1365,
  "gerial": 1366,
  "eria": 1367,
  "erial": 1368,
  "ria": 1369,
  "rial": 1370,
  "Prof-sp": 1371,
  "Prof-spe": 1372,
  "Prof-spec": 1373,
  "Prof-speci": 1374,
  "Prof-specia": 1375,
  "Prof-special": 1376,
  "Prof-specialt": 1377,
  "Prof-specialty": 1378,
  "rof-sp": 1379,
  "rof-spe": 1380,
  "rof-spec": 1381,
  "rof-speci": 1382,
  "rof-specia": 1383,
  "rof-special": 1384,
  "rof-specialt": 1385,
  "rof-specialty": 1386,
  "of-sp": 1387,
  "of-spe": 1388,
  "of-spec": 1389,
  "of-speci": 1390,
  "of-specia": 1391,
  "of-special": 1392,
  "of-specialt": 1393,
  "of-specialty": 1394,
  "f-sp": 1395,
  "f-spe": 1396,
  "f-spec": 1397,
  "f-speci": 1398,
  "f-specia": 1399,
  "f-special": 1400,
  "f-specialt": 1401,
  "f-specialty": 1402,
  "-spe": 1403,
  "-spec": 1404,
  "-speci": 1405,
  "-specia": 1406,
  "-special": 1407,
  "-specialt": 1408,
  "-specialty": 1409,
  "spe": 1410,
  "spec": 1411,
  "speci": 1412,
  "specia": 1413,
  "special": 1414,
  "specialt": 1415,
  "specialty": 1416,
  "pe": 1417,
  "pec": 1418,
  "peci": 1419,
  "pecia": 1420,
  "pecial": 1421,
  "pecialt": 1422,
  "pecialty": 1423,
  "eci": 1424,
  "ecia": 1425,
  "ecial": 1426,
  "ecialt": 1427,
  "ecialty": 1428,
  "cia": 1429,
  "cial": 1430,
  "cialt": 1431,
  "cialty": 1432,
  "ialt": 1433,
  "ialty": 1434,
  "alt": 1435,
  "alty": 1436,
  "lt": 1437,
  "lty": 1438,
  "ty": 1439,
  "8": 1440,
  "ica": 1441,
  "m-": 1442,
  "Sa": 1443,
  "Sal": 1444,
  "Ad": 1445,
  "Adm": 1446,
  "Adm-": 1447,
  "Adm-c": 1448,
  "Adm-cl": 1449,
  "Adm-cle": 1450,
  "Adm-cler": 1451,
  "Adm-cleri": 1452,
  "Adm-cleric": 1453,
  "Adm-clerica": 1454,
  "Adm-clerical": 1455,
  "dm-": 1456,
  "dm-c": 1457,
  "dm-cl": 1458,
  "dm-cle": 1459,
  "dm-cler": 1460,
  "dm-cleri": 1461,
  "dm-cleric": 1462,
  "dm-clerica": 1463,
  "dm-clerical": 1464,
  "m-c": 1465,
  "m-cl": 1466,
  "m-cle": 1467,
  "m-cler": 1468,
  "m-cleri": 1469,
  "m-cleric": 1470,
  "m-clerica": 1471,
  "m-clerical": 1472,
  "-cler": 1473,
  "-cleri": 1474,
  "-cleric": 1475,
  "-clerica": 1476,
  "-clerical": 1477,
  "cler": 1478,
  "cleri": 1479,
  "cleric": 1480,
  "clerica": 1481,
  "clerical": 1482,
  "leri": 1483,
  "leric": 1484,
  "lerica": 1485,
  "lerical": 1486,
  "eric": 1487,
  "erica": 1488,
  "erical": 1489,
  "ric": 1490,
  "rica": 1491,
  "rical": 1492,
  "ical": 1493,
  "Sale": 1494,
  "Sales": 1495,
  "ales": 1496,
  "les": 1497,
  "ng": 1498,
  "ns": 1499,
  "nsp": 1500,
  "nc": 1501,
  "-e": 1502,
  "ne": 1503,
  "Sel": 1504,
  "Self": 1505,
  "Self-": 1506,
  "Self-e": 1507,
  "Self-em": 1508,
  "Self-emp": 1509,
  "Self-emp-": 1510,
  "elf": 1511,
  "elf-": 1512,
  "elf-e": 1513,
  "elf-em": 1514,
  "elf-emp": 1515,
  "elf-emp-": 1516,
  "lf": 1517,
  "lf-": 1518,
  "lf-e": 1519,
  "lf-em": 1520,
  "lf-emp": 1521,
  "lf-emp-": 1522,
  "f-e": 1523,
  "f-em": 1524,
  "f-emp": 1525,
  "f-emp-": 1526,
  "-em": 1527,
  "-emp": 1528,
  "-emp-": 1529,
  "emp": 1530,
  "emp-": 1531,
  "mp": 1532,
  "mp-": 1533,
  "-inc": 1534,
  "inc": 1535,
  "ing": 1536,
  "Unm": 1537,
  "Unma": 1538,
  "Unmar": 1539,
  "Unmarr": 1540,
  "Unmarri": 1541,
  "Unmarrie": 1542,
  "Unmarried": 1543,
  "nm": 1544,
  "nma": 1545,
  "nmar": 1546,
  "nmarr": 1547,
  "nmarri": 1548,
  "nmarrie": 1549,
  "nmarried": 1550,
  "As": 1551,
  "Other-s": 1552,
  "Other-se": 1553,
  "Other-ser": 1554,
  "Other-serv": 1555,
  "Other-servi": 1556,
  "Other-servic": 1557,
  "Other-service": 1558,
  "ther-s": 1559,
  "ther-se": 1560,
  "ther-ser": 1561,
  "ther-serv": 1562,
  "ther-servi": 1563,
  "ther-servic": 1564,
  "ther-service": 1565,
  "her-s": 1566,
  "her-se": 1567,
  "her-ser": 1568,
  "her-serv": 1569,
  "her-servi": 1570,
  "her-servic": 1571,
  "her-service": 1572,
  "er-s": 1573,
  "er-se": 1574,
  "er-ser": 1575,
  "er-serv": 1576,
  "er-servi": 1577,
  "er-servic": 1578,
  "er-service": 1579,
  "r-s": 1580,
  "r-se": 1581,
  "r-ser": 1582,
  "r-serv": 1583,
  "r-servi": 1584,
  "r-servic": 1585,
  "r-service": 1586,
  "-servi": 1587,
  "-servic": 1588,
  "-service": 1589,
  "servi": 1590,
  "servic": 1591,
  "service": 1592,
  "ervi": 1593,
  "ervic": 1594,
  "ervice": 1595,
  "rvi": 1596,
  "rvic": 1597,
  "rvice": 1598,
  "vic": 1599,
  "vice": 1600,
  "ice": 1601,
  "p-i": 1602,
  "p-in": 1603,
  "al-g": 1604,
  "al-go": 1605,
  "al-gov": 1606,
  "l-g": 1607,
  "l-go": 1608,
  "l-gov": 1609,
  "ct": 1610,
  "Bl": 1611,
  "Bla": 1612,
  "Blac": 1613,
  "Black": 1614,
  "lac": 1615,
  "lack": 1616,
  "ack": 1617,
  "ck": 1618,
  "hin": 1619,
  "11": 1620,
  "rt": 1621,
  "T": 1622,
  "Wi": 1623,
  "ort": 1624,
  "Self-emp-n": 1625,
  "Self-emp-no": 1626,
  "Self-emp-not": 1627,
  "Self-emp-not-": 1628,
  "Self-emp-not-i": 1629,
  "Self-emp-not-in": 1630,
  "Self-emp-not-inc": 1631,
  "elf-emp-n": 1632,
  "elf-emp-no": 1633,
  "elf-emp-not": 1634,
  "elf-emp-not-": 1635,
  "elf-emp-not-i": 1636,
  "elf-emp-not-in": 1637,
  "elf-emp-not-inc": 1638,
  "lf-emp-n": 1639,
  "lf-emp-no": 1640,
  "lf-emp-not": 1641,
  "lf-emp-not-": 1642,
  "lf-emp-not-i": 1643,
  "lf-emp-not-in": 1644,
  "lf-emp-not-inc": 1645,
  "f-emp-n": 1646,
  "f-emp-no": 1647,
  "f-emp-not": 1648,
  "f-emp-not-": 1649,
  "f-emp-not-i": 1650,
  "f-emp-not-in": 1651,
  "f-emp-not-inc": 1652,
  "-emp-n": 1653,
  "-emp-no": 1654,
  "-emp-not": 1655,
  "-emp-not-": 1656,
  "-emp-not-i": 1657,
  "-emp-not-in": 1658,
  "-emp-not-inc": 1659,
  "emp-n": 1660,
  "emp-no": 1661,
  "emp-not": 1662,
  "emp-not-": 1663,
  "emp-not-i": 1664,
  "emp-not-in": 1665,
  "emp-not-inc": 1666,
  "mp-n": 1667,
  "mp-no": 1668,
  "mp-not": 1669,
  "mp-not-": 1670,
  "mp-not-i": 1671,
  "mp-not-in": 1672,
  "mp-not-inc": 1673,
  "p-n": 1674,
  "p-no": 1675,
  "p-not": 1676,
  "p-not-": 1677,
  "p-not-i": 1678,
  "p-not-in": 1679,
  "p-not-inc": 1680,
  "-no": 1681,
  "-not": 1682,
  "-not-": 1683,
  "-not-i": 1684,
  "-not-in": 1685,
  "-not-inc": 1686,
  "no": 1687,
  "not": 1688,
  "not-": 1689,
  "not-i": 1690,
  "not-in": 1691,
  "not-inc": 1692,
  "ot-inc": 1693,
  "t-inc": 1694,
  "por": 1695,
  "port": 1696,
  "Ass": 1697,
  "Asso": 1698,
  "Assoc": 1699,
  "Assoc-": 1700,
  "sso": 1701,
  "ssoc": 1702,
  "ssoc-": 1703,
  "so": 1704,
  "soc": 1705,
  "soc-": 1706,
  "oc-": 1707,
  "ine": 1708,
  "Lo": 1709,
  "Loc": 1710,
  "Loca": 1711,
  "Local": 1712,
  "Local-": 1713,
  "Local-g": 1714,
  "Local-go": 1715,
  "Local-gov": 1716,
  "oca": 1717,
  "ocal": 1718,
  "ocal-": 1719,
  "ocal-g": 1720,
  "ocal-go": 1721,
  "ocal-gov": 1722,
  "cal-": 1723,
  "cal-g": 1724,
  "cal-go": 1725,
  "cal-gov": 1726,
  "Mac": 1727,
  "Mach": 1728,
  "Machi": 1729,
  "Machin": 1730,
  "Machine": 1731,
  "Machine-": 1732,
  "Machine-o": 1733,
  "Machine-op": 1734,
  "Machine-op-": 1735,
  "Machine-op-i": 1736,
  "Machine-op-in": 1737,
  "Machine-op-ins": 1738,
  "Machine-op-insp": 1739,
  "Machine-op-inspc": 1740,
  "achi": 1741,
  "achin": 1742,
  "achine": 1743,
  "achine-": 1744,
  "achine-o": 1745,
  "achine-op": 1746,
  "achine-op-": 1747,
  "achine-op-i": 1748,
  "achine-op-in": 1749,
  "achine-op-ins": 1750,
  "achine-op-insp": 1751,
  "achine-op-inspc": 1752,
  "achine-op-inspct": 1753,
  "chin": 1754,
  "chine": 1755,
  "chine-": 1756,
  "chine-o": 1757,
  "chine-op": 1758,
  "chine-op-": 1759,
  "chine-op-i": 1760,
  "chine-op-in": 1761,
  "chine-op-ins": 1762,
  "chine-op-insp": 1763,
  "chine-op-inspc": 1764,
  "chine-op-inspct": 1765,
  "hine": 1766,
  "hine-": 1767,
  "hine-o": 1768,
  "hine-op": 1769,
  "hine-op-": 1770,
  "hine-op-i": 1771,
  "hine-op-in": 1772,
  "hine-op-ins": 1773,
  "hine-op-insp": 1774,
  "hine-op-inspc": 1775,
  "hine-op-inspct": 1776,
  "ine-": 1777,
  "ine-o": 1778,
  "ine-op": 1779,
  "ine-op-": 1780,
  "ine-op-i": 1781,
  "ine-op-in": 1782,
  "ine-op-ins": 1783,
  "ine-op-insp": 1784,
  "ine-op-inspc": 1785,
  "ine-op-inspct": 1786,
  "ne-": 1787,
  "ne-o": 1788,
  "ne-op": 1789,
  "ne-op-": 1790,
  "ne-op-i": 1791,
  "ne-op-in": 1792,
  "ne-op-ins": 1793,
  "ne-op-insp": 1794,
  "ne-op-inspc": 1795,
  "ne-op-inspct": 1796,
  "e-o": 1797,
  "e-op": 1798,
  "e-op-": 1799,
  "e-op-i": 1800,
  "e-op-in": 1801,
  "e-op-ins": 1802,
  "e-op-insp": 1803,
  "e-op-inspc": 1804,
  "e-op-inspct": 1805,
  "-o": 1806,
  "-op": 1807,
  "-op-": 1808,
  "-op-i": 1809,
  "-op-in": 1810,
  "-op-ins": 1811,
  "-op-insp": 1812,
  "-op-inspc": 1813,
  "-op-inspct": 1814,
  "op": 1815,
  "op-": 1816,
  "op-i": 1817,
  "op-in": 1818,
  "op-ins": 1819,
  "op-insp": 1820,
  "op-inspc": 1821,
  "op-inspct": 1822,
  "p-ins": 1823,
  "p-insp": 1824,
  "p-inspc": 1825,
  "p-inspct": 1826,
  "-ins": 1827,
  "-insp": 1828,
  "-inspc": 1829,
  "-inspct": 1830,
  "ins": 1831,
  "insp": 1832,
  "inspc": 1833,
  "inspct": 1834,
  "nspc": 1835,
  "nspct": 1836,
  "spc": 1837,
  "spct": 1838,
  "pc": 1839,
  "pct": 1840,
  "mo": 1841,
  "de": 1842,
  "der": 1843,
  "14": 1844,
  "h-": 1845,
  "Mas": 1846,
  "Mast": 1847,
  "Maste": 1848,
  "Master": 1849,
  "Masters": 1850,
  "ast": 1851,
  "aste": 1852,
  "aster": 1853,
  "asters": 1854,
  "ste": 1855,
  "ster": 1856,
  "sters": 1857,
  "ter": 1858,
  "ters": 1859,
  "ran": 1860,
  "12": 1861,
  "Tr": 1862,
  "Tra": 1863,
  "Tran": 1864,
  "Trans": 1865,
  "Transp": 1866,
  "Transpo": 1867,
  "Transpor": 1868,
  "Transport": 1869,
  "Transport-": 1870,
  "Transport-m": 1871,
  "Transport-mo": 1872,
  "Transport-mov": 1873,
  "Transport-movi": 1874,
  "Transport-movin": 1875,
  "Transport-moving": 1876,
  "rans": 1877,
  "ransp": 1878,
  "ranspo": 1879,
  "ranspor": 1880,
  "ransport": 1881,
  "ransport-": 1882,
  "ransport-m": 1883,
  "ransport-mo": 1884,
  "ransport-mov": 1885,
  "ransport-movi": 1886,
  "ransport-movin": 1887,
  "ransport-moving": 1888,
  "ans": 1889,
  "ansp": 1890,
  "anspo": 1891,
  "anspor": 1892,
  "ansport": 1893,
  "ansport-": 1894,
  "ansport-m": 1895,
  "ansport-mo": 1896,
  "ansport-mov": 1897,
  "ansport-movi": 1898,
  "ansport-movin": 1899,
  "ansport-moving": 1900,
  "nspo": 1901,
  "nspor": 1902,
  "nsport": 1903,
  "nsport-": 1904,
  "nsport-m": 1905,
  "nsport-mo": 1906,
  "nsport-mov": 1907,
  "nsport-movi": 1908,
  "nsport-movin": 1909,
  "nsport-moving": 1910,
  "spor": 1911,
  "sport": 1912,
  "sport-": 1913,
  "sport-m": 1914,
  "sport-mo": 1915,
  "sport-mov": 1916,
  "sport-movi": 1917,
  "sport-movin": 1918,
  "sport-moving": 1919,
  "port-": 1920,
  "port-m": 1921,
  "port-mo": 1922,
  "port-mov": 1923,
  "port-movi": 1924,
  "port-movin": 1925,
  "port-moving": 1926,
  "ort-": 1927,
  "ort-m": 1928,
  "ort-mo": 1929,
  "ort-mov": 1930,
  "ort-movi": 1931,
  "ort-movin": 1932,
  "ort-moving": 1933,
  "rt-": 1934,
  "rt-m": 1935,
  "rt-mo": 1936,
  "rt-mov": 1937,
  "rt-movi": 1938,
  "rt-movin": 1939,
  "rt-moving": 1940,
  "t-m": 1941,
  "t-mo": 1942,
  "t-mov": 1943,
  "t-movi": 1944,
  "t-movin": 1945,
  "t-moving": 1946,
  "-mo": 1947,
  "-mov": 1948,
  "-movi": 1949,
  "-movin": 1950,
  "-moving": 1951,
  "mov": 1952,
  "movi": 1953,
  "movin": 1954,
  "moving": 1955,
  "ovi": 1956,
  "ovin": 1957,
  "oving": 1958,
  "vin": 1959,
  "ving": 1960,
  "Wif": 1961,
  "Wife": 1962,
  "if": 1963,
  "ife": 1964,
  "fe": 1965,
  "-a": 1966,
  "Ha": 1967,
  "an-": 1968,
  "Assoc-v": 1969,
  "Assoc-vo": 1970,
  "Assoc-voc": 1971,
  "ssoc-v": 1972,
  "ssoc-vo": 1973,
  "ssoc-voc": 1974,
  "soc-v": 1975,
  "soc-vo": 1976,
  "soc-voc": 1977,
  "oc-v": 1978,
  "oc-vo": 1979,
  "oc-voc": 1980,
  "c-v": 1981,
  "c-vo": 1982,
  "c-voc": 1983,
  "-v": 1984,
  "-vo": 1985,
  "-voc": 1986,
  "voc": 1987,
  "Han": 1988,
  "Hand": 1989,
  "Handl": 1990,
  "Handle": 1991,
  "Handler": 1992,
  "Handlers": 1993,
  "Handlers-": 1994,
  "Handlers-c": 1995,
  "Handlers-cl": 1996,
  "Handlers-cle": 1997,
  "Handlers-clea": 1998,
  "Handlers-clean": 1999,
  "Handlers-cleane": 2000,
  "Handlers-cleaner": 2001,
  "andl": 2002,
  "andle": 2003,
  "andler": 2004,
  "andlers": 2005,
  "andlers-": 2006,
  "andlers-c": 2007,
  "andlers-cl": 2008,
  "andlers-cle": 2009,
  "andlers-clea": 2010,
  "andlers-clean": 2011,
  "andlers-cleane": 2012,
  "andlers-cleaner": 2013,
  "andlers-cleaners": 2014,
  "ndl": 2015,
  "ndle": 2016,
  "ndler": 2017,
  "ndlers": 2018,
  "ndlers-": 2019,
  "ndlers-c": 2020,
  "ndlers-cl": 2021,
  "ndlers-cle": 2022,
  "ndlers-clea": 2023,
  "ndlers-clean": 2024,
  "ndlers-cleane": 2025,
  "ndlers-cleaner": 2026,
  "ndlers-cleaners": 2027,
  "dl": 2028,
  "dle": 2029,
  "dler": 2030,
  "dlers": 2031,
  "dlers-": 2032,
  "dlers-c": 2033,
  "dlers-cl": 2034,
  "dlers-cle": 2035,
  "dlers-clea": 2036,
  "dlers-clean": 2037,
  "dlers-cleane": 2038,
  "dlers-cleaner": 2039,
  "dlers-cleaners": 2040,
  "lers": 2041,
  "lers-": 2042,
  "lers-c": 2043,
  "lers-cl": 2044,
  "lers-cle": 2045,
  "lers-clea": 2046,
  "lers-clean": 2047
}