{
  "version": "1.0",
  "truncation": null,
  "padding": null,
  "added_tokens": [
    {
      "id": 0,
      "content": "[PAD]",
      "single_word": false,
      "lstrip": false,
      "rstrip": false,
      "normalized": false,
      "special": true
    },
    {
      "id": 1,
      "content": "[UNK]",
      "single_word": false,
      "lstrip": false,
      "rstrip": false,
      "normalized": false,
      "special": true
    },
    {
      "id": 2,
      "content": "[CLS]",
      "single_word": false,
      "lstrip": false,
      "rstrip": false,
      "normalized": false,
      "special": true
    },
    {
      "id": 3,
      "content": "[SEP]",
      "single_word": false,
      "lstrip": false,
      "rstrip": false,
      "normalized": false,
      "special": true
    },
    {
      "id": 4,
      "content": "[MASK]",
      "single_word": false,
      "lstrip": false,
      "rstrip": false,
      "normalized": false,
      "special": true
    }
  ],
  "normalizer": {
    "type": "NFKC"
  },
  "pre_tokenizer": {
    "type": "Whitespace"
  },
  "post_processor": null,
  "decoder": null,
  "model": {
    "type": "BPE",
    "dropout": null,
    "unk_token": "[UNK]",
    "continuing_subword_prefix": null,
    "end_of_word_suffix": null,
    "fuse_unk": false,
    "byte_fallback": false,
    "ignore_merges": false,
    "vocab": {
      "[PAD]": 0,
      "[UNK]": 1,
      "[CLS]": 2,
      "[SEP]": 3,
      "[MASK]": 4,
      "&": 5,
      "(": 6,
      ")": 7,
      "-": 8,
      ".": 9,
      "0": 10,
      "1": 11,
      "2": 12,
      "3": 13,
      "4": 14,
      "5": 15,
      "6": 16,
      "7": 17,
      "8": 18,
      "9": 19,
      "<": 20,
      "=": 21,
      ">": 22,
      "A": 23,
      "B": 24,
      "C": 25,
      "D": 26,
      "E": 27,
      "F": 28,
      "G": 29,
      "H": 30,
      "I": 31,
      "J": 32,
      "L": 33,
      "M": 34,
      "N": 35,
      "O": 36,
      "P": 37,
      "R": 38,
      "S": 39,
      "T": 40,
      "U": 41,
      "V": 42,
      "W": 43,
      "Y": 44,
      "a": 45,
      "b": 46,
      "c": 47,
      "d": 48,
      "e": 49,
      "f": 50,
      "g": 51,
      "h": 52,
      "i": 53,
      "k": 54,
      "l": 55,
      "m": 56,
      "n": 57,
      "o": 58,
      "p": 59,
      "r": 60,
      "s": 61,
      "t": 62,
      "u": 63,
      "v": 64,
      "w": 65,
      "x": 66,
      "y": 67,
      "EP": 68,
      "SEP": 69,
      "at": 70,
      "ati": 71,
      "it": 72,
      "al": 73,
      "ed": 74,
      "on": 75,
      "ation": 76,
      "ital": 77,
      "ou": 78,
      "ss": 79,
      "er": 80,
      "ca": 81,
      "cation": 82,
      "pital": 83,
      "ucation": 84,
      "education": 85,
      "capital": 86,
      "ar": 87,
      "tat": 88,
      "sp": 89,
      "in": 90,
      "ri": 91,
      "ra": 92,
      "se": 93,
      "mar": 94,
      "us": 95,
      "or": 96,
      "el": 97,
      "ge": 98,
      "oc": 99,
      "hi": 100,
      "cl": 101,
      "ale": 102,
      "ce": 103,
      "ve": 104,
      "rel": 105,
      "ative": 106,
      "up": 107,
      "nt": 108,
      "hou": 109,
      "Un": 110,
      "um": 111,
      "ee": 112,
      "wor": 113,
      "work": 114,
      "EC": 115,
      "EN": 116,
      "REC": 117,
      "ass": 118,
      "ain": 119,
      "age": 120,
      "cou": 121,
      "cup": 122,
      "fn": 123,
      "gt": 124,
      "gain": 125,
      "lo": 126,
      "lw": 127,
      "native": 128,
      "num": 129,
      "ry": 130,
      "rsp": 131,
      "stat": 132,
      "shi": 133,
      "wee": 134,
      "ationshi": 135,
      "erwee": 136,
      "capitalgain": 137,
      "capitallo": 138,
      "race": 139,
      "sex": 140,
      "marital": 141,
      "occup": 142,
      "class": 143,
      "relationshi": 144,
      "ntry": 145,
      "hoursp": 146,
      "workclass": 147,
      "END": 148,
      "country": 149,
      "fnlw": 150,
      "status": 151,
      "erweek": 152,
      "capitalloss": 153,
      "occupation": 154,
      "relationship": 155,
      "hoursperweek": 156,
      "fnlwgt": 157,
      "Stat": 158,
      "State": 159,
      "ried": 160,
      "ited": 161,
      "United": 162,
      "States": 163,
      "Wh": 164,
      "ite": 165,
      "White": 166,
      "ate": 167,
      "an": 168,
      "Pri": 169,
      "Priv": 170,
      "Private": 171,
      "Male": 172,
      "iv": 173,
      "and": 174,
      "Mar": 175,
      "ouse": 176,
      "spouse": 177,
      "Married": 178,
      "civ": 179,
      "em": 180,
      "married": 181,
      "Hus": 182,
      "band": 183,
      "Husband": 184,
      "ac": 185,
      "ot": 186,
      "10": 187,
      "Fem": 188,
      "Female": 189,
      "Ne": 190,
      "ver": 191,
      "Never": 192,
      "HS": 193,
      "gra": 194,
      "grad": 195,
      "ec": 196,
      "th": 197,
      "am": 198,
      "il": 199,
      "Not": 200,
      "fam": 201,
      "ily": 202,
      "family": 203,
      "ial": 204,
      "co": 205,
      "13": 206,
      "ach": 207,
      "om": 208,
      "Som": 209,
      "ege": 210,
      "ll": 211,
      "coll": 212,
      "Some": 213,
      "college": 214,
      "ov": 215,
      "Pr": 216,
      "Bach": 217,
      "ors": 218,
      "elors": 219,
      "Bachelors": 220,
      "hil": 221,
      "ep": 222,
      "Ow": 223,
      "chil": 224,
      "Own": 225,
      "child": 226,
      "11": 227,
      "dm": 228,
      "of": 229,
      "Prof": 230,
      "ers": 231,
      "ther": 232,
      "Other": 233,
      "Div": 234,
      "ced": 235,
      "orced": 236,
      "Divorced": 237,
      "gov": 238,
      "=<": 239,
      "LL": 240,
      "NU": 241,
      "NULL": 242,
      "ai": 243,
      "man": 244,
      "ty": 245,
      "spec": 246,
      "ialty": 247,
      "specialty": 248,
      "Cra": 249,
      "ft": 250,
      "rep": 251,
      "air": 252,
      "Craft": 253,
      "repair": 254,
      "ser": 255,
      "serv": 256,
      "ag": 257,
      "14": 258,
      "Ex": 259,
      "erial": 260,
      "manag": 261,
      "Exec": 262,
      "managerial": 263,
      "ic": 264,
      "12": 265,
      "Adm": 266,
      "eric": 267,
      "cleric": 268,
      "clerical": 269,
      "Sel": 270,
      "inc": 271,
      "emp": 272,
      "Self": 273,
      "ing": 274,
      "Sale": 275,
      "Sales": 276,
      "Unmarried": 277,
      "ice": 278,
      "service": 279,
      "Bl": 280,
      "ack": 281,
      "Black": 282,
      "16": 283,
      "15": 284,
      "18": 285,
      "19": 286,
      "17": 287,
      "ort": 288,
      "not": 289,
      "Wi": 290,
      "20": 291,
      "Ass": 292,
      "Assoc": 293,
      "ine": 294,
      "Loc": 295,
      "Local": 296,
      "Mach": 297,
      "ct": 298,
      "op": 299,
      "spct": 300,
      "inspct": 301,
      "Machine": 302,
      "st": 303,
      "24": 304,
      "23": 305,
      "Ma": 306,
      "sters": 307,
      "Masters": 308,
      "26": 309,
      "25": 310,
      "27": 311,
      "ran": 312,
      "28": 313,
      "Tran": 314,
      "mov": 315,
      "sport": 316,
      "Transport": 317,
      "moving": 318,
      "29": 319,
      "fe": 320,
      "Wife": 321,
      "30": 322,
      "34": 323,
      "Hand": 324,
      "ean": 325,
      "lers": 326,
      "clean": 327,
      "Handlers": 328,
      "cleaners": 329,
      "voc": 330,
      "ian": 331,
      "35": 332,
      "37": 333,
      "11th": 334,
      "36": 335,
      "land": 336,
      "38": 337,
      "39": 338,
      "acdm": 339,
      "Sep": 340,
      "ated": 341,
      "arated": 342,
      "Separated": 343,
      "Far": 344,
      "fi": 345,
      "hing": 346,
      "ming": 347,
      "shing": 348,
      "Farming": 349,
      "fishing": 350,
      "As": 351,
      "Is": 352,
      "Pac": 353,
      "lander": 354,
      "Asian": 355,
      "Islander": 356,
      "do": 357,
      "wed": 358,
      "Wido": 359,
      "Widowed": 360,
      "relative": 361,
      "54": 362,
      "89": 363,
      "Tec": 364,
      "port": 365,
      "sup": 366,
      "Tech": 367,
      "support": 368,
      "Fed": 369,
      "eral": 370,
      "Federal": 371,
      "10th": 372,
      "66": 373,
      "40": 374,
      "49": 375,
      "77": 376,
      "50": 377,
      "59": 378,
      "86": 379,
      "80": 380,
      "46": 381,
      "47": 382,
      "56": 383,
      "ico": 384,
      "57": 385,
      "87": 386,
      "99": 387,
      "ol": 388,
      "22": 389,
      "ive": 390,
      "tive": 391,
      "otec": 392,
      "Protec": 393,
      "Protective": 394,
      "7th": 395,
      "8th": 396,
      "ch": 397,
      "ool": 398,
      "sch": 399,
      "school": 400,
      "Me": 401,
      "xico": 402,
      "Mexico": 403,
      "96": 404,
      "88": 405,
      "33": 406,
      "90": 407,
      "76": 408,
      "44": 409,
      "58": 410,
      "70": 411,
      "9th": 412,
      "55": 413,
      "60": 414,
      "48": 415,
      "97": 416,
      "00": 417,
      "45": 418,
      "12th": 419,
      "32": 420,
      "ab": 421,
      "sent": 422,
      "absent": 423,
      "In": 424,
      "Ind": 425,
      "98": 426,
      "78": 427,
      "Doc": 428,
      "tor": 429,
      "Doctor": 430,
      "Doctorate": 431,
      "68": 432,
      "67": 433,
      "95": 434,
      "94": 435,
      "53": 436,
      "5th": 437,
      "6th": 438,
      "06": 439,
      "Am": 440,
      "Es": 441,
      "im": 442,
      "kim": 443,
      "Indian": 444,
      "Amer": 445,
      "Eskim": 446,
      "Eskimo": 447,
      "ad": 448,
      "21": 449,
      "84": 450,
      "74": 451,
      "85": 452,
      "79": 453,
      "69": 454,
      "64": 455,
      "09": 456,
      "75": 457,
      "65": 458,
      "08": 459,
      "07": 460,
      "93": 461,
      "43": 462,
      "83": 463,
      "42": 464,
      "216": 465,
      "04": 466,
      "05": 467,
      "51": 468,
      "113": 469,
      "52": 470,
      "63": 471,
      "Phil": 472,
      "ip": 473,
      "pine": 474,
      "Philip": 475,
      "pines": 476,
      "Philippines": 477,
      "110": 478,
      "ia": 479,
      "72": 480,
      "73": 481,
      "82": 482,
      "03": 483,
      "214": 484,
      "210": 485,
      "31": 486,
      "213": 487,
      "224": 488,
      "190": 489,
      "1st": 490,
      "4th": 491,
      "ub": 492,
      "house": 493,
      "200": 494,
      "41": 495,
      "218": 496,
      "91": 497,
      "215": 498,
      "227": 499,
      "211": 500,
      "226": 501,
      "81": 502,
      "212": 503,
      "176": 504,
      "187": 505,
      "196": 506,
      "220": 507,
      "225": 508,
      "ador": 509,
      "197": 510,
      "120": 511
    },
    "merges": [
      [
        "E",
        "P"
      ],
      [
        "S",
        "EP"
      ],
      [
        "a",
        "t"
      ],
      [
        "at",
        "i"
      ],
      [
        "i",
        "t"
      ],
      [
        "a",
        "l"
      ],
      [
        "e",
        "d"
      ],
      [
        "o",
        "n"
      ],
      [
        "ati",
        "on"
      ],
      [
        "it",
        "al"
      ],
      [
        "o",
        "u"
      ],
      [
        "s",
        "s"
      ],
      [
        "e",
        "r"
      ],
      [
        "c",
        "a"
      ],
      [
        "c",
        "ation"
      ],
      [
        "p",
        "ital"
      ],
      [
        "u",
        "cation"
      ],
      [
        "ed",
        "ucation"
      ],
      [
        "ca",
        "pital"
      ],
      [
        "a",
        "r"
      ],
      [
        "t",
        "at"
      ],
      [
        "s",
        "p"
      ],
      [
        "i",
        "n"
      ],
      [
        "r",
        "i"
      ],
      [
        "r",
        "a"
      ],
      [
        "s",
        "e"
      ],
      [
        "m",
        "ar"
      ],
      [
        "u",
        "s"
      ],
      [
        "o",
        "r"
      ],
      [
        "e",
        "l"
      ],
      [
        "g",
        "e"
      ],
      [
        "o",
        "c"
      ],
      [
        "h",
        "i"
      ],
      [
        "c",
        "l"
      ],
      [
        "al",
        "e"
      ],
      [
        "c",
        "e"
      ],
      [
        "v",
        "e"
      ],
      [
        "r",
        "el"
      ],
      [
        "ati",
        "ve"
      ],
      [
        "u",
        "p"
      ],
      [
        "n",
        "t"
      ],
      [
        "h",
        "ou"
      ],
      [
        "U",
        "n"
      ],
      [
        "u",
        "m"
      ],
      [
        "e",
        "e"
      ],
      [
        "w",
        "or"
      ],
      [
        "wor",
        "k"
      ],
      [
        "E",
        "C"
      ],
      [
        "E",
        "N"
      ],
      [
        "R",
        "EC"
      ],
      [
        "a",
        "ss"
      ],
      [
        "a",
        "in"
      ],
      [
        "a",
        "ge"
      ],
      [
        "c",
        "ou"
      ],
      [
        "c",
        "up"
      ],
      [
        "f",
        "n"
      ],
      [
        "g",
        "t"
      ],
      [
        "g",
        "ain"
      ],
      [
        "l",
        "o"
      ],
      [
        "l",
        "w"
      ],
      [
        "n",
        "ative"
      ],
      [
        "n",
        "um"
      ],
      [
        "r",
        "y"
      ],
      [
        "r",
        "sp"
      ],
      [
        "s",
        "tat"
      ],
      [
        "s",
        "hi"
      ],
      [
        "w",
        "ee"
      ],
      [
        "ation",
        "shi"
      ],
      [
        "er",
        "wee"
      ],
      [
        "capital",
        "gain"
      ],
      [
        "capital",
        "lo"
      ],
      [
        "ra",
        "ce"
      ],
      [
        "se",
        "x"
      ],
      [
        "mar",
        "ital"
      ],
      [
        "oc",
        "cup"
      ],
      [
        "cl",
        "ass"
      ],
      [
        "rel",
        "ationshi"
      ],
      [
        "nt",
        "ry"
      ],
      [
        "hou",
        "rsp"
      ],
      [
        "work",
        "class"
      ],
      [
        "EN",
        "D"
      ],
      [
        "cou",
        "ntry"
      ],
      [
        "fn",
        "lw"
      ],
      [
        "stat",
        "us"
      ],
      [
        "erwee",
        "k"
      ],
      [
        "capitallo",
        "ss"
      ],
      [
        "occup",
        "ation"
      ],
      [
        "relationshi",
        "p"
      ],
      [
        "hoursp",
        "erweek"
      ],
      [
        "fnlw",
        "gt"
      ],
      [
        "S",
        "tat"
      ],
      [
        "Stat",
        "e"
      ],
      [
        "ri",
        "ed"
      ],
      [
        "it",
        "ed"
      ],
      [
        "Un",
        "ited"
      ],
      [
        "State",
        "s"
      ],
      [
        "W",
        "h"
      ],
      [
        "it",
        "e"
      ],
      [
        "Wh",
        "ite"
      ],
      [
        "at",
        "e"
      ],
      [
        "a",
        "n"
      ],
      [
        "P",
        "ri"
      ],
      [
        "Pri",
        "v"
      ],
      [
        "Priv",
        "ate"
      ],
      [
        "M",
        "ale"
      ],
      [
        "i",
        "v"
      ],
      [
        "an",
        "d"
      ],
      [
        "M",
        "ar"
      ],
      [
        "ou",
        "se"
      ],
      [
        "sp",
        "ouse"
      ],
      [
        "Mar",
        "ried"
      ],
      [
        "c",
        "iv"
      ],
      [
        "e",
        "m"
      ],
      [
        "mar",
        "ried"
      ],
      [
        "H",
        "us"
      ],
      [
        "b",
        "and"
      ],
      [
        "Hus",
        "band"
      ],
      [
        "a",
        "c"
      ],
      [
        "o",
        "t"
      ],
      [
        "1",
        "0"
      ],
      [
        "F",
        "em"
      ],
      [
        "Fem",
        "ale"
      ],
      [
        "N",
        "e"
      ],
      [
        "v",
        "er"
      ],
      [
        "Ne",
        "ver"
      ],
      [
        "H",
        "S"
      ],
      [
        "g",
        "ra"
      ],
      [
        "gra",
        "d"
      ],
      [
        "e",
        "c"
      ],
      [
        "t",
        "h"
      ],
      [
        "a",
        "m"
      ],
      [
        "i",
        "l"
      ],
      [
        "N",
        "ot"
      ],
      [
        "f",
        "am"
      ],
      [
        "il",
        "y"
      ],
      [
        "fam",
        "ily"
      ],
      [
        "i",
        "al"
      ],
      [
        "c",
        "o"
      ],
      [
        "1",
        "3"
      ],
      [
        "ac",
        "h"
      ],
      [
        "o",
        "m"
      ],
      [
        "S",
        "om"
      ],
      [
        "e",
        "ge"
      ],
      [
        "l",
        "l"
      ],
      [
        "co",
        "ll"
      ],
      [
        "Som",
        "e"
      ],
      [
        "coll",
        "ege"
      ],
      [
        "o",
        "v"
      ],
      [
        "P",
        "r"
      ],
      [
        "B",
        "ach"
      ],
      [
        "or",
        "s"
      ],
      [
        "el",
        "ors"
      ],
      [
        "Bach",
        "elors"
      ],
      [
        "hi",
        "l"
      ],
      [
        "e",
        "p"
      ],
      [
        "O",
        "w"
      ],
      [
        "c",
        "hil"
      ],
      [
        "Ow",
        "n"
      ],
      [
        "chil",
        "d"
      ],
      [
        "1",
        "1"
      ],
      [
        "d",
        "m"
      ],
      [
        "o",
        "f"
      ],
      [
        "Pr",
        "of"
      ],
      [
        "er",
        "s"
      ],
      [
        "th",
        "er"
      ],
      [
        "O",
        "ther"
      ],
      [
        "D",
        "iv"
      ],
      [
        "c",
        "ed"
      ],
      [
        "or",
        "ced"
      ],
      [
        "Div",
        "orced"
      ],
      [
        "g",
        "ov"
      ],
      [
        "=",
        "<"
      ],
      [
        "L",
        "L"
      ],
      [
        "N",
        "U"
      ],
      [
        "NU",
        "LL"
      ],
      [
        "a",
        "i"
      ],
      [
        "m",
        "an"
      ],
      [
        "t",
        "y"
      ],
      [
        "sp",
        "ec"
      ],
      [
        "ial",
        "ty"
      ],
      [
        "spec",
        "ialty"
      ],
      [
        "C",
        "ra"
      ],
      [
        "f",
        "t"
      ],
      [
        "r",
        "ep"
      ],
      [
        "ai",
        "r"
      ],
      [
        "Cra",
        "ft"
      ],
      [
        "rep",
        "air"
      ],
      [
        "s",
        "er"
      ],
      [
        "ser",
        "v"
      ],
      [
        "a",
        "g"
      ],
      [
        "1",
        "4"
      ],
      [
        "E",
        "x"
      ],
      [
        "er",
        "ial"
      ],
      [
        "man",
        "ag"
      ],
      [
        "Ex",
        "ec"
      ],
      [
        "manag",
        "erial"
      ],
      [
        "i",
        "c"
      ],
      [
        "1",
        "2"
      ],
      [
        "A",
        "dm"
      ],
      [
        "er",
        "ic"
      ],
      [
        "cl",
        "eric"
      ],
      [
        "cleric",
        "al"
      ],
      [
        "S",
        "el"
      ],
      [
        "in",
        "c"
      ],
      [
        "em",
        "p"
      ],
      [
        "Sel",
        "f"
      ],
      [
        "in",
        "g"
      ],
      [
        "S",
        "ale"
      ],
      [
        "Sale",
        "s"
      ],
      [
        "Un",
        "married"
      ],
      [
        "i",
        "ce"
      ],
      [
        "serv",
        "ice"
      ],
      [
        "B",
        "l"
      ],
      [
        "ac",
        "k"
      ],
      [
        "Bl",
        "ack"
      ],
      [
        "1",
        "6"
      ],
      [
        "1",
        "5"
      ],
      [
        "1",
        "8"
      ],
      [
        "1",
        "9"
      ],
      [
        "1",
        "7"
      ],
      [
        "or",
        "t"
      ],
      [
        "n",
        "ot"
      ],
      [
        "W",
        "i"
      ],
      [
        "2",
        "0"
      ],
      [
        "A",
        "ss"
      ],
      [
        "Ass",
        "oc"
      ],
      [
        "in",
        "e"
      ],
      [
        "L",
        "oc"
      ],
      [
        "Loc",
        "al"
      ],
      [
        "M",
        "ach"
      ],
      [
        "c",
        "t"
      ],
      [
        "o",
        "p"
      ],
      [
        "sp",
        "ct"
      ],
      [
        "in",
        "spct"
      ],
      [
        "Mach",
        "ine"
      ],
      [
        "s",
        "t"
      ],
      [
        "2",
        "4"
      ],
      [
        "2",
        "3"
      ],
      [
        "M",
        "a"
      ],
      [
        "st",
        "ers"
      ],
      [
        "Ma",
        "sters"
      ],
      [
        "2",
        "6"
      ],
      [
        "2",
        "5"
      ],
      [
        "2",
        "7"
      ],
      [
        "ra",
        "n"
      ],
      [
        "2",
        "8"
      ],
      [
        "T",
        "ran"
      ],
      [
        "m",
        "ov"
      ],
      [
        "sp",
        "ort"
      ],
      [
        "Tran",
        "sport"
      ],
      [
        "mov",
        "ing"
      ],
      [
        "2",
        "9"
      ],
      [
        "f",
        "e"
      ],
      [
        "Wi",
        "fe"
      ],
      [
        "3",
        "0"
      ],
      [
        "3",
        "4"
      ],
      [
        "H",
        "and"
      ],
      [
        "e",
        "an"
      ],
      [
        "l",
        "ers"
      ],
      [
        "cl",
        "ean"
      ],
      [
        "Hand",
        "lers"
      ],
      [
        "clean",
        "ers"
      ],
      [
        "v",
        "oc"
      ],
      [
        "i",
        "an"
      ],
      [
        "3",
        "5"
      ],
      [
        "3",
        "7"
      ],
      [
        "11",
        "th"
      ],
      [
        "3",
        "6"
      ],
      [
        "l",
        "and"
      ],
      [
        "3",
        "8"
      ],
      [
        "3",
        "9"
      ],
      [
        "ac",
        "dm"
      ],
      [
        "S",
        "ep"
      ],
      [
        "at",
        "ed"
      ],
      [
        "ar",
        "ated"
      ],
      [
        "Sep",
        "arated"
      ],
      [
        "F",
        "ar"
      ],
      [
        "f",
        "i"
      ],
      [
        "h",
        "ing"
      ],
      [
        "m",
        "ing"
      ],
      [
        "s",
        "hing"
      ],
      [
        "Far",
        "ming"
      ],
      [
        "fi",
        "shing"
      ],
      [
        "A",
        "s"
      ],
      [
        "I",
        "s"
      ],
      [
        "P",
        "ac"
      ],
      [
        "land",
        "er"
      ],
      [
        "As",
        "ian"
      ],
      [
        "Is",
        "lander"
      ],
      [
        "d",
        "o"
      ],
      [
        "w",
        "ed"
      ],
      [
        "Wi",
        "do"
      ],
      [
        "Wido",
        "wed"
      ],
      [
        "rel",
        "ative"
      ],
      [
        "5",
        "4"
      ],
      [
        "8",
        "9"
      ],
      [
        "T",
        "ec"
      ],
      [
        "p",
        "ort"
      ],
      [
        "s",
        "up"
      ],
      [
        "Tec",
        "h"
      ],
      [
        "sup",
        "port"
      ],
      [
        "F",
        "ed"
      ],
      [
        "er",
        "al"
      ],
      [
        "Fed",
        "eral"
      ],
      [
        "10",
        "th"
      ],
      [
        "6",
        "6"
      ],
      [
        "4",
        "0"
      ],
      [
        "4",
        "9"
      ],
      [
        "7",
        "7"
      ],
      [
        "5",
        "0"
      ],
      [
        "5",
        "9"
      ],
      [
        "8",
        "6"
      ],
      [
        "8",
        "0"
      ],
      [
        "4",
        "6"
      ],
      [
        "4",
        "7"
      ],
      [
        "5",
        "6"
      ],
      [
        "i",
        "co"
      ],
      [
        "5",
        "7"
      ],
      [
        "8",
        "7"
      ],
      [
        "9",
        "9"
      ],
      [
        "o",
        "l"
      ],
      [
        "2",
        "2"
      ],
      [
        "i",
        "ve"
      ],
      [
        "t",
        "ive"
      ],
      [
        "ot",
        "ec"
      ],
      [
        "Pr",
        "otec"
      ],
      [
        "Protec",
        "tive"
      ],
      [
        "7",
        "th"
      ],
      [
        "8",
        "th"
      ],
      [
        "c",
        "h"
      ],
      [
        "o",
        "ol"
      ],
      [
        "s",
        "ch"
      ],
      [
        "sch",
        "ool"
      ],
      [
        "M",
        "e"
      ],
      [
        "x",
        "ico"
      ],
      [
        "Me",
        "xico"
      ],
      [
        "9",
        "6"
      ],
      [
        "8",
        "8"
      ],
      [
        "3",
        "3"
      ],
      [
        "9",
        "0"
      ],
      [
        "7",
        "6"
      ],
      [
        "4",
        "4"
      ],
      [
        "5",
        "8"
      ],
      [
        "7",
        "0"
      ],
      [
        "9",
        "th"
      ],
      [
        "5",
        "5"
      ],
      [
        "6",
        "0"
      ],
      [
        "4",
        "8"
      ],
      [
        "9",
        "7"
      ],
      [
        "0",
        "0"
      ],
      [
        "4",
        "5"
      ],
      [
        "12",
        "th"
      ],
      [
        "3",
        "2"
      ],
      [
        "a",
        "b"
      ],
      [
        "se",
        "nt"
      ],
      [
        "ab",
        "sent"
      ],
      [
        "I",
        "n"
      ],
      [
        "In",
        "d"
      ],
      [
        "9",
        "8"
      ],
      [
        "7",
        "8"
      ],
      [
        "D",
        "oc"
      ],
      [
        "t",
        "or"
      ],
      [
        "Doc",
        "tor"
      ],
      [
        "Doctor",
        "ate"
      ],
      [
        "6",
        "8"
      ],
      [
        "6",
        "7"
      ],
      [
        "9",
        "5"
      ],
      [
        "9",
        "4"
      ],
      [
        "5",
        "3"
      ],
      [
        "5",
        "th"
      ],
      [
        "6",
        "th"
      ],
      [
        "0",
        "6"
      ],
      [
        "A",
        "m"
      ],
      [
        "E",
        "s"
      ],
      [
        "i",
        "m"
      ],
      [
        "k",
        "im"
      ],
      [
        "Ind",
        "ian"
      ],
      [
        "Am",
        "er"
      ],
      [
        "Es",
        "kim"
      ],
      [
        "Eskim",
        "o"
      ],
      [
        "a",
        "d"
      ],
      [
        "2",
        "1"
      ],
      [
        "8",
        "4"
      ],
      [
        "7",
        "4"
      ],
      [
        "8",
        "5"
      ],
      [
        "7",
        "9"
      ],
      [
        "6",
        "9"
      ],
      [
        "6",
        "4"
      ],
      [
        "0",
        "9"
      ],
      [
        "7",
        "5"
      ],
      [
        "6",
        "5"
      ],
      [
        "0",
        "8"
      ],
      [
        "0",
        "7"
      ],
      [
        "9",
        "3"
      ],
      [
        "4",
        "3"
      ],
      [
        "8",
        "3"
      ],
      [
        "4",
        "2"
      ],
      [
        "2",
        "16"
      ],
      [
        "0",
        "4"
      ],
      [
        "0",
        "5"
      ],
      [
        "5",
        "1"
      ],
      [
        "1",
        "13"
      ],
      [
        "5",
        "2"
      ],
      [
        "6",
        "3"
      ],
      [
        "P",
        "hil"
      ],
      [
        "i",
        "p"
      ],
      [
        "p",
        "ine"
      ],
      [
        "Phil",
        "ip"
      ],
      [
        "pine",
        "s"
      ],
      [
        "Philip",
        "pines"
      ],
      [
        "1",
        "10"
      ],
      [
        "i",
        "a"
      ],
      [
        "7",
        "2"
      ],
      [
        "7",
        "3"
      ],
      [
        "8",
        "2"
      ],
      [
        "0",
        "3"
      ],
      [
        "2",
        "14"
      ],
      [
        "2",
        "10"
      ],
      [
        "3",
        "1"
      ],
      [
        "2",
        "13"
      ],
      [
        "2",
        "24"
      ],
      [
        "19",
        "0"
      ],
      [
        "1",
        "st"
      ],
      [
        "4",
        "th"
      ],
      [
        "u",
        "b"
      ],
      [
        "hou",
        "se"
      ],
      [
        "20",
        "0"
      ],
      [
        "4",
        "1"
      ],
      [
        "2",
        "18"
      ],
      [
        "9",
        "1"
      ],
      [
        "2",
        "15"
      ],
      [
        "2",
        "27"
      ],
      [
        "2",
        "11"
      ],
      [
        "2",
        "26"
      ],
      [
        "8",
        "1"
      ],
      [
        "2",
        "12"
      ],
      [
        "17",
        "6"
      ],
      [
        "18",
        "7"
      ],
      [
        "19",
        "6"
      ],
      [
        "2",
        "20"
      ],
      [
        "2",
        "25"
      ],
      [
        "ad",
        "or"
      ],
      [
        "19",
        "7"
      ],
      [
        "12",
        "0"
      ]
    ]
  }
}