{
  "version": "1.0",
  "truncation": null,
  "padding": null,
  "added_tokens": [
    {
      "id": 0,
      "content": "[PAD]",
      "single_word": false,
      "lstrip": false,
      "rstrip": false,
      "normalized": false,
      "special": true
    },
    {
      "id": 1,
      "content": "[UNK]",
      "single_word": false,
      "lstrip": false,
      "rstrip": false,
      "normalized": false,
      "special": true
    },
    {
      "id": 2,
      "content": "[CLS]",
      "single_word": false,
      "lstrip": false,
      "rstrip": false,
      "normalized": false,
      "special": true
    },
    {
      "id": 3,
      "content": "[SEP]",
      "single_word": false,
      "lstrip": false,
      "rstrip": false,
      "normalized": false,
      "special": true
    },
    {
      "id": 4,
      "content": "[MASK]",
      "single_word": false,
      "lstrip": false,
      "rstrip": false,
      "normalized": false,
      "special": true
    }
  ],
  "normalizer": {
    "type": "NFKC"
  },
  "pre_tokenizer": {
    "type": "Whitespace"
  },
  "post_processor": null,
  "decoder": null,
  "model": {
    "type": "WordPiece",
    "unk_token": "[UNK]",
    "continuing_subword_prefix": "##",
    "max_input_chars_per_word": 100,
    "vocab": {
      "[PAD]": 0,
      "[UNK]": 1,
      "[CLS]": 2,
      "[SEP]": 3,
      "[MASK]": 4,
      "!": 5,
      "#": 6,
      "$": 7,
      "%": 8,
      "&": 9,
      "'": 10,
      "(": 11,
      ")": 12,
      "*": 13,
      "+": 14,
      ",": 15,
      "-": 16,
      ".": 17,
      "/": 18,
      "0": 19,
      "1": 20,
      "2": 21,
      "3": 22,
      "4": 23,
      "5": 24,
      "6": 25,
      "7": 26,
      "8": 27,
      "9": 28,
      ":": 29,
      ";": 30,
      "<": 31,
      "=": 32,
      ">": 33,
      "?": 34,
      "@": 35,
      "A": 36,
      "B": 37,
      "C": 38,
      "D": 39,
      "E": 40,
      "F": 41,
      "G": 42,
      "H": 43,
      "I": 44,
      "J": 45,
      "K": 46,
      "L": 47,
      "M": 48,
      "N": 49,
      "O": 50,
      "P": 51,
      "Q": 52,
      "R": 53,
      "S": 54,
      "T": 55,
      "U": 56,
      "V": 57,
      "W": 58,
      "X": 59,
      "Y": 60,
      "Z": 61,
      "[": 62,
      "\\": 63,
      "]": 64,
      "_": 65,
      "`": 66,
      "a": 67,
      "b": 68,
      "c": 69,
      "d": 70,
      "e": 71,
      "f": 72,
      "g": 73,
      "h": 74,
      "i": 75,
      "j": 76,
      "k": 77,
      "l": 78,
      "m": 79,
      "n": 80,
      "o": 81,
      "p": 82,
      "q": 83,
      "r": 84,
      "s": 85,
      "t": 86,
      "u": 87,
      "v": 88,
      "w": 89,
      "x": 90,
      "y": 91,
      "z": 92,
      "{": 93,
      "|": 94,
      "}": 95,
      "~": 96,
      "##F": 97,
      "##5": 98,
      "##2": 99,
      "##B": 100,
      "##8": 101,
      "##7": 102,
      "##0": 103,
      "##3": 104,
      "##6": 105,
      "##A": 106,
      "##1": 107,
      "##9": 108,
      "##D": 109,
      "##4": 110,
      "##w": 111,
      "##h": 112,
      "##T": 113,
      "##K": 114,
      "##C": 115,
      "##H": 116,
      "##G": 117,
      "##S": 118,
      "##j": 119,
      "##a": 120,
      "##o": 121,
      "##p": 122,
      "##e": 123,
      "##n": 124,
      "##t": 125,
      "##d": 126,
      "##O": 127,
      "##s": 128,
      "##b": 129,
      "##c": 130,
      "##m": 131,
      "##f": 132,
      "##r": 133,
      "##y": 134,
      "##i": 135,
      "##k": 136,
      "##U": 137,
      "##I": 138,
      "##W": 139,
      "##g": 140,
      "##u": 141,
      "##z": 142,
      "##v": 143,
      "##Z": 144,
      "##X": 145,
      "##L": 146,
      "##l": 147,
      "##x": 148,
      "##M": 149,
      "##P": 150,
      "##R": 151,
      "##Y": 152,
      "##J": 153,
      "##_": 154,
      "##E": 155,
      "##N": 156,
      "##Q": 157,
      "##V": 158,
      "##q": 159,
      "##.": 160,
      "##-": 161,
      "##/": 162,
      "##;": 163,
      "##,": 164,
      "##+": 165,
      "##%": 166,
      "##(": 167,
      "##)": 168,
      "##[": 169,
      "##\\": 170,
      "##>": 171,
      "##&": 172,
      "##?": 173,
      "##~": 174,
      "##@": 175,
      "##<": 176,
      "##'": 177,
      "##:": 178,
      "##]": 179,
      "##|": 180,
      "##*": 181,
      "##$": 182,
      "##!": 183,
      "##}": 184,
      "###": 185,
      "##{": 186,
      "##`": 187,
      "SE": 188,
      "SEP": 189,
      "##SC": 190,
      "##_E": 191,
      "##_EQ": 192,
      "ESC": 193,
      "ESC_EQ": 194,
      "##on": 195,
      "##en": 196,
      "##er": 197,
      "##os": 198,
      "##ti": 199,
      "##ml": 200,
      "##ep": 201,
      "##cc": 202,
      "##ent": 203,
      "##ac": 204,
      "Con": 205,
      "##ept": 206,
      "##ag": 207,
      "##ccept": 208,
      "Accept": 209,
      "##LL": 210,
      "=<": 211,
      "NU": 212,
      "NULL": 213,
      "##tion": 214,
      "##he": 215,
      "##ost": 216,
      "##ca": 217,
      "##ache": 218,
      "##li": 219,
      "##et": 220,
      "##in": 221,
      "##ex": 222,
      "##ext": 223,
      "text": 224,
      "##ec": 225,
      "xml": 226,
      "##ar": 227,
      "##tent": 228,
      "Host": 229,
      "Content": 230,
      "no": 231,
      "ap": 232,
      "##la": 233,
      "##age": 234,
      "##ng": 235,
      "##cation": 236,
      "##ET": 237,
      "##pli": 238,
      "##plication": 239,
      "application": 240,
      "GET": 241,
      "##uer": 242,
      "cache": 243,
      "##tr": 244,
      "##od": 245,
      "##or": 246,
      "##tf": 247,
      "##tml": 248,
      "##ad": 249,
      "utf": 250,
      "##ie": 251,
      "##ta": 252,
      "##OS": 253,
      "##OST": 254,
      "POST": 255,
      "##ma": 256,
      "##tro": 257,
      "##il": 258,
      "##oo": 259,
      "##th": 260,
      "##EC": 261,
      "##ser": 262,
      "##pe": 263,
      "##ook": 264,
      "##ookie": 265,
      "##nec": 266,
      "La": 267,
      "##set": 268,
      "##ata": 269,
      "##le": 270,
      "##ND": 271,
      "##RI": 272,
      "##eth": 273,
      "##har": 274,
      "con": 275,
      "##eng": 276,
      "##rag": 277,
      "##ead": 278,
      "##TT": 279,
      "Ag": 280,
      "##ype": 281,
      "##*;": 282,
      "=/": 283,
      "##ngu": 284,
      "##uery": 285,
      "Type": 286,
      "##trol": 287,
      "Char": 288,
      "Connec": 289,
      "##eader": 290,
      "Data": 291,
      "REC": 292,
      "##ethod": 293,
      "##TTP": 294,
      "Cache": 295,
      "Cookie": 296,
      "END": 297,
      "Header": 298,
      "HTTP": 299,
      "Leng": 300,
      "Method": 301,
      "Prag": 302,
      "Query": 303,
      "User": 304,
      "URI": 305,
      "Langu": 306,
      "control": 307,
      "Agent": 308,
      "Charset": 309,
      "Connection": 310,
      "Length": 311,
      "Pragma": 312,
      "Language": 313,
      "lo": 314,
      "im": 315,
      "##om": 316,
      "##oz": 317,
      "##illa": 318,
      "##80": 319,
      "##*/": 320,
      "en": 321,
      "Moz": 322,
      "Mozilla": 323,
      "##pa": 324,
      "##ko": 325,
      "##los": 326,
      "Gec": 327,
      "Gecko": 328,
      "##lose": 329,
      "close": 330,
      "##da": 331,
      "com": 332,
      "##*/*;": 333,
      "80": 334,
      "image": 335,
      "##lh": 336,
      "##ke": 337,
      "##ble": 338,
      "compa": 339,
      "##tible": 340,
      "compatible": 341,
      "ti": 342,
      "html": 343,
      "##ux": 344,
      "png": 345,
      "li": 346,
      "##SI": 347,
      "Lin": 348,
      "Linux": 349,
      "##html": 350,
      "##quer": 351,
      "Kon": 352,
      "##queror": 353,
      "Konqueror": 354,
      "##NI": 355,
      "pla": 356,
      "plain": 357,
      "##SE": 358,
      "##TM": 359,
      "like": 360,
      "##lhost": 361,
      "KH": 362,
      "loca": 363,
      "localhost": 364,
      "##ONI": 365,
      "##SES": 366,
      "##TML": 367,
      "*;": 368,
      ",*/*;": 369,
      "JSES": 370,
      "xhtml": 371,
      "##SIONI": 372,
      "KHTML": 373,
      "JSESSIONI": 374,
      "JSESSIONID": 375,
      "8080": 376,
      "##enda": 377,
      "tienda": 378,
      "tienda1": 379,
      "##sp": 380,
      "jsp": 381,
      "##++": 382,
      "##re": 383,
      "##is": 384,
      "##co": 385,
      "##ww": 386,
      "##es": 387,
      "www": 388,
      "25": 389,
      "##ub": 390,
      "##ubli": 391,
      "publi": 392,
      "publico": 393,
      "##mb": 394,
      "##ed": 395,
      "##as": 396,
      "##an": 397,
      "##eg": 398,
      "2F": 399,
      "27": 400,
      "##el": 401,
      "##enc": 402,
      "##ri": 403,
      "##orm": 404,
      "##rl": 405,
      "##ia": 406,
      "##io": 407,
      "B1": 408,
      "##egis": 409,
      "+++": 410,
      "##trar": 411,
      "form": 412,
      "url": 413,
      "##oded": 414,
      "##encoded": 415,
      "urlencoded": 416,
      "##ir": 417,
      "##to": 418,
      "pr": 419,
      "##al": 420,
      "##te": 421,
      "##85": 422,
      "##do": 423,
      "##25": 424,
      "##odo": 425,
      "##ud": 426,
      "modo": 427,
      "##ni": 428,
      "##ee": 429,
      "29": 430,
      "##so": 431,
      "##tt": 432,
      "log": 433,
      "28": 434,
      "##11": 435,
      "##74": 436,
      "##63": 437,
      "40": 438,
      "##22": 439,
      "##64": 440,
      "##65": 441,
      "##90": 442,
      "##eo": 443,
      "in": 444,
      "##mbre": 445,
      "nombre": 446,
      "regis": 447,
      "registro": 448,
      "##23": 449,
      "3D": 450,
      "login": 451,
      "2C": 452,
      "##tc": 453,
      "##am": 454,
      "##sw": 455,
      "##73": 456,
      "##61": 457,
      "##60": 458,
      "car": 459,
      "##20": 460,
      "##lo": 461,
      "##83": 462,
      "##75": 463,
      "##it": 464,
      "##70": 465,
      ">%": 466,
      "##29": 467,
      "##84": 468,
      "##id": 469,
      "##ov": 470,
      "##ros": 471,
      "##15": 472,
      "##69": 473,
      "##ws": 474,
      "##if": 475,
      "##24": 476,
      "mie": 477,
      "##mbros": 478,
      "##89": 479,
      "miembros": 480,
      "##13": 481,
      "=*;": 482,
      "##79": 483,
      "##ss": 484,
      "##10": 485,
      "cp": 486,
      "##14": 487,
      "=*": 488,
      "3A": 489,
      "##ea": 490,
      "##inc": 491,
      "##indo": 492,
      "##ion": 493,
      "##19": 494,
      "##mail": 495,
      "##em": 496,
      "##ra": 497,
      "di": 498,
      "##ut": 499,
      "##86": 500,
      "##ro": 501,
      "5C": 502,
      "id": 503,
      "##27": 504,
      "##00": 505,
      "pas": 506,
      "##87": 507,
      "ci": 508,
      "##ord": 509,
      "##enes": 510,
      "passw": 511,
      "##lid": 512,
      "##ve": 513,
      "##indows": 514,
      "##+%": 515,
      "##34": 516,
      "##agenes": 517,
      "imagenes": 518,
      "##adir": 519,
      "##udad": 520,
      "##ic": 521,
      "22": 522,
      "##nt": 523,
      "##ccion": 524,
      "dni": 525,
      "##67": 526,
      "password": 527,
      "##ecio": 528,
      "ntc": 529,
      "email": 530,
      "prov": 531,
      "dire": 532,
      "apel": 533,
      "##incia": 534,
      "ciudad": 535,
      "##lidos": 536,
      "provincia": 537,
      "direccion": 538,
      "apellidos": 539,
      "precio": 540,
      "##pt": 541,
      "mac": 542,
      "Regis": 543,
      "Registrar": 544,
      "iso": 545,
      "##35": 546,
      "##30": 547,
      "rv": 548,
      "##12": 549,
      "##st": 550,
      "carri": 551,
      "carrito": 552,
      "##tica": 553,
      "##at": 554,
      "##sh": 555,
      "##sc": 556,
      "##45": 557,
      "##95": 558,
      "+%": 559,
      "##eh": 560,
      "##6F": 561,
      "##40": 562,
      "an": 563,
      "entrar": 564,
      "gif": 565,
      "ke": 566,
      ">'": 567,
      "##17": 568,
      "##sf": 569,
      "##ch": 570,
      "ali": 571,
      "##2F": 572,
      "keep": 573,
      "alive": 574,
      "##D5": 575,
      "##99": 576,
      "3C": 577,
      "##rr": 578,
      "##68": 579,
      "##859": 580,
      "##EB": 581,
      "##ei": 582,
      "##un": 583,
      "##E5": 584,
      "3B": 585,
      "##tn": 586,
      "##DB": 587,
      "##AC": 588,
      "##EF": 589,
      "##33": 590,
      "##iar": 591,
      "##6C": 592,
      "##DF": 593,
      "ma": 594,
      "##AB": 595,
      "##DC": 596,
      "##44": 597,
      "##AF": 598,
      "on": 599,
      "##A5": 600,
      "or": 601,
      "##18": 602,
      "##6B": 603,
      "8859": 604,
      "3E": 605,
      "##28": 606,
      "##D0": 607,
      "##E0": 608,
      "##ae": 609,
      "##39": 610,
      "##A0": 611,
      "##aciar": 612,
      "##uc": 613,
      "253": 614,
      "##2B": 615,
      "##ts": 616,
      "##77": 617,
      "jp": 618,
      "##ter": 619,
      "##49": 620,
      "##1B": 621,
      "F1": 622,
      "ed": 623,
      "##2C": 624,
      "##ne": 625,
      "##tos": 626,
      "##1C": 627,
      "##ttp": 628,
      "##wd": 629,
      "al": 630,
      "##8F": 631,
      "2B": 632,
      "##D9": 633,
      "##se": 634,
      "/*;": 635,
      "##E9": 636,
      "##ja": 637,
      "##50": 638,
      "##1F": 639,
      "/*": 640,
      "##A9": 641,
      "##8B": 642,
      "##tm": 643,
      "##43": 644,
      "##sa": 645,
      "##na": 646,
      "=*/*;": 647,
      "##sg": 648,
      "+&": 649,
      "##um": 650,
      "##ur": 651,
      "st": 652,
      "##8C": 653,
      "##..": 654,
      "max": 655,
      "de": 656,
      "=*/": 657,
      "=*/*": 658,
      "##//": 659,
      "##sn": 660,
      "##ript": 661,
      "##E4": 662,
      "windows": 663,
      "##oe": 664,
      "##55": 665,
      "##ge": 666,
      "##A3": 667,
      "##ai": 668,
      "##sr": 669,
      "3F": 670,
      "##7C": 671,
      "##D4": 672,
      "##si": 673,
      "+++++": 674,
      "##A4": 675,
      "##ue": 676,
      "125": 677,
      "##ul": 678,
      "##7B": 679,
      "##aa": 680,
      "##66": 681,
      "##sert": 682,
      "##E3": 683,
      "jpg": 684,
      "..": 685,
      "##ho": 686,
      "##nn": 687,
      "Mac": 688,
      "##88": 689,
      "##de": 690,
      "20": 691,
      "##av": 692,
      "##tid": 693,
      "##7F": 694,
      "##les": 695,
      "##oi": 696,
      "##D3": 697,
      "En": 698,
      "23": 699,
      "##62": 700,
      "##eme": 701,
      "can": 702,
      "10": 703,
      "anadir": 704,
      "7C": 705,
      "##ol": 706,
      "##ideo": 707,
      "++": 708,
      "##ht": 709,
      "##tidad": 710,
      "cantidad": 711,
      "video": 712,
      "5D": 713,
      "##uten": 714,
      "##red": 715,
      "##mber": 716,
      "aud": 717,
      "##me": 718,
      "##agar": 719,
      "F1adir": 720,
      "auten": 721,
      "##ticar": 722,
      "autenticar": 723,
      "insert": 724,
      "##itar": 725,
      "##16": 726,
      "##hin": 727,
      "##ff": 728,
      "pwd": 729,
      "pagar": 730,
      "audio": 731,
      "##ao": 732,
      "##hn": 733,
      "24": 734,
      "reme": 735,
      "##bal": 736,
      "editar": 737,
      "remember": 738,
      "##au": 739,
      "tr": 740,
      "##md": 741,
      "##59": 742,
      "Entrar": 743,
      "##DE": 744,
      "##ly": 745,
      "##82": 746,
      "##no": 747,
      "##im": 748,
      "##72": 749,
      "insertar": 750,
      "##tu": 751,
      "##BB": 752,
      "##ild": 753,
      "##32": 754,
      "##ii": 755,
      "##AA": 756,
      "glo": 757,
      "##6E": 758,
      "--": 759,
      "++++%": 760,
      "global": 761,
      "++%": 762,
      "##eb": 763,
      "++++": 764,
      "##td": 765,
      "19": 766,
      "##FF": 767,
      "##78": 768,
      "##CC": 769,
      "5B": 770,
      "##ticas": 771,
      "carac": 772,
      "##54": 773,
      "##isticas": 774,
      "##teristicas": 775,
      "caracteristicas": 776,
      "##rn": 777,
      "+++%": 778,
      "##ah": 779,
      "##encia": 780,
      "..%": 781,
      "##ore": 782,
      "##ob": 783,
      "##EE": 784,
      "##hp": 785,
      "##6D": 786,
      "##3n": 787,
      "##ys": 788,
      "##go": 789,
      "if": 790,
      "inc": 791,
      "##orr": 792,
      "Windows": 793,
      "err": 794,
      "##FB": 795,
      "##pen": 796,
      "##gi": 797,
      "##C0": 798,
      "##AD": 799,
      "##AE": 800,
      "##nd": 801,
      "##orM": 802,
      "##script": 803,
      "15": 804,
      "##tas": 805,
      "errorM": 806,
      "errorMsg": 807,
      "##2E": 808,
      "B2": 809,
      "vaciar": 810,
      "##81": 811,
      "##oc": 812,
      "##rt": 813,
      "##tosh": 814,
      "##ha": 815,
      "##ot": 816,
      "##sd": 817,
      "##93": 818,
      "##CB": 819,
      "##exec": 820,
      "##ou": 821,
      "##oa": 822,
      "##36": 823,
      "##DD": 824,
      "##ess": 825,
      "##F0": 826,
      "##ih": 827,
      "26": 828,
      "http": 829,
      "##up": 830,
      "##1E": 831,
      "##8E": 832,
      "ex": 833,
      "##94": 834,
      "##orrec": 835,
      "##ce": 836,
      "Cred": 837,
      "##ns": 838,
      "##enciales": 839,
      "incorrec": 840,
      "Credenciales": 841,
      "##ues": 842,
      "##ll": 843,
      "##we": 844,
      "##ig": 845,
      "incorrectas": 846,
      "##76": 847,
      "##1D": 848,
      "##hr": 849,
      "##FC": 850,
      "##B0": 851,
      "##53": 852,
      "Vaciar": 853,
      "##di": 854,
      "sta": 855,
      "##nr": 856,
      "##peg": 857,
      "age": 858,
      "##71": 859,
      "##sm": 860,
      "://": 861,
      "##2D": 862,
      "##tp": 863,
      "##ing": 864,
      "##26": 865,
      "ch": 866,
      "##8D": 867,
      "##7E": 868,
      "##F9": 869,
      "##oh": 870,
      "##21": 871,
      "##us": 872,
      "cached": 873,
      "only": 874,
      "min": 875,
      "##osi": 876,
      "##ect": 877,
      "270": 878,
      "##nc": 879,
      "##child": 880,
      "##resh": 881,
      "E9": 882,
      "39": 883,
      "Win": 884,
      "##sform": 885,
      "tran": 886,
      "##F4": 887,
      "fresh": 888,
      "Machin": 889,
      "Machintosh": 890,
      "/*,": 891,
      "transform": 892,
      "##ls": 893,
      "##hs": 894,
      "##BC": 895,
      "store": 896,
      "##7A": 897,
      "21": 898,
      "X11": 899,
      "##B5": 900,
      "ca": 901,
      "es": 902,
      "##98": 903,
      "##mar": 904,
      "##osition": 905,
      "##F5": 906,
      "##rc": 907,
      "##1A": 908,
      "##eu": 909,
      "stale": 910,
      "##tl": 911,
      "##nh": 912,
      "##ab": 913,
      "F3n": 914,
      "##rs": 915,
      "sh": 916,
      "##C4": 917,
      "85": 918,
      "##7D": 919,
      "##ef": 920,
      "##F3": 921,
      "##8A": 922,
      "##iz": 923,
      "##ument": 924,
      "##ru": 925,
      "##tem": 926,
      "##C5": 927,
      "euc": 928,
      "##C9": 929,
      "##str": 930,
      "##ld": 931,
      "##ph": 932,
      "##rm": 933,
      "##ey": 934,
      "##UT": 935,
      "##wn": 936,
      "##6A": 937,
      "Pas": 938,
      "##wh": 939,
      "##ED": 940,
      "##B4": 941,
      "##B3": 942,
      "##\\\\": 943,
      "14": 944,
      "##04": 945,
      "##C3": 946,
      "##B9": 947,
      "##2A": 948,
      "##ame": 949,
      "##http": 950,
      "##ip": 951,
      "##alle": 952,
      "##mo": 953,
      "##rh": 954,
      "##rd": 955,
      "ee": 956,
      "##03": 957,
      "13": 958,
      "##ba": 959,
      "##05": 960,
      ".%": 961,
      "logo": 962,
      "##ua": 963,
      "##ln": 964,
      "##ino": 965,
      "250": 966,
      "##09": 967,
      "##lt": 968,
      "##net": 969,
      "##ev": 970,
      "##fir": 971,
      "fr": 972,
      "sa": 973,
      "##ert": 974,
      "PUT": 975,
      "##ui": 976,
      "2Fchild": 977,
      "Confir": 978,
      "##amp": 979,
      "Confirmar": 980,
      "##fr": 981,
      "por": 982,
      "##PC": 983,
      "##hi": 984,
      "##ay": 985,
      "Calle": 986,
      "##ty": 987,
      "##tb": 988,
      "##CF": 989,
      "##DA": 990,
      "caja": 991,
      "Pasar": 992,
      "off": 993,
      "##cs": 994,
      "##dex": 995,
      "OS": 996,
      "##doc": 997,
      "it": 998,
      "##EA": 999,
      "##anc": 1000,
      "33": 1001,
      "##ds": 1002,
      "##ew": 1003,
      "##ystem": 1004,
      "css": 1005,
      "index": 1006,
      "##BF": 1007,
      "##log": 1008,
      "##yr": 1009,
      "##ps": 1010,
      "##hh": 1011,
      "17": 1012,
      "##document": 1013,
      "100": 1014,
      "##mn": 1015,
      "et": 1016,
      "##ek": 1017,
      "cookie": 1018,
      "##position": 1019,
      "##dn": 1020,
      "--%": 1021,
      "*%": 1022,
      "##ib": 1023,
      "##cn": 1024,
      "##CA": 1025,
      "##ye": 1026,
      "##dt": 1027,
      "##NT": 1028,
      "PPC": 1029,
      "jpeg": 1030,
      "ED": 1031,
      "##uo": 1032,
      "##db": 1033,
      "7E": 1034,
      "##uh": 1035,
      "##mt": 1036,
      "ea": 1037,
      "2574": 1038,
      "##etc": 1039,
      "Rio": 1040,
      "De": 1041,
      "##aros": 1042,
      "##ap": 1043,
      "##cript": 1044,
      "##man": 1045,
      "##yn": 1046,
      "##48": 1047,
      "##58": 1048,
      "##og": 1049,
      "##fe": 1050,
      "##FE": 1051,
      "##ya": 1052,
      "org": 1053,
      "##sl": 1054,
      "##su": 1055,
      "##FD": 1056,
      "##va": 1057,
      "##be": 1058,
      "##pass": 1059,
      "php": 1060,
      "##CD": 1061,
      "##lac": 1062,
      "##37": 1063,
      "##hd": 1064,
      "##BE": 1065,
      "##ide": 1066,
      "Rioja": 1067,
      ">+": 1068,
      "ro": 1069,
      "##fo": 1070,
      "##yo": 1071,
      "##pas": 1072,
      "##38": 1073,
      "Al": 1074,
      "er": 1075,
      "##mp": 1076,
      "##A7": 1077,
      "exe": 1078,
      "##CE": 1079,
      "34": 1080,
      "eo": 1081,
      "##tg": 1082,
      "##lr": 1083,
      "cmd": 1084,
      "2563": 1085,
      "##fm": 1086,
      "##ez": 1087,
      "##lud": 1088,
      "##RO": 1089,
      "##oot": 1090,
      "##dr": 1091,
      "##dm": 1092,
      "##eta": 1093,
      "##dh": 1094,
      "90": 1095,
      "Vino": 1096,
      "##wg": 1097,
      "##ci": 1098,
      "##ode": 1099,
      "##BA": 1100,
      "2e": 1101,
      "##BD": 1102,
      "##47": 1103,
      "##wa": 1104,
      "##pro": 1105,
      "##py": 1106,
      "##FA": 1107,
      "##ug": 1108,
      "##anche": 1109,
      "253A": 1110,
      "i5": 1111,
      "ini": 1112,
      "##42": 1113,
      "##innt": 1114,
      "##57": 1115,
      "##lay": 1116,
      "San": 1117,
      "og": 1118,
      "be": 1119,
      "##92": 1120,
      "##tw": 1121,
      "te": 1122,
      "##ms": 1123,
      "##za": 1124,
      "##passw": 1125,
      "i3": 1126,
      "cn": 1127,
      "50": 1128,
      "ei": 1129,
      "##SD": 1130,
      "##31": 1131,
      "##46": 1132,
      "kr": 1133,
      "##hl": 1134,
      "##bo": 1135,
      "##yle": 1136,
      "##97": 1137,
      "##91": 1138,
      "##ete": 1139,
      "Ib": 1140,
      "##ck": 1141,
      "##iv": 1142,
      "##2e": 1143,
      "##ona": 1144,
      "##wf": 1145,
      "##ere": 1146,
      "256F": 1147,
      "##ject": 1148,
      "asp": 1149,
      "##bs": 1150,
      "Manche": 1151,
      "Ques": 1152,
      "bin": 1153,
      "##mi": 1154,
      "##men": 1155,
      "Manchego": 1156,
      "gb": 1157,
      "##nl": 1158,
      "E1": 1159,
      "+++++%": 1160,
      "\\\\": 1161,
      "open": 1162,
      "##eplac": 1163,
      "43": 1164,
      "net": 1165,
      "##fn": 1166,
      "ae": 1167,
      "ne": 1168,
      "##ga": 1169,
      "E9ri": 1170,
      "##wo": 1171,
      "##PT": 1172,
      "asf": 1173,
      "##wt": 1174,
      "##ct": 1175,
      "##alert": 1176,
      "Jam": 1177,
      "##mh": 1178,
      "##ount": 1179,
      "##A2": 1180,
      "##96": 1181,
      "##D7": 1182,
      "##iu": 1183,
      "wide": 1184,
      "##A8": 1185,
      "ta": 1186,
      "##3E": 1187,
      "##fa": 1188,
      "##ada": 1189,
      "65": 1190,
      "cz": 1191,
      "##41": 1192,
      "##rab": 1193,
      "48": 1194,
      "##includ": 1195,
      "ie": 1196,
      "##4B": 1197,
      "##jo": 1198,
      "##indow": 1199,
      "60": 1200,
      "fo": 1201,
      "##pr": 1202,
      "##sb": 1203,
      "2022": 1204,
      "##pn": 1205,
      "##mr": 1206,
      "##/..": 1207,
      "Queso": 1208,
      "##4C": 1209,
      "##ati": 1210,
      "##passwd": 1211,
      "##lin": 1212,
      "count": 1213,
      "##p_": 1214,
      "##yt": 1215,
      "##E2": 1216,
      "18": 1217,
      "cgi": 1218,
      "##era": 1219,
      "75": 1220,
      "tn": 1221,
      "##bg": 1222,
      "##ft": 1223,
      "35": 1224,
      "##E7": 1225,
      "2565": 1226,
      "##640": 1227,
      "E9rico": 1228,
      "30": 1229,
      "htm": 1230,
      "##cat": 1231,
      "2569": 1232,
      "##110": 1233,
      "##oi8": 1234,
      "##toexec": 1235,
      "eh": 1236,
      "##bn": 1237,
      "##bt": 1238,
      "##und": 1239,
      "##wp": 1240,
      "js": 1241,
      "##56": 1242,
      "##ick": 1243,
      "38": 1244,
      "th": 1245,
      "##4F": 1246,
      "##dd": 1247,
      "Open": 1248,
      "to": 1249,
      "##B7": 1250,
      "##0a": 1251,
      "##bi": 1252,
      "BSD": 1253,
      "qu": 1254,
      "44": 1255,
      "55": 1256,
      "se": 1257,
      "##bin": 1258,
      "##E8": 1259,
      "i586": 1260,
      "##ono": 1261,
      "5Bposition": 1262,
      "##3C": 1263,
      "##D2": 1264,
      "##po": 1265,
      "arab": 1266,
      "koi8": 1267,
      "arabic": 1268,
      "##3A": 1269,
      "##3F": 1270,
      "##AS": 1271,
      "##je": 1272,
      "##gn": 1273,
      "##erra": 1274,
      "uk": 1275,
      "##RE": 1276,
      "ce": 1277,
      "##lc": 1278,
      "70": 1279,
      "74": 1280,
      "at": 1281,
      "la": 1282,
      "oe": 1283,
      "bas": 1284,
      "##D8": 1285,
      "##vi": 1286,
      "chin": 1287,
      "##5B": 1288,
      "##123": 1289,
      "##sy": 1290,
      "##br": 1291,
      "##3B": 1292,
      "##ak": 1293,
      "##Ee": 1294,
      "##bh": 1295,
      "tw": 1296,
      "##A6": 1297,
      "##fi": 1298,
      "##az": 1299,
      "##gt": 1300,
      "##lu": 1301,
      "##E6": 1302,
      "252F": 1303,
      "##////": 1304,
      "##wr": 1305,
      "##vb": 1306,
      "45": 1307,
      "ar": 1308,
      "el": 1309,
      "##gro": 1310,
      "49": 1311,
      "##3D": 1312,
      "##4u": 1313,
      "##cr": 1314,
      "##ccess": 1315,
      "i386": 1316,
      "tt": 1317,
      "##ese": 1318,
      "##hc": 1319,
      "##En": 1320,
      "tiff": 1321,
      "##elect": 1322,
      "ao": 1323,
      "##9e": 1324,
      "##tel": 1325,
      "##yi": 1326,
      "##tmp": 1327,
      "##af": 1328,
      "##--": 1329,
      "instr": 1330,
      "##time": 1331,
      "##essing": 1332,
      "instruc": 1333,
      "gov": 1334,
      "sn": 1335,
      "##din": 1336,
      "basic": 1337,
      "instruction": 1338,
      "re": 1339,
      "##51": 1340,
      "##9B": 1341,
      "##node": 1342,
      "quick": 1343,
      "##52": 1344,
      "quicktime": 1345,
      "cas": 1346,
      "##5C": 1347,
      "##qe": 1348,
      "3A0": 1349,
      "mpeg": 1350,
      "##5F": 1351,
      "##D6": 1352,
      "shtml": 1353,
      "##4E": 1354,
      "idA": 1355,
      "##9F": 1356,
      "##wai": 1357,
      "##qu": 1358,
      "-/": 1359,
      "##8e": 1360,
      "##0d": 1361,
      "##nu": 1362,
      "ts": 1363,
      "46": 1364,
      "64": 1365,
      "##hm": 1366,
      "##of": 1367,
      "##xe": 1368,
      "##06": 1369,
      "##1e": 1370,
      "##Es": 1371,
      "by": 1372,
      "##window": 1373,
      "##gr": 1374,
      "##wi": 1375,
      "()": 1376,
      "men": 1377,
      "wav": 1378,
      "##HE": 1379,
      "us": 1380,
      "##oy": 1381,
      "63": 1382,
      "79": 1383,
      "ss": 1384,
      "##4D": 1385,
      "##pi": 1386,
      "##gs": 1387,
      "##var": 1388,
      "##oduc": 1389,
      "253C": 1390,
      "253E": 1391,
      "##oductos": 1392,
      "73": 1393,
      "##nm": 1394,
      "F3": 1395,
      "pa": 1396,
      "##5E": 1397,
      "##7a": 1398,
      "##9C": 1399,
      "##nf": 1400,
      "2522": 1401,
      "fotos": 1402,
      "biz": 1403,
      "zar": 1404,
      "##tfor": 1405,
      "##nion": 1406,
      "##eplace": 1407,
      "59": 1408,
      "83": 1409,
      "##0e": 1410,
      "##bul": 1411,
      "##Paros": 1412,
      "72": 1413,
      "##A1": 1414,
      "3A15": 1415,
      "3Bwai": 1416,
      "delay": 1417,
      "3Bwaitfor": 1418,
      "cmen": 1419,
      "##0F": 1420,
      "productos": 1421,
      "##itos": 1422,
      "cmenbul": 1423,
      "##4e": 1424,
      "##auz": 1425,
      "##amper": 1426,
      "Val": 1427,
      "##uestr": 1428,
      "##ccess_": 1429,
      "67": 1430,
      "69": 1431,
      "##ny": 1432,
      "##lir": 1433,
      "2BT": 1434,
      "##7e": 1435,
      "##mc": 1436,
      "##fs": 1437,
      "##253": 1438,
      "##include": 1439,
      "ec": 1440,
      "##6a": 1441,
      "##bd": 1442,
      "##IN": 1443,
      "zarauz": 1444,
      "2BTamper": 1445,
      "cred": 1446,
      "so": 1447,
      "68": 1448,
      "##07": 1449,
      "##gh": 1450,
      "84": 1451,
      "##ody": 1452,
      "##and": 1453,
      "##..%": 1454,
      "##tulo": 1455,
      "ogono": 1456,
      "creditos": 1457,
      "nuestr": 1458,
      "##iy": 1459,
      "##atierra": 1460,
      "nuestratierra": 1461,
      "##4A": 1462,
      "titulo": 1463,
      "castro": 1464,
      "td": 1465,
      "##5e": 1466,
      "##0C": 1467,
      "##op": 1468,
      "##ze": 1469,
      "WinNT": 1470,
      "95": 1471,
      "##3e": 1472,
      "##jn": 1473,
      "##vic": 1474,
      "##etwe": 1475,
      "253D": 1476,
      "89": 1477,
      "##D1": 1478,
      "##ROM": 1479,
      "37": 1480,
      "as": 1481,
      "##9E": 1482,
      "##utdo": 1483,
      "##style": 1484,
      "##ccess_log": 1485,
      "##6e": 1486,
      "##9A": 1487,
      "##tacc": 1488,
      "is": 1489,
      "##F7": 1490,
      "##wl": 1491,
      "##per": 1492,
      "menum": 1493,
      "##01": 1494,
      "##_str": 1495,
      "11": 1496,
      "47": 1497,
      "9x": 1498,
      "ai": 1499,
      "em": 1500,
      "del": 1501,
      "##0r": 1502,
      "##1n": 1503,
      "@/": 1504,
      "io": 1505,
      "##eam": 1506,
      "##2a": 1507,
      "##yl": 1508,
      "##Er": 1509,
      "##ECT": 1510,
      "child": 1511,
      "aa": 1512,
      "hz": 1513,
      "##5D": 1514,
      "##C7": 1515,
      "##tz": 1516,
      "##ka": 1517,
      "##vo": 1518,
      "71": 1519,
      "NT": 1520,
      "ns": 1521,
      "##5A": 1522,
      "##object": 1523,
      "esti": 1524,
      "eu": 1525,
      "##yh": 1526,
      "##kn": 1527,
      "estilos": 1528,
      "na": 1529,
      "##qn": 1530,
      "##aving": 1531,
      "##tacces": 1532,
      "##0n": 1533,
      "##4t": 1534,
      "##646": 1535,
      "salir": 1536,
      "93": 1537,
      "nn": 1538,
      "##date": 1539,
      "##104": 1540,
      "##etween": 1541,
      "##8n": 1542,
      "##dc": 1543,
      "##Ea": 1544,
      "Win98": 1545,
      "12": 1546,
      "##_c": 1547,
      "##E1": 1548,
      "MSI": 1549,
      "##8a": 1550,
      "##lm": 1551,
      "##Ri": 1552,
      "MSIE": 1553,
      "##hu": 1554,
      "58": 1555,
      "62": 1556,
      "##B6": 1557,
      "##3t": 1558,
      "##9s": 1559,
      "##4n": 1560,
      "##5s": 1561,
      "##ow": 1562,
      "##ki": 1563,
      "##..\\\\": 1564,
      "##4a": 1565,
      "##cessing": 1566,
      "##min": 1567,
      "##arr": 1568,
      "57": 1569,
      "FROM": 1570,
      "sr": 1571,
      "##F2": 1572,
      "##1a": 1573,
      "##Et": 1574,
      "##ora": 1575,
      "##2t": 1576,
      "##An": 1577,
      "##name": 1578,
      "##cp": 1579,
      "##ana": 1580,
      "##all": 1581,
      "250AS": 1582,
      "250ASet": 1583,
      "09": 1584,
      "##C6": 1585,
      "##fd": 1586,
      "##ara": 1587,
      "41": 1588,
      "53": 1589,
      "he": 1590,
      "le": 1591,
      "system": 1592,
      "##Eo": 1593,
      "##qt": 1594,
      "##--%": 1595,
      "./": 1596,
      "ia": 1597,
      "ot": 1598,
      "##jt": 1599,
      "##mu": 1600,
      "##vn": 1601,
      "##xt": 1602,
      "##_j": 1603,
      "##ull": 1604,
      "##_stream": 1605,
      "94": 1606,
      "pl": 1607,
      "##8t": 1608,
      "##fh": 1609,
      "##ks": 1610,
      "##zn": 1611,
      "##pan": 1612,
      "##ish": 1613,
      "##747": 1614,
      "61": 1615,
      "ob": 1616,
      "##2n": 1617,
      "##2s": 1618,
      "253F": 1619,
      "oa": 1620,
      "##del": 1621,
      "##zo": 1622,
      "##arc": 1623,
      "au": 1624,
      "ni": 1625,
      "rn": 1626,
      "##F8": 1627,
      "##B1": 1628,
      "##hg": 1629,
      "##vt": 1630,
      "##ero": 1631,
      "##ome": 1632,
      "##Te": 1633,
      "##system": 1634,
      "77": 1635,
      "##5n": 1636,
      "##B8": 1637,
      "##9D": 1638,
      "##601": 1639,
      "42": 1640,
      "##8r": 1641,
      "##3a": 1642,
      "##9n": 1643,
      "##con": 1644,
      "##qa": 1645,
      "##342": 1646,
      "ir": 1647,
      "ra": 1648,
      "sd": 1649,
      "##0A": 1650,
      "##C8": 1651,
      "##xa": 1652,
      "##qs": 1653,
      "05": 1654,
      "56": 1655,
      "nt": 1656,
      "tl": 1657,
      "##08": 1658,
      "##0t": 1659,
      "3Anode": 1660,
      "54": 1661,
      "81": 1662,
      "eg": 1663,
      "oo": 1664,
      "##cl": 1665,
      "and": 1666,
      "B2A": 1667,
      "##7n": 1668,
      "##02": 1669,
      "##3r": 1670,
      "##623": 1671,
      "nr": 1672,
      "##To": 1673,
      "##ji": 1674,
      "##qr": 1675,
      "2Fc": 1676,
      "nsf": 1677,
      "##8s": 1678,
      "##1t": 1679,
      "##4r": 1680,
      "nh": 1681,
      "script": 1682,
      "##7t": 1683,
      "##Ar": 1684,
      "##1r": 1685,
      "##cd": 1686,
      "##xml": 1687,
      "2561": 1688,
      "2Fetc": 1689,
      "##5a": 1690,
      "##5o": 1691,
      "##5t": 1692,
      "##Ae": 1693,
      "##rad": 1694,
      "##rop": 1695,
      "ja": 1696,
      "##ala": 1697,
      "##bu": 1698,
      "##bl": 1699,
      "errorMsgA": 1700,
      "##vices": 1701,
      "ey": 1702,
      "tf": 1703,
      "##Oe": 1704,
      "##qo": 1705,
      "##7o": 1706,
      "##Ts": 1707,
      "##cu": 1708,
      "##Ne": 1709,
      "##637": 1710,
      "16": 1711,
      "99": 1712,
      "##hy": 1713,
      "##dl": 1714,
      "##autoexec": 1715,
      "ks": 1716,
      "##hf": 1717,
      "##Se": 1718,
      "##jr": 1719,
      "##Na": 1720,
      "##eee": 1721,
      "##F6": 1722,
      "##6s": 1723,
      "##_5": 1724,
      "##0B": 1725,
      "##9r": 1726,
      "##C2": 1727,
      "##iw": 1728,
      "##thru": 1729,
      "27http": 1730,
      "Mar": 1731,
      "##6o": 1732,
      "32": 1733,
      "##Tn": 1734,
      "##ers": 1735,
      "##utdown": 1736,
      "gre": 1737,
      "os": 1738,
      "##2o": 1739,
      "##3o": 1740,
      "##9a": 1741,
      "78": 1742,
      "::": 1743,
      "##5r": 1744,
      "##7r": 1745,
      "##9o": 1746,
      "##dy": 1747,
      "##du": 1748,
      "##zt": 1749,
      "##Ei": 1750,
      "##....": 1751,
      "##processing": 1752,
      "ah": 1753,
      "co": 1754,
      "si": 1755,
      "##1o": 1756,
      "##Ie": 1757,
      "##term": 1758,
      "97": 1759,
      "rt": 1760,
      "##7i": 1761,
      "##6n": 1762,
      "##6t": 1763,
      "##wm": 1764,
      "##pu": 1765,
      "##put": 1766,
      "##On": 1767,
      "##kt": 1768,
      "##B2": 1769,
      "##8h": 1770,
      "##0o": 1771,
      "##Ti": 1772,
      "##pl": 1773,
      "##qi": 1774,
      "##730": 1775,
      "##HERE": 1776,
      "/.": 1777,
      "##2r": 1778,
      "##290": 1779,
      "##8o": 1780,
      "##ena": 1781,
      "##ack": 1782,
      "2FN": 1783,
      "950": 1784,
      "cfm": 1785,
      "rr": 1786,
      "##3s": 1787,
      "##6i": 1788,
      "##ON": 1789,
      "##gu": 1790,
      "##ano": 1791,
      "eb": 1792,
      "ht": 1793,
      "##winnt": 1794,
      "##uf": 1795,
      "##nect": 1796,
      "##sound": 1797,
      "##cha": 1798,
      "##/../..": 1799,
      "##..\\\\..\\\\": 1800,
      "rs": 1801,
      "sun": 1802,
      "tm": 1803,
      "##err": 1804,
      "2528": 1805,
      "Ar": 1806,
      "##vs": 1807,
      "##RIPT": 1808,
      "##sock": 1809,
      "936": 1810,
      "##5i": 1811,
      "##8i": 1812,
      "##0E": 1813,
      "##LECT": 1814,
      "2529": 1815,
      "##img": 1816,
      "874": 1817,
      "Cas": 1818,
      "##9d": 1819,
      "##bc": 1820,
      "##xy": 1821,
      "##location": 1822,
      "76": 1823,
      "88": 1824,
      "87": 1825,
      "Gu": 1826,
      "##fl": 1827,
      "##kr": 1828,
      "##div": 1829,
      "-<": 1830,
      "00": 1831,
      "##js": 1832,
      "##cm": 1833,
      "##yd": 1834,
      "##rew": 1835,
      "##ifr": 1836,
      "36": 1837,
      "asc": 1838,
      "hr": 1839,
      "mdb": 1840,
      "##0D": 1841,
      "##6r": 1842,
      "##1s": 1843,
      "##hb": 1844,
      "##Ed": 1845,
      "##ile": 1846,
      "##illi": 1847,
      "##ascript": 1848,
      "2Fpasswd": 1849,
      "ad": 1850,
      "##xr": 1851,
      "##Re": 1852,
      "##Nn": 1853,
      "location": 1854,
      "B1A": 1855,
      "##ift": 1856,
      "##wget": 1857,
      "mo": 1858,
      "ri": 1859,
      "##pd": 1860,
      "##Or": 1861,
      "##xs": 1862,
      "##xp_": 1863,
      "ii": 1864,
      "##4i": 1865,
      "##zs": 1866,
      "##vr": 1867,
      "##ina": 1868,
      "Sun": 1869,
      "isi": 1870,
      "##F1": 1871,
      "##6d": 1872,
      "##mm": 1873,
      "##In": 1874,
      "greek": 1875,
      "66": 1876,
      "98": 1877,
      "##9l": 1878,
      "##Tr": 1879,
      "##boot": 1880,
      "##group": 1881,
      "sun4u": 1882,
      "SunOS": 1883,
      "932": 1884,
      "hn": 1885,
      "tur": 1886,
      "##0s": 1887,
      "##9t": 1888,
      "##text": 1889,
      "##uu": 1890,
      "2527": 1891,
      "##htpass": 1892,
      "91": 1893,
      "winnt": 1894,
      "##4o": 1895,
      "92": 1896,
      "position": 1897,
      "##9i": 1898,
      "##usr": 1899,
      "##zi": 1900,
      "##Eh": 1901,
      "##like": 1902,
      "##land": 1903,
      "86": 1904,
      "96": 1905,
      "Sol": 1906,
      "me": 1907,
      "##2d": 1908,
      "##1h": 1909,
      "##Os": 1910,
      "##qh": 1911,
      "##rip": 1912,
      "##stdin": 1913,
      "82": 1914,
      "dll": 1915,
      "ew": 1916,
      "ef": 1917,
      "ev": 1918,
      "post": 1919,
      "##2h": 1920,
      "##Rn": 1921,
      "##ets": 1922,
      "##copy": 1923,
      "2573": 1924,
      "path": 1925,
      "WHERE": 1926,
      "am": 1927,
      "tar": 1928,
      "##2i": 1929,
      "##7s": 1930,
      "##1i": 1931,
      "##Th": 1932,
      "##SCRIPT": 1933,
      "from": 1934,
      "postscript": 1935,
      "51": 1936,
      "heb": 1937,
      "rm": 1938,
      "sc": 1939,
      "##9h": 1940,
      "##aris": 1941,
      "##spx": 1942,
      "2312": 1943,
      "ls": 1944,
      "##4h": 1945,
      "##He": 1946,
      "##jh": 1947,
      "##from": 1948,
      "##sock_stream": 1949,
      "##body": 1950,
      "##ida": 1951,
      "##uel": 1952,
      "##ene": 1953,
      "52": 1954,
      "da": 1955,
      "mspx": 1956,
      "oi": 1957,
      "##3h": 1958,
      "##3d": 1959,
      "##6h": 1960,
      "##gc": 1961,
      "##zr": 1962,
      "##intosh": 1963,
      "250D": 1964,
      "ascii": 1965,
      "31": 1966,
      "3342": 1967,
      "ep": 1968,
      "##4s": 1969,
      "##Ta": 1970,
      "##xh": 1971,
      "##tin": 1972,
      "##lan": 1973,
      "##++++": 1974,
      "macintosh": 1975,
      "isiri": 1976,
      "dir": 1977,
      "##Sr": 1978,
      "##lb": 1979,
      "##lib": 1980,
      "2570": 1981,
      "##ig5": 1982,
      "03": 1983,
      "ucs": 1984,
      "##wc": 1985,
      "##Tt": 1986,
      "##Sa": 1987,
      "##bri": 1988,
      "##yc": 1989,
      "##Nt": 1990,
      "##ern": 1991,
      "##lass": 1992,
      "256E": 1993,
      "##234": 1994,
      "10646": 1995,
      "1987": 1996,
      "shift": 1997,
      "##_c_5": 1998,
      "##_jis": 1999,
      "ks_c_5": 2000,
      "shift_jis": 2001,
      "ks_c_5601": 2002,
      "ih": 2003,
      "nc": 2004,
      "oh": 2005,
      "##0i": 2006,
      "##Ad": 2007,
      "##uy": 2008,
      "##Ni": 2009,
      "##echo": 2010,
      "##services": 2011,
      "252E": 2012,
      "big5": 2013,
      "swf": 2014,
      "##7h": 2015,
      "##C1": 2016,
      "##Oi": 2017,
      "##kish": 2018,
      "##xi": 2019,
      "##ql": 2020,
      "1252": 2021,
      "##640110": 2022,
      "##10412": 2023,
      "##74727": 2024,
      "turkish": 2025,
      "##3l": 2026,
      "##cmd": 2027,
      "1255": 2028,
      "##imp": 2029,
      "##orean": 2030,
      "##25374727": 2031,
      "253D10412": 2032,
      "##64011025374727": 2033,
      "253D1041264011025374727": 2034,
      "04": 2035,
      "ha": 2036,
      "korean": 2037,
      "##St": 2038,
      "##Rt": 2039,
      "SELECT": 2040,
      "##eses": 2041,
      "do": 2042,
      "##0h": 2043,
      "##had": 2044,
      "##php": 2045,
      "2Bdocument": 2046,
      "hebrew": 2047
    }
  }
}