{
  "[PAD]": 0,
  "[UNK]": 1,
  "[CLS]": 2,
  "[SEP]": 3,
  "[MASK]": 4,
  "<!--]]>": 5,
  "</SCRIPT>": 6,
  "</script>": 7,
  "</style>": 8,
  "</xml>": 9,
  "<@>": 10,
  "<END>": 11,
  "<ESC_EQ>": 12,
  "<ID_LONG>": 13,
  "<NULL>": 14,
  "<NUM_LONG>": 15,
  "<OeNo>": 16,
  "<REC>": 17,
  "<SCRIPT>": 18,
  "<SEP>": 19,
  "<U>": 20,
  "<b>": 21,
  "<cmde>": 22,
  "<olo(a+u>": 23,
  "<script>": 24,
  "=": 25,
  "e": 26,
  "t": 27,
  "o": 28,
  "a": 29,
  "E": 30,
  "n": 31,
  "c": 32,
  "i": 33,
  "C": 34,
  ">": 35,
  "<": 36,
  "l": 37,
  "S": 38,
  "_": 39,
  "-": 40,
  "r": 41,
  "/": 42,
  "p": 43,
  "L": 44,
  "Q": 45,
  "ES": 46,
  "SC": 47,
  "<E": 48,
  "<ES": 49,
  "<ESC": 50,
  "<ESC_": 51,
  "<ESC_E": 52,
  "<ESC_EQ": 53,
  "ESC": 54,
  "ESC_": 55,
  "ESC_E": 56,
  "ESC_EQ": 57,
  "ESC_EQ>": 58,
  "SC_": 59,
  "SC_E": 60,
  "SC_EQ": 61,
  "SC_EQ>": 62,
  "C_": 63,
  "C_E": 64,
  "C_EQ": 65,
  "C_EQ>": 66,
  "_E": 67,
  "_EQ": 68,
  "_EQ>": 69,
  "EQ": 70,
  "EQ>": 71,
  "Q>": 72,
  ".": 73,
  "s": 74,
  "h": 75,
  "m": 76,
  "g": 77,
  "0": 78,
  "on": 79,
  "N": 80,
  "u": 81,
  ";": 82,
  "T": 83,
  "x": 84,
  "d": 85,
  "nt": 86,
  ",": 87,
  "en": 88,
  "G": 89,
  "5": 90,
  "8": 91,
  "I": 92,
  "O": 93,
  "U": 94,
  "q": 95,
  "H": 96,
  "t-": 97,
  "D": 98,
  "ca": 99,
  "ti": 100,
  "A": 101,
  "te": 102,
  "1": 103,
  "<ESC_EQ>0": 104,
  "ESC_EQ>0": 105,
  "SC_EQ>0": 106,
  "C_EQ>0": 107,
  "_EQ>0": 108,
  "EQ>0": 109,
  "Q>0": 110,
  ">0": 111,
  "0.": 112,
  ";q": 113,
  ";q<": 114,
  ";q<E": 115,
  ";q<ES": 116,
  ";q<ESC": 117,
  ";q<ESC_": 118,
  ";q<ESC_E": 119,
  ";q<ESC_EQ": 120,
  ";q<ESC_EQ>": 121,
  ";q<ESC_EQ>0": 122,
  ";q<ESC_EQ>0.": 123,
  "q<": 124,
  "q<E": 125,
  "q<ES": 126,
  "q<ESC": 127,
  "q<ESC_": 128,
  "q<ESC_E": 129,
  "q<ESC_EQ": 130,
  "q<ESC_EQ>": 131,
  "q<ESC_EQ>0": 132,
  "q<ESC_EQ>0.": 133,
  "<ESC_EQ>0.": 134,
  "ESC_EQ>0.": 135,
  "SC_EQ>0.": 136,
  "C_EQ>0.": 137,
  "_EQ>0.": 138,
  "EQ>0.": 139,
  "Q>0.": 140,
  ">0.": 141,
  "&": 142,
  "er": 143,
  "os": 144,
  "ON": 145,
  "Co": 146,
  "ml": 147,
  ".5": 148,
  "at": 149,
  "P": 150,
  "M": 151,
  "3": 152,
  "ID": 153,
  "li": 154,
  "st": 155,
  "io": 156,
  "<N": 157,
  "<NU": 158,
  "NU": 159,
  "k": 160,
  "_L": 161,
  "_LO": 162,
  "_LON": 163,
  "_LONG": 164,
  "_LONG>": 165,
  "LO": 166,
  "LON": 167,
  "LONG": 168,
  "LONG>": 169,
  "ONG": 170,
  "ONG>": 171,
  "NG": 172,
  "NG>": 173,
  "G>": 174,
  "ce": 175,
  "cc": 176,
  "se": 177,
  "ep": 178,
  "ent": 179,
  "ac": 180,
  "ag": 181,
  "ge": 182,
  "pt": 183,
  "Con": 184,
  "cce": 185,
  "ccep": 186,
  "ccept": 187,
  "cep": 188,
  "cept": 189,
  "ept": 190,
  "ont": 191,
  "Ac": 192,
  "Acc": 193,
  "Acce": 194,
  "Accep": 195,
  "Accept": 196,
  "ion": 197,
  "ch": 198,
  "y": 199,
  "b": 200,
  "*": 201,
  "he": 202,
  "-c": 203,
  "<NUL": 204,
  "<NULL": 205,
  "NUL": 206,
  "NULL": 207,
  "NULL>": 208,
  "UL": 209,
  "ULL": 210,
  "ULL>": 211,
  "LL": 212,
  "LL>": 213,
  "L>": 214,
  "tio": 215,
  "tion": 216,
  "ng": 217,
  "<I": 218,
  "<ID": 219,
  "<ID_": 220,
  "<ID_L": 221,
  "<ID_LO": 222,
  "<ID_LON": 223,
  "<ID_LONG": 224,
  "ID_": 225,
  "ID_L": 226,
  "ID_LO": 227,
  "ID_LON": 228,
  "ID_LONG": 229,
  "ID_LONG>": 230,
  "D_": 231,
  "D_L": 232,
  "D_LO": 233,
  "D_LON": 234,
  "D_LONG": 235,
  "D_LONG>": 236,
  "f": 237,
  "che": 238,
  "ost": 239,
  "ach": 240,
  "co": 241,
  "ache": 242,
  "+": 243,
  "ati": 244,
  "/x": 245,
  "pl": 246,
  "ro": 247,
  "in": 248,
  "ic": 249,
  "ma": 250,
  "w": 251,
  "ex": 252,
  "xt": 253,
  "tex": 254,
  "text": 255,
  "ext": 256,
  "9": 257,
  "et": 258,
  ";q<ESC_EQ>0.5": 259,
  "q<ESC_EQ>0.5": 260,
  "<ESC_EQ>0.5": 261,
  "ESC_EQ>0.5": 262,
  "SC_EQ>0.5": 263,
  "C_EQ>0.5": 264,
  "_EQ>0.5": 265,
  "EQ>0.5": 266,
  "Q>0.5": 267,
  ">0.5": 268,
  "0.5": 269,
  "><": 270,
  "ar": 271,
  "text/": 272,
  "ext/": 273,
  "xt/": 274,
  "t/": 275,
  "xm": 276,
  "xml": 277,
  "lic": 278,
  "xml,": 279,
  "ml,": 280,
  "l,": 281,
  "2": 282,
  "ec": 283,
  "no": 284,
  "ie": 285,
  "/p": 286,
  "%": 287,
  "th": 288,
  "ten": 289,
  "tent": 290,
  "Ho": 291,
  "Hos": 292,
  "Host": 293,
  "Accept-": 294,
  "ccept-": 295,
  "cept-": 296,
  "ept-": 297,
  "pt-": 298,
  "t-L": 299,
  "-L": 300,
  "Cont": 301,
  "Conte": 302,
  "Conten": 303,
  "Content": 304,
  "Content-": 305,
  "onte": 306,
  "onten": 307,
  "ontent": 308,
  "ontent-": 309,
  "nte": 310,
  "nten": 311,
  "ntent": 312,
  "ntent-": 313,
  "tent-": 314,
  "ent-": 315,
  "nt-": 316,
  "T-": 317,
  "lo": 318,
  "age": 319,
  "ap": 320,
  "ue": 321,
  "o-": 322,
  "(": 323,
  "ica": 324,
  ")": 325,
  "cat": 326,
  "K": 327,
  "ho": 328,
  "n/": 329,
  "la": 330,
  "uer": 331,
  "GE": 332,
  "GET": 333,
  "ET": 334,
  "app": 335,
  "appl": 336,
  "appli": 337,
  "applic": 338,
  "applica": 339,
  "applicat": 340,
  "applicati": 341,
  "applicatio": 342,
  "application": 343,
  "application/": 344,
  "pp": 345,
  "ppl": 346,
  "ppli": 347,
  "pplic": 348,
  "pplica": 349,
  "pplicat": 350,
  "pplicati": 351,
  "pplicatio": 352,
  "pplication": 353,
  "pplication/": 354,
  "pli": 355,
  "plic": 356,
  "plica": 357,
  "plicat": 358,
  "plicati": 359,
  "plicatio": 360,
  "plication": 361,
  "plication/": 362,
  "lica": 363,
  "licat": 364,
  "licati": 365,
  "licatio": 366,
  "lication": 367,
  "lication/": 368,
  "icat": 369,
  "icati": 370,
  "icatio": 371,
  "ication": 372,
  "ication/": 373,
  "cati": 374,
  "catio": 375,
  "cation": 376,
  "cation/": 377,
  "atio": 378,
  "ation": 379,
  "ation/": 380,
  "tion/": 381,
  "ion/": 382,
  "on/": 383,
  "HT": 384,
  "application/x": 385,
  "pplication/x": 386,
  "plication/x": 387,
  "lication/x": 388,
  "ication/x": 389,
  "cation/x": 390,
  "ation/x": 391,
  "tion/x": 392,
  "ion/x": 393,
  "on/x": 394,
  "n/x": 395,
  "no-": 396,
  "-ca": 397,
  "*;": 398,
  "*;q": 399,
  "*;q<": 400,
  "*;q<E": 401,
  "*;q<ES": 402,
  "*;q<ESC": 403,
  "*;q<ESC_": 404,
  "*;q<ESC_E": 405,
  "*;q<ESC_EQ": 406,
  "*;q<ESC_EQ>": 407,
  "*;q<ESC_EQ>0": 408,
  "*;q<ESC_EQ>0.": 409,
  "o-c": 410,
  "-cac": 411,
  "-cach": 412,
  "-cache": 413,
  "cac": 414,
  "cach": 415,
  "cache": 416,
  "7": 417,
  "no-c": 418,
  "no-ca": 419,
  "no-cac": 420,
  "no-cach": 421,
  "no-cache": 422,
  "o-ca": 423,
  "o-cac": 424,
  "o-cach": 425,
  "o-cache": 426,
  "ut": 427,
  "3.": 428,
  "ht": 429,
  "-8": 430,
  "tr": 431,
  "ad": 432,
  "80": 433,
  ".8": 434,
  "od": 435,
  "tm": 436,
  "5.": 437,
  "ra": 438,
  "htm": 439,
  "<ESC_EQ><": 440,
  "ESC_EQ><": 441,
  "SC_EQ><": 442,
  "C_EQ><": 443,
  "_EQ><": 444,
  "EQ><": 445,
  "Q><": 446,
  "html": 447,
  "tml": 448,
  "/3": 449,
  "R": 450,
  "tf": 451,
  "f-": 452,
  "z": 453,
  "or": 454,
  "/3.": 455,
  "8,": 456,
  "/xm": 457,
  "/xml": 458,
  "/xml,": 459,
  "/xml,a": 460,
  "/xml,ap": 461,
  "/xml,app": 462,
  "/xml,appl": 463,
  "/xml,appli": 464,
  "/xml,applic": 465,
  "/xml,applica": 466,
  "/xml,applicat": 467,
  "/xml,applicati": 468,
  "/xml,applicatio": 469,
  "/xml,application": 470,
  "xml,a": 471,
  "xml,ap": 472,
  "xml,app": 473,
  "xml,appl": 474,
  "xml,appli": 475,
  "xml,applic": 476,
  "xml,applica": 477,
  "xml,applicat": 478,
  "xml,applicati": 479,
  "xml,applicatio": 480,
  "xml,application": 481,
  "xml,application/": 482,
  "ml,a": 483,
  "ml,ap": 484,
  "ml,app": 485,
  "ml,appl": 486,
  "ml,appli": 487,
  "ml,applic": 488,
  "ml,applica": 489,
  "ml,applicat": 490,
  "ml,applicati": 491,
  "ml,applicatio": 492,
  "ml,application": 493,
  "ml,application/": 494,
  "ml,application/x": 495,
  "l,a": 496,
  "l,ap": 497,
  "l,app": 498,
  "l,appl": 499,
  "l,appli": 500,
  "l,applic": 501,
  "l,applica": 502,
  "l,applicat": 503,
  "l,applicati": 504,
  "l,applicatio": 505,
  "l,application": 506,
  "l,application/": 507,
  "l,application/x": 508,
  ",a": 509,
  ",ap": 510,
  ",app": 511,
  ",appl": 512,
  ",appli": 513,
  ",applic": 514,
  ",applica": 515,
  ",applicat": 516,
  ",applicati": 517,
  ",applicatio": 518,
  ",application": 519,
  ",application/": 520,
  ",application/x": 521,
  ",t": 522,
  ",te": 523,
  ",tex": 524,
  ",text": 525,
  ",text/": 526,
  "*;q<ESC_EQ>0.5": 527,
  "utf": 528,
  "utf-": 529,
  "utf-8": 530,
  "tf-": 531,
  "tf-8": 532,
  "f-8": 533,
  "/3.5": 534,
  "3.5": 535,
  "de": 536,
  "an": 537,
  "4": 538,
  "ne": 539,
  "ta": 540,
  "j": 541,
  "al": 542,
  "6": 543,
  ".0": 544,
  "pe": 545,
  "bl": 546,
  "le": 547,
  "OS": 548,
  "ea": 549,
  "tro": 550,
  "PO": 551,
  "ST": 552,
  "POS": 553,
  "POST": 554,
  "OST": 555,
  "ntr": 556,
  "Ca": 557,
  "<ESC_EQ><I": 558,
  "<ESC_EQ><ID": 559,
  "<ESC_EQ><ID_": 560,
  "<ESC_EQ><ID_L": 561,
  "<ESC_EQ><ID_LO": 562,
  "<ESC_EQ><ID_LON": 563,
  "<ESC_EQ><ID_LONG": 564,
  "ESC_EQ><I": 565,
  "ESC_EQ><ID": 566,
  "ESC_EQ><ID_": 567,
  "ESC_EQ><ID_L": 568,
  "ESC_EQ><ID_LO": 569,
  "ESC_EQ><ID_LON": 570,
  "ESC_EQ><ID_LONG": 571,
  "ESC_EQ><ID_LONG>": 572,
  "SC_EQ><I": 573,
  "SC_EQ><ID": 574,
  "SC_EQ><ID_": 575,
  "SC_EQ><ID_L": 576,
  "SC_EQ><ID_LO": 577,
  "SC_EQ><ID_LON": 578,
  "SC_EQ><ID_LONG": 579,
  "SC_EQ><ID_LONG>": 580,
  "C_EQ><I": 581,
  "C_EQ><ID": 582,
  "C_EQ><ID_": 583,
  "C_EQ><ID_L": 584,
  "C_EQ><ID_LO": 585,
  "C_EQ><ID_LON": 586,
  "C_EQ><ID_LONG": 587,
  "C_EQ><ID_LONG>": 588,
  "_EQ><I": 589,
  "_EQ><ID": 590,
  "_EQ><ID_": 591,
  "_EQ><ID_L": 592,
  "_EQ><ID_LO": 593,
  "_EQ><ID_LON": 594,
  "_EQ><ID_LONG": 595,
  "_EQ><ID_LONG>": 596,
  "EQ><I": 597,
  "EQ><ID": 598,
  "EQ><ID_": 599,
  "EQ><ID_L": 600,
  "EQ><ID_LO": 601,
  "EQ><ID_LON": 602,
  "EQ><ID_LONG": 603,
  "EQ><ID_LONG>": 604,
  "Q><I": 605,
  "Q><ID": 606,
  "Q><ID_": 607,
  "Q><ID_L": 608,
  "Q><ID_LO": 609,
  "Q><ID_LON": 610,
  "Q><ID_LONG": 611,
  "Q><ID_LONG>": 612,
  "><I": 613,
  "><ID": 614,
  "><ID_": 615,
  "><ID_L": 616,
  "><ID_LO": 617,
  "><ID_LON": 618,
  "><ID_LONG": 619,
  "><ID_LONG>": 620,
  "om": 621,
  "ol": 622,
  "oo": 623,
  "gen": 624,
  "il": 625,
  "pa": 626,
  "ct": 627,
  "ser": 628,
  "ll": 629,
  "gt": 630,
  "%2": 631,
  "1.": 632,
  "ai": 633,
  "ead": 634,
  "/1": 635,
  ".1": 636,
  "nn": 637,
  "ect": 638,
  "ha": 639,
  "rs": 640,
  "gu": 641,
  "ok": 642,
  "ki": 643,
  "J": 644,
  "Le": 645,
  "eth": 646,
  "da": 647,
  "He": 648,
  "/1.": 649,
  ":": 650,
  "onn": 651,
  "onne": 652,
  "nne": 653,
  "har": 654,
  "set": 655,
  "La": 656,
  "ua": 657,
  "e-": 658,
  "-co": 659,
  "con": 660,
  "ook": 661,
  "ooki": 662,
  "ookie": 663,
  "oki": 664,
  "okie": 665,
  "kie": 666,
  "rag": 667,
  "gm": 668,
  "r-": 669,
  "-A": 670,
  "Ag": 671,
  "eng": 672,
  "Da": 673,
  "Qu": 674,
  "Que": 675,
  "ry": 676,
  "re": 677,
  "Me": 678,
  "Met": 679,
  "Meth": 680,
  "Metho": 681,
  "Method": 682,
  "etho": 683,
  "ethod": 684,
  "tho": 685,
  "thod": 686,
  "hod": 687,
  "UR": 688,
  "URI": 689,
  "RI": 690,
  "Host-": 691,
  "Host-H": 692,
  "Host-He": 693,
  "Host-Hea": 694,
  "Host-Head": 695,
  "Host-Heade": 696,
  "Host-Header": 697,
  "ost-": 698,
  "ost-H": 699,
  "ost-He": 700,
  "ost-Hea": 701,
  "ost-Head": 702,
  "ost-Heade": 703,
  "ost-Header": 704,
  "st-": 705,
  "st-H": 706,
  "st-He": 707,
  "st-Hea": 708,
  "st-Head": 709,
  "st-Heade": 710,
  "st-Header": 711,
  "t-H": 712,
  "t-He": 713,
  "t-Hea": 714,
  "t-Head": 715,
  "t-Heade": 716,
  "t-Header": 717,
  "-H": 718,
  "-He": 719,
  "-Hea": 720,
  "-Head": 721,
  "-Heade": 722,
  "-Header": 723,
  "Hea": 724,
  "Head": 725,
  "Heade": 726,
  "Header": 727,
  "eade": 728,
  "eader": 729,
  "ade": 730,
  "ader": 731,
  "der": 732,
  "HTT": 733,
  "HTTP": 734,
  "HTTP/": 735,
  "HTTP/1": 736,
  "HTTP/1.": 737,
  "TT": 738,
  "TTP": 739,
  "TTP/": 740,
  "TTP/1": 741,
  "TTP/1.": 742,
  "TP": 743,
  "TP/": 744,
  "TP/1": 745,
  "TP/1.": 746,
  "P/": 747,
  "P/1": 748,
  "P/1.": 749,
  "Conn": 750,
  "Conne": 751,
  "Connec": 752,
  "Connect": 753,
  "Connecti": 754,
  "Connectio": 755,
  "Connection": 756,
  "onnec": 757,
  "onnect": 758,
  "onnecti": 759,
  "onnectio": 760,
  "onnection": 761,
  "nnec": 762,
  "nnect": 763,
  "nnecti": 764,
  "nnectio": 765,
  "nnection": 766,
  "nec": 767,
  "nect": 768,
  "necti": 769,
  "nectio": 770,
  "nection": 771,
  "ecti": 772,
  "ectio": 773,
  "ection": 774,
  "cti": 775,
  "ctio": 776,
  "ction": 777,
  "im": 778,
  "Accept-C": 779,
  "Accept-Ch": 780,
  "Accept-Cha": 781,
  "Accept-Char": 782,
  "Accept-Chars": 783,
  "Accept-Charse": 784,
  "Accept-Charset": 785,
  "ccept-C": 786,
  "ccept-Ch": 787,
  "ccept-Cha": 788,
  "ccept-Char": 789,
  "ccept-Chars": 790,
  "ccept-Charse": 791,
  "ccept-Charset": 792,
  "cept-C": 793,
  "cept-Ch": 794,
  "cept-Cha": 795,
  "cept-Char": 796,
  "cept-Chars": 797,
  "cept-Charse": 798,
  "cept-Charset": 799,
  "ept-C": 800,
  "ept-Ch": 801,
  "ept-Cha": 802,
  "ept-Char": 803,
  "ept-Chars": 804,
  "ept-Charse": 805,
  "ept-Charset": 806,
  "pt-C": 807,
  "pt-Ch": 808,
  "pt-Cha": 809,
  "pt-Char": 810,
  "pt-Chars": 811,
  "pt-Charse": 812,
  "pt-Charset": 813,
  "t-C": 814,
  "t-Ch": 815,
  "t-Cha": 816,
  "t-Char": 817,
  "t-Chars": 818,
  "t-Charse": 819,
  "t-Charset": 820,
  "-C": 821,
  "-Ch": 822,
  "-Cha": 823,
  "-Char": 824,
  "-Chars": 825,
  "-Charse": 826,
  "-Charset": 827,
  "Ch": 828,
  "Cha": 829,
  "Char": 830,
  "Chars": 831,
  "Charse": 832,
  "Charset": 833,
  "hars": 834,
  "harse": 835,
  "harset": 836,
  "ars": 837,
  "arse": 838,
  "arset": 839,
  "rse": 840,
  "rset": 841,
  "Accept-L": 842,
  "Accept-La": 843,
  "Accept-Lan": 844,
  "Accept-Lang": 845,
  "Accept-Langu": 846,
  "Accept-Langua": 847,
  "Accept-Languag": 848,
  "Accept-Language": 849,
  "ccept-L": 850,
  "ccept-La": 851,
  "ccept-Lan": 852,
  "ccept-Lang": 853,
  "ccept-Langu": 854,
  "ccept-Langua": 855,
  "ccept-Languag": 856,
  "ccept-Language": 857,
  "cept-L": 858,
  "cept-La": 859,
  "cept-Lan": 860,
  "cept-Lang": 861,
  "cept-Langu": 862,
  "cept-Langua": 863,
  "cept-Languag": 864,
  "cept-Language": 865,
  "ept-L": 866,
  "ept-La": 867,
  "ept-Lan": 868,
  "ept-Lang": 869,
  "ept-Langu": 870,
  "ept-Langua": 871,
  "ept-Languag": 872,
  "ept-Language": 873,
  "pt-L": 874,
  "pt-La": 875,
  "pt-Lan": 876,
  "pt-Lang": 877,
  "pt-Langu": 878,
  "pt-Langua": 879,
  "pt-Languag": 880,
  "pt-Language": 881,
  "t-La": 882,
  "t-Lan": 883,
  "t-Lang": 884,
  "t-Langu": 885,
  "t-Langua": 886,
  "t-Languag": 887,
  "t-Language": 888,
  "-La": 889,
  "-Lan": 890,
  "-Lang": 891,
  "-Langu": 892,
  "-Langua": 893,
  "-Languag": 894,
  "-Language": 895,
  "Lan": 896,
  "Lang": 897,
  "Langu": 898,
  "Langua": 899,
  "Languag": 900,
  "Language": 901,
  "ang": 902,
  "angu": 903,
  "angua": 904,
  "anguag": 905,
  "anguage": 906,
  "ngu": 907,
  "ngua": 908,
  "nguag": 909,
  "nguage": 910,
  "gua": 911,
  "guag": 912,
  "guage": 913,
  "uag": 914,
  "uage": 915,
  "Cac": 916,
  "Cach": 917,
  "Cache": 918,
  "Cache-": 919,
  "Cache-c": 920,
  "Cache-co": 921,
  "Cache-con": 922,
  "Cache-cont": 923,
  "Cache-contr": 924,
  "Cache-contro": 925,
  "Cache-control": 926,
  "ache-": 927,
  "ache-c": 928,
  "ache-co": 929,
  "ache-con": 930,
  "ache-cont": 931,
  "ache-contr": 932,
  "ache-contro": 933,
  "ache-control": 934,
  "che-": 935,
  "che-c": 936,
  "che-co": 937,
  "che-con": 938,
  "che-cont": 939,
  "che-contr": 940,
  "che-contro": 941,
  "che-control": 942,
  "he-": 943,
  "he-c": 944,
  "he-co": 945,
  "he-con": 946,
  "he-cont": 947,
  "he-contr": 948,
  "he-contro": 949,
  "he-control": 950,
  "e-c": 951,
  "e-co": 952,
  "e-con": 953,
  "e-cont": 954,
  "e-contr": 955,
  "e-contro": 956,
  "e-control": 957,
  "-con": 958,
  "-cont": 959,
  "-contr": 960,
  "-contro": 961,
  "-control": 962,
  "cont": 963,
  "contr": 964,
  "contro": 965,
  "control": 966,
  "ontr": 967,
  "ontro": 968,
  "ontrol": 969,
  "ntro": 970,
  "ntrol": 971,
  "trol": 972,
  "rol": 973,
  "Coo": 974,
  "Cook": 975,
  "Cooki": 976,
  "Cookie": 977,
  "Pr": 978,
  "Pra": 979,
  "Prag": 980,
  "Pragm": 981,
  "Pragma": 982,
  "ragm": 983,
  "ragma": 984,
  "agm": 985,
  "agma": 986,
  "gma": 987,
  "Us": 988,
  "Use": 989,
  "User": 990,
  "User-": 991,
  "User-A": 992,
  "User-Ag": 993,
  "User-Age": 994,
  "User-Agen": 995,
  "User-Agent": 996,
  "ser-": 997,
  "ser-A": 998,
  "ser-Ag": 999,
  "ser-Age": 1000,
  "ser-Agen": 1001,
  "ser-Agent": 1002,
  "er-": 1003,
  "er-A": 1004,
  "er-Ag": 1005,
  "er-Age": 1006,
  "er-Agen": 1007,
  "er-Agent": 1008,
  "r-A": 1009,
  "r-Ag": 1010,
  "r-Age": 1011,
  "r-Agen": 1012,
  "r-Agent": 1013,
  "-Ag": 1014,
  "-Age": 1015,
  "-Agen": 1016,
  "-Agent": 1017,
  "Age": 1018,
  "Agen": 1019,
  "Agent": 1020,
  "gent": 1021,
  "Content-L": 1022,
  "Content-Le": 1023,
  "Content-Len": 1024,
  "Content-Leng": 1025,
  "Content-Lengt": 1026,
  "Content-Length": 1027,
  "ontent-L": 1028,
  "ontent-Le": 1029,
  "ontent-Len": 1030,
  "ontent-Leng": 1031,
  "ontent-Lengt": 1032,
  "ontent-Length": 1033,
  "ntent-L": 1034,
  "ntent-Le": 1035,
  "ntent-Len": 1036,
  "ntent-Leng": 1037,
  "ntent-Lengt": 1038,
  "ntent-Length": 1039,
  "tent-L": 1040,
  "tent-Le": 1041,
  "tent-Len": 1042,
  "tent-Leng": 1043,
  "tent-Lengt": 1044,
  "tent-Length": 1045,
  "ent-L": 1046,
  "ent-Le": 1047,
  "ent-Len": 1048,
  "ent-Leng": 1049,
  "ent-Lengt": 1050,
  "ent-Length": 1051,
  "nt-L": 1052,
  "nt-Le": 1053,
  "nt-Len": 1054,
  "nt-Leng": 1055,
  "nt-Lengt": 1056,
  "nt-Length": 1057,
  "t-Le": 1058,
  "t-Len": 1059,
  "t-Leng": 1060,
  "t-Lengt": 1061,
  "t-Length": 1062,
  "-Le": 1063,
  "-Len": 1064,
  "-Leng": 1065,
  "-Lengt": 1066,
  "-Length": 1067,
  "Len": 1068,
  "Leng": 1069,
  "Lengt": 1070,
  "Length": 1071,
  "engt": 1072,
  "ength": 1073,
  "ngt": 1074,
  "ngth": 1075,
  "gth": 1076,
  "Content-T": 1077,
  "Content-Ty": 1078,
  "Content-Typ": 1079,
  "Content-Type": 1080,
  "ontent-T": 1081,
  "ontent-Ty": 1082,
  "ontent-Typ": 1083,
  "ontent-Type": 1084,
  "ntent-T": 1085,
  "ntent-Ty": 1086,
  "ntent-Typ": 1087,
  "ntent-Type": 1088,
  "tent-T": 1089,
  "tent-Ty": 1090,
  "tent-Typ": 1091,
  "tent-Type": 1092,
  "ent-T": 1093,
  "ent-Ty": 1094,
  "ent-Typ": 1095,
  "ent-Type": 1096,
  "nt-T": 1097,
  "nt-Ty": 1098,
  "nt-Typ": 1099,
  "nt-Type": 1100,
  "t-T": 1101,
  "t-Ty": 1102,
  "t-Typ": 1103,
  "t-Type": 1104,
  "-T": 1105,
  "-Ty": 1106,
  "-Typ": 1107,
  "-Type": 1108,
  "Ty": 1109,
  "Typ": 1110,
  "Type": 1111,
  "yp": 1112,
  "ype": 1113,
  "POST-": 1114,
  "POST-D": 1115,
  "POST-Da": 1116,
  "POST-Dat": 1117,
  "POST-Data": 1118,
  "OST-": 1119,
  "OST-D": 1120,
  "OST-Da": 1121,
  "OST-Dat": 1122,
  "OST-Data": 1123,
  "ST-": 1124,
  "ST-D": 1125,
  "ST-Da": 1126,
  "ST-Dat": 1127,
  "ST-Data": 1128,
  "T-D": 1129,
  "T-Da": 1130,
  "T-Dat": 1131,
  "T-Data": 1132,
  "-D": 1133,
  "-Da": 1134,
  "-Dat": 1135,
  "-Data": 1136,
  "Dat": 1137,
  "Data": 1138,
  "ata": 1139,
  "GET-": 1140,
  "GET-Q": 1141,
  "GET-Qu": 1142,
  "GET-Que": 1143,
  "GET-Quer": 1144,
  "GET-Query": 1145,
  "ET-": 1146,
  "ET-Q": 1147,
  "ET-Qu": 1148,
  "ET-Que": 1149,
  "ET-Quer": 1150,
  "ET-Query": 1151,
  "T-Q": 1152,
  "T-Qu": 1153,
  "T-Que": 1154,
  "T-Quer": 1155,
  "T-Query": 1156,
  "-Q": 1157,
  "-Qu": 1158,
  "-Que": 1159,
  "-Quer": 1160,
  "-Query": 1161,
  "Quer": 1162,
  "Query": 1163,
  "uery": 1164,
  "ery": 1165,
  "nd": 1166,
  "/*": 1167,
  "e;": 1168,
  "B": 1169,
  "mag": 1170,
  "mage": 1171,
  "ima": 1172,
  "imag": 1173,
  "image": 1174,
  "a/": 1175,
  "zi": 1176,
  "ke": 1177,
  "Mo": 1178,
  "oz": 1179,
  "ww": 1180,
  "*/": 1181,
  "*/*": 1182,
  "Moz": 1183,
  "Mozi": 1184,
  "Mozil": 1185,
  "Mozill": 1186,
  "Mozilla": 1187,
  "Mozilla/": 1188,
  "ozi": 1189,
  "ozil": 1190,
  "ozill": 1191,
  "ozilla": 1192,
  "ozilla/": 1193,
  "zil": 1194,
  "zill": 1195,
  "zilla": 1196,
  "zilla/": 1197,
  "ill": 1198,
  "illa": 1199,
  "illa/": 1200,
  "lla": 1201,
  "lla/": 1202,
  "la/": 1203,
  "mp": 1204,
  "v": 1205,
  "cl": 1206,
  "/*;": 1207,
  "/*;q": 1208,
  "/*;q<": 1209,
  "/*;q<E": 1210,
  "/*;q<ES": 1211,
  "/*;q<ESC": 1212,
  "/*;q<ESC_": 1213,
  "/*;q<ESC_E": 1214,
  "/*;q<ESC_EQ": 1215,
  "/*;q<ESC_EQ>": 1216,
  "/*;q<ESC_EQ>0": 1217,
  "/*;q<ESC_EQ>0.": 1218,
  "ib": 1219,
  "ci": 1220,
  "/t": 1221,
  "lh": 1222,
  "los": 1223,
  "ose": 1224,
  "l+": 1225,
  "/h": 1226,
  "l;": 1227,
  ".9": 1228,
  ";q<ESC_EQ>0.8": 1229,
  "q<ESC_EQ>0.8": 1230,
  "<ESC_EQ>0.8": 1231,
  "ESC_EQ>0.8": 1232,
  "SC_EQ>0.8": 1233,
  "C_EQ>0.8": 1234,
  "_EQ>0.8": 1235,
  "EQ>0.8": 1236,
  "Q>0.8": 1237,
  ">0.8": 1238,
  "0.8": 1239,
  "image/": 1240,
  "mage/": 1241,
  "age/": 1242,
  "ge/": 1243,
  "e/": 1244,
  "com": 1245,
  "ror": 1246,
  "Ge": 1247,
  "ko": 1248,
  ".j": 1249,
  "HTTP/1.1": 1250,
  "TTP/1.1": 1251,
  "TP/1.1": 1252,
  "P/1.1": 1253,
  "/1.1": 1254,
  "1.1": 1255,
  ":8": 1256,
  "clo": 1257,
  "clos": 1258,
  "close": 1259,
  "lose": 1260,
  "9,": 1261,
  "(c": 1262,
  "(co": 1263,
  "(com": 1264,
  "(comp": 1265,
  "(compa": 1266,
  "(compat": 1267,
  "(compati": 1268,
  "(compatib": 1269,
  "(compatibl": 1270,
  "(compatible": 1271,
  "(compatible;": 1272,
  "comp": 1273,
  "compa": 1274,
  "compat": 1275,
  "compati": 1276,
  "compatib": 1277,
  "compatibl": 1278,
  "compatible": 1279,
  "compatible;": 1280,
  "omp": 1281,
  "ompa": 1282,
  "ompat": 1283,
  "ompati": 1284,
  "ompatib": 1285,
  "ompatibl": 1286,
  "ompatible": 1287,
  "ompatible;": 1288,
  "mpa": 1289,
  "mpat": 1290,
  "mpati": 1291,
  "mpatib": 1292,
  "mpatibl": 1293,
  "mpatible": 1294,
  "mpatible;": 1295,
  "pat": 1296,
  "pati": 1297,
  "patib": 1298,
  "patibl": 1299,
  "patible": 1300,
  "patible;": 1301,
  "atib": 1302,
  "atibl": 1303,
  "atible": 1304,
  "atible;": 1305,
  "tib": 1306,
  "tibl": 1307,
  "tible": 1308,
  "tible;": 1309,
  "ibl": 1310,
  "ible": 1311,
  "ible;": 1312,
  "ble": 1313,
  "ble;": 1314,
  "le;": 1315,
  "nq": 1316,
  "r/": 1317,
  "nu": 1318,
  "Gec": 1319,
  "Geck": 1320,
  "Gecko": 1321,
  "eck": 1322,
  "ecko": 1323,
  "ck": 1324,
  "cko": 1325,
  "ien": 1326,
  "oc": 1327,
  ":80": 1328,
  ";q<ESC_EQ>0.9": 1329,
  ";q<ESC_EQ>0.9,": 1330,
  "q<ESC_EQ>0.9": 1331,
  "q<ESC_EQ>0.9,": 1332,
  "<ESC_EQ>0.9": 1333,
  "<ESC_EQ>0.9,": 1334,
  "ESC_EQ>0.9": 1335,
  "ESC_EQ>0.9,": 1336,
  "SC_EQ>0.9": 1337,
  "SC_EQ>0.9,": 1338,
  "C_EQ>0.9": 1339,
  "C_EQ>0.9,": 1340,
  "_EQ>0.9": 1341,
  "_EQ>0.9,": 1342,
  "EQ>0.9": 1343,
  "EQ>0.9,": 1344,
  "Q>0.9": 1345,
  "Q>0.9,": 1346,
  ">0.9": 1347,
  ">0.9,": 1348,
  "0.9": 1349,
  "0.9,": 1350,
  ".9,": 1351,
  "*/*;": 1352,
  "*/*;q": 1353,
  "*/*;q<": 1354,
  "*/*;q<E": 1355,
  "*/*;q<ES": 1356,
  "*/*;q<ESC": 1357,
  "*/*;q<ESC_": 1358,
  "*/*;q<ESC_E": 1359,
  "*/*;q<ESC_EQ": 1360,
  "*/*;q<ESC_EQ>": 1361,
  "*/*;q<ESC_EQ>0": 1362,
  "*/*;q<ESC_EQ>0.": 1363,
  "/5": 1364,
  "Ko": 1365,
  "Kon": 1366,
  "Konq": 1367,
  "Konqu": 1368,
  "Konque": 1369,
  "Konquer": 1370,
  "Konquero": 1371,
  "Konqueror": 1372,
  "Konqueror/": 1373,
  "onq": 1374,
  "onqu": 1375,
  "onque": 1376,
  "onquer": 1377,
  "onquero": 1378,
  "onqueror": 1379,
  "onqueror/": 1380,
  "nqu": 1381,
  "nque": 1382,
  "nquer": 1383,
  "nquero": 1384,
  "nqueror": 1385,
  "nqueror/": 1386,
  "qu": 1387,
  "que": 1388,
  "quer": 1389,
  "quero": 1390,
  "queror": 1391,
  "queror/": 1392,
  "uero": 1393,
  "ueror": 1394,
  "ueror/": 1395,
  "ero": 1396,
  "eror": 1397,
  "eror/": 1398,
  "ror/": 1399,
  "or/": 1400,
  "5;": 1401,
  "Li": 1402,
  "/ti": 1403,
  "tie": 1404,
  "oca": 1405,
  "alh": 1406,
  "lho": 1407,
  "08": 1408,
  "text/h": 1409,
  "text/ht": 1410,
  "text/htm": 1411,
  "text/html": 1412,
  "ext/h": 1413,
  "ext/ht": 1414,
  "ext/htm": 1415,
  "ext/html": 1416,
  "xt/h": 1417,
  "xt/ht": 1418,
  "xt/htm": 1419,
  "xt/html": 1420,
  "t/h": 1421,
  "t/ht": 1422,
  "t/htm": 1423,
  "t/html": 1424,
  "/ht": 1425,
  "/htm": 1426,
  "/html": 1427,
  "l;q": 1428,
  "l;q<": 1429,
  "l;q<E": 1430,
  "l;q<ES": 1431,
  "l;q<ESC": 1432,
  "l;q<ESC_": 1433,
  "l;q<ESC_E": 1434,
  "l;q<ESC_EQ": 1435,
  "l;q<ESC_EQ>": 1436,
  "l;q<ESC_EQ>0": 1437,
  "l;q<ESC_EQ>0.": 1438,
  "ain": 1439,
  "n;": 1440,
  ";q<ESC_EQ>0.8,": 1441,
  "q<ESC_EQ>0.8,": 1442,
  "<ESC_EQ>0.8,": 1443,
  "ESC_EQ>0.8,": 1444,
  "SC_EQ>0.8,": 1445,
  "C_EQ>0.8,": 1446,
  "_EQ>0.8,": 1447,
  "EQ>0.8,": 1448,
  "Q>0.8,": 1449,
  ">0.8,": 1450,
  "0.8,": 1451,
  ".8,": 1452,
  "g,": 1453,
  "8;": 1454,
  ";q<ESC_EQ>0.5,": 1455,
  "q<ESC_EQ>0.5,": 1456,
  "<ESC_EQ>0.5,": 1457,
  "ESC_EQ>0.5,": 1458,
  "SC_EQ>0.5,": 1459,
  "C_EQ>0.5,": 1460,
  "_EQ>0.5,": 1461,
  "EQ>0.5,": 1462,
  "Q>0.5,": 1463,
  ">0.5,": 1464,
  "0.5,": 1465,
  ".5,": 1466,
  "5,": 1467,
  "SE": 1468,
  "SI": 1469,
  "/5.": 1470,
  "5.0": 1471,
  "Lin": 1472,
  "ik": 1473,
  "F": 1474,
  "/tie": 1475,
  "/tien": 1476,
  "/tiend": 1477,
  "/tienda": 1478,
  "/tienda1": 1479,
  "/tienda1/": 1480,
  "tien": 1481,
  "tiend": 1482,
  "tienda": 1483,
  "tienda1": 1484,
  "tienda1/": 1485,
  "iend": 1486,
  "ienda": 1487,
  "ienda1": 1488,
  "ienda1/": 1489,
  "end": 1490,
  "enda": 1491,
  "enda1": 1492,
  "enda1/": 1493,
  "nda": 1494,
  "nda1": 1495,
  "nda1/": 1496,
  "da1": 1497,
  "da1/": 1498,
  "a1": 1499,
  "a1/": 1500,
  "1/": 1501,
  "loc": 1502,
  "loca": 1503,
  "local": 1504,
  "localh": 1505,
  "localho": 1506,
  "localhos": 1507,
  "localhost": 1508,
  "localhost:": 1509,
  "localhost:8": 1510,
  "localhost:80": 1511,
  "localhost:808": 1512,
  "localhost:8080": 1513,
  "ocal": 1514,
  "ocalh": 1515,
  "ocalho": 1516,
  "ocalhos": 1517,
  "ocalhost": 1518,
  "ocalhost:": 1519,
  "ocalhost:8": 1520,
  "ocalhost:80": 1521,
  "ocalhost:808": 1522,
  "ocalhost:8080": 1523,
  "cal": 1524,
  "calh": 1525,
  "calho": 1526,
  "calhos": 1527,
  "calhost": 1528,
  "calhost:": 1529,
  "calhost:8": 1530,
  "calhost:80": 1531,
  "calhost:808": 1532,
  "calhost:8080": 1533,
  "alho": 1534,
  "alhos": 1535,
  "alhost": 1536,
  "alhost:": 1537,
  "alhost:8": 1538,
  "alhost:80": 1539,
  "alhost:808": 1540,
  "alhost:8080": 1541,
  "lhos": 1542,
  "lhost": 1543,
  "lhost:": 1544,
  "lhost:8": 1545,
  "lhost:80": 1546,
  "lhost:808": 1547,
  "lhost:8080": 1548,
  "hos": 1549,
  "host": 1550,
  "host:": 1551,
  "host:8": 1552,
  "host:80": 1553,
  "host:808": 1554,
  "host:8080": 1555,
  "ost:": 1556,
  "ost:8": 1557,
  "ost:80": 1558,
  "ost:808": 1559,
  "ost:8080": 1560,
  "st:": 1561,
  "st:8": 1562,
  "st:80": 1563,
  "st:808": 1564,
  "st:8080": 1565,
  "t:": 1566,
  "t:8": 1567,
  "t:80": 1568,
  "t:808": 1569,
  "t:8080": 1570,
  ":808": 1571,
  ":8080": 1572,
  "808": 1573,
  "8080": 1574,
  "080": 1575,
  "text/x": 1576,
  "text/xm": 1577,
  "text/xml": 1578,
  "text/xml,": 1579,
  "text/xml,a": 1580,
  "text/xml,ap": 1581,
  "text/xml,app": 1582,
  "text/xml,appl": 1583,
  "text/xml,appli": 1584,
  "text/xml,applic": 1585,
  "text/xml,applica": 1586,
  "ext/x": 1587,
  "ext/xm": 1588,
  "ext/xml": 1589,
  "ext/xml,": 1590,
  "ext/xml,a": 1591,
  "ext/xml,ap": 1592,
  "ext/xml,app": 1593,
  "ext/xml,appl": 1594,
  "ext/xml,appli": 1595,
  "ext/xml,applic": 1596,
  "ext/xml,applica": 1597,
  "ext/xml,applicat": 1598,
  "xt/x": 1599,
  "xt/xm": 1600,
  "xt/xml": 1601,
  "xt/xml,": 1602,
  "xt/xml,a": 1603,
  "xt/xml,ap": 1604,
  "xt/xml,app": 1605,
  "xt/xml,appl": 1606,
  "xt/xml,appli": 1607,
  "xt/xml,applic": 1608,
  "xt/xml,applica": 1609,
  "xt/xml,applicat": 1610,
  "xt/xml,applicati": 1611,
  "t/x": 1612,
  "t/xm": 1613,
  "t/xml": 1614,
  "t/xml,": 1615,
  "t/xml,a": 1616,
  "t/xml,ap": 1617,
  "t/xml,app": 1618,
  "t/xml,appl": 1619,
  "t/xml,appli": 1620,
  "t/xml,applic": 1621,
  "t/xml,applica": 1622,
  "t/xml,applicat": 1623,
  "t/xml,applicati": 1624,
  "t/xml,applicatio": 1625,
  "l,application/xm": 1626,
  ",application/xm": 1627,
  ",application/xml": 1628,
  "application/xm": 1629,
  "application/xml": 1630,
  "application/xml,": 1631,
  "pplication/xm": 1632,
  "pplication/xml": 1633,
  "pplication/xml,": 1634,
  "pplication/xml,a": 1635,
  "plication/xm": 1636,
  "plication/xml": 1637,
  "plication/xml,": 1638,
  "plication/xml,a": 1639,
  "plication/xml,ap": 1640,
  "lication/xm": 1641,
  "lication/xml": 1642,
  "lication/xml,": 1643,
  "lication/xml,a": 1644,
  "lication/xml,ap": 1645,
  "lication/xml,app": 1646,
  "ication/xm": 1647,
  "ication/xml": 1648,
  "ication/xml,": 1649,
  "ication/xml,a": 1650,
  "ication/xml,ap": 1651,
  "ication/xml,app": 1652,
  "ication/xml,appl": 1653,
  "cation/xm": 1654,
  "cation/xml": 1655,
  "cation/xml,": 1656,
  "cation/xml,a": 1657,
  "cation/xml,ap": 1658,
  "cation/xml,app": 1659,
  "cation/xml,appl": 1660,
  "cation/xml,appli": 1661,
  "ation/xm": 1662,
  "ation/xml": 1663,
  "ation/xml,": 1664,
  "ation/xml,a": 1665,
  "ation/xml,ap": 1666,
  "ation/xml,app": 1667,
  "ation/xml,appl": 1668,
  "ation/xml,appli": 1669,
  "ation/xml,applic": 1670,
  "tion/xm": 1671,
  "tion/xml": 1672,
  "tion/xml,": 1673,
  "tion/xml,a": 1674,
  "tion/xml,ap": 1675,
  "tion/xml,app": 1676,
  "tion/xml,appl": 1677,
  "tion/xml,appli": 1678,
  "tion/xml,applic": 1679,
  "tion/xml,applica": 1680,
  "ion/xm": 1681,
  "ion/xml": 1682,
  "ion/xml,": 1683,
  "ion/xml,a": 1684,
  "ion/xml,ap": 1685,
  "ion/xml,app": 1686,
  "ion/xml,appl": 1687,
  "ion/xml,appli": 1688,
  "ion/xml,applic": 1689,
  "ion/xml,applica": 1690,
  "ion/xml,applicat": 1691,
  "on/xm": 1692,
  "on/xml": 1693,
  "on/xml,": 1694,
  "on/xml,a": 1695,
  "on/xml,ap": 1696,
  "on/xml,app": 1697,
  "on/xml,appl": 1698,
  "on/xml,appli": 1699,
  "on/xml,applic": 1700,
  "on/xml,applica": 1701,
  "on/xml,applicat": 1702,
  "on/xml,applicati": 1703,
  "n/xm": 1704,
  "n/xml": 1705,
  "n/xml,": 1706,
  "n/xml,a": 1707,
  "n/xml,ap": 1708,
  "n/xml,app": 1709,
  "n/xml,appl": 1710,
  "n/xml,appli": 1711,
  "n/xml,applic": 1712,
  "n/xml,applica": 1713,
  "n/xml,applicat": 1714,
  "n/xml,applicati": 1715,
  "n/xml,applicatio": 1716,
  "l,application/xh": 1717,
  ",application/xh": 1718,
  ",application/xht": 1719,
  "application/xh": 1720,
  "application/xht": 1721,
  "application/xhtm": 1722,
  "pplication/xh": 1723,
  "pplication/xht": 1724,
  "pplication/xhtm": 1725,
  "pplication/xhtml": 1726,
  "plication/xh": 1727,
  "plication/xht": 1728,
  "plication/xhtm": 1729,
  "plication/xhtml": 1730,
  "plication/xhtml+": 1731,
  "lication/xh": 1732,
  "lication/xht": 1733,
  "lication/xhtm": 1734,
  "lication/xhtml": 1735,
  "lication/xhtml+": 1736,
  "lication/xhtml+x": 1737,
  "ication/xh": 1738,
  "ication/xht": 1739,
  "ication/xhtm": 1740,
  "ication/xhtml": 1741,
  "ication/xhtml+": 1742,
  "ication/xhtml+x": 1743,
  "ication/xhtml+xm": 1744,
  "cation/xh": 1745,
  "cation/xht": 1746,
  "cation/xhtm": 1747,
  "cation/xhtml": 1748,
  "cation/xhtml+": 1749,
  "cation/xhtml+x": 1750,
  "cation/xhtml+xm": 1751,
  "cation/xhtml+xml": 1752,
  "ation/xh": 1753,
  "ation/xht": 1754,
  "ation/xhtm": 1755,
  "ation/xhtml": 1756,
  "ation/xhtml+": 1757,
  "ation/xhtml+x": 1758,
  "ation/xhtml+xm": 1759,
  "ation/xhtml+xml": 1760,
  "ation/xhtml+xml,": 1761,
  "tion/xh": 1762,
  "tion/xht": 1763,
  "tion/xhtm": 1764,
  "tion/xhtml": 1765,
  "tion/xhtml+": 1766,
  "tion/xhtml+x": 1767,
  "tion/xhtml+xm": 1768,
  "tion/xhtml+xml": 1769,
  "tion/xhtml+xml,": 1770,
  "tion/xhtml+xml,t": 1771,
  "ion/xh": 1772,
  "ion/xht": 1773,
  "ion/xhtm": 1774,
  "ion/xhtml": 1775,
  "ion/xhtml+": 1776,
  "ion/xhtml+x": 1777,
  "ion/xhtml+xm": 1778,
  "ion/xhtml+xml": 1779,
  "ion/xhtml+xml,": 1780,
  "ion/xhtml+xml,t": 1781,
  "ion/xhtml+xml,te": 1782,
  "on/xh": 1783,
  "on/xht": 1784,
  "on/xhtm": 1785,
  "on/xhtml": 1786,
  "on/xhtml+": 1787,
  "on/xhtml+x": 1788,
  "on/xhtml+xm": 1789,
  "on/xhtml+xml": 1790,
  "on/xhtml+xml,": 1791,
  "on/xhtml+xml,t": 1792,
  "on/xhtml+xml,te": 1793,
  "on/xhtml+xml,tex": 1794,
  "n/xh": 1795,
  "n/xht": 1796,
  "n/xhtm": 1797,
  "n/xhtml": 1798,
  "n/xhtml+": 1799,
  "n/xhtml+x": 1800,
  "n/xhtml+xm": 1801,
  "n/xhtml+xml": 1802,
  "n/xhtml+xml,": 1803,
  "n/xhtml+xml,t": 1804,
  "n/xhtml+xml,te": 1805,
  "n/xhtml+xml,tex": 1806,
  "n/xhtml+xml,text": 1807,
  "/xh": 1808,
  "/xht": 1809,
  "/xhtm": 1810,
  "/xhtml": 1811,
  "/xhtml+": 1812,
  "/xhtml+x": 1813,
  "/xhtml+xm": 1814,
  "/xhtml+xml": 1815,
  "/xhtml+xml,": 1816,
  "/xhtml+xml,t": 1817,
  "/xhtml+xml,te": 1818,
  "/xhtml+xml,tex": 1819,
  "/xhtml+xml,text": 1820,
  "/xhtml+xml,text/": 1821,
  "xh": 1822,
  "xht": 1823,
  "xhtm": 1824,
  "xhtml": 1825,
  "xhtml+": 1826,
  "xhtml+x": 1827,
  "xhtml+xm": 1828,
  "xhtml+xml": 1829,
  "xhtml+xml,": 1830,
  "xhtml+xml,t": 1831,
  "xhtml+xml,te": 1832,
  "xhtml+xml,tex": 1833,
  "xhtml+xml,text": 1834,
  "xhtml+xml,text/": 1835,
  "xhtml+xml,text/h": 1836,
  "html+": 1837,
  "html+x": 1838,
  "html+xm": 1839,
  "html+xml": 1840,
  "html+xml,": 1841,
  "html+xml,t": 1842,
  "html+xml,te": 1843,
  "html+xml,tex": 1844,
  "html+xml,text": 1845,
  "html+xml,text/": 1846,
  "html+xml,text/h": 1847,
  "html+xml,text/ht": 1848,
  "tml+": 1849,
  "tml+x": 1850,
  "tml+xm": 1851,
  "tml+xml": 1852,
  "tml+xml,": 1853,
  "tml+xml,t": 1854,
  "tml+xml,te": 1855,
  "tml+xml,tex": 1856,
  "tml+xml,text": 1857,
  "tml+xml,text/": 1858,
  "tml+xml,text/h": 1859,
  "tml+xml,text/ht": 1860,
  "tml+xml,text/htm": 1861,
  "ml+": 1862,
  "ml+x": 1863,
  "ml+xm": 1864,
  "ml+xml": 1865,
  "ml+xml,": 1866,
  "ml+xml,t": 1867,
  "ml+xml,te": 1868,
  "ml+xml,tex": 1869,
  "ml+xml,text": 1870,
  "ml+xml,text/": 1871,
  "ml+xml,text/h": 1872,
  "ml+xml,text/ht": 1873,
  "ml+xml,text/htm": 1874,
  "ml+xml,text/html": 1875,
  "l+x": 1876,
  "l+xm": 1877,
  "l+xml": 1878,
  "l+xml,": 1879,
  "l+xml,t": 1880,
  "l+xml,te": 1881,
  "l+xml,tex": 1882,
  "l+xml,text": 1883,
  "l+xml,text/": 1884,
  "l+xml,text/h": 1885,
  "l+xml,text/ht": 1886,
  "l+xml,text/htm": 1887,
  "l+xml,text/html": 1888,
  "l+xml,text/html;": 1889,
  "+x": 1890,
  "+xm": 1891,
  "+xml": 1892,
  "+xml,": 1893,
  "+xml,t": 1894,
  "+xml,te": 1895,
  "+xml,tex": 1896,
  "+xml,text": 1897,
  "+xml,text/": 1898,
  "+xml,text/h": 1899,
  "+xml,text/ht": 1900,
  "+xml,text/htm": 1901,
  "+xml,text/html": 1902,
  "+xml,text/html;": 1903,
  "+xml,text/html;q": 1904,
  "xml,t": 1905,
  "xml,te": 1906,
  "xml,tex": 1907,
  "xml,text": 1908,
  "xml,text/": 1909,
  "xml,text/h": 1910,
  "xml,text/ht": 1911,
  "xml,text/htm": 1912,
  "xml,text/html": 1913,
  "xml,text/html;": 1914,
  "xml,text/html;q": 1915,
  "xml,text/html;q<": 1916,
  "ml,t": 1917,
  "ml,te": 1918,
  "ml,tex": 1919,
  "ml,text": 1920,
  "ml,text/": 1921,
  "ml,text/h": 1922,
  "ml,text/ht": 1923,
  "ml,text/htm": 1924,
  "ml,text/html": 1925,
  "ml,text/html;": 1926,
  "ml,text/html;q": 1927,
  "ml,text/html;q<": 1928,
  "ml,text/html;q<E": 1929,
  "l,t": 1930,
  "l,te": 1931,
  "l,tex": 1932,
  "l,text": 1933,
  "l,text/": 1934,
  "l,text/h": 1935,
  "l,text/ht": 1936,
  "l,text/htm": 1937,
  "l,text/html": 1938,
  "l,text/html;": 1939,
  "l,text/html;q": 1940,
  "l,text/html;q<": 1941,
  "l,text/html;q<E": 1942,
  "l,text/html;q<ES": 1943,
  ",text/h": 1944,
  ",text/ht": 1945,
  ",text/htm": 1946,
  ",text/html": 1947,
  ",text/html;": 1948,
  ",text/html;q": 1949,
  ",text/html;q<": 1950,
  ",text/html;q<E": 1951,
  ",text/html;q<ES": 1952,
  ",text/html;q<ESC": 1953,
  "text/html;": 1954,
  "text/html;q": 1955,
  "text/html;q<": 1956,
  "text/html;q<E": 1957,
  "text/html;q<ES": 1958,
  "text/html;q<ESC": 1959,
  "text/html;q<ESC_": 1960,
  "ext/html;": 1961,
  "ext/html;q": 1962,
  "ext/html;q<": 1963,
  "ext/html;q<E": 1964,
  "ext/html;q<ES": 1965,
  "ext/html;q<ESC": 1966,
  "ext/html;q<ESC_": 1967,
  "ext/html;q<ESC_E": 1968,
  "xt/html;": 1969,
  "xt/html;q": 1970,
  "xt/html;q<": 1971,
  "xt/html;q<E": 1972,
  "xt/html;q<ES": 1973,
  "xt/html;q<ESC": 1974,
  "xt/html;q<ESC_": 1975,
  "xt/html;q<ESC_E": 1976,
  "xt/html;q<ESC_EQ": 1977,
  "t/html;": 1978,
  "t/html;q": 1979,
  "t/html;q<": 1980,
  "t/html;q<E": 1981,
  "t/html;q<ES": 1982,
  "t/html;q<ESC": 1983,
  "t/html;q<ESC_": 1984,
  "t/html;q<ESC_E": 1985,
  "t/html;q<ESC_EQ": 1986,
  "t/html;q<ESC_EQ>": 1987,
  "/html;": 1988,
  "/html;q": 1989,
  "/html;q<": 1990,
  "/html;q<E": 1991,
  "/html;q<ES": 1992,
  "/html;q<ESC": 1993,
  "/html;q<ESC_": 1994,
  "/html;q<ESC_E": 1995,
  "/html;q<ESC_EQ": 1996,
  "/html;q<ESC_EQ>": 1997,
  "/html;q<ESC_EQ>0": 1998,
  "html;": 1999,
  "html;q": 2000,
  "html;q<": 2001,
  "html;q<E": 2002,
  "html;q<ES": 2003,
  "html;q<ESC": 2004,
  "html;q<ESC_": 2005,
  "html;q<ESC_E": 2006,
  "html;q<ESC_EQ": 2007,
  "html;q<ESC_EQ>": 2008,
  "html;q<ESC_EQ>0": 2009,
  "html;q<ESC_EQ>0.": 2010,
  "tml;": 2011,
  "tml;q": 2012,
  "tml;q<": 2013,
  "tml;q<E": 2014,
  "tml;q<ES": 2015,
  "tml;q<ESC": 2016,
  "tml;q<ESC_": 2017,
  "tml;q<ESC_E": 2018,
  "tml;q<ESC_EQ": 2019,
  "tml;q<ESC_EQ>": 2020,
  "tml;q<ESC_EQ>0": 2021,
  "tml;q<ESC_EQ>0.": 2022,
  "tml;q<ESC_EQ>0.9": 2023,
  "ml;": 2024,
  "ml;q": 2025,
  "ml;q<": 2026,
  "ml;q<E": 2027,
  "ml;q<ES": 2028,
  "ml;q<ESC": 2029,
  "ml;q<ESC_": 2030,
  "ml;q<ESC_E": 2031,
  "ml;q<ESC_EQ": 2032,
  "ml;q<ESC_EQ>": 2033,
  "ml;q<ESC_EQ>0": 2034,
  "ml;q<ESC_EQ>0.": 2035,
  "ml;q<ESC_EQ>0.9": 2036,
  "ml;q<ESC_EQ>0.9,": 2037,
  "l;q<ESC_EQ>0.9": 2038,
  "l;q<ESC_EQ>0.9,": 2039,
  "l;q<ESC_EQ>0.9,t": 2040,
  ";q<ESC_EQ>0.9,t": 2041,
  ";q<ESC_EQ>0.9,te": 2042,
  "q<ESC_EQ>0.9,t": 2043,
  "q<ESC_EQ>0.9,te": 2044,
  "q<ESC_EQ>0.9,tex": 2045,
  "<ESC_EQ>0.9,t": 2046,
  "<ESC_EQ>0.9,te": 2047
}