{
  "version": "1.0",
  "truncation": null,
  "padding": null,
  "added_tokens": [
    {
      "id": 0,
      "content": "[PAD]",
      "single_word": false,
      "lstrip": false,
      "rstrip": false,
      "normalized": false,
      "special": true
    },
    {
      "id": 1,
      "content": "[UNK]",
      "single_word": false,
      "lstrip": false,
      "rstrip": false,
      "normalized": false,
      "special": true
    },
    {
      "id": 2,
      "content": "[CLS]",
      "single_word": false,
      "lstrip": false,
      "rstrip": false,
      "normalized": false,
      "special": true
    },
    {
      "id": 3,
      "content": "[SEP]",
      "single_word": false,
      "lstrip": false,
      "rstrip": false,
      "normalized": false,
      "special": true
    },
    {
      "id": 4,
      "content": "[MASK]",
      "single_word": false,
      "lstrip": false,
      "rstrip": false,
      "normalized": false,
      "special": true
    }
  ],
  "normalizer": {
    "type": "NFKC"
  },
  "pre_tokenizer": {
    "type": "Whitespace"
  },
  "post_processor": null,
  "decoder": null,
  "model": {
    "type": "Unigram",
    "unk_id": null,
    "vocab": [
      [
        "[PAD]",
        0.0
      ],
      [
        "[UNK]",
        0.0
      ],
      [
        "[CLS]",
        0.0
      ],
      [
        "[SEP]",
        0.0
      ],
      [
        "[MASK]",
        0.0
      ],
      [
        ">",
        -3.5083677930206587
      ],
      [
        "<",
        -3.5083677930206587
      ],
      [
        "=",
        -3.557158195286103
      ],
      [
        "SEP",
        -3.608619072818353
      ],
      [
        "k",
        -3.872535761785411
      ],
      [
        "S",
        -3.8843054820685303
      ],
      [
        "1",
        -3.901931832895519
      ],
      [
        "7",
        -3.9351704738377116
      ],
      [
        "2",
        -3.938920511226083
      ],
      [
        "4",
        -3.9419137894370593
      ],
      [
        "E",
        -3.9514673633684954
      ],
      [
        "P",
        -3.955463053562191
      ],
      [
        "5",
        -4.012609564297287
      ],
      [
        "9",
        -4.046041589481115
      ],
      [
        "3",
        -4.057975276662535
      ],
      [
        "6",
        -4.179112595495365
      ],
      [
        "8",
        -4.246212812797696
      ],
      [
        "t",
        -4.254022994111654
      ],
      [
        "0",
        -4.370500745951388
      ],
      [
        "i",
        -4.375055318694814
      ],
      [
        "s",
        -4.604816803105653
      ],
      [
        "F",
        -4.649964604974896
      ],
      [
        "O",
        -4.709675556444445
      ],
      [
        "y",
        -4.725495839618526
      ],
      [
        "j",
        -4.729209794954009
      ],
      [
        "n",
        -4.78024189087871
      ],
      [
        "x",
        -4.903720662359749
      ],
      [
        "H",
        -5.072109508876192
      ],
      [
        "u",
        -5.157200650188827
      ],
      [
        "d",
        -5.192544990709186
      ],
      [
        "R",
        -5.192918248518993
      ],
      [
        "Z",
        -5.194666819817746
      ],
      [
        "r",
        -5.226018492049558
      ],
      [
        "M",
        -5.258784856786908
      ],
      [
        "X",
        -5.315119004851947
      ],
      [
        "z",
        -5.317134698917071
      ],
      [
        "m",
        -5.33255110714213
      ],
      [
        "p",
        -5.346670032819809
      ],
      [
        "l",
        -5.370805322413503
      ],
      [
        "V",
        -5.398055216915081
      ],
      [
        "f",
        -5.430190428589352
      ],
      [
        "K",
        -5.445787105435791
      ],
      [
        "L",
        -5.475743701652897
      ],
      [
        "a",
        -5.499716598777853
      ],
      [
        "c",
        -5.52496680565163
      ],
      [
        "W",
        -5.54720481480485
      ],
      [
        "h",
        -5.560017162820898
      ],
      [
        "e",
        -5.56430363562454
      ],
      [
        "I",
        -5.567474443376183
      ],
      [
        "G",
        -5.57425016476544
      ],
      [
        "D",
        -5.579004728557271
      ],
      [
        "Q",
        -5.595426012592524
      ],
      [
        "g",
        -5.617119099175255
      ],
      [
        "B",
        -5.640137111053393
      ],
      [
        "J",
        -5.642067388158653
      ],
      [
        "T",
        -5.65383701448952
      ],
      [
        "A",
        -5.700119666635903
      ],
      [
        "U",
        -5.716273583013718
      ],
      [
        "b",
        -5.730613557761059
      ],
      [
        "w",
        -5.742222644234552
      ],
      [
        "Y",
        -5.744373985686726
      ],
      [
        "N",
        -5.746173090391649
      ],
      [
        "C",
        -5.757996015373298
      ],
      [
        "v",
        -5.807569058351627
      ],
      [
        "q",
        -5.859494616795411
      ],
      [
        "o",
        -5.86261115892051
      ],
      [
        "k1",
        -6.460574736137149
      ],
      [
        "k0",
        -6.49252015997131
      ],
      [
        "k6",
        -6.509665551147863
      ],
      [
        "k8",
        -6.511139143007616
      ],
      [
        "sig",
        -6.549217893288047
      ],
      [
        "REC",
        -6.549573983085869
      ],
      [
        "END",
        -6.550371385869553
      ],
      [
        "nal",
        -6.551133756399151
      ],
      [
        "k9",
        -6.552927708591291
      ],
      [
        "_",
        -6.552985472165094
      ],
      [
        "k3",
        -6.556206627591937
      ],
      [
        "k5",
        -6.566922460322154
      ],
      [
        "k18",
        -6.567663344814955
      ],
      [
        "k16",
        -6.568449433914276
      ],
      [
        "k13",
        -6.570785323225019
      ],
      [
        "k19",
        -6.573540928153577
      ],
      [
        "k15",
        -6.5737721322553195
      ],
      [
        "k12",
        -6.574948869971621
      ],
      [
        "k14",
        -6.575076293131401
      ],
      [
        "k11",
        -6.575372908525253
      ],
      [
        "k17",
        -6.5761953546800385
      ],
      [
        "k7",
        -6.5844100960121335
      ],
      [
        "k2",
        -6.596373263276158
      ],
      [
        "k4",
        -6.606101419312797
      ],
      [
        "bZ",
        -8.504516011024855
      ],
      [
        "vF",
        -8.524734990232991
      ],
      [
        "hR",
        -8.53566768306976
      ],
      [
        "bF",
        -8.554357481663466
      ],
      [
        "UR",
        -8.555273077390925
      ],
      [
        "hd",
        -8.560008433606306
      ],
      [
        "o8",
        -8.560426184273874
      ],
      [
        "UF",
        -8.56085438651083
      ],
      [
        "h8",
        -8.567268114036883
      ],
      [
        "hQ",
        -8.571957704852904
      ],
      [
        "oa",
        -8.573961070998863
      ],
      [
        "Gx",
        -8.57627706326242
      ],
      [
        "Ut",
        -8.578800896776869
      ],
      [
        "Cx",
        -8.57890328183699
      ],
      [
        "Ui",
        -8.580193351958023
      ],
      [
        "AF",
        -8.58133541262521
      ],
      [
        "Di",
        -8.581670933083402
      ],
      [
        "Gd",
        -8.582098461000903
      ],
      [
        "zF",
        -8.58358186885581
      ],
      [
        "TF",
        -8.585699429829146
      ],
      [
        "mW",
        -8.586338817795355
      ],
      [
        "h0",
        -8.586375377622002
      ],
      [
        "bY",
        -8.587145567483033
      ],
      [
        "lF",
        -8.587491576130068
      ],
      [
        "hf",
        -8.5875960527799
      ],
      [
        "hN",
        -8.587778705057683
      ],
      [
        "bi",
        -8.588750987655077
      ],
      [
        "bd",
        -8.588792760380443
      ],
      [
        "va",
        -8.589277147908305
      ],
      [
        "hr",
        -8.589979463858658
      ],
      [
        "l0",
        -8.592575203364579
      ],
      [
        "W8",
        -8.5929053597436
      ],
      [
        "Td",
        -8.593303734087513
      ],
      [
        "vr",
        -8.594975868375716
      ],
      [
        "Gi",
        -8.594982702345181
      ],
      [
        "cy",
        -8.595639124834964
      ],
      [
        "L0",
        -8.595751155258501
      ],
      [
        "c8",
        -8.595805778861045
      ],
      [
        "I6",
        -8.596614177499383
      ],
      [
        "my",
        -8.597246512553722
      ],
      [
        "gJ",
        -8.598261908323739
      ],
      [
        "ld",
        -8.598966203107569
      ],
      [
        "LF",
        -8.601305416030563
      ],
      [
        "Ux",
        -8.601383753347555
      ],
      [
        "h6",
        -8.601850926156004
      ],
      [
        "T8",
        -8.60191020770121
      ],
      [
        "DF",
        -8.602327000648259
      ],
      [
        "qr",
        -8.602822418038297
      ],
      [
        "KF",
        -8.603162965191963
      ],
      [
        "vx",
        -8.603716573094081
      ],
      [
        "oc",
        -8.603909719029811
      ],
      [
        "gV",
        -8.605130698581956
      ],
      [
        "Uy",
        -8.606357221958598
      ],
      [
        "py",
        -8.606368591367646
      ],
      [
        "p8",
        -8.607419810228855
      ],
      [
        "vu",
        -8.607760831660979
      ],
      [
        "c0",
        -8.608404500406316
      ],
      [
        "Ny",
        -8.608560038648616
      ],
      [
        "gd",
        -8.609221184823856
      ],
      [
        "GF",
        -8.609399863750419
      ],
      [
        "hF",
        -8.609729945202254
      ],
      [
        "hH",
        -8.611342136219832
      ],
      [
        "vR",
        -8.611510571510141
      ],
      [
        "ha",
        -8.611914037627624
      ],
      [
        "gx",
        -8.612121777008937
      ],
      [
        "Aw",
        -8.613242863135437
      ],
      [
        "V8",
        -8.613476367137093
      ],
      [
        "J8",
        -8.613662012345326
      ],
      [
        "MF",
        -8.61411697975485
      ],
      [
        "Ky",
        -8.614179849536953
      ],
      [
        "C8",
        -8.615130098218462
      ],
      [
        "vf",
        -8.61518436173925
      ],
      [
        "IZ",
        -8.615185149125576
      ],
      [
        "qX",
        -8.61528588306917
      ],
      [
        "Qe",
        -8.616025699406784
      ],
      [
        "Bf",
        -8.616479299104075
      ],
      [
        "vZ",
        -8.61692000762971
      ],
      [
        "UZ",
        -8.616998398607933
      ],
      [
        "hi",
        -8.61736709032812
      ],
      [
        "CB",
        -8.617645266548587
      ],
      [
        "uF",
        -8.617771971108942
      ],
      [
        "CO",
        -8.617844992856705
      ],
      [
        "uf",
        -8.617921726316922
      ],
      [
        "A8",
        -8.618488452504248
      ],
      [
        "Um",
        -8.618568179964207
      ],
      [
        "fx",
        -8.618601227144293
      ],
      [
        "hX",
        -8.618875479107283
      ],
      [
        "pr",
        -8.619096115592232
      ],
      [
        "Hn",
        -8.619704925497217
      ],
      [
        "Ir",
        -8.619833618927375
      ],
      [
        "G6",
        -8.620064314455366
      ],
      [
        "lH",
        -8.62021921142929
      ],
      [
        "g6",
        -8.620755741330834
      ],
      [
        "UQ",
        -8.62094203467432
      ],
      [
        "BZ",
        -8.621627597425483
      ],
      [
        "Vr",
        -8.621974914723578
      ],
      [
        "vm",
        -8.622229833457332
      ],
      [
        "pB",
        -8.622305118367047
      ],
      [
        "pi",
        -8.622722446951173
      ],
      [
        "vi",
        -8.62277343181905
      ],
      [
        "GX",
        -8.62320838839232
      ],
      [
        "Ad",
        -8.623594444523214
      ],
      [
        "c6",
        -8.623973326127285
      ],
      [
        "hC",
        -8.624518050597585
      ],
      [
        "oZ",
        -8.624695545128393
      ],
      [
        "Q6",
        -8.62517066616566
      ],
      [
        "Ua",
        -8.62526759320447
      ],
      [
        "o6",
        -8.62547693387469
      ],
      [
        "nr",
        -8.62576600948508
      ],
      [
        "UM",
        -8.626137249479587
      ],
      [
        "zK",
        -8.62649462461616
      ],
      [
        "lx",
        -8.62668801567522
      ],
      [
        "QW",
        -8.627014310217373
      ],
      [
        "nZ",
        -8.627254859347065
      ],
      [
        "LZ",
        -8.627327642430064
      ],
      [
        "eT",
        -8.627447370235863
      ],
      [
        "G8",
        -8.62758305492433
      ],
      [
        "C0",
        -8.62759025059755
      ],
      [
        "Lu",
        -8.627674130445467
      ],
      [
        "Ug",
        -8.627699712052383
      ],
      [
        "ba",
        -8.627952003680573
      ],
      [
        "vo",
        -8.627996458730301
      ],
      [
        "Ki",
        -8.628236896028568
      ],
      [
        "U0",
        -8.628606659748252
      ],
      [
        "JH",
        -8.628753127110372
      ],
      [
        "LW",
        -8.62888121621349
      ],
      [
        "AA",
        -8.628886977098123
      ],
      [
        "YL",
        -8.629008983174806
      ],
      [
        "B8",
        -8.629390296833037
      ],
      [
        "qZ",
        -8.629600974095894
      ],
      [
        "N0",
        -8.62990145436105
      ],
      [
        "Cw",
        -8.630294376026932
      ],
      [
        "vw",
        -8.630361101239613
      ],
      [
        "Ga",
        -8.630561235089655
      ],
      [
        "ur",
        -8.631092222803538
      ],
      [
        "hp",
        -8.631094267554296
      ],
      [
        "DB",
        -8.631236215904352
      ],
      [
        "lz",
        -8.632303732962225
      ],
      [
        "q0",
        -8.632722809707039
      ],
      [
        "VF",
        -8.633930552133396
      ],
      [
        "IF",
        -8.634209052861674
      ],
      [
        "Jx",
        -8.634332187650354
      ],
      [
        "Up",
        -8.634509292919496
      ],
      [
        "AZ",
        -8.635059568682795
      ],
      [
        "hM",
        -8.636219033625563
      ],
      [
        "wH",
        -8.636781067823469
      ],
      [
        "qQ",
        -8.63683977427472
      ],
      [
        "Vc",
        -8.636920983792528
      ],
      [
        "fF",
        -8.63716398526223
      ],
      [
        "qu",
        -8.637984944445758
      ],
      [
        "ww",
        -8.638285886269236
      ],
      [
        "Y8",
        -8.6386050803855
      ],
      [
        "hB",
        -8.638796543122215
      ],
      [
        "Ca",
        -8.639587581482907
      ],
      [
        "N8",
        -8.639805436071974
      ],
      [
        "D8",
        -8.639913658860515
      ],
      [
        "qd",
        -8.640439770717066
      ],
      [
        "sB",
        -8.64070924387161
      ],
      [
        "TO",
        -8.641069193362153
      ],
      [
        "em",
        -8.641542940160356
      ],
      [
        "gi",
        -8.6419488340317
      ],
      [
        "hh",
        -8.642169114455056
      ],
      [
        "g8",
        -8.642590218558531
      ],
      [
        "Iy",
        -8.642662922247837
      ],
      [
        "o0",
        -8.643367295171966
      ],
      [
        "gz",
        -8.643505340069023
      ],
      [
        "qN",
        -8.644066689235514
      ],
      [
        "hL",
        -8.644082696969233
      ],
      [
        "QL",
        -8.644284296433044
      ],
      [
        "cd",
        -8.644332917065697
      ],
      [
        "vs",
        -8.64451668402668
      ],
      [
        "Np",
        -8.644553553427798
      ],
      [
        "ay",
        -8.644916630184426
      ],
      [
        "Ar",
        -8.64494492935835
      ],
      [
        "gR",
        -8.645593470989798
      ],
      [
        "aR",
        -8.645861572435827
      ],
      [
        "vy",
        -8.646106176342638
      ],
      [
        "Ya",
        -8.646278238634551
      ],
      [
        "gf",
        -8.646438297994996
      ],
      [
        "RF",
        -8.646587117726213
      ],
      [
        "Jr",
        -8.647582315508878
      ],
      [
        "T6",
        -8.648160169430746
      ],
      [
        "D0",
        -8.64819380884261
      ],
      [
        "CT",
        -8.648217232505598
      ],
      [
        "qF",
        -8.64832386537923
      ],
      [
        "Qx",
        -8.64842351786735
      ],
      [
        "mO",
        -8.648488636503547
      ],
      [
        "mB",
        -8.648631161167904
      ],
      [
        "Zr",
        -8.648634387020849
      ],
      [
        "Xd",
        -8.648643320223387
      ],
      [
        "ud",
        -8.649505683614104
      ],
      [
        "N6",
        -8.64957756228167
      ],
      [
        "Br",
        -8.649636540562316
      ],
      [
        "UT",
        -8.649815027594892
      ],
      [
        "U6",
        -8.650074462212851
      ],
      [
        "oy",
        -8.650354129042752
      ],
      [
        "vv",
        -8.650495480702036
      ],
      [
        "a8",
        -8.650532898004485
      ],
      [
        "qH",
        -8.650652814382376
      ],
      [
        "UW",
        -8.651029400204195
      ],
      [
        "AT",
        -8.651224365536807
      ],
      [
        "Qd",
        -8.65134842771736
      ],
      [
        "cr",
        -8.651426014948768
      ],
      [
        "Yd",
        -8.652140159743801
      ],
      [
        "di",
        -8.65264006273755
      ],
      [
        "vX",
        -8.65270319468262
      ],
      [
        "vd",
        -8.652867139424838
      ],
      [
        "hJ",
        -8.65290312761579
      ],
      [
        "vL",
        -8.652993110601997
      ],
      [
        "qB",
        -8.653010470200432
      ],
      [
        "Vm",
        -8.653282526027187
      ],
      [
        "Hf",
        -8.653351780693097
      ],
      [
        "gy",
        -8.653386993263409
      ],
      [
        "mH",
        -8.653648825707736
      ],
      [
        "Tr",
        -8.653730064833942
      ],
      [
        "w8",
        -8.653730260131189
      ],
      [
        "vO",
        -8.65373840400186
      ],
      [
        "zd",
        -8.6540364802078
      ],
      [
        "hK",
        -8.654111230140472
      ],
      [
        "Nn",
        -8.655029313397208
      ],
      [
        "La",
        -8.65513219640362
      ],
      [
        "br",
        -8.655431973430984
      ],
      [
        "eR",
        -8.655758797425513
      ],
      [
        "QR",
        -8.655785995950595
      ],
      [
        "UB",
        -8.655939921023208
      ],
      [
        "qc",
        -8.655974755638717
      ],
      [
        "Rd",
        -8.656314369038896
      ],
      [
        "gr",
        -8.656508894498899
      ],
      [
        "nX",
        -8.656587884356297
      ],
      [
        "bz",
        -8.65668543940017
      ],
      [
        "YC",
        -8.656707248257558
      ],
      [
        "Kt",
        -8.65687835895414
      ],
      [
        "bD",
        -8.656899605624421
      ],
      [
        "zH",
        -8.657100486857985
      ],
      [
        "cJ",
        -8.657193190273425
      ],
      [
        "hV",
        -8.657353401540743
      ],
      [
        "B0",
        -8.65736543219113
      ],
      [
        "UJ",
        -8.6575512438001
      ],
      [
        "Qu",
        -8.657779727173924
      ],
      [
        "fa",
        -8.65781303974765
      ],
      [
        "V0",
        -8.657814615978769
      ],
      [
        "Ur",
        -8.657946009093124
      ],
      [
        "Ub",
        -8.657969350487363
      ],
      [
        "CF",
        -8.657972929407137
      ],
      [
        "nx",
        -8.658153934873987
      ],
      [
        "hW",
        -8.658170273210313
      ],
      [
        "lG",
        -8.658555684693022
      ],
      [
        "TW",
        -8.658960394343417
      ],
      [
        "ho",
        -8.659236467774267
      ],
      [
        "pR",
        -8.659418375755244
      ],
      [
        "bW",
        -8.659552403110414
      ],
      [
        "Md",
        -8.65959618549973
      ],
      [
        "Na",
        -8.659606240210525
      ],
      [
        "oq",
        -8.659711731042673
      ],
      [
        "Nv",
        -8.659735545928168
      ],
      [
        "Nd",
        -8.659858463731048
      ],
      [
        "Mj",
        -8.659929079053473
      ],
      [
        "A0",
        -8.660064387027948
      ],
      [
        "wd",
        -8.660521334507377
      ],
      [
        "LB",
        -8.66054175351394
      ],
      [
        "ga",
        -8.660670014364685
      ],
      [
        "U8",
        -8.660681139916282
      ],
      [
        "uy",
        -8.660856389050814
      ],
      [
        "ec",
        -8.660919186648592
      ],
      [
        "hv",
        -8.661086779068338
      ],
      [
        "Ul",
        -8.6613056552572
      ],
      [
        "pd",
        -8.661372533866198
      ],
      [
        "Ji",
        -8.661474680915026
      ],
      [
        "Ax",
        -8.661630521594747
      ],
      [
        "pb",
        -8.66208412565097
      ],
      [
        "ed",
        -8.662107596032676
      ],
      [
        "Ud",
        -8.662440927601887
      ],
      [
        "ow",
        -8.662978410267385
      ],
      [
        "Ld",
        -8.663231430259044
      ],
      [
        "VW",
        -8.663293398941764
      ],
      [
        "v8",
        -8.663641546379226
      ],
      [
        "vY",
        -8.664062674889283
      ],
      [
        "Mr",
        -8.664423798892589
      ],
      [
        "zx",
        -8.6644551483584
      ],
      [
        "qR",
        -8.664526106866935
      ],
      [
        "CH",
        -8.664676413497236
      ],
      [
        "sr",
        -8.664857863666299
      ],
      [
        "CD",
        -8.664909887008669
      ],
      [
        "Nt",
        -8.664927571185245
      ],
      [
        "GJ",
        -8.665032704926151
      ],
      [
        "NW",
        -8.66510181273474
      ],
      [
        "CZ",
        -8.665113445857024
      ],
      [
        "qy",
        -8.665163121207154
      ],
      [
        "Ai",
        -8.665173433872779
      ],
      [
        "gs",
        -8.665311536849146
      ],
      [
        "h5",
        -8.665440483337466
      ],
      [
        "AH",
        -8.66551814365149
      ],
      [
        "oj",
        -8.665674453360456
      ],
      [
        "At",
        -8.66584954715869
      ],
      [
        "WH",
        -8.665922610117057
      ],
      [
        "wi",
        -8.666172053142258
      ],
      [
        "Ge",
        -8.666232058812078
      ],
      [
        "ws",
        -8.666280843956045
      ],
      [
        "lM",
        -8.666409189059113
      ],
      [
        "ex",
        -8.666424137342375
      ],
      [
        "hy",
        -8.666505126331518
      ],
      [
        "WI",
        -8.666667236375801
      ],
      [
        "co",
        -8.666704561918976
      ],
      [
        "hz",
        -8.666802805419668
      ],
      [
        "wW",
        -8.666830788485907
      ],
      [
        "ov",
        -8.666838089707877
      ],
      [
        "Jd",
        -8.666865353198407
      ],
      [
        "Ns",
        -8.66716566038275
      ],
      [
        "Cr",
        -8.667250083398002
      ],
      [
        "cL",
        -8.667506505617649
      ],
      [
        "MA",
        -8.667880396888773
      ],
      [
        "wB",
        -8.667887173036405
      ],
      [
        "pY",
        -8.667959565506612
      ],
      [
        "Od",
        -8.66800723470339
      ],
      [
        "xa",
        -8.668043098027482
      ],
      [
        "cq",
        -8.668066630097
      ],
      [
        "Cu",
        -8.668079098650338
      ],
      [
        "Zd",
        -8.66832447622027
      ],
      [
        "Un",
        -8.668392235111998
      ],
      [
        "ZF",
        -8.668461621563413
      ],
      [
        "zX",
        -8.668619861889756
      ],
      [
        "cR",
        -8.66874961910868
      ],
      [
        "vW",
        -8.668777297836616
      ],
      [
        "qi",
        -8.668841161141952
      ],
      [
        "Ng",
        -8.668842664037157
      ],
      [
        "oz",
        -8.669101330351133
      ],
      [
        "BF",
        -8.669445641479664
      ],
      [
        "DR",
        -8.669501139306348
      ],
      [
        "LH",
        -8.669555560642667
      ],
      [
        "cf",
        -8.669665630554782
      ],
      [
        "zW",
        -8.669727490258744
      ],
      [
        "Gr",
        -8.669848223420626
      ],
      [
        "W6",
        -8.670194458981067
      ],
      [
        "ma",
        -8.670228499724427
      ],
      [
        "ze",
        -8.670269760779588
      ],
      [
        "KH",
        -8.670281898010877
      ],
      [
        "YZ",
        -8.67034135615496
      ],
      [
        "Da",
        -8.670614589418989
      ],
      [
        "NH",
        -8.670650924456389
      ],
      [
        "uT",
        -8.671069443694519
      ],
      [
        "mZ",
        -8.671207683292785
      ],
      [
        "of",
        -8.671209475101566
      ],
      [
        "Uf",
        -8.671354985725122
      ],
      [
        "Gt",
        -8.671417730700833
      ],
      [
        "px",
        -8.671576280685283
      ],
      [
        "VO",
        -8.671729263935326
      ],
      [
        "Qr",
        -8.671799910122088
      ],
      [
        "eX",
        -8.672428380906409
      ],
      [
        "gG",
        -8.672523520065837
      ],
      [
        "oY",
        -8.672611123506666
      ],
      [
        "od",
        -8.67272829908317
      ],
      [
        "GN",
        -8.672785764088427
      ],
      [
        "gF",
        -8.672910159777896
      ],
      [
        "fX",
        -8.67292166711962
      ],
      [
        "hx",
        -8.672953204435306
      ],
      [
        "De",
        -8.673075004923763
      ],
      [
        "gn",
        -8.673179914603914
      ],
      [
        "Yz",
        -8.673288030494142
      ],
      [
        "Tu",
        -8.673335113060858
      ],
      [
        "gQ",
        -8.673779353968062
      ],
      [
        "BM",
        -8.673907608733188
      ],
      [
        "gZ",
        -8.67422433889758
      ],
      [
        "gh",
        -8.674235691385217
      ],
      [
        "jT",
        -8.674498076077334
      ],
      [
        "cb",
        -8.674563504292522
      ],
      [
        "Jm",
        -8.675080994120155
      ],
      [
        "Uw",
        -8.67515834636906
      ],
      [
        "LO",
        -8.675208536211011
      ],
      [
        "Kd",
        -8.675220236895896
      ],
      [
        "DL",
        -8.675635129859028
      ],
      [
        "Qz",
        -8.675740180770696
      ],
      [
        "cB",
        -8.675870498245017
      ],
      [
        "GD",
        -8.675941805029762
      ],
      [
        "Xx",
        -8.676033960368493
      ],
      [
        "wZ",
        -8.676089823948855
      ],
      [
        "NZ",
        -8.67621953187228
      ],
      [
        "vt",
        -8.67640104683464
      ],
      [
        "Wr",
        -8.676527108974145
      ],
      [
        "nd",
        -8.676644767940832
      ],
      [
        "QF",
        -8.676695771685676
      ],
      [
        "Kx",
        -8.676867394134934
      ],
      [
        "UX",
        -8.676874136007054
      ],
      [
        "ct",
        -8.676952913226797
      ],
      [
        "hw",
        -8.677334235557566
      ],
      [
        "vI",
        -8.677387314421061
      ],
      [
        "NF",
        -8.6777355007455
      ],
      [
        "Qa",
        -8.678050490725184
      ],
      [
        "na",
        -8.678060628704237
      ],
      [
        "oH",
        -8.678159408398567
      ],
      [
        "hg",
        -8.678203384175172
      ],
      [
        "qn",
        -8.678384678698709
      ],
      [
        "uu",
        -8.678701788231926
      ],
      [
        "GO",
        -8.678715641622444
      ],
      [
        "XW",
        -8.678752247523214
      ],
      [
        "pz",
        -8.678837478186257
      ],
      [
        "vB",
        -8.678853905333574
      ],
      [
        "pV",
        -8.678895659099252
      ],
      [
        "Kq",
        -8.679047696037959
      ],
      [
        "Aa",
        -8.67907762760957
      ],
      [
        "AO",
        -8.679083840379441
      ],
      [
        "pA",
        -8.67916850841377
      ],
      [
        "ca",
        -8.67973872964502
      ],
      [
        "MB",
        -8.679776188491152
      ],
      [
        "qx",
        -8.679859744911775
      ],
      [
        "mf",
        -8.68001065789744
      ],
      [
        "bu",
        -8.680013916260766
      ],
      [
        "KI",
        -8.680177527187542
      ],
      [
        "DQ",
        -8.68017879708508
      ],
      [
        "NI",
        -8.680216518910495
      ],
      [
        "UO",
        -8.680249061747418
      ],
      [
        "oF",
        -8.680307122570532
      ],
      [
        "qf",
        -8.68041858602827
      ],
      [
        "Ka",
        -8.680517727556529
      ],
      [
        "ey",
        -8.68062642196935
      ],
      [
        "Vd",
        -8.680677508538707
      ],
      [
        "lT",
        -8.68068392110121
      ],
      [
        "IV",
        -8.680739169301493
      ],
      [
        "Uz",
        -8.680898959231138
      ],
      [
        "z0",
        -8.680924867121659
      ],
      [
        "cK",
        -8.680977815447228
      ],
      [
        "hu",
        -8.681125741988332
      ],
      [
        "Hx",
        -8.681138269912744
      ],
      [
        "VH",
        -8.681178816251458
      ],
      [
        "pK",
        -8.681314635719428
      ],
      [
        "ew",
        -8.68136111438995
      ],
      [
        "Rc",
        -8.681382520175775
      ],
      [
        "Dd",
        -8.682187056642178
      ],
      [
        "es",
        -8.68223924060622
      ],
      [
        "CW",
        -8.682289453346925
      ],
      [
        "ot",
        -8.682478308395922
      ],
      [
        "zn",
        -8.682519915503317
      ],
      [
        "cY",
        -8.682572800899482
      ],
      [
        "Vg",
        -8.68265393516091
      ],
      [
        "o3",
        -8.682756044266855
      ],
      [
        "Je",
        -8.682938935812235
      ],
      [
        "he",
        -8.683037187335408
      ],
      [
        "Xy",
        -8.683173410450824
      ],
      [
        "By",
        -8.683247400772968
      ],
      [
        "cX",
        -8.68336506365651
      ],
      [
        "mm",
        -8.683700627496707
      ],
      [
        "BV",
        -8.683725821448098
      ],
      [
        "lL",
        -8.683727423957796
      ],
      [
        "uq",
        -8.683807647593337
      ],
      [
        "pF",
        -8.683987035153628
      ],
      [
        "oR",
        -8.684098346391552
      ],
      [
        "Ls",
        -8.684116348459419
      ],
      [
        "eF",
        -8.684330054331916
      ],
      [
        "le",
        -8.684419143202842
      ],
      [
        "Kz",
        -8.684516711858926
      ],
      [
        "oK",
        -8.68452222771554
      ],
      [
        "Gz",
        -8.6847808336515
      ],
      [
        "Lx",
        -8.684828365390523
      ],
      [
        "Mu",
        -8.684877842562413
      ],
      [
        "bg",
        -8.684955552691562
      ],
      [
        "cO",
        -8.685292880034066
      ],
      [
        "vH",
        -8.685335052288167
      ],
      [
        "zG",
        -8.68534197549196
      ],
      [
        "YM",
        -8.685385808525936
      ],
      [
        "hI",
        -8.685454480640194
      ],
      [
        "Vn",
        -8.685477361503018
      ],
      [
        "Ke",
        -8.685511655373015
      ],
      [
        "GK",
        -8.685513683105526
      ],
      [
        "jg",
        -8.685687325876602
      ],
      [
        "cm",
        -8.685813531331576
      ],
      [
        "VD",
        -8.685845243860363
      ],
      [
        "B6",
        -8.68601184057297
      ],
      [
        "Ce",
        -8.686150981726142
      ],
      [
        "qA",
        -8.686263476347335
      ],
      [
        "md",
        -8.686354521480695
      ],
      [
        "Vy",
        -8.686495736654562
      ],
      [
        "qh",
        -8.6865228563882
      ],
      [
        "Km",
        -8.686674098309005
      ],
      [
        "Gy",
        -8.686789836391615
      ],
      [
        "hs",
        -8.686833448225062
      ],
      [
        "b8",
        -8.687025922163691
      ],
      [
        "pM",
        -8.687537177711672
      ],
      [
        "Vo",
        -8.687866309725909
      ],
      [
        "nA",
        -8.687931880979278
      ],
      [
        "vD",
        -8.688102381591712
      ],
      [
        "sW",
        -8.688188104446557
      ],
      [
        "XZ",
        -8.688205202005271
      ],
      [
        "b0",
        -8.688272751597442
      ],
      [
        "NR",
        -8.688473734808646
      ],
      [
        "KA",
        -8.688512413699295
      ],
      [
        "Cc",
        -8.688517152877594
      ],
      [
        "To",
        -8.688574644708542
      ],
      [
        "KV",
        -8.68865513488053
      ],
      [
        "CX",
        -8.688671384271476
      ],
      [
        "Nf",
        -8.689238264558396
      ],
      [
        "TT",
        -8.689402129252336
      ],
      [
        "e0",
        -8.689479595947958
      ],
      [
        "q8",
        -8.689668966944662
      ],
      [
        "Oa",
        -8.689826650053813
      ],
      [
        "YN",
        -8.690016521543862
      ],
      [
        "TC",
        -8.690144808824273
      ],
      [
        "Kw",
        -8.69031089222631
      ],
      [
        "QT",
        -8.690455654410966
      ],
      [
        "IM",
        -8.690513353077051
      ],
      [
        "hO",
        -8.690568820153072
      ],
      [
        "Aq",
        -8.690634398844349
      ],
      [
        "CV",
        -8.690637393590741
      ],
      [
        "TY",
        -8.690638288546573
      ],
      [
        "AL",
        -8.69065342632479
      ],
      [
        "VU",
        -8.690858270044703
      ],
      [
        "zw",
        -8.69086290102896
      ],
      [
        "Vb",
        -8.690905615421261
      ],
      [
        "ML",
        -8.691042004966766
      ],
      [
        "Ac",
        -8.691319123617008
      ],
      [
        "YV",
        -8.691740051562315
      ],
      [
        "zN",
        -8.691814754724778
      ],
      [
        "by",
        -8.691921303393421
      ],
      [
        "be",
        -8.692022806964513
      ],
      [
        "or",
        -8.692066448192314
      ],
      [
        "Ij",
        -8.692079991028741
      ],
      [
        "W0",
        -8.69208609399368
      ],
      [
        "DY",
        -8.692094362407023
      ],
      [
        "bH",
        -8.692096735523503
      ],
      [
        "lb",
        -8.692188103074221
      ],
      [
        "Vf",
        -8.692301438523439
      ],
      [
        "Dr",
        -8.692532006950522
      ],
      [
        "WM",
        -8.692617507550922
      ],
      [
        "vc",
        -8.69266639403153
      ],
      [
        "Lm",
        -8.6929075650663
      ],
      [
        "Yx",
        -8.692911713184744
      ],
      [
        "ef",
        -8.693055030750704
      ],
      [
        "KK",
        -8.69346214044538
      ],
      [
        "Ku",
        -8.693510652454112
      ],
      [
        "Jn",
        -8.693978968706734
      ],
      [
        "LA",
        -8.694070104455715
      ],
      [
        "lZ",
        -8.694139357590894
      ],
      [
        "DO",
        -8.694168711955086
      ],
      [
        "U9",
        -8.69443167146077
      ],
      [
        "Mx",
        -8.69446080705237
      ],
      [
        "UG",
        -8.694631823999416
      ],
      [
        "QN",
        -8.694759291368674
      ],
      [
        "mn",
        -8.69480198048064
      ],
      [
        "nR",
        -8.694802992903096
      ],
      [
        "RT",
        -8.69509475894433
      ],
      [
        "OM",
        -8.695135343213401
      ],
      [
        "Iu",
        -8.695453677899451
      ],
      [
        "TZ",
        -8.695455403164743
      ],
      [
        "VA",
        -8.695592182050008
      ],
      [
        "nJ",
        -8.69561832237575
      ],
      [
        "CN",
        -8.695666736865537
      ],
      [
        "zs",
        -8.695703610656608
      ],
      [
        "AR",
        -8.695723322886257
      ],
      [
        "TB",
        -8.695739136361055
      ],
      [
        "wM",
        -8.695750201651691
      ],
      [
        "CA",
        -8.695831995272894
      ],
      [
        "RH",
        -8.695881050132623
      ],
      [
        "Kr",
        -8.696101839877294
      ],
      [
        "oB",
        -8.69610671487062
      ],
      [
        "gw",
        -8.69615679857971
      ],
      [
        "C3",
        -8.696256969491895
      ],
      [
        "NN",
        -8.696457818102628
      ],
      [
        "Qy",
        -8.696524013128961
      ],
      [
        "qj",
        -8.696525567762523
      ],
      [
        "ae",
        -8.696763089922015
      ],
      [
        "MY",
        -8.696838307198735
      ],
      [
        "gD",
        -8.696923160355468
      ],
      [
        "LI",
        -8.69696691222629
      ],
      [
        "Dm",
        -8.697018011380194
      ],
      [
        "vQ",
        -8.697052756666222
      ],
      [
        "Q0",
        -8.697058543389971
      ],
      [
        "mo",
        -8.697250326114371
      ],
      [
        "Lf",
        -8.697563481645854
      ],
      [
        "DI",
        -8.697635799315174
      ],
      [
        "Gs",
        -8.697658151631366
      ],
      [
        "cl",
        -8.697727163493402
      ],
      [
        "JZ",
        -8.697752465965754
      ],
      [
        "hb",
        -8.697779733530137
      ],
      [
        "BB",
        -8.697790783717437
      ],
      [
        "HZ",
        -8.697839753768296
      ],
      [
        "bO",
        -8.6978945970103
      ],
      [
        "w0",
        -8.698033905838848
      ],
      [
        "ue",
        -8.698052980326267
      ],
      [
        "GW",
        -8.698269783268511
      ],
      [
        "hG",
        -8.698716874221246
      ],
      [
        "vA",
        -8.698853888155181
      ],
      [
        "QD",
        -8.698913327740994
      ],
      [
        "zY",
        -8.698961122881135
      ],
      [
        "BO",
        -8.699314241683492
      ],
      [
        "TM",
        -8.699591980309478
      ],
      [
        "XU",
        -8.699601613786271
      ],
      [
        "ez",
        -8.699691419799946
      ],
      [
        "Nq",
        -8.699730168502509
      ],
      [
        "ge",
        -8.699856441633386
      ],
      [
        "eM",
        -8.70006531088655
      ],
      [
        "bM",
        -8.700187312643255
      ],
      [
        "Qc",
        -8.700238518375428
      ],
      [
        "Yy",
        -8.700320887124066
      ],
      [
        "bc",
        -8.7004722134018
      ],
      [
        "NU",
        -8.70053090860665
      ],
      [
        "nM",
        -8.70064931312435
      ],
      [
        "oM",
        -8.700835637918644
      ],
      [
        "Bd",
        -8.700959232500827
      ],
      [
        "Uo",
        -8.700981698766281
      ],
      [
        "LV",
        -8.701032250878995
      ],
      [
        "hn",
        -8.701119605856
      ],
      [
        "lA",
        -8.701142553521118
      ],
      [
        "ry",
        -8.701170226892021
      ],
      [
        "cW",
        -8.701173475690684
      ],
      [
        "bR",
        -8.70122598933754
      ],
      [
        "cx",
        -8.701315689115994
      ],
      [
        "hZ",
        -8.701495512407305
      ],
      [
        "JF",
        -8.701529890814612
      ],
      [
        "IY",
        -8.701664111433871
      ],
      [
        "hm",
        -8.701671909995127
      ],
      [
        "hj",
        -8.701718659288662
      ],
      [
        "dY",
        -8.701784809011656
      ],
      [
        "Uq",
        -8.701809266556662
      ],
      [
        "gB",
        -8.7018691924689
      ],
      [
        "ll",
        -8.701950391932154
      ],
      [
        "KR",
        -8.702023118226986
      ],
      [
        "gj",
        -8.702032764137536
      ],
      [
        "nB",
        -8.70206733988045
      ],
      [
        "YW",
        -8.702123915382739
      ],
      [
        "je",
        -8.702316480009245
      ],
      [
        "fb",
        -8.702359587503874
      ],
      [
        "Gn",
        -8.702369995619005
      ],
      [
        "KX",
        -8.702444156231145
      ],
      [
        "oe",
        -8.702483518979044
      ],
      [
        "DN",
        -8.702494621138595
      ],
      [
        "Gu",
        -8.702580087676221
      ],
      [
        "qM",
        -8.70265897793063
      ],
      [
        "Av",
        -8.702717509082586
      ],
      [
        "zr",
        -8.702828782136752
      ],
      [
        "ce",
        -8.70289668638823
      ],
      [
        "oo",
        -8.702971100548494
      ],
      [
        "Nr",
        -8.702981688831043
      ],
      [
        "RY",
        -8.703007367861229
      ],
      [
        "Ay",
        -8.703012030823686
      ],
      [
        "cG",
        -8.703163155007974
      ],
      [
        "mz",
        -8.703292434275813
      ],
      [
        "oD",
        -8.70355802680887
      ],
      [
        "WA",
        -8.703635288694045
      ],
      [
        "am",
        -8.703715265253152
      ],
      [
        "pT",
        -8.703720574800732
      ],
      [
        "Am",
        -8.703782327346335
      ],
      [
        "oi",
        -8.703965565782365
      ],
      [
        "NA",
        -8.70402503191227
      ],
      [
        "dX",
        -8.704033418120524
      ],
      [
        "oW",
        -8.704127712342924
      ],
      [
        "RR",
        -8.704516559537476
      ],
      [
        "VJ",
        -8.704775312694125
      ],
      [
        "Tz",
        -8.705117658098581
      ],
      [
        "wG",
        -8.705880245191864
      ],
      [
        "AC",
        -8.706024164214739
      ],
      [
        "mI",
        -8.70606675180534
      ],
      [
        "wl",
        -8.706089494757155
      ],
      [
        "jX",
        -8.706235892001327
      ],
      [
        "Ty",
        -8.706276759524444
      ],
      [
        "It",
        -8.706322314263222
      ],
      [
        "Hc",
        -8.706653347396234
      ],
      [
        "zl",
        -8.706827415484211
      ],
      [
        "Ia",
        -8.706871137075812
      ],
      [
        "rx",
        -8.706976908173036
      ],
      [
        "om",
        -8.707126475469133
      ],
      [
        "qe",
        -8.707424383600742
      ],
      [
        "op",
        -8.70743498873525
      ],
      [
        "gb",
        -8.707443473784016
      ],
      [
        "lQ",
        -8.707525485111798
      ],
      [
        "oX",
        -8.707760144808207
      ],
      [
        "qU",
        -8.707783540384838
      ],
      [
        "MM",
        -8.707879409220563
      ],
      [
        "CG",
        -8.708072627816904
      ],
      [
        "jH",
        -8.70808198904274
      ],
      [
        "Be",
        -8.708112359852992
      ],
      [
        "ZM",
        -8.708371531446572
      ],
      [
        "zV",
        -8.70840203631671
      ],
      [
        "eG",
        -8.708595976690518
      ],
      [
        "Gw",
        -8.708709109180006
      ],
      [
        "gU",
        -8.708731951292528
      ],
      [
        "QY",
        -8.70877256346224
      ],
      [
        "bp",
        -8.708942140846462
      ],
      [
        "BJ",
        -8.709133734276099
      ],
      [
        "rU",
        -8.709426038267122
      ],
      [
        "qV",
        -8.709592496253983
      ],
      [
        "RN",
        -8.709758023863422
      ],
      [
        "lC",
        -8.709782407360834
      ],
      [
        "MR",
        -8.709883968690662
      ],
      [
        "Y0",
        -8.709919248153874
      ],
      [
        "ja",
        -8.709978598378111
      ],
      [
        "pW",
        -8.710164074537056
      ],
      [
        "UL",
        -8.710298151832752
      ],
      [
        "cu",
        -8.710525113748297
      ],
      [
        "Tx",
        -8.710634558121718
      ],
      [
        "mx",
        -8.710684390787248
      ],
      [
        "eZ",
        -8.710756937023596
      ],
      [
        "gv",
        -8.71087510951173
      ],
      [
        "NO",
        -8.711242014103764
      ],
      [
        "pU",
        -8.7113084502791
      ],
      [
        "jD",
        -8.711451697425044
      ],
      [
        "uY",
        -8.711510499010146
      ],
      [
        "Hr",
        -8.711700115046291
      ],
      [
        "DG",
        -8.711839415174307
      ],
      [
        "JJ",
        -8.711873260843616
      ],
      [
        "zT",
        -8.711879863835076
      ],
      [
        "gO",
        -8.712001565182483
      ],
      [
        "gI",
        -8.712022582615901
      ],
      [
        "Ql",
        -8.712061218517107
      ],
      [
        "qJ",
        -8.71209063096127
      ],
      [
        "bV",
        -8.712130101936658
      ],
      [
        "Ye",
        -8.71213244423899
      ],
      [
        "dy",
        -8.712253013482748
      ],
      [
        "Uu",
        -8.712377616581353
      ],
      [
        "JC",
        -8.712410786983648
      ],
      [
        "WZ",
        -8.712557469299245
      ],
      [
        "qq",
        -8.712655418882399
      ],
      [
        "QH",
        -8.712881558865572
      ],
      [
        "wx",
        -8.712963843728783
      ],
      [
        "zg",
        -8.712967421380776
      ],
      [
        "er",
        -8.713128456566217
      ],
      [
        "cN",
        -8.71319278878827
      ],
      [
        "jB",
        -8.713343213618149
      ],
      [
        "vJ",
        -8.713484284324547
      ],
      [
        "DM",
        -8.713514934026476
      ],
      [
        "Nm",
        -8.713637399125172
      ],
      [
        "BK",
        -8.713656755634403
      ],
      [
        "Mz",
        -8.71368610806992
      ],
      [
        "qa",
        -8.71389401857735
      ],
      [
        "jR",
        -8.713919214530803
      ],
      [
        "Wf",
        -8.713938310622478
      ],
      [
        "Bb",
        -8.714062133503543
      ],
      [
        "DZ",
        -8.714102263575175
      ],
      [
        "QI",
        -8.714202165132342
      ],
      [
        "KZ",
        -8.714384256311416
      ],
      [
        "Jf",
        -8.714435726686322
      ],
      [
        "Jy",
        -8.71445892137097
      ],
      [
        "RA",
        -8.714568960333246
      ],
      [
        "Yw",
        -8.714624820497905
      ],
      [
        "KY",
        -8.714907951008623
      ],
      [
        "Kf",
        -8.71491140976417
      ],
      [
        "bG",
        -8.714913927530258
      ],
      [
        "gN",
        -8.71500929618767
      ],
      [
        "ob",
        -8.715150208545712
      ],
      [
        "dw",
        -8.715279029254612
      ],
      [
        "UN",
        -8.715460172606294
      ],
      [
        "pI",
        -8.715662467332944
      ],
      [
        "YF",
        -8.715745298691676
      ],
      [
        "Bu",
        -8.715762655528053
      ],
      [
        "mw",
        -8.715805179883828
      ],
      [
        "eN",
        -8.716037546767499
      ],
      [
        "bs",
        -8.716041243917093
      ],
      [
        "QX",
        -8.716263859611077
      ],
      [
        "qo",
        -8.71628649326544
      ],
      [
        "VK",
        -8.716309547780462
      ],
      [
        "MG",
        -8.716341268120651
      ],
      [
        "cH",
        -8.716349640406047
      ],
      [
        "Nx",
        -8.716536035519308
      ],
      [
        "Dx",
        -8.716899319918106
      ],
      [
        "Ae",
        -8.71696810583467
      ],
      [
        "Gh",
        -8.71703487759899
      ],
      [
        "mc",
        -8.717062840608506
      ],
      [
        "bx",
        -8.71725848130052
      ],
      [
        "ID",
        -8.7174053426332
      ],
      [
        "cC",
        -8.717431504749468
      ],
      [
        "TX",
        -8.717526977407667
      ],
      [
        "QZ",
        -8.7179300019046
      ],
      [
        "KC",
        -8.717934551574622
      ],
      [
        "aV",
        -8.717997670969076
      ],
      [
        "Cq",
        -8.718076948056023
      ],
      [
        "Vp",
        -8.718281107087595
      ],
      [
        "KB",
        -8.718432622981034
      ],
      [
        "NK",
        -8.718486542043397
      ],
      [
        "OQ",
        -8.718565235552411
      ],
      [
        "zM",
        -8.718566341052833
      ],
      [
        "oN",
        -8.718682615474613
      ],
      [
        "Du",
        -8.718758237368853
      ],
      [
        "fl",
        -8.718775961399562
      ],
      [
        "Hd",
        -8.718914304512767
      ],
      [
        "wF",
        -8.718931042031212
      ],
      [
        "CU",
        -8.719256343877403
      ],
      [
        "bw",
        -8.719461762142046
      ],
      [
        "IR",
        -8.719698501771783
      ],
      [
        "eC",
        -8.719849378761761
      ],
      [
        "Bn",
        -8.71994875432387
      ],
      [
        "QG",
        -8.720133254924281
      ],
      [
        "bT",
        -8.720169099167968
      ],
      [
        "wO",
        -8.72037597775018
      ],
      [
        "wj",
        -8.720397697559122
      ],
      [
        "XN",
        -8.720640728535415
      ],
      [
        "IG",
        -8.720654305424512
      ],
      [
        "CM",
        -8.720661721544946
      ],
      [
        "uH",
        -8.720805932164083
      ],
      [
        "DA",
        -8.720808036758797
      ],
      [
        "wa",
        -8.720868646209261
      ],
      [
        "gH",
        -8.720871002189494
      ],
      [
        "lr",
        -8.7209171565795
      ],
      [
        "WW",
        -8.720940581947211
      ],
      [
        "bQ",
        -8.72097012837376
      ],
      [
        "mr",
        -8.721024685097898
      ],
      [
        "Cs",
        -8.721268880346038
      ],
      [
        "eK",
        -8.721447855265172
      ],
      [
        "Vx",
        -8.721619228320817
      ],
      [
        "vh",
        -8.721743409918329
      ],
      [
        "An",
        -8.721809818327507
      ],
      [
        "vM",
        -8.721852191692653
      ],
      [
        "bJ",
        -8.72187742580612
      ],
      [
        "ev",
        -8.721935937464238
      ],
      [
        "JX",
        -8.721954549468256
      ],
      [
        "pa",
        -8.721955360957569
      ],
      [
        "Rx",
        -8.72219082840493
      ],
      [
        "eW",
        -8.722257791420429
      ],
      [
        "cn",
        -8.722443302566194
      ],
      [
        "Ra",
        -8.722467883831712
      ],
      [
        "uB",
        -8.722487593994138
      ],
      [
        "q6",
        -8.722499315044875
      ],
      [
        "qw",
        -8.722507374769137
      ],
      [
        "MI",
        -8.722537507007516
      ],
      [
        "fy",
        -8.722568461166382
      ],
      [
        "la",
        -8.722730155648993
      ],
      [
        "Rr",
        -8.722737015530415
      ],
      [
        "JR",
        -8.722794111249602
      ],
      [
        "bI",
        -8.722809770943217
      ],
      [
        "vV",
        -8.722824455616946
      ],
      [
        "RL",
        -8.723212613915962
      ],
      [
        "KQ",
        -8.723242307752354
      ],
      [
        "zj",
        -8.723469092513103
      ],
      [
        "Bv",
        -8.723519622927618
      ],
      [
        "A6",
        -8.723562353493493
      ],
      [
        "lw",
        -8.723643225359039
      ],
      [
        "Nb",
        -8.723753164790732
      ],
      [
        "RK",
        -8.723789297476783
      ],
      [
        "Cd",
        -8.723789386963407
      ],
      [
        "qY",
        -8.723837091182714
      ],
      [
        "lB",
        -8.724144246741975
      ],
      [
        "WL",
        -8.724166430065878
      ],
      [
        "Qj",
        -8.724234208220132
      ],
      [
        "cw",
        -8.724364110451422
      ],
      [
        "Tc",
        -8.724439271629505
      ],
      [
        "ea",
        -8.724482014706378
      ],
      [
        "Ib",
        -8.72448996750557
      ],
      [
        "K0",
        -8.724505007097433
      ],
      [
        "ps",
        -8.72457977058605
      ],
      [
        "DK",
        -8.724630366269135
      ],
      [
        "Cz",
        -8.724689943794417
      ],
      [
        "nl",
        -8.724838570315002
      ],
      [
        "UH",
        -8.724846258277132
      ],
      [
        "UU",
        -8.724950312375611
      ],
      [
        "AX",
        -8.725038056069735
      ],
      [
        "DJ",
        -8.725055866351394
      ],
      [
        "zf",
        -8.725124601981628
      ],
      [
        "Re",
        -8.725155485212849
      ],
      [
        "hc",
        -8.725167449418576
      ],
      [
        "nq",
        -8.725403129022702
      ],
      [
        "OL",
        -8.72555332707206
      ],
      [
        "Xr",
        -8.72556283227978
      ],
      [
        "Te",
        -8.725601181587018
      ],
      [
        "MN",
        -8.725637183559536
      ],
      [
        "Af",
        -8.725719324285212
      ],
      [
        "nv",
        -8.725742831415241
      ],
      [
        "nb",
        -8.725742898336645
      ],
      [
        "TH",
        -8.725754583255661
      ],
      [
        "Il",
        -8.725835110462569
      ],
      [
        "JA",
        -8.72585264131208
      ],
      [
        "NJ",
        -8.72586755904813
      ],
      [
        "eu",
        -8.725900629469946
      ],
      [
        "Ba",
        -8.725989804250794
      ],
      [
        "BA",
        -8.726051166210697
      ],
      [
        "Ix",
        -8.726062203791805
      ],
      [
        "rX",
        -8.726108259911793
      ],
      [
        "VM",
        -8.726123173895424
      ],
      [
        "qt",
        -8.726164100281522
      ],
      [
        "AD",
        -8.726188392502296
      ],
      [
        "Kp",
        -8.72633562279151
      ],
      [
        "Ue",
        -8.726436298472965
      ],
      [
        "WR",
        -8.726456983211651
      ],
      [
        "mY",
        -8.726515600908465
      ],
      [
        "gK",
        -8.726779548262083
      ],
      [
        "oL",
        -8.726862774699287
      ],
      [
        "Cm",
        -8.726962300066244
      ],
      [
        "WV",
        -8.72699032224582
      ],
      [
        "GT",
        -8.727004342438224
      ],
      [
        "Va",
        -8.72703405045224
      ],
      [
        "jf",
        -8.727189469922674
      ],
      [
        "JI",
        -8.72724382079025
      ],
      [
        "lN",
        -8.727252484850649
      ],
      [
        "TG",
        -8.727304504847904
      ],
      [
        "NM",
        -8.727523766249082
      ],
      [
        "qC",
        -8.727560595759149
      ],
      [
        "MZ",
        -8.72763292514789
      ],
      [
        "eH",
        -8.727671737394791
      ],
      [
        "CR",
        -8.727943736205471
      ],
      [
        "uN",
        -8.728219880602223
      ],
      [
        "de",
        -8.728267209346601
      ],
      [
        "Zf",
        -8.728373367087494
      ],
      [
        "TU",
        -8.728428409125058
      ],
      [
        "QO",
        -8.728647288892674
      ],
      [
        "HN",
        -8.728661196182028
      ],
      [
        "fr",
        -8.728686562176941
      ],
      [
        "Io",
        -8.728829038439432
      ],
      [
        "rK",
        -8.72883774163111
      ],
      [
        "Mw",
        -8.728991341930529
      ],
      [
        "gp",
        -8.729148595790129
      ],
      [
        "GI",
        -8.729378385025456
      ],
      [
        "nf",
        -8.729396043530341
      ],
      [
        "Qn",
        -8.729421272417646
      ],
      [
        "ZT",
        -8.729472913248488
      ],
      [
        "Tm",
        -8.729607695036414
      ],
      [
        "nN",
        -8.729632358785153
      ],
      [
        "Ow",
        -8.72976469377901
      ],
      [
        "qW",
        -8.72979605698714
      ],
      [
        "Lr",
        -8.72986049255781
      ],
      [
        "ux",
        -8.729964559755889
      ],
      [
        "fO",
        -8.730006571663012
      ],
      [
        "ZZ",
        -8.730125886969647
      ],
      [
        "cQ",
        -8.730197242239946
      ],
      [
        "Tf",
        -8.730207735902601
      ],
      [
        "TL",
        -8.730337649099562
      ],
      [
        "Jh",
        -8.730357362684558
      ],
      [
        "YX",
        -8.730433619098495
      ],
      [
        "lv",
        -8.73048979152141
      ],
      [
        "Qo",
        -8.73051136006476
      ],
      [
        "Qf",
        -8.73056871725371
      ],
      [
        "wV",
        -8.730665282402876
      ],
      [
        "ff",
        -8.730750173115172
      ],
      [
        "Cb",
        -8.730918576177208
      ],
      [
        "gT",
        -8.731008696864237
      ],
      [
        "yr",
        -8.731085303613199
      ],
      [
        "Tl",
        -8.731099006883278
      ],
      [
        "KG",
        -8.731138130718506
      ],
      [
        "vz",
        -8.731170324995633
      ],
      [
        "uo",
        -8.731490159130832
      ],
      [
        "rW",
        -8.73170880437467
      ],
      [
        "ep",
        -8.731875136769283
      ],
      [
        "LR",
        -8.731937897884585
      ],
      [
        "v0",
        -8.731971808106195
      ],
      [
        "qL",
        -8.731982772676421
      ],
      [
        "Wy",
        -8.732193373167998
      ],
      [
        "RZ",
        -8.73245533328902
      ],
      [
        "MU",
        -8.732559886663134
      ],
      [
        "nW",
        -8.732608018562445
      ],
      [
        "fZ",
        -8.732612351451998
      ],
      [
        "gX",
        -8.732821123490368
      ],
      [
        "LM",
        -8.732887944838048
      ],
      [
        "RM",
        -8.73292578677869
      ],
      [
        "bf",
        -8.733052032577636
      ],
      [
        "AJ",
        -8.733079384763876
      ],
      [
        "JQ",
        -8.733185576313925
      ],
      [
        "eD",
        -8.733454738484081
      ],
      [
        "pp",
        -8.733541228705361
      ],
      [
        "wb",
        -8.733711915061093
      ],
      [
        "vN",
        -8.733777589245708
      ],
      [
        "hY",
        -8.733825940163092
      ],
      [
        "pj",
        -8.733899585782599
      ],
      [
        "Cn",
        -8.734005547244449
      ],
      [
        "gW",
        -8.734006994993855
      ],
      [
        "go",
        -8.7343096174902
      ],
      [
        "oQ",
        -8.734329675252184
      ],
      [
        "fc",
        -8.734473607365903
      ],
      [
        "ee",
        -8.734477582450253
      ],
      [
        "If",
        -8.734535474174159
      ],
      [
        "Ma",
        -8.734585670405544
      ],
      [
        "WJ",
        -8.73458600122515
      ],
      [
        "ne",
        -8.734636867474514
      ],
      [
        "IB",
        -8.734728439182746
      ],
      [
        "Id",
        -8.734807304887843
      ],
      [
        "VN",
        -8.73486293449788
      ],
      [
        "Ou",
        -8.734912845487145
      ],
      [
        "cz",
        -8.73492444094347
      ],
      [
        "bb",
        -8.735017727833643
      ],
      [
        "AQ",
        -8.735083646061643
      ],
      [
        "vl",
        -8.735086337209879
      ],
      [
        "gc",
        -8.735394651464864
      ],
      [
        "zL",
        -8.735437164706227
      ],
      [
        "KM",
        -8.735452753333863
      ],
      [
        "Wp",
        -8.735463614671144
      ],
      [
        "dG",
        -8.735603102496171
      ],
      [
        "BT",
        -8.7357461657094
      ],
      [
        "uc",
        -8.735766321963203
      ],
      [
        "qG",
        -8.735841865781012
      ],
      [
        "GQ",
        -8.735878229559926
      ],
      [
        "Ru",
        -8.736082695009092
      ],
      [
        "oV",
        -8.736219573546435
      ],
      [
        "NQ",
        -8.73635021220165
      ],
      [
        "NT",
        -8.736608226200836
      ],
      [
        "Dy",
        -8.736686380370152
      ],
      [
        "QB",
        -8.736698345053583
      ],
      [
        "YQ",
        -8.736776645745824
      ],
      [
        "BY",
        -8.736886802779136
      ],
      [
        "mu",
        -8.7369021219748
      ],
      [
        "lK",
        -8.737259860540274
      ],
      [
        "jo",
        -8.73729073653275
      ],
      [
        "gu",
        -8.737446744355251
      ],
      [
        "xr",
        -8.737515073434349
      ],
      [
        "wy",
        -8.737533802572916
      ],
      [
        "Jp",
        -8.737553087731069
      ],
      [
        "Ao",
        -8.737558754260446
      ],
      [
        "Ts",
        -8.737665463017848
      ],
      [
        "XY",
        -8.73778534280933
      ],
      [
        "RX",
        -8.737786506172444
      ],
      [
        "Uh",
        -8.738080622429194
      ],
      [
        "qp",
        -8.738155125541784
      ],
      [
        "lm",
        -8.738410422699394
      ],
      [
        "NB",
        -8.738480602322936
      ],
      [
        "VR",
        -8.738511538951172
      ],
      [
        "Ja",
        -8.738616214158252
      ],
      [
        "gA",
        -8.738622182654701
      ],
      [
        "Yh",
        -8.738639929496351
      ],
      [
        "jA",
        -8.738658529839235
      ],
      [
        "Lh",
        -8.738775298173607
      ],
      [
        "Rg",
        -8.73896266360886
      ],
      [
        "bK",
        -8.738975084821849
      ],
      [
        "Rm",
        -8.739040035822466
      ],
      [
        "UV",
        -8.739045703866072
      ],
      [
        "Ym",
        -8.739376917624222
      ],
      [
        "KW",
        -8.739413639274249
      ],
      [
        "ad",
        -8.739673158594265
      ],
      [
        "bo",
        -8.739717240466515
      ],
      [
        "LY",
        -8.739764219547705
      ],
      [
        "cV",
        -8.739764873729737
      ],
      [
        "fg",
        -8.739784592660154
      ],
      [
        "BI",
        -8.740072656879804
      ],
      [
        "BC",
        -8.740131125450473
      ],
      [
        "Ha",
        -8.740140491160943
      ],
      [
        "Ml",
        -8.740202588175691
      ],
      [
        "eO",
        -8.740243708654829
      ],
      [
        "Yo",
        -8.74033018400417
      ],
      [
        "oJ",
        -8.740464135379357
      ],
      [
        "aY",
        -8.740485362456816
      ],
      [
        "IK",
        -8.740614825691516
      ],
      [
        "mX",
        -8.740849288067725
      ],
      [
        "ZW",
        -8.740867478776247
      ],
      [
        "Lg",
        -8.740877668811539
      ],
      [
        "WO",
        -8.74115904059246
      ],
      [
        "hU",
        -8.741243554736457
      ],
      [
        "Bp",
        -8.741266102272391
      ],
      [
        "Yr",
        -8.741414408921207
      ],
      [
        "QM",
        -8.74150424081557
      ],
      [
        "eQ",
        -8.741713014037963
      ],
      [
        "YK",
        -8.741840852540712
      ],
      [
        "Gg",
        -8.741870821690524
      ],
      [
        "fd",
        -8.741911780667678
      ],
      [
        "Az",
        -8.741942067866052
      ],
      [
        "xg",
        -8.741986350190857
      ],
      [
        "qz",
        -8.742047192185787
      ],
      [
        "pJ",
        -8.742048558505138
      ],
      [
        "XX",
        -8.742088035430315
      ],
      [
        "zb",
        -8.742107934460735
      ],
      [
        "IQ",
        -8.742222656043335
      ],
      [
        "hT",
        -8.74226339421757
      ],
      [
        "Hu",
        -8.742270705889196
      ],
      [
        "RJ",
        -8.742285096569864
      ],
      [
        "nz",
        -8.742487967529007
      ],
      [
        "zI",
        -8.742596950957669
      ],
      [
        "uw",
        -8.742629027106517
      ],
      [
        "fR",
        -8.74270702371033
      ],
      [
        "bq",
        -8.742757544538431
      ],
      [
        "dC",
        -8.743090398778087
      ],
      [
        "wv",
        -8.743100201455512
      ],
      [
        "Go",
        -8.74312751837472
      ],
      [
        "sa",
        -8.743181347146546
      ],
      [
        "Vq",
        -8.74327734505174
      ],
      [
        "KL",
        -8.743277414857868
      ],
      [
        "Gm",
        -8.743341549407146
      ],
      [
        "gM",
        -8.743427391464298
      ],
      [
        "hl",
        -8.743507063986733
      ],
      [
        "xT",
        -8.74351666233605
      ],
      [
        "YI",
        -8.743534777238455
      ],
      [
        "JM",
        -8.743619302955041
      ],
      [
        "Ie",
        -8.743638928761527
      ],
      [
        "We",
        -8.743767034324986
      ],
      [
        "Cj",
        -8.74390313559148
      ],
      [
        "NL",
        -8.744089076480595
      ],
      [
        "wp",
        -8.744132001250804
      ],
      [
        "OK",
        -8.74439335444974
      ],
      [
        "pu",
        -8.744396278034205
      ],
      [
        "TI",
        -8.74439977022967
      ],
      [
        "hA",
        -8.744410145773521
      ],
      [
        "jI",
        -8.74444401686751
      ],
      [
        "vq",
        -8.744468875980955
      ],
      [
        "ax",
        -8.74453349375909
      ],
      [
        "no",
        -8.744544283023853
      ],
      [
        "Iw",
        -8.744618583877264
      ],
      [
        "zu",
        -8.74465113285728
      ],
      [
        "TN",
        -8.744660756045915
      ],
      [
        "eY",
        -8.745019480466343
      ],
      [
        "VC",
        -8.745072822588932
      ],
      [
        "JO",
        -8.745148632995578
      ],
      [
        "ua",
        -8.745215725701058
      ],
      [
        "q3",
        -8.745275507841535
      ],
      [
        "vU",
        -8.745385475393217
      ],
      [
        "JN",
        -8.745594907800012
      ],
      [
        "VI",
        -8.745655358616691
      ],
      [
        "wL",
        -8.745861844580203
      ],
      [
        "Om",
        -8.74617794493357
      ],
      [
        "DW",
        -8.746300245394282
      ],
      [
        "Nj",
        -8.746459651884653
      ],
      [
        "mG",
        -8.746721298366865
      ],
      [
        "ox",
        -8.746842412407043
      ],
      [
        "nL",
        -8.74709277551315
      ],
      [
        "Tb",
        -8.747101802368315
      ],
      [
        "zZ",
        -8.747166440678205
      ],
      [
        "wh",
        -8.747259830483848
      ],
      [
        "Xb",
        -8.747299043022782
      ],
      [
        "oC",
        -8.747434137979328
      ],
      [
        "xJ",
        -8.747443482443272
      ],
      [
        "qm",
        -8.747465176440555
      ],
      [
        "lg",
        -8.747601556507405
      ],
      [
        "NX",
        -8.747674263288115
      ],
      [
        "oU",
        -8.747737831932934
      ],
      [
        "pL",
        -8.747764089147635
      ],
      [
        "mV",
        -8.748260129079647
      ],
      [
        "fp",
        -8.748413724424687
      ],
      [
        "gg",
        -8.748465791437175
      ],
      [
        "UA",
        -8.748524624328498
      ],
      [
        "cT",
        -8.74859905795157
      ],
      [
        "pH",
        -8.74860719937907
      ],
      [
        "WC",
        -8.748784355910178
      ],
      [
        "gY",
        -8.748943515314355
      ],
      [
        "QV",
        -8.748981530097009
      ],
      [
        "Bg",
        -8.749003658190773
      ],
      [
        "qI",
        -8.749120701204673
      ],
      [
        "AY",
        -8.749124033127842
      ],
      [
        "fJ",
        -8.749146352073797
      ],
      [
        "Tj",
        -8.749247432559706
      ],
      [
        "LT",
        -8.74928771071032
      ],
      [
        "Kl",
        -8.74936606322154
      ],
      [
        "Ab",
        -8.749688686186705
      ],
      [
        "II",
        -8.749729281104468
      ],
      [
        "Ve",
        -8.74982310147333
      ],
      [
        "Wl",
        -8.749885702801729
      ],
      [
        "AM",
        -8.750037036082496
      ],
      [
        "GM",
        -8.750079713386754
      ],
      [
        "YO",
        -8.750093425761754
      ],
      [
        "QC",
        -8.750240012150176
      ],
      [
        "Dv",
        -8.750340422188088
      ],
      [
        "Kn",
        -8.750356280510928
      ],
      [
        "Dc",
        -8.750358090301582
      ],
      [
        "wR",
        -8.75037083334636
      ],
      [
        "KJ",
        -8.750370923637194
      ],
      [
        "bm",
        -8.750461538832681
      ],
      [
        "rr",
        -8.750655745344638
      ],
      [
        "uV",
        -8.750713803318426
      ],
      [
        "w3",
        -8.750719747007867
      ],
      [
        "mK",
        -8.75075201253984
      ],
      [
        "lR",
        -8.750804287760955
      ],
      [
        "UD",
        -8.750830472673462
      ],
      [
        "IX",
        -8.750834822195248
      ],
      [
        "zR",
        -8.750855992677423
      ],
      [
        "DX",
        -8.750927180723867
      ],
      [
        "jw",
        -8.750941817252219
      ],
      [
        "v9",
        -8.75114973652957
      ],
      [
        "Fd",
        -8.751178574907419
      ],
      [
        "GL",
        -8.75127650847432
      ],
      [
        "ar",
        -8.751320799999874
      ],
      [
        "we",
        -8.751429301446526
      ],
      [
        "sI",
        -8.751698601365817
      ],
      [
        "LL",
        -8.751700859369574
      ],
      [
        "vK",
        -8.751953972647904
      ],
      [
        "LX",
        -8.75200304334432
      ],
      [
        "bU",
        -8.752008179973128
      ],
      [
        "Im",
        -8.752081513391225
      ],
      [
        "Bj",
        -8.752104407078068
      ],
      [
        "lV",
        -8.75214025597254
      ],
      [
        "JG",
        -8.752149882517848
      ],
      [
        "TQ",
        -8.752274217502594
      ],
      [
        "Lw",
        -8.752275376757993
      ],
      [
        "WD",
        -8.75231756702794
      ],
      [
        "Vz",
        -8.752363442915478
      ],
      [
        "rs",
        -8.752384296654657
      ],
      [
        "Mm",
        -8.752384310285393
      ],
      [
        "DV",
        -8.752392750984612
      ],
      [
        "mq",
        -8.75241904290973
      ],
      [
        "Ko",
        -8.752782897437617
      ],
      [
        "lo",
        -8.752800165287496
      ],
      [
        "LQ",
        -8.75281050364594
      ],
      [
        "ZC",
        -8.752857541093224
      ],
      [
        "og",
        -8.752972829685875
      ],
      [
        "He",
        -8.753003744736148
      ],
      [
        "mD",
        -8.753146837646689
      ],
      [
        "wI",
        -8.753168961158082
      ],
      [
        "HI",
        -8.753230034799058
      ],
      [
        "nT",
        -8.753267843939284
      ],
      [
        "WF",
        -8.753346266133729
      ],
      [
        "IA",
        -8.75347289802593
      ],
      [
        "wN",
        -8.753744163953629
      ],
      [
        "os",
        -8.753756371989518
      ],
      [
        "uv",
        -8.753772876709098
      ],
      [
        "As",
        -8.753944047478345
      ],
      [
        "eg",
        -8.75394659061796
      ],
      [
        "cM",
        -8.754093867257264
      ],
      [
        "Dp",
        -8.754123956372005
      ],
      [
        "AV",
        -8.754191307153777
      ],
      [
        "lJ",
        -8.75431311388602
      ],
      [
        "qs",
        -8.754340536906938
      ],
      [
        "Nl",
        -8.754361602743973
      ],
      [
        "uM",
        -8.754372435859048
      ],
      [
        "TV",
        -8.754378000099056
      ],
      [
        "fo",
        -8.754378317171046
      ],
      [
        "Bx",
        -8.754437562207213
      ],
      [
        "dd",
        -8.754807441626376
      ],
      [
        "mM",
        -8.755085882147455
      ],
      [
        "jp",
        -8.755093466615321
      ],
      [
        "lu",
        -8.75512477272288
      ],
      [
        "OB",
        -8.75517834036907
      ],
      [
        "Gb",
        -8.755319514527192
      ],
      [
        "gl",
        -8.755397093115832
      ],
      [
        "UC",
        -8.755498968046599
      ],
      [
        "DD",
        -8.755511037811964
      ],
      [
        "xX",
        -8.755614517584888
      ],
      [
        "YH",
        -8.755911964383808
      ],
      [
        "RV",
        -8.756121551171452
      ],
      [
        "Yu",
        -8.756172250062065
      ],
      [
        "MT",
        -8.756182441940677
      ],
      [
        "jZ",
        -8.756239636431268
      ],
      [
        "cU",
        -8.756259036548927
      ],
      [
        "CC",
        -8.7562649738571
      ],
      [
        "vp",
        -8.756406739307614
      ],
      [
        "hD",
        -8.756418178325973
      ],
      [
        "QA",
        -8.756419385098196
      ],
      [
        "mC",
        -8.756452970573914
      ],
      [
        "pX",
        -8.756458887682768
      ],
      [
        "RU",
        -8.756470378549594
      ],
      [
        "IU",
        -8.756549005083933
      ],
      [
        "RI",
        -8.756592675209294
      ],
      [
        "ZA",
        -8.756788039316739
      ],
      [
        "gC",
        -8.756806036581331
      ],
      [
        "Yl",
        -8.756820762955659
      ],
      [
        "IW",
        -8.756871646882892
      ],
      [
        "Mb",
        -8.757030620381457
      ],
      [
        "Ap",
        -8.757050955675801
      ],
      [
        "zU",
        -8.757073674808446
      ],
      [
        "Zm",
        -8.75710153860738
      ],
      [
        "jN",
        -8.757112407525717
      ],
      [
        "fT",
        -8.757340902401307
      ],
      [
        "Gq",
        -8.757363555677058
      ],
      [
        "sK",
        -8.757466969050412
      ],
      [
        "pe",
        -8.75749363191423
      ],
      [
        "XK",
        -8.757551569667129
      ],
      [
        "Kb",
        -8.757601243883375
      ],
      [
        "MX",
        -8.757723237906069
      ],
      [
        "LK",
        -8.75781722748606
      ],
      [
        "YB",
        -8.757991328229284
      ],
      [
        "AU",
        -8.758038313974112
      ],
      [
        "AB",
        -8.758327429340648
      ],
      [
        "uW",
        -8.75842882080902
      ],
      [
        "VQ",
        -8.758524916854865
      ],
      [
        "Cl",
        -8.758666847386735
      ],
      [
        "BW",
        -8.758780954941962
      ],
      [
        "Xa",
        -8.758789629423468
      ],
      [
        "KN",
        -8.758919930811892
      ],
      [
        "bv",
        -8.759020078898697
      ],
      [
        "Ch",
        -8.75905169710346
      ],
      [
        "Bz",
        -8.759516195991129
      ],
      [
        "N5",
        -8.75953224897154
      ],
      [
        "rd",
        -8.759612735685984
      ],
      [
        "qT",
        -8.759654913599821
      ],
      [
        "DT",
        -8.759720305004201
      ],
      [
        "xM",
        -8.759943566079569
      ],
      [
        "HL",
        -8.759955841053433
      ],
      [
        "jv",
        -8.760047293671754
      ],
      [
        "lX",
        -8.760190812849096
      ],
      [
        "GA",
        -8.760270293273043
      ],
      [
        "dQ",
        -8.760270853097019
      ],
      [
        "Ta",
        -8.760333049753116
      ],
      [
        "uZ",
        -8.760464118676232
      ],
      [
        "Tn",
        -8.760479305306518
      ],
      [
        "Jb",
        -8.760486900504409
      ],
      [
        "Is",
        -8.760531899695193
      ],
      [
        "on",
        -8.760586687390756
      ],
      [
        "Xm",
        -8.760600236149953
      ],
      [
        "q5",
        -8.76065132511916
      ],
      [
        "nI",
        -8.760741151006142
      ],
      [
        "ZX",
        -8.760798739810248
      ],
      [
        "GZ",
        -8.760798798202757
      ],
      [
        "fM",
        -8.76087692467961
      ],
      [
        "CI",
        -8.760890358830991
      ],
      [
        "JY",
        -8.761350497975883
      ],
      [
        "Aj",
        -8.761420502798167
      ],
      [
        "Dg",
        -8.76148758852275
      ],
      [
        "JL",
        -8.761698512864019
      ],
      [
        "OW",
        -8.761759039707115
      ],
      [
        "aq",
        -8.761768248335102
      ],
      [
        "MH",
        -8.761944044626077
      ],
      [
        "xw",
        -8.761995025333476
      ],
      [
        "MW",
        -8.762057241215292
      ],
      [
        "Cf",
        -8.762183985709935
      ],
      [
        "au",
        -8.762352062149974
      ],
      [
        "GY",
        -8.762566602231995
      ],
      [
        "Tg",
        -8.76261901856449
      ],
      [
        "ya",
        -8.762645638046465
      ],
      [
        "Do",
        -8.762746881511704
      ],
      [
        "wq",
        -8.763096650717731
      ],
      [
        "cZ",
        -8.763165753524062
      ],
      [
        "ou",
        -8.76331334979689
      ],
      [
        "jY",
        -8.763429167798357
      ],
      [
        "jl",
        -8.763494482892497
      ],
      [
        "IL",
        -8.763538914222096
      ],
      [
        "LU",
        -8.763574789312514
      ],
      [
        "ro",
        -8.76361322815011
      ],
      [
        "ao",
        -8.763830908733958
      ],
      [
        "Au",
        -8.763951053594443
      ],
      [
        "HD",
        -8.764059724770998
      ],
      [
        "nG",
        -8.764303182426726
      ],
      [
        "Js",
        -8.764306675962498
      ],
      [
        "sw",
        -8.764393724053106
      ],
      [
        "aK",
        -8.764411510818032
      ],
      [
        "gm",
        -8.764645069060599
      ],
      [
        "bB",
        -8.764922067628753
      ],
      [
        "eL",
        -8.765015204904206
      ],
      [
        "mT",
        -8.765143129427276
      ],
      [
        "Jw",
        -8.76528152820895
      ],
      [
        "aQ",
        -8.765288283319277
      ],
      [
        "vj",
        -8.765302523961552
      ],
      [
        "bX",
        -8.765430344571921
      ],
      [
        "VB",
        -8.76547214313611
      ],
      [
        "Db",
        -8.765519232736253
      ],
      [
        "qO",
        -8.765733041288819
      ],
      [
        "Ah",
        -8.7657672199349
      ],
      [
        "aH",
        -8.76587558467985
      ],
      [
        "dI",
        -8.765898265441304
      ],
      [
        "eB",
        -8.765973072843849
      ],
      [
        "eA",
        -8.766157684245126
      ],
      [
        "vb",
        -8.766203408873707
      ],
      [
        "fz",
        -8.766410660086443
      ],
      [
        "xf",
        -8.766568196640502
      ],
      [
        "Bl",
        -8.766605419480143
      ],
      [
        "TA",
        -8.766640490543013
      ],
      [
        "zp",
        -8.766640850286105
      ],
      [
        "sG",
        -8.766757520758729
      ],
      [
        "DC",
        -8.766775229729934
      ],
      [
        "Wa",
        -8.767015785582924
      ],
      [
        "Yf",
        -8.76716605934335
      ],
      [
        "Yv",
        -8.76720519094544
      ],
      [
        "Xn",
        -8.767405646921073
      ],
      [
        "zo",
        -8.767532532847245
      ],
      [
        "ng",
        -8.767547553395639
      ],
      [
        "YD",
        -8.76757247326001
      ],
      [
        "za",
        -8.767662828166634
      ],
      [
        "IH",
        -8.767736841922913
      ],
      [
        "VV",
        -8.768017481725625
      ],
      [
        "pD",
        -8.76812184460194
      ],
      [
        "XA",
        -8.768362041456802
      ],
      [
        "wX",
        -8.768392098704133
      ],
      [
        "uR",
        -8.768565099201625
      ],
      [
        "fv",
        -8.76863498163149
      ],
      [
        "OY",
        -8.768673023957252
      ],
      [
        "xW",
        -8.768966383097567
      ],
      [
        "Ag",
        -8.769087882667247
      ],
      [
        "Dq",
        -8.769169929856446
      ],
      [
        "pZ",
        -8.76920467658891
      ],
      [
        "uI",
        -8.769378356555045
      ],
      [
        "ej",
        -8.769648039639991
      ],
      [
        "Gf",
        -8.769708730392345
      ],
      [
        "aN",
        -8.76991314348394
      ],
      [
        "jJ",
        -8.769931080236224
      ],
      [
        "mJ",
        -8.770429300237714
      ],
      [
        "Za",
        -8.77063790897035
      ],
      [
        "ZL",
        -8.770790181401704
      ],
      [
        "fA",
        -8.770875317574589
      ],
      [
        "NY",
        -8.770882007638201
      ],
      [
        "Gc",
        -8.770961812076699
      ],
      [
        "bn",
        -8.770966916607705
      ],
      [
        "dr",
        -8.770990482945544
      ],
      [
        "cc",
        -8.77104739536416
      ],
      [
        "ZR",
        -8.771067704192784
      ],
      [
        "wu",
        -8.77120985404541
      ],
      [
        "Zu",
        -8.771309190277957
      ],
      [
        "Cp",
        -8.771311989999552
      ],
      [
        "af",
        -8.771352097227357
      ],
      [
        "XL",
        -8.771519614948811
      ],
      [
        "ml",
        -8.771594122571411
      ],
      [
        "fL",
        -8.771646224090109
      ],
      [
        "pf",
        -8.771669805844828
      ],
      [
        "JD",
        -8.771752910704421
      ],
      [
        "fH",
        -8.771774006011775
      ],
      [
        "RD",
        -8.771803396316914
      ],
      [
        "YA",
        -8.771814011079886
      ],
      [
        "nc",
        -8.771984485840514
      ],
      [
        "dK",
        -8.772180478206987
      ],
      [
        "rR",
        -8.772228052134349
      ],
      [
        "KD",
        -8.772470305532432
      ],
      [
        "CL",
        -8.772477576039403
      ],
      [
        "el",
        -8.772511170803849
      ],
      [
        "bj",
        -8.772616712861655
      ],
      [
        "xK",
        -8.772755004568236
      ],
      [
        "wr",
        -8.77291925899549
      ],
      [
        "rq",
        -8.77293014590066
      ],
      [
        "Xw",
        -8.772942657228588
      ],
      [
        "wz",
        -8.773057525840386
      ],
      [
        "WQ",
        -8.773190435731241
      ],
      [
        "BX",
        -8.773323550737272
      ],
      [
        "nD",
        -8.773353282488682
      ],
      [
        "VZ",
        -8.773733594313555
      ],
      [
        "oG",
        -8.773739800336159
      ],
      [
        "rB",
        -8.773771978128092
      ],
      [
        "nU",
        -8.773868735994576
      ],
      [
        "WB",
        -8.773981840730961
      ],
      [
        "MC",
        -8.774059940301797
      ],
      [
        "MK",
        -8.774075746113693
      ],
      [
        "Ju",
        -8.774108592414539
      ],
      [
        "aW",
        -8.77464909990817
      ],
      [
        "nw",
        -8.774888091420248
      ],
      [
        "rG",
        -8.775188601293518
      ],
      [
        "dM",
        -8.77523471649188
      ],
      [
        "JW",
        -8.775279457018762
      ],
      [
        "VY",
        -8.775506699104653
      ],
      [
        "re",
        -8.775610787718806
      ],
      [
        "eI",
        -8.775793867180376
      ],
      [
        "wf",
        -8.775816596181993
      ],
      [
        "Wz",
        -8.77581860686061
      ],
      [
        "YY",
        -8.775958416719106
      ],
      [
        "YT",
        -8.7762153768809
      ],
      [
        "bN",
        -8.776228494120552
      ],
      [
        "TR",
        -8.77625439364025
      ],
      [
        "Xc",
        -8.776294936599175
      ],
      [
        "Ys",
        -8.776588944682246
      ],
      [
        "xR",
        -8.776602728945505
      ],
      [
        "RW",
        -8.77670245531315
      ],
      [
        "Gv",
        -8.77671273615815
      ],
      [
        "sA",
        -8.776770620197176
      ],
      [
        "In",
        -8.777072865972418
      ],
      [
        "NV",
        -8.777131635414417
      ],
      [
        "Iz",
        -8.777135680710392
      ],
      [
        "cg",
        -8.777154765176919
      ],
      [
        "se",
        -8.77742493283196
      ],
      [
        "Nz",
        -8.777523593972733
      ],
      [
        "BG",
        -8.777604354276596
      ],
      [
        "ql",
        -8.777705158928015
      ],
      [
        "TK",
        -8.777721237151358
      ],
      [
        "Dl",
        -8.777728330114275
      ],
      [
        "cI",
        -8.77782537332934
      ],
      [
        "eh",
        -8.778033269773438
      ],
      [
        "zB",
        -8.778064086497352
      ],
      [
        "DH",
        -8.778182630560547
      ],
      [
        "WK",
        -8.77828203868062
      ],
      [
        "YU",
        -8.778300385014655
      ],
      [
        "uX",
        -8.778716731195296
      ],
      [
        "sv",
        -8.77892254614296
      ],
      [
        "AK",
        -8.779008273454616
      ],
      [
        "qg",
        -8.779066895432335
      ],
      [
        "HY",
        -8.779242906673971
      ],
      [
        "Dh",
        -8.77927493774131
      ],
      [
        "LN",
        -8.779442434727759
      ],
      [
        "jV",
        -8.77953059587172
      ],
      [
        "vT",
        -8.77959155235666
      ],
      [
        "YR",
        -8.779752501338006
      ],
      [
        "wm",
        -8.779829160317211
      ],
      [
        "OG",
        -8.779892333524604
      ],
      [
        "YJ",
        -8.779951680613088
      ],
      [
        "GH",
        -8.779979824346881
      ],
      [
        "wY",
        -8.780146245080484
      ],
      [
        "sq",
        -8.780212615008075
      ],
      [
        "uG",
        -8.78032415705771
      ],
      [
        "wJ",
        -8.78042888258464
      ],
      [
        "QJ",
        -8.780430687084479
      ],
      [
        "A9",
        -8.780677663951957
      ],
      [
        "Kh",
        -8.780699287645641
      ],
      [
        "Qq",
        -8.78107456503097
      ],
      [
        "yX",
        -8.781133584228987
      ],
      [
        "Og",
        -8.781144723841983
      ],
      [
        "UI",
        -8.781188248001117
      ],
      [
        "OD",
        -8.78119535943108
      ],
      [
        "wA",
        -8.781320843529748
      ],
      [
        "oI",
        -8.78134657000511
      ],
      [
        "Wx",
        -8.781375592463075
      ],
      [
        "uL",
        -8.781698065367811
      ],
      [
        "uU",
        -8.781718520053015
      ],
      [
        "Mo",
        -8.782081819965608
      ],
      [
        "CJ",
        -8.78222306946568
      ],
      [
        "Yj",
        -8.782230111313483
      ],
      [
        "Lz",
        -8.782386320320846
      ],
      [
        "ZI",
        -8.782501811224892
      ],
      [
        "Fa",
        -8.782607093313597
      ],
      [
        "lW",
        -8.782765663107675
      ],
      [
        "me",
        -8.782792346342585
      ],
      [
        "pg",
        -8.782905036553899
      ],
      [
        "Oe",
        -8.78291410251154
      ],
      [
        "lc",
        -8.782951231900899
      ],
      [
        "Jv",
        -8.78296673981113
      ],
      [
        "qK",
        -8.783035695783877
      ],
      [
        "lY",
        -8.783119270274469
      ],
      [
        "lI",
        -8.783329067465893
      ],
      [
        "vC",
        -8.78349184840372
      ],
      [
        "Xe",
        -8.783609746997218
      ],
      [
        "BH",
        -8.783620631308178
      ],
      [
        "OJ",
        -8.783747666240455
      ],
      [
        "fV",
        -8.783763667957896
      ],
      [
        "ZV",
        -8.783834271369876
      ],
      [
        "uz",
        -8.783956011064992
      ],
      [
        "Tv",
        -8.784016209119905
      ],
      [
        "AG",
        -8.78407477041918
      ],
      [
        "ND",
        -8.78409650251563
      ],
      [
        "LJ",
        -8.784222877830281
      ],
      [
        "xV",
        -8.784324586368076
      ],
      [
        "TJ",
        -8.784513891655347
      ],
      [
        "sY",
        -8.784706861218712
      ],
      [
        "nY",
        -8.784750490189246
      ],
      [
        "fW",
        -8.784842507066585
      ],
      [
        "Cg",
        -8.784852002104262
      ],
      [
        "lU",
        -8.784994621570027
      ],
      [
        "QU",
        -8.785383635684061
      ],
      [
        "WX",
        -8.785402457784546
      ],
      [
        "HT",
        -8.78542216798336
      ],
      [
        "hq",
        -8.785482286975952
      ],
      [
        "HX",
        -8.785531854272026
      ],
      [
        "XC",
        -8.785573491034596
      ],
      [
        "uJ",
        -8.785702620632144
      ],
      [
        "wD",
        -8.78573498901486
      ],
      [
        "zv",
        -8.785833354378703
      ],
      [
        "pQ",
        -8.786184469290259
      ],
      [
        "xC",
        -8.786242946163242
      ],
      [
        "GG",
        -8.786354089427812
      ],
      [
        "Qg",
        -8.786409915850122
      ],
      [
        "Mq",
        -8.786480038121564
      ],
      [
        "qb",
        -8.786633672745893
      ],
      [
        "Zc",
        -8.786883098150021
      ],
      [
        "OA",
        -8.786929855571444
      ],
      [
        "aT",
        -8.7873261728877
      ],
      [
        "VT",
        -8.787528766309485
      ],
      [
        "wn",
        -8.78773544603594
      ],
      [
        "eJ",
        -8.787950077555825
      ],
      [
        "uQ",
        -8.787975086515342
      ],
      [
        "nQ",
        -8.788041193649676
      ],
      [
        "Lv",
        -8.78807082228613
      ],
      [
        "MJ",
        -8.788117617930784
      ],
      [
        "dZ",
        -8.788119107395314
      ],
      [
        "yL",
        -8.788373430143729
      ],
      [
        "AN",
        -8.788417409374626
      ],
      [
        "AI",
        -8.788430590003966
      ],
      [
        "WG",
        -8.788576688535397
      ],
      [
        "GC",
        -8.78858851743335
      ],
      [
        "AW",
        -8.788975124505289
      ],
      [
        "DU",
        -8.789147518703327
      ],
      [
        "CY",
        -8.789186756679015
      ],
      [
        "dW",
        -8.789389692905473
      ],
      [
        "qD",
        -8.789542458034997
      ],
      [
        "ZH",
        -8.789583514034186
      ],
      [
        "Yn",
        -8.789812272933563
      ],
      [
        "cp",
        -8.789847524829876
      ],
      [
        "cA",
        -8.790169911367073
      ],
      [
        "xm",
        -8.790600728908686
      ],
      [
        "HC",
        -8.791045560735055
      ],
      [
        "GV",
        -8.791063490872984
      ],
      [
        "Df",
        -8.79127326549905
      ],
      [
        "vG",
        -8.791316925363532
      ],
      [
        "XT",
        -8.791378477804818
      ],
      [
        "jL",
        -8.791584559391223
      ],
      [
        "bL",
        -8.791597832765236
      ],
      [
        "Iq",
        -8.79175266418241
      ],
      [
        "xQ",
        -8.791803626535001
      ],
      [
        "Zw",
        -8.791846459731937
      ],
      [
        "uK",
        -8.792121176841983
      ],
      [
        "Rf",
        -8.792183168413565
      ],
      [
        "Rh",
        -8.79223385672719
      ],
      [
        "lq",
        -8.792364800093182
      ],
      [
        "Qp",
        -8.792473435439266
      ],
      [
        "rA",
        -8.79251982086433
      ],
      [
        "ZY",
        -8.792521018321825
      ],
      [
        "fm",
        -8.792544307722256
      ],
      [
        "UY",
        -8.792574476737078
      ],
      [
        "lp",
        -8.792620330673566
      ],
      [
        "fe",
        -8.792654625773569
      ],
      [
        "mL",
        -8.792825448353442
      ],
      [
        "jc",
        -8.792833998318368
      ],
      [
        "Ww",
        -8.792921109398428
      ],
      [
        "Yc",
        -8.792931952578595
      ],
      [
        "tW",
        -8.793199387313159
      ],
      [
        "oA",
        -8.793267708356849
      ],
      [
        "HQ",
        -8.793393660726277
      ],
      [
        "Cv",
        -8.793410655350032
      ],
      [
        "Lb",
        -8.793483831898172
      ],
      [
        "fw",
        -8.793520495296326
      ],
      [
        "WN",
        -8.793649040121224
      ],
      [
        "Uv",
        -8.793765104366415
      ],
      [
        "HJ",
        -8.793895034084944
      ],
      [
        "Wh",
        -8.793996422493803
      ],
      [
        "ve",
        -8.794331161460935
      ],
      [
        "aZ",
        -8.794344651629839
      ],
      [
        "XM",
        -8.794523463347176
      ],
      [
        "BN",
        -8.794620041954715
      ],
      [
        "po",
        -8.794676699807722
      ],
      [
        "sQ",
        -8.794743659863553
      ],
      [
        "Qb",
        -8.794829573403373
      ],
      [
        "aX",
        -8.794900378062966
      ],
      [
        "Ip",
        -8.79498075546194
      ],
      [
        "gq",
        -8.795500232743654
      ],
      [
        "Gp",
        -8.795572632228986
      ],
      [
        "dJ",
        -8.795879809887065
      ],
      [
        "uA",
        -8.796033557175
      ],
      [
        "zJ",
        -8.796236854735747
      ],
      [
        "cD",
        -8.796277711369639
      ],
      [
        "Wd",
        -8.79629171483873
      ],
      [
        "Th",
        -8.796315652257029
      ],
      [
        "Wc",
        -8.796366453749988
      ],
      [
        "Oc",
        -8.796702761288408
      ],
      [
        "oh",
        -8.796713798632798
      ],
      [
        "Hz",
        -8.796793334898304
      ],
      [
        "Zq",
        -8.796937540985873
      ],
      [
        "pq",
        -8.79696442268092
      ],
      [
        "Hg",
        -8.797165146331764
      ],
      [
        "uD",
        -8.797215826592023
      ],
      [
        "HG",
        -8.797244543660938
      ],
      [
        "dT",
        -8.79730371043604
      ],
      [
        "Hv",
        -8.797360870997299
      ],
      [
        "so",
        -8.797361127564162
      ],
      [
        "rH",
        -8.797874146693207
      ],
      [
        "XJ",
        -8.797880719307713
      ],
      [
        "yQ",
        -8.79789000219861
      ],
      [
        "bl",
        -8.798000374462585
      ],
      [
        "Wn",
        -8.798810362622822
      ],
      [
        "xb",
        -8.79884317672736
      ],
      [
        "vn",
        -8.798987686936595
      ],
      [
        "zc",
        -8.79938050318358
      ],
      [
        "jG",
        -8.799472939729567
      ],
      [
        "Rb",
        -8.79950593422668
      ],
      [
        "ZB",
        -8.79955519058382
      ],
      [
        "Ic",
        -8.799596898911055
      ],
      [
        "Gl",
        -8.799796257841663
      ],
      [
        "Lo",
        -8.79984550493064
      ],
      [
        "Jg",
        -8.799908253528525
      ],
      [
        "JV",
        -8.80024625030273
      ],
      [
        "eb",
        -8.800336153482245
      ],
      [
        "bC",
        -8.800342576189458
      ],
      [
        "lf",
        -8.800515274427214
      ],
      [
        "BD",
        -8.800632194113257
      ],
      [
        "Wg",
        -8.800880976300117
      ],
      [
        "YG",
        -8.801135878421405
      ],
      [
        "mQ",
        -8.801147642707416
      ],
      [
        "Bc",
        -8.801260044266133
      ],
      [
        "nC",
        -8.801421118533593
      ],
      [
        "TD",
        -8.801542170906796
      ],
      [
        "gL",
        -8.801559831325545
      ],
      [
        "Xv",
        -8.801577145184318
      ],
      [
        "KT",
        -8.801639853367186
      ],
      [
        "Xf",
        -8.80175272656825
      ],
      [
        "yJ",
        -8.80176584924363
      ],
      [
        "UK",
        -8.801926211005828
      ],
      [
        "RB",
        -8.802316004319936
      ],
      [
        "mv",
        -8.802409354151198
      ],
      [
        "dq",
        -8.80253351528537
      ],
      [
        "Nh",
        -8.802632801424586
      ],
      [
        "aw",
        -8.803721854037036
      ],
      [
        "Uc",
        -8.803765104508336
      ],
      [
        "pG",
        -8.803837263870406
      ],
      [
        "Me",
        -8.80434160053137
      ],
      [
        "Tw",
        -8.804593301806023
      ],
      [
        "ch",
        -8.805107391508987
      ],
      [
        "Jq",
        -8.805167007478792
      ],
      [
        "ub",
        -8.805227997064975
      ],
      [
        "dA",
        -8.805552035836605
      ],
      [
        "No",
        -8.805712280072441
      ],
      [
        "Tp",
        -8.805805244970605
      ],
      [
        "Mg",
        -8.80582050626554
      ],
      [
        "LD",
        -8.80601703279641
      ],
      [
        "XI",
        -8.806044647964544
      ],
      [
        "ZQ",
        -8.806160395893107
      ],
      [
        "pv",
        -8.806468204509923
      ],
      [
        "uC",
        -8.806500598726881
      ],
      [
        "Mp",
        -8.806639009633189
      ],
      [
        "OI",
        -8.80671396808243
      ],
      [
        "yf",
        -8.806721520790134
      ],
      [
        "GB",
        -8.807028133482344
      ],
      [
        "Lq",
        -8.807328585385086
      ],
      [
        "Vl",
        -8.807363018249921
      ],
      [
        "ul",
        -8.807430284017133
      ],
      [
        "mN",
        -8.807640237848123
      ],
      [
        "zm",
        -8.807835759032344
      ],
      [
        "oT",
        -8.807949612156762
      ],
      [
        "Ro",
        -8.807997221527508
      ],
      [
        "wo",
        -8.808032263010416
      ],
      [
        "Tq",
        -8.80807922929938
      ],
      [
        "XV",
        -8.808238251379427
      ],
      [
        "rf",
        -8.808448289556527
      ],
      [
        "Ig",
        -8.808554246832532
      ],
      [
        "Oq",
        -8.80861766438791
      ],
      [
        "xG",
        -8.808870121894952
      ],
      [
        "Mv",
        -8.808903419795858
      ],
      [
        "Lc",
        -8.808904574693644
      ],
      [
        "OC",
        -8.808983605361489
      ],
      [
        "mR",
        -8.809387864031303
      ],
      [
        "Mc",
        -8.809389172262208
      ],
      [
        "IT",
        -8.809502895284144
      ],
      [
        "JB",
        -8.809507392252584
      ],
      [
        "Xl",
        -8.809869631290056
      ],
      [
        "rw",
        -8.809923221541514
      ],
      [
        "yY",
        -8.809927040067226
      ],
      [
        "Qv",
        -8.810055040429837
      ],
      [
        "mb",
        -8.810092218940937
      ],
      [
        "aD",
        -8.810155418137665
      ],
      [
        "rc",
        -8.810163372870267
      ],
      [
        "iJ",
        -8.810566262078389
      ],
      [
        "wC",
        -8.81058754022079
      ],
      [
        "pm",
        -8.810785105163042
      ],
      [
        "Bo",
        -8.81079821316947
      ],
      [
        "zz",
        -8.810894686888426
      ],
      [
        "Xg",
        -8.810988589833446
      ],
      [
        "Kg",
        -8.811247257079291
      ],
      [
        "Fb",
        -8.811918355538566
      ],
      [
        "Hq",
        -8.811936227438503
      ],
      [
        "rJ",
        -8.812180794135996
      ],
      [
        "fI",
        -8.812194433723441
      ],
      [
        "rb",
        -8.812218955669493
      ],
      [
        "Lp",
        -8.812436015361577
      ],
      [
        "pc",
        -8.812446722265191
      ],
      [
        "Xo",
        -8.812478229264759
      ],
      [
        "da",
        -8.812670778725831
      ],
      [
        "WY",
        -8.812699745989093
      ],
      [
        "xo",
        -8.812765065767536
      ],
      [
        "RG",
        -8.812777950203673
      ],
      [
        "Xz",
        -8.812973494578742
      ],
      [
        "Oo",
        -8.812976230337707
      ],
      [
        "QQ",
        -8.812994037281065
      ],
      [
        "wg",
        -8.813134671334705
      ],
      [
        "eo",
        -8.813331407560975
      ],
      [
        "VL",
        -8.813338821443253
      ],
      [
        "pl",
        -8.813533266479837
      ],
      [
        "aI",
        -8.813706891413123
      ],
      [
        "XR",
        -8.813952845678493
      ],
      [
        "QK",
        -8.814262494195454
      ],
      [
        "pN",
        -8.814755786310458
      ],
      [
        "Qh",
        -8.814826019187713
      ],
      [
        "Fw",
        -8.815328409313143
      ],
      [
        "zD",
        -8.815598659908204
      ],
      [
        "fh",
        -8.815659772503054
      ],
      [
        "nV",
        -8.81579657658606
      ],
      [
        "eV",
        -8.815797259062414
      ],
      [
        "Ne",
        -8.81607666613379
      ],
      [
        "JU",
        -8.816953746254097
      ],
      [
        "up",
        -8.81696203622695
      ],
      [
        "Zl",
        -8.817100628038192
      ],
      [
        "0W",
        -8.817282385285873
      ],
      [
        "rl",
        -8.817498985807699
      ],
      [
        "Ih",
        -8.817769882590827
      ],
      [
        "ug",
        -8.81788955885909
      ],
      [
        "oO",
        -8.81790551720728
      ],
      [
        "RQ",
        -8.818318881309501
      ],
      [
        "pw",
        -8.818644853353
      ],
      [
        "rm",
        -8.818686237421916
      ],
      [
        "ab",
        -8.81911355774412
      ],
      [
        "wK",
        -8.81917322410954
      ],
      [
        "dN",
        -8.819195455387469
      ],
      [
        "Le",
        -8.819198419554333
      ],
      [
        "Zb",
        -8.819398962695441
      ],
      [
        "Wq",
        -8.819473237298853
      ],
      [
        "lh",
        -8.82010431973604
      ],
      [
        "VX",
        -8.820443143255037
      ],
      [
        "aM",
        -8.820550347218301
      ],
      [
        "uh",
        -8.820750748359426
      ],
      [
        "Mf",
        -8.820921353642623
      ],
      [
        "jC",
        -8.820994516581735
      ],
      [
        "fC",
        -8.821092224016716
      ],
      [
        "BL",
        -8.821110709086746
      ],
      [
        "vg",
        -8.821213334796909
      ],
      [
        "Ll",
        -8.821375078346861
      ],
      [
        "rL",
        -8.821540785030088
      ],
      [
        "rM",
        -8.821617528640331
      ],
      [
        "ag",
        -8.821814688430166
      ],
      [
        "mg",
        -8.821982584929552
      ],
      [
        "xB",
        -8.822185772241546
      ],
      [
        "Dz",
        -8.822519354767817
      ],
      [
        "Ov",
        -8.82266949103029
      ],
      [
        "KU",
        -8.823194250590879
      ],
      [
        "fG",
        -8.823330042300324
      ],
      [
        "JT",
        -8.824307310266608
      ],
      [
        "ZD",
        -8.82437654344939
      ],
      [
        "Oh",
        -8.824408169421119
      ],
      [
        "XB",
        -8.824442647149187
      ],
      [
        "fD",
        -8.824459456055433
      ],
      [
        "zC",
        -8.824772716648706
      ],
      [
        "xN",
        -8.82498002853415
      ],
      [
        "Rq",
        -8.825185965232802
      ],
      [
        "aC",
        -8.825203287238388
      ],
      [
        "Vv",
        -8.82541149393656
      ],
      [
        "um",
        -8.825444246126963
      ],
      [
        "fK",
        -8.826000924374135
      ],
      [
        "Zo",
        -8.826093370919072
      ],
      [
        "HB",
        -8.826281906323452
      ],
      [
        "Jz",
        -8.82661093260278
      ],
      [
        "IN",
        -8.826643118104133
      ],
      [
        "Zz",
        -8.826760927704576
      ],
      [
        "lD",
        -8.827153527593225
      ],
      [
        "eU",
        -8.827350425904225
      ],
      [
        "CQ",
        -8.827472374395867
      ],
      [
        "0w",
        -8.828134141526093
      ],
      [
        "yo",
        -8.82886614581858
      ],
      [
        "Hb",
        -8.828943659264603
      ],
      [
        "aB",
        -8.82916760614918
      ],
      [
        "Nw",
        -8.829331355508932
      ],
      [
        "Jo",
        -8.829405650177662
      ],
      [
        "Zv",
        -8.829422340929497
      ],
      [
        "bh",
        -8.829568751545978
      ],
      [
        "ra",
        -8.829625206435656
      ],
      [
        "Wm",
        -8.829853067474962
      ],
      [
        "Qw",
        -8.82985967590535
      ],
      [
        "zq",
        -8.830102051955079
      ],
      [
        "dL",
        -8.83021863520337
      ],
      [
        "IJ",
        -8.830498511317249
      ],
      [
        "iA",
        -8.830846816687828
      ],
      [
        "Yb",
        -8.83120739597847
      ],
      [
        "ZN",
        -8.832431187409249
      ],
      [
        "az",
        -8.832520165880666
      ],
      [
        "IC",
        -8.832531896481397
      ],
      [
        "aU",
        -8.832618374633983
      ],
      [
        "rz",
        -8.832760597885635
      ],
      [
        "Vw",
        -8.833228257811907
      ],
      [
        "Bq",
        -8.833420993375857
      ],
      [
        "Ob",
        -8.833462995576443
      ],
      [
        "zh",
        -8.83348900594153
      ],
      [
        "BQ",
        -8.833904166003599
      ],
      [
        "zA",
        -8.833968116980918
      ],
      [
        "rg",
        -8.834875937070905
      ],
      [
        "rp",
        -8.835061641518521
      ],
      [
        "sU",
        -8.835107792696883
      ],
      [
        "Jl",
        -8.83521632462586
      ],
      [
        "VG",
        -8.835423869479282
      ],
      [
        "Dw",
        -8.835611873001103
      ],
      [
        "rI",
        -8.83568367625189
      ],
      [
        "Xq",
        -8.8363101138115
      ],
      [
        "XD",
        -8.83654833060751
      ],
      [
        "jQ",
        -8.836780509347275
      ],
      [
        "aJ",
        -8.837267900373984
      ],
      [
        "fB",
        -8.837565479393152
      ],
      [
        "Kv",
        -8.83790225967791
      ],
      [
        "yD",
        -8.838239628579217
      ],
      [
        "Vh",
        -8.838715711433398
      ],
      [
        "GR",
        -8.838840496299925
      ],
      [
        "Kc",
        -8.839015765955011
      ],
      [
        "dD",
        -8.839797551879606
      ],
      [
        "Nc",
        -8.840194271861222
      ],
      [
        "tw",
        -8.841223387235546
      ],
      [
        "Al",
        -8.841677049387119
      ],
      [
        "Nu",
        -8.842167802792527
      ],
      [
        "XQ",
        -8.842423443946352
      ],
      [
        "FC",
        -8.842991855264383
      ],
      [
        "NC",
        -8.843214231449895
      ],
      [
        "fQ",
        -8.843500610398735
      ],
      [
        "rD",
        -8.843779213588554
      ],
      [
        "Qm",
        -8.843789377424773
      ],
      [
        "HW",
        -8.844074266331823
      ],
      [
        "fq",
        -8.844342990260053
      ],
      [
        "wT",
        -8.844587228033728
      ],
      [
        "Hl",
        -8.844833276592265
      ],
      [
        "Yg",
        -8.845017679738982
      ],
      [
        "mU",
        -8.845261018803757
      ],
      [
        "cv",
        -8.845837424209233
      ],
      [
        "iw",
        -8.84598168253466
      ],
      [
        "ol",
        -8.84646012751424
      ],
      [
        "XG",
        -8.846736755895293
      ],
      [
        "dR",
        -8.846861987471875
      ],
      [
        "ah",
        -8.847086949933523
      ],
      [
        "ac",
        -8.847941070191442
      ],
      [
        "xD",
        -8.848052362484452
      ],
      [
        "Ze",
        -8.84858117908673
      ],
      [
        "sC",
        -8.848761230221797
      ],
      [
        "yw",
        -8.848766007723377
      ],
      [
        "eq",
        -8.849573995187718
      ],
      [
        "Wv",
        -8.849606917063388
      ],
      [
        "wU",
        -8.849679849805485
      ],
      [
        "jb",
        -8.850572582907219
      ],
      [
        "Wo",
        -8.850828709933253
      ],
      [
        "FL",
        -8.851600391657659
      ],
      [
        "Jc",
        -8.851850172713505
      ],
      [
        "Co",
        -8.851935883605167
      ],
      [
        "FG",
        -8.85340505475924
      ],
      [
        "Wb",
        -8.854111543608084
      ],
      [
        "dB",
        -8.854299806146795
      ],
      [
        "yT",
        -8.854303217601487
      ],
      [
        "rv",
        -8.854460582975292
      ],
      [
        "fN",
        -8.855031299664468
      ],
      [
        "bA",
        -8.855162125502176
      ],
      [
        "FT",
        -8.85577045881417
      ],
      [
        "yb",
        -8.85577674347234
      ],
      [
        "Iv",
        -8.855859399219245
      ],
      [
        "Zg",
        -8.856857249920653
      ],
      [
        "df",
        -8.857052988710775
      ],
      [
        "Yq",
        -8.857058338632825
      ],
      [
        "yC",
        -8.857746198631055
      ],
      [
        "Mh",
        -8.858078695655845
      ],
      [
        "fU",
        -8.85821557244158
      ],
      [
        "rT",
        -8.858492234212932
      ],
      [
        "Xh",
        -8.858916298369044
      ],
      [
        "mA",
        -8.859067273488199
      ],
      [
        "al",
        -8.859903568870976
      ],
      [
        "rY",
        -8.86101555440737
      ],
      [
        "xI",
        -8.861527100134218
      ],
      [
        "FB",
        -8.861592966050218
      ],
      [
        "ap",
        -8.861867714353163
      ],
      [
        "wc",
        -8.862424807599517
      ],
      [
        "0e",
        -8.862629907069254
      ],
      [
        "FA",
        -8.862861171079658
      ],
      [
        "WT",
        -8.86331414244773
      ],
      [
        "wQ",
        -8.863833936636578
      ],
      [
        "rQ",
        -8.865614142618188
      ],
      [
        "BR",
        -8.865619485516879
      ],
      [
        "qv",
        -8.865634488598072
      ],
      [
        "db",
        -8.866239533750214
      ],
      [
        "RC",
        -8.866453982832166
      ],
      [
        "LC",
        -8.867180775223982
      ],
      [
        "CK",
        -8.867592414680013
      ],
      [
        "ZJ",
        -8.86800537682285
      ],
      [
        "Rv",
        -8.868173402689717
      ],
      [
        "ib",
        -8.868322327164606
      ],
      [
        "Rw",
        -8.869610242342373
      ],
      [
        "rh",
        -8.869684668708848
      ],
      [
        "dz",
        -8.870022086800489
      ],
      [
        "MD",
        -8.870165028249357
      ],
      [
        "FJ",
        -8.87029412030596
      ],
      [
        "rC",
        -8.870637376344622
      ],
      [
        "HA",
        -8.870789999100268
      ],
      [
        "xq",
        -8.87089752988251
      ],
      [
        "aG",
        -8.871536117080911
      ],
      [
        "xc",
        -8.87155070962227
      ],
      [
        "GU",
        -8.871581985018855
      ],
      [
        "Fg",
        -8.872007750281352
      ],
      [
        "aL",
        -8.872489654823024
      ],
      [
        "sJ",
        -8.87314618224725
      ],
      [
        "xe",
        -8.873605095592872
      ],
      [
        "Ho",
        -8.874343757157245
      ],
      [
        "pC",
        -8.87478205468617
      ],
      [
        "BU",
        -8.874918814212528
      ],
      [
        "Bw",
        -8.874992157878953
      ],
      [
        "iv",
        -8.875738975704992
      ],
      [
        "FI",
        -8.875745955709352
      ],
      [
        "FN",
        -8.876142414171891
      ],
      [
        "Bh",
        -8.877381049816286
      ],
      [
        "Hh",
        -8.878580793934333
      ],
      [
        "LG",
        -8.87869086777112
      ],
      [
        "0o",
        -8.878898449360284
      ],
      [
        "ph",
        -8.879109402620372
      ],
      [
        "JK",
        -8.879514482322666
      ],
      [
        "MQ",
        -8.880473162946082
      ],
      [
        "ZK",
        -8.88082710451054
      ],
      [
        "dv",
        -8.88144234269228
      ],
      [
        "Wu",
        -8.881866563521541
      ],
      [
        "yv",
        -8.882147161139876
      ],
      [
        "Bm",
        -8.882744985564091
      ],
      [
        "dc",
        -8.882858169252557
      ],
      [
        "fY",
        -8.883003395662616
      ],
      [
        "rV",
        -8.88346231747503
      ],
      [
        "aA",
        -8.883490262879748
      ],
      [
        "av",
        -8.884312774843341
      ],
      [
        "WU",
        -8.884589450441185
      ],
      [
        "rN",
        -8.884696312268169
      ],
      [
        "yA",
        -8.888814706371932
      ],
      [
        "FY",
        -8.890557220650908
      ],
      [
        "xU",
        -8.892443103400307
      ],
      [
        "0Y",
        -8.894821870797038
      ],
      [
        "NG",
        -8.89569050001227
      ],
      [
        "Yp",
        -8.897335530393983
      ],
      [
        "zQ",
        -8.902828906881137
      ],
      [
        "ZU",
        -8.90598487005089
      ],
      [
        "Fq",
        -8.907773060014927
      ],
      [
        "Fo",
        -8.908262154589
      ],
      [
        "HU",
        -8.911165033812031
      ],
      [
        "ZG",
        -8.913718079704777
      ],
      [
        "Zh",
        -8.921754471524267
      ],
      [
        "dg",
        -8.930887969902297
      ],
      [
        "0A",
        -8.933125902445306
      ],
      [
        "xY",
        -8.93952269752564
      ],
      [
        "do",
        -8.940080555654838
      ]
    ],
    "byte_fallback": false
  }
}