{
  "version": "1.0",
  "truncation": null,
  "padding": null,
  "added_tokens": [
    {
      "id": 0,
      "content": "[PAD]",
      "single_word": false,
      "lstrip": false,
      "rstrip": false,
      "normalized": false,
      "special": true
    },
    {
      "id": 1,
      "content": "[UNK]",
      "single_word": false,
      "lstrip": false,
      "rstrip": false,
      "normalized": false,
      "special": true
    },
    {
      "id": 2,
      "content": "[CLS]",
      "single_word": false,
      "lstrip": false,
      "rstrip": false,
      "normalized": false,
      "special": true
    },
    {
      "id": 3,
      "content": "[SEP]",
      "single_word": false,
      "lstrip": false,
      "rstrip": false,
      "normalized": false,
      "special": true
    },
    {
      "id": 4,
      "content": "[MASK]",
      "single_word": false,
      "lstrip": false,
      "rstrip": false,
      "normalized": false,
      "special": true
    }
  ],
  "normalizer": {
    "type": "NFKC"
  },
  "pre_tokenizer": {
    "type": "Whitespace"
  },
  "post_processor": null,
  "decoder": null,
  "model": {
    "type": "Unigram",
    "unk_id": null,
    "vocab": [
      [
        "[PAD]",
        0.0
      ],
      [
        "[UNK]",
        0.0
      ],
      [
        "[CLS]",
        0.0
      ],
      [
        "[SEP]",
        0.0
      ],
      [
        "[MASK]",
        0.0
      ],
      [
        ">",
        -3.5083677930206587
      ],
      [
        "<",
        -3.5083677930206587
      ],
      [
        "=",
        -3.557158195286103
      ],
      [
        "SEP",
        -3.608619072818353
      ],
      [
        "k",
        -3.872535761785411
      ],
      [
        "S",
        -3.8843054820685303
      ],
      [
        "1",
        -3.901931832895519
      ],
      [
        "7",
        -3.9351704738377116
      ],
      [
        "2",
        -3.938920511226083
      ],
      [
        "4",
        -3.941913789437061
      ],
      [
        "E",
        -3.9514673633684954
      ],
      [
        "P",
        -3.955463053562191
      ],
      [
        "5",
        -4.012609564297287
      ],
      [
        "9",
        -4.046041589481115
      ],
      [
        "3",
        -4.057975276662535
      ],
      [
        "6",
        -4.179112595495365
      ],
      [
        "8",
        -4.2462128127976975
      ],
      [
        "t",
        -4.254022994111654
      ],
      [
        "0",
        -4.370500745951389
      ],
      [
        "i",
        -4.375055318694814
      ],
      [
        "s",
        -4.604816803105651
      ],
      [
        "F",
        -4.649964604974896
      ],
      [
        "O",
        -4.709675556444445
      ],
      [
        "y",
        -4.725495839618526
      ],
      [
        "j",
        -4.729209794954009
      ],
      [
        "n",
        -4.78024189087871
      ],
      [
        "x",
        -4.903720662359747
      ],
      [
        "H",
        -5.072109508876194
      ],
      [
        "u",
        -5.157200650188825
      ],
      [
        "d",
        -5.192544990709184
      ],
      [
        "R",
        -5.192918248518993
      ],
      [
        "Z",
        -5.194666819817746
      ],
      [
        "r",
        -5.226018492049555
      ],
      [
        "M",
        -5.258784856786908
      ],
      [
        "X",
        -5.315119004851949
      ],
      [
        "z",
        -5.317134698917071
      ],
      [
        "m",
        -5.33255110714213
      ],
      [
        "p",
        -5.346670032819809
      ],
      [
        "l",
        -5.370805322413499
      ],
      [
        "V",
        -5.398055216915086
      ],
      [
        "f",
        -5.430190428589354
      ],
      [
        "K",
        -5.445787105435787
      ],
      [
        "L",
        -5.475743701652897
      ],
      [
        "a",
        -5.499716598777853
      ],
      [
        "c",
        -5.52496680565163
      ],
      [
        "W",
        -5.54720481480485
      ],
      [
        "h",
        -5.5600171628208965
      ],
      [
        "e",
        -5.564303635624537
      ],
      [
        "I",
        -5.567474443376183
      ],
      [
        "G",
        -5.574250164765441
      ],
      [
        "D",
        -5.579004728557271
      ],
      [
        "Q",
        -5.595426012592524
      ],
      [
        "g",
        -5.617119099175257
      ],
      [
        "B",
        -5.640137111053393
      ],
      [
        "J",
        -5.642067388158649
      ],
      [
        "T",
        -5.65383701448952
      ],
      [
        "A",
        -5.700119666635903
      ],
      [
        "U",
        -5.71627358301372
      ],
      [
        "b",
        -5.730613557761059
      ],
      [
        "w",
        -5.742222644234548
      ],
      [
        "Y",
        -5.744373985686726
      ],
      [
        "N",
        -5.746173090391645
      ],
      [
        "C",
        -5.757996015373296
      ],
      [
        "v",
        -5.807569058351627
      ],
      [
        "q",
        -5.859494616795409
      ],
      [
        "o",
        -5.86261115892051
      ],
      [
        "k1",
        -6.460574736137149
      ],
      [
        "k0",
        -6.492520159971308
      ],
      [
        "k6",
        -6.509665551147863
      ],
      [
        "k8",
        -6.511139143007616
      ],
      [
        "sig",
        -6.549217893288047
      ],
      [
        "REC",
        -6.549573983085869
      ],
      [
        "END",
        -6.550371385869553
      ],
      [
        "nal",
        -6.55113375639915
      ],
      [
        "k9",
        -6.552927708591291
      ],
      [
        "_",
        -6.552985472165098
      ],
      [
        "k3",
        -6.556206627591937
      ],
      [
        "k5",
        -6.566922460322154
      ],
      [
        "k18",
        -6.567663344814955
      ],
      [
        "k16",
        -6.568449433914276
      ],
      [
        "k13",
        -6.570785323225019
      ],
      [
        "k19",
        -6.573540928153577
      ],
      [
        "k15",
        -6.5737721322553195
      ],
      [
        "k12",
        -6.574948869971621
      ],
      [
        "k14",
        -6.575076293131401
      ],
      [
        "k11",
        -6.575372908525253
      ],
      [
        "k17",
        -6.5761953546800385
      ],
      [
        "k7",
        -6.5844100960121335
      ],
      [
        "k2",
        -6.596373263276158
      ],
      [
        "k4",
        -6.606101419312797
      ],
      [
        "bZ",
        -8.504516011024851
      ],
      [
        "vF",
        -8.524734990232993
      ],
      [
        "hR",
        -8.53566768306976
      ],
      [
        "bF",
        -8.554357481663468
      ],
      [
        "UR",
        -8.555273077390925
      ],
      [
        "hd",
        -8.560008433606306
      ],
      [
        "o8",
        -8.560426184273872
      ],
      [
        "UF",
        -8.560854386510826
      ],
      [
        "h8",
        -8.567268114036883
      ],
      [
        "hQ",
        -8.571957704852903
      ],
      [
        "oa",
        -8.573961070998864
      ],
      [
        "Gx",
        -8.57627706326242
      ],
      [
        "Ut",
        -8.578800896776869
      ],
      [
        "Cx",
        -8.57890328183699
      ],
      [
        "Ui",
        -8.580193351958023
      ],
      [
        "AF",
        -8.581335412625208
      ],
      [
        "Di",
        -8.581670933083402
      ],
      [
        "Gd",
        -8.582098461000903
      ],
      [
        "zF",
        -8.58358186885581
      ],
      [
        "TF",
        -8.585699429829146
      ],
      [
        "mW",
        -8.586338817795355
      ],
      [
        "h0",
        -8.586375377622002
      ],
      [
        "bY",
        -8.587145567483034
      ],
      [
        "lF",
        -8.58749157613007
      ],
      [
        "hf",
        -8.587596052779901
      ],
      [
        "hN",
        -8.587778705057683
      ],
      [
        "bi",
        -8.588750987655077
      ],
      [
        "bd",
        -8.588792760380445
      ],
      [
        "va",
        -8.589277147908305
      ],
      [
        "hr",
        -8.589979463858661
      ],
      [
        "l0",
        -8.592575203364575
      ],
      [
        "W8",
        -8.5929053597436
      ],
      [
        "Td",
        -8.593303734087513
      ],
      [
        "vr",
        -8.594975868375714
      ],
      [
        "Gi",
        -8.594982702345183
      ],
      [
        "cy",
        -8.595639124834964
      ],
      [
        "L0",
        -8.595751155258501
      ],
      [
        "c8",
        -8.595805778861045
      ],
      [
        "I6",
        -8.59661417749938
      ],
      [
        "my",
        -8.597246512553722
      ],
      [
        "gJ",
        -8.598261908323739
      ],
      [
        "ld",
        -8.598966203107565
      ],
      [
        "LF",
        -8.601305416030563
      ],
      [
        "Ux",
        -8.601383753347553
      ],
      [
        "h6",
        -8.601850926155999
      ],
      [
        "T8",
        -8.60191020770121
      ],
      [
        "DF",
        -8.602327000648257
      ],
      [
        "qr",
        -8.602822418038297
      ],
      [
        "KF",
        -8.603162965191963
      ],
      [
        "vx",
        -8.60371657309408
      ],
      [
        "oc",
        -8.60390971902981
      ],
      [
        "gV",
        -8.605130698581956
      ],
      [
        "Uy",
        -8.606357221958596
      ],
      [
        "py",
        -8.606368591367644
      ],
      [
        "p8",
        -8.607419810228855
      ],
      [
        "vu",
        -8.607760831660979
      ],
      [
        "c0",
        -8.608404500406316
      ],
      [
        "Ny",
        -8.608560038648616
      ],
      [
        "gd",
        -8.609221184823856
      ],
      [
        "GF",
        -8.609399863750415
      ],
      [
        "hF",
        -8.609729945202254
      ],
      [
        "hH",
        -8.611342136219832
      ],
      [
        "vR",
        -8.611510571510138
      ],
      [
        "ha",
        -8.61191403762762
      ],
      [
        "gx",
        -8.612121777008939
      ],
      [
        "Aw",
        -8.61324286313544
      ],
      [
        "V8",
        -8.613476367137094
      ],
      [
        "J8",
        -8.613662012345328
      ],
      [
        "MF",
        -8.614116979754847
      ],
      [
        "Ky",
        -8.614179849536953
      ],
      [
        "C8",
        -8.615130098218463
      ],
      [
        "vf",
        -8.61518436173925
      ],
      [
        "IZ",
        -8.615185149125578
      ],
      [
        "qX",
        -8.61528588306917
      ],
      [
        "Qe",
        -8.616025699406785
      ],
      [
        "Bf",
        -8.616479299104075
      ],
      [
        "vZ",
        -8.616920007629712
      ],
      [
        "UZ",
        -8.616998398607931
      ],
      [
        "hi",
        -8.617367090328116
      ],
      [
        "CB",
        -8.617645266548585
      ],
      [
        "uF",
        -8.61777197110894
      ],
      [
        "CO",
        -8.617844992856707
      ],
      [
        "uf",
        -8.617921726316922
      ],
      [
        "A8",
        -8.618488452504248
      ],
      [
        "Um",
        -8.618568179964207
      ],
      [
        "fx",
        -8.618601227144293
      ],
      [
        "hX",
        -8.618875479107281
      ],
      [
        "pr",
        -8.619096115592232
      ],
      [
        "Hn",
        -8.61970492549722
      ],
      [
        "Ir",
        -8.619833618927373
      ],
      [
        "G6",
        -8.620064314455366
      ],
      [
        "lH",
        -8.62021921142929
      ],
      [
        "g6",
        -8.620755741330832
      ],
      [
        "UQ",
        -8.620942034674322
      ],
      [
        "BZ",
        -8.621627597425483
      ],
      [
        "Vr",
        -8.62197491472358
      ],
      [
        "vm",
        -8.622229833457332
      ],
      [
        "pB",
        -8.622305118367047
      ],
      [
        "pi",
        -8.622722446951174
      ],
      [
        "vi",
        -8.622773431819052
      ],
      [
        "GX",
        -8.623208388392317
      ],
      [
        "Ad",
        -8.623594444523214
      ],
      [
        "c6",
        -8.623973326127281
      ],
      [
        "hC",
        -8.624518050597583
      ],
      [
        "oZ",
        -8.624695545128393
      ],
      [
        "Q6",
        -8.62517066616566
      ],
      [
        "Ua",
        -8.625267593204466
      ],
      [
        "o6",
        -8.62547693387469
      ],
      [
        "nr",
        -8.625766009485082
      ],
      [
        "UM",
        -8.626137249479587
      ],
      [
        "zK",
        -8.62649462461616
      ],
      [
        "lx",
        -8.62668801567522
      ],
      [
        "QW",
        -8.627014310217374
      ],
      [
        "nZ",
        -8.627254859347065
      ],
      [
        "LZ",
        -8.627327642430062
      ],
      [
        "eT",
        -8.627447370235865
      ],
      [
        "G8",
        -8.62758305492433
      ],
      [
        "C0",
        -8.62759025059755
      ],
      [
        "Lu",
        -8.627674130445467
      ],
      [
        "Ug",
        -8.627699712052381
      ],
      [
        "ba",
        -8.627952003680573
      ],
      [
        "vo",
        -8.627996458730301
      ],
      [
        "Ki",
        -8.628236896028568
      ],
      [
        "U0",
        -8.62860665974825
      ],
      [
        "JH",
        -8.628753127110368
      ],
      [
        "LW",
        -8.628881216213488
      ],
      [
        "AA",
        -8.628886977098123
      ],
      [
        "YL",
        -8.629008983174806
      ],
      [
        "B8",
        -8.62939029683304
      ],
      [
        "qZ",
        -8.629600974095894
      ],
      [
        "N0",
        -8.629901454361047
      ],
      [
        "Cw",
        -8.630294376026932
      ],
      [
        "vw",
        -8.630361101239611
      ],
      [
        "Ga",
        -8.630561235089655
      ],
      [
        "ur",
        -8.631092222803542
      ],
      [
        "hp",
        -8.631094267554296
      ],
      [
        "DB",
        -8.631236215904348
      ],
      [
        "lz",
        -8.632303732962228
      ],
      [
        "q0",
        -8.63272280970704
      ],
      [
        "VF",
        -8.633930552133393
      ],
      [
        "IF",
        -8.634209052861674
      ],
      [
        "Jx",
        -8.634332187650354
      ],
      [
        "Up",
        -8.6345092929195
      ],
      [
        "AZ",
        -8.635059568682792
      ],
      [
        "hM",
        -8.636219033625562
      ],
      [
        "wH",
        -8.636781067823467
      ],
      [
        "qQ",
        -8.63683977427472
      ],
      [
        "Vc",
        -8.636920983792525
      ],
      [
        "fF",
        -8.637163985262228
      ],
      [
        "qu",
        -8.637984944445758
      ],
      [
        "ww",
        -8.638285886269237
      ],
      [
        "Y8",
        -8.6386050803855
      ],
      [
        "hB",
        -8.638796543122215
      ],
      [
        "Ca",
        -8.639587581482907
      ],
      [
        "N8",
        -8.639805436071972
      ],
      [
        "D8",
        -8.639913658860515
      ],
      [
        "qd",
        -8.640439770717066
      ],
      [
        "sB",
        -8.640709243871612
      ],
      [
        "TO",
        -8.641069193362153
      ],
      [
        "em",
        -8.641542940160358
      ],
      [
        "gi",
        -8.6419488340317
      ],
      [
        "hh",
        -8.642169114455054
      ],
      [
        "g8",
        -8.642590218558535
      ],
      [
        "Iy",
        -8.642662922247835
      ],
      [
        "o0",
        -8.643367295171965
      ],
      [
        "gz",
        -8.64350534006902
      ],
      [
        "qN",
        -8.644066689235515
      ],
      [
        "hL",
        -8.644082696969232
      ],
      [
        "QL",
        -8.644284296433046
      ],
      [
        "cd",
        -8.644332917065697
      ],
      [
        "vs",
        -8.644516684026677
      ],
      [
        "Np",
        -8.6445535534278
      ],
      [
        "ay",
        -8.644916630184426
      ],
      [
        "Ar",
        -8.644944929358346
      ],
      [
        "gR",
        -8.645593470989796
      ],
      [
        "aR",
        -8.645861572435823
      ],
      [
        "vy",
        -8.646106176342634
      ],
      [
        "Ya",
        -8.646278238634551
      ],
      [
        "gf",
        -8.646438297994996
      ],
      [
        "RF",
        -8.646587117726213
      ],
      [
        "Jr",
        -8.647582315508881
      ],
      [
        "T6",
        -8.648160169430746
      ],
      [
        "D0",
        -8.648193808842612
      ],
      [
        "CT",
        -8.648217232505594
      ],
      [
        "qF",
        -8.648323865379227
      ],
      [
        "Qx",
        -8.64842351786735
      ],
      [
        "mO",
        -8.648488636503549
      ],
      [
        "mB",
        -8.648631161167902
      ],
      [
        "Zr",
        -8.648634387020852
      ],
      [
        "Xd",
        -8.648643320223387
      ],
      [
        "ud",
        -8.649505683614104
      ],
      [
        "N6",
        -8.649577562281666
      ],
      [
        "Br",
        -8.649636540562316
      ],
      [
        "UT",
        -8.649815027594892
      ],
      [
        "U6",
        -8.65007446221285
      ],
      [
        "oy",
        -8.650354129042752
      ],
      [
        "vv",
        -8.650495480702034
      ],
      [
        "a8",
        -8.650532898004489
      ],
      [
        "qH",
        -8.650652814382376
      ],
      [
        "UW",
        -8.651029400204195
      ],
      [
        "AT",
        -8.651224365536809
      ],
      [
        "Qd",
        -8.65134842771736
      ],
      [
        "cr",
        -8.651426014948768
      ],
      [
        "Yd",
        -8.652140159743801
      ],
      [
        "di",
        -8.652640062737552
      ],
      [
        "vX",
        -8.65270319468262
      ],
      [
        "vd",
        -8.652867139424835
      ],
      [
        "hJ",
        -8.65290312761579
      ],
      [
        "vL",
        -8.652993110601994
      ],
      [
        "qB",
        -8.653010470200432
      ],
      [
        "Vm",
        -8.653282526027185
      ],
      [
        "Hf",
        -8.653351780693097
      ],
      [
        "gy",
        -8.653386993263407
      ],
      [
        "mH",
        -8.653648825707737
      ],
      [
        "Tr",
        -8.653730064833942
      ],
      [
        "w8",
        -8.65373026013119
      ],
      [
        "vO",
        -8.65373840400186
      ],
      [
        "zd",
        -8.654036480207804
      ],
      [
        "hK",
        -8.654111230140474
      ],
      [
        "Nn",
        -8.655029313397208
      ],
      [
        "La",
        -8.655132196403619
      ],
      [
        "br",
        -8.655431973430986
      ],
      [
        "eR",
        -8.655758797425515
      ],
      [
        "QR",
        -8.655785995950591
      ],
      [
        "UB",
        -8.655939921023208
      ],
      [
        "qc",
        -8.655974755638717
      ],
      [
        "Rd",
        -8.656314369038899
      ],
      [
        "gr",
        -8.656508894498899
      ],
      [
        "nX",
        -8.656587884356298
      ],
      [
        "bz",
        -8.656685439400167
      ],
      [
        "YC",
        -8.656707248257561
      ],
      [
        "Kt",
        -8.656878358954142
      ],
      [
        "bD",
        -8.656899605624421
      ],
      [
        "zH",
        -8.657100486857985
      ],
      [
        "cJ",
        -8.657193190273425
      ],
      [
        "hV",
        -8.657353401540744
      ],
      [
        "B0",
        -8.65736543219113
      ],
      [
        "UJ",
        -8.6575512438001
      ],
      [
        "Qu",
        -8.657779727173926
      ],
      [
        "fa",
        -8.657813039747651
      ],
      [
        "V0",
        -8.657814615978769
      ],
      [
        "Ur",
        -8.657946009093125
      ],
      [
        "Ub",
        -8.657969350487361
      ],
      [
        "CF",
        -8.657972929407137
      ],
      [
        "nx",
        -8.658153934873987
      ],
      [
        "hW",
        -8.658170273210313
      ],
      [
        "lG",
        -8.658555684693022
      ],
      [
        "TW",
        -8.658960394343417
      ],
      [
        "ho",
        -8.659236467774264
      ],
      [
        "pR",
        -8.659418375755244
      ],
      [
        "bW",
        -8.659552403110414
      ],
      [
        "Md",
        -8.65959618549973
      ],
      [
        "Na",
        -8.659606240210525
      ],
      [
        "oq",
        -8.65971173104267
      ],
      [
        "Nv",
        -8.65973554592817
      ],
      [
        "Nd",
        -8.659858463731052
      ],
      [
        "Mj",
        -8.659929079053471
      ],
      [
        "A0",
        -8.660064387027948
      ],
      [
        "wd",
        -8.66052133450738
      ],
      [
        "LB",
        -8.66054175351394
      ],
      [
        "ga",
        -8.660670014364683
      ],
      [
        "U8",
        -8.66068113991628
      ],
      [
        "uy",
        -8.660856389050814
      ],
      [
        "ec",
        -8.660919186648595
      ],
      [
        "hv",
        -8.661086779068338
      ],
      [
        "Ul",
        -8.661305655257202
      ],
      [
        "pd",
        -8.661372533866198
      ],
      [
        "Ji",
        -8.661474680915028
      ],
      [
        "Ax",
        -8.661630521594747
      ],
      [
        "pb",
        -8.66208412565097
      ],
      [
        "ed",
        -8.662107596032673
      ],
      [
        "Ud",
        -8.662440927601887
      ],
      [
        "ow",
        -8.662978410267385
      ],
      [
        "Ld",
        -8.663231430259046
      ],
      [
        "VW",
        -8.66329339894176
      ],
      [
        "v8",
        -8.663641546379226
      ],
      [
        "vY",
        -8.664062674889285
      ],
      [
        "Mr",
        -8.664423798892589
      ],
      [
        "zx",
        -8.6644551483584
      ],
      [
        "qR",
        -8.664526106866933
      ],
      [
        "CH",
        -8.664676413497236
      ],
      [
        "sr",
        -8.664857863666304
      ],
      [
        "CD",
        -8.664909887008669
      ],
      [
        "Nt",
        -8.664927571185245
      ],
      [
        "GJ",
        -8.665032704926155
      ],
      [
        "NW",
        -8.665101812734738
      ],
      [
        "CZ",
        -8.665113445857024
      ],
      [
        "qy",
        -8.665163121207158
      ],
      [
        "Ai",
        -8.66517343387278
      ],
      [
        "gs",
        -8.66531153684915
      ],
      [
        "h5",
        -8.665440483337466
      ],
      [
        "AH",
        -8.66551814365149
      ],
      [
        "oj",
        -8.665674453360456
      ],
      [
        "At",
        -8.665849547158688
      ],
      [
        "WH",
        -8.665922610117054
      ],
      [
        "wi",
        -8.66617205314226
      ],
      [
        "Ge",
        -8.666232058812078
      ],
      [
        "ws",
        -8.666280843956052
      ],
      [
        "lM",
        -8.666409189059111
      ],
      [
        "ex",
        -8.666424137342371
      ],
      [
        "hy",
        -8.666505126331515
      ],
      [
        "WI",
        -8.666667236375801
      ],
      [
        "co",
        -8.666704561918975
      ],
      [
        "hz",
        -8.66680280541967
      ],
      [
        "wW",
        -8.666830788485909
      ],
      [
        "ov",
        -8.666838089707873
      ],
      [
        "Jd",
        -8.666865353198407
      ],
      [
        "Ns",
        -8.667165660382752
      ],
      [
        "Cr",
        -8.667250083398004
      ],
      [
        "cL",
        -8.667506505617649
      ],
      [
        "MA",
        -8.667880396888773
      ],
      [
        "wB",
        -8.667887173036407
      ],
      [
        "pY",
        -8.667959565506614
      ],
      [
        "Od",
        -8.668007234703392
      ],
      [
        "xa",
        -8.668043098027482
      ],
      [
        "cq",
        -8.668066630096998
      ],
      [
        "Cu",
        -8.668079098650342
      ],
      [
        "Zd",
        -8.66832447622027
      ],
      [
        "Un",
        -8.668392235112
      ],
      [
        "ZF",
        -8.66846162156341
      ],
      [
        "zX",
        -8.668619861889756
      ],
      [
        "cR",
        -8.668749619108677
      ],
      [
        "vW",
        -8.668777297836618
      ],
      [
        "qi",
        -8.668841161141954
      ],
      [
        "Ng",
        -8.66884266403716
      ],
      [
        "oz",
        -8.66910133035113
      ],
      [
        "BF",
        -8.669445641479662
      ],
      [
        "DR",
        -8.669501139306348
      ],
      [
        "LH",
        -8.669555560642667
      ],
      [
        "cf",
        -8.669665630554784
      ],
      [
        "zW",
        -8.669727490258744
      ],
      [
        "Gr",
        -8.669848223420626
      ],
      [
        "W6",
        -8.670194458981069
      ],
      [
        "ma",
        -8.670228499724427
      ],
      [
        "ze",
        -8.67026976077959
      ],
      [
        "KH",
        -8.670281898010876
      ],
      [
        "YZ",
        -8.67034135615496
      ],
      [
        "Da",
        -8.670614589418987
      ],
      [
        "NH",
        -8.67065092445639
      ],
      [
        "uT",
        -8.671069443694517
      ],
      [
        "mZ",
        -8.671207683292785
      ],
      [
        "of",
        -8.671209475101566
      ],
      [
        "Uf",
        -8.671354985725124
      ],
      [
        "Gt",
        -8.671417730700831
      ],
      [
        "px",
        -8.671576280685283
      ],
      [
        "VO",
        -8.671729263935326
      ],
      [
        "Qr",
        -8.67179991012209
      ],
      [
        "eX",
        -8.672428380906407
      ],
      [
        "gG",
        -8.672523520065837
      ],
      [
        "oY",
        -8.672611123506664
      ],
      [
        "od",
        -8.672728299083168
      ],
      [
        "GN",
        -8.672785764088427
      ],
      [
        "gF",
        -8.672910159777896
      ],
      [
        "fX",
        -8.67292166711962
      ],
      [
        "hx",
        -8.672953204435302
      ],
      [
        "De",
        -8.673075004923763
      ],
      [
        "gn",
        -8.67317991460391
      ],
      [
        "Yz",
        -8.673288030494142
      ],
      [
        "Tu",
        -8.673335113060858
      ],
      [
        "gQ",
        -8.673779353968062
      ],
      [
        "BM",
        -8.673907608733188
      ],
      [
        "gZ",
        -8.67422433889758
      ],
      [
        "gh",
        -8.674235691385217
      ],
      [
        "jT",
        -8.674498076077334
      ],
      [
        "cb",
        -8.674563504292522
      ],
      [
        "Jm",
        -8.675080994120158
      ],
      [
        "Uw",
        -8.67515834636906
      ],
      [
        "LO",
        -8.675208536211013
      ],
      [
        "Kd",
        -8.6752202368959
      ],
      [
        "DL",
        -8.67563512985903
      ],
      [
        "Qz",
        -8.675740180770696
      ],
      [
        "cB",
        -8.675870498245015
      ],
      [
        "GD",
        -8.675941805029758
      ],
      [
        "Xx",
        -8.676033960368493
      ],
      [
        "wZ",
        -8.676089823948857
      ],
      [
        "NZ",
        -8.676219531872281
      ],
      [
        "vt",
        -8.676401046834638
      ],
      [
        "Wr",
        -8.676527108974145
      ],
      [
        "nd",
        -8.676644767940832
      ],
      [
        "QF",
        -8.676695771685676
      ],
      [
        "Kx",
        -8.676867394134938
      ],
      [
        "UX",
        -8.676874136007054
      ],
      [
        "ct",
        -8.676952913226799
      ],
      [
        "hw",
        -8.677334235557566
      ],
      [
        "vI",
        -8.677387314421061
      ],
      [
        "NF",
        -8.677735500745499
      ],
      [
        "Qa",
        -8.678050490725184
      ],
      [
        "na",
        -8.678060628704236
      ],
      [
        "oH",
        -8.678159408398567
      ],
      [
        "hg",
        -8.678203384175173
      ],
      [
        "qn",
        -8.678384678698709
      ],
      [
        "uu",
        -8.678701788231924
      ],
      [
        "GO",
        -8.678715641622444
      ],
      [
        "XW",
        -8.678752247523214
      ],
      [
        "pz",
        -8.67883747818626
      ],
      [
        "vB",
        -8.678853905333572
      ],
      [
        "pV",
        -8.67889565909925
      ],
      [
        "Kq",
        -8.679047696037959
      ],
      [
        "Aa",
        -8.67907762760957
      ],
      [
        "AO",
        -8.679083840379441
      ],
      [
        "pA",
        -8.67916850841377
      ],
      [
        "ca",
        -8.679738729645017
      ],
      [
        "MB",
        -8.679776188491154
      ],
      [
        "qx",
        -8.679859744911772
      ],
      [
        "mf",
        -8.68001065789744
      ],
      [
        "bu",
        -8.680013916260762
      ],
      [
        "KI",
        -8.680177527187542
      ],
      [
        "DQ",
        -8.68017879708508
      ],
      [
        "NI",
        -8.680216518910495
      ],
      [
        "UO",
        -8.680249061747414
      ],
      [
        "oF",
        -8.680307122570536
      ],
      [
        "qf",
        -8.68041858602827
      ],
      [
        "Ka",
        -8.68051772755653
      ],
      [
        "ey",
        -8.680626421969354
      ],
      [
        "Vd",
        -8.680677508538707
      ],
      [
        "lT",
        -8.680683921101208
      ],
      [
        "IV",
        -8.680739169301491
      ],
      [
        "Uz",
        -8.68089895923114
      ],
      [
        "z0",
        -8.680924867121657
      ],
      [
        "cK",
        -8.68097781544723
      ],
      [
        "hu",
        -8.681125741988332
      ],
      [
        "Hx",
        -8.68113826991274
      ],
      [
        "VH",
        -8.681178816251458
      ],
      [
        "pK",
        -8.681314635719431
      ],
      [
        "ew",
        -8.681361114389953
      ],
      [
        "Rc",
        -8.681382520175775
      ],
      [
        "Dd",
        -8.68218705664218
      ],
      [
        "es",
        -8.682239240606222
      ],
      [
        "CW",
        -8.682289453346925
      ],
      [
        "ot",
        -8.682478308395918
      ],
      [
        "zn",
        -8.682519915503317
      ],
      [
        "cY",
        -8.682572800899482
      ],
      [
        "Vg",
        -8.68265393516091
      ],
      [
        "o3",
        -8.682756044266855
      ],
      [
        "Je",
        -8.682938935812235
      ],
      [
        "he",
        -8.683037187335408
      ],
      [
        "Xy",
        -8.683173410450824
      ],
      [
        "By",
        -8.683247400772967
      ],
      [
        "cX",
        -8.683365063656506
      ],
      [
        "mm",
        -8.683700627496709
      ],
      [
        "BV",
        -8.683725821448096
      ],
      [
        "lL",
        -8.683727423957798
      ],
      [
        "uq",
        -8.683807647593339
      ],
      [
        "pF",
        -8.683987035153628
      ],
      [
        "oR",
        -8.68409834639155
      ],
      [
        "Ls",
        -8.684116348459419
      ],
      [
        "eF",
        -8.684330054331916
      ],
      [
        "le",
        -8.684419143202842
      ],
      [
        "Kz",
        -8.684516711858926
      ],
      [
        "oK",
        -8.68452222771554
      ],
      [
        "Gz",
        -8.684780833651502
      ],
      [
        "Lx",
        -8.684828365390523
      ],
      [
        "Mu",
        -8.684877842562415
      ],
      [
        "bg",
        -8.684955552691562
      ],
      [
        "cO",
        -8.685292880034064
      ],
      [
        "vH",
        -8.685335052288167
      ],
      [
        "zG",
        -8.685341975491962
      ],
      [
        "YM",
        -8.685385808525936
      ],
      [
        "hI",
        -8.685454480640193
      ],
      [
        "Vn",
        -8.685477361503018
      ],
      [
        "Ke",
        -8.68551165537302
      ],
      [
        "GK",
        -8.685513683105526
      ],
      [
        "jg",
        -8.6856873258766
      ],
      [
        "cm",
        -8.685813531331576
      ],
      [
        "VD",
        -8.68584524386036
      ],
      [
        "B6",
        -8.686011840572974
      ],
      [
        "Ce",
        -8.686150981726145
      ],
      [
        "qA",
        -8.686263476347339
      ],
      [
        "md",
        -8.686354521480697
      ],
      [
        "Vy",
        -8.68649573665456
      ],
      [
        "qh",
        -8.686522856388203
      ],
      [
        "Km",
        -8.686674098309009
      ],
      [
        "Gy",
        -8.686789836391615
      ],
      [
        "hs",
        -8.686833448225062
      ],
      [
        "b8",
        -8.687025922163691
      ],
      [
        "pM",
        -8.687537177711672
      ],
      [
        "Vo",
        -8.687866309725905
      ],
      [
        "nA",
        -8.687931880979274
      ],
      [
        "vD",
        -8.688102381591714
      ],
      [
        "sW",
        -8.688188104446557
      ],
      [
        "XZ",
        -8.688205202005268
      ],
      [
        "b0",
        -8.688272751597442
      ],
      [
        "NR",
        -8.688473734808648
      ],
      [
        "KA",
        -8.688512413699296
      ],
      [
        "Cc",
        -8.688517152877594
      ],
      [
        "To",
        -8.688574644708542
      ],
      [
        "KV",
        -8.688655134880534
      ],
      [
        "CX",
        -8.688671384271474
      ],
      [
        "Nf",
        -8.689238264558398
      ],
      [
        "TT",
        -8.689402129252336
      ],
      [
        "e0",
        -8.689479595947956
      ],
      [
        "q8",
        -8.689668966944662
      ],
      [
        "Oa",
        -8.689826650053815
      ],
      [
        "YN",
        -8.69001652154386
      ],
      [
        "TC",
        -8.690144808824275
      ],
      [
        "Kw",
        -8.690310892226314
      ],
      [
        "QT",
        -8.690455654410968
      ],
      [
        "IM",
        -8.690513353077053
      ],
      [
        "hO",
        -8.690568820153072
      ],
      [
        "Aq",
        -8.690634398844349
      ],
      [
        "CV",
        -8.690637393590741
      ],
      [
        "TY",
        -8.690638288546571
      ],
      [
        "AL",
        -8.690653426324792
      ],
      [
        "VU",
        -8.690858270044707
      ],
      [
        "zw",
        -8.690862901028966
      ],
      [
        "Vb",
        -8.690905615421258
      ],
      [
        "ML",
        -8.691042004966768
      ],
      [
        "Ac",
        -8.691319123617006
      ],
      [
        "YV",
        -8.691740051562313
      ],
      [
        "zN",
        -8.69181475472478
      ],
      [
        "by",
        -8.691921303393421
      ],
      [
        "be",
        -8.69202280696451
      ],
      [
        "or",
        -8.692066448192318
      ],
      [
        "Ij",
        -8.692079991028741
      ],
      [
        "W0",
        -8.692086093993682
      ],
      [
        "DY",
        -8.692094362407024
      ],
      [
        "bH",
        -8.692096735523503
      ],
      [
        "lb",
        -8.692188103074223
      ],
      [
        "Vf",
        -8.69230143852344
      ],
      [
        "Dr",
        -8.692532006950522
      ],
      [
        "WM",
        -8.69261750755092
      ],
      [
        "vc",
        -8.692666394031527
      ],
      [
        "Lm",
        -8.692907565066301
      ],
      [
        "Yx",
        -8.692911713184744
      ],
      [
        "ef",
        -8.693055030750706
      ],
      [
        "KK",
        -8.693462140445384
      ],
      [
        "Ku",
        -8.693510652454112
      ],
      [
        "Jn",
        -8.693978968706734
      ],
      [
        "LA",
        -8.694070104455715
      ],
      [
        "lZ",
        -8.694139357590895
      ],
      [
        "DO",
        -8.694168711955086
      ],
      [
        "U9",
        -8.694431671460768
      ],
      [
        "Mx",
        -8.69446080705237
      ],
      [
        "UG",
        -8.694631823999417
      ],
      [
        "QN",
        -8.694759291368676
      ],
      [
        "mn",
        -8.694801980480642
      ],
      [
        "nR",
        -8.694802992903096
      ],
      [
        "RT",
        -8.695094758944332
      ],
      [
        "OM",
        -8.695135343213401
      ],
      [
        "Iu",
        -8.695453677899451
      ],
      [
        "TZ",
        -8.695455403164743
      ],
      [
        "VA",
        -8.69559218205
      ],
      [
        "nJ",
        -8.695618322375749
      ],
      [
        "CN",
        -8.695666736865537
      ],
      [
        "zs",
        -8.695703610656608
      ],
      [
        "AR",
        -8.695723322886257
      ],
      [
        "TB",
        -8.695739136361054
      ],
      [
        "wM",
        -8.69575020165169
      ],
      [
        "CA",
        -8.695831995272894
      ],
      [
        "RH",
        -8.695881050132622
      ],
      [
        "Kr",
        -8.696101839877294
      ],
      [
        "oB",
        -8.69610671487062
      ],
      [
        "gw",
        -8.69615679857971
      ],
      [
        "C3",
        -8.696256969491893
      ],
      [
        "NN",
        -8.696457818102626
      ],
      [
        "Qy",
        -8.696524013128961
      ],
      [
        "qj",
        -8.69652556776252
      ],
      [
        "ae",
        -8.696763089922015
      ],
      [
        "MY",
        -8.696838307198739
      ],
      [
        "gD",
        -8.696923160355464
      ],
      [
        "LI",
        -8.69696691222629
      ],
      [
        "Dm",
        -8.697018011380194
      ],
      [
        "vQ",
        -8.697052756666224
      ],
      [
        "Q0",
        -8.69705854338997
      ],
      [
        "mo",
        -8.697250326114371
      ],
      [
        "Lf",
        -8.697563481645854
      ],
      [
        "DI",
        -8.697635799315174
      ],
      [
        "Gs",
        -8.697658151631366
      ],
      [
        "cl",
        -8.6977271634934
      ],
      [
        "JZ",
        -8.697752465965756
      ],
      [
        "hb",
        -8.697779733530137
      ],
      [
        "BB",
        -8.697790783717434
      ],
      [
        "HZ",
        -8.697839753768294
      ],
      [
        "bO",
        -8.6978945970103
      ],
      [
        "w0",
        -8.698033905838848
      ],
      [
        "ue",
        -8.698052980326267
      ],
      [
        "GW",
        -8.698269783268511
      ],
      [
        "hG",
        -8.69871687422125
      ],
      [
        "vA",
        -8.698853888155183
      ],
      [
        "QD",
        -8.698913327740993
      ],
      [
        "zY",
        -8.69896112288113
      ],
      [
        "BO",
        -8.699314241683492
      ],
      [
        "TM",
        -8.699591980309476
      ],
      [
        "XU",
        -8.699601613786271
      ],
      [
        "ez",
        -8.699691419799944
      ],
      [
        "Nq",
        -8.699730168502512
      ],
      [
        "ge",
        -8.69985644163339
      ],
      [
        "eM",
        -8.70006531088655
      ],
      [
        "bM",
        -8.700187312643253
      ],
      [
        "Qc",
        -8.70023851837543
      ],
      [
        "Yy",
        -8.700320887124066
      ],
      [
        "bc",
        -8.700472213401799
      ],
      [
        "NU",
        -8.700530908606648
      ],
      [
        "nM",
        -8.70064931312435
      ],
      [
        "oM",
        -8.700835637918647
      ],
      [
        "Bd",
        -8.700959232500828
      ],
      [
        "Uo",
        -8.70098169876628
      ],
      [
        "LV",
        -8.701032250878995
      ],
      [
        "hn",
        -8.701119605856
      ],
      [
        "lA",
        -8.701142553521118
      ],
      [
        "ry",
        -8.701170226892021
      ],
      [
        "cW",
        -8.701173475690684
      ],
      [
        "bR",
        -8.701225989337537
      ],
      [
        "cx",
        -8.701315689115994
      ],
      [
        "hZ",
        -8.701495512407305
      ],
      [
        "JF",
        -8.701529890814612
      ],
      [
        "IY",
        -8.701664111433871
      ],
      [
        "hm",
        -8.701671909995124
      ],
      [
        "hj",
        -8.70171865928866
      ],
      [
        "dY",
        -8.701784809011656
      ],
      [
        "Uq",
        -8.701809266556664
      ],
      [
        "gB",
        -8.7018691924689
      ],
      [
        "ll",
        -8.701950391932154
      ],
      [
        "KR",
        -8.702023118226986
      ],
      [
        "gj",
        -8.702032764137535
      ],
      [
        "nB",
        -8.70206733988045
      ],
      [
        "YW",
        -8.702123915382737
      ],
      [
        "je",
        -8.702316480009245
      ],
      [
        "fb",
        -8.702359587503878
      ],
      [
        "Gn",
        -8.702369995619005
      ],
      [
        "KX",
        -8.702444156231145
      ],
      [
        "oe",
        -8.702483518979044
      ],
      [
        "DN",
        -8.702494621138595
      ],
      [
        "Gu",
        -8.702580087676218
      ],
      [
        "qM",
        -8.70265897793063
      ],
      [
        "Av",
        -8.702717509082586
      ],
      [
        "zr",
        -8.702828782136757
      ],
      [
        "ce",
        -8.702896686388229
      ],
      [
        "oo",
        -8.702971100548492
      ],
      [
        "Nr",
        -8.702981688831041
      ],
      [
        "RY",
        -8.703007367861229
      ],
      [
        "Ay",
        -8.703012030823686
      ],
      [
        "cG",
        -8.70316315500797
      ],
      [
        "mz",
        -8.703292434275813
      ],
      [
        "oD",
        -8.70355802680887
      ],
      [
        "WA",
        -8.703635288694048
      ],
      [
        "am",
        -8.703715265253154
      ],
      [
        "pT",
        -8.703720574800732
      ],
      [
        "Am",
        -8.703782327346332
      ],
      [
        "oi",
        -8.703965565782365
      ],
      [
        "NA",
        -8.70402503191227
      ],
      [
        "dX",
        -8.704033418120527
      ],
      [
        "oW",
        -8.704127712342922
      ],
      [
        "RR",
        -8.704516559537478
      ],
      [
        "VJ",
        -8.704775312694123
      ],
      [
        "Tz",
        -8.705117658098581
      ],
      [
        "wG",
        -8.705880245191866
      ],
      [
        "AC",
        -8.706024164214735
      ],
      [
        "mI",
        -8.706066751805341
      ],
      [
        "wl",
        -8.706089494757155
      ],
      [
        "jX",
        -8.706235892001327
      ],
      [
        "Ty",
        -8.706276759524446
      ],
      [
        "It",
        -8.706322314263218
      ],
      [
        "Hc",
        -8.70665334739623
      ],
      [
        "zl",
        -8.706827415484213
      ],
      [
        "Ia",
        -8.706871137075812
      ],
      [
        "rx",
        -8.706976908173036
      ],
      [
        "om",
        -8.707126475469133
      ],
      [
        "qe",
        -8.707424383600742
      ],
      [
        "op",
        -8.707434988735251
      ],
      [
        "gb",
        -8.70744347378401
      ],
      [
        "lQ",
        -8.707525485111798
      ],
      [
        "oX",
        -8.707760144808205
      ],
      [
        "qU",
        -8.707783540384836
      ],
      [
        "MM",
        -8.707879409220562
      ],
      [
        "CG",
        -8.708072627816907
      ],
      [
        "jH",
        -8.70808198904274
      ],
      [
        "Be",
        -8.708112359852993
      ],
      [
        "ZM",
        -8.708371531446573
      ],
      [
        "zV",
        -8.708402036316707
      ],
      [
        "eG",
        -8.708595976690516
      ],
      [
        "Gw",
        -8.708709109180006
      ],
      [
        "gU",
        -8.708731951292528
      ],
      [
        "QY",
        -8.708772563462237
      ],
      [
        "bp",
        -8.708942140846462
      ],
      [
        "BJ",
        -8.709133734276097
      ],
      [
        "rU",
        -8.709426038267123
      ],
      [
        "qV",
        -8.70959249625398
      ],
      [
        "RN",
        -8.70975802386342
      ],
      [
        "lC",
        -8.709782407360837
      ],
      [
        "MR",
        -8.709883968690665
      ],
      [
        "Y0",
        -8.709919248153872
      ],
      [
        "ja",
        -8.709978598378111
      ],
      [
        "pW",
        -8.710164074537058
      ],
      [
        "UL",
        -8.710298151832749
      ],
      [
        "cu",
        -8.710525113748297
      ],
      [
        "Tx",
        -8.710634558121718
      ],
      [
        "mx",
        -8.710684390787247
      ],
      [
        "eZ",
        -8.710756937023595
      ],
      [
        "gv",
        -8.71087510951173
      ],
      [
        "NO",
        -8.711242014103764
      ],
      [
        "pU",
        -8.711308450279102
      ],
      [
        "jD",
        -8.711451697425042
      ],
      [
        "uY",
        -8.711510499010146
      ],
      [
        "Hr",
        -8.711700115046291
      ],
      [
        "DG",
        -8.711839415174309
      ],
      [
        "JJ",
        -8.711873260843616
      ],
      [
        "zT",
        -8.711879863835076
      ],
      [
        "gO",
        -8.712001565182483
      ],
      [
        "gI",
        -8.7120225826159
      ],
      [
        "Ql",
        -8.712061218517105
      ],
      [
        "qJ",
        -8.71209063096127
      ],
      [
        "bV",
        -8.712130101936655
      ],
      [
        "Ye",
        -8.712132444238986
      ],
      [
        "dy",
        -8.712253013482744
      ],
      [
        "Uu",
        -8.71237761658135
      ],
      [
        "JC",
        -8.712410786983646
      ],
      [
        "WZ",
        -8.712557469299245
      ],
      [
        "qq",
        -8.712655418882399
      ],
      [
        "QH",
        -8.71288155886557
      ],
      [
        "wx",
        -8.712963843728783
      ],
      [
        "zg",
        -8.712967421380775
      ],
      [
        "er",
        -8.713128456566219
      ],
      [
        "cN",
        -8.713192788788271
      ],
      [
        "jB",
        -8.713343213618153
      ],
      [
        "vJ",
        -8.713484284324547
      ],
      [
        "DM",
        -8.713514934026474
      ],
      [
        "Nm",
        -8.713637399125172
      ],
      [
        "BK",
        -8.713656755634405
      ],
      [
        "Mz",
        -8.71368610806992
      ],
      [
        "qa",
        -8.71389401857735
      ],
      [
        "jR",
        -8.713919214530803
      ],
      [
        "Wf",
        -8.713938310622476
      ],
      [
        "Bb",
        -8.714062133503543
      ],
      [
        "DZ",
        -8.714102263575175
      ],
      [
        "QI",
        -8.714202165132342
      ],
      [
        "KZ",
        -8.714384256311419
      ],
      [
        "Jf",
        -8.71443572668632
      ],
      [
        "Jy",
        -8.714458921370973
      ],
      [
        "RA",
        -8.714568960333246
      ],
      [
        "Yw",
        -8.714624820497905
      ],
      [
        "KY",
        -8.714907951008627
      ],
      [
        "Kf",
        -8.714911409764174
      ],
      [
        "bG",
        -8.714913927530255
      ],
      [
        "gN",
        -8.715009296187674
      ],
      [
        "ob",
        -8.715150208545712
      ],
      [
        "dw",
        -8.715279029254614
      ],
      [
        "UN",
        -8.715460172606294
      ],
      [
        "pI",
        -8.715662467332946
      ],
      [
        "YF",
        -8.715745298691676
      ],
      [
        "Bu",
        -8.715762655528053
      ],
      [
        "mw",
        -8.715805179883828
      ],
      [
        "eN",
        -8.716037546767499
      ],
      [
        "bs",
        -8.71604124391709
      ],
      [
        "QX",
        -8.716263859611077
      ],
      [
        "qo",
        -8.71628649326544
      ],
      [
        "VK",
        -8.716309547780462
      ],
      [
        "MG",
        -8.716341268120653
      ],
      [
        "cH",
        -8.716349640406047
      ],
      [
        "Nx",
        -8.716536035519312
      ],
      [
        "Dx",
        -8.716899319918102
      ],
      [
        "Ae",
        -8.71696810583467
      ],
      [
        "Gh",
        -8.717034877598994
      ],
      [
        "mc",
        -8.717062840608506
      ],
      [
        "bx",
        -8.717258481300519
      ],
      [
        "ID",
        -8.717405342633196
      ],
      [
        "cC",
        -8.71743150474947
      ],
      [
        "TX",
        -8.717526977407667
      ],
      [
        "QZ",
        -8.717930001904598
      ],
      [
        "KC",
        -8.717934551574622
      ],
      [
        "aV",
        -8.717997670969075
      ],
      [
        "Cq",
        -8.718076948056023
      ],
      [
        "Vp",
        -8.718281107087593
      ],
      [
        "KB",
        -8.718432622981037
      ],
      [
        "NK",
        -8.718486542043397
      ],
      [
        "OQ",
        -8.718565235552413
      ],
      [
        "zM",
        -8.718566341052831
      ],
      [
        "oN",
        -8.718682615474616
      ],
      [
        "Du",
        -8.718758237368853
      ],
      [
        "fl",
        -8.718775961399562
      ],
      [
        "Hd",
        -8.718914304512769
      ],
      [
        "wF",
        -8.718931042031212
      ],
      [
        "CU",
        -8.719256343877404
      ],
      [
        "bw",
        -8.719461762142046
      ],
      [
        "IR",
        -8.71969850177178
      ],
      [
        "eC",
        -8.719849378761761
      ],
      [
        "Bn",
        -8.71994875432387
      ],
      [
        "QG",
        -8.720133254924281
      ],
      [
        "bT",
        -8.720169099167968
      ],
      [
        "wO",
        -8.72037597775018
      ],
      [
        "wj",
        -8.720397697559125
      ],
      [
        "XN",
        -8.720640728535415
      ],
      [
        "IG",
        -8.72065430542451
      ],
      [
        "CM",
        -8.720661721544944
      ],
      [
        "uH",
        -8.720805932164083
      ],
      [
        "DA",
        -8.720808036758797
      ],
      [
        "wa",
        -8.720868646209263
      ],
      [
        "gH",
        -8.720871002189494
      ],
      [
        "lr",
        -8.720917156579501
      ],
      [
        "WW",
        -8.720940581947213
      ],
      [
        "bQ",
        -8.72097012837376
      ],
      [
        "mr",
        -8.721024685097897
      ],
      [
        "Cs",
        -8.721268880346042
      ],
      [
        "eK",
        -8.721447855265176
      ],
      [
        "Vx",
        -8.721619228320815
      ],
      [
        "vh",
        -8.721743409918329
      ],
      [
        "An",
        -8.721809818327506
      ],
      [
        "vM",
        -8.721852191692651
      ],
      [
        "bJ",
        -8.72187742580612
      ],
      [
        "ev",
        -8.72193593746424
      ],
      [
        "JX",
        -8.721954549468254
      ],
      [
        "pa",
        -8.721955360957567
      ],
      [
        "Rx",
        -8.72219082840493
      ],
      [
        "eW",
        -8.72225779142043
      ],
      [
        "cn",
        -8.722443302566193
      ],
      [
        "Ra",
        -8.72246788383171
      ],
      [
        "uB",
        -8.722487593994138
      ],
      [
        "q6",
        -8.722499315044875
      ],
      [
        "qw",
        -8.722507374769137
      ],
      [
        "MI",
        -8.722537507007516
      ],
      [
        "fy",
        -8.72256846116638
      ],
      [
        "la",
        -8.722730155648993
      ],
      [
        "Rr",
        -8.722737015530416
      ],
      [
        "JR",
        -8.7227941112496
      ],
      [
        "bI",
        -8.722809770943217
      ],
      [
        "vV",
        -8.722824455616944
      ],
      [
        "RL",
        -8.723212613915964
      ],
      [
        "KQ",
        -8.723242307752354
      ],
      [
        "zj",
        -8.723469092513099
      ],
      [
        "Bv",
        -8.723519622927618
      ],
      [
        "A6",
        -8.72356235349349
      ],
      [
        "lw",
        -8.723643225359039
      ],
      [
        "Nb",
        -8.723753164790732
      ],
      [
        "RK",
        -8.723789297476783
      ],
      [
        "Cd",
        -8.723789386963407
      ],
      [
        "qY",
        -8.723837091182713
      ],
      [
        "lB",
        -8.724144246741975
      ],
      [
        "WL",
        -8.724166430065875
      ],
      [
        "Qj",
        -8.724234208220132
      ],
      [
        "cw",
        -8.72436411045142
      ],
      [
        "Tc",
        -8.724439271629507
      ],
      [
        "ea",
        -8.724482014706378
      ],
      [
        "Ib",
        -8.72448996750557
      ],
      [
        "K0",
        -8.724505007097434
      ],
      [
        "ps",
        -8.724579770586049
      ],
      [
        "DK",
        -8.724630366269135
      ],
      [
        "Cz",
        -8.724689943794418
      ],
      [
        "nl",
        -8.724838570315002
      ],
      [
        "UH",
        -8.724846258277134
      ],
      [
        "UU",
        -8.724950312375611
      ],
      [
        "AX",
        -8.725038056069735
      ],
      [
        "DJ",
        -8.725055866351394
      ],
      [
        "zf",
        -8.725124601981628
      ],
      [
        "Re",
        -8.725155485212852
      ],
      [
        "hc",
        -8.725167449418578
      ],
      [
        "nq",
        -8.725403129022702
      ],
      [
        "OL",
        -8.725553327072062
      ],
      [
        "Xr",
        -8.725562832279785
      ],
      [
        "Te",
        -8.72560118158702
      ],
      [
        "MN",
        -8.725637183559536
      ],
      [
        "Af",
        -8.725719324285212
      ],
      [
        "nv",
        -8.725742831415243
      ],
      [
        "nb",
        -8.725742898336646
      ],
      [
        "TH",
        -8.725754583255661
      ],
      [
        "Il",
        -8.725835110462569
      ],
      [
        "JA",
        -8.72585264131208
      ],
      [
        "NJ",
        -8.725867559048131
      ],
      [
        "eu",
        -8.725900629469947
      ],
      [
        "Ba",
        -8.725989804250792
      ],
      [
        "BA",
        -8.726051166210699
      ],
      [
        "Ix",
        -8.726062203791805
      ],
      [
        "rX",
        -8.72610825991179
      ],
      [
        "VM",
        -8.726123173895424
      ],
      [
        "qt",
        -8.726164100281522
      ],
      [
        "AD",
        -8.726188392502294
      ],
      [
        "Kp",
        -8.72633562279151
      ],
      [
        "Ue",
        -8.726436298472965
      ],
      [
        "WR",
        -8.72645698321165
      ],
      [
        "mY",
        -8.726515600908465
      ],
      [
        "gK",
        -8.726779548262083
      ],
      [
        "oL",
        -8.726862774699288
      ],
      [
        "Cm",
        -8.726962300066246
      ],
      [
        "WV",
        -8.726990322245822
      ],
      [
        "GT",
        -8.727004342438223
      ],
      [
        "Va",
        -8.72703405045224
      ],
      [
        "jf",
        -8.727189469922674
      ],
      [
        "JI",
        -8.72724382079025
      ],
      [
        "lN",
        -8.727252484850652
      ],
      [
        "TG",
        -8.727304504847906
      ],
      [
        "NM",
        -8.72752376624908
      ],
      [
        "qC",
        -8.727560595759147
      ],
      [
        "MZ",
        -8.72763292514789
      ],
      [
        "eH",
        -8.727671737394793
      ],
      [
        "CR",
        -8.727943736205471
      ],
      [
        "uN",
        -8.728219880602222
      ],
      [
        "de",
        -8.728267209346601
      ],
      [
        "Zf",
        -8.728373367087494
      ],
      [
        "TU",
        -8.728428409125057
      ],
      [
        "QO",
        -8.728647288892674
      ],
      [
        "HN",
        -8.728661196182028
      ],
      [
        "fr",
        -8.728686562176943
      ],
      [
        "Io",
        -8.72882903843943
      ],
      [
        "rK",
        -8.72883774163111
      ],
      [
        "Mw",
        -8.72899134193053
      ],
      [
        "gp",
        -8.729148595790129
      ],
      [
        "GI",
        -8.729378385025454
      ],
      [
        "nf",
        -8.729396043530343
      ],
      [
        "Qn",
        -8.729421272417644
      ],
      [
        "ZT",
        -8.729472913248486
      ],
      [
        "Tm",
        -8.729607695036414
      ],
      [
        "nN",
        -8.729632358785153
      ],
      [
        "Ow",
        -8.72976469377901
      ],
      [
        "qW",
        -8.729796056987137
      ],
      [
        "Lr",
        -8.729860492557812
      ],
      [
        "ux",
        -8.729964559755885
      ],
      [
        "fO",
        -8.730006571663012
      ],
      [
        "ZZ",
        -8.730125886969647
      ],
      [
        "cQ",
        -8.730197242239946
      ],
      [
        "Tf",
        -8.7302077359026
      ],
      [
        "TL",
        -8.730337649099564
      ],
      [
        "Jh",
        -8.730357362684558
      ],
      [
        "YX",
        -8.730433619098495
      ],
      [
        "lv",
        -8.730489791521407
      ],
      [
        "Qo",
        -8.73051136006476
      ],
      [
        "Qf",
        -8.73056871725371
      ],
      [
        "wV",
        -8.730665282402878
      ],
      [
        "ff",
        -8.73075017311517
      ],
      [
        "Cb",
        -8.730918576177206
      ],
      [
        "gT",
        -8.73100869686424
      ],
      [
        "yr",
        -8.7310853036132
      ],
      [
        "Tl",
        -8.731099006883277
      ],
      [
        "KG",
        -8.731138130718502
      ],
      [
        "vz",
        -8.731170324995635
      ],
      [
        "uo",
        -8.731490159130832
      ],
      [
        "rW",
        -8.73170880437467
      ],
      [
        "ep",
        -8.731875136769286
      ],
      [
        "LR",
        -8.731937897884587
      ],
      [
        "v0",
        -8.731971808106193
      ],
      [
        "qL",
        -8.731982772676423
      ],
      [
        "Wy",
        -8.732193373167998
      ],
      [
        "RZ",
        -8.73245533328902
      ],
      [
        "MU",
        -8.732559886663136
      ],
      [
        "nW",
        -8.732608018562445
      ],
      [
        "fZ",
        -8.732612351451994
      ],
      [
        "gX",
        -8.732821123490368
      ],
      [
        "LM",
        -8.732887944838046
      ],
      [
        "RM",
        -8.73292578677869
      ],
      [
        "bf",
        -8.733052032577632
      ],
      [
        "AJ",
        -8.733079384763876
      ],
      [
        "JQ",
        -8.733185576313929
      ],
      [
        "eD",
        -8.733454738484083
      ],
      [
        "pp",
        -8.73354122870536
      ],
      [
        "wb",
        -8.733711915061093
      ],
      [
        "vN",
        -8.733777589245708
      ],
      [
        "hY",
        -8.733825940163094
      ],
      [
        "pj",
        -8.733899585782599
      ],
      [
        "Cn",
        -8.734005547244447
      ],
      [
        "gW",
        -8.734006994993853
      ],
      [
        "go",
        -8.734309617490197
      ],
      [
        "oQ",
        -8.734329675252184
      ],
      [
        "fc",
        -8.734473607365905
      ],
      [
        "ee",
        -8.734477582450253
      ],
      [
        "If",
        -8.734535474174162
      ],
      [
        "Ma",
        -8.734585670405547
      ],
      [
        "WJ",
        -8.734586001225152
      ],
      [
        "ne",
        -8.734636867474517
      ],
      [
        "IB",
        -8.734728439182742
      ],
      [
        "Id",
        -8.734807304887845
      ],
      [
        "VN",
        -8.73486293449788
      ],
      [
        "Ou",
        -8.734912845487145
      ],
      [
        "cz",
        -8.734924440943468
      ],
      [
        "bb",
        -8.735017727833641
      ],
      [
        "AQ",
        -8.735083646061643
      ],
      [
        "vl",
        -8.735086337209879
      ],
      [
        "gc",
        -8.735394651464862
      ],
      [
        "zL",
        -8.735437164706225
      ],
      [
        "KM",
        -8.735452753333863
      ],
      [
        "Wp",
        -8.735463614671144
      ],
      [
        "dG",
        -8.735603102496171
      ],
      [
        "BT",
        -8.735746165709404
      ],
      [
        "uc",
        -8.735766321963201
      ],
      [
        "qG",
        -8.735841865781016
      ],
      [
        "GQ",
        -8.735878229559926
      ],
      [
        "Ru",
        -8.736082695009092
      ],
      [
        "oV",
        -8.736219573546435
      ],
      [
        "NQ",
        -8.73635021220165
      ],
      [
        "NT",
        -8.736608226200836
      ],
      [
        "Dy",
        -8.736686380370152
      ],
      [
        "QB",
        -8.736698345053583
      ],
      [
        "YQ",
        -8.736776645745826
      ],
      [
        "BY",
        -8.736886802779136
      ],
      [
        "mu",
        -8.7369021219748
      ],
      [
        "lK",
        -8.73725986054027
      ],
      [
        "jo",
        -8.73729073653275
      ],
      [
        "gu",
        -8.73744674435525
      ],
      [
        "xr",
        -8.737515073434352
      ],
      [
        "wy",
        -8.737533802572916
      ],
      [
        "Jp",
        -8.737553087731069
      ],
      [
        "Ao",
        -8.737558754260448
      ],
      [
        "Ts",
        -8.737665463017848
      ],
      [
        "XY",
        -8.737785342809328
      ],
      [
        "RX",
        -8.737786506172442
      ],
      [
        "Uh",
        -8.738080622429194
      ],
      [
        "qp",
        -8.738155125541788
      ],
      [
        "lm",
        -8.738410422699392
      ],
      [
        "NB",
        -8.738480602322937
      ],
      [
        "VR",
        -8.738511538951169
      ],
      [
        "Ja",
        -8.738616214158252
      ],
      [
        "gA",
        -8.738622182654703
      ],
      [
        "Yh",
        -8.738639929496351
      ],
      [
        "jA",
        -8.738658529839235
      ],
      [
        "Lh",
        -8.738775298173607
      ],
      [
        "Rg",
        -8.73896266360886
      ],
      [
        "bK",
        -8.73897508482185
      ],
      [
        "Rm",
        -8.739040035822466
      ],
      [
        "UV",
        -8.739045703866067
      ],
      [
        "Ym",
        -8.739376917624224
      ],
      [
        "KW",
        -8.73941363927425
      ],
      [
        "ad",
        -8.739673158594265
      ],
      [
        "bo",
        -8.739717240466513
      ],
      [
        "LY",
        -8.739764219547705
      ],
      [
        "cV",
        -8.739764873729733
      ],
      [
        "fg",
        -8.739784592660152
      ],
      [
        "BI",
        -8.740072656879804
      ],
      [
        "BC",
        -8.740131125450473
      ],
      [
        "Ha",
        -8.740140491160943
      ],
      [
        "Ml",
        -8.740202588175691
      ],
      [
        "eO",
        -8.740243708654827
      ],
      [
        "Yo",
        -8.740330184004169
      ],
      [
        "oJ",
        -8.740464135379355
      ],
      [
        "aY",
        -8.740485362456813
      ],
      [
        "IK",
        -8.74061482569152
      ],
      [
        "mX",
        -8.740849288067725
      ],
      [
        "ZW",
        -8.740867478776245
      ],
      [
        "Lg",
        -8.74087766881154
      ],
      [
        "WO",
        -8.741159040592459
      ],
      [
        "hU",
        -8.741243554736457
      ],
      [
        "Bp",
        -8.741266102272391
      ],
      [
        "Yr",
        -8.741414408921205
      ],
      [
        "QM",
        -8.74150424081557
      ],
      [
        "eQ",
        -8.741713014037964
      ],
      [
        "YK",
        -8.741840852540715
      ],
      [
        "Gg",
        -8.741870821690522
      ],
      [
        "fd",
        -8.741911780667682
      ],
      [
        "Az",
        -8.741942067866052
      ],
      [
        "xg",
        -8.741986350190857
      ],
      [
        "qz",
        -8.742047192185787
      ],
      [
        "pJ",
        -8.74204855850514
      ],
      [
        "XX",
        -8.742088035430314
      ],
      [
        "zb",
        -8.742107934460734
      ],
      [
        "IQ",
        -8.742222656043333
      ],
      [
        "hT",
        -8.742263394217566
      ],
      [
        "Hu",
        -8.742270705889197
      ],
      [
        "RJ",
        -8.742285096569862
      ],
      [
        "nz",
        -8.742487967529005
      ],
      [
        "zI",
        -8.742596950957669
      ],
      [
        "uw",
        -8.742629027106517
      ],
      [
        "fR",
        -8.74270702371033
      ],
      [
        "bq",
        -8.742757544538431
      ],
      [
        "dC",
        -8.743090398778087
      ],
      [
        "wv",
        -8.743100201455512
      ],
      [
        "Go",
        -8.743127518374719
      ],
      [
        "sa",
        -8.74318134714655
      ],
      [
        "Vq",
        -8.743277345051737
      ],
      [
        "KL",
        -8.743277414857868
      ],
      [
        "Gm",
        -8.743341549407148
      ],
      [
        "gM",
        -8.743427391464298
      ],
      [
        "hl",
        -8.743507063986733
      ],
      [
        "xT",
        -8.743516662336054
      ],
      [
        "YI",
        -8.743534777238457
      ],
      [
        "JM",
        -8.743619302955043
      ],
      [
        "Ie",
        -8.743638928761527
      ],
      [
        "We",
        -8.743767034324986
      ],
      [
        "Cj",
        -8.74390313559148
      ],
      [
        "NL",
        -8.744089076480595
      ],
      [
        "wp",
        -8.744132001250808
      ],
      [
        "OK",
        -8.744393354449741
      ],
      [
        "pu",
        -8.744396278034205
      ],
      [
        "TI",
        -8.744399770229672
      ],
      [
        "hA",
        -8.744410145773521
      ],
      [
        "jI",
        -8.744444016867508
      ],
      [
        "vq",
        -8.744468875980953
      ],
      [
        "ax",
        -8.74453349375909
      ],
      [
        "no",
        -8.744544283023853
      ],
      [
        "Iw",
        -8.744618583877262
      ],
      [
        "zu",
        -8.744651132857278
      ],
      [
        "TN",
        -8.744660756045914
      ],
      [
        "eY",
        -8.745019480466343
      ],
      [
        "VC",
        -8.74507282258893
      ],
      [
        "JO",
        -8.74514863299558
      ],
      [
        "ua",
        -8.745215725701058
      ],
      [
        "q3",
        -8.745275507841537
      ],
      [
        "vU",
        -8.745385475393213
      ],
      [
        "JN",
        -8.745594907800012
      ],
      [
        "VI",
        -8.745655358616691
      ],
      [
        "wL",
        -8.745861844580203
      ],
      [
        "Om",
        -8.74617794493357
      ],
      [
        "DW",
        -8.746300245394282
      ],
      [
        "Nj",
        -8.746459651884654
      ],
      [
        "mG",
        -8.746721298366866
      ],
      [
        "ox",
        -8.746842412407045
      ],
      [
        "nL",
        -8.747092775513153
      ],
      [
        "Tb",
        -8.747101802368315
      ],
      [
        "zZ",
        -8.747166440678203
      ],
      [
        "wh",
        -8.747259830483852
      ],
      [
        "Xb",
        -8.747299043022782
      ],
      [
        "oC",
        -8.74743413797933
      ],
      [
        "xJ",
        -8.747443482443275
      ],
      [
        "qm",
        -8.747465176440553
      ],
      [
        "lg",
        -8.747601556507407
      ],
      [
        "NX",
        -8.747674263288118
      ],
      [
        "oU",
        -8.74773783193293
      ],
      [
        "pL",
        -8.747764089147637
      ],
      [
        "mV",
        -8.748260129079647
      ],
      [
        "fp",
        -8.748413724424687
      ],
      [
        "gg",
        -8.748465791437173
      ],
      [
        "UA",
        -8.748524624328498
      ],
      [
        "cT",
        -8.748599057951566
      ],
      [
        "pH",
        -8.748607199379066
      ],
      [
        "WC",
        -8.748784355910177
      ],
      [
        "gY",
        -8.748943515314355
      ],
      [
        "QV",
        -8.748981530097009
      ],
      [
        "Bg",
        -8.749003658190773
      ],
      [
        "qI",
        -8.749120701204673
      ],
      [
        "AY",
        -8.749124033127842
      ],
      [
        "fJ",
        -8.749146352073797
      ],
      [
        "Tj",
        -8.749247432559706
      ],
      [
        "LT",
        -8.74928771071032
      ],
      [
        "Kl",
        -8.74936606322154
      ],
      [
        "Ab",
        -8.749688686186705
      ],
      [
        "II",
        -8.749729281104466
      ],
      [
        "Ve",
        -8.749823101473329
      ],
      [
        "Wl",
        -8.74988570280173
      ],
      [
        "AM",
        -8.750037036082496
      ],
      [
        "GM",
        -8.750079713386754
      ],
      [
        "YO",
        -8.750093425761754
      ],
      [
        "QC",
        -8.750240012150176
      ],
      [
        "Dv",
        -8.750340422188088
      ],
      [
        "Kn",
        -8.750356280510932
      ],
      [
        "Dc",
        -8.750358090301582
      ],
      [
        "wR",
        -8.750370833346361
      ],
      [
        "KJ",
        -8.750370923637194
      ],
      [
        "bm",
        -8.750461538832678
      ],
      [
        "rr",
        -8.750655745344636
      ],
      [
        "uV",
        -8.750713803318426
      ],
      [
        "w3",
        -8.75071974700787
      ],
      [
        "mK",
        -8.75075201253984
      ],
      [
        "lR",
        -8.750804287760957
      ],
      [
        "UD",
        -8.75083047267346
      ],
      [
        "IX",
        -8.750834822195248
      ],
      [
        "zR",
        -8.750855992677424
      ],
      [
        "DX",
        -8.750927180723867
      ],
      [
        "jw",
        -8.75094181725222
      ],
      [
        "v9",
        -8.751149736529566
      ],
      [
        "Fd",
        -8.75117857490742
      ],
      [
        "GL",
        -8.751276508474318
      ],
      [
        "ar",
        -8.751320799999874
      ],
      [
        "we",
        -8.751429301446532
      ],
      [
        "sI",
        -8.751698601365815
      ],
      [
        "LL",
        -8.751700859369578
      ],
      [
        "vK",
        -8.751953972647907
      ],
      [
        "LX",
        -8.75200304334432
      ],
      [
        "bU",
        -8.752008179973124
      ],
      [
        "Im",
        -8.752081513391223
      ],
      [
        "Bj",
        -8.752104407078068
      ],
      [
        "lV",
        -8.752140255972538
      ],
      [
        "JG",
        -8.752149882517848
      ],
      [
        "TQ",
        -8.752274217502592
      ],
      [
        "Lw",
        -8.752275376757993
      ],
      [
        "WD",
        -8.752317567027939
      ],
      [
        "Vz",
        -8.752363442915474
      ],
      [
        "rs",
        -8.75238429665466
      ],
      [
        "Mm",
        -8.752384310285393
      ],
      [
        "DV",
        -8.752392750984608
      ],
      [
        "mq",
        -8.752419042909732
      ],
      [
        "Ko",
        -8.752782897437617
      ],
      [
        "lo",
        -8.752800165287496
      ],
      [
        "LQ",
        -8.75281050364594
      ],
      [
        "ZC",
        -8.752857541093226
      ],
      [
        "og",
        -8.752972829685874
      ],
      [
        "He",
        -8.753003744736148
      ],
      [
        "mD",
        -8.753146837646689
      ],
      [
        "wI",
        -8.753168961158082
      ],
      [
        "HI",
        -8.753230034799056
      ],
      [
        "nT",
        -8.753267843939284
      ],
      [
        "WF",
        -8.753346266133725
      ],
      [
        "IA",
        -8.753472898025928
      ],
      [
        "wN",
        -8.753744163953634
      ],
      [
        "os",
        -8.753756371989518
      ],
      [
        "uv",
        -8.7537728767091
      ],
      [
        "As",
        -8.753944047478345
      ],
      [
        "eg",
        -8.75394659061796
      ],
      [
        "cM",
        -8.754093867257263
      ],
      [
        "Dp",
        -8.754123956372005
      ],
      [
        "AV",
        -8.754191307153778
      ],
      [
        "lJ",
        -8.75431311388602
      ],
      [
        "qs",
        -8.754340536906938
      ],
      [
        "Nl",
        -8.754361602743977
      ],
      [
        "uM",
        -8.754372435859048
      ],
      [
        "TV",
        -8.75437800009906
      ],
      [
        "fo",
        -8.754378317171046
      ],
      [
        "Bx",
        -8.754437562207215
      ],
      [
        "dd",
        -8.754807441626372
      ],
      [
        "mM",
        -8.755085882147453
      ],
      [
        "jp",
        -8.755093466615321
      ],
      [
        "lu",
        -8.75512477272288
      ],
      [
        "OB",
        -8.755178340369074
      ],
      [
        "Gb",
        -8.75531951452719
      ],
      [
        "gl",
        -8.755397093115832
      ],
      [
        "UC",
        -8.755498968046599
      ],
      [
        "DD",
        -8.755511037811964
      ],
      [
        "xX",
        -8.75561451758489
      ],
      [
        "YH",
        -8.755911964383806
      ],
      [
        "RV",
        -8.75612155117145
      ],
      [
        "Yu",
        -8.756172250062065
      ],
      [
        "MT",
        -8.756182441940673
      ],
      [
        "jZ",
        -8.756239636431268
      ],
      [
        "cU",
        -8.75625903654893
      ],
      [
        "CC",
        -8.7562649738571
      ],
      [
        "vp",
        -8.756406739307616
      ],
      [
        "hD",
        -8.756418178325973
      ],
      [
        "QA",
        -8.756419385098198
      ],
      [
        "mC",
        -8.756452970573912
      ],
      [
        "pX",
        -8.756458887682768
      ],
      [
        "RU",
        -8.756470378549594
      ],
      [
        "IU",
        -8.756549005083935
      ],
      [
        "RI",
        -8.756592675209296
      ],
      [
        "ZA",
        -8.756788039316739
      ],
      [
        "gC",
        -8.756806036581331
      ],
      [
        "Yl",
        -8.75682076295566
      ],
      [
        "IW",
        -8.756871646882889
      ],
      [
        "Mb",
        -8.757030620381459
      ],
      [
        "Ap",
        -8.757050955675801
      ],
      [
        "zU",
        -8.757073674808446
      ],
      [
        "Zm",
        -8.75710153860738
      ],
      [
        "jN",
        -8.757112407525717
      ],
      [
        "fT",
        -8.757340902401308
      ],
      [
        "Gq",
        -8.757363555677056
      ],
      [
        "sK",
        -8.757466969050412
      ],
      [
        "pe",
        -8.75749363191423
      ],
      [
        "XK",
        -8.757551569667127
      ],
      [
        "Kb",
        -8.757601243883375
      ],
      [
        "MX",
        -8.757723237906069
      ],
      [
        "LK",
        -8.75781722748606
      ],
      [
        "YB",
        -8.757991328229284
      ],
      [
        "AU",
        -8.758038313974112
      ],
      [
        "AB",
        -8.758327429340646
      ],
      [
        "uW",
        -8.75842882080902
      ],
      [
        "VQ",
        -8.75852491685486
      ],
      [
        "Cl",
        -8.758666847386731
      ],
      [
        "BW",
        -8.758780954941962
      ],
      [
        "Xa",
        -8.758789629423468
      ],
      [
        "KN",
        -8.758919930811892
      ],
      [
        "bv",
        -8.759020078898697
      ],
      [
        "Ch",
        -8.759051697103462
      ],
      [
        "Bz",
        -8.759516195991129
      ],
      [
        "N5",
        -8.75953224897154
      ],
      [
        "rd",
        -8.759612735685984
      ],
      [
        "qT",
        -8.759654913599821
      ],
      [
        "DT",
        -8.759720305004198
      ],
      [
        "xM",
        -8.759943566079569
      ],
      [
        "HL",
        -8.759955841053433
      ],
      [
        "jv",
        -8.76004729367175
      ],
      [
        "lX",
        -8.760190812849094
      ],
      [
        "GA",
        -8.760270293273045
      ],
      [
        "dQ",
        -8.760270853097019
      ],
      [
        "Ta",
        -8.760333049753118
      ],
      [
        "uZ",
        -8.760464118676232
      ],
      [
        "Tn",
        -8.76047930530652
      ],
      [
        "Jb",
        -8.76048690050441
      ],
      [
        "Is",
        -8.760531899695195
      ],
      [
        "on",
        -8.760586687390752
      ],
      [
        "Xm",
        -8.760600236149951
      ],
      [
        "q5",
        -8.760651325119163
      ],
      [
        "nI",
        -8.76074115100614
      ],
      [
        "ZX",
        -8.760798739810246
      ],
      [
        "GZ",
        -8.760798798202753
      ],
      [
        "fM",
        -8.760876924679607
      ],
      [
        "CI",
        -8.760890358830991
      ],
      [
        "JY",
        -8.761350497975883
      ],
      [
        "Aj",
        -8.761420502798167
      ],
      [
        "Dg",
        -8.76148758852275
      ],
      [
        "JL",
        -8.761698512864019
      ],
      [
        "OW",
        -8.761759039707115
      ],
      [
        "aq",
        -8.761768248335105
      ],
      [
        "MH",
        -8.761944044626073
      ],
      [
        "xw",
        -8.761995025333478
      ],
      [
        "MW",
        -8.762057241215294
      ],
      [
        "Cf",
        -8.762183985709934
      ],
      [
        "au",
        -8.762352062149976
      ],
      [
        "GY",
        -8.762566602231995
      ],
      [
        "Tg",
        -8.762619018564486
      ],
      [
        "ya",
        -8.762645638046461
      ],
      [
        "Do",
        -8.762746881511703
      ],
      [
        "wq",
        -8.763096650717731
      ],
      [
        "cZ",
        -8.76316575352406
      ],
      [
        "ou",
        -8.763313349796892
      ],
      [
        "jY",
        -8.763429167798357
      ],
      [
        "jl",
        -8.7634944828925
      ],
      [
        "IL",
        -8.763538914222096
      ],
      [
        "LU",
        -8.763574789312512
      ],
      [
        "ro",
        -8.763613228150113
      ],
      [
        "ao",
        -8.763830908733958
      ],
      [
        "Au",
        -8.763951053594443
      ],
      [
        "HD",
        -8.764059724770998
      ],
      [
        "nG",
        -8.764303182426726
      ],
      [
        "Js",
        -8.7643066759625
      ],
      [
        "sw",
        -8.764393724053107
      ],
      [
        "aK",
        -8.764411510818036
      ],
      [
        "gm",
        -8.7646450690606
      ],
      [
        "bB",
        -8.764922067628754
      ],
      [
        "eL",
        -8.765015204904206
      ],
      [
        "mT",
        -8.76514312942728
      ],
      [
        "Jw",
        -8.765281528208952
      ],
      [
        "aQ",
        -8.765288283319276
      ],
      [
        "vj",
        -8.765302523961548
      ],
      [
        "bX",
        -8.765430344571921
      ],
      [
        "VB",
        -8.765472143136108
      ],
      [
        "Db",
        -8.765519232736253
      ],
      [
        "qO",
        -8.765733041288819
      ],
      [
        "Ah",
        -8.7657672199349
      ],
      [
        "aH",
        -8.76587558467985
      ],
      [
        "dI",
        -8.765898265441304
      ],
      [
        "eB",
        -8.765973072843847
      ],
      [
        "eA",
        -8.766157684245128
      ],
      [
        "vb",
        -8.76620340887371
      ],
      [
        "fz",
        -8.76641066008644
      ],
      [
        "xf",
        -8.766568196640506
      ],
      [
        "Bl",
        -8.766605419480143
      ],
      [
        "TA",
        -8.766640490543011
      ],
      [
        "zp",
        -8.766640850286105
      ],
      [
        "sG",
        -8.76675752075873
      ],
      [
        "DC",
        -8.766775229729934
      ],
      [
        "Wa",
        -8.767015785582926
      ],
      [
        "Yf",
        -8.767166059343353
      ],
      [
        "Yv",
        -8.767205190945438
      ],
      [
        "Xn",
        -8.767405646921073
      ],
      [
        "zo",
        -8.767532532847241
      ],
      [
        "ng",
        -8.76754755339564
      ],
      [
        "YD",
        -8.767572473260014
      ],
      [
        "za",
        -8.767662828166635
      ],
      [
        "IH",
        -8.767736841922913
      ],
      [
        "VV",
        -8.768017481725622
      ],
      [
        "pD",
        -8.76812184460194
      ],
      [
        "XA",
        -8.7683620414568
      ],
      [
        "wX",
        -8.768392098704133
      ],
      [
        "uR",
        -8.768565099201625
      ],
      [
        "fv",
        -8.76863498163149
      ],
      [
        "OY",
        -8.768673023957252
      ],
      [
        "xW",
        -8.768966383097567
      ],
      [
        "Ag",
        -8.769087882667247
      ],
      [
        "Dq",
        -8.769169929856442
      ],
      [
        "pZ",
        -8.76920467658891
      ],
      [
        "uI",
        -8.769378356555045
      ],
      [
        "ej",
        -8.76964803963999
      ],
      [
        "Gf",
        -8.769708730392347
      ],
      [
        "aN",
        -8.76991314348394
      ],
      [
        "jJ",
        -8.769931080236224
      ],
      [
        "mJ",
        -8.770429300237712
      ],
      [
        "Za",
        -8.77063790897035
      ],
      [
        "ZL",
        -8.770790181401704
      ],
      [
        "fA",
        -8.770875317574587
      ],
      [
        "NY",
        -8.770882007638203
      ],
      [
        "Gc",
        -8.770961812076699
      ],
      [
        "bn",
        -8.770966916607703
      ],
      [
        "dr",
        -8.770990482945543
      ],
      [
        "cc",
        -8.77104739536416
      ],
      [
        "ZR",
        -8.771067704192784
      ],
      [
        "wu",
        -8.77120985404541
      ],
      [
        "Zu",
        -8.77130919027796
      ],
      [
        "Cp",
        -8.771311989999553
      ],
      [
        "af",
        -8.771352097227354
      ],
      [
        "XL",
        -8.771519614948811
      ],
      [
        "ml",
        -8.771594122571408
      ],
      [
        "fL",
        -8.77164622409011
      ],
      [
        "pf",
        -8.771669805844827
      ],
      [
        "JD",
        -8.771752910704421
      ],
      [
        "fH",
        -8.771774006011775
      ],
      [
        "RD",
        -8.771803396316912
      ],
      [
        "YA",
        -8.771814011079883
      ],
      [
        "nc",
        -8.771984485840516
      ],
      [
        "dK",
        -8.772180478206991
      ],
      [
        "rR",
        -8.77222805213435
      ],
      [
        "KD",
        -8.772470305532433
      ],
      [
        "CL",
        -8.7724775760394
      ],
      [
        "el",
        -8.772511170803849
      ],
      [
        "bj",
        -8.772616712861655
      ],
      [
        "xK",
        -8.77275500456824
      ],
      [
        "wr",
        -8.772919258995486
      ],
      [
        "rq",
        -8.772930145900663
      ],
      [
        "Xw",
        -8.772942657228587
      ],
      [
        "wz",
        -8.773057525840386
      ],
      [
        "WQ",
        -8.773190435731241
      ],
      [
        "BX",
        -8.773323550737272
      ],
      [
        "nD",
        -8.773353282488682
      ],
      [
        "VZ",
        -8.773733594313553
      ],
      [
        "oG",
        -8.773739800336157
      ],
      [
        "rB",
        -8.773771978128096
      ],
      [
        "nU",
        -8.773868735994578
      ],
      [
        "WB",
        -8.773981840730961
      ],
      [
        "MC",
        -8.774059940301793
      ],
      [
        "MK",
        -8.774075746113693
      ],
      [
        "Ju",
        -8.77410859241454
      ],
      [
        "aW",
        -8.774649099908173
      ],
      [
        "nw",
        -8.774888091420248
      ],
      [
        "rG",
        -8.775188601293522
      ],
      [
        "dM",
        -8.77523471649188
      ],
      [
        "JW",
        -8.775279457018764
      ],
      [
        "VY",
        -8.775506699104652
      ],
      [
        "re",
        -8.77561078771881
      ],
      [
        "eI",
        -8.775793867180376
      ],
      [
        "wf",
        -8.775816596181993
      ],
      [
        "Wz",
        -8.775818606860607
      ],
      [
        "YY",
        -8.775958416719108
      ],
      [
        "YT",
        -8.776215376880897
      ],
      [
        "bN",
        -8.776228494120552
      ],
      [
        "TR",
        -8.776254393640253
      ],
      [
        "Xc",
        -8.776294936599173
      ],
      [
        "Ys",
        -8.77658894468225
      ],
      [
        "xR",
        -8.776602728945505
      ],
      [
        "RW",
        -8.77670245531315
      ],
      [
        "Gv",
        -8.77671273615815
      ],
      [
        "sA",
        -8.776770620197176
      ],
      [
        "In",
        -8.777072865972418
      ],
      [
        "NV",
        -8.777131635414417
      ],
      [
        "Iz",
        -8.777135680710394
      ],
      [
        "cg",
        -8.77715476517692
      ],
      [
        "se",
        -8.777424932831963
      ],
      [
        "Nz",
        -8.777523593972735
      ],
      [
        "BG",
        -8.777604354276598
      ],
      [
        "ql",
        -8.777705158928013
      ],
      [
        "TK",
        -8.777721237151358
      ],
      [
        "Dl",
        -8.777728330114273
      ],
      [
        "cI",
        -8.777825373329343
      ],
      [
        "eh",
        -8.778033269773438
      ],
      [
        "zB",
        -8.77806408649735
      ],
      [
        "DH",
        -8.778182630560547
      ],
      [
        "WK",
        -8.778282038680622
      ],
      [
        "YU",
        -8.778300385014653
      ],
      [
        "uX",
        -8.778716731195296
      ],
      [
        "sv",
        -8.778922546142962
      ],
      [
        "AK",
        -8.779008273454616
      ],
      [
        "qg",
        -8.779066895432337
      ],
      [
        "HY",
        -8.779242906673971
      ],
      [
        "Dh",
        -8.779274937741306
      ],
      [
        "LN",
        -8.779442434727759
      ],
      [
        "jV",
        -8.77953059587172
      ],
      [
        "vT",
        -8.77959155235666
      ],
      [
        "YR",
        -8.779752501338002
      ],
      [
        "wm",
        -8.779829160317211
      ],
      [
        "OG",
        -8.779892333524607
      ],
      [
        "YJ",
        -8.77995168061309
      ],
      [
        "GH",
        -8.779979824346878
      ],
      [
        "wY",
        -8.780146245080484
      ],
      [
        "sq",
        -8.780212615008075
      ],
      [
        "uG",
        -8.780324157057713
      ],
      [
        "wJ",
        -8.780428882584642
      ],
      [
        "QJ",
        -8.780430687084483
      ],
      [
        "A9",
        -8.780677663951957
      ],
      [
        "Kh",
        -8.780699287645644
      ],
      [
        "Qq",
        -8.78107456503097
      ],
      [
        "yX",
        -8.781133584228986
      ],
      [
        "Og",
        -8.781144723841981
      ],
      [
        "UI",
        -8.781188248001115
      ],
      [
        "OD",
        -8.781195359431086
      ],
      [
        "wA",
        -8.781320843529747
      ],
      [
        "oI",
        -8.781346570005113
      ],
      [
        "Wx",
        -8.781375592463077
      ],
      [
        "uL",
        -8.781698065367813
      ],
      [
        "uU",
        -8.781718520053015
      ],
      [
        "Mo",
        -8.782081819965612
      ],
      [
        "CJ",
        -8.78222306946568
      ],
      [
        "Yj",
        -8.782230111313485
      ],
      [
        "Lz",
        -8.782386320320846
      ],
      [
        "ZI",
        -8.782501811224892
      ],
      [
        "Fa",
        -8.782607093313596
      ],
      [
        "lW",
        -8.782765663107671
      ],
      [
        "me",
        -8.782792346342587
      ],
      [
        "pg",
        -8.782905036553899
      ],
      [
        "Oe",
        -8.782914102511546
      ],
      [
        "lc",
        -8.782951231900899
      ],
      [
        "Jv",
        -8.782966739811128
      ],
      [
        "qK",
        -8.783035695783878
      ],
      [
        "lY",
        -8.783119270274469
      ],
      [
        "lI",
        -8.783329067465893
      ],
      [
        "vC",
        -8.783491848403722
      ],
      [
        "Xe",
        -8.783609746997218
      ],
      [
        "BH",
        -8.78362063130818
      ],
      [
        "OJ",
        -8.783747666240455
      ],
      [
        "fV",
        -8.783763667957896
      ],
      [
        "ZV",
        -8.783834271369873
      ],
      [
        "uz",
        -8.783956011064994
      ],
      [
        "Tv",
        -8.784016209119905
      ],
      [
        "AG",
        -8.784074770419178
      ],
      [
        "ND",
        -8.78409650251563
      ],
      [
        "LJ",
        -8.78422287783028
      ],
      [
        "xV",
        -8.784324586368076
      ],
      [
        "TJ",
        -8.784513891655347
      ],
      [
        "sY",
        -8.784706861218712
      ],
      [
        "nY",
        -8.784750490189246
      ],
      [
        "fW",
        -8.784842507066582
      ],
      [
        "Cg",
        -8.784852002104266
      ],
      [
        "lU",
        -8.78499462157003
      ],
      [
        "QU",
        -8.785383635684063
      ],
      [
        "WX",
        -8.785402457784546
      ],
      [
        "HT",
        -8.78542216798336
      ],
      [
        "hq",
        -8.785482286975952
      ],
      [
        "HX",
        -8.785531854272026
      ],
      [
        "XC",
        -8.785573491034596
      ],
      [
        "uJ",
        -8.785702620632144
      ],
      [
        "wD",
        -8.78573498901486
      ],
      [
        "zv",
        -8.785833354378703
      ],
      [
        "pQ",
        -8.786184469290259
      ],
      [
        "xC",
        -8.786242946163238
      ],
      [
        "GG",
        -8.78635408942781
      ],
      [
        "Qg",
        -8.786409915850122
      ],
      [
        "Mq",
        -8.786480038121564
      ],
      [
        "qb",
        -8.786633672745893
      ],
      [
        "Zc",
        -8.786883098150021
      ],
      [
        "OA",
        -8.786929855571444
      ],
      [
        "aT",
        -8.787326172887703
      ],
      [
        "VT",
        -8.787528766309485
      ],
      [
        "wn",
        -8.787735446035938
      ],
      [
        "eJ",
        -8.787950077555827
      ],
      [
        "uQ",
        -8.78797508651534
      ],
      [
        "nQ",
        -8.788041193649674
      ],
      [
        "Lv",
        -8.78807082228613
      ],
      [
        "MJ",
        -8.788117617930784
      ],
      [
        "dZ",
        -8.788119107395314
      ],
      [
        "yL",
        -8.788373430143729
      ],
      [
        "AN",
        -8.788417409374627
      ],
      [
        "AI",
        -8.788430590003967
      ],
      [
        "WG",
        -8.788576688535397
      ],
      [
        "GC",
        -8.78858851743335
      ],
      [
        "AW",
        -8.788975124505289
      ],
      [
        "DU",
        -8.789147518703327
      ],
      [
        "CY",
        -8.789186756679015
      ],
      [
        "dW",
        -8.789389692905473
      ],
      [
        "qD",
        -8.789542458034994
      ],
      [
        "ZH",
        -8.789583514034184
      ],
      [
        "Yn",
        -8.789812272933563
      ],
      [
        "cp",
        -8.789847524829874
      ],
      [
        "cA",
        -8.790169911367075
      ],
      [
        "xm",
        -8.790600728908686
      ],
      [
        "HC",
        -8.791045560735053
      ],
      [
        "GV",
        -8.791063490872984
      ],
      [
        "Df",
        -8.791273265499054
      ],
      [
        "vG",
        -8.791316925363532
      ],
      [
        "XT",
        -8.79137847780482
      ],
      [
        "jL",
        -8.791584559391223
      ],
      [
        "bL",
        -8.791597832765236
      ],
      [
        "Iq",
        -8.79175266418241
      ],
      [
        "xQ",
        -8.791803626535
      ],
      [
        "Zw",
        -8.79184645973194
      ],
      [
        "uK",
        -8.792121176841984
      ],
      [
        "Rf",
        -8.792183168413564
      ],
      [
        "Rh",
        -8.792233856727188
      ],
      [
        "lq",
        -8.792364800093184
      ],
      [
        "Qp",
        -8.792473435439268
      ],
      [
        "rA",
        -8.792519820864332
      ],
      [
        "ZY",
        -8.792521018321823
      ],
      [
        "fm",
        -8.792544307722256
      ],
      [
        "UY",
        -8.792574476737078
      ],
      [
        "lp",
        -8.792620330673564
      ],
      [
        "fe",
        -8.792654625773569
      ],
      [
        "mL",
        -8.792825448353442
      ],
      [
        "jc",
        -8.792833998318368
      ],
      [
        "Ww",
        -8.79292110939843
      ],
      [
        "Yc",
        -8.792931952578591
      ],
      [
        "tW",
        -8.793199387313159
      ],
      [
        "oA",
        -8.793267708356847
      ],
      [
        "HQ",
        -8.793393660726279
      ],
      [
        "Cv",
        -8.793410655350032
      ],
      [
        "Lb",
        -8.793483831898172
      ],
      [
        "fw",
        -8.793520495296328
      ],
      [
        "WN",
        -8.79364904012122
      ],
      [
        "Uv",
        -8.793765104366415
      ],
      [
        "HJ",
        -8.793895034084942
      ],
      [
        "Wh",
        -8.793996422493802
      ],
      [
        "ve",
        -8.794331161460935
      ],
      [
        "aZ",
        -8.794344651629839
      ],
      [
        "XM",
        -8.794523463347174
      ],
      [
        "BN",
        -8.794620041954714
      ],
      [
        "po",
        -8.794676699807724
      ],
      [
        "sQ",
        -8.794743659863554
      ],
      [
        "Qb",
        -8.794829573403373
      ],
      [
        "aX",
        -8.794900378062966
      ],
      [
        "Ip",
        -8.794980755461939
      ],
      [
        "gq",
        -8.795500232743656
      ],
      [
        "Gp",
        -8.795572632228982
      ],
      [
        "dJ",
        -8.795879809887067
      ],
      [
        "uA",
        -8.796033557175
      ],
      [
        "zJ",
        -8.79623685473575
      ],
      [
        "cD",
        -8.796277711369637
      ],
      [
        "Wd",
        -8.796291714838729
      ],
      [
        "Th",
        -8.796315652257029
      ],
      [
        "Wc",
        -8.79636645374999
      ],
      [
        "Oc",
        -8.796702761288408
      ],
      [
        "oh",
        -8.796713798632801
      ],
      [
        "Hz",
        -8.796793334898304
      ],
      [
        "Zq",
        -8.79693754098587
      ],
      [
        "pq",
        -8.796964422680919
      ],
      [
        "Hg",
        -8.797165146331766
      ],
      [
        "uD",
        -8.797215826592021
      ],
      [
        "HG",
        -8.797244543660938
      ],
      [
        "dT",
        -8.797303710436037
      ],
      [
        "Hv",
        -8.797360870997299
      ],
      [
        "so",
        -8.797361127564162
      ],
      [
        "rH",
        -8.797874146693207
      ],
      [
        "XJ",
        -8.79788071930771
      ],
      [
        "yQ",
        -8.79789000219861
      ],
      [
        "bl",
        -8.798000374462587
      ],
      [
        "Wn",
        -8.79881036262282
      ],
      [
        "xb",
        -8.79884317672736
      ],
      [
        "vn",
        -8.798987686936595
      ],
      [
        "zc",
        -8.799380503183574
      ],
      [
        "jG",
        -8.799472939729565
      ],
      [
        "Rb",
        -8.799505934226682
      ],
      [
        "ZB",
        -8.79955519058382
      ],
      [
        "Ic",
        -8.799596898911055
      ],
      [
        "Gl",
        -8.799796257841663
      ],
      [
        "Lo",
        -8.799845504930639
      ],
      [
        "Jg",
        -8.799908253528526
      ],
      [
        "JV",
        -8.800246250302726
      ],
      [
        "eb",
        -8.800336153482247
      ],
      [
        "bC",
        -8.800342576189458
      ],
      [
        "lf",
        -8.800515274427214
      ],
      [
        "BD",
        -8.800632194113259
      ],
      [
        "Wg",
        -8.800880976300116
      ],
      [
        "YG",
        -8.801135878421405
      ],
      [
        "mQ",
        -8.801147642707418
      ],
      [
        "Bc",
        -8.801260044266133
      ],
      [
        "nC",
        -8.801421118533593
      ],
      [
        "TD",
        -8.801542170906796
      ],
      [
        "gL",
        -8.801559831325545
      ],
      [
        "Xv",
        -8.801577145184314
      ],
      [
        "KT",
        -8.801639853367188
      ],
      [
        "Xf",
        -8.80175272656825
      ],
      [
        "yJ",
        -8.801765849243631
      ],
      [
        "UK",
        -8.801926211005828
      ],
      [
        "RB",
        -8.802316004319936
      ],
      [
        "mv",
        -8.802409354151198
      ],
      [
        "dq",
        -8.802533515285372
      ],
      [
        "Nh",
        -8.802632801424586
      ],
      [
        "aw",
        -8.803721854037036
      ],
      [
        "Uc",
        -8.803765104508336
      ],
      [
        "pG",
        -8.803837263870406
      ],
      [
        "Me",
        -8.804341600531373
      ],
      [
        "Tw",
        -8.804593301806023
      ],
      [
        "ch",
        -8.805107391508985
      ],
      [
        "Jq",
        -8.805167007478794
      ],
      [
        "ub",
        -8.805227997064978
      ],
      [
        "dA",
        -8.805552035836605
      ],
      [
        "No",
        -8.805712280072441
      ],
      [
        "Tp",
        -8.805805244970607
      ],
      [
        "Mg",
        -8.80582050626554
      ],
      [
        "LD",
        -8.806017032796412
      ],
      [
        "XI",
        -8.806044647964539
      ],
      [
        "ZQ",
        -8.806160395893109
      ],
      [
        "pv",
        -8.80646820450992
      ],
      [
        "uC",
        -8.806500598726881
      ],
      [
        "Mp",
        -8.80663900963319
      ],
      [
        "OI",
        -8.806713968082427
      ],
      [
        "yf",
        -8.806721520790136
      ],
      [
        "GB",
        -8.807028133482344
      ],
      [
        "Lq",
        -8.807328585385084
      ],
      [
        "Vl",
        -8.80736301824992
      ],
      [
        "ul",
        -8.807430284017135
      ],
      [
        "mN",
        -8.807640237848123
      ],
      [
        "zm",
        -8.807835759032344
      ],
      [
        "oT",
        -8.80794961215676
      ],
      [
        "Ro",
        -8.807997221527506
      ],
      [
        "wo",
        -8.808032263010418
      ],
      [
        "Tq",
        -8.80807922929938
      ],
      [
        "XV",
        -8.808238251379422
      ],
      [
        "rf",
        -8.808448289556528
      ],
      [
        "Ig",
        -8.808554246832532
      ],
      [
        "Oq",
        -8.80861766438791
      ],
      [
        "xG",
        -8.808870121894952
      ],
      [
        "Mv",
        -8.80890341979586
      ],
      [
        "Lc",
        -8.808904574693646
      ],
      [
        "OC",
        -8.80898360536149
      ],
      [
        "mR",
        -8.8093878640313
      ],
      [
        "Mc",
        -8.809389172262208
      ],
      [
        "IT",
        -8.809502895284144
      ],
      [
        "JB",
        -8.809507392252584
      ],
      [
        "Xl",
        -8.809869631290058
      ],
      [
        "rw",
        -8.809923221541517
      ],
      [
        "yY",
        -8.809927040067224
      ],
      [
        "Qv",
        -8.810055040429836
      ],
      [
        "mb",
        -8.810092218940937
      ],
      [
        "aD",
        -8.810155418137667
      ],
      [
        "rc",
        -8.810163372870267
      ],
      [
        "iJ",
        -8.810566262078389
      ],
      [
        "wC",
        -8.810587540220794
      ],
      [
        "pm",
        -8.810785105163042
      ],
      [
        "Bo",
        -8.810798213169472
      ],
      [
        "zz",
        -8.810894686888426
      ],
      [
        "Xg",
        -8.810988589833446
      ],
      [
        "Kg",
        -8.811247257079291
      ],
      [
        "Fb",
        -8.811918355538566
      ],
      [
        "Hq",
        -8.811936227438501
      ],
      [
        "rJ",
        -8.812180794135998
      ],
      [
        "fI",
        -8.812194433723441
      ],
      [
        "rb",
        -8.812218955669493
      ],
      [
        "Lp",
        -8.812436015361573
      ],
      [
        "pc",
        -8.81244672226519
      ],
      [
        "Xo",
        -8.812478229264757
      ],
      [
        "da",
        -8.812670778725835
      ],
      [
        "WY",
        -8.812699745989093
      ],
      [
        "xo",
        -8.812765065767538
      ],
      [
        "RG",
        -8.812777950203674
      ],
      [
        "Xz",
        -8.812973494578742
      ],
      [
        "Oo",
        -8.812976230337707
      ],
      [
        "QQ",
        -8.812994037281062
      ],
      [
        "wg",
        -8.813134671334707
      ],
      [
        "eo",
        -8.813331407560975
      ],
      [
        "VL",
        -8.813338821443251
      ],
      [
        "pl",
        -8.813533266479837
      ],
      [
        "aI",
        -8.81370689141312
      ],
      [
        "XR",
        -8.81395284567849
      ],
      [
        "QK",
        -8.81426249419545
      ],
      [
        "pN",
        -8.814755786310457
      ],
      [
        "Qh",
        -8.814826019187713
      ],
      [
        "Fw",
        -8.815328409313143
      ],
      [
        "zD",
        -8.815598659908199
      ],
      [
        "fh",
        -8.815659772503054
      ],
      [
        "nV",
        -8.81579657658606
      ],
      [
        "eV",
        -8.815797259062414
      ],
      [
        "Ne",
        -8.816076666133792
      ],
      [
        "JU",
        -8.8169537462541
      ],
      [
        "up",
        -8.81696203622695
      ],
      [
        "Zl",
        -8.817100628038194
      ],
      [
        "0W",
        -8.817282385285871
      ],
      [
        "rl",
        -8.8174989858077
      ],
      [
        "Ih",
        -8.817769882590827
      ],
      [
        "ug",
        -8.817889558859093
      ],
      [
        "oO",
        -8.817905517207276
      ],
      [
        "RQ",
        -8.818318881309501
      ],
      [
        "pw",
        -8.818644853353
      ],
      [
        "rm",
        -8.818686237421916
      ],
      [
        "ab",
        -8.819113557744124
      ],
      [
        "wK",
        -8.81917322410954
      ],
      [
        "dN",
        -8.81919545538747
      ],
      [
        "Le",
        -8.819198419554334
      ],
      [
        "Zb",
        -8.819398962695445
      ],
      [
        "Wq",
        -8.819473237298853
      ],
      [
        "lh",
        -8.82010431973604
      ],
      [
        "VX",
        -8.820443143255034
      ],
      [
        "aM",
        -8.820550347218301
      ],
      [
        "uh",
        -8.820750748359426
      ],
      [
        "Mf",
        -8.820921353642623
      ],
      [
        "jC",
        -8.820994516581733
      ],
      [
        "fC",
        -8.821092224016716
      ],
      [
        "BL",
        -8.821110709086746
      ],
      [
        "vg",
        -8.82121333479691
      ],
      [
        "Ll",
        -8.821375078346861
      ],
      [
        "rL",
        -8.821540785030091
      ],
      [
        "rM",
        -8.821617528640335
      ],
      [
        "ag",
        -8.82181468843017
      ],
      [
        "mg",
        -8.82198258492955
      ],
      [
        "xB",
        -8.822185772241548
      ],
      [
        "Dz",
        -8.822519354767817
      ],
      [
        "Ov",
        -8.822669491030286
      ],
      [
        "KU",
        -8.823194250590877
      ],
      [
        "fG",
        -8.823330042300322
      ],
      [
        "JT",
        -8.824307310266605
      ],
      [
        "ZD",
        -8.82437654344939
      ],
      [
        "Oh",
        -8.824408169421119
      ],
      [
        "XB",
        -8.824442647149183
      ],
      [
        "fD",
        -8.824459456055433
      ],
      [
        "zC",
        -8.824772716648706
      ],
      [
        "xN",
        -8.824980028534155
      ],
      [
        "Rq",
        -8.825185965232802
      ],
      [
        "aC",
        -8.825203287238388
      ],
      [
        "Vv",
        -8.825411493936556
      ],
      [
        "um",
        -8.825444246126963
      ],
      [
        "fK",
        -8.826000924374137
      ],
      [
        "Zo",
        -8.826093370919073
      ],
      [
        "HB",
        -8.82628190632345
      ],
      [
        "Jz",
        -8.82661093260278
      ],
      [
        "IN",
        -8.826643118104133
      ],
      [
        "Zz",
        -8.826760927704575
      ],
      [
        "lD",
        -8.827153527593225
      ],
      [
        "eU",
        -8.827350425904228
      ],
      [
        "CQ",
        -8.827472374395871
      ],
      [
        "0w",
        -8.828134141526096
      ],
      [
        "yo",
        -8.828866145818576
      ],
      [
        "Hb",
        -8.8289436592646
      ],
      [
        "aB",
        -8.829167606149182
      ],
      [
        "Nw",
        -8.829331355508938
      ],
      [
        "Jo",
        -8.829405650177666
      ],
      [
        "Zv",
        -8.829422340929499
      ],
      [
        "bh",
        -8.829568751545978
      ],
      [
        "ra",
        -8.829625206435656
      ],
      [
        "Wm",
        -8.82985306747496
      ],
      [
        "Qw",
        -8.829859675905352
      ],
      [
        "zq",
        -8.830102051955077
      ],
      [
        "dL",
        -8.83021863520337
      ],
      [
        "IJ",
        -8.830498511317249
      ],
      [
        "iA",
        -8.830846816687828
      ],
      [
        "Yb",
        -8.83120739597847
      ],
      [
        "ZN",
        -8.832431187409249
      ],
      [
        "az",
        -8.832520165880668
      ],
      [
        "IC",
        -8.832531896481399
      ],
      [
        "aU",
        -8.83261837463398
      ],
      [
        "rz",
        -8.832760597885636
      ],
      [
        "Vw",
        -8.833228257811903
      ],
      [
        "Bq",
        -8.833420993375857
      ],
      [
        "Ob",
        -8.833462995576443
      ],
      [
        "zh",
        -8.83348900594153
      ],
      [
        "BQ",
        -8.833904166003599
      ],
      [
        "zA",
        -8.833968116980916
      ],
      [
        "rg",
        -8.834875937070905
      ],
      [
        "rp",
        -8.835061641518523
      ],
      [
        "sU",
        -8.835107792696885
      ],
      [
        "Jl",
        -8.835216324625858
      ],
      [
        "VG",
        -8.835423869479278
      ],
      [
        "Dw",
        -8.835611873001106
      ],
      [
        "rI",
        -8.83568367625189
      ],
      [
        "Xq",
        -8.836310113811498
      ],
      [
        "XD",
        -8.83654833060751
      ],
      [
        "jQ",
        -8.836780509347278
      ],
      [
        "aJ",
        -8.837267900373982
      ],
      [
        "fB",
        -8.837565479393152
      ],
      [
        "Kv",
        -8.83790225967791
      ],
      [
        "yD",
        -8.838239628579217
      ],
      [
        "Vh",
        -8.838715711433396
      ],
      [
        "GR",
        -8.838840496299923
      ],
      [
        "Kc",
        -8.839015765955011
      ],
      [
        "dD",
        -8.839797551879604
      ],
      [
        "Nc",
        -8.840194271861222
      ],
      [
        "tw",
        -8.841223387235548
      ],
      [
        "Al",
        -8.841677049387119
      ],
      [
        "Nu",
        -8.842167802792527
      ],
      [
        "XQ",
        -8.842423443946352
      ],
      [
        "FC",
        -8.842991855264383
      ],
      [
        "NC",
        -8.843214231449895
      ],
      [
        "fQ",
        -8.843500610398737
      ],
      [
        "rD",
        -8.843779213588554
      ],
      [
        "Qm",
        -8.843789377424773
      ],
      [
        "HW",
        -8.844074266331823
      ],
      [
        "fq",
        -8.84434299026005
      ],
      [
        "wT",
        -8.844587228033728
      ],
      [
        "Hl",
        -8.844833276592265
      ],
      [
        "Yg",
        -8.845017679738982
      ],
      [
        "mU",
        -8.845261018803754
      ],
      [
        "cv",
        -8.845837424209229
      ],
      [
        "iw",
        -8.845981682534664
      ],
      [
        "ol",
        -8.846460127514243
      ],
      [
        "XG",
        -8.846736755895293
      ],
      [
        "dR",
        -8.846861987471875
      ],
      [
        "ah",
        -8.847086949933523
      ],
      [
        "ac",
        -8.847941070191442
      ],
      [
        "xD",
        -8.848052362484452
      ],
      [
        "Ze",
        -8.848581179086732
      ],
      [
        "sC",
        -8.848761230221797
      ],
      [
        "yw",
        -8.848766007723377
      ],
      [
        "eq",
        -8.849573995187718
      ],
      [
        "Wv",
        -8.849606917063387
      ],
      [
        "wU",
        -8.849679849805486
      ],
      [
        "jb",
        -8.850572582907219
      ],
      [
        "Wo",
        -8.850828709933255
      ],
      [
        "FL",
        -8.851600391657659
      ],
      [
        "Jc",
        -8.851850172713505
      ],
      [
        "Co",
        -8.851935883605169
      ],
      [
        "FG",
        -8.85340505475924
      ],
      [
        "Wb",
        -8.854111543608084
      ],
      [
        "dB",
        -8.854299806146791
      ],
      [
        "yT",
        -8.85430321760149
      ],
      [
        "rv",
        -8.854460582975294
      ],
      [
        "fN",
        -8.855031299664466
      ],
      [
        "bA",
        -8.855162125502176
      ],
      [
        "FT",
        -8.855770458814169
      ],
      [
        "yb",
        -8.855776743472344
      ],
      [
        "Iv",
        -8.855859399219245
      ],
      [
        "Zg",
        -8.856857249920655
      ],
      [
        "df",
        -8.857052988710773
      ],
      [
        "Yq",
        -8.857058338632825
      ],
      [
        "yC",
        -8.857746198631052
      ],
      [
        "Mh",
        -8.858078695655845
      ],
      [
        "fU",
        -8.85821557244158
      ],
      [
        "rT",
        -8.85849223421293
      ],
      [
        "Xh",
        -8.858916298369042
      ],
      [
        "mA",
        -8.8590672734882
      ],
      [
        "al",
        -8.859903568870976
      ],
      [
        "rY",
        -8.861015554407373
      ],
      [
        "xI",
        -8.861527100134218
      ],
      [
        "FB",
        -8.861592966050216
      ],
      [
        "ap",
        -8.86186771435316
      ],
      [
        "wc",
        -8.862424807599519
      ],
      [
        "0e",
        -8.862629907069252
      ],
      [
        "FA",
        -8.862861171079654
      ],
      [
        "WT",
        -8.863314142447729
      ],
      [
        "wQ",
        -8.863833936636578
      ],
      [
        "rQ",
        -8.865614142618188
      ],
      [
        "BR",
        -8.865619485516875
      ],
      [
        "qv",
        -8.865634488598072
      ],
      [
        "db",
        -8.86623953375021
      ],
      [
        "RC",
        -8.86645398283217
      ],
      [
        "LC",
        -8.867180775223984
      ],
      [
        "CK",
        -8.867592414680015
      ],
      [
        "ZJ",
        -8.86800537682285
      ],
      [
        "Rv",
        -8.868173402689717
      ],
      [
        "ib",
        -8.868322327164606
      ],
      [
        "Rw",
        -8.869610242342375
      ],
      [
        "rh",
        -8.86968466870885
      ],
      [
        "dz",
        -8.870022086800489
      ],
      [
        "MD",
        -8.87016502824936
      ],
      [
        "FJ",
        -8.87029412030596
      ],
      [
        "rC",
        -8.870637376344622
      ],
      [
        "HA",
        -8.870789999100268
      ],
      [
        "xq",
        -8.870897529882512
      ],
      [
        "aG",
        -8.871536117080911
      ],
      [
        "xc",
        -8.87155070962227
      ],
      [
        "GU",
        -8.871581985018857
      ],
      [
        "Fg",
        -8.872007750281348
      ],
      [
        "aL",
        -8.872489654823026
      ],
      [
        "sJ",
        -8.873146182247252
      ],
      [
        "xe",
        -8.873605095592872
      ],
      [
        "Ho",
        -8.874343757157245
      ],
      [
        "pC",
        -8.87478205468617
      ],
      [
        "BU",
        -8.874918814212524
      ],
      [
        "Bw",
        -8.874992157878955
      ],
      [
        "iv",
        -8.87573897570499
      ],
      [
        "FI",
        -8.875745955709352
      ],
      [
        "FN",
        -8.87614241417189
      ],
      [
        "Bh",
        -8.87738104981629
      ],
      [
        "Hh",
        -8.878580793934333
      ],
      [
        "LG",
        -8.878690867771123
      ],
      [
        "0o",
        -8.878898449360282
      ],
      [
        "ph",
        -8.879109402620372
      ],
      [
        "JK",
        -8.879514482322667
      ],
      [
        "MQ",
        -8.880473162946082
      ],
      [
        "ZK",
        -8.88082710451054
      ],
      [
        "dv",
        -8.881442342692278
      ],
      [
        "Wu",
        -8.881866563521541
      ],
      [
        "yv",
        -8.882147161139873
      ],
      [
        "Bm",
        -8.882744985564091
      ],
      [
        "dc",
        -8.882858169252557
      ],
      [
        "fY",
        -8.883003395662612
      ],
      [
        "rV",
        -8.88346231747503
      ],
      [
        "aA",
        -8.883490262879748
      ],
      [
        "av",
        -8.884312774843341
      ],
      [
        "WU",
        -8.884589450441183
      ],
      [
        "rN",
        -8.884696312268169
      ],
      [
        "yA",
        -8.888814706371935
      ],
      [
        "FY",
        -8.890557220650905
      ],
      [
        "xU",
        -8.892443103400307
      ],
      [
        "0Y",
        -8.894821870797042
      ],
      [
        "NG",
        -8.89569050001227
      ],
      [
        "Yp",
        -8.897335530393985
      ],
      [
        "zQ",
        -8.902828906881133
      ],
      [
        "ZU",
        -8.905984870050888
      ],
      [
        "Fq",
        -8.907773060014927
      ],
      [
        "Fo",
        -8.908262154589
      ],
      [
        "HU",
        -8.911165033812033
      ],
      [
        "ZG",
        -8.913718079704775
      ],
      [
        "Zh",
        -8.921754471524263
      ],
      [
        "dg",
        -8.930887969902294
      ],
      [
        "0A",
        -8.933125902445308
      ],
      [
        "xY",
        -8.939522697525636
      ],
      [
        "do",
        -8.94008055565484
      ]
    ],
    "byte_fallback": false
  }
}