{
  "[PAD]": 0,
  "[UNK]": 1,
  "[CLS]": 2,
  "[SEP]": 3,
  "[MASK]": 4,
  "<!--]]>": 5,
  "</SCRIPT>": 6,
  "</script>": 7,
  "</style>": 8,
  "<87;L>": 9,
  "<@>": 10,
  "<END>": 11,
  "<ESC_EQ>": 12,
  "<ID_LONG>": 13,
  "<NULL>": 14,
  "<NUM_LONG>": 15,
  "<OeNo>": 16,
  "<REC>": 17,
  "<SCRIPT>": 18,
  "<SEP>": 19,
  "<a>": 20,
  "<script>": 21,
  "<tn4iid>": 22,
  "=": 23,
  "e": 24,
  "t": 25,
  "o": 26,
  "E": 27,
  "a": 28,
  "n": 29,
  "c": 30,
  "C": 31,
  "<": 32,
  ">": 33,
  "i": 34,
  "l": 35,
  "_": 36,
  "S": 37,
  "-": 38,
  "r": 39,
  "/": 40,
  "L": 41,
  "p": 42,
  "Q": 43,
  "ES": 44,
  "s": 45,
  ".": 46,
  "<E": 47,
  "<ES": 48,
  "<ESC": 49,
  "<ESC_": 50,
  "<ESC_E": 51,
  "<ESC_EQ": 52,
  "ESC": 53,
  "ESC_": 54,
  "ESC_E": 55,
  "ESC_EQ": 56,
  "ESC_EQ>": 57,
  "SC": 58,
  "SC_": 59,
  "SC_E": 60,
  "SC_EQ": 61,
  "SC_EQ>": 62,
  "C_": 63,
  "C_E": 64,
  "C_EQ": 65,
  "C_EQ>": 66,
  "_E": 67,
  "_EQ": 68,
  "_EQ>": 69,
  "EQ": 70,
  "EQ>": 71,
  "Q>": 72,
  "h": 73,
  "m": 74,
  "g": 75,
  "N": 76,
  "0": 77,
  "on": 78,
  "u": 79,
  ";": 80,
  "T": 81,
  "G": 82,
  "x": 83,
  "nt": 84,
  "d": 85,
  "O": 86,
  ",": 87,
  "5": 88,
  "en": 89,
  "U": 90,
  "8": 91,
  "I": 92,
  "D": 93,
  "q": 94,
  "H": 95,
  "t-": 96,
  "1": 97,
  "A": 98,
  "ON": 99,
  "te": 100,
  "er": 101,
  "<ESC_EQ>0": 102,
  "ESC_EQ>0": 103,
  "SC_EQ>0": 104,
  "C_EQ>0": 105,
  "_EQ>0": 106,
  "EQ>0": 107,
  "Q>0": 108,
  ">0": 109,
  "0.": 110,
  "ti": 111,
  "ca": 112,
  ";q": 113,
  ";q<": 114,
  ";q<E": 115,
  ";q<ES": 116,
  ";q<ESC": 117,
  ";q<ESC_": 118,
  ";q<ESC_E": 119,
  ";q<ESC_EQ": 120,
  ";q<ESC_EQ>": 121,
  ";q<ESC_EQ>0": 122,
  ";q<ESC_EQ>0.": 123,
  "q<": 124,
  "q<E": 125,
  "q<ES": 126,
  "q<ESC": 127,
  "q<ESC_": 128,
  "q<ESC_E": 129,
  "q<ESC_EQ": 130,
  "q<ESC_EQ>": 131,
  "q<ESC_EQ>0": 132,
  "q<ESC_EQ>0.": 133,
  "<ESC_EQ>0.": 134,
  "ESC_EQ>0.": 135,
  "SC_EQ>0.": 136,
  "C_EQ>0.": 137,
  "_EQ>0.": 138,
  "EQ>0.": 139,
  "Q>0.": 140,
  ">0.": 141,
  "Co": 142,
  "2": 143,
  "os": 144,
  "+": 145,
  "ID": 146,
  "_L": 147,
  "_LO": 148,
  "_LON": 149,
  "_LONG": 150,
  "_LONG>": 151,
  "LO": 152,
  "LON": 153,
  "LONG": 154,
  "LONG>": 155,
  "ONG": 156,
  "ONG>": 157,
  "NG": 158,
  "NG>": 159,
  "G>": 160,
  "k": 161,
  "&": 162,
  "M": 163,
  "P": 164,
  "at": 165,
  "<N": 166,
  "<NU": 167,
  "NU": 168,
  "st": 169,
  ".5": 170,
  "3": 171,
  "ml": 172,
  "%": 173,
  "ent": 174,
  "<I": 175,
  "<ID": 176,
  "<ID_": 177,
  "<ID_L": 178,
  "<ID_LO": 179,
  "<ID_LON": 180,
  "<ID_LONG": 181,
  "ID_": 182,
  "ID_L": 183,
  "ID_LO": 184,
  "ID_LON": 185,
  "ID_LONG": 186,
  "ID_LONG>": 187,
  "D_": 188,
  "D_L": 189,
  "D_LO": 190,
  "D_LON": 191,
  "D_LONG": 192,
  "D_LONG>": 193,
  "ep": 194,
  "ce": 195,
  "cc": 196,
  "io": 197,
  "se": 198,
  "li": 199,
  "pt": 200,
  "ag": 201,
  "Con": 202,
  "ont": 203,
  "Ac": 204,
  "Acc": 205,
  "Acce": 206,
  "Accep": 207,
  "Accept": 208,
  "cce": 209,
  "ccep": 210,
  "ccept": 211,
  "cep": 212,
  "cept": 213,
  "ept": 214,
  "9": 215,
  "ge": 216,
  "*": 217,
  "ac": 218,
  "<NUL": 219,
  "<NULL": 220,
  "NUL": 221,
  "NULL": 222,
  "NULL>": 223,
  "UL": 224,
  "ULL": 225,
  "ULL>": 226,
  "LL": 227,
  "LL>": 228,
  "L>": 229,
  "y": 230,
  "ion": 231,
  "ng": 232,
  "ch": 233,
  "b": 234,
  "-c": 235,
  "ost": 236,
  "he": 237,
  "tio": 238,
  "w": 239,
  "tion": 240,
  "f": 241,
  "ach": 242,
  "><": 243,
  "co": 244,
  "ro": 245,
  "ache": 246,
  "che": 247,
  "in": 248,
  "ma": 249,
  "et": 250,
  "ati": 251,
  "ex": 252,
  "pl": 253,
  "ic": 254,
  "ec": 255,
  "t/": 256,
  "/x": 257,
  "ar": 258,
  "xt": 259,
  "tex": 260,
  "text": 261,
  "ext": 262,
  "text/": 263,
  "ext/": 264,
  "xt/": 265,
  "0.5": 266,
  "th": 267,
  "lic": 268,
  ";q<ESC_EQ>0.5": 269,
  "q<ESC_EQ>0.5": 270,
  "<ESC_EQ>0.5": 271,
  "ESC_EQ>0.5": 272,
  "SC_EQ>0.5": 273,
  "C_EQ>0.5": 274,
  "_EQ>0.5": 275,
  "EQ>0.5": 276,
  "Q>0.5": 277,
  ">0.5": 278,
  "ten": 279,
  "tent": 280,
  "%2": 281,
  "xm": 282,
  "xml": 283,
  "xml,": 284,
  "ml,": 285,
  "l,": 286,
  "Ho": 287,
  "onte": 288,
  "nte": 289,
  "Hos": 290,
  "Host": 291,
  "Accept-": 292,
  "ccept-": 293,
  "cept-": 294,
  "ept-": 295,
  "pt-": 296,
  "t-L": 297,
  "-L": 298,
  "Cont": 299,
  "Conte": 300,
  "Conten": 301,
  "Content": 302,
  "Content-": 303,
  "onten": 304,
  "ontent": 305,
  "ontent-": 306,
  "nten": 307,
  "ntent": 308,
  "ntent-": 309,
  "tent-": 310,
  "ent-": 311,
  "nt-": 312,
  "T-": 313,
  "7": 314,
  "ie": 315,
  "age": 316,
  "/p": 317,
  "no": 318,
  "lo": 319,
  "ap": 320,
  "GE": 321,
  "GET": 322,
  "ET": 323,
  "o-": 324,
  "ue": 325,
  "4": 326,
  "ho": 327,
  "tr": 328,
  "*;": 329,
  "*;q": 330,
  "*;q<": 331,
  "*;q<E": 332,
  "*;q<ES": 333,
  "*;q<ESC": 334,
  "*;q<ESC_": 335,
  "*;q<ESC_E": 336,
  "*;q<ESC_EQ": 337,
  "*;q<ESC_EQ>": 338,
  "*;q<ESC_EQ>0": 339,
  "*;q<ESC_EQ>0.": 340,
  "HT": 341,
  "<ESC_EQ><": 342,
  "ESC_EQ><": 343,
  "SC_EQ><": 344,
  "C_EQ><": 345,
  "_EQ><": 346,
  "EQ><": 347,
  "Q><": 348,
  "uer": 349,
  "ica": 350,
  "no-": 351,
  "(": 352,
  ")": 353,
  "cat": 354,
  "la": 355,
  "pp": 356,
  "cati": 357,
  "catio": 358,
  "cation": 359,
  "atio": 360,
  "ation": 361,
  "n/": 362,
  "app": 363,
  "appl": 364,
  "appli": 365,
  "applic": 366,
  "applica": 367,
  "applicat": 368,
  "applicati": 369,
  "applicatio": 370,
  "application": 371,
  "application/": 372,
  "ppl": 373,
  "ppli": 374,
  "pplic": 375,
  "pplica": 376,
  "pplicat": 377,
  "pplicati": 378,
  "pplicatio": 379,
  "pplication": 380,
  "pplication/": 381,
  "pli": 382,
  "plic": 383,
  "plica": 384,
  "plicat": 385,
  "plicati": 386,
  "plicatio": 387,
  "plication": 388,
  "plication/": 389,
  "lica": 390,
  "licat": 391,
  "licati": 392,
  "licatio": 393,
  "lication": 394,
  "lication/": 395,
  "icat": 396,
  "icati": 397,
  "icatio": 398,
  "ication": 399,
  "ication/": 400,
  "cation/": 401,
  "ation/": 402,
  "tion/": 403,
  "ion/": 404,
  "on/": 405,
  "ht": 406,
  "no-c": 407,
  "no-ca": 408,
  "no-cac": 409,
  "no-cach": 410,
  "no-cache": 411,
  "o-c": 412,
  "o-ca": 413,
  "o-cac": 414,
  "o-cach": 415,
  "o-cache": 416,
  "-ca": 417,
  "-cac": 418,
  "-cach": 419,
  "-cache": 420,
  "cac": 421,
  "cach": 422,
  "cache": 423,
  "ra": 424,
  "K": 425,
  "od": 426,
  "R": 427,
  "application/x": 428,
  "pplication/x": 429,
  "plication/x": 430,
  "lication/x": 431,
  "ication/x": 432,
  "cation/x": 433,
  "ation/x": 434,
  "tion/x": 435,
  "ion/x": 436,
  "on/x": 437,
  "n/x": 438,
  "80": 439,
  "tm": 440,
  "ut": 441,
  "-8": 442,
  ".8": 443,
  "3.": 444,
  "ta": 445,
  "8,": 446,
  "pe": 447,
  "htm": 448,
  "html": 449,
  "tml": 450,
  "5.": 451,
  "tf": 452,
  "or": 453,
  "de": 454,
  "ne": 455,
  "/xm": 456,
  "/xml": 457,
  "/xml,": 458,
  "/xml,a": 459,
  "/xml,ap": 460,
  "/xml,app": 461,
  "/xml,appl": 462,
  "/xml,appli": 463,
  "/xml,applic": 464,
  "/xml,applica": 465,
  "/xml,applicat": 466,
  "/xml,applicati": 467,
  "/xml,applicatio": 468,
  "/xml,application": 469,
  "xml,a": 470,
  "xml,ap": 471,
  "xml,app": 472,
  "xml,appl": 473,
  "xml,appli": 474,
  "xml,applic": 475,
  "xml,applica": 476,
  "xml,applicat": 477,
  "xml,applicati": 478,
  "xml,applicatio": 479,
  "xml,application": 480,
  "xml,application/": 481,
  "ml,a": 482,
  "ml,ap": 483,
  "ml,app": 484,
  "ml,appl": 485,
  "ml,appli": 486,
  "ml,applic": 487,
  "ml,applica": 488,
  "ml,applicat": 489,
  "ml,applicati": 490,
  "ml,applicatio": 491,
  "ml,application": 492,
  "ml,application/": 493,
  "ml,application/x": 494,
  "l,a": 495,
  "l,ap": 496,
  "l,app": 497,
  "l,appl": 498,
  "l,appli": 499,
  "l,applic": 500,
  "l,applica": 501,
  "l,applicat": 502,
  "l,applicati": 503,
  "l,applicatio": 504,
  "l,application": 505,
  "l,application/": 506,
  "l,application/x": 507,
  ",a": 508,
  ",ap": 509,
  ",app": 510,
  ",appl": 511,
  ",appli": 512,
  ",applic": 513,
  ",applica": 514,
  ",applicat": 515,
  ",applicati": 516,
  ",applicatio": 517,
  ",application": 518,
  ",application/": 519,
  ",application/x": 520,
  ",t": 521,
  ",te": 522,
  ",tex": 523,
  ",text": 524,
  ",text/": 525,
  "*;q<ESC_EQ>0.5": 526,
  "utf": 527,
  "utf-": 528,
  "utf-8": 529,
  "tf-": 530,
  "tf-8": 531,
  "f-": 532,
  "f-8": 533,
  "z": 534,
  "le": 535,
  "/3": 536,
  "/3.": 537,
  "/3.5": 538,
  "3.5": 539,
  "v": 540,
  "6": 541,
  "an": 542,
  "ad": 543,
  "bl": 544,
  "tro": 545,
  "OS": 546,
  "++": 547,
  "ntr": 548,
  "PO": 549,
  "ea": 550,
  "oo": 551,
  "il": 552,
  ".0": 553,
  "POS": 554,
  "POST": 555,
  "OST": 556,
  "ST": 557,
  "ct": 558,
  "<ESC_EQ><I": 559,
  "<ESC_EQ><ID": 560,
  "<ESC_EQ><ID_": 561,
  "<ESC_EQ><ID_L": 562,
  "<ESC_EQ><ID_LO": 563,
  "<ESC_EQ><ID_LON": 564,
  "<ESC_EQ><ID_LONG": 565,
  "ESC_EQ><I": 566,
  "ESC_EQ><ID": 567,
  "ESC_EQ><ID_": 568,
  "ESC_EQ><ID_L": 569,
  "ESC_EQ><ID_LO": 570,
  "ESC_EQ><ID_LON": 571,
  "ESC_EQ><ID_LONG": 572,
  "ESC_EQ><ID_LONG>": 573,
  "SC_EQ><I": 574,
  "SC_EQ><ID": 575,
  "SC_EQ><ID_": 576,
  "SC_EQ><ID_L": 577,
  "SC_EQ><ID_LO": 578,
  "SC_EQ><ID_LON": 579,
  "SC_EQ><ID_LONG": 580,
  "SC_EQ><ID_LONG>": 581,
  "C_EQ><I": 582,
  "C_EQ><ID": 583,
  "C_EQ><ID_": 584,
  "C_EQ><ID_L": 585,
  "C_EQ><ID_LO": 586,
  "C_EQ><ID_LON": 587,
  "C_EQ><ID_LONG": 588,
  "C_EQ><ID_LONG>": 589,
  "_EQ><I": 590,
  "_EQ><ID": 591,
  "_EQ><ID_": 592,
  "_EQ><ID_L": 593,
  "_EQ><ID_LO": 594,
  "_EQ><ID_LON": 595,
  "_EQ><ID_LONG": 596,
  "_EQ><ID_LONG>": 597,
  "EQ><I": 598,
  "EQ><ID": 599,
  "EQ><ID_": 600,
  "EQ><ID_L": 601,
  "EQ><ID_LO": 602,
  "EQ><ID_LON": 603,
  "EQ><ID_LONG": 604,
  "EQ><ID_LONG>": 605,
  "Q><I": 606,
  "Q><ID": 607,
  "Q><ID_": 608,
  "Q><ID_L": 609,
  "Q><ID_LO": 610,
  "Q><ID_LON": 611,
  "Q><ID_LONG": 612,
  "Q><ID_LONG>": 613,
  "><I": 614,
  "><ID": 615,
  "><ID_": 616,
  "><ID_L": 617,
  "><ID_LO": 618,
  "><ID_LON": 619,
  "><ID_LONG": 620,
  "><ID_LONG>": 621,
  "al": 622,
  "ser": 623,
  "re": 624,
  "ect": 625,
  "ha": 626,
  "gu": 627,
  "e-": 628,
  "ki": 629,
  "1.": 630,
  ".1": 631,
  "ai": 632,
  "/*": 633,
  "ol": 634,
  "Ag": 635,
  "gen": 636,
  "ll": 637,
  "pa": 638,
  "B": 639,
  "rs": 640,
  "ua": 641,
  "-co": 642,
  "ook": 643,
  "ooki": 644,
  "ookie": 645,
  "ok": 646,
  "oki": 647,
  "okie": 648,
  "kie": 649,
  "gt": 650,
  "yp": 651,
  "Da": 652,
  "UR": 653,
  "j": 654,
  "He": 655,
  "P/": 656,
  "/1": 657,
  "nn": 658,
  "nec": 659,
  "Ch": 660,
  "rse": 661,
  "set": 662,
  "ngu": 663,
  "gua": 664,
  "Ca": 665,
  "Pr": 666,
  "Us": 667,
  "Age": 668,
  "om": 669,
  "Le": 670,
  "ype": 671,
  "ata": 672,
  "Qu": 673,
  "Me": 674,
  "Met": 675,
  "Meth": 676,
  "Metho": 677,
  "Method": 678,
  "eth": 679,
  "etho": 680,
  "ethod": 681,
  "tho": 682,
  "thod": 683,
  "hod": 684,
  "URI": 685,
  "RI": 686,
  "Host-": 687,
  "Host-H": 688,
  "Host-He": 689,
  "Host-Hea": 690,
  "Host-Head": 691,
  "Host-Heade": 692,
  "Host-Header": 693,
  "ost-": 694,
  "ost-H": 695,
  "ost-He": 696,
  "ost-Hea": 697,
  "ost-Head": 698,
  "ost-Heade": 699,
  "ost-Header": 700,
  "st-": 701,
  "st-H": 702,
  "st-He": 703,
  "st-Hea": 704,
  "st-Head": 705,
  "st-Heade": 706,
  "st-Header": 707,
  "t-H": 708,
  "t-He": 709,
  "t-Hea": 710,
  "t-Head": 711,
  "t-Heade": 712,
  "t-Header": 713,
  "-H": 714,
  "-He": 715,
  "-Hea": 716,
  "-Head": 717,
  "-Heade": 718,
  "-Header": 719,
  "Hea": 720,
  "Head": 721,
  "Heade": 722,
  "Header": 723,
  "ead": 724,
  "eade": 725,
  "eader": 726,
  "ade": 727,
  "ader": 728,
  "der": 729,
  "HTT": 730,
  "HTTP": 731,
  "HTTP/": 732,
  "HTTP/1": 733,
  "HTTP/1.": 734,
  "TT": 735,
  "TTP": 736,
  "TTP/": 737,
  "TTP/1": 738,
  "TTP/1.": 739,
  "TP": 740,
  "TP/": 741,
  "TP/1": 742,
  "TP/1.": 743,
  "P/1": 744,
  "P/1.": 745,
  "/1.": 746,
  "Conn": 747,
  "Conne": 748,
  "Connec": 749,
  "Connect": 750,
  "Connecti": 751,
  "Connectio": 752,
  "Connection": 753,
  "onn": 754,
  "onne": 755,
  "onnec": 756,
  "onnect": 757,
  "onnecti": 758,
  "onnectio": 759,
  "onnection": 760,
  "nne": 761,
  "nnec": 762,
  "nnect": 763,
  "nnecti": 764,
  "nnectio": 765,
  "nnection": 766,
  "nect": 767,
  "necti": 768,
  "nectio": 769,
  "nection": 770,
  "ecti": 771,
  "ectio": 772,
  "ection": 773,
  "cti": 774,
  "ctio": 775,
  "ction": 776,
  "Accept-C": 777,
  "Accept-Ch": 778,
  "Accept-Cha": 779,
  "Accept-Char": 780,
  "Accept-Chars": 781,
  "Accept-Charse": 782,
  "Accept-Charset": 783,
  "ccept-C": 784,
  "ccept-Ch": 785,
  "ccept-Cha": 786,
  "ccept-Char": 787,
  "ccept-Chars": 788,
  "ccept-Charse": 789,
  "ccept-Charset": 790,
  "cept-C": 791,
  "cept-Ch": 792,
  "cept-Cha": 793,
  "cept-Char": 794,
  "cept-Chars": 795,
  "cept-Charse": 796,
  "cept-Charset": 797,
  "ept-C": 798,
  "ept-Ch": 799,
  "ept-Cha": 800,
  "ept-Char": 801,
  "ept-Chars": 802,
  "ept-Charse": 803,
  "ept-Charset": 804,
  "pt-C": 805,
  "pt-Ch": 806,
  "pt-Cha": 807,
  "pt-Char": 808,
  "pt-Chars": 809,
  "pt-Charse": 810,
  "pt-Charset": 811,
  "t-C": 812,
  "t-Ch": 813,
  "t-Cha": 814,
  "t-Char": 815,
  "t-Chars": 816,
  "t-Charse": 817,
  "t-Charset": 818,
  "-C": 819,
  "-Ch": 820,
  "-Cha": 821,
  "-Char": 822,
  "-Chars": 823,
  "-Charse": 824,
  "-Charset": 825,
  "Cha": 826,
  "Char": 827,
  "Chars": 828,
  "Charse": 829,
  "Charset": 830,
  "har": 831,
  "hars": 832,
  "harse": 833,
  "harset": 834,
  "ars": 835,
  "arse": 836,
  "arset": 837,
  "rset": 838,
  "Accept-L": 839,
  "Accept-La": 840,
  "Accept-Lan": 841,
  "Accept-Lang": 842,
  "Accept-Langu": 843,
  "Accept-Langua": 844,
  "Accept-Languag": 845,
  "Accept-Language": 846,
  "ccept-L": 847,
  "ccept-La": 848,
  "ccept-Lan": 849,
  "ccept-Lang": 850,
  "ccept-Langu": 851,
  "ccept-Langua": 852,
  "ccept-Languag": 853,
  "ccept-Language": 854,
  "cept-L": 855,
  "cept-La": 856,
  "cept-Lan": 857,
  "cept-Lang": 858,
  "cept-Langu": 859,
  "cept-Langua": 860,
  "cept-Languag": 861,
  "cept-Language": 862,
  "ept-L": 863,
  "ept-La": 864,
  "ept-Lan": 865,
  "ept-Lang": 866,
  "ept-Langu": 867,
  "ept-Langua": 868,
  "ept-Languag": 869,
  "ept-Language": 870,
  "pt-L": 871,
  "pt-La": 872,
  "pt-Lan": 873,
  "pt-Lang": 874,
  "pt-Langu": 875,
  "pt-Langua": 876,
  "pt-Languag": 877,
  "pt-Language": 878,
  "t-La": 879,
  "t-Lan": 880,
  "t-Lang": 881,
  "t-Langu": 882,
  "t-Langua": 883,
  "t-Languag": 884,
  "t-Language": 885,
  "-La": 886,
  "-Lan": 887,
  "-Lang": 888,
  "-Langu": 889,
  "-Langua": 890,
  "-Languag": 891,
  "-Language": 892,
  "La": 893,
  "Lan": 894,
  "Lang": 895,
  "Langu": 896,
  "Langua": 897,
  "Languag": 898,
  "Language": 899,
  "ang": 900,
  "angu": 901,
  "angua": 902,
  "anguag": 903,
  "anguage": 904,
  "ngua": 905,
  "nguag": 906,
  "nguage": 907,
  "guag": 908,
  "guage": 909,
  "uag": 910,
  "uage": 911,
  "Cac": 912,
  "Cach": 913,
  "Cache": 914,
  "Cache-": 915,
  "Cache-c": 916,
  "Cache-co": 917,
  "Cache-con": 918,
  "Cache-cont": 919,
  "Cache-contr": 920,
  "Cache-contro": 921,
  "Cache-control": 922,
  "ache-": 923,
  "ache-c": 924,
  "ache-co": 925,
  "ache-con": 926,
  "ache-cont": 927,
  "ache-contr": 928,
  "ache-contro": 929,
  "ache-control": 930,
  "che-": 931,
  "che-c": 932,
  "che-co": 933,
  "che-con": 934,
  "che-cont": 935,
  "che-contr": 936,
  "che-contro": 937,
  "che-control": 938,
  "he-": 939,
  "he-c": 940,
  "he-co": 941,
  "he-con": 942,
  "he-cont": 943,
  "he-contr": 944,
  "he-contro": 945,
  "he-control": 946,
  "e-c": 947,
  "e-co": 948,
  "e-con": 949,
  "e-cont": 950,
  "e-contr": 951,
  "e-contro": 952,
  "e-control": 953,
  "-con": 954,
  "-cont": 955,
  "-contr": 956,
  "-contro": 957,
  "-control": 958,
  "con": 959,
  "cont": 960,
  "contr": 961,
  "contro": 962,
  "control": 963,
  "ontr": 964,
  "ontro": 965,
  "ontrol": 966,
  "ntro": 967,
  "ntrol": 968,
  "trol": 969,
  "rol": 970,
  "Coo": 971,
  "Cook": 972,
  "Cooki": 973,
  "Cookie": 974,
  "Pra": 975,
  "Prag": 976,
  "Pragm": 977,
  "Pragma": 978,
  "rag": 979,
  "ragm": 980,
  "ragma": 981,
  "agm": 982,
  "agma": 983,
  "gm": 984,
  "gma": 985,
  "Use": 986,
  "User": 987,
  "User-": 988,
  "User-A": 989,
  "User-Ag": 990,
  "User-Age": 991,
  "User-Agen": 992,
  "User-Agent": 993,
  "ser-": 994,
  "ser-A": 995,
  "ser-Ag": 996,
  "ser-Age": 997,
  "ser-Agen": 998,
  "ser-Agent": 999,
  "er-": 1000,
  "er-A": 1001,
  "er-Ag": 1002,
  "er-Age": 1003,
  "er-Agen": 1004,
  "er-Agent": 1005,
  "r-": 1006,
  "r-A": 1007,
  "r-Ag": 1008,
  "r-Age": 1009,
  "r-Agen": 1010,
  "r-Agent": 1011,
  "-A": 1012,
  "-Ag": 1013,
  "-Age": 1014,
  "-Agen": 1015,
  "-Agent": 1016,
  "Agen": 1017,
  "Agent": 1018,
  "gent": 1019,
  "Content-L": 1020,
  "Content-Le": 1021,
  "Content-Len": 1022,
  "Content-Leng": 1023,
  "Content-Lengt": 1024,
  "Content-Length": 1025,
  "ontent-L": 1026,
  "ontent-Le": 1027,
  "ontent-Len": 1028,
  "ontent-Leng": 1029,
  "ontent-Lengt": 1030,
  "ontent-Length": 1031,
  "ntent-L": 1032,
  "ntent-Le": 1033,
  "ntent-Len": 1034,
  "ntent-Leng": 1035,
  "ntent-Lengt": 1036,
  "ntent-Length": 1037,
  "tent-L": 1038,
  "tent-Le": 1039,
  "tent-Len": 1040,
  "tent-Leng": 1041,
  "tent-Lengt": 1042,
  "tent-Length": 1043,
  "ent-L": 1044,
  "ent-Le": 1045,
  "ent-Len": 1046,
  "ent-Leng": 1047,
  "ent-Lengt": 1048,
  "ent-Length": 1049,
  "nt-L": 1050,
  "nt-Le": 1051,
  "nt-Len": 1052,
  "nt-Leng": 1053,
  "nt-Lengt": 1054,
  "nt-Length": 1055,
  "t-Le": 1056,
  "t-Len": 1057,
  "t-Leng": 1058,
  "t-Lengt": 1059,
  "t-Length": 1060,
  "-Le": 1061,
  "-Len": 1062,
  "-Leng": 1063,
  "-Lengt": 1064,
  "-Length": 1065,
  "Len": 1066,
  "Leng": 1067,
  "Lengt": 1068,
  "Length": 1069,
  "eng": 1070,
  "engt": 1071,
  "ength": 1072,
  "ngt": 1073,
  "ngth": 1074,
  "gth": 1075,
  "Content-T": 1076,
  "Content-Ty": 1077,
  "Content-Typ": 1078,
  "Content-Type": 1079,
  "ontent-T": 1080,
  "ontent-Ty": 1081,
  "ontent-Typ": 1082,
  "ontent-Type": 1083,
  "ntent-T": 1084,
  "ntent-Ty": 1085,
  "ntent-Typ": 1086,
  "ntent-Type": 1087,
  "tent-T": 1088,
  "tent-Ty": 1089,
  "tent-Typ": 1090,
  "tent-Type": 1091,
  "ent-T": 1092,
  "ent-Ty": 1093,
  "ent-Typ": 1094,
  "ent-Type": 1095,
  "nt-T": 1096,
  "nt-Ty": 1097,
  "nt-Typ": 1098,
  "nt-Type": 1099,
  "t-T": 1100,
  "t-Ty": 1101,
  "t-Typ": 1102,
  "t-Type": 1103,
  "-T": 1104,
  "-Ty": 1105,
  "-Typ": 1106,
  "-Type": 1107,
  "Ty": 1108,
  "Typ": 1109,
  "Type": 1110,
  "POST-": 1111,
  "POST-D": 1112,
  "POST-Da": 1113,
  "POST-Dat": 1114,
  "POST-Data": 1115,
  "OST-": 1116,
  "OST-D": 1117,
  "OST-Da": 1118,
  "OST-Dat": 1119,
  "OST-Data": 1120,
  "ST-": 1121,
  "ST-D": 1122,
  "ST-Da": 1123,
  "ST-Dat": 1124,
  "ST-Data": 1125,
  "T-D": 1126,
  "T-Da": 1127,
  "T-Dat": 1128,
  "T-Data": 1129,
  "-D": 1130,
  "-Da": 1131,
  "-Dat": 1132,
  "-Data": 1133,
  "Dat": 1134,
  "Data": 1135,
  "GET-": 1136,
  "GET-Q": 1137,
  "GET-Qu": 1138,
  "GET-Que": 1139,
  "GET-Quer": 1140,
  "GET-Query": 1141,
  "ET-": 1142,
  "ET-Q": 1143,
  "ET-Qu": 1144,
  "ET-Que": 1145,
  "ET-Quer": 1146,
  "ET-Query": 1147,
  "T-Q": 1148,
  "T-Qu": 1149,
  "T-Que": 1150,
  "T-Quer": 1151,
  "T-Query": 1152,
  "-Q": 1153,
  "-Qu": 1154,
  "-Que": 1155,
  "-Quer": 1156,
  "-Query": 1157,
  "Que": 1158,
  "Quer": 1159,
  "Query": 1160,
  "uery": 1161,
  "ery": 1162,
  "ry": 1163,
  "da": 1164,
  ":": 1165,
  "nd": 1166,
  "im": 1167,
  "mp": 1168,
  "F": 1169,
  "ww": 1170,
  "<ID_LONG><": 1171,
  "<ID_LONG><E": 1172,
  "<ID_LONG><ES": 1173,
  "<ID_LONG><ESC": 1174,
  "<ID_LONG><ESC_": 1175,
  "<ID_LONG><ESC_E": 1176,
  "<ID_LONG><ESC_EQ": 1177,
  "ID_LONG><": 1178,
  "ID_LONG><E": 1179,
  "ID_LONG><ES": 1180,
  "ID_LONG><ESC": 1181,
  "ID_LONG><ESC_": 1182,
  "ID_LONG><ESC_E": 1183,
  "ID_LONG><ESC_EQ": 1184,
  "ID_LONG><ESC_EQ>": 1185,
  "D_LONG><": 1186,
  "D_LONG><E": 1187,
  "D_LONG><ES": 1188,
  "D_LONG><ESC": 1189,
  "D_LONG><ESC_": 1190,
  "D_LONG><ESC_E": 1191,
  "D_LONG><ESC_EQ": 1192,
  "D_LONG><ESC_EQ>": 1193,
  "_LONG><": 1194,
  "_LONG><E": 1195,
  "_LONG><ES": 1196,
  "_LONG><ESC": 1197,
  "_LONG><ESC_": 1198,
  "_LONG><ESC_E": 1199,
  "_LONG><ESC_EQ": 1200,
  "_LONG><ESC_EQ>": 1201,
  "LONG><": 1202,
  "LONG><E": 1203,
  "LONG><ES": 1204,
  "LONG><ESC": 1205,
  "LONG><ESC_": 1206,
  "LONG><ESC_E": 1207,
  "LONG><ESC_EQ": 1208,
  "LONG><ESC_EQ>": 1209,
  "ONG><": 1210,
  "ONG><E": 1211,
  "ONG><ES": 1212,
  "ONG><ESC": 1213,
  "ONG><ESC_": 1214,
  "ONG><ESC_E": 1215,
  "ONG><ESC_EQ": 1216,
  "ONG><ESC_EQ>": 1217,
  "NG><": 1218,
  "NG><E": 1219,
  "NG><ES": 1220,
  "NG><ESC": 1221,
  "NG><ESC_": 1222,
  "NG><ESC_E": 1223,
  "NG><ESC_EQ": 1224,
  "NG><ESC_EQ>": 1225,
  "G><": 1226,
  "G><E": 1227,
  "G><ES": 1228,
  "G><ESC": 1229,
  "G><ESC_": 1230,
  "G><ESC_E": 1231,
  "G><ESC_EQ": 1232,
  "G><ESC_EQ>": 1233,
  "><E": 1234,
  "><ES": 1235,
  "><ESC": 1236,
  "><ESC_": 1237,
  "><ESC_E": 1238,
  "><ESC_EQ": 1239,
  "><ESC_EQ>": 1240,
  "/*;": 1241,
  "/*;q": 1242,
  "/*;q<": 1243,
  "/*;q<E": 1244,
  "/*;q<ES": 1245,
  "/*;q<ESC": 1246,
  "/*;q<ESC_": 1247,
  "/*;q<ESC_E": 1248,
  "/*;q<ESC_EQ": 1249,
  "/*;q<ESC_EQ>": 1250,
  "/*;q<ESC_EQ>0": 1251,
  "/*;q<ESC_EQ>0.": 1252,
  "J": 1253,
  "a/": 1254,
  "ke": 1255,
  ".9": 1256,
  "ima": 1257,
  "imag": 1258,
  "image": 1259,
  "mag": 1260,
  "mage": 1261,
  "ill": 1262,
  "1.1": 1263,
  ";q<ESC_EQ>0.9": 1264,
  "q<ESC_EQ>0.9": 1265,
  "<ESC_EQ>0.9": 1266,
  "ESC_EQ>0.9": 1267,
  "SC_EQ>0.9": 1268,
  "C_EQ>0.9": 1269,
  "_EQ>0.9": 1270,
  "EQ>0.9": 1271,
  "Q>0.9": 1272,
  ">0.9": 1273,
  "0.9": 1274,
  "Mo": 1275,
  "oz": 1276,
  "/t": 1277,
  "HTTP/1.1": 1278,
  "TTP/1.1": 1279,
  "TP/1.1": 1280,
  "P/1.1": 1281,
  "/1.1": 1282,
  "9,": 1283,
  "n;": 1284,
  "e/": 1285,
  "Moz": 1286,
  "Mozi": 1287,
  "Mozil": 1288,
  "Mozill": 1289,
  "Mozilla": 1290,
  "Mozilla/": 1291,
  "ozi": 1292,
  "ozil": 1293,
  "ozill": 1294,
  "ozilla": 1295,
  "ozilla/": 1296,
  "zi": 1297,
  "zil": 1298,
  "zill": 1299,
  "zilla": 1300,
  "zilla/": 1301,
  "illa": 1302,
  "illa/": 1303,
  "lla": 1304,
  "lla/": 1305,
  "la/": 1306,
  "e;": 1307,
  "ck": 1308,
  "/<": 1309,
  ":8": 1310,
  "image/": 1311,
  "mage/": 1312,
  "age/": 1313,
  "ge/": 1314,
  "com": 1315,
  ":80": 1316,
  "/h": 1317,
  "l;": 1318,
  ";q<ESC_EQ>0.9,": 1319,
  "q<ESC_EQ>0.9,": 1320,
  "<ESC_EQ>0.9,": 1321,
  "ESC_EQ>0.9,": 1322,
  "SC_EQ>0.9,": 1323,
  "C_EQ>0.9,": 1324,
  "_EQ>0.9,": 1325,
  "EQ>0.9,": 1326,
  "Q>0.9,": 1327,
  ">0.9,": 1328,
  "0.9,": 1329,
  ".9,": 1330,
  "n;q": 1331,
  ";q<ESC_EQ>0.8": 1332,
  "q<ESC_EQ>0.8": 1333,
  "<ESC_EQ>0.8": 1334,
  "ESC_EQ>0.8": 1335,
  "SC_EQ>0.8": 1336,
  "C_EQ>0.8": 1337,
  "_EQ>0.8": 1338,
  "EQ>0.8": 1339,
  "Q>0.8": 1340,
  ">0.8": 1341,
  "0.8": 1342,
  "*/": 1343,
  "*/*": 1344,
  "r/": 1345,
  "Ge": 1346,
  "eck": 1347,
  "oc": 1348,
  "los": 1349,
  "n;q<": 1350,
  "n;q<E": 1351,
  "n;q<ES": 1352,
  "n;q<ESC": 1353,
  "n;q<ESC_": 1354,
  "n;q<ESC_E": 1355,
  "n;q<ESC_EQ": 1356,
  "n;q<ESC_EQ>": 1357,
  "n;q<ESC_EQ>0": 1358,
  "n;q<ESC_EQ>0.": 1359,
  ";q<ESC_EQ>0.8,": 1360,
  "q<ESC_EQ>0.8,": 1361,
  "<ESC_EQ>0.8,": 1362,
  "ESC_EQ>0.8,": 1363,
  "SC_EQ>0.8,": 1364,
  "C_EQ>0.8,": 1365,
  "_EQ>0.8,": 1366,
  "EQ>0.8,": 1367,
  "Q>0.8,": 1368,
  ">0.8,": 1369,
  "0.8,": 1370,
  ".8,": 1371,
  "(c": 1372,
  "(co": 1373,
  "(com": 1374,
  "(comp": 1375,
  "(compa": 1376,
  "(compat": 1377,
  "(compati": 1378,
  "(compatib": 1379,
  "(compatibl": 1380,
  "(compatible": 1381,
  "(compatible;": 1382,
  "comp": 1383,
  "compa": 1384,
  "compat": 1385,
  "compati": 1386,
  "compatib": 1387,
  "compatibl": 1388,
  "compatible": 1389,
  "compatible;": 1390,
  "omp": 1391,
  "ompa": 1392,
  "ompat": 1393,
  "ompati": 1394,
  "ompatib": 1395,
  "ompatibl": 1396,
  "ompatible": 1397,
  "ompatible;": 1398,
  "mpa": 1399,
  "mpat": 1400,
  "mpati": 1401,
  "mpatib": 1402,
  "mpatibl": 1403,
  "mpatible": 1404,
  "mpatible;": 1405,
  "pat": 1406,
  "pati": 1407,
  "patib": 1408,
  "patibl": 1409,
  "patible": 1410,
  "patible;": 1411,
  "atib": 1412,
  "atibl": 1413,
  "atible": 1414,
  "atible;": 1415,
  "tib": 1416,
  "tibl": 1417,
  "tible": 1418,
  "tible;": 1419,
  "ib": 1420,
  "ibl": 1421,
  "ible": 1422,
  "ible;": 1423,
  "ble": 1424,
  "ble;": 1425,
  "le;": 1426,
  "ror": 1427,
  "Gec": 1428,
  "Geck": 1429,
  "Gecko": 1430,
  "ecko": 1431,
  "cko": 1432,
  "ko": 1433,
  "ci": 1434,
  "/<I": 1435,
  "/<ID": 1436,
  "/<ID_": 1437,
  "/<ID_L": 1438,
  "/<ID_LO": 1439,
  "/<ID_LON": 1440,
  "/<ID_LONG": 1441,
  "/<ID_LONG>": 1442,
  "o/": 1443,
  "gi": 1444,
  "lh": 1445,
  "08": 1446,
  "cl": 1447,
  "clo": 1448,
  "ose": 1449,
  "l+": 1450,
  "t/h": 1451,
  "8;": 1452,
  "/5": 1453,
  "nu": 1454,
  "ik": 1455,
  "ien": 1456,
  "a1": 1457,
  "loc": 1458,
  "loca": 1459,
  "oca": 1460,
  "t:": 1461,
  "t:8": 1462,
  "t:80": 1463,
  "808": 1464,
  "clos": 1465,
  "close": 1466,
  "lose": 1467,
  "text/h": 1468,
  "text/ht": 1469,
  "text/htm": 1470,
  "text/html": 1471,
  "text/html;": 1472,
  "text/html;q": 1473,
  "text/html;q<": 1474,
  "text/html;q<E": 1475,
  "text/html;q<ES": 1476,
  "text/html;q<ESC": 1477,
  "text/html;q<ESC_": 1478,
  "ext/h": 1479,
  "ext/ht": 1480,
  "ext/htm": 1481,
  "ext/html": 1482,
  "ext/html;": 1483,
  "ext/html;q": 1484,
  "ext/html;q<": 1485,
  "ext/html;q<E": 1486,
  "ext/html;q<ES": 1487,
  "ext/html;q<ESC": 1488,
  "ext/html;q<ESC_": 1489,
  "ext/html;q<ESC_E": 1490,
  "xt/h": 1491,
  "xt/ht": 1492,
  "xt/htm": 1493,
  "xt/html": 1494,
  "xt/html;": 1495,
  "xt/html;q": 1496,
  "xt/html;q<": 1497,
  "xt/html;q<E": 1498,
  "xt/html;q<ES": 1499,
  "xt/html;q<ESC": 1500,
  "xt/html;q<ESC_": 1501,
  "xt/html;q<ESC_E": 1502,
  "xt/html;q<ESC_EQ": 1503,
  "t/ht": 1504,
  "t/htm": 1505,
  "t/html": 1506,
  "t/html;": 1507,
  "t/html;q": 1508,
  "t/html;q<": 1509,
  "t/html;q<E": 1510,
  "t/html;q<ES": 1511,
  "t/html;q<ESC": 1512,
  "t/html;q<ESC_": 1513,
  "t/html;q<ESC_E": 1514,
  "t/html;q<ESC_EQ": 1515,
  "t/html;q<ESC_EQ>": 1516,
  "/ht": 1517,
  "/htm": 1518,
  "/html": 1519,
  "/html;": 1520,
  "/html;q": 1521,
  "/html;q<": 1522,
  "/html;q<E": 1523,
  "/html;q<ES": 1524,
  "/html;q<ESC": 1525,
  "/html;q<ESC_": 1526,
  "/html;q<ESC_E": 1527,
  "/html;q<ESC_EQ": 1528,
  "/html;q<ESC_EQ>": 1529,
  "/html;q<ESC_EQ>0": 1530,
  "html;": 1531,
  "html;q": 1532,
  "html;q<": 1533,
  "html;q<E": 1534,
  "html;q<ES": 1535,
  "html;q<ESC": 1536,
  "html;q<ESC_": 1537,
  "html;q<ESC_E": 1538,
  "html;q<ESC_EQ": 1539,
  "html;q<ESC_EQ>": 1540,
  "html;q<ESC_EQ>0": 1541,
  "html;q<ESC_EQ>0.": 1542,
  "tml;": 1543,
  "tml;q": 1544,
  "tml;q<": 1545,
  "tml;q<E": 1546,
  "tml;q<ES": 1547,
  "tml;q<ESC": 1548,
  "tml;q<ESC_": 1549,
  "tml;q<ESC_E": 1550,
  "tml;q<ESC_EQ": 1551,
  "tml;q<ESC_EQ>": 1552,
  "tml;q<ESC_EQ>0": 1553,
  "tml;q<ESC_EQ>0.": 1554,
  "tml;q<ESC_EQ>0.9": 1555,
  "ml;": 1556,
  "ml;q": 1557,
  "ml;q<": 1558,
  "ml;q<E": 1559,
  "ml;q<ES": 1560,
  "ml;q<ESC": 1561,
  "ml;q<ESC_": 1562,
  "ml;q<ESC_E": 1563,
  "ml;q<ESC_EQ": 1564,
  "ml;q<ESC_EQ>": 1565,
  "ml;q<ESC_EQ>0": 1566,
  "ml;q<ESC_EQ>0.": 1567,
  "ml;q<ESC_EQ>0.9": 1568,
  "l;q": 1569,
  "l;q<": 1570,
  "l;q<E": 1571,
  "l;q<ES": 1572,
  "l;q<ESC": 1573,
  "l;q<ESC_": 1574,
  "l;q<ESC_E": 1575,
  "l;q<ESC_EQ": 1576,
  "l;q<ESC_EQ>": 1577,
  "l;q<ESC_EQ>0": 1578,
  "l;q<ESC_EQ>0.": 1579,
  "l;q<ESC_EQ>0.9": 1580,
  "text/p": 1581,
  "text/pl": 1582,
  "text/pla": 1583,
  "text/plai": 1584,
  "text/plain": 1585,
  "text/plain;": 1586,
  "text/plain;q": 1587,
  "text/plain;q<": 1588,
  "text/plain;q<E": 1589,
  "text/plain;q<ES": 1590,
  "text/plain;q<ESC": 1591,
  "ext/p": 1592,
  "ext/pl": 1593,
  "ext/pla": 1594,
  "ext/plai": 1595,
  "ext/plain": 1596,
  "ext/plain;": 1597,
  "ext/plain;q": 1598,
  "ext/plain;q<": 1599,
  "ext/plain;q<E": 1600,
  "ext/plain;q<ES": 1601,
  "ext/plain;q<ESC": 1602,
  "ext/plain;q<ESC_": 1603,
  "xt/p": 1604,
  "xt/pl": 1605,
  "xt/pla": 1606,
  "xt/plai": 1607,
  "xt/plain": 1608,
  "xt/plain;": 1609,
  "xt/plain;q": 1610,
  "xt/plain;q<": 1611,
  "xt/plain;q<E": 1612,
  "xt/plain;q<ES": 1613,
  "xt/plain;q<ESC": 1614,
  "xt/plain;q<ESC_": 1615,
  "xt/plain;q<ESC_E": 1616,
  "t/p": 1617,
  "t/pl": 1618,
  "t/pla": 1619,
  "t/plai": 1620,
  "t/plain": 1621,
  "t/plain;": 1622,
  "t/plain;q": 1623,
  "t/plain;q<": 1624,
  "t/plain;q<E": 1625,
  "t/plain;q<ES": 1626,
  "t/plain;q<ESC": 1627,
  "t/plain;q<ESC_": 1628,
  "t/plain;q<ESC_E": 1629,
  "t/plain;q<ESC_EQ": 1630,
  "/pl": 1631,
  "/pla": 1632,
  "/plai": 1633,
  "/plain": 1634,
  "/plain;": 1635,
  "/plain;q": 1636,
  "/plain;q<": 1637,
  "/plain;q<E": 1638,
  "/plain;q<ES": 1639,
  "/plain;q<ESC": 1640,
  "/plain;q<ESC_": 1641,
  "/plain;q<ESC_E": 1642,
  "/plain;q<ESC_EQ": 1643,
  "/plain;q<ESC_EQ>": 1644,
  "pla": 1645,
  "plai": 1646,
  "plain": 1647,
  "plain;": 1648,
  "plain;q": 1649,
  "plain;q<": 1650,
  "plain;q<E": 1651,
  "plain;q<ES": 1652,
  "plain;q<ESC": 1653,
  "plain;q<ESC_": 1654,
  "plain;q<ESC_E": 1655,
  "plain;q<ESC_EQ": 1656,
  "plain;q<ESC_EQ>": 1657,
  "plain;q<ESC_EQ>0": 1658,
  "lai": 1659,
  "lain": 1660,
  "lain;": 1661,
  "lain;q": 1662,
  "lain;q<": 1663,
  "lain;q<E": 1664,
  "lain;q<ES": 1665,
  "lain;q<ESC": 1666,
  "lain;q<ESC_": 1667,
  "lain;q<ESC_E": 1668,
  "lain;q<ESC_EQ": 1669,
  "lain;q<ESC_EQ>": 1670,
  "lain;q<ESC_EQ>0": 1671,
  "lain;q<ESC_EQ>0.": 1672,
  "ain": 1673,
  "ain;": 1674,
  "ain;q": 1675,
  "ain;q<": 1676,
  "ain;q<E": 1677,
  "ain;q<ES": 1678,
  "ain;q<ESC": 1679,
  "ain;q<ESC_": 1680,
  "ain;q<ESC_E": 1681,
  "ain;q<ESC_EQ": 1682,
  "ain;q<ESC_EQ>": 1683,
  "ain;q<ESC_EQ>0": 1684,
  "ain;q<ESC_EQ>0.": 1685,
  "in;": 1686,
  "in;q": 1687,
  "in;q<": 1688,
  "in;q<E": 1689,
  "in;q<ES": 1690,
  "in;q<ESC": 1691,
  "in;q<ESC_": 1692,
  "in;q<ESC_E": 1693,
  "in;q<ESC_EQ": 1694,
  "in;q<ESC_EQ>": 1695,
  "in;q<ESC_EQ>0": 1696,
  "in;q<ESC_EQ>0.": 1697,
  "*/*;": 1698,
  "*/*;q": 1699,
  "*/*;q<": 1700,
  "*/*;q<E": 1701,
  "*/*;q<ES": 1702,
  "*/*;q<ESC": 1703,
  "*/*;q<ESC_": 1704,
  "*/*;q<ESC_E": 1705,
  "*/*;q<ESC_EQ": 1706,
  "*/*;q<ESC_EQ>": 1707,
  "*/*;q<ESC_EQ>0": 1708,
  "*/*;q<ESC_EQ>0.": 1709,
  ";q<ESC_EQ>0.5,": 1710,
  "q<ESC_EQ>0.5,": 1711,
  "<ESC_EQ>0.5,": 1712,
  "ESC_EQ>0.5,": 1713,
  "SC_EQ>0.5,": 1714,
  "C_EQ>0.5,": 1715,
  "_EQ>0.5,": 1716,
  "EQ>0.5,": 1717,
  "Q>0.5,": 1718,
  ">0.5,": 1719,
  "0.5,": 1720,
  ".5,": 1721,
  "5,": 1722,
  "SE": 1723,
  "SS": 1724,
  "SI": 1725,
  "Mozilla/5": 1726,
  "Mozilla/5.": 1727,
  "Mozilla/5.0": 1728,
  "ozilla/5": 1729,
  "ozilla/5.": 1730,
  "ozilla/5.0": 1731,
  "zilla/5": 1732,
  "zilla/5.": 1733,
  "zilla/5.0": 1734,
  "illa/5": 1735,
  "illa/5.": 1736,
  "illa/5.0": 1737,
  "lla/5": 1738,
  "lla/5.": 1739,
  "lla/5.0": 1740,
  "la/5": 1741,
  "la/5.": 1742,
  "la/5.0": 1743,
  "a/5": 1744,
  "a/5.": 1745,
  "a/5.0": 1746,
  "/5.": 1747,
  "/5.0": 1748,
  "5.0": 1749,
  "ero": 1750,
  "L/": 1751,
  "ike": 1752,
  ">/": 1753,
  "/ti": 1754,
  "/tie": 1755,
  "/tien": 1756,
  "/tiend": 1757,
  "/tienda": 1758,
  "/tienda1": 1759,
  "/tienda1/": 1760,
  "tie": 1761,
  "tien": 1762,
  "tiend": 1763,
  "tienda": 1764,
  "tienda1": 1765,
  "tienda1/": 1766,
  "iend": 1767,
  "ienda": 1768,
  "ienda1": 1769,
  "ienda1/": 1770,
  "end": 1771,
  "enda": 1772,
  "enda1": 1773,
  "enda1/": 1774,
  "nda": 1775,
  "nda1": 1776,
  "nda1/": 1777,
  "da1": 1778,
  "da1/": 1779,
  "a1/": 1780,
  "1/": 1781,
  "local": 1782,
  "localh": 1783,
  "localho": 1784,
  "localhos": 1785,
  "localhost": 1786,
  "localhost:": 1787,
  "localhost:8": 1788,
  "localhost:80": 1789,
  "localhost:808": 1790,
  "localhost:8080": 1791,
  "ocal": 1792,
  "ocalh": 1793,
  "ocalho": 1794,
  "ocalhos": 1795,
  "ocalhost": 1796,
  "ocalhost:": 1797,
  "ocalhost:8": 1798,
  "ocalhost:80": 1799,
  "ocalhost:808": 1800,
  "ocalhost:8080": 1801,
  "cal": 1802,
  "calh": 1803,
  "calho": 1804,
  "calhos": 1805,
  "calhost": 1806,
  "calhost:": 1807,
  "calhost:8": 1808,
  "calhost:80": 1809,
  "calhost:808": 1810,
  "calhost:8080": 1811,
  "alh": 1812,
  "alho": 1813,
  "alhos": 1814,
  "alhost": 1815,
  "alhost:": 1816,
  "alhost:8": 1817,
  "alhost:80": 1818,
  "alhost:808": 1819,
  "alhost:8080": 1820,
  "lho": 1821,
  "lhos": 1822,
  "lhost": 1823,
  "lhost:": 1824,
  "lhost:8": 1825,
  "lhost:80": 1826,
  "lhost:808": 1827,
  "lhost:8080": 1828,
  "hos": 1829,
  "host": 1830,
  "host:": 1831,
  "host:8": 1832,
  "host:80": 1833,
  "host:808": 1834,
  "host:8080": 1835,
  "ost:": 1836,
  "ost:8": 1837,
  "ost:80": 1838,
  "ost:808": 1839,
  "ost:8080": 1840,
  "st:": 1841,
  "st:8": 1842,
  "st:80": 1843,
  "st:808": 1844,
  "st:8080": 1845,
  "t:808": 1846,
  "t:8080": 1847,
  ":808": 1848,
  ":8080": 1849,
  "8080": 1850,
  "080": 1851,
  "text/x": 1852,
  "text/xm": 1853,
  "text/xml": 1854,
  "text/xml,": 1855,
  "text/xml,a": 1856,
  "text/xml,ap": 1857,
  "text/xml,app": 1858,
  "text/xml,appl": 1859,
  "text/xml,appli": 1860,
  "text/xml,applic": 1861,
  "text/xml,applica": 1862,
  "ext/x": 1863,
  "ext/xm": 1864,
  "ext/xml": 1865,
  "ext/xml,": 1866,
  "ext/xml,a": 1867,
  "ext/xml,ap": 1868,
  "ext/xml,app": 1869,
  "ext/xml,appl": 1870,
  "ext/xml,appli": 1871,
  "ext/xml,applic": 1872,
  "ext/xml,applica": 1873,
  "ext/xml,applicat": 1874,
  "xt/x": 1875,
  "xt/xm": 1876,
  "xt/xml": 1877,
  "xt/xml,": 1878,
  "xt/xml,a": 1879,
  "xt/xml,ap": 1880,
  "xt/xml,app": 1881,
  "xt/xml,appl": 1882,
  "xt/xml,appli": 1883,
  "xt/xml,applic": 1884,
  "xt/xml,applica": 1885,
  "xt/xml,applicat": 1886,
  "xt/xml,applicati": 1887,
  "t/x": 1888,
  "t/xm": 1889,
  "t/xml": 1890,
  "t/xml,": 1891,
  "t/xml,a": 1892,
  "t/xml,ap": 1893,
  "t/xml,app": 1894,
  "t/xml,appl": 1895,
  "t/xml,appli": 1896,
  "t/xml,applic": 1897,
  "t/xml,applica": 1898,
  "t/xml,applicat": 1899,
  "t/xml,applicati": 1900,
  "t/xml,applicatio": 1901,
  "l,application/xm": 1902,
  ",application/xm": 1903,
  ",application/xml": 1904,
  "application/xm": 1905,
  "application/xml": 1906,
  "application/xml,": 1907,
  "pplication/xm": 1908,
  "pplication/xml": 1909,
  "pplication/xml,": 1910,
  "pplication/xml,a": 1911,
  "plication/xm": 1912,
  "plication/xml": 1913,
  "plication/xml,": 1914,
  "plication/xml,a": 1915,
  "plication/xml,ap": 1916,
  "lication/xm": 1917,
  "lication/xml": 1918,
  "lication/xml,": 1919,
  "lication/xml,a": 1920,
  "lication/xml,ap": 1921,
  "lication/xml,app": 1922,
  "ication/xm": 1923,
  "ication/xml": 1924,
  "ication/xml,": 1925,
  "ication/xml,a": 1926,
  "ication/xml,ap": 1927,
  "ication/xml,app": 1928,
  "ication/xml,appl": 1929,
  "cation/xm": 1930,
  "cation/xml": 1931,
  "cation/xml,": 1932,
  "cation/xml,a": 1933,
  "cation/xml,ap": 1934,
  "cation/xml,app": 1935,
  "cation/xml,appl": 1936,
  "cation/xml,appli": 1937,
  "ation/xm": 1938,
  "ation/xml": 1939,
  "ation/xml,": 1940,
  "ation/xml,a": 1941,
  "ation/xml,ap": 1942,
  "ation/xml,app": 1943,
  "ation/xml,appl": 1944,
  "ation/xml,appli": 1945,
  "ation/xml,applic": 1946,
  "tion/xm": 1947,
  "tion/xml": 1948,
  "tion/xml,": 1949,
  "tion/xml,a": 1950,
  "tion/xml,ap": 1951,
  "tion/xml,app": 1952,
  "tion/xml,appl": 1953,
  "tion/xml,appli": 1954,
  "tion/xml,applic": 1955,
  "tion/xml,applica": 1956,
  "ion/xm": 1957,
  "ion/xml": 1958,
  "ion/xml,": 1959,
  "ion/xml,a": 1960,
  "ion/xml,ap": 1961,
  "ion/xml,app": 1962,
  "ion/xml,appl": 1963,
  "ion/xml,appli": 1964,
  "ion/xml,applic": 1965,
  "ion/xml,applica": 1966,
  "ion/xml,applicat": 1967,
  "on/xm": 1968,
  "on/xml": 1969,
  "on/xml,": 1970,
  "on/xml,a": 1971,
  "on/xml,ap": 1972,
  "on/xml,app": 1973,
  "on/xml,appl": 1974,
  "on/xml,appli": 1975,
  "on/xml,applic": 1976,
  "on/xml,applica": 1977,
  "on/xml,applicat": 1978,
  "on/xml,applicati": 1979,
  "n/xm": 1980,
  "n/xml": 1981,
  "n/xml,": 1982,
  "n/xml,a": 1983,
  "n/xml,ap": 1984,
  "n/xml,app": 1985,
  "n/xml,appl": 1986,
  "n/xml,appli": 1987,
  "n/xml,applic": 1988,
  "n/xml,applica": 1989,
  "n/xml,applicat": 1990,
  "n/xml,applicati": 1991,
  "n/xml,applicatio": 1992,
  "l,application/xh": 1993,
  ",application/xh": 1994,
  ",application/xht": 1995,
  "application/xh": 1996,
  "application/xht": 1997,
  "application/xhtm": 1998,
  "pplication/xh": 1999,
  "pplication/xht": 2000,
  "pplication/xhtm": 2001,
  "pplication/xhtml": 2002,
  "plication/xh": 2003,
  "plication/xht": 2004,
  "plication/xhtm": 2005,
  "plication/xhtml": 2006,
  "plication/xhtml+": 2007,
  "lication/xh": 2008,
  "lication/xht": 2009,
  "lication/xhtm": 2010,
  "lication/xhtml": 2011,
  "lication/xhtml+": 2012,
  "lication/xhtml+x": 2013,
  "ication/xh": 2014,
  "ication/xht": 2015,
  "ication/xhtm": 2016,
  "ication/xhtml": 2017,
  "ication/xhtml+": 2018,
  "ication/xhtml+x": 2019,
  "ication/xhtml+xm": 2020,
  "cation/xh": 2021,
  "cation/xht": 2022,
  "cation/xhtm": 2023,
  "cation/xhtml": 2024,
  "cation/xhtml+": 2025,
  "cation/xhtml+x": 2026,
  "cation/xhtml+xm": 2027,
  "cation/xhtml+xml": 2028,
  "ation/xh": 2029,
  "ation/xht": 2030,
  "ation/xhtm": 2031,
  "ation/xhtml": 2032,
  "ation/xhtml+": 2033,
  "ation/xhtml+x": 2034,
  "ation/xhtml+xm": 2035,
  "ation/xhtml+xml": 2036,
  "ation/xhtml+xml,": 2037,
  "tion/xh": 2038,
  "tion/xht": 2039,
  "tion/xhtm": 2040,
  "tion/xhtml": 2041,
  "tion/xhtml+": 2042,
  "tion/xhtml+x": 2043,
  "tion/xhtml+xm": 2044,
  "tion/xhtml+xml": 2045,
  "tion/xhtml+xml,": 2046,
  "tion/xhtml+xml,t": 2047
}