{
  "version": "1.0",
  "truncation": null,
  "padding": null,
  "added_tokens": [
    {
      "id": 0,
      "content": "[PAD]",
      "single_word": false,
      "lstrip": false,
      "rstrip": false,
      "normalized": false,
      "special": true
    },
    {
      "id": 1,
      "content": "[UNK]",
      "single_word": false,
      "lstrip": false,
      "rstrip": false,
      "normalized": false,
      "special": true
    },
    {
      "id": 2,
      "content": "[CLS]",
      "single_word": false,
      "lstrip": false,
      "rstrip": false,
      "normalized": false,
      "special": true
    },
    {
      "id": 3,
      "content": "[SEP]",
      "single_word": false,
      "lstrip": false,
      "rstrip": false,
      "normalized": false,
      "special": true
    },
    {
      "id": 4,
      "content": "[MASK]",
      "single_word": false,
      "lstrip": false,
      "rstrip": false,
      "normalized": false,
      "special": true
    }
  ],
  "normalizer": {
    "type": "NFKC"
  },
  "pre_tokenizer": {
    "type": "Whitespace"
  },
  "post_processor": null,
  "decoder": null,
  "model": {
    "type": "Unigram",
    "unk_id": null,
    "vocab": [
      [
        "[PAD]",
        0.0
      ],
      [
        "[UNK]",
        0.0
      ],
      [
        "[CLS]",
        0.0
      ],
      [
        "[SEP]",
        0.0
      ],
      [
        "[MASK]",
        0.0
      ],
      [
        ">",
        -3.508367793020657
      ],
      [
        "<",
        -3.508367793020657
      ],
      [
        "=",
        -3.5571581952861013
      ],
      [
        "SEP",
        -3.6086190728183514
      ],
      [
        "k",
        -3.872535761785409
      ],
      [
        "S",
        -3.8843054820685285
      ],
      [
        "1",
        -3.9019318328955173
      ],
      [
        "7",
        -3.93517047383771
      ],
      [
        "2",
        -3.938920511226083
      ],
      [
        "4",
        -3.9419137894370593
      ],
      [
        "E",
        -3.9514673633684954
      ],
      [
        "P",
        -3.955463053562191
      ],
      [
        "5",
        -4.012609564297287
      ],
      [
        "9",
        -4.046041589481115
      ],
      [
        "3",
        -4.057975276662535
      ],
      [
        "6",
        -4.179112595495363
      ],
      [
        "8",
        -4.246212812797696
      ],
      [
        "t",
        -4.254022994111654
      ],
      [
        "0",
        -4.370500745951389
      ],
      [
        "i",
        -4.375055318694814
      ],
      [
        "s",
        -4.604816803105651
      ],
      [
        "F",
        -4.649964604974896
      ],
      [
        "O",
        -4.709675556444445
      ],
      [
        "y",
        -4.725495839618526
      ],
      [
        "j",
        -4.729209794954011
      ],
      [
        "n",
        -4.78024189087871
      ],
      [
        "x",
        -4.903720662359749
      ],
      [
        "H",
        -5.072109508876194
      ],
      [
        "u",
        -5.157200650188827
      ],
      [
        "d",
        -5.192544990709184
      ],
      [
        "R",
        -5.192918248518989
      ],
      [
        "Z",
        -5.194666819817742
      ],
      [
        "r",
        -5.2260184920495565
      ],
      [
        "M",
        -5.25878485678691
      ],
      [
        "X",
        -5.315119004851947
      ],
      [
        "z",
        -5.317134698917071
      ],
      [
        "m",
        -5.33255110714213
      ],
      [
        "p",
        -5.3466700328198105
      ],
      [
        "l",
        -5.370805322413503
      ],
      [
        "V",
        -5.398055216915079
      ],
      [
        "f",
        -5.430190428589352
      ],
      [
        "K",
        -5.445787105435789
      ],
      [
        "L",
        -5.475743701652897
      ],
      [
        "a",
        -5.499716598777855
      ],
      [
        "c",
        -5.524966805651628
      ],
      [
        "W",
        -5.54720481480485
      ],
      [
        "h",
        -5.560017162820898
      ],
      [
        "e",
        -5.564303635624537
      ],
      [
        "I",
        -5.5674744433761845
      ],
      [
        "G",
        -5.57425016476544
      ],
      [
        "D",
        -5.579004728557271
      ],
      [
        "Q",
        -5.595426012592526
      ],
      [
        "g",
        -5.617119099175255
      ],
      [
        "B",
        -5.640137111053393
      ],
      [
        "J",
        -5.642067388158651
      ],
      [
        "T",
        -5.65383701448952
      ],
      [
        "A",
        -5.700119666635899
      ],
      [
        "U",
        -5.71627358301372
      ],
      [
        "b",
        -5.73061355776106
      ],
      [
        "w",
        -5.742222644234554
      ],
      [
        "Y",
        -5.744373985686726
      ],
      [
        "N",
        -5.746173090391647
      ],
      [
        "C",
        -5.757996015373294
      ],
      [
        "v",
        -5.807569058351625
      ],
      [
        "q",
        -5.859494616795409
      ],
      [
        "o",
        -5.86261115892051
      ],
      [
        "k1",
        -6.460574736137147
      ],
      [
        "k0",
        -6.492520159971308
      ],
      [
        "k6",
        -6.509665551147862
      ],
      [
        "k8",
        -6.511139143007615
      ],
      [
        "sig",
        -6.549217893288045
      ],
      [
        "REC",
        -6.5495739830858675
      ],
      [
        "END",
        -6.550371385869552
      ],
      [
        "nal",
        -6.551133756399148
      ],
      [
        "k9",
        -6.552927708591289
      ],
      [
        "_",
        -6.552985472165092
      ],
      [
        "k3",
        -6.5562066275919335
      ],
      [
        "k5",
        -6.566922460322154
      ],
      [
        "k18",
        -6.567663344814953
      ],
      [
        "k16",
        -6.5684494339142745
      ],
      [
        "k13",
        -6.570785323225017
      ],
      [
        "k19",
        -6.573540928153575
      ],
      [
        "k15",
        -6.573772132255318
      ],
      [
        "k12",
        -6.574948869971619
      ],
      [
        "k14",
        -6.575076293131399
      ],
      [
        "k11",
        -6.575372908525251
      ],
      [
        "k17",
        -6.576195354680037
      ],
      [
        "k7",
        -6.5844100960121335
      ],
      [
        "k2",
        -6.596373263276158
      ],
      [
        "k4",
        -6.606101419312795
      ],
      [
        "bZ",
        -8.504516011024851
      ],
      [
        "vF",
        -8.524734990232993
      ],
      [
        "hR",
        -8.535667683069764
      ],
      [
        "bF",
        -8.554357481663466
      ],
      [
        "UR",
        -8.555273077390925
      ],
      [
        "hd",
        -8.560008433606306
      ],
      [
        "o8",
        -8.560426184273872
      ],
      [
        "UF",
        -8.560854386510826
      ],
      [
        "h8",
        -8.567268114036882
      ],
      [
        "hQ",
        -8.571957704852903
      ],
      [
        "oa",
        -8.573961070998864
      ],
      [
        "Gx",
        -8.576277063262419
      ],
      [
        "Ut",
        -8.578800896776869
      ],
      [
        "Cx",
        -8.57890328183699
      ],
      [
        "Ui",
        -8.580193351958023
      ],
      [
        "AF",
        -8.581335412625211
      ],
      [
        "Di",
        -8.581670933083402
      ],
      [
        "Gd",
        -8.5820984610009
      ],
      [
        "zF",
        -8.58358186885581
      ],
      [
        "TF",
        -8.585699429829148
      ],
      [
        "mW",
        -8.586338817795355
      ],
      [
        "h0",
        -8.586375377622002
      ],
      [
        "bY",
        -8.587145567483034
      ],
      [
        "lF",
        -8.58749157613007
      ],
      [
        "hf",
        -8.5875960527799
      ],
      [
        "hN",
        -8.587778705057683
      ],
      [
        "bi",
        -8.588750987655079
      ],
      [
        "bd",
        -8.588792760380443
      ],
      [
        "va",
        -8.589277147908307
      ],
      [
        "hr",
        -8.589979463858658
      ],
      [
        "l0",
        -8.592575203364575
      ],
      [
        "W8",
        -8.592905359743604
      ],
      [
        "Td",
        -8.593303734087513
      ],
      [
        "vr",
        -8.594975868375716
      ],
      [
        "Gi",
        -8.594982702345185
      ],
      [
        "cy",
        -8.595639124834966
      ],
      [
        "L0",
        -8.595751155258501
      ],
      [
        "c8",
        -8.595805778861045
      ],
      [
        "I6",
        -8.596614177499385
      ],
      [
        "my",
        -8.597246512553724
      ],
      [
        "gJ",
        -8.598261908323739
      ],
      [
        "ld",
        -8.598966203107569
      ],
      [
        "LF",
        -8.601305416030563
      ],
      [
        "Ux",
        -8.601383753347555
      ],
      [
        "h6",
        -8.601850926156004
      ],
      [
        "T8",
        -8.601910207701208
      ],
      [
        "DF",
        -8.602327000648259
      ],
      [
        "qr",
        -8.602822418038297
      ],
      [
        "KF",
        -8.603162965191963
      ],
      [
        "vx",
        -8.60371657309408
      ],
      [
        "oc",
        -8.603909719029811
      ],
      [
        "gV",
        -8.605130698581956
      ],
      [
        "Uy",
        -8.6063572219586
      ],
      [
        "py",
        -8.606368591367648
      ],
      [
        "p8",
        -8.607419810228851
      ],
      [
        "vu",
        -8.607760831660979
      ],
      [
        "c0",
        -8.608404500406316
      ],
      [
        "Ny",
        -8.608560038648616
      ],
      [
        "gd",
        -8.609221184823856
      ],
      [
        "GF",
        -8.609399863750415
      ],
      [
        "hF",
        -8.609729945202254
      ],
      [
        "hH",
        -8.611342136219829
      ],
      [
        "vR",
        -8.611510571510141
      ],
      [
        "ha",
        -8.611914037627622
      ],
      [
        "gx",
        -8.612121777008939
      ],
      [
        "Aw",
        -8.61324286313544
      ],
      [
        "V8",
        -8.613476367137096
      ],
      [
        "J8",
        -8.613662012345328
      ],
      [
        "MF",
        -8.61411697975485
      ],
      [
        "Ky",
        -8.614179849536953
      ],
      [
        "C8",
        -8.615130098218465
      ],
      [
        "vf",
        -8.615184361739253
      ],
      [
        "IZ",
        -8.615185149125578
      ],
      [
        "qX",
        -8.61528588306917
      ],
      [
        "Qe",
        -8.616025699406784
      ],
      [
        "Bf",
        -8.616479299104077
      ],
      [
        "vZ",
        -8.616920007629712
      ],
      [
        "UZ",
        -8.616998398607933
      ],
      [
        "hi",
        -8.61736709032812
      ],
      [
        "CB",
        -8.617645266548589
      ],
      [
        "uF",
        -8.61777197110894
      ],
      [
        "CO",
        -8.617844992856707
      ],
      [
        "uf",
        -8.61792172631692
      ],
      [
        "A8",
        -8.618488452504248
      ],
      [
        "Um",
        -8.61856817996421
      ],
      [
        "fx",
        -8.618601227144293
      ],
      [
        "hX",
        -8.618875479107285
      ],
      [
        "pr",
        -8.619096115592232
      ],
      [
        "Hn",
        -8.61970492549722
      ],
      [
        "Ir",
        -8.619833618927373
      ],
      [
        "G6",
        -8.62006431445537
      ],
      [
        "lH",
        -8.620219211429289
      ],
      [
        "g6",
        -8.620755741330834
      ],
      [
        "UQ",
        -8.620942034674318
      ],
      [
        "BZ",
        -8.621627597425487
      ],
      [
        "Vr",
        -8.62197491472358
      ],
      [
        "vm",
        -8.622229833457332
      ],
      [
        "pB",
        -8.622305118367045
      ],
      [
        "pi",
        -8.622722446951173
      ],
      [
        "vi",
        -8.622773431819052
      ],
      [
        "GX",
        -8.62320838839232
      ],
      [
        "Ad",
        -8.623594444523214
      ],
      [
        "c6",
        -8.623973326127288
      ],
      [
        "hC",
        -8.624518050597583
      ],
      [
        "oZ",
        -8.624695545128395
      ],
      [
        "Q6",
        -8.625170666165662
      ],
      [
        "Ua",
        -8.625267593204468
      ],
      [
        "o6",
        -8.625476933874692
      ],
      [
        "nr",
        -8.625766009485082
      ],
      [
        "UM",
        -8.626137249479587
      ],
      [
        "zK",
        -8.62649462461616
      ],
      [
        "lx",
        -8.62668801567522
      ],
      [
        "QW",
        -8.627014310217374
      ],
      [
        "nZ",
        -8.627254859347069
      ],
      [
        "LZ",
        -8.627327642430064
      ],
      [
        "eT",
        -8.627447370235867
      ],
      [
        "G8",
        -8.62758305492433
      ],
      [
        "C0",
        -8.62759025059755
      ],
      [
        "Lu",
        -8.627674130445467
      ],
      [
        "Ug",
        -8.627699712052381
      ],
      [
        "ba",
        -8.627952003680573
      ],
      [
        "vo",
        -8.627996458730301
      ],
      [
        "Ki",
        -8.628236896028572
      ],
      [
        "U0",
        -8.62860665974825
      ],
      [
        "JH",
        -8.628753127110372
      ],
      [
        "LW",
        -8.62888121621349
      ],
      [
        "AA",
        -8.628886977098125
      ],
      [
        "YL",
        -8.629008983174806
      ],
      [
        "B8",
        -8.629390296833039
      ],
      [
        "qZ",
        -8.629600974095894
      ],
      [
        "N0",
        -8.629901454361047
      ],
      [
        "Cw",
        -8.630294376026932
      ],
      [
        "vw",
        -8.630361101239613
      ],
      [
        "Ga",
        -8.630561235089655
      ],
      [
        "ur",
        -8.631092222803542
      ],
      [
        "hp",
        -8.631094267554298
      ],
      [
        "DB",
        -8.631236215904352
      ],
      [
        "lz",
        -8.632303732962226
      ],
      [
        "q0",
        -8.632722809707039
      ],
      [
        "VF",
        -8.633930552133396
      ],
      [
        "IF",
        -8.634209052861674
      ],
      [
        "Jx",
        -8.634332187650356
      ],
      [
        "Up",
        -8.634509292919498
      ],
      [
        "AZ",
        -8.635059568682795
      ],
      [
        "hM",
        -8.636219033625562
      ],
      [
        "wH",
        -8.636781067823467
      ],
      [
        "qQ",
        -8.636839774274716
      ],
      [
        "Vc",
        -8.636920983792528
      ],
      [
        "fF",
        -8.63716398526223
      ],
      [
        "qu",
        -8.637984944445758
      ],
      [
        "ww",
        -8.638285886269234
      ],
      [
        "Y8",
        -8.638605080385501
      ],
      [
        "hB",
        -8.638796543122215
      ],
      [
        "Ca",
        -8.639587581482909
      ],
      [
        "N8",
        -8.639805436071974
      ],
      [
        "D8",
        -8.639913658860515
      ],
      [
        "qd",
        -8.64043977071707
      ],
      [
        "sB",
        -8.640709243871612
      ],
      [
        "TO",
        -8.641069193362153
      ],
      [
        "em",
        -8.64154294016036
      ],
      [
        "gi",
        -8.641948834031703
      ],
      [
        "hh",
        -8.642169114455054
      ],
      [
        "g8",
        -8.642590218558535
      ],
      [
        "Iy",
        -8.642662922247837
      ],
      [
        "o0",
        -8.643367295171966
      ],
      [
        "gz",
        -8.64350534006902
      ],
      [
        "qN",
        -8.644066689235514
      ],
      [
        "hL",
        -8.644082696969233
      ],
      [
        "QL",
        -8.644284296433046
      ],
      [
        "cd",
        -8.644332917065697
      ],
      [
        "vs",
        -8.64451668402668
      ],
      [
        "Np",
        -8.644553553427802
      ],
      [
        "ay",
        -8.644916630184422
      ],
      [
        "Ar",
        -8.64494492935835
      ],
      [
        "gR",
        -8.645593470989798
      ],
      [
        "aR",
        -8.645861572435827
      ],
      [
        "vy",
        -8.646106176342638
      ],
      [
        "Ya",
        -8.646278238634551
      ],
      [
        "gf",
        -8.646438297994994
      ],
      [
        "RF",
        -8.646587117726213
      ],
      [
        "Jr",
        -8.647582315508878
      ],
      [
        "T6",
        -8.64816016943075
      ],
      [
        "D0",
        -8.648193808842612
      ],
      [
        "CT",
        -8.648217232505598
      ],
      [
        "qF",
        -8.64832386537923
      ],
      [
        "Qx",
        -8.64842351786735
      ],
      [
        "mO",
        -8.648488636503547
      ],
      [
        "mB",
        -8.648631161167904
      ],
      [
        "Zr",
        -8.648634387020852
      ],
      [
        "Xd",
        -8.648643320223385
      ],
      [
        "ud",
        -8.649505683614104
      ],
      [
        "N6",
        -8.64957756228167
      ],
      [
        "Br",
        -8.649636540562316
      ],
      [
        "UT",
        -8.64981502759489
      ],
      [
        "U6",
        -8.650074462212853
      ],
      [
        "oy",
        -8.650354129042755
      ],
      [
        "vv",
        -8.650495480702038
      ],
      [
        "a8",
        -8.650532898004485
      ],
      [
        "qH",
        -8.650652814382374
      ],
      [
        "UW",
        -8.651029400204195
      ],
      [
        "AT",
        -8.651224365536809
      ],
      [
        "Qd",
        -8.651348427717362
      ],
      [
        "cr",
        -8.651426014948768
      ],
      [
        "Yd",
        -8.652140159743805
      ],
      [
        "di",
        -8.652640062737554
      ],
      [
        "vX",
        -8.65270319468262
      ],
      [
        "vd",
        -8.652867139424838
      ],
      [
        "hJ",
        -8.652903127615788
      ],
      [
        "vL",
        -8.652993110601994
      ],
      [
        "qB",
        -8.653010470200433
      ],
      [
        "Vm",
        -8.653282526027185
      ],
      [
        "Hf",
        -8.653351780693097
      ],
      [
        "gy",
        -8.653386993263409
      ],
      [
        "mH",
        -8.653648825707737
      ],
      [
        "Tr",
        -8.653730064833944
      ],
      [
        "w8",
        -8.65373026013119
      ],
      [
        "vO",
        -8.65373840400186
      ],
      [
        "zd",
        -8.654036480207804
      ],
      [
        "hK",
        -8.65411123014047
      ],
      [
        "Nn",
        -8.655029313397204
      ],
      [
        "La",
        -8.65513219640362
      ],
      [
        "br",
        -8.655431973430986
      ],
      [
        "eR",
        -8.655758797425516
      ],
      [
        "QR",
        -8.655785995950591
      ],
      [
        "UB",
        -8.655939921023212
      ],
      [
        "qc",
        -8.655974755638718
      ],
      [
        "Rd",
        -8.656314369038899
      ],
      [
        "gr",
        -8.656508894498899
      ],
      [
        "nX",
        -8.656587884356298
      ],
      [
        "bz",
        -8.65668543940017
      ],
      [
        "YC",
        -8.656707248257561
      ],
      [
        "Kt",
        -8.656878358954142
      ],
      [
        "bD",
        -8.656899605624421
      ],
      [
        "zH",
        -8.657100486857988
      ],
      [
        "cJ",
        -8.657193190273427
      ],
      [
        "hV",
        -8.657353401540746
      ],
      [
        "B0",
        -8.657365432191128
      ],
      [
        "UJ",
        -8.6575512438001
      ],
      [
        "Qu",
        -8.657779727173924
      ],
      [
        "fa",
        -8.65781303974765
      ],
      [
        "V0",
        -8.65781461597877
      ],
      [
        "Ur",
        -8.657946009093124
      ],
      [
        "Ub",
        -8.657969350487363
      ],
      [
        "CF",
        -8.657972929407137
      ],
      [
        "nx",
        -8.658153934873987
      ],
      [
        "hW",
        -8.658170273210313
      ],
      [
        "lG",
        -8.65855568469302
      ],
      [
        "TW",
        -8.658960394343417
      ],
      [
        "ho",
        -8.659236467774264
      ],
      [
        "pR",
        -8.659418375755246
      ],
      [
        "bW",
        -8.659552403110414
      ],
      [
        "Md",
        -8.659596185499732
      ],
      [
        "Na",
        -8.659606240210525
      ],
      [
        "oq",
        -8.659711731042673
      ],
      [
        "Nv",
        -8.659735545928172
      ],
      [
        "Nd",
        -8.659858463731052
      ],
      [
        "Mj",
        -8.659929079053473
      ],
      [
        "A0",
        -8.66006438702795
      ],
      [
        "wd",
        -8.660521334507377
      ],
      [
        "LB",
        -8.66054175351394
      ],
      [
        "ga",
        -8.660670014364685
      ],
      [
        "U8",
        -8.660681139916282
      ],
      [
        "uy",
        -8.660856389050817
      ],
      [
        "ec",
        -8.660919186648592
      ],
      [
        "hv",
        -8.66108677906834
      ],
      [
        "Ul",
        -8.661305655257202
      ],
      [
        "pd",
        -8.6613725338662
      ],
      [
        "Ji",
        -8.66147468091503
      ],
      [
        "Ax",
        -8.661630521594747
      ],
      [
        "pb",
        -8.662084125650972
      ],
      [
        "ed",
        -8.662107596032675
      ],
      [
        "Ud",
        -8.662440927601887
      ],
      [
        "ow",
        -8.662978410267385
      ],
      [
        "Ld",
        -8.66323143025905
      ],
      [
        "VW",
        -8.663293398941764
      ],
      [
        "v8",
        -8.663641546379225
      ],
      [
        "vY",
        -8.664062674889283
      ],
      [
        "Mr",
        -8.664423798892589
      ],
      [
        "zx",
        -8.664455148358398
      ],
      [
        "qR",
        -8.664526106866937
      ],
      [
        "CH",
        -8.664676413497236
      ],
      [
        "sr",
        -8.664857863666304
      ],
      [
        "CD",
        -8.664909887008669
      ],
      [
        "Nt",
        -8.664927571185245
      ],
      [
        "GJ",
        -8.665032704926151
      ],
      [
        "NW",
        -8.665101812734743
      ],
      [
        "CZ",
        -8.665113445857024
      ],
      [
        "qy",
        -8.665163121207158
      ],
      [
        "Ai",
        -8.665173433872782
      ],
      [
        "gs",
        -8.665311536849146
      ],
      [
        "h5",
        -8.665440483337466
      ],
      [
        "AH",
        -8.66551814365149
      ],
      [
        "oj",
        -8.665674453360454
      ],
      [
        "At",
        -8.66584954715869
      ],
      [
        "WH",
        -8.665922610117057
      ],
      [
        "wi",
        -8.666172053142262
      ],
      [
        "Ge",
        -8.666232058812078
      ],
      [
        "ws",
        -8.666280843956045
      ],
      [
        "lM",
        -8.666409189059115
      ],
      [
        "ex",
        -8.666424137342373
      ],
      [
        "hy",
        -8.66650512633152
      ],
      [
        "WI",
        -8.666667236375801
      ],
      [
        "co",
        -8.666704561918973
      ],
      [
        "hz",
        -8.66680280541967
      ],
      [
        "wW",
        -8.666830788485905
      ],
      [
        "ov",
        -8.666838089707875
      ],
      [
        "Jd",
        -8.666865353198407
      ],
      [
        "Ns",
        -8.66716566038275
      ],
      [
        "Cr",
        -8.667250083398002
      ],
      [
        "cL",
        -8.667506505617652
      ],
      [
        "MA",
        -8.667880396888773
      ],
      [
        "wB",
        -8.667887173036405
      ],
      [
        "pY",
        -8.667959565506612
      ],
      [
        "Od",
        -8.668007234703392
      ],
      [
        "xa",
        -8.668043098027484
      ],
      [
        "cq",
        -8.668066630096998
      ],
      [
        "Cu",
        -8.66807909865034
      ],
      [
        "Zd",
        -8.66832447622027
      ],
      [
        "Un",
        -8.668392235112002
      ],
      [
        "ZF",
        -8.668461621563413
      ],
      [
        "zX",
        -8.668619861889756
      ],
      [
        "cR",
        -8.668749619108684
      ],
      [
        "vW",
        -8.668777297836618
      ],
      [
        "qi",
        -8.668841161141955
      ],
      [
        "Ng",
        -8.66884266403716
      ],
      [
        "oz",
        -8.669101330351134
      ],
      [
        "BF",
        -8.669445641479665
      ],
      [
        "DR",
        -8.66950113930635
      ],
      [
        "LH",
        -8.669555560642667
      ],
      [
        "cf",
        -8.669665630554784
      ],
      [
        "zW",
        -8.669727490258747
      ],
      [
        "Gr",
        -8.669848223420626
      ],
      [
        "W6",
        -8.670194458981069
      ],
      [
        "ma",
        -8.670228499724427
      ],
      [
        "ze",
        -8.67026976077959
      ],
      [
        "KH",
        -8.670281898010877
      ],
      [
        "YZ",
        -8.67034135615496
      ],
      [
        "Da",
        -8.670614589418985
      ],
      [
        "NH",
        -8.670650924456393
      ],
      [
        "uT",
        -8.671069443694519
      ],
      [
        "mZ",
        -8.671207683292787
      ],
      [
        "of",
        -8.671209475101566
      ],
      [
        "Uf",
        -8.67135498572512
      ],
      [
        "Gt",
        -8.671417730700833
      ],
      [
        "px",
        -8.671576280685283
      ],
      [
        "VO",
        -8.671729263935326
      ],
      [
        "Qr",
        -8.671799910122088
      ],
      [
        "eX",
        -8.672428380906409
      ],
      [
        "gG",
        -8.672523520065837
      ],
      [
        "oY",
        -8.672611123506663
      ],
      [
        "od",
        -8.67272829908317
      ],
      [
        "GN",
        -8.672785764088427
      ],
      [
        "gF",
        -8.672910159777896
      ],
      [
        "fX",
        -8.67292166711962
      ],
      [
        "hx",
        -8.672953204435306
      ],
      [
        "De",
        -8.673075004923763
      ],
      [
        "gn",
        -8.67317991460391
      ],
      [
        "Yz",
        -8.673288030494142
      ],
      [
        "Tu",
        -8.673335113060858
      ],
      [
        "gQ",
        -8.673779353968058
      ],
      [
        "BM",
        -8.673907608733188
      ],
      [
        "gZ",
        -8.67422433889758
      ],
      [
        "gh",
        -8.674235691385219
      ],
      [
        "jT",
        -8.674498076077334
      ],
      [
        "cb",
        -8.674563504292523
      ],
      [
        "Jm",
        -8.675080994120158
      ],
      [
        "Uw",
        -8.67515834636906
      ],
      [
        "LO",
        -8.675208536211011
      ],
      [
        "Kd",
        -8.6752202368959
      ],
      [
        "DL",
        -8.675635129859028
      ],
      [
        "Qz",
        -8.675740180770696
      ],
      [
        "cB",
        -8.675870498245015
      ],
      [
        "GD",
        -8.67594180502976
      ],
      [
        "Xx",
        -8.676033960368493
      ],
      [
        "wZ",
        -8.676089823948857
      ],
      [
        "NZ",
        -8.676219531872281
      ],
      [
        "vt",
        -8.676401046834638
      ],
      [
        "Wr",
        -8.676527108974145
      ],
      [
        "nd",
        -8.676644767940836
      ],
      [
        "QF",
        -8.676695771685676
      ],
      [
        "Kx",
        -8.676867394134938
      ],
      [
        "UX",
        -8.676874136007054
      ],
      [
        "ct",
        -8.676952913226796
      ],
      [
        "hw",
        -8.677334235557566
      ],
      [
        "vI",
        -8.677387314421061
      ],
      [
        "NF",
        -8.6777355007455
      ],
      [
        "Qa",
        -8.678050490725184
      ],
      [
        "na",
        -8.678060628704236
      ],
      [
        "oH",
        -8.678159408398567
      ],
      [
        "hg",
        -8.678203384175173
      ],
      [
        "qn",
        -8.678384678698713
      ],
      [
        "uu",
        -8.678701788231928
      ],
      [
        "GO",
        -8.678715641622446
      ],
      [
        "XW",
        -8.678752247523212
      ],
      [
        "pz",
        -8.67883747818626
      ],
      [
        "vB",
        -8.678853905333575
      ],
      [
        "pV",
        -8.678895659099254
      ],
      [
        "Kq",
        -8.679047696037959
      ],
      [
        "Aa",
        -8.679077627609573
      ],
      [
        "AO",
        -8.679083840379445
      ],
      [
        "pA",
        -8.67916850841377
      ],
      [
        "ca",
        -8.67973872964502
      ],
      [
        "MB",
        -8.67977618849115
      ],
      [
        "qx",
        -8.679859744911779
      ],
      [
        "mf",
        -8.680010657897444
      ],
      [
        "bu",
        -8.680013916260766
      ],
      [
        "KI",
        -8.680177527187542
      ],
      [
        "DQ",
        -8.68017879708508
      ],
      [
        "NI",
        -8.680216518910495
      ],
      [
        "UO",
        -8.680249061747412
      ],
      [
        "oF",
        -8.680307122570534
      ],
      [
        "qf",
        -8.680418586028274
      ],
      [
        "Ka",
        -8.68051772755653
      ],
      [
        "ey",
        -8.680626421969354
      ],
      [
        "Vd",
        -8.680677508538711
      ],
      [
        "lT",
        -8.680683921101206
      ],
      [
        "IV",
        -8.680739169301493
      ],
      [
        "Uz",
        -8.68089895923114
      ],
      [
        "z0",
        -8.680924867121657
      ],
      [
        "cK",
        -8.680977815447228
      ],
      [
        "hu",
        -8.681125741988332
      ],
      [
        "Hx",
        -8.68113826991274
      ],
      [
        "VH",
        -8.68117881625146
      ],
      [
        "pK",
        -8.681314635719431
      ],
      [
        "ew",
        -8.681361114389953
      ],
      [
        "Rc",
        -8.681382520175777
      ],
      [
        "Dd",
        -8.682187056642181
      ],
      [
        "es",
        -8.68223924060622
      ],
      [
        "CW",
        -8.682289453346922
      ],
      [
        "ot",
        -8.68247830839592
      ],
      [
        "zn",
        -8.682519915503315
      ],
      [
        "cY",
        -8.682572800899484
      ],
      [
        "Vg",
        -8.68265393516091
      ],
      [
        "o3",
        -8.682756044266855
      ],
      [
        "Je",
        -8.682938935812235
      ],
      [
        "he",
        -8.683037187335408
      ],
      [
        "Xy",
        -8.683173410450827
      ],
      [
        "By",
        -8.683247400772968
      ],
      [
        "cX",
        -8.68336506365651
      ],
      [
        "mm",
        -8.683700627496707
      ],
      [
        "BV",
        -8.6837258214481
      ],
      [
        "lL",
        -8.683727423957798
      ],
      [
        "uq",
        -8.683807647593337
      ],
      [
        "pF",
        -8.683987035153628
      ],
      [
        "oR",
        -8.684098346391552
      ],
      [
        "Ls",
        -8.684116348459419
      ],
      [
        "eF",
        -8.684330054331916
      ],
      [
        "le",
        -8.684419143202842
      ],
      [
        "Kz",
        -8.684516711858928
      ],
      [
        "oK",
        -8.68452222771554
      ],
      [
        "Gz",
        -8.684780833651502
      ],
      [
        "Lx",
        -8.684828365390521
      ],
      [
        "Mu",
        -8.684877842562415
      ],
      [
        "bg",
        -8.684955552691562
      ],
      [
        "cO",
        -8.685292880034066
      ],
      [
        "vH",
        -8.685335052288167
      ],
      [
        "zG",
        -8.685341975491962
      ],
      [
        "YM",
        -8.685385808525936
      ],
      [
        "hI",
        -8.685454480640196
      ],
      [
        "Vn",
        -8.685477361503018
      ],
      [
        "Ke",
        -8.68551165537302
      ],
      [
        "GK",
        -8.68551368310553
      ],
      [
        "jg",
        -8.6856873258766
      ],
      [
        "cm",
        -8.685813531331576
      ],
      [
        "VD",
        -8.685845243860363
      ],
      [
        "B6",
        -8.686011840572975
      ],
      [
        "Ce",
        -8.686150981726147
      ],
      [
        "qA",
        -8.686263476347335
      ],
      [
        "md",
        -8.686354521480698
      ],
      [
        "Vy",
        -8.68649573665456
      ],
      [
        "qh",
        -8.686522856388201
      ],
      [
        "Km",
        -8.68667409830901
      ],
      [
        "Gy",
        -8.686789836391617
      ],
      [
        "hs",
        -8.686833448225062
      ],
      [
        "b8",
        -8.687025922163691
      ],
      [
        "pM",
        -8.687537177711672
      ],
      [
        "Vo",
        -8.687866309725909
      ],
      [
        "nA",
        -8.687931880979274
      ],
      [
        "vD",
        -8.688102381591715
      ],
      [
        "sW",
        -8.688188104446557
      ],
      [
        "XZ",
        -8.688205202005271
      ],
      [
        "b0",
        -8.688272751597442
      ],
      [
        "NR",
        -8.68847373480865
      ],
      [
        "KA",
        -8.688512413699293
      ],
      [
        "Cc",
        -8.688517152877594
      ],
      [
        "To",
        -8.688574644708542
      ],
      [
        "KV",
        -8.688655134880534
      ],
      [
        "CX",
        -8.688671384271476
      ],
      [
        "Nf",
        -8.689238264558398
      ],
      [
        "TT",
        -8.689402129252333
      ],
      [
        "e0",
        -8.689479595947958
      ],
      [
        "q8",
        -8.689668966944662
      ],
      [
        "Oa",
        -8.689826650053813
      ],
      [
        "YN",
        -8.690016521543864
      ],
      [
        "TC",
        -8.690144808824275
      ],
      [
        "Kw",
        -8.690310892226313
      ],
      [
        "QT",
        -8.690455654410968
      ],
      [
        "IM",
        -8.690513353077051
      ],
      [
        "hO",
        -8.690568820153072
      ],
      [
        "Aq",
        -8.690634398844349
      ],
      [
        "CV",
        -8.690637393590748
      ],
      [
        "TY",
        -8.690638288546571
      ],
      [
        "AL",
        -8.690653426324792
      ],
      [
        "VU",
        -8.690858270044707
      ],
      [
        "zw",
        -8.690862901028964
      ],
      [
        "Vb",
        -8.690905615421261
      ],
      [
        "ML",
        -8.691042004966766
      ],
      [
        "Ac",
        -8.691319123617006
      ],
      [
        "YV",
        -8.691740051562316
      ],
      [
        "zN",
        -8.69181475472478
      ],
      [
        "by",
        -8.691921303393421
      ],
      [
        "be",
        -8.692022806964513
      ],
      [
        "or",
        -8.692066448192314
      ],
      [
        "Ij",
        -8.692079991028741
      ],
      [
        "W0",
        -8.692086093993684
      ],
      [
        "DY",
        -8.692094362407023
      ],
      [
        "bH",
        -8.692096735523503
      ],
      [
        "lb",
        -8.692188103074223
      ],
      [
        "Vf",
        -8.69230143852344
      ],
      [
        "Dr",
        -8.692532006950522
      ],
      [
        "WM",
        -8.692617507550924
      ],
      [
        "vc",
        -8.69266639403153
      ],
      [
        "Lm",
        -8.692907565066301
      ],
      [
        "Yx",
        -8.692911713184742
      ],
      [
        "ef",
        -8.693055030750704
      ],
      [
        "KK",
        -8.69346214044538
      ],
      [
        "Ku",
        -8.693510652454112
      ],
      [
        "Jn",
        -8.693978968706736
      ],
      [
        "LA",
        -8.694070104455719
      ],
      [
        "lZ",
        -8.694139357590897
      ],
      [
        "DO",
        -8.694168711955086
      ],
      [
        "U9",
        -8.694431671460773
      ],
      [
        "Mx",
        -8.69446080705237
      ],
      [
        "UG",
        -8.694631823999416
      ],
      [
        "QN",
        -8.694759291368676
      ],
      [
        "mn",
        -8.694801980480639
      ],
      [
        "nR",
        -8.694802992903096
      ],
      [
        "RT",
        -8.695094758944332
      ],
      [
        "OM",
        -8.695135343213401
      ],
      [
        "Iu",
        -8.695453677899451
      ],
      [
        "TZ",
        -8.695455403164743
      ],
      [
        "VA",
        -8.695592182050007
      ],
      [
        "nJ",
        -8.695618322375749
      ],
      [
        "CN",
        -8.695666736865537
      ],
      [
        "zs",
        -8.695703610656608
      ],
      [
        "AR",
        -8.69572332288626
      ],
      [
        "TB",
        -8.695739136361054
      ],
      [
        "wM",
        -8.695750201651688
      ],
      [
        "CA",
        -8.695831995272895
      ],
      [
        "RH",
        -8.695881050132627
      ],
      [
        "Kr",
        -8.696101839877297
      ],
      [
        "oB",
        -8.696106714870622
      ],
      [
        "gw",
        -8.696156798579707
      ],
      [
        "C3",
        -8.696256969491893
      ],
      [
        "NN",
        -8.696457818102626
      ],
      [
        "Qy",
        -8.696524013128961
      ],
      [
        "qj",
        -8.69652556776252
      ],
      [
        "ae",
        -8.696763089922014
      ],
      [
        "MY",
        -8.696838307198735
      ],
      [
        "gD",
        -8.696923160355468
      ],
      [
        "LI",
        -8.69696691222629
      ],
      [
        "Dm",
        -8.697018011380193
      ],
      [
        "vQ",
        -8.69705275666622
      ],
      [
        "Q0",
        -8.697058543389971
      ],
      [
        "mo",
        -8.697250326114373
      ],
      [
        "Lf",
        -8.697563481645854
      ],
      [
        "DI",
        -8.697635799315172
      ],
      [
        "Gs",
        -8.697658151631368
      ],
      [
        "cl",
        -8.6977271634934
      ],
      [
        "JZ",
        -8.697752465965756
      ],
      [
        "hb",
        -8.697779733530137
      ],
      [
        "BB",
        -8.697790783717437
      ],
      [
        "HZ",
        -8.6978397537683
      ],
      [
        "bO",
        -8.6978945970103
      ],
      [
        "w0",
        -8.69803390583885
      ],
      [
        "ue",
        -8.698052980326265
      ],
      [
        "GW",
        -8.698269783268511
      ],
      [
        "hG",
        -8.698716874221248
      ],
      [
        "vA",
        -8.698853888155181
      ],
      [
        "QD",
        -8.698913327740994
      ],
      [
        "zY",
        -8.698961122881133
      ],
      [
        "BO",
        -8.699314241683492
      ],
      [
        "TM",
        -8.699591980309478
      ],
      [
        "XU",
        -8.699601613786271
      ],
      [
        "ez",
        -8.699691419799947
      ],
      [
        "Nq",
        -8.699730168502509
      ],
      [
        "ge",
        -8.699856441633386
      ],
      [
        "eM",
        -8.700065310886552
      ],
      [
        "bM",
        -8.700187312643255
      ],
      [
        "Qc",
        -8.700238518375428
      ],
      [
        "Yy",
        -8.700320887124068
      ],
      [
        "bc",
        -8.700472213401799
      ],
      [
        "NU",
        -8.70053090860665
      ],
      [
        "nM",
        -8.700649313124348
      ],
      [
        "oM",
        -8.700835637918646
      ],
      [
        "Bd",
        -8.70095923250083
      ],
      [
        "Uo",
        -8.700981698766281
      ],
      [
        "LV",
        -8.701032250878995
      ],
      [
        "hn",
        -8.701119605855997
      ],
      [
        "lA",
        -8.70114255352112
      ],
      [
        "ry",
        -8.70117022689202
      ],
      [
        "cW",
        -8.701173475690686
      ],
      [
        "bR",
        -8.70122598933754
      ],
      [
        "cx",
        -8.701315689115996
      ],
      [
        "hZ",
        -8.701495512407309
      ],
      [
        "JF",
        -8.701529890814616
      ],
      [
        "IY",
        -8.701664111433871
      ],
      [
        "hm",
        -8.701671909995124
      ],
      [
        "hj",
        -8.701718659288662
      ],
      [
        "dY",
        -8.701784809011656
      ],
      [
        "Uq",
        -8.701809266556664
      ],
      [
        "gB",
        -8.701869192468902
      ],
      [
        "ll",
        -8.701950391932154
      ],
      [
        "KR",
        -8.702023118226986
      ],
      [
        "gj",
        -8.702032764137536
      ],
      [
        "nB",
        -8.702067339880454
      ],
      [
        "YW",
        -8.702123915382737
      ],
      [
        "je",
        -8.702316480009243
      ],
      [
        "fb",
        -8.702359587503881
      ],
      [
        "Gn",
        -8.702369995619005
      ],
      [
        "KX",
        -8.702444156231149
      ],
      [
        "oe",
        -8.702483518979044
      ],
      [
        "DN",
        -8.702494621138595
      ],
      [
        "Gu",
        -8.70258008767622
      ],
      [
        "qM",
        -8.702658977930628
      ],
      [
        "Av",
        -8.702717509082587
      ],
      [
        "zr",
        -8.702828782136756
      ],
      [
        "ce",
        -8.702896686388232
      ],
      [
        "oo",
        -8.702971100548492
      ],
      [
        "Nr",
        -8.702981688831041
      ],
      [
        "RY",
        -8.70300736786123
      ],
      [
        "Ay",
        -8.703012030823688
      ],
      [
        "cG",
        -8.703163155007974
      ],
      [
        "mz",
        -8.703292434275813
      ],
      [
        "oD",
        -8.70355802680887
      ],
      [
        "WA",
        -8.703635288694048
      ],
      [
        "am",
        -8.703715265253152
      ],
      [
        "pT",
        -8.70372057480073
      ],
      [
        "Am",
        -8.703782327346334
      ],
      [
        "oi",
        -8.703965565782365
      ],
      [
        "NA",
        -8.70402503191227
      ],
      [
        "dX",
        -8.704033418120527
      ],
      [
        "oW",
        -8.70412771234292
      ],
      [
        "RR",
        -8.70451655953748
      ],
      [
        "VJ",
        -8.704775312694125
      ],
      [
        "Tz",
        -8.705117658098583
      ],
      [
        "wG",
        -8.705880245191866
      ],
      [
        "AC",
        -8.706024164214742
      ],
      [
        "mI",
        -8.70606675180534
      ],
      [
        "wl",
        -8.706089494757153
      ],
      [
        "jX",
        -8.706235892001326
      ],
      [
        "Ty",
        -8.706276759524446
      ],
      [
        "It",
        -8.706322314263222
      ],
      [
        "Hc",
        -8.706653347396234
      ],
      [
        "zl",
        -8.70682741548421
      ],
      [
        "Ia",
        -8.706871137075812
      ],
      [
        "rx",
        -8.70697690817304
      ],
      [
        "om",
        -8.707126475469135
      ],
      [
        "qe",
        -8.707424383600744
      ],
      [
        "op",
        -8.707434988735251
      ],
      [
        "gb",
        -8.70744347378401
      ],
      [
        "lQ",
        -8.707525485111796
      ],
      [
        "oX",
        -8.707760144808207
      ],
      [
        "qU",
        -8.707783540384836
      ],
      [
        "MM",
        -8.707879409220562
      ],
      [
        "CG",
        -8.708072627816907
      ],
      [
        "jH",
        -8.708081989042741
      ],
      [
        "Be",
        -8.708112359852992
      ],
      [
        "ZM",
        -8.708371531446573
      ],
      [
        "zV",
        -8.70840203631671
      ],
      [
        "eG",
        -8.708595976690516
      ],
      [
        "Gw",
        -8.708709109180006
      ],
      [
        "gU",
        -8.708731951292528
      ],
      [
        "QY",
        -8.70877256346224
      ],
      [
        "bp",
        -8.708942140846462
      ],
      [
        "BJ",
        -8.7091337342761
      ],
      [
        "rU",
        -8.709426038267122
      ],
      [
        "qV",
        -8.709592496253979
      ],
      [
        "RN",
        -8.709758023863426
      ],
      [
        "lC",
        -8.709782407360837
      ],
      [
        "MR",
        -8.709883968690663
      ],
      [
        "Y0",
        -8.709919248153874
      ],
      [
        "ja",
        -8.709978598378111
      ],
      [
        "pW",
        -8.710164074537056
      ],
      [
        "UL",
        -8.710298151832749
      ],
      [
        "cu",
        -8.710525113748297
      ],
      [
        "Tx",
        -8.710634558121717
      ],
      [
        "mx",
        -8.710684390787247
      ],
      [
        "eZ",
        -8.710756937023596
      ],
      [
        "gv",
        -8.710875109511727
      ],
      [
        "NO",
        -8.711242014103764
      ],
      [
        "pU",
        -8.711308450279102
      ],
      [
        "jD",
        -8.711451697425044
      ],
      [
        "uY",
        -8.711510499010146
      ],
      [
        "Hr",
        -8.711700115046291
      ],
      [
        "DG",
        -8.711839415174307
      ],
      [
        "JJ",
        -8.71187326084362
      ],
      [
        "zT",
        -8.711879863835078
      ],
      [
        "gO",
        -8.712001565182483
      ],
      [
        "gI",
        -8.7120225826159
      ],
      [
        "Ql",
        -8.71206121851711
      ],
      [
        "qJ",
        -8.71209063096127
      ],
      [
        "bV",
        -8.712130101936658
      ],
      [
        "Ye",
        -8.71213244423899
      ],
      [
        "dy",
        -8.71225301348275
      ],
      [
        "Uu",
        -8.71237761658135
      ],
      [
        "JC",
        -8.712410786983646
      ],
      [
        "WZ",
        -8.712557469299245
      ],
      [
        "qq",
        -8.712655418882399
      ],
      [
        "QH",
        -8.712881558865572
      ],
      [
        "wx",
        -8.712963843728783
      ],
      [
        "zg",
        -8.712967421380775
      ],
      [
        "er",
        -8.71312845656622
      ],
      [
        "cN",
        -8.71319278878827
      ],
      [
        "jB",
        -8.713343213618149
      ],
      [
        "vJ",
        -8.713484284324547
      ],
      [
        "DM",
        -8.713514934026472
      ],
      [
        "Nm",
        -8.713637399125174
      ],
      [
        "BK",
        -8.713656755634407
      ],
      [
        "Mz",
        -8.713686108069922
      ],
      [
        "qa",
        -8.713894018577353
      ],
      [
        "jR",
        -8.713919214530804
      ],
      [
        "Wf",
        -8.713938310622478
      ],
      [
        "Bb",
        -8.714062133503543
      ],
      [
        "DZ",
        -8.714102263575178
      ],
      [
        "QI",
        -8.714202165132342
      ],
      [
        "KZ",
        -8.714384256311419
      ],
      [
        "Jf",
        -8.714435726686322
      ],
      [
        "Jy",
        -8.71445892137097
      ],
      [
        "RA",
        -8.714568960333253
      ],
      [
        "Yw",
        -8.714624820497905
      ],
      [
        "KY",
        -8.714907951008627
      ],
      [
        "Kf",
        -8.714911409764174
      ],
      [
        "bG",
        -8.714913927530256
      ],
      [
        "gN",
        -8.715009296187672
      ],
      [
        "ob",
        -8.715150208545714
      ],
      [
        "dw",
        -8.71527902925461
      ],
      [
        "UN",
        -8.715460172606294
      ],
      [
        "pI",
        -8.715662467332944
      ],
      [
        "YF",
        -8.715745298691674
      ],
      [
        "Bu",
        -8.715762655528053
      ],
      [
        "mw",
        -8.71580517988383
      ],
      [
        "eN",
        -8.716037546767499
      ],
      [
        "bs",
        -8.716041243917093
      ],
      [
        "QX",
        -8.716263859611079
      ],
      [
        "qo",
        -8.71628649326544
      ],
      [
        "VK",
        -8.716309547780465
      ],
      [
        "MG",
        -8.716341268120651
      ],
      [
        "cH",
        -8.716349640406047
      ],
      [
        "Nx",
        -8.716536035519313
      ],
      [
        "Dx",
        -8.716899319918104
      ],
      [
        "Ae",
        -8.716968105834674
      ],
      [
        "Gh",
        -8.717034877598993
      ],
      [
        "mc",
        -8.717062840608508
      ],
      [
        "bx",
        -8.717258481300519
      ],
      [
        "ID",
        -8.717405342633198
      ],
      [
        "cC",
        -8.71743150474947
      ],
      [
        "TX",
        -8.717526977407665
      ],
      [
        "QZ",
        -8.717930001904598
      ],
      [
        "KC",
        -8.717934551574624
      ],
      [
        "aV",
        -8.717997670969076
      ],
      [
        "Cq",
        -8.718076948056023
      ],
      [
        "Vp",
        -8.718281107087597
      ],
      [
        "KB",
        -8.718432622981037
      ],
      [
        "NK",
        -8.7184865420434
      ],
      [
        "OQ",
        -8.718565235552413
      ],
      [
        "zM",
        -8.718566341052835
      ],
      [
        "oN",
        -8.718682615474616
      ],
      [
        "Du",
        -8.718758237368853
      ],
      [
        "fl",
        -8.718775961399562
      ],
      [
        "Hd",
        -8.718914304512765
      ],
      [
        "wF",
        -8.71893104203121
      ],
      [
        "CU",
        -8.719256343877403
      ],
      [
        "bw",
        -8.719461762142048
      ],
      [
        "IR",
        -8.71969850177178
      ],
      [
        "eC",
        -8.719849378761763
      ],
      [
        "Bn",
        -8.719948754323871
      ],
      [
        "QG",
        -8.720133254924281
      ],
      [
        "bT",
        -8.720169099167968
      ],
      [
        "wO",
        -8.72037597775018
      ],
      [
        "wj",
        -8.720397697559122
      ],
      [
        "XN",
        -8.720640728535415
      ],
      [
        "IG",
        -8.72065430542451
      ],
      [
        "CM",
        -8.720661721544943
      ],
      [
        "uH",
        -8.720805932164083
      ],
      [
        "DA",
        -8.720808036758799
      ],
      [
        "wa",
        -8.720868646209261
      ],
      [
        "gH",
        -8.72087100218949
      ],
      [
        "lr",
        -8.7209171565795
      ],
      [
        "WW",
        -8.720940581947213
      ],
      [
        "bQ",
        -8.72097012837376
      ],
      [
        "mr",
        -8.721024685097898
      ],
      [
        "Cs",
        -8.721268880346042
      ],
      [
        "eK",
        -8.72144785526517
      ],
      [
        "Vx",
        -8.721619228320819
      ],
      [
        "vh",
        -8.72174340991833
      ],
      [
        "An",
        -8.721809818327504
      ],
      [
        "vM",
        -8.721852191692655
      ],
      [
        "bJ",
        -8.72187742580612
      ],
      [
        "ev",
        -8.721935937464242
      ],
      [
        "JX",
        -8.721954549468258
      ],
      [
        "pa",
        -8.721955360957569
      ],
      [
        "Rx",
        -8.722190828404933
      ],
      [
        "eW",
        -8.722257791420429
      ],
      [
        "cn",
        -8.722443302566194
      ],
      [
        "Ra",
        -8.722467883831714
      ],
      [
        "uB",
        -8.72248759399414
      ],
      [
        "q6",
        -8.722499315044878
      ],
      [
        "qw",
        -8.722507374769137
      ],
      [
        "MI",
        -8.722537507007516
      ],
      [
        "fy",
        -8.722568461166379
      ],
      [
        "la",
        -8.722730155648994
      ],
      [
        "Rr",
        -8.722737015530418
      ],
      [
        "JR",
        -8.722794111249604
      ],
      [
        "bI",
        -8.722809770943218
      ],
      [
        "vV",
        -8.722824455616948
      ],
      [
        "RL",
        -8.723212613915964
      ],
      [
        "KQ",
        -8.723242307752356
      ],
      [
        "zj",
        -8.723469092513103
      ],
      [
        "Bv",
        -8.72351962292762
      ],
      [
        "A6",
        -8.723562353493492
      ],
      [
        "lw",
        -8.723643225359037
      ],
      [
        "Nb",
        -8.723753164790734
      ],
      [
        "RK",
        -8.723789297476785
      ],
      [
        "Cd",
        -8.723789386963407
      ],
      [
        "qY",
        -8.723837091182713
      ],
      [
        "lB",
        -8.724144246741975
      ],
      [
        "WL",
        -8.724166430065875
      ],
      [
        "Qj",
        -8.724234208220128
      ],
      [
        "cw",
        -8.72436411045142
      ],
      [
        "Tc",
        -8.724439271629507
      ],
      [
        "ea",
        -8.724482014706378
      ],
      [
        "Ib",
        -8.72448996750557
      ],
      [
        "K0",
        -8.724505007097433
      ],
      [
        "ps",
        -8.72457977058605
      ],
      [
        "DK",
        -8.724630366269135
      ],
      [
        "Cz",
        -8.724689943794417
      ],
      [
        "nl",
        -8.724838570315004
      ],
      [
        "UH",
        -8.724846258277132
      ],
      [
        "UU",
        -8.724950312375611
      ],
      [
        "AX",
        -8.725038056069735
      ],
      [
        "DJ",
        -8.725055866351397
      ],
      [
        "zf",
        -8.725124601981626
      ],
      [
        "Re",
        -8.725155485212852
      ],
      [
        "hc",
        -8.725167449418578
      ],
      [
        "nq",
        -8.725403129022695
      ],
      [
        "OL",
        -8.725553327072062
      ],
      [
        "Xr",
        -8.725562832279781
      ],
      [
        "Te",
        -8.72560118158702
      ],
      [
        "MN",
        -8.725637183559535
      ],
      [
        "Af",
        -8.725719324285215
      ],
      [
        "nv",
        -8.72574283141524
      ],
      [
        "nb",
        -8.725742898336645
      ],
      [
        "TH",
        -8.725754583255661
      ],
      [
        "Il",
        -8.725835110462569
      ],
      [
        "JA",
        -8.72585264131208
      ],
      [
        "NJ",
        -8.72586755904813
      ],
      [
        "eu",
        -8.725900629469944
      ],
      [
        "Ba",
        -8.725989804250792
      ],
      [
        "BA",
        -8.726051166210699
      ],
      [
        "Ix",
        -8.726062203791809
      ],
      [
        "rX",
        -8.72610825991179
      ],
      [
        "VM",
        -8.726123173895424
      ],
      [
        "qt",
        -8.726164100281522
      ],
      [
        "AD",
        -8.726188392502298
      ],
      [
        "Kp",
        -8.726335622791511
      ],
      [
        "Ue",
        -8.726436298472965
      ],
      [
        "WR",
        -8.726456983211651
      ],
      [
        "mY",
        -8.726515600908467
      ],
      [
        "gK",
        -8.726779548262083
      ],
      [
        "oL",
        -8.726862774699288
      ],
      [
        "Cm",
        -8.726962300066248
      ],
      [
        "WV",
        -8.726990322245822
      ],
      [
        "GT",
        -8.727004342438224
      ],
      [
        "Va",
        -8.727034050452243
      ],
      [
        "jf",
        -8.727189469922674
      ],
      [
        "JI",
        -8.72724382079025
      ],
      [
        "lN",
        -8.727252484850649
      ],
      [
        "TG",
        -8.727304504847906
      ],
      [
        "NM",
        -8.727523766249078
      ],
      [
        "qC",
        -8.72756059575915
      ],
      [
        "MZ",
        -8.727632925147894
      ],
      [
        "eH",
        -8.727671737394793
      ],
      [
        "CR",
        -8.727943736205475
      ],
      [
        "uN",
        -8.728219880602223
      ],
      [
        "de",
        -8.728267209346601
      ],
      [
        "Zf",
        -8.728373367087496
      ],
      [
        "TU",
        -8.728428409125058
      ],
      [
        "QO",
        -8.728647288892674
      ],
      [
        "HN",
        -8.728661196182028
      ],
      [
        "fr",
        -8.728686562176943
      ],
      [
        "Io",
        -8.728829038439432
      ],
      [
        "rK",
        -8.72883774163111
      ],
      [
        "Mw",
        -8.728991341930529
      ],
      [
        "gp",
        -8.729148595790125
      ],
      [
        "GI",
        -8.729378385025452
      ],
      [
        "nf",
        -8.729396043530343
      ],
      [
        "Qn",
        -8.729421272417643
      ],
      [
        "ZT",
        -8.729472913248488
      ],
      [
        "Tm",
        -8.729607695036414
      ],
      [
        "nN",
        -8.729632358785153
      ],
      [
        "Ow",
        -8.72976469377901
      ],
      [
        "qW",
        -8.72979605698714
      ],
      [
        "Lr",
        -8.729860492557812
      ],
      [
        "ux",
        -8.729964559755885
      ],
      [
        "fO",
        -8.730006571663012
      ],
      [
        "ZZ",
        -8.730125886969649
      ],
      [
        "cQ",
        -8.73019724223995
      ],
      [
        "Tf",
        -8.730207735902601
      ],
      [
        "TL",
        -8.730337649099562
      ],
      [
        "Jh",
        -8.730357362684558
      ],
      [
        "YX",
        -8.730433619098493
      ],
      [
        "lv",
        -8.730489791521409
      ],
      [
        "Qo",
        -8.73051136006476
      ],
      [
        "Qf",
        -8.73056871725371
      ],
      [
        "wV",
        -8.730665282402878
      ],
      [
        "ff",
        -8.73075017311517
      ],
      [
        "Cb",
        -8.73091857617721
      ],
      [
        "gT",
        -8.731008696864238
      ],
      [
        "yr",
        -8.731085303613202
      ],
      [
        "Tl",
        -8.731099006883277
      ],
      [
        "KG",
        -8.731138130718506
      ],
      [
        "vz",
        -8.731170324995635
      ],
      [
        "uo",
        -8.731490159130832
      ],
      [
        "rW",
        -8.73170880437467
      ],
      [
        "ep",
        -8.731875136769283
      ],
      [
        "LR",
        -8.731937897884585
      ],
      [
        "v0",
        -8.731971808106191
      ],
      [
        "qL",
        -8.731982772676425
      ],
      [
        "Wy",
        -8.732193373167998
      ],
      [
        "RZ",
        -8.732455333289023
      ],
      [
        "MU",
        -8.732559886663136
      ],
      [
        "nW",
        -8.732608018562445
      ],
      [
        "fZ",
        -8.732612351451998
      ],
      [
        "gX",
        -8.732821123490368
      ],
      [
        "LM",
        -8.732887944838044
      ],
      [
        "RM",
        -8.73292578677869
      ],
      [
        "bf",
        -8.733052032577636
      ],
      [
        "AJ",
        -8.733079384763878
      ],
      [
        "JQ",
        -8.733185576313929
      ],
      [
        "eD",
        -8.733454738484081
      ],
      [
        "pp",
        -8.73354122870536
      ],
      [
        "wb",
        -8.73371191506109
      ],
      [
        "vN",
        -8.73377758924571
      ],
      [
        "hY",
        -8.733825940163094
      ],
      [
        "pj",
        -8.733899585782599
      ],
      [
        "Cn",
        -8.734005547244447
      ],
      [
        "gW",
        -8.734006994993855
      ],
      [
        "go",
        -8.7343096174902
      ],
      [
        "oQ",
        -8.734329675252184
      ],
      [
        "fc",
        -8.734473607365905
      ],
      [
        "ee",
        -8.734477582450255
      ],
      [
        "If",
        -8.734535474174162
      ],
      [
        "Ma",
        -8.734585670405544
      ],
      [
        "WJ",
        -8.734586001225153
      ],
      [
        "ne",
        -8.734636867474514
      ],
      [
        "IB",
        -8.734728439182746
      ],
      [
        "Id",
        -8.734807304887841
      ],
      [
        "VN",
        -8.734862934497883
      ],
      [
        "Ou",
        -8.734912845487145
      ],
      [
        "cz",
        -8.734924440943471
      ],
      [
        "bb",
        -8.735017727833643
      ],
      [
        "AQ",
        -8.735083646061643
      ],
      [
        "vl",
        -8.73508633720988
      ],
      [
        "gc",
        -8.735394651464862
      ],
      [
        "zL",
        -8.735437164706227
      ],
      [
        "KM",
        -8.735452753333867
      ],
      [
        "Wp",
        -8.735463614671144
      ],
      [
        "dG",
        -8.735603102496173
      ],
      [
        "BT",
        -8.7357461657094
      ],
      [
        "uc",
        -8.735766321963203
      ],
      [
        "qG",
        -8.735841865781016
      ],
      [
        "GQ",
        -8.735878229559924
      ],
      [
        "Ru",
        -8.736082695009094
      ],
      [
        "oV",
        -8.736219573546439
      ],
      [
        "NQ",
        -8.73635021220165
      ],
      [
        "NT",
        -8.736608226200838
      ],
      [
        "Dy",
        -8.736686380370152
      ],
      [
        "QB",
        -8.736698345053583
      ],
      [
        "YQ",
        -8.736776645745827
      ],
      [
        "BY",
        -8.736886802779136
      ],
      [
        "mu",
        -8.7369021219748
      ],
      [
        "lK",
        -8.73725986054027
      ],
      [
        "jo",
        -8.73729073653275
      ],
      [
        "gu",
        -8.73744674435525
      ],
      [
        "xr",
        -8.737515073434349
      ],
      [
        "wy",
        -8.737533802572916
      ],
      [
        "Jp",
        -8.737553087731072
      ],
      [
        "Ao",
        -8.737558754260448
      ],
      [
        "Ts",
        -8.737665463017848
      ],
      [
        "XY",
        -8.737785342809328
      ],
      [
        "RX",
        -8.737786506172448
      ],
      [
        "Uh",
        -8.738080622429196
      ],
      [
        "qp",
        -8.738155125541788
      ],
      [
        "lm",
        -8.738410422699392
      ],
      [
        "NB",
        -8.738480602322939
      ],
      [
        "VR",
        -8.738511538951172
      ],
      [
        "Ja",
        -8.73861621415825
      ],
      [
        "gA",
        -8.738622182654701
      ],
      [
        "Yh",
        -8.738639929496351
      ],
      [
        "jA",
        -8.738658529839235
      ],
      [
        "Lh",
        -8.738775298173609
      ],
      [
        "Rg",
        -8.73896266360886
      ],
      [
        "bK",
        -8.738975084821849
      ],
      [
        "Rm",
        -8.73904003582247
      ],
      [
        "UV",
        -8.739045703866072
      ],
      [
        "Ym",
        -8.73937691762422
      ],
      [
        "KW",
        -8.739413639274249
      ],
      [
        "ad",
        -8.739673158594265
      ],
      [
        "bo",
        -8.739717240466515
      ],
      [
        "LY",
        -8.739764219547705
      ],
      [
        "cV",
        -8.739764873729735
      ],
      [
        "fg",
        -8.739784592660154
      ],
      [
        "BI",
        -8.740072656879804
      ],
      [
        "BC",
        -8.740131125450473
      ],
      [
        "Ha",
        -8.740140491160945
      ],
      [
        "Ml",
        -8.740202588175691
      ],
      [
        "eO",
        -8.74024370865483
      ],
      [
        "Yo",
        -8.74033018400417
      ],
      [
        "oJ",
        -8.740464135379355
      ],
      [
        "aY",
        -8.740485362456813
      ],
      [
        "IK",
        -8.740614825691516
      ],
      [
        "mX",
        -8.740849288067725
      ],
      [
        "ZW",
        -8.740867478776247
      ],
      [
        "Lg",
        -8.74087766881154
      ],
      [
        "WO",
        -8.74115904059246
      ],
      [
        "hU",
        -8.741243554736457
      ],
      [
        "Bp",
        -8.741266102272391
      ],
      [
        "Yr",
        -8.741414408921205
      ],
      [
        "QM",
        -8.74150424081557
      ],
      [
        "eQ",
        -8.741713014037963
      ],
      [
        "YK",
        -8.741840852540717
      ],
      [
        "Gg",
        -8.741870821690526
      ],
      [
        "fd",
        -8.741911780667682
      ],
      [
        "Az",
        -8.741942067866054
      ],
      [
        "xg",
        -8.741986350190857
      ],
      [
        "qz",
        -8.742047192185787
      ],
      [
        "pJ",
        -8.742048558505138
      ],
      [
        "XX",
        -8.742088035430317
      ],
      [
        "zb",
        -8.742107934460734
      ],
      [
        "IQ",
        -8.742222656043332
      ],
      [
        "hT",
        -8.742263394217572
      ],
      [
        "Hu",
        -8.742270705889197
      ],
      [
        "RJ",
        -8.742285096569862
      ],
      [
        "nz",
        -8.742487967529005
      ],
      [
        "zI",
        -8.742596950957669
      ],
      [
        "uw",
        -8.742629027106515
      ],
      [
        "fR",
        -8.74270702371033
      ],
      [
        "bq",
        -8.742757544538433
      ],
      [
        "dC",
        -8.743090398778087
      ],
      [
        "wv",
        -8.743100201455512
      ],
      [
        "Go",
        -8.74312751837472
      ],
      [
        "sa",
        -8.743181347146546
      ],
      [
        "Vq",
        -8.74327734505174
      ],
      [
        "KL",
        -8.74327741485787
      ],
      [
        "Gm",
        -8.743341549407148
      ],
      [
        "gM",
        -8.743427391464298
      ],
      [
        "hl",
        -8.743507063986733
      ],
      [
        "xT",
        -8.743516662336049
      ],
      [
        "YI",
        -8.743534777238455
      ],
      [
        "JM",
        -8.743619302955043
      ],
      [
        "Ie",
        -8.743638928761529
      ],
      [
        "We",
        -8.743767034324986
      ],
      [
        "Cj",
        -8.74390313559148
      ],
      [
        "NL",
        -8.744089076480595
      ],
      [
        "wp",
        -8.744132001250804
      ],
      [
        "OK",
        -8.744393354449741
      ],
      [
        "pu",
        -8.744396278034205
      ],
      [
        "TI",
        -8.744399770229673
      ],
      [
        "hA",
        -8.74441014577352
      ],
      [
        "jI",
        -8.744444016867508
      ],
      [
        "vq",
        -8.744468875980957
      ],
      [
        "ax",
        -8.74453349375909
      ],
      [
        "no",
        -8.744544283023853
      ],
      [
        "Iw",
        -8.744618583877262
      ],
      [
        "zu",
        -8.74465113285728
      ],
      [
        "TN",
        -8.744660756045917
      ],
      [
        "eY",
        -8.745019480466341
      ],
      [
        "VC",
        -8.745072822588932
      ],
      [
        "JO",
        -8.74514863299558
      ],
      [
        "ua",
        -8.745215725701058
      ],
      [
        "q3",
        -8.745275507841537
      ],
      [
        "vU",
        -8.745385475393217
      ],
      [
        "JN",
        -8.745594907800012
      ],
      [
        "VI",
        -8.745655358616691
      ],
      [
        "wL",
        -8.745861844580201
      ],
      [
        "Om",
        -8.74617794493357
      ],
      [
        "DW",
        -8.746300245394284
      ],
      [
        "Nj",
        -8.746459651884656
      ],
      [
        "mG",
        -8.746721298366868
      ],
      [
        "ox",
        -8.746842412407045
      ],
      [
        "nL",
        -8.747092775513153
      ],
      [
        "Tb",
        -8.747101802368316
      ],
      [
        "zZ",
        -8.74716644067821
      ],
      [
        "wh",
        -8.747259830483848
      ],
      [
        "Xb",
        -8.747299043022782
      ],
      [
        "oC",
        -8.74743413797933
      ],
      [
        "xJ",
        -8.747443482443273
      ],
      [
        "qm",
        -8.747465176440553
      ],
      [
        "lg",
        -8.747601556507409
      ],
      [
        "NX",
        -8.747674263288117
      ],
      [
        "oU",
        -8.747737831932927
      ],
      [
        "pL",
        -8.747764089147637
      ],
      [
        "mV",
        -8.748260129079647
      ],
      [
        "fp",
        -8.748413724424683
      ],
      [
        "gg",
        -8.748465791437173
      ],
      [
        "UA",
        -8.7485246243285
      ],
      [
        "cT",
        -8.748599057951568
      ],
      [
        "pH",
        -8.748607199379068
      ],
      [
        "WC",
        -8.748784355910178
      ],
      [
        "gY",
        -8.748943515314355
      ],
      [
        "QV",
        -8.748981530097012
      ],
      [
        "Bg",
        -8.749003658190773
      ],
      [
        "qI",
        -8.749120701204674
      ],
      [
        "AY",
        -8.749124033127842
      ],
      [
        "fJ",
        -8.7491463520738
      ],
      [
        "Tj",
        -8.749247432559706
      ],
      [
        "LT",
        -8.749287710710318
      ],
      [
        "Kl",
        -8.74936606322154
      ],
      [
        "Ab",
        -8.749688686186708
      ],
      [
        "II",
        -8.749729281104466
      ],
      [
        "Ve",
        -8.749823101473334
      ],
      [
        "Wl",
        -8.749885702801729
      ],
      [
        "AM",
        -8.750037036082498
      ],
      [
        "GM",
        -8.750079713386754
      ],
      [
        "YO",
        -8.750093425761754
      ],
      [
        "QC",
        -8.750240012150174
      ],
      [
        "Dv",
        -8.75034042218809
      ],
      [
        "Kn",
        -8.750356280510928
      ],
      [
        "Dc",
        -8.750358090301582
      ],
      [
        "wR",
        -8.750370833346363
      ],
      [
        "KJ",
        -8.750370923637195
      ],
      [
        "bm",
        -8.750461538832681
      ],
      [
        "rr",
        -8.750655745344638
      ],
      [
        "uV",
        -8.75071380331843
      ],
      [
        "w3",
        -8.750719747007867
      ],
      [
        "mK",
        -8.750752012539838
      ],
      [
        "lR",
        -8.750804287760957
      ],
      [
        "UD",
        -8.750830472673464
      ],
      [
        "IX",
        -8.750834822195248
      ],
      [
        "zR",
        -8.75085599267743
      ],
      [
        "DX",
        -8.750927180723867
      ],
      [
        "jw",
        -8.750941817252219
      ],
      [
        "v9",
        -8.751149736529566
      ],
      [
        "Fd",
        -8.751178574907419
      ],
      [
        "GL",
        -8.751276508474318
      ],
      [
        "ar",
        -8.751320799999876
      ],
      [
        "we",
        -8.751429301446528
      ],
      [
        "sI",
        -8.751698601365817
      ],
      [
        "LL",
        -8.751700859369578
      ],
      [
        "vK",
        -8.751953972647907
      ],
      [
        "LX",
        -8.75200304334432
      ],
      [
        "bU",
        -8.752008179973128
      ],
      [
        "Im",
        -8.752081513391222
      ],
      [
        "Bj",
        -8.752104407078068
      ],
      [
        "lV",
        -8.752140255972542
      ],
      [
        "JG",
        -8.75214988251785
      ],
      [
        "TQ",
        -8.752274217502594
      ],
      [
        "Lw",
        -8.752275376757993
      ],
      [
        "WD",
        -8.752317567027939
      ],
      [
        "Vz",
        -8.752363442915476
      ],
      [
        "rs",
        -8.75238429665466
      ],
      [
        "Mm",
        -8.752384310285397
      ],
      [
        "DV",
        -8.752392750984612
      ],
      [
        "mq",
        -8.752419042909732
      ],
      [
        "Ko",
        -8.752782897437617
      ],
      [
        "lo",
        -8.752800165287496
      ],
      [
        "LQ",
        -8.752810503645943
      ],
      [
        "ZC",
        -8.752857541093228
      ],
      [
        "og",
        -8.752972829685874
      ],
      [
        "He",
        -8.75300374473615
      ],
      [
        "mD",
        -8.753146837646689
      ],
      [
        "wI",
        -8.753168961158082
      ],
      [
        "HI",
        -8.753230034799063
      ],
      [
        "nT",
        -8.753267843939284
      ],
      [
        "WF",
        -8.753346266133725
      ],
      [
        "IA",
        -8.753472898025926
      ],
      [
        "wN",
        -8.75374416395363
      ],
      [
        "os",
        -8.753756371989518
      ],
      [
        "uv",
        -8.7537728767091
      ],
      [
        "As",
        -8.753944047478345
      ],
      [
        "eg",
        -8.753946590617963
      ],
      [
        "cM",
        -8.754093867257263
      ],
      [
        "Dp",
        -8.754123956372004
      ],
      [
        "AV",
        -8.754191307153778
      ],
      [
        "lJ",
        -8.754313113886024
      ],
      [
        "qs",
        -8.754340536906941
      ],
      [
        "Nl",
        -8.754361602743979
      ],
      [
        "uM",
        -8.75437243585905
      ],
      [
        "TV",
        -8.75437800009906
      ],
      [
        "fo",
        -8.754378317171046
      ],
      [
        "Bx",
        -8.754437562207215
      ],
      [
        "dd",
        -8.754807441626374
      ],
      [
        "mM",
        -8.755085882147451
      ],
      [
        "jp",
        -8.75509346661532
      ],
      [
        "lu",
        -8.755124772722876
      ],
      [
        "OB",
        -8.755178340369074
      ],
      [
        "Gb",
        -8.755319514527192
      ],
      [
        "gl",
        -8.755397093115832
      ],
      [
        "UC",
        -8.755498968046599
      ],
      [
        "DD",
        -8.755511037811964
      ],
      [
        "xX",
        -8.755614517584888
      ],
      [
        "YH",
        -8.755911964383808
      ],
      [
        "RV",
        -8.756121551171455
      ],
      [
        "Yu",
        -8.756172250062065
      ],
      [
        "MT",
        -8.756182441940677
      ],
      [
        "jZ",
        -8.75623963643127
      ],
      [
        "cU",
        -8.756259036548927
      ],
      [
        "CC",
        -8.7562649738571
      ],
      [
        "vp",
        -8.756406739307618
      ],
      [
        "hD",
        -8.756418178325973
      ],
      [
        "QA",
        -8.756419385098202
      ],
      [
        "mC",
        -8.756452970573914
      ],
      [
        "pX",
        -8.756458887682768
      ],
      [
        "RU",
        -8.756470378549597
      ],
      [
        "IU",
        -8.756549005083937
      ],
      [
        "RI",
        -8.7565926752093
      ],
      [
        "ZA",
        -8.756788039316742
      ],
      [
        "gC",
        -8.756806036581334
      ],
      [
        "Yl",
        -8.756820762955659
      ],
      [
        "IW",
        -8.756871646882892
      ],
      [
        "Mb",
        -8.757030620381457
      ],
      [
        "Ap",
        -8.757050955675801
      ],
      [
        "zU",
        -8.757073674808446
      ],
      [
        "Zm",
        -8.757101538607378
      ],
      [
        "jN",
        -8.757112407525717
      ],
      [
        "fT",
        -8.757340902401308
      ],
      [
        "Gq",
        -8.757363555677058
      ],
      [
        "sK",
        -8.757466969050414
      ],
      [
        "pe",
        -8.75749363191423
      ],
      [
        "XK",
        -8.757551569667129
      ],
      [
        "Kb",
        -8.757601243883375
      ],
      [
        "MX",
        -8.757723237906067
      ],
      [
        "LK",
        -8.75781722748606
      ],
      [
        "YB",
        -8.757991328229284
      ],
      [
        "AU",
        -8.758038313974112
      ],
      [
        "AB",
        -8.758327429340646
      ],
      [
        "uW",
        -8.758428820809021
      ],
      [
        "VQ",
        -8.758524916854865
      ],
      [
        "Cl",
        -8.758666847386731
      ],
      [
        "BW",
        -8.758780954941962
      ],
      [
        "Xa",
        -8.758789629423468
      ],
      [
        "KN",
        -8.758919930811892
      ],
      [
        "bv",
        -8.759020078898697
      ],
      [
        "Ch",
        -8.759051697103462
      ],
      [
        "Bz",
        -8.759516195991129
      ],
      [
        "N5",
        -8.759532248971542
      ],
      [
        "rd",
        -8.759612735685984
      ],
      [
        "qT",
        -8.759654913599821
      ],
      [
        "DT",
        -8.759720305004198
      ],
      [
        "xM",
        -8.759943566079565
      ],
      [
        "HL",
        -8.759955841053436
      ],
      [
        "jv",
        -8.760047293671754
      ],
      [
        "lX",
        -8.760190812849093
      ],
      [
        "GA",
        -8.760270293273045
      ],
      [
        "dQ",
        -8.760270853097019
      ],
      [
        "Ta",
        -8.760333049753115
      ],
      [
        "uZ",
        -8.760464118676232
      ],
      [
        "Tn",
        -8.76047930530652
      ],
      [
        "Jb",
        -8.760486900504407
      ],
      [
        "Is",
        -8.760531899695193
      ],
      [
        "on",
        -8.760586687390752
      ],
      [
        "Xm",
        -8.760600236149955
      ],
      [
        "q5",
        -8.76065132511916
      ],
      [
        "nI",
        -8.76074115100614
      ],
      [
        "ZX",
        -8.760798739810252
      ],
      [
        "GZ",
        -8.760798798202755
      ],
      [
        "fM",
        -8.760876924679609
      ],
      [
        "CI",
        -8.760890358830993
      ],
      [
        "JY",
        -8.761350497975885
      ],
      [
        "Aj",
        -8.761420502798167
      ],
      [
        "Dg",
        -8.76148758852275
      ],
      [
        "JL",
        -8.761698512864019
      ],
      [
        "OW",
        -8.761759039707117
      ],
      [
        "aq",
        -8.761768248335104
      ],
      [
        "MH",
        -8.761944044626077
      ],
      [
        "xw",
        -8.761995025333478
      ],
      [
        "MW",
        -8.762057241215292
      ],
      [
        "Cf",
        -8.762183985709939
      ],
      [
        "au",
        -8.762352062149974
      ],
      [
        "GY",
        -8.762566602231995
      ],
      [
        "Tg",
        -8.762619018564486
      ],
      [
        "ya",
        -8.762645638046461
      ],
      [
        "Do",
        -8.762746881511706
      ],
      [
        "wq",
        -8.763096650717731
      ],
      [
        "cZ",
        -8.763165753524065
      ],
      [
        "ou",
        -8.763313349796894
      ],
      [
        "jY",
        -8.763429167798357
      ],
      [
        "jl",
        -8.763494482892497
      ],
      [
        "IL",
        -8.763538914222096
      ],
      [
        "LU",
        -8.76357478931251
      ],
      [
        "ro",
        -8.763613228150113
      ],
      [
        "ao",
        -8.763830908733958
      ],
      [
        "Au",
        -8.763951053594443
      ],
      [
        "HD",
        -8.764059724771002
      ],
      [
        "nG",
        -8.764303182426726
      ],
      [
        "Js",
        -8.764306675962501
      ],
      [
        "sw",
        -8.764393724053104
      ],
      [
        "aK",
        -8.764411510818034
      ],
      [
        "gm",
        -8.764645069060599
      ],
      [
        "bB",
        -8.764922067628756
      ],
      [
        "eL",
        -8.765015204904206
      ],
      [
        "mT",
        -8.76514312942728
      ],
      [
        "Jw",
        -8.765281528208948
      ],
      [
        "aQ",
        -8.765288283319276
      ],
      [
        "vj",
        -8.76530252396155
      ],
      [
        "bX",
        -8.765430344571923
      ],
      [
        "VB",
        -8.765472143136112
      ],
      [
        "Db",
        -8.765519232736253
      ],
      [
        "qO",
        -8.765733041288819
      ],
      [
        "Ah",
        -8.765767219934904
      ],
      [
        "aH",
        -8.765875584679852
      ],
      [
        "dI",
        -8.765898265441304
      ],
      [
        "eB",
        -8.765973072843847
      ],
      [
        "eA",
        -8.766157684245126
      ],
      [
        "vb",
        -8.766203408873707
      ],
      [
        "fz",
        -8.766410660086441
      ],
      [
        "xf",
        -8.766568196640506
      ],
      [
        "Bl",
        -8.766605419480143
      ],
      [
        "TA",
        -8.766640490543011
      ],
      [
        "zp",
        -8.766640850286105
      ],
      [
        "sG",
        -8.766757520758727
      ],
      [
        "DC",
        -8.766775229729934
      ],
      [
        "Wa",
        -8.767015785582927
      ],
      [
        "Yf",
        -8.767166059343353
      ],
      [
        "Yv",
        -8.76720519094544
      ],
      [
        "Xn",
        -8.767405646921073
      ],
      [
        "zo",
        -8.767532532847245
      ],
      [
        "ng",
        -8.76754755339564
      ],
      [
        "YD",
        -8.76757247326001
      ],
      [
        "za",
        -8.767662828166635
      ],
      [
        "IH",
        -8.767736841922915
      ],
      [
        "VV",
        -8.768017481725625
      ],
      [
        "pD",
        -8.76812184460194
      ],
      [
        "XA",
        -8.768362041456804
      ],
      [
        "wX",
        -8.768392098704133
      ],
      [
        "uR",
        -8.768565099201627
      ],
      [
        "fv",
        -8.768634981631491
      ],
      [
        "OY",
        -8.768673023957252
      ],
      [
        "xW",
        -8.768966383097569
      ],
      [
        "Ag",
        -8.769087882667248
      ],
      [
        "Dq",
        -8.769169929856444
      ],
      [
        "pZ",
        -8.76920467658891
      ],
      [
        "uI",
        -8.769378356555046
      ],
      [
        "ej",
        -8.769648039639991
      ],
      [
        "Gf",
        -8.769708730392345
      ],
      [
        "aN",
        -8.76991314348394
      ],
      [
        "jJ",
        -8.769931080236226
      ],
      [
        "mJ",
        -8.770429300237712
      ],
      [
        "Za",
        -8.770637908970354
      ],
      [
        "ZL",
        -8.770790181401708
      ],
      [
        "fA",
        -8.770875317574589
      ],
      [
        "NY",
        -8.770882007638201
      ],
      [
        "Gc",
        -8.770961812076697
      ],
      [
        "bn",
        -8.770966916607707
      ],
      [
        "dr",
        -8.770990482945546
      ],
      [
        "cc",
        -8.771047395364159
      ],
      [
        "ZR",
        -8.771067704192788
      ],
      [
        "wu",
        -8.77120985404541
      ],
      [
        "Zu",
        -8.771309190277961
      ],
      [
        "Cp",
        -8.771311989999553
      ],
      [
        "af",
        -8.771352097227357
      ],
      [
        "XL",
        -8.771519614948811
      ],
      [
        "ml",
        -8.771594122571408
      ],
      [
        "fL",
        -8.771646224090109
      ],
      [
        "pf",
        -8.771669805844827
      ],
      [
        "JD",
        -8.771752910704423
      ],
      [
        "fH",
        -8.771774006011775
      ],
      [
        "RD",
        -8.771803396316916
      ],
      [
        "YA",
        -8.771814011079883
      ],
      [
        "nc",
        -8.771984485840516
      ],
      [
        "dK",
        -8.77218047820699
      ],
      [
        "rR",
        -8.772228052134352
      ],
      [
        "KD",
        -8.772470305532433
      ],
      [
        "CL",
        -8.772477576039403
      ],
      [
        "el",
        -8.772511170803849
      ],
      [
        "bj",
        -8.772616712861655
      ],
      [
        "xK",
        -8.77275500456824
      ],
      [
        "wr",
        -8.772919258995486
      ],
      [
        "rq",
        -8.77293014590066
      ],
      [
        "Xw",
        -8.772942657228587
      ],
      [
        "wz",
        -8.773057525840384
      ],
      [
        "WQ",
        -8.773190435731241
      ],
      [
        "BX",
        -8.773323550737274
      ],
      [
        "nD",
        -8.773353282488682
      ],
      [
        "VZ",
        -8.773733594313553
      ],
      [
        "oG",
        -8.773739800336157
      ],
      [
        "rB",
        -8.773771978128092
      ],
      [
        "nU",
        -8.773868735994578
      ],
      [
        "WB",
        -8.773981840730965
      ],
      [
        "MC",
        -8.774059940301797
      ],
      [
        "MK",
        -8.774075746113695
      ],
      [
        "Ju",
        -8.774108592414542
      ],
      [
        "aW",
        -8.77464909990817
      ],
      [
        "nw",
        -8.774888091420245
      ],
      [
        "rG",
        -8.77518860129352
      ],
      [
        "dM",
        -8.77523471649188
      ],
      [
        "JW",
        -8.775279457018762
      ],
      [
        "VY",
        -8.775506699104653
      ],
      [
        "re",
        -8.775610787718808
      ],
      [
        "eI",
        -8.775793867180376
      ],
      [
        "wf",
        -8.775816596181993
      ],
      [
        "Wz",
        -8.775818606860609
      ],
      [
        "YY",
        -8.775958416719106
      ],
      [
        "YT",
        -8.7762153768809
      ],
      [
        "bN",
        -8.776228494120556
      ],
      [
        "TR",
        -8.776254393640254
      ],
      [
        "Xc",
        -8.776294936599173
      ],
      [
        "Ys",
        -8.77658894468225
      ],
      [
        "xR",
        -8.776602728945509
      ],
      [
        "RW",
        -8.776702455313151
      ],
      [
        "Gv",
        -8.77671273615815
      ],
      [
        "sA",
        -8.776770620197176
      ],
      [
        "In",
        -8.777072865972418
      ],
      [
        "NV",
        -8.777131635414417
      ],
      [
        "Iz",
        -8.777135680710394
      ],
      [
        "cg",
        -8.77715476517692
      ],
      [
        "se",
        -8.77742493283196
      ],
      [
        "Nz",
        -8.777523593972736
      ],
      [
        "BG",
        -8.777604354276594
      ],
      [
        "ql",
        -8.777705158928015
      ],
      [
        "TK",
        -8.777721237151361
      ],
      [
        "Dl",
        -8.777728330114272
      ],
      [
        "cI",
        -8.777825373329343
      ],
      [
        "eh",
        -8.778033269773438
      ],
      [
        "zB",
        -8.778064086497354
      ],
      [
        "DH",
        -8.778182630560547
      ],
      [
        "WK",
        -8.778282038680622
      ],
      [
        "YU",
        -8.778300385014651
      ],
      [
        "uX",
        -8.778716731195294
      ],
      [
        "sv",
        -8.778922546142962
      ],
      [
        "AK",
        -8.779008273454618
      ],
      [
        "qg",
        -8.779066895432337
      ],
      [
        "HY",
        -8.779242906673971
      ],
      [
        "Dh",
        -8.77927493774131
      ],
      [
        "LN",
        -8.779442434727759
      ],
      [
        "jV",
        -8.77953059587172
      ],
      [
        "vT",
        -8.77959155235666
      ],
      [
        "YR",
        -8.77975250133801
      ],
      [
        "wm",
        -8.779829160317213
      ],
      [
        "OG",
        -8.779892333524606
      ],
      [
        "YJ",
        -8.77995168061309
      ],
      [
        "GH",
        -8.77997982434688
      ],
      [
        "wY",
        -8.780146245080482
      ],
      [
        "sq",
        -8.780212615008077
      ],
      [
        "uG",
        -8.780324157057711
      ],
      [
        "wJ",
        -8.780428882584642
      ],
      [
        "QJ",
        -8.780430687084479
      ],
      [
        "A9",
        -8.780677663951957
      ],
      [
        "Kh",
        -8.780699287645643
      ],
      [
        "Qq",
        -8.78107456503097
      ],
      [
        "yX",
        -8.781133584228987
      ],
      [
        "Og",
        -8.781144723841985
      ],
      [
        "UI",
        -8.781188248001119
      ],
      [
        "OD",
        -8.781195359431084
      ],
      [
        "wA",
        -8.781320843529747
      ],
      [
        "oI",
        -8.781346570005113
      ],
      [
        "Wx",
        -8.781375592463075
      ],
      [
        "uL",
        -8.781698065367813
      ],
      [
        "uU",
        -8.781718520053015
      ],
      [
        "Mo",
        -8.782081819965612
      ],
      [
        "CJ",
        -8.78222306946568
      ],
      [
        "Yj",
        -8.782230111313485
      ],
      [
        "Lz",
        -8.782386320320846
      ],
      [
        "ZI",
        -8.782501811224892
      ],
      [
        "Fa",
        -8.782607093313596
      ],
      [
        "lW",
        -8.782765663107671
      ],
      [
        "me",
        -8.782792346342587
      ],
      [
        "pg",
        -8.782905036553899
      ],
      [
        "Oe",
        -8.782914102511548
      ],
      [
        "lc",
        -8.782951231900899
      ],
      [
        "Jv",
        -8.78296673981113
      ],
      [
        "qK",
        -8.783035695783877
      ],
      [
        "lY",
        -8.783119270274465
      ],
      [
        "lI",
        -8.783329067465889
      ],
      [
        "vC",
        -8.78349184840372
      ],
      [
        "Xe",
        -8.783609746997218
      ],
      [
        "BH",
        -8.783620631308182
      ],
      [
        "OJ",
        -8.783747666240457
      ],
      [
        "fV",
        -8.7837636679579
      ],
      [
        "ZV",
        -8.78383427136988
      ],
      [
        "uz",
        -8.78395601106499
      ],
      [
        "Tv",
        -8.784016209119905
      ],
      [
        "AG",
        -8.784074770419181
      ],
      [
        "ND",
        -8.78409650251563
      ],
      [
        "LJ",
        -8.784222877830281
      ],
      [
        "xV",
        -8.78432458636808
      ],
      [
        "TJ",
        -8.784513891655347
      ],
      [
        "sY",
        -8.784706861218716
      ],
      [
        "nY",
        -8.78475049018925
      ],
      [
        "fW",
        -8.784842507066585
      ],
      [
        "Cg",
        -8.784852002104266
      ],
      [
        "lU",
        -8.784994621570027
      ],
      [
        "QU",
        -8.785383635684063
      ],
      [
        "WX",
        -8.785402457784546
      ],
      [
        "HT",
        -8.78542216798336
      ],
      [
        "hq",
        -8.785482286975952
      ],
      [
        "HX",
        -8.785531854272026
      ],
      [
        "XC",
        -8.785573491034597
      ],
      [
        "uJ",
        -8.785702620632144
      ],
      [
        "wD",
        -8.785734989014859
      ],
      [
        "zv",
        -8.785833354378699
      ],
      [
        "pQ",
        -8.786184469290259
      ],
      [
        "xC",
        -8.786242946163242
      ],
      [
        "GG",
        -8.78635408942781
      ],
      [
        "Qg",
        -8.78640991585012
      ],
      [
        "Mq",
        -8.786480038121564
      ],
      [
        "qb",
        -8.786633672745893
      ],
      [
        "Zc",
        -8.786883098150021
      ],
      [
        "OA",
        -8.786929855571444
      ],
      [
        "aT",
        -8.7873261728877
      ],
      [
        "VT",
        -8.787528766309487
      ],
      [
        "wn",
        -8.78773544603594
      ],
      [
        "eJ",
        -8.787950077555827
      ],
      [
        "uQ",
        -8.787975086515342
      ],
      [
        "nQ",
        -8.788041193649676
      ],
      [
        "Lv",
        -8.78807082228613
      ],
      [
        "MJ",
        -8.788117617930784
      ],
      [
        "dZ",
        -8.788119107395318
      ],
      [
        "yL",
        -8.788373430143732
      ],
      [
        "AN",
        -8.788417409374627
      ],
      [
        "AI",
        -8.78843059000397
      ],
      [
        "WG",
        -8.788576688535397
      ],
      [
        "GC",
        -8.78858851743335
      ],
      [
        "AW",
        -8.788975124505289
      ],
      [
        "DU",
        -8.789147518703324
      ],
      [
        "CY",
        -8.789186756679015
      ],
      [
        "dW",
        -8.789389692905473
      ],
      [
        "qD",
        -8.789542458034997
      ],
      [
        "ZH",
        -8.789583514034184
      ],
      [
        "Yn",
        -8.789812272933563
      ],
      [
        "cp",
        -8.789847524829874
      ],
      [
        "cA",
        -8.790169911367077
      ],
      [
        "xm",
        -8.790600728908688
      ],
      [
        "HC",
        -8.791045560735053
      ],
      [
        "GV",
        -8.791063490872988
      ],
      [
        "Df",
        -8.791273265499054
      ],
      [
        "vG",
        -8.791316925363532
      ],
      [
        "XT",
        -8.791378477804818
      ],
      [
        "jL",
        -8.791584559391222
      ],
      [
        "bL",
        -8.791597832765238
      ],
      [
        "Iq",
        -8.791752664182408
      ],
      [
        "xQ",
        -8.791803626535
      ],
      [
        "Zw",
        -8.79184645973194
      ],
      [
        "uK",
        -8.792121176841984
      ],
      [
        "Rf",
        -8.792183168413565
      ],
      [
        "Rh",
        -8.792233856727188
      ],
      [
        "lq",
        -8.792364800093182
      ],
      [
        "Qp",
        -8.792473435439266
      ],
      [
        "rA",
        -8.792519820864332
      ],
      [
        "ZY",
        -8.792521018321828
      ],
      [
        "fm",
        -8.792544307722256
      ],
      [
        "UY",
        -8.792574476737077
      ],
      [
        "lp",
        -8.792620330673564
      ],
      [
        "fe",
        -8.792654625773572
      ],
      [
        "mL",
        -8.792825448353442
      ],
      [
        "jc",
        -8.792833998318368
      ],
      [
        "Ww",
        -8.792921109398426
      ],
      [
        "Yc",
        -8.792931952578595
      ],
      [
        "tW",
        -8.79319938731316
      ],
      [
        "oA",
        -8.793267708356847
      ],
      [
        "HQ",
        -8.79339366072628
      ],
      [
        "Cv",
        -8.79341065535003
      ],
      [
        "Lb",
        -8.793483831898172
      ],
      [
        "fw",
        -8.793520495296326
      ],
      [
        "WN",
        -8.793649040121224
      ],
      [
        "Uv",
        -8.793765104366415
      ],
      [
        "HJ",
        -8.793895034084944
      ],
      [
        "Wh",
        -8.793996422493802
      ],
      [
        "ve",
        -8.794331161460939
      ],
      [
        "aZ",
        -8.794344651629839
      ],
      [
        "XM",
        -8.794523463347176
      ],
      [
        "BN",
        -8.794620041954715
      ],
      [
        "po",
        -8.79467669980772
      ],
      [
        "sQ",
        -8.794743659863556
      ],
      [
        "Qb",
        -8.794829573403373
      ],
      [
        "aX",
        -8.794900378062964
      ],
      [
        "Ip",
        -8.794980755461939
      ],
      [
        "gq",
        -8.795500232743654
      ],
      [
        "Gp",
        -8.795572632228984
      ],
      [
        "dJ",
        -8.795879809887065
      ],
      [
        "uA",
        -8.796033557175
      ],
      [
        "zJ",
        -8.796236854735747
      ],
      [
        "cD",
        -8.796277711369639
      ],
      [
        "Wd",
        -8.79629171483873
      ],
      [
        "Th",
        -8.796315652257029
      ],
      [
        "Wc",
        -8.796366453749986
      ],
      [
        "Oc",
        -8.796702761288408
      ],
      [
        "oh",
        -8.796713798632798
      ],
      [
        "Hz",
        -8.796793334898302
      ],
      [
        "Zq",
        -8.796937540985871
      ],
      [
        "pq",
        -8.796964422680919
      ],
      [
        "Hg",
        -8.797165146331764
      ],
      [
        "uD",
        -8.79721582659202
      ],
      [
        "HG",
        -8.797244543660936
      ],
      [
        "dT",
        -8.797303710436038
      ],
      [
        "Hv",
        -8.797360870997299
      ],
      [
        "so",
        -8.79736112756416
      ],
      [
        "rH",
        -8.797874146693207
      ],
      [
        "XJ",
        -8.797880719307713
      ],
      [
        "yQ",
        -8.797890002198606
      ],
      [
        "bl",
        -8.798000374462587
      ],
      [
        "Wn",
        -8.798810362622822
      ],
      [
        "xb",
        -8.79884317672736
      ],
      [
        "vn",
        -8.798987686936593
      ],
      [
        "zc",
        -8.799380503183578
      ],
      [
        "jG",
        -8.799472939729567
      ],
      [
        "Rb",
        -8.799505934226683
      ],
      [
        "ZB",
        -8.79955519058382
      ],
      [
        "Ic",
        -8.799596898911059
      ],
      [
        "Gl",
        -8.799796257841663
      ],
      [
        "Lo",
        -8.799845504930639
      ],
      [
        "Jg",
        -8.799908253528525
      ],
      [
        "JV",
        -8.800246250302727
      ],
      [
        "eb",
        -8.800336153482245
      ],
      [
        "bC",
        -8.80034257618946
      ],
      [
        "lf",
        -8.800515274427212
      ],
      [
        "BD",
        -8.800632194113259
      ],
      [
        "Wg",
        -8.800880976300117
      ],
      [
        "YG",
        -8.801135878421405
      ],
      [
        "mQ",
        -8.801147642707418
      ],
      [
        "Bc",
        -8.80126004426613
      ],
      [
        "nC",
        -8.801421118533593
      ],
      [
        "TD",
        -8.801542170906796
      ],
      [
        "gL",
        -8.801559831325545
      ],
      [
        "Xv",
        -8.801577145184316
      ],
      [
        "KT",
        -8.801639853367188
      ],
      [
        "Xf",
        -8.801752726568251
      ],
      [
        "yJ",
        -8.801765849243633
      ],
      [
        "UK",
        -8.801926211005826
      ],
      [
        "RB",
        -8.802316004319938
      ],
      [
        "mv",
        -8.802409354151202
      ],
      [
        "dq",
        -8.802533515285372
      ],
      [
        "Nh",
        -8.802632801424586
      ],
      [
        "aw",
        -8.803721854037036
      ],
      [
        "Uc",
        -8.803765104508336
      ],
      [
        "pG",
        -8.803837263870408
      ],
      [
        "Me",
        -8.80434160053137
      ],
      [
        "Tw",
        -8.80459330180602
      ],
      [
        "ch",
        -8.805107391508988
      ],
      [
        "Jq",
        -8.80516700747879
      ],
      [
        "ub",
        -8.805227997064977
      ],
      [
        "dA",
        -8.805552035836609
      ],
      [
        "No",
        -8.805712280072443
      ],
      [
        "Tp",
        -8.805805244970607
      ],
      [
        "Mg",
        -8.80582050626554
      ],
      [
        "LD",
        -8.806017032796408
      ],
      [
        "XI",
        -8.80604464796454
      ],
      [
        "ZQ",
        -8.806160395893109
      ],
      [
        "pv",
        -8.806468204509926
      ],
      [
        "uC",
        -8.806500598726885
      ],
      [
        "Mp",
        -8.806639009633187
      ],
      [
        "OI",
        -8.806713968082429
      ],
      [
        "yf",
        -8.806721520790138
      ],
      [
        "GB",
        -8.807028133482346
      ],
      [
        "Lq",
        -8.807328585385084
      ],
      [
        "Vl",
        -8.80736301824992
      ],
      [
        "ul",
        -8.807430284017133
      ],
      [
        "mN",
        -8.807640237848123
      ],
      [
        "zm",
        -8.807835759032344
      ],
      [
        "oT",
        -8.807949612156756
      ],
      [
        "Ro",
        -8.80799722152751
      ],
      [
        "wo",
        -8.808032263010416
      ],
      [
        "Tq",
        -8.80807922929938
      ],
      [
        "XV",
        -8.808238251379425
      ],
      [
        "rf",
        -8.808448289556528
      ],
      [
        "Ig",
        -8.808554246832529
      ],
      [
        "Oq",
        -8.80861766438791
      ],
      [
        "xG",
        -8.808870121894953
      ],
      [
        "Mv",
        -8.80890341979586
      ],
      [
        "Lc",
        -8.808904574693646
      ],
      [
        "OC",
        -8.808983605361494
      ],
      [
        "mR",
        -8.809387864031304
      ],
      [
        "Mc",
        -8.809389172262211
      ],
      [
        "IT",
        -8.809502895284144
      ],
      [
        "JB",
        -8.809507392252586
      ],
      [
        "Xl",
        -8.809869631290056
      ],
      [
        "rw",
        -8.809923221541514
      ],
      [
        "yY",
        -8.809927040067226
      ],
      [
        "Qv",
        -8.810055040429834
      ],
      [
        "mb",
        -8.810092218940937
      ],
      [
        "aD",
        -8.810155418137665
      ],
      [
        "rc",
        -8.810163372870267
      ],
      [
        "iJ",
        -8.810566262078392
      ],
      [
        "wC",
        -8.810587540220794
      ],
      [
        "pm",
        -8.810785105163042
      ],
      [
        "Bo",
        -8.810798213169472
      ],
      [
        "zz",
        -8.810894686888426
      ],
      [
        "Xg",
        -8.810988589833448
      ],
      [
        "Kg",
        -8.811247257079295
      ],
      [
        "Fb",
        -8.811918355538566
      ],
      [
        "Hq",
        -8.811936227438501
      ],
      [
        "rJ",
        -8.812180794135998
      ],
      [
        "fI",
        -8.812194433723441
      ],
      [
        "rb",
        -8.812218955669493
      ],
      [
        "Lp",
        -8.812436015361573
      ],
      [
        "pc",
        -8.812446722265193
      ],
      [
        "Xo",
        -8.812478229264759
      ],
      [
        "da",
        -8.812670778725833
      ],
      [
        "WY",
        -8.812699745989093
      ],
      [
        "xo",
        -8.812765065767536
      ],
      [
        "RG",
        -8.812777950203674
      ],
      [
        "Xz",
        -8.812973494578742
      ],
      [
        "Oo",
        -8.81297623033771
      ],
      [
        "QQ",
        -8.812994037281063
      ],
      [
        "wg",
        -8.813134671334705
      ],
      [
        "eo",
        -8.813331407560977
      ],
      [
        "VL",
        -8.813338821443256
      ],
      [
        "pl",
        -8.813533266479839
      ],
      [
        "aI",
        -8.813706891413117
      ],
      [
        "XR",
        -8.813952845678491
      ],
      [
        "QK",
        -8.814262494195452
      ],
      [
        "pN",
        -8.814755786310458
      ],
      [
        "Qh",
        -8.814826019187713
      ],
      [
        "Fw",
        -8.815328409313143
      ],
      [
        "zD",
        -8.8155986599082
      ],
      [
        "fh",
        -8.815659772503054
      ],
      [
        "nV",
        -8.81579657658606
      ],
      [
        "eV",
        -8.81579725906242
      ],
      [
        "Ne",
        -8.816076666133792
      ],
      [
        "JU",
        -8.8169537462541
      ],
      [
        "up",
        -8.81696203622695
      ],
      [
        "Zl",
        -8.817100628038194
      ],
      [
        "0W",
        -8.817282385285873
      ],
      [
        "rl",
        -8.817498985807699
      ],
      [
        "Ih",
        -8.817769882590827
      ],
      [
        "ug",
        -8.81788955885909
      ],
      [
        "oO",
        -8.817905517207278
      ],
      [
        "RQ",
        -8.818318881309503
      ],
      [
        "pw",
        -8.818644853353
      ],
      [
        "rm",
        -8.818686237421915
      ],
      [
        "ab",
        -8.819113557744123
      ],
      [
        "wK",
        -8.819173224109537
      ],
      [
        "dN",
        -8.819195455387469
      ],
      [
        "Le",
        -8.819198419554333
      ],
      [
        "Zb",
        -8.819398962695445
      ],
      [
        "Wq",
        -8.819473237298851
      ],
      [
        "lh",
        -8.820104319736041
      ],
      [
        "VX",
        -8.82044314325504
      ],
      [
        "aM",
        -8.820550347218301
      ],
      [
        "uh",
        -8.820750748359426
      ],
      [
        "Mf",
        -8.820921353642621
      ],
      [
        "jC",
        -8.820994516581735
      ],
      [
        "fC",
        -8.821092224016718
      ],
      [
        "BL",
        -8.82111070908675
      ],
      [
        "vg",
        -8.821213334796907
      ],
      [
        "Ll",
        -8.821375078346863
      ],
      [
        "rL",
        -8.821540785030088
      ],
      [
        "rM",
        -8.821617528640335
      ],
      [
        "ag",
        -8.821814688430168
      ],
      [
        "mg",
        -8.82198258492955
      ],
      [
        "xB",
        -8.822185772241546
      ],
      [
        "Dz",
        -8.822519354767817
      ],
      [
        "Ov",
        -8.82266949103029
      ],
      [
        "KU",
        -8.823194250590879
      ],
      [
        "fG",
        -8.82333004230032
      ],
      [
        "JT",
        -8.824307310266606
      ],
      [
        "ZD",
        -8.824376543449393
      ],
      [
        "Oh",
        -8.824408169421119
      ],
      [
        "XB",
        -8.824442647149183
      ],
      [
        "fD",
        -8.824459456055433
      ],
      [
        "zC",
        -8.824772716648708
      ],
      [
        "xN",
        -8.824980028534153
      ],
      [
        "Rq",
        -8.825185965232805
      ],
      [
        "aC",
        -8.825203287238388
      ],
      [
        "Vv",
        -8.82541149393656
      ],
      [
        "um",
        -8.825444246126965
      ],
      [
        "fK",
        -8.826000924374139
      ],
      [
        "Zo",
        -8.826093370919073
      ],
      [
        "HB",
        -8.826281906323448
      ],
      [
        "Jz",
        -8.82661093260278
      ],
      [
        "IN",
        -8.826643118104135
      ],
      [
        "Zz",
        -8.826760927704578
      ],
      [
        "lD",
        -8.827153527593225
      ],
      [
        "eU",
        -8.827350425904227
      ],
      [
        "CQ",
        -8.827472374395871
      ],
      [
        "0w",
        -8.828134141526093
      ],
      [
        "yo",
        -8.828866145818578
      ],
      [
        "Hb",
        -8.828943659264601
      ],
      [
        "aB",
        -8.82916760614918
      ],
      [
        "Nw",
        -8.82933135550893
      ],
      [
        "Jo",
        -8.829405650177666
      ],
      [
        "Zv",
        -8.829422340929499
      ],
      [
        "bh",
        -8.829568751545978
      ],
      [
        "ra",
        -8.829625206435654
      ],
      [
        "Wm",
        -8.82985306747496
      ],
      [
        "Qw",
        -8.82985967590535
      ],
      [
        "zq",
        -8.830102051955079
      ],
      [
        "dL",
        -8.830218635203366
      ],
      [
        "IJ",
        -8.830498511317249
      ],
      [
        "iA",
        -8.830846816687831
      ],
      [
        "Yb",
        -8.83120739597847
      ],
      [
        "ZN",
        -8.832431187409252
      ],
      [
        "az",
        -8.832520165880666
      ],
      [
        "IC",
        -8.832531896481399
      ],
      [
        "aU",
        -8.83261837463398
      ],
      [
        "rz",
        -8.832760597885638
      ],
      [
        "Vw",
        -8.833228257811905
      ],
      [
        "Bq",
        -8.833420993375857
      ],
      [
        "Ob",
        -8.833462995576443
      ],
      [
        "zh",
        -8.83348900594153
      ],
      [
        "BQ",
        -8.833904166003597
      ],
      [
        "zA",
        -8.83396811698092
      ],
      [
        "rg",
        -8.834875937070906
      ],
      [
        "rp",
        -8.835061641518525
      ],
      [
        "sU",
        -8.835107792696885
      ],
      [
        "Jl",
        -8.835216324625861
      ],
      [
        "VG",
        -8.835423869479282
      ],
      [
        "Dw",
        -8.835611873001103
      ],
      [
        "rI",
        -8.835683676251888
      ],
      [
        "Xq",
        -8.8363101138115
      ],
      [
        "XD",
        -8.836548330607512
      ],
      [
        "jQ",
        -8.836780509347278
      ],
      [
        "aJ",
        -8.837267900373984
      ],
      [
        "fB",
        -8.837565479393156
      ],
      [
        "Kv",
        -8.837902259677913
      ],
      [
        "yD",
        -8.838239628579217
      ],
      [
        "Vh",
        -8.838715711433398
      ],
      [
        "GR",
        -8.838840496299927
      ],
      [
        "Kc",
        -8.839015765955011
      ],
      [
        "dD",
        -8.839797551879606
      ],
      [
        "Nc",
        -8.840194271861222
      ],
      [
        "tw",
        -8.841223387235544
      ],
      [
        "Al",
        -8.841677049387123
      ],
      [
        "Nu",
        -8.842167802792527
      ],
      [
        "XQ",
        -8.842423443946352
      ],
      [
        "FC",
        -8.842991855264383
      ],
      [
        "NC",
        -8.843214231449892
      ],
      [
        "fQ",
        -8.843500610398735
      ],
      [
        "rD",
        -8.843779213588558
      ],
      [
        "Qm",
        -8.843789377424773
      ],
      [
        "HW",
        -8.844074266331823
      ],
      [
        "fq",
        -8.844342990260056
      ],
      [
        "wT",
        -8.844587228033724
      ],
      [
        "Hl",
        -8.844833276592265
      ],
      [
        "Yg",
        -8.845017679738984
      ],
      [
        "mU",
        -8.845261018803756
      ],
      [
        "cv",
        -8.845837424209229
      ],
      [
        "iw",
        -8.845981682534664
      ],
      [
        "ol",
        -8.846460127514241
      ],
      [
        "XG",
        -8.846736755895291
      ],
      [
        "dR",
        -8.846861987471877
      ],
      [
        "ah",
        -8.847086949933521
      ],
      [
        "ac",
        -8.847941070191442
      ],
      [
        "xD",
        -8.848052362484452
      ],
      [
        "Ze",
        -8.848581179086736
      ],
      [
        "sC",
        -8.848761230221797
      ],
      [
        "yw",
        -8.848766007723373
      ],
      [
        "eq",
        -8.849573995187718
      ],
      [
        "Wv",
        -8.849606917063387
      ],
      [
        "wU",
        -8.849679849805486
      ],
      [
        "jb",
        -8.850572582907223
      ],
      [
        "Wo",
        -8.850828709933253
      ],
      [
        "FL",
        -8.851600391657659
      ],
      [
        "Jc",
        -8.851850172713505
      ],
      [
        "Co",
        -8.851935883605167
      ],
      [
        "FG",
        -8.85340505475924
      ],
      [
        "Wb",
        -8.854111543608084
      ],
      [
        "dB",
        -8.854299806146791
      ],
      [
        "yT",
        -8.85430321760149
      ],
      [
        "rv",
        -8.854460582975292
      ],
      [
        "fN",
        -8.855031299664468
      ],
      [
        "bA",
        -8.855162125502176
      ],
      [
        "FT",
        -8.855770458814167
      ],
      [
        "yb",
        -8.855776743472344
      ],
      [
        "Iv",
        -8.855859399219245
      ],
      [
        "Zg",
        -8.856857249920655
      ],
      [
        "df",
        -8.857052988710777
      ],
      [
        "Yq",
        -8.857058338632823
      ],
      [
        "yC",
        -8.857746198631057
      ],
      [
        "Mh",
        -8.858078695655845
      ],
      [
        "fU",
        -8.85821557244158
      ],
      [
        "rT",
        -8.858492234212932
      ],
      [
        "Xh",
        -8.858916298369042
      ],
      [
        "mA",
        -8.8590672734882
      ],
      [
        "al",
        -8.859903568870976
      ],
      [
        "rY",
        -8.861015554407368
      ],
      [
        "xI",
        -8.861527100134216
      ],
      [
        "FB",
        -8.861592966050216
      ],
      [
        "ap",
        -8.861867714353163
      ],
      [
        "wc",
        -8.862424807599517
      ],
      [
        "0e",
        -8.862629907069252
      ],
      [
        "FA",
        -8.862861171079658
      ],
      [
        "WT",
        -8.863314142447727
      ],
      [
        "wQ",
        -8.863833936636578
      ],
      [
        "rQ",
        -8.865614142618186
      ],
      [
        "BR",
        -8.86561948551688
      ],
      [
        "qv",
        -8.86563448859807
      ],
      [
        "db",
        -8.866239533750214
      ],
      [
        "RC",
        -8.866453982832171
      ],
      [
        "LC",
        -8.86718077522398
      ],
      [
        "CK",
        -8.867592414680013
      ],
      [
        "ZJ",
        -8.868005376822854
      ],
      [
        "Rv",
        -8.86817340268972
      ],
      [
        "ib",
        -8.868322327164606
      ],
      [
        "Rw",
        -8.869610242342375
      ],
      [
        "rh",
        -8.869684668708846
      ],
      [
        "dz",
        -8.870022086800489
      ],
      [
        "MD",
        -8.87016502824936
      ],
      [
        "FJ",
        -8.870294120305958
      ],
      [
        "rC",
        -8.870637376344622
      ],
      [
        "HA",
        -8.870789999100268
      ],
      [
        "xq",
        -8.87089752988251
      ],
      [
        "aG",
        -8.871536117080911
      ],
      [
        "xc",
        -8.87155070962227
      ],
      [
        "GU",
        -8.871581985018855
      ],
      [
        "Fg",
        -8.872007750281352
      ],
      [
        "aL",
        -8.872489654823026
      ],
      [
        "sJ",
        -8.873146182247254
      ],
      [
        "xe",
        -8.873605095592872
      ],
      [
        "Ho",
        -8.874343757157245
      ],
      [
        "pC",
        -8.874782054686168
      ],
      [
        "BU",
        -8.874918814212524
      ],
      [
        "Bw",
        -8.874992157878955
      ],
      [
        "iv",
        -8.87573897570499
      ],
      [
        "FI",
        -8.87574595570935
      ],
      [
        "FN",
        -8.876142414171891
      ],
      [
        "Bh",
        -8.877381049816286
      ],
      [
        "Hh",
        -8.878580793934333
      ],
      [
        "LG",
        -8.87869086777112
      ],
      [
        "0o",
        -8.878898449360284
      ],
      [
        "ph",
        -8.879109402620372
      ],
      [
        "JK",
        -8.87951448232267
      ],
      [
        "MQ",
        -8.880473162946082
      ],
      [
        "ZK",
        -8.880827104510542
      ],
      [
        "dv",
        -8.881442342692278
      ],
      [
        "Wu",
        -8.881866563521541
      ],
      [
        "yv",
        -8.882147161139876
      ],
      [
        "Bm",
        -8.882744985564093
      ],
      [
        "dc",
        -8.882858169252557
      ],
      [
        "fY",
        -8.883003395662616
      ],
      [
        "rV",
        -8.883462317475033
      ],
      [
        "aA",
        -8.883490262879747
      ],
      [
        "av",
        -8.884312774843341
      ],
      [
        "WU",
        -8.884589450441187
      ],
      [
        "rN",
        -8.884696312268169
      ],
      [
        "yA",
        -8.888814706371933
      ],
      [
        "FY",
        -8.890557220650903
      ],
      [
        "xU",
        -8.892443103400304
      ],
      [
        "0Y",
        -8.894821870797042
      ],
      [
        "NG",
        -8.895690500012272
      ],
      [
        "Yp",
        -8.897335530393981
      ],
      [
        "zQ",
        -8.902828906881137
      ],
      [
        "ZU",
        -8.90598487005089
      ],
      [
        "Fq",
        -8.907773060014929
      ],
      [
        "Fo",
        -8.908262154589
      ],
      [
        "HU",
        -8.911165033812035
      ],
      [
        "ZG",
        -8.913718079704779
      ],
      [
        "Zh",
        -8.921754471524267
      ],
      [
        "dg",
        -8.930887969902297
      ],
      [
        "0A",
        -8.933125902445308
      ],
      [
        "xY",
        -8.939522697525636
      ],
      [
        "do",
        -8.94008055565484
      ]
    ],
    "byte_fallback": false
  }
}