{
  "version": "1.0",
  "truncation": null,
  "padding": null,
  "added_tokens": [
    {
      "id": 0,
      "content": "[PAD]",
      "single_word": false,
      "lstrip": false,
      "rstrip": false,
      "normalized": false,
      "special": true
    },
    {
      "id": 1,
      "content": "[UNK]",
      "single_word": false,
      "lstrip": false,
      "rstrip": false,
      "normalized": false,
      "special": true
    },
    {
      "id": 2,
      "content": "[CLS]",
      "single_word": false,
      "lstrip": false,
      "rstrip": false,
      "normalized": false,
      "special": true
    },
    {
      "id": 3,
      "content": "[SEP]",
      "single_word": false,
      "lstrip": false,
      "rstrip": false,
      "normalized": false,
      "special": true
    },
    {
      "id": 4,
      "content": "[MASK]",
      "single_word": false,
      "lstrip": false,
      "rstrip": false,
      "normalized": false,
      "special": true
    }
  ],
  "normalizer": {
    "type": "NFKC"
  },
  "pre_tokenizer": {
    "type": "Whitespace"
  },
  "post_processor": null,
  "decoder": null,
  "model": {
    "type": "Unigram",
    "unk_id": null,
    "vocab": [
      [
        "[PAD]",
        0.0
      ],
      [
        "[UNK]",
        0.0
      ],
      [
        "[CLS]",
        0.0
      ],
      [
        "[SEP]",
        0.0
      ],
      [
        "[MASK]",
        0.0
      ],
      [
        ">",
        -3.508367793020657
      ],
      [
        "<",
        -3.508367793020657
      ],
      [
        "=",
        -3.5571581952861013
      ],
      [
        "SEP",
        -3.6086190728183514
      ],
      [
        "k",
        -3.872535761785409
      ],
      [
        "S",
        -3.8843054820685285
      ],
      [
        "1",
        -3.9019318328955173
      ],
      [
        "7",
        -3.93517047383771
      ],
      [
        "2",
        -3.938920511226083
      ],
      [
        "4",
        -3.9419137894370593
      ],
      [
        "E",
        -3.9514673633684954
      ],
      [
        "P",
        -3.955463053562191
      ],
      [
        "5",
        -4.012609564297287
      ],
      [
        "9",
        -4.046041589481115
      ],
      [
        "3",
        -4.057975276662535
      ],
      [
        "6",
        -4.179112595495365
      ],
      [
        "8",
        -4.2462128127976975
      ],
      [
        "t",
        -4.254022994111654
      ],
      [
        "0",
        -4.370500745951389
      ],
      [
        "i",
        -4.375055318694814
      ],
      [
        "s",
        -4.604816803105653
      ],
      [
        "F",
        -4.6499646049748975
      ],
      [
        "O",
        -4.709675556444447
      ],
      [
        "y",
        -4.725495839618526
      ],
      [
        "j",
        -4.729209794954009
      ],
      [
        "n",
        -4.78024189087871
      ],
      [
        "x",
        -4.903720662359749
      ],
      [
        "H",
        -5.072109508876196
      ],
      [
        "u",
        -5.157200650188827
      ],
      [
        "d",
        -5.192544990709186
      ],
      [
        "R",
        -5.192918248518993
      ],
      [
        "Z",
        -5.194666819817748
      ],
      [
        "r",
        -5.226018492049558
      ],
      [
        "M",
        -5.25878485678691
      ],
      [
        "X",
        -5.315119004851947
      ],
      [
        "z",
        -5.317134698917073
      ],
      [
        "m",
        -5.3325511071421285
      ],
      [
        "p",
        -5.3466700328198105
      ],
      [
        "l",
        -5.370805322413505
      ],
      [
        "V",
        -5.398055216915079
      ],
      [
        "f",
        -5.430190428589354
      ],
      [
        "K",
        -5.445787105435789
      ],
      [
        "L",
        -5.475743701652897
      ],
      [
        "a",
        -5.499716598777855
      ],
      [
        "c",
        -5.52496680565163
      ],
      [
        "W",
        -5.547204814804848
      ],
      [
        "h",
        -5.560017162820898
      ],
      [
        "e",
        -5.564303635624539
      ],
      [
        "I",
        -5.5674744433761845
      ],
      [
        "G",
        -5.57425016476544
      ],
      [
        "D",
        -5.579004728557271
      ],
      [
        "Q",
        -5.595426012592526
      ],
      [
        "g",
        -5.617119099175257
      ],
      [
        "B",
        -5.640137111053393
      ],
      [
        "J",
        -5.642067388158649
      ],
      [
        "T",
        -5.65383701448952
      ],
      [
        "A",
        -5.700119666635905
      ],
      [
        "U",
        -5.71627358301372
      ],
      [
        "b",
        -5.73061355776106
      ],
      [
        "w",
        -5.742222644234552
      ],
      [
        "Y",
        -5.744373985686726
      ],
      [
        "N",
        -5.746173090391647
      ],
      [
        "C",
        -5.757996015373299
      ],
      [
        "v",
        -5.807569058351628
      ],
      [
        "q",
        -5.859494616795413
      ],
      [
        "o",
        -5.86261115892051
      ],
      [
        "k1",
        -6.460574736137145
      ],
      [
        "k0",
        -6.492520159971306
      ],
      [
        "k6",
        -6.509665551147862
      ],
      [
        "k8",
        -6.511139143007618
      ],
      [
        "sig",
        -6.549217893288045
      ],
      [
        "REC",
        -6.5495739830858675
      ],
      [
        "END",
        -6.550371385869552
      ],
      [
        "nal",
        -6.55113375639915
      ],
      [
        "k9",
        -6.552927708591289
      ],
      [
        "_",
        -6.552985472165092
      ],
      [
        "k3",
        -6.5562066275919335
      ],
      [
        "k5",
        -6.566922460322152
      ],
      [
        "k18",
        -6.567663344814953
      ],
      [
        "k16",
        -6.5684494339142745
      ],
      [
        "k13",
        -6.570785323225017
      ],
      [
        "k19",
        -6.573540928153575
      ],
      [
        "k15",
        -6.573772132255318
      ],
      [
        "k12",
        -6.574948869971619
      ],
      [
        "k14",
        -6.575076293131399
      ],
      [
        "k11",
        -6.575372908525251
      ],
      [
        "k17",
        -6.576195354680037
      ],
      [
        "k7",
        -6.5844100960121335
      ],
      [
        "k2",
        -6.596373263276156
      ],
      [
        "k4",
        -6.606101419312795
      ],
      [
        "bZ",
        -8.504516011024851
      ],
      [
        "vF",
        -8.524734990232993
      ],
      [
        "hR",
        -8.535667683069763
      ],
      [
        "bF",
        -8.554357481663466
      ],
      [
        "UR",
        -8.555273077390925
      ],
      [
        "hd",
        -8.56000843360631
      ],
      [
        "o8",
        -8.560426184273876
      ],
      [
        "UF",
        -8.560854386510826
      ],
      [
        "h8",
        -8.567268114036885
      ],
      [
        "hQ",
        -8.571957704852904
      ],
      [
        "oa",
        -8.573961070998864
      ],
      [
        "Gx",
        -8.57627706326242
      ],
      [
        "Ut",
        -8.57880089677687
      ],
      [
        "Cx",
        -8.57890328183699
      ],
      [
        "Ui",
        -8.580193351958023
      ],
      [
        "AF",
        -8.58133541262521
      ],
      [
        "Di",
        -8.581670933083403
      ],
      [
        "Gd",
        -8.582098461000903
      ],
      [
        "zF",
        -8.58358186885581
      ],
      [
        "TF",
        -8.585699429829148
      ],
      [
        "mW",
        -8.586338817795358
      ],
      [
        "h0",
        -8.586375377622002
      ],
      [
        "bY",
        -8.587145567483034
      ],
      [
        "lF",
        -8.58749157613007
      ],
      [
        "hf",
        -8.587596052779901
      ],
      [
        "hN",
        -8.587778705057683
      ],
      [
        "bi",
        -8.588750987655082
      ],
      [
        "bd",
        -8.588792760380443
      ],
      [
        "va",
        -8.589277147908309
      ],
      [
        "hr",
        -8.589979463858658
      ],
      [
        "l0",
        -8.592575203364575
      ],
      [
        "W8",
        -8.592905359743604
      ],
      [
        "Td",
        -8.593303734087517
      ],
      [
        "vr",
        -8.594975868375714
      ],
      [
        "Gi",
        -8.594982702345185
      ],
      [
        "cy",
        -8.595639124834966
      ],
      [
        "L0",
        -8.595751155258501
      ],
      [
        "c8",
        -8.595805778861044
      ],
      [
        "I6",
        -8.596614177499386
      ],
      [
        "my",
        -8.597246512553726
      ],
      [
        "gJ",
        -8.598261908323739
      ],
      [
        "ld",
        -8.598966203107569
      ],
      [
        "LF",
        -8.601305416030566
      ],
      [
        "Ux",
        -8.601383753347553
      ],
      [
        "h6",
        -8.601850926156004
      ],
      [
        "T8",
        -8.60191020770121
      ],
      [
        "DF",
        -8.602327000648259
      ],
      [
        "qr",
        -8.602822418038297
      ],
      [
        "KF",
        -8.603162965191963
      ],
      [
        "vx",
        -8.60371657309408
      ],
      [
        "oc",
        -8.603909719029813
      ],
      [
        "gV",
        -8.60513069858196
      ],
      [
        "Uy",
        -8.6063572219586
      ],
      [
        "py",
        -8.606368591367648
      ],
      [
        "p8",
        -8.607419810228853
      ],
      [
        "vu",
        -8.607760831660979
      ],
      [
        "c0",
        -8.60840450040632
      ],
      [
        "Ny",
        -8.608560038648616
      ],
      [
        "gd",
        -8.609221184823856
      ],
      [
        "GF",
        -8.609399863750419
      ],
      [
        "hF",
        -8.609729945202256
      ],
      [
        "hH",
        -8.611342136219832
      ],
      [
        "vR",
        -8.611510571510145
      ],
      [
        "ha",
        -8.61191403762762
      ],
      [
        "gx",
        -8.61212177700894
      ],
      [
        "Aw",
        -8.613242863135438
      ],
      [
        "V8",
        -8.613476367137096
      ],
      [
        "J8",
        -8.61366201234533
      ],
      [
        "MF",
        -8.614116979754847
      ],
      [
        "Ky",
        -8.614179849536955
      ],
      [
        "C8",
        -8.615130098218465
      ],
      [
        "vf",
        -8.61518436173925
      ],
      [
        "IZ",
        -8.61518514912558
      ],
      [
        "qX",
        -8.61528588306917
      ],
      [
        "Qe",
        -8.616025699406785
      ],
      [
        "Bf",
        -8.616479299104077
      ],
      [
        "vZ",
        -8.616920007629712
      ],
      [
        "UZ",
        -8.616998398607933
      ],
      [
        "hi",
        -8.61736709032812
      ],
      [
        "CB",
        -8.617645266548589
      ],
      [
        "uF",
        -8.617771971108942
      ],
      [
        "CO",
        -8.617844992856707
      ],
      [
        "uf",
        -8.617921726316922
      ],
      [
        "A8",
        -8.618488452504248
      ],
      [
        "Um",
        -8.61856817996421
      ],
      [
        "fx",
        -8.618601227144293
      ],
      [
        "hX",
        -8.618875479107283
      ],
      [
        "pr",
        -8.619096115592235
      ],
      [
        "Hn",
        -8.61970492549722
      ],
      [
        "Ir",
        -8.619833618927375
      ],
      [
        "G6",
        -8.620064314455368
      ],
      [
        "lH",
        -8.62021921142929
      ],
      [
        "g6",
        -8.620755741330836
      ],
      [
        "UQ",
        -8.620942034674318
      ],
      [
        "BZ",
        -8.621627597425483
      ],
      [
        "Vr",
        -8.62197491472358
      ],
      [
        "vm",
        -8.622229833457336
      ],
      [
        "pB",
        -8.622305118367048
      ],
      [
        "pi",
        -8.622722446951174
      ],
      [
        "vi",
        -8.622773431819052
      ],
      [
        "GX",
        -8.623208388392321
      ],
      [
        "Ad",
        -8.623594444523214
      ],
      [
        "c6",
        -8.623973326127288
      ],
      [
        "hC",
        -8.624518050597583
      ],
      [
        "oZ",
        -8.624695545128395
      ],
      [
        "Q6",
        -8.62517066616566
      ],
      [
        "Ua",
        -8.625267593204468
      ],
      [
        "o6",
        -8.625476933874692
      ],
      [
        "nr",
        -8.625766009485087
      ],
      [
        "UM",
        -8.62613724947959
      ],
      [
        "zK",
        -8.62649462461616
      ],
      [
        "lx",
        -8.62668801567522
      ],
      [
        "QW",
        -8.627014310217376
      ],
      [
        "nZ",
        -8.627254859347069
      ],
      [
        "LZ",
        -8.627327642430064
      ],
      [
        "eT",
        -8.627447370235867
      ],
      [
        "G8",
        -8.627583054924333
      ],
      [
        "C0",
        -8.62759025059755
      ],
      [
        "Lu",
        -8.62767413044547
      ],
      [
        "Ug",
        -8.627699712052383
      ],
      [
        "ba",
        -8.627952003680573
      ],
      [
        "vo",
        -8.627996458730301
      ],
      [
        "Ki",
        -8.628236896028572
      ],
      [
        "U0",
        -8.628606659748252
      ],
      [
        "JH",
        -8.628753127110372
      ],
      [
        "LW",
        -8.628881216213491
      ],
      [
        "AA",
        -8.62888697709812
      ],
      [
        "YL",
        -8.629008983174806
      ],
      [
        "B8",
        -8.62939029683304
      ],
      [
        "qZ",
        -8.62960097409589
      ],
      [
        "N0",
        -8.62990145436105
      ],
      [
        "Cw",
        -8.630294376026933
      ],
      [
        "vw",
        -8.630361101239615
      ],
      [
        "Ga",
        -8.630561235089655
      ],
      [
        "ur",
        -8.631092222803542
      ],
      [
        "hp",
        -8.6310942675543
      ],
      [
        "DB",
        -8.631236215904352
      ],
      [
        "lz",
        -8.632303732962226
      ],
      [
        "q0",
        -8.63272280970704
      ],
      [
        "VF",
        -8.633930552133398
      ],
      [
        "IF",
        -8.634209052861674
      ],
      [
        "Jx",
        -8.634332187650356
      ],
      [
        "Up",
        -8.6345092929195
      ],
      [
        "AZ",
        -8.635059568682792
      ],
      [
        "hM",
        -8.636219033625565
      ],
      [
        "wH",
        -8.636781067823469
      ],
      [
        "qQ",
        -8.63683977427472
      ],
      [
        "Vc",
        -8.636920983792528
      ],
      [
        "fF",
        -8.63716398526223
      ],
      [
        "qu",
        -8.637984944445757
      ],
      [
        "ww",
        -8.638285886269237
      ],
      [
        "Y8",
        -8.638605080385501
      ],
      [
        "hB",
        -8.638796543122215
      ],
      [
        "Ca",
        -8.639587581482909
      ],
      [
        "N8",
        -8.639805436071974
      ],
      [
        "D8",
        -8.639913658860515
      ],
      [
        "qd",
        -8.64043977071707
      ],
      [
        "sB",
        -8.640709243871608
      ],
      [
        "TO",
        -8.641069193362153
      ],
      [
        "em",
        -8.641542940160361
      ],
      [
        "gi",
        -8.641948834031705
      ],
      [
        "hh",
        -8.642169114455058
      ],
      [
        "g8",
        -8.642590218558535
      ],
      [
        "Iy",
        -8.642662922247837
      ],
      [
        "o0",
        -8.643367295171966
      ],
      [
        "gz",
        -8.643505340069021
      ],
      [
        "qN",
        -8.644066689235515
      ],
      [
        "hL",
        -8.644082696969235
      ],
      [
        "QL",
        -8.644284296433046
      ],
      [
        "cd",
        -8.644332917065697
      ],
      [
        "vs",
        -8.644516684026678
      ],
      [
        "Np",
        -8.644553553427802
      ],
      [
        "ay",
        -8.644916630184426
      ],
      [
        "Ar",
        -8.644944929358347
      ],
      [
        "gR",
        -8.645593470989798
      ],
      [
        "aR",
        -8.645861572435827
      ],
      [
        "vy",
        -8.646106176342636
      ],
      [
        "Ya",
        -8.646278238634553
      ],
      [
        "gf",
        -8.646438297994997
      ],
      [
        "RF",
        -8.646587117726213
      ],
      [
        "Jr",
        -8.64758231550888
      ],
      [
        "T6",
        -8.648160169430746
      ],
      [
        "D0",
        -8.648193808842613
      ],
      [
        "CT",
        -8.648217232505596
      ],
      [
        "qF",
        -8.64832386537923
      ],
      [
        "Qx",
        -8.648423517867354
      ],
      [
        "mO",
        -8.64848863650355
      ],
      [
        "mB",
        -8.648631161167902
      ],
      [
        "Zr",
        -8.648634387020852
      ],
      [
        "Xd",
        -8.648643320223389
      ],
      [
        "ud",
        -8.649505683614105
      ],
      [
        "N6",
        -8.649577562281667
      ],
      [
        "Br",
        -8.649636540562318
      ],
      [
        "UT",
        -8.64981502759489
      ],
      [
        "U6",
        -8.650074462212853
      ],
      [
        "oy",
        -8.650354129042755
      ],
      [
        "vv",
        -8.650495480702038
      ],
      [
        "a8",
        -8.650532898004489
      ],
      [
        "qH",
        -8.650652814382372
      ],
      [
        "UW",
        -8.651029400204198
      ],
      [
        "AT",
        -8.651224365536809
      ],
      [
        "Qd",
        -8.651348427717364
      ],
      [
        "cr",
        -8.651426014948768
      ],
      [
        "Yd",
        -8.652140159743805
      ],
      [
        "di",
        -8.652640062737555
      ],
      [
        "vX",
        -8.65270319468262
      ],
      [
        "vd",
        -8.652867139424835
      ],
      [
        "hJ",
        -8.65290312761579
      ],
      [
        "vL",
        -8.652993110601994
      ],
      [
        "qB",
        -8.653010470200432
      ],
      [
        "Vm",
        -8.653282526027187
      ],
      [
        "Hf",
        -8.653351780693097
      ],
      [
        "gy",
        -8.65338699326341
      ],
      [
        "mH",
        -8.653648825707737
      ],
      [
        "Tr",
        -8.653730064833944
      ],
      [
        "w8",
        -8.653730260131194
      ],
      [
        "vO",
        -8.653738404001864
      ],
      [
        "zd",
        -8.654036480207802
      ],
      [
        "hK",
        -8.654111230140472
      ],
      [
        "Nn",
        -8.65502931339721
      ],
      [
        "La",
        -8.65513219640362
      ],
      [
        "br",
        -8.655431973430986
      ],
      [
        "eR",
        -8.655758797425516
      ],
      [
        "QR",
        -8.655785995950595
      ],
      [
        "UB",
        -8.655939921023212
      ],
      [
        "qc",
        -8.65597475563872
      ],
      [
        "Rd",
        -8.656314369038903
      ],
      [
        "gr",
        -8.656508894498899
      ],
      [
        "nX",
        -8.656587884356298
      ],
      [
        "bz",
        -8.65668543940017
      ],
      [
        "YC",
        -8.656707248257561
      ],
      [
        "Kt",
        -8.65687835895414
      ],
      [
        "bD",
        -8.656899605624425
      ],
      [
        "zH",
        -8.657100486857988
      ],
      [
        "cJ",
        -8.657193190273428
      ],
      [
        "hV",
        -8.657353401540746
      ],
      [
        "B0",
        -8.65736543219113
      ],
      [
        "UJ",
        -8.657551243800102
      ],
      [
        "Qu",
        -8.657779727173924
      ],
      [
        "fa",
        -8.657813039747651
      ],
      [
        "V0",
        -8.657814615978772
      ],
      [
        "Ur",
        -8.657946009093124
      ],
      [
        "Ub",
        -8.657969350487365
      ],
      [
        "CF",
        -8.65797292940714
      ],
      [
        "nx",
        -8.658153934873987
      ],
      [
        "hW",
        -8.658170273210317
      ],
      [
        "lG",
        -8.658555684693022
      ],
      [
        "TW",
        -8.65896039434342
      ],
      [
        "ho",
        -8.659236467774264
      ],
      [
        "pR",
        -8.659418375755248
      ],
      [
        "bW",
        -8.659552403110414
      ],
      [
        "Md",
        -8.659596185499732
      ],
      [
        "Na",
        -8.659606240210525
      ],
      [
        "oq",
        -8.659711731042673
      ],
      [
        "Nv",
        -8.659735545928172
      ],
      [
        "Nd",
        -8.659858463731052
      ],
      [
        "Mj",
        -8.659929079053473
      ],
      [
        "A0",
        -8.660064387027951
      ],
      [
        "wd",
        -8.66052133450738
      ],
      [
        "LB",
        -8.660541753513941
      ],
      [
        "ga",
        -8.660670014364683
      ],
      [
        "U8",
        -8.660681139916282
      ],
      [
        "uy",
        -8.660856389050815
      ],
      [
        "ec",
        -8.660919186648593
      ],
      [
        "hv",
        -8.661086779068338
      ],
      [
        "Ul",
        -8.661305655257202
      ],
      [
        "pd",
        -8.6613725338662
      ],
      [
        "Ji",
        -8.661474680915031
      ],
      [
        "Ax",
        -8.661630521594748
      ],
      [
        "pb",
        -8.662084125650974
      ],
      [
        "ed",
        -8.662107596032676
      ],
      [
        "Ud",
        -8.662440927601885
      ],
      [
        "ow",
        -8.662978410267389
      ],
      [
        "Ld",
        -8.663231430259048
      ],
      [
        "VW",
        -8.663293398941763
      ],
      [
        "v8",
        -8.663641546379228
      ],
      [
        "vY",
        -8.664062674889287
      ],
      [
        "Mr",
        -8.664423798892589
      ],
      [
        "zx",
        -8.664455148358403
      ],
      [
        "qR",
        -8.664526106866935
      ],
      [
        "CH",
        -8.664676413497236
      ],
      [
        "sr",
        -8.664857863666306
      ],
      [
        "CD",
        -8.664909887008669
      ],
      [
        "Nt",
        -8.664927571185245
      ],
      [
        "GJ",
        -8.665032704926155
      ],
      [
        "NW",
        -8.665101812734743
      ],
      [
        "CZ",
        -8.665113445857024
      ],
      [
        "qy",
        -8.66516312120716
      ],
      [
        "Ai",
        -8.665173433872784
      ],
      [
        "gs",
        -8.665311536849146
      ],
      [
        "h5",
        -8.665440483337466
      ],
      [
        "AH",
        -8.66551814365149
      ],
      [
        "oj",
        -8.665674453360456
      ],
      [
        "At",
        -8.66584954715869
      ],
      [
        "WH",
        -8.665922610117057
      ],
      [
        "wi",
        -8.666172053142263
      ],
      [
        "Ge",
        -8.666232058812081
      ],
      [
        "ws",
        -8.666280843956049
      ],
      [
        "lM",
        -8.666409189059115
      ],
      [
        "ex",
        -8.666424137342375
      ],
      [
        "hy",
        -8.66650512633152
      ],
      [
        "WI",
        -8.666667236375805
      ],
      [
        "co",
        -8.666704561918976
      ],
      [
        "hz",
        -8.66680280541967
      ],
      [
        "wW",
        -8.66683078848591
      ],
      [
        "ov",
        -8.666838089707873
      ],
      [
        "Jd",
        -8.66686535319841
      ],
      [
        "Ns",
        -8.667165660382754
      ],
      [
        "Cr",
        -8.667250083398002
      ],
      [
        "cL",
        -8.667506505617652
      ],
      [
        "MA",
        -8.667880396888773
      ],
      [
        "wB",
        -8.667887173036409
      ],
      [
        "pY",
        -8.667959565506614
      ],
      [
        "Od",
        -8.668007234703396
      ],
      [
        "xa",
        -8.668043098027484
      ],
      [
        "cq",
        -8.668066630097002
      ],
      [
        "Cu",
        -8.668079098650342
      ],
      [
        "Zd",
        -8.66832447622027
      ],
      [
        "Un",
        -8.668392235112002
      ],
      [
        "ZF",
        -8.668461621563411
      ],
      [
        "zX",
        -8.66861986188976
      ],
      [
        "cR",
        -8.66874961910868
      ],
      [
        "vW",
        -8.668777297836618
      ],
      [
        "qi",
        -8.668841161141955
      ],
      [
        "Ng",
        -8.668842664037161
      ],
      [
        "oz",
        -8.669101330351136
      ],
      [
        "BF",
        -8.669445641479665
      ],
      [
        "DR",
        -8.669501139306348
      ],
      [
        "LH",
        -8.669555560642667
      ],
      [
        "cf",
        -8.669665630554785
      ],
      [
        "zW",
        -8.66972749025875
      ],
      [
        "Gr",
        -8.669848223420626
      ],
      [
        "W6",
        -8.670194458981069
      ],
      [
        "ma",
        -8.670228499724429
      ],
      [
        "ze",
        -8.67026976077959
      ],
      [
        "KH",
        -8.670281898010876
      ],
      [
        "YZ",
        -8.67034135615496
      ],
      [
        "Da",
        -8.670614589418987
      ],
      [
        "NH",
        -8.670650924456394
      ],
      [
        "uT",
        -8.671069443694519
      ],
      [
        "mZ",
        -8.671207683292788
      ],
      [
        "of",
        -8.67120947510157
      ],
      [
        "Uf",
        -8.671354985725122
      ],
      [
        "Gt",
        -8.671417730700833
      ],
      [
        "px",
        -8.671576280685283
      ],
      [
        "VO",
        -8.67172926393533
      ],
      [
        "Qr",
        -8.67179991012209
      ],
      [
        "eX",
        -8.67242838090641
      ],
      [
        "gG",
        -8.672523520065837
      ],
      [
        "oY",
        -8.672611123506666
      ],
      [
        "od",
        -8.672728299083172
      ],
      [
        "GN",
        -8.672785764088431
      ],
      [
        "gF",
        -8.672910159777896
      ],
      [
        "fX",
        -8.67292166711962
      ],
      [
        "hx",
        -8.672953204435306
      ],
      [
        "De",
        -8.673075004923767
      ],
      [
        "gn",
        -8.673179914603914
      ],
      [
        "Yz",
        -8.673288030494142
      ],
      [
        "Tu",
        -8.673335113060858
      ],
      [
        "gQ",
        -8.673779353968058
      ],
      [
        "BM",
        -8.673907608733188
      ],
      [
        "gZ",
        -8.67422433889758
      ],
      [
        "gh",
        -8.67423569138522
      ],
      [
        "jT",
        -8.674498076077336
      ],
      [
        "cb",
        -8.674563504292523
      ],
      [
        "Jm",
        -8.675080994120158
      ],
      [
        "Uw",
        -8.67515834636906
      ],
      [
        "LO",
        -8.675208536211013
      ],
      [
        "Kd",
        -8.675220236895898
      ],
      [
        "DL",
        -8.675635129859028
      ],
      [
        "Qz",
        -8.675740180770696
      ],
      [
        "cB",
        -8.675870498245015
      ],
      [
        "GD",
        -8.67594180502976
      ],
      [
        "Xx",
        -8.676033960368493
      ],
      [
        "wZ",
        -8.676089823948857
      ],
      [
        "NZ",
        -8.676219531872281
      ],
      [
        "vt",
        -8.676401046834638
      ],
      [
        "Wr",
        -8.676527108974147
      ],
      [
        "nd",
        -8.676644767940836
      ],
      [
        "QF",
        -8.67669577168568
      ],
      [
        "Kx",
        -8.676867394134938
      ],
      [
        "UX",
        -8.676874136007054
      ],
      [
        "ct",
        -8.676952913226797
      ],
      [
        "hw",
        -8.677334235557566
      ],
      [
        "vI",
        -8.67738731442106
      ],
      [
        "NF",
        -8.677735500745502
      ],
      [
        "Qa",
        -8.678050490725187
      ],
      [
        "na",
        -8.678060628704237
      ],
      [
        "oH",
        -8.678159408398567
      ],
      [
        "hg",
        -8.678203384175172
      ],
      [
        "qn",
        -8.678384678698713
      ],
      [
        "uu",
        -8.678701788231926
      ],
      [
        "GO",
        -8.678715641622446
      ],
      [
        "XW",
        -8.678752247523216
      ],
      [
        "pz",
        -8.67883747818626
      ],
      [
        "vB",
        -8.678853905333575
      ],
      [
        "pV",
        -8.678895659099256
      ],
      [
        "Kq",
        -8.67904769603796
      ],
      [
        "Aa",
        -8.679077627609573
      ],
      [
        "AO",
        -8.679083840379445
      ],
      [
        "pA",
        -8.679168508413774
      ],
      [
        "ca",
        -8.67973872964502
      ],
      [
        "MB",
        -8.67977618849115
      ],
      [
        "qx",
        -8.679859744911774
      ],
      [
        "mf",
        -8.680010657897443
      ],
      [
        "bu",
        -8.680013916260766
      ],
      [
        "KI",
        -8.680177527187546
      ],
      [
        "DQ",
        -8.68017879708508
      ],
      [
        "NI",
        -8.680216518910495
      ],
      [
        "UO",
        -8.680249061747414
      ],
      [
        "oF",
        -8.680307122570536
      ],
      [
        "qf",
        -8.680418586028274
      ],
      [
        "Ka",
        -8.68051772755653
      ],
      [
        "ey",
        -8.680626421969356
      ],
      [
        "Vd",
        -8.680677508538714
      ],
      [
        "lT",
        -8.680683921101206
      ],
      [
        "IV",
        -8.680739169301493
      ],
      [
        "Uz",
        -8.68089895923114
      ],
      [
        "z0",
        -8.680924867121659
      ],
      [
        "cK",
        -8.680977815447232
      ],
      [
        "hu",
        -8.681125741988334
      ],
      [
        "Hx",
        -8.681138269912742
      ],
      [
        "VH",
        -8.68117881625146
      ],
      [
        "pK",
        -8.681314635719431
      ],
      [
        "ew",
        -8.681361114389954
      ],
      [
        "Rc",
        -8.681382520175777
      ],
      [
        "Dd",
        -8.682187056642178
      ],
      [
        "es",
        -8.682239240606222
      ],
      [
        "CW",
        -8.682289453346927
      ],
      [
        "ot",
        -8.682478308395925
      ],
      [
        "zn",
        -8.682519915503319
      ],
      [
        "cY",
        -8.682572800899482
      ],
      [
        "Vg",
        -8.682653935160914
      ],
      [
        "o3",
        -8.682756044266856
      ],
      [
        "Je",
        -8.682938935812237
      ],
      [
        "he",
        -8.683037187335412
      ],
      [
        "Xy",
        -8.683173410450827
      ],
      [
        "By",
        -8.683247400772968
      ],
      [
        "cX",
        -8.68336506365651
      ],
      [
        "mm",
        -8.683700627496709
      ],
      [
        "BV",
        -8.683725821448105
      ],
      [
        "lL",
        -8.683727423957798
      ],
      [
        "uq",
        -8.68380764759334
      ],
      [
        "pF",
        -8.683987035153628
      ],
      [
        "oR",
        -8.684098346391554
      ],
      [
        "Ls",
        -8.684116348459423
      ],
      [
        "eF",
        -8.684330054331916
      ],
      [
        "le",
        -8.684419143202842
      ],
      [
        "Kz",
        -8.68451671185893
      ],
      [
        "oK",
        -8.684522227715542
      ],
      [
        "Gz",
        -8.684780833651503
      ],
      [
        "Lx",
        -8.684828365390523
      ],
      [
        "Mu",
        -8.684877842562415
      ],
      [
        "bg",
        -8.684955552691564
      ],
      [
        "cO",
        -8.685292880034066
      ],
      [
        "vH",
        -8.685335052288169
      ],
      [
        "zG",
        -8.685341975491962
      ],
      [
        "YM",
        -8.685385808525936
      ],
      [
        "hI",
        -8.685454480640196
      ],
      [
        "Vn",
        -8.685477361503022
      ],
      [
        "Ke",
        -8.685511655373018
      ],
      [
        "GK",
        -8.68551368310553
      ],
      [
        "jg",
        -8.6856873258766
      ],
      [
        "cm",
        -8.68581353133158
      ],
      [
        "VD",
        -8.685845243860363
      ],
      [
        "B6",
        -8.686011840572974
      ],
      [
        "Ce",
        -8.686150981726147
      ],
      [
        "qA",
        -8.686263476347339
      ],
      [
        "md",
        -8.686354521480698
      ],
      [
        "Vy",
        -8.686495736654564
      ],
      [
        "qh",
        -8.686522856388201
      ],
      [
        "Km",
        -8.686674098309012
      ],
      [
        "Gy",
        -8.686789836391618
      ],
      [
        "hs",
        -8.686833448225064
      ],
      [
        "b8",
        -8.687025922163695
      ],
      [
        "pM",
        -8.687537177711672
      ],
      [
        "Vo",
        -8.687866309725909
      ],
      [
        "nA",
        -8.687931880979278
      ],
      [
        "vD",
        -8.688102381591715
      ],
      [
        "sW",
        -8.688188104446558
      ],
      [
        "XZ",
        -8.688205202005273
      ],
      [
        "b0",
        -8.688272751597443
      ],
      [
        "NR",
        -8.68847373480865
      ],
      [
        "KA",
        -8.688512413699295
      ],
      [
        "Cc",
        -8.688517152877596
      ],
      [
        "To",
        -8.688574644708545
      ],
      [
        "KV",
        -8.688655134880534
      ],
      [
        "CX",
        -8.688671384271476
      ],
      [
        "Nf",
        -8.689238264558396
      ],
      [
        "TT",
        -8.689402129252334
      ],
      [
        "e0",
        -8.689479595947958
      ],
      [
        "q8",
        -8.689668966944662
      ],
      [
        "Oa",
        -8.689826650053813
      ],
      [
        "YN",
        -8.690016521543864
      ],
      [
        "TC",
        -8.690144808824272
      ],
      [
        "Kw",
        -8.690310892226314
      ],
      [
        "QT",
        -8.690455654410968
      ],
      [
        "IM",
        -8.690513353077051
      ],
      [
        "hO",
        -8.690568820153072
      ],
      [
        "Aq",
        -8.690634398844352
      ],
      [
        "CV",
        -8.690637393590745
      ],
      [
        "TY",
        -8.690638288546573
      ],
      [
        "AL",
        -8.69065342632479
      ],
      [
        "VU",
        -8.690858270044709
      ],
      [
        "zw",
        -8.690862901028964
      ],
      [
        "Vb",
        -8.690905615421261
      ],
      [
        "ML",
        -8.691042004966768
      ],
      [
        "Ac",
        -8.691319123617008
      ],
      [
        "YV",
        -8.691740051562318
      ],
      [
        "zN",
        -8.691814754724781
      ],
      [
        "by",
        -8.691921303393425
      ],
      [
        "be",
        -8.69202280696451
      ],
      [
        "or",
        -8.692066448192314
      ],
      [
        "Ij",
        -8.692079991028745
      ],
      [
        "W0",
        -8.692086093993684
      ],
      [
        "DY",
        -8.692094362407026
      ],
      [
        "bH",
        -8.692096735523503
      ],
      [
        "lb",
        -8.692188103074223
      ],
      [
        "Vf",
        -8.692301438523444
      ],
      [
        "Dr",
        -8.692532006950524
      ],
      [
        "WM",
        -8.692617507550924
      ],
      [
        "vc",
        -8.69266639403153
      ],
      [
        "Lm",
        -8.692907565066303
      ],
      [
        "Yx",
        -8.692911713184742
      ],
      [
        "ef",
        -8.693055030750706
      ],
      [
        "KK",
        -8.693462140445384
      ],
      [
        "Ku",
        -8.693510652454112
      ],
      [
        "Jn",
        -8.693978968706737
      ],
      [
        "LA",
        -8.694070104455717
      ],
      [
        "lZ",
        -8.694139357590895
      ],
      [
        "DO",
        -8.69416871195509
      ],
      [
        "U9",
        -8.694431671460768
      ],
      [
        "Mx",
        -8.69446080705237
      ],
      [
        "UG",
        -8.694631823999417
      ],
      [
        "QN",
        -8.694759291368678
      ],
      [
        "mn",
        -8.694801980480642
      ],
      [
        "nR",
        -8.694802992903096
      ],
      [
        "RT",
        -8.695094758944332
      ],
      [
        "OM",
        -8.695135343213405
      ],
      [
        "Iu",
        -8.695453677899451
      ],
      [
        "TZ",
        -8.695455403164743
      ],
      [
        "VA",
        -8.69559218205001
      ],
      [
        "nJ",
        -8.695618322375752
      ],
      [
        "CN",
        -8.695666736865537
      ],
      [
        "zs",
        -8.69570361065661
      ],
      [
        "AR",
        -8.695723322886261
      ],
      [
        "TB",
        -8.695739136361055
      ],
      [
        "wM",
        -8.69575020165169
      ],
      [
        "CA",
        -8.695831995272894
      ],
      [
        "RH",
        -8.695881050132623
      ],
      [
        "Kr",
        -8.696101839877295
      ],
      [
        "oB",
        -8.69610671487062
      ],
      [
        "gw",
        -8.696156798579707
      ],
      [
        "C3",
        -8.696256969491895
      ],
      [
        "NN",
        -8.69645781810263
      ],
      [
        "Qy",
        -8.696524013128963
      ],
      [
        "qj",
        -8.696525567762524
      ],
      [
        "ae",
        -8.696763089922015
      ],
      [
        "MY",
        -8.696838307198737
      ],
      [
        "gD",
        -8.696923160355468
      ],
      [
        "LI",
        -8.69696691222629
      ],
      [
        "Dm",
        -8.697018011380194
      ],
      [
        "vQ",
        -8.69705275666622
      ],
      [
        "Q0",
        -8.69705854338997
      ],
      [
        "mo",
        -8.697250326114375
      ],
      [
        "Lf",
        -8.697563481645856
      ],
      [
        "DI",
        -8.697635799315174
      ],
      [
        "Gs",
        -8.69765815163137
      ],
      [
        "cl",
        -8.697727163493404
      ],
      [
        "JZ",
        -8.697752465965758
      ],
      [
        "hb",
        -8.697779733530139
      ],
      [
        "BB",
        -8.697790783717439
      ],
      [
        "HZ",
        -8.697839753768296
      ],
      [
        "bO",
        -8.697894597010302
      ],
      [
        "w0",
        -8.698033905838848
      ],
      [
        "ue",
        -8.69805298032627
      ],
      [
        "GW",
        -8.698269783268515
      ],
      [
        "hG",
        -8.698716874221248
      ],
      [
        "vA",
        -8.698853888155183
      ],
      [
        "QD",
        -8.698913327740996
      ],
      [
        "zY",
        -8.698961122881133
      ],
      [
        "BO",
        -8.699314241683492
      ],
      [
        "TM",
        -8.699591980309478
      ],
      [
        "XU",
        -8.699601613786271
      ],
      [
        "ez",
        -8.699691419799947
      ],
      [
        "Nq",
        -8.699730168502512
      ],
      [
        "ge",
        -8.699856441633386
      ],
      [
        "eM",
        -8.700065310886552
      ],
      [
        "bM",
        -8.700187312643257
      ],
      [
        "Qc",
        -8.700238518375428
      ],
      [
        "Yy",
        -8.700320887124068
      ],
      [
        "bc",
        -8.700472213401799
      ],
      [
        "NU",
        -8.70053090860665
      ],
      [
        "nM",
        -8.700649313124352
      ],
      [
        "oM",
        -8.700835637918646
      ],
      [
        "Bd",
        -8.700959232500832
      ],
      [
        "Uo",
        -8.700981698766281
      ],
      [
        "LV",
        -8.701032250878999
      ],
      [
        "hn",
        -8.701119605856
      ],
      [
        "lA",
        -8.70114255352112
      ],
      [
        "ry",
        -8.701170226892021
      ],
      [
        "cW",
        -8.701173475690684
      ],
      [
        "bR",
        -8.701225989337539
      ],
      [
        "cx",
        -8.701315689115994
      ],
      [
        "hZ",
        -8.701495512407307
      ],
      [
        "JF",
        -8.701529890814616
      ],
      [
        "IY",
        -8.701664111433871
      ],
      [
        "hm",
        -8.701671909995127
      ],
      [
        "hj",
        -8.701718659288662
      ],
      [
        "dY",
        -8.701784809011656
      ],
      [
        "Uq",
        -8.701809266556666
      ],
      [
        "gB",
        -8.701869192468902
      ],
      [
        "ll",
        -8.701950391932154
      ],
      [
        "KR",
        -8.702023118226988
      ],
      [
        "gj",
        -8.702032764137538
      ],
      [
        "nB",
        -8.702067339880452
      ],
      [
        "YW",
        -8.702123915382739
      ],
      [
        "je",
        -8.702316480009246
      ],
      [
        "fb",
        -8.702359587503881
      ],
      [
        "Gn",
        -8.702369995619007
      ],
      [
        "KX",
        -8.70244415623115
      ],
      [
        "oe",
        -8.702483518979045
      ],
      [
        "DN",
        -8.702494621138596
      ],
      [
        "Gu",
        -8.702580087676221
      ],
      [
        "qM",
        -8.702658977930628
      ],
      [
        "Av",
        -8.702717509082587
      ],
      [
        "zr",
        -8.702828782136756
      ],
      [
        "ce",
        -8.702896686388232
      ],
      [
        "oo",
        -8.702971100548492
      ],
      [
        "Nr",
        -8.702981688831041
      ],
      [
        "RY",
        -8.70300736786123
      ],
      [
        "Ay",
        -8.703012030823688
      ],
      [
        "cG",
        -8.703163155007973
      ],
      [
        "mz",
        -8.703292434275815
      ],
      [
        "oD",
        -8.703558026808873
      ],
      [
        "WA",
        -8.703635288694048
      ],
      [
        "am",
        -8.703715265253155
      ],
      [
        "pT",
        -8.703720574800734
      ],
      [
        "Am",
        -8.703782327346335
      ],
      [
        "oi",
        -8.703965565782369
      ],
      [
        "NA",
        -8.70402503191227
      ],
      [
        "dX",
        -8.704033418120527
      ],
      [
        "oW",
        -8.704127712342924
      ],
      [
        "RR",
        -8.704516559537478
      ],
      [
        "VJ",
        -8.704775312694125
      ],
      [
        "Tz",
        -8.705117658098581
      ],
      [
        "wG",
        -8.705880245191864
      ],
      [
        "AC",
        -8.706024164214739
      ],
      [
        "mI",
        -8.706066751805341
      ],
      [
        "wl",
        -8.706089494757155
      ],
      [
        "jX",
        -8.706235892001327
      ],
      [
        "Ty",
        -8.706276759524444
      ],
      [
        "It",
        -8.70632231426322
      ],
      [
        "Hc",
        -8.706653347396234
      ],
      [
        "zl",
        -8.70682741548421
      ],
      [
        "Ia",
        -8.706871137075812
      ],
      [
        "rx",
        -8.70697690817304
      ],
      [
        "om",
        -8.707126475469137
      ],
      [
        "qe",
        -8.707424383600742
      ],
      [
        "op",
        -8.707434988735251
      ],
      [
        "gb",
        -8.707443473784013
      ],
      [
        "lQ",
        -8.707525485111798
      ],
      [
        "oX",
        -8.707760144808205
      ],
      [
        "qU",
        -8.707783540384836
      ],
      [
        "MM",
        -8.707879409220563
      ],
      [
        "CG",
        -8.708072627816907
      ],
      [
        "jH",
        -8.708081989042743
      ],
      [
        "Be",
        -8.708112359852993
      ],
      [
        "ZM",
        -8.708371531446573
      ],
      [
        "zV",
        -8.708402036316711
      ],
      [
        "eG",
        -8.708595976690518
      ],
      [
        "Gw",
        -8.708709109180006
      ],
      [
        "gU",
        -8.70873195129253
      ],
      [
        "QY",
        -8.70877256346224
      ],
      [
        "bp",
        -8.708942140846464
      ],
      [
        "BJ",
        -8.7091337342761
      ],
      [
        "rU",
        -8.709426038267122
      ],
      [
        "qV",
        -8.709592496253983
      ],
      [
        "RN",
        -8.709758023863422
      ],
      [
        "lC",
        -8.709782407360837
      ],
      [
        "MR",
        -8.709883968690662
      ],
      [
        "Y0",
        -8.709919248153874
      ],
      [
        "ja",
        -8.709978598378111
      ],
      [
        "pW",
        -8.71016407453706
      ],
      [
        "UL",
        -8.710298151832749
      ],
      [
        "cu",
        -8.7105251137483
      ],
      [
        "Tx",
        -8.710634558121717
      ],
      [
        "mx",
        -8.710684390787247
      ],
      [
        "eZ",
        -8.7107569370236
      ],
      [
        "gv",
        -8.71087510951173
      ],
      [
        "NO",
        -8.711242014103766
      ],
      [
        "pU",
        -8.711308450279102
      ],
      [
        "jD",
        -8.711451697425046
      ],
      [
        "uY",
        -8.711510499010146
      ],
      [
        "Hr",
        -8.711700115046288
      ],
      [
        "DG",
        -8.71183941517431
      ],
      [
        "JJ",
        -8.71187326084362
      ],
      [
        "zT",
        -8.71187986383508
      ],
      [
        "gO",
        -8.712001565182485
      ],
      [
        "gI",
        -8.712022582615901
      ],
      [
        "Ql",
        -8.71206121851711
      ],
      [
        "qJ",
        -8.712090630961274
      ],
      [
        "bV",
        -8.712130101936662
      ],
      [
        "Ye",
        -8.71213244423899
      ],
      [
        "dy",
        -8.712253013482751
      ],
      [
        "Uu",
        -8.712377616581353
      ],
      [
        "JC",
        -8.71241078698365
      ],
      [
        "WZ",
        -8.712557469299245
      ],
      [
        "qq",
        -8.712655418882399
      ],
      [
        "QH",
        -8.712881558865572
      ],
      [
        "wx",
        -8.712963843728783
      ],
      [
        "zg",
        -8.712967421380775
      ],
      [
        "er",
        -8.71312845656622
      ],
      [
        "cN",
        -8.713192788788273
      ],
      [
        "jB",
        -8.713343213618149
      ],
      [
        "vJ",
        -8.71348428432455
      ],
      [
        "DM",
        -8.713514934026474
      ],
      [
        "Nm",
        -8.713637399125176
      ],
      [
        "BK",
        -8.713656755634407
      ],
      [
        "Mz",
        -8.713686108069922
      ],
      [
        "qa",
        -8.713894018577351
      ],
      [
        "jR",
        -8.713919214530804
      ],
      [
        "Wf",
        -8.713938310622478
      ],
      [
        "Bb",
        -8.714062133503543
      ],
      [
        "DZ",
        -8.714102263575178
      ],
      [
        "QI",
        -8.714202165132342
      ],
      [
        "KZ",
        -8.714384256311419
      ],
      [
        "Jf",
        -8.714435726686322
      ],
      [
        "Jy",
        -8.714458921370971
      ],
      [
        "RA",
        -8.714568960333247
      ],
      [
        "Yw",
        -8.714624820497907
      ],
      [
        "KY",
        -8.714907951008627
      ],
      [
        "Kf",
        -8.714911409764174
      ],
      [
        "bG",
        -8.714913927530258
      ],
      [
        "gN",
        -8.715009296187674
      ],
      [
        "ob",
        -8.715150208545714
      ],
      [
        "dw",
        -8.715279029254614
      ],
      [
        "UN",
        -8.715460172606294
      ],
      [
        "pI",
        -8.715662467332947
      ],
      [
        "YF",
        -8.715745298691676
      ],
      [
        "Bu",
        -8.715762655528055
      ],
      [
        "mw",
        -8.71580517988383
      ],
      [
        "eN",
        -8.716037546767499
      ],
      [
        "bs",
        -8.71604124391709
      ],
      [
        "QX",
        -8.716263859611079
      ],
      [
        "qo",
        -8.71628649326544
      ],
      [
        "VK",
        -8.716309547780465
      ],
      [
        "MG",
        -8.716341268120651
      ],
      [
        "cH",
        -8.716349640406047
      ],
      [
        "Nx",
        -8.716536035519315
      ],
      [
        "Dx",
        -8.716899319918106
      ],
      [
        "Ae",
        -8.716968105834674
      ],
      [
        "Gh",
        -8.717034877598994
      ],
      [
        "mc",
        -8.71706284060851
      ],
      [
        "bx",
        -8.71725848130052
      ],
      [
        "ID",
        -8.7174053426332
      ],
      [
        "cC",
        -8.71743150474947
      ],
      [
        "TX",
        -8.717526977407669
      ],
      [
        "QZ",
        -8.7179300019046
      ],
      [
        "KC",
        -8.717934551574622
      ],
      [
        "aV",
        -8.717997670969076
      ],
      [
        "Cq",
        -8.718076948056023
      ],
      [
        "Vp",
        -8.718281107087599
      ],
      [
        "KB",
        -8.718432622981037
      ],
      [
        "NK",
        -8.7184865420434
      ],
      [
        "OQ",
        -8.718565235552411
      ],
      [
        "zM",
        -8.718566341052835
      ],
      [
        "oN",
        -8.718682615474613
      ],
      [
        "Du",
        -8.718758237368853
      ],
      [
        "fl",
        -8.718775961399562
      ],
      [
        "Hd",
        -8.718914304512769
      ],
      [
        "wF",
        -8.718931042031212
      ],
      [
        "CU",
        -8.719256343877403
      ],
      [
        "bw",
        -8.719461762142048
      ],
      [
        "IR",
        -8.719698501771784
      ],
      [
        "eC",
        -8.719849378761765
      ],
      [
        "Bn",
        -8.719948754323877
      ],
      [
        "QG",
        -8.720133254924281
      ],
      [
        "bT",
        -8.720169099167968
      ],
      [
        "wO",
        -8.72037597775018
      ],
      [
        "wj",
        -8.720397697559125
      ],
      [
        "XN",
        -8.720640728535418
      ],
      [
        "IG",
        -8.720654305424512
      ],
      [
        "CM",
        -8.720661721544943
      ],
      [
        "uH",
        -8.720805932164085
      ],
      [
        "DA",
        -8.720808036758799
      ],
      [
        "wa",
        -8.720868646209261
      ],
      [
        "gH",
        -8.72087100218949
      ],
      [
        "lr",
        -8.7209171565795
      ],
      [
        "WW",
        -8.720940581947215
      ],
      [
        "bQ",
        -8.72097012837376
      ],
      [
        "mr",
        -8.721024685097898
      ],
      [
        "Cs",
        -8.721268880346038
      ],
      [
        "eK",
        -8.721447855265172
      ],
      [
        "Vx",
        -8.721619228320819
      ],
      [
        "vh",
        -8.721743409918329
      ],
      [
        "An",
        -8.721809818327504
      ],
      [
        "vM",
        -8.721852191692655
      ],
      [
        "bJ",
        -8.721877425806118
      ],
      [
        "ev",
        -8.72193593746424
      ],
      [
        "JX",
        -8.721954549468258
      ],
      [
        "pa",
        -8.721955360957569
      ],
      [
        "Rx",
        -8.722190828404932
      ],
      [
        "eW",
        -8.722257791420429
      ],
      [
        "cn",
        -8.722443302566194
      ],
      [
        "Ra",
        -8.722467883831712
      ],
      [
        "uB",
        -8.72248759399414
      ],
      [
        "q6",
        -8.722499315044875
      ],
      [
        "qw",
        -8.72250737476914
      ],
      [
        "MI",
        -8.722537507007518
      ],
      [
        "fy",
        -8.72256846116638
      ],
      [
        "la",
        -8.722730155648993
      ],
      [
        "Rr",
        -8.722737015530418
      ],
      [
        "JR",
        -8.722794111249604
      ],
      [
        "bI",
        -8.722809770943218
      ],
      [
        "vV",
        -8.722824455616951
      ],
      [
        "RL",
        -8.723212613915965
      ],
      [
        "KQ",
        -8.723242307752358
      ],
      [
        "zj",
        -8.723469092513103
      ],
      [
        "Bv",
        -8.723519622927617
      ],
      [
        "A6",
        -8.723562353493492
      ],
      [
        "lw",
        -8.723643225359039
      ],
      [
        "Nb",
        -8.723753164790736
      ],
      [
        "RK",
        -8.723789297476785
      ],
      [
        "Cd",
        -8.723789386963407
      ],
      [
        "qY",
        -8.723837091182713
      ],
      [
        "lB",
        -8.724144246741975
      ],
      [
        "WL",
        -8.724166430065877
      ],
      [
        "Qj",
        -8.724234208220134
      ],
      [
        "cw",
        -8.724364110451422
      ],
      [
        "Tc",
        -8.724439271629503
      ],
      [
        "ea",
        -8.724482014706378
      ],
      [
        "Ib",
        -8.724489967505571
      ],
      [
        "K0",
        -8.724505007097434
      ],
      [
        "ps",
        -8.724579770586049
      ],
      [
        "DK",
        -8.724630366269135
      ],
      [
        "Cz",
        -8.724689943794417
      ],
      [
        "nl",
        -8.724838570315004
      ],
      [
        "UH",
        -8.724846258277134
      ],
      [
        "UU",
        -8.724950312375611
      ],
      [
        "AX",
        -8.725038056069737
      ],
      [
        "DJ",
        -8.725055866351397
      ],
      [
        "zf",
        -8.725124601981628
      ],
      [
        "Re",
        -8.725155485212852
      ],
      [
        "hc",
        -8.725167449418574
      ],
      [
        "nq",
        -8.725403129022698
      ],
      [
        "OL",
        -8.725553327072063
      ],
      [
        "Xr",
        -8.725562832279785
      ],
      [
        "Te",
        -8.725601181587018
      ],
      [
        "MN",
        -8.725637183559536
      ],
      [
        "Af",
        -8.725719324285214
      ],
      [
        "nv",
        -8.725742831415241
      ],
      [
        "nb",
        -8.725742898336648
      ],
      [
        "TH",
        -8.725754583255663
      ],
      [
        "Il",
        -8.72583511046257
      ],
      [
        "JA",
        -8.72585264131208
      ],
      [
        "NJ",
        -8.72586755904813
      ],
      [
        "eu",
        -8.725900629469947
      ],
      [
        "Ba",
        -8.725989804250792
      ],
      [
        "BA",
        -8.726051166210697
      ],
      [
        "Ix",
        -8.726062203791809
      ],
      [
        "rX",
        -8.726108259911793
      ],
      [
        "VM",
        -8.726123173895425
      ],
      [
        "qt",
        -8.726164100281522
      ],
      [
        "AD",
        -8.726188392502298
      ],
      [
        "Kp",
        -8.726335622791513
      ],
      [
        "Ue",
        -8.726436298472969
      ],
      [
        "WR",
        -8.726456983211651
      ],
      [
        "mY",
        -8.726515600908467
      ],
      [
        "gK",
        -8.726779548262083
      ],
      [
        "oL",
        -8.726862774699288
      ],
      [
        "Cm",
        -8.726962300066248
      ],
      [
        "WV",
        -8.726990322245825
      ],
      [
        "GT",
        -8.727004342438224
      ],
      [
        "Va",
        -8.727034050452247
      ],
      [
        "jf",
        -8.727189469922678
      ],
      [
        "JI",
        -8.727243820790253
      ],
      [
        "lN",
        -8.727252484850649
      ],
      [
        "TG",
        -8.727304504847908
      ],
      [
        "NM",
        -8.727523766249082
      ],
      [
        "qC",
        -8.727560595759149
      ],
      [
        "MZ",
        -8.727632925147892
      ],
      [
        "eH",
        -8.727671737394793
      ],
      [
        "CR",
        -8.727943736205471
      ],
      [
        "uN",
        -8.728219880602223
      ],
      [
        "de",
        -8.7282672093466
      ],
      [
        "Zf",
        -8.728373367087492
      ],
      [
        "TU",
        -8.728428409125058
      ],
      [
        "QO",
        -8.728647288892676
      ],
      [
        "HN",
        -8.728661196182028
      ],
      [
        "fr",
        -8.728686562176943
      ],
      [
        "Io",
        -8.728829038439432
      ],
      [
        "rK",
        -8.72883774163111
      ],
      [
        "Mw",
        -8.72899134193053
      ],
      [
        "gp",
        -8.729148595790129
      ],
      [
        "GI",
        -8.729378385025452
      ],
      [
        "nf",
        -8.729396043530347
      ],
      [
        "Qn",
        -8.729421272417644
      ],
      [
        "ZT",
        -8.729472913248488
      ],
      [
        "Tm",
        -8.729607695036416
      ],
      [
        "nN",
        -8.729632358785157
      ],
      [
        "Ow",
        -8.72976469377901
      ],
      [
        "qW",
        -8.72979605698714
      ],
      [
        "Lr",
        -8.729860492557814
      ],
      [
        "ux",
        -8.729964559755889
      ],
      [
        "fO",
        -8.730006571663012
      ],
      [
        "ZZ",
        -8.730125886969649
      ],
      [
        "cQ",
        -8.730197242239948
      ],
      [
        "Tf",
        -8.730207735902601
      ],
      [
        "TL",
        -8.730337649099564
      ],
      [
        "Jh",
        -8.730357362684558
      ],
      [
        "YX",
        -8.730433619098495
      ],
      [
        "lv",
        -8.730489791521409
      ],
      [
        "Qo",
        -8.730511360064758
      ],
      [
        "Qf",
        -8.730568717253712
      ],
      [
        "wV",
        -8.730665282402882
      ],
      [
        "ff",
        -8.730750173115172
      ],
      [
        "Cb",
        -8.73091857617721
      ],
      [
        "gT",
        -8.73100869686424
      ],
      [
        "yr",
        -8.731085303613202
      ],
      [
        "Tl",
        -8.731099006883278
      ],
      [
        "KG",
        -8.731138130718506
      ],
      [
        "vz",
        -8.731170324995635
      ],
      [
        "uo",
        -8.731490159130836
      ],
      [
        "rW",
        -8.73170880437467
      ],
      [
        "ep",
        -8.731875136769286
      ],
      [
        "LR",
        -8.731937897884588
      ],
      [
        "v0",
        -8.731971808106191
      ],
      [
        "qL",
        -8.731982772676425
      ],
      [
        "Wy",
        -8.732193373168
      ],
      [
        "RZ",
        -8.732455333289021
      ],
      [
        "MU",
        -8.732559886663138
      ],
      [
        "nW",
        -8.732608018562447
      ],
      [
        "fZ",
        -8.732612351451996
      ],
      [
        "gX",
        -8.732821123490368
      ],
      [
        "LM",
        -8.732887944838048
      ],
      [
        "RM",
        -8.732925786778692
      ],
      [
        "bf",
        -8.733052032577636
      ],
      [
        "AJ",
        -8.733079384763878
      ],
      [
        "JQ",
        -8.733185576313929
      ],
      [
        "eD",
        -8.733454738484083
      ],
      [
        "pp",
        -8.733541228705361
      ],
      [
        "wb",
        -8.733711915061095
      ],
      [
        "vN",
        -8.733777589245708
      ],
      [
        "hY",
        -8.733825940163094
      ],
      [
        "pj",
        -8.733899585782602
      ],
      [
        "Cn",
        -8.73400554724445
      ],
      [
        "gW",
        -8.734006994993859
      ],
      [
        "go",
        -8.7343096174902
      ],
      [
        "oQ",
        -8.734329675252187
      ],
      [
        "fc",
        -8.734473607365906
      ],
      [
        "ee",
        -8.734477582450253
      ],
      [
        "If",
        -8.73453547417416
      ],
      [
        "Ma",
        -8.734585670405544
      ],
      [
        "WJ",
        -8.734586001225153
      ],
      [
        "ne",
        -8.734636867474517
      ],
      [
        "IB",
        -8.734728439182746
      ],
      [
        "Id",
        -8.734807304887843
      ],
      [
        "VN",
        -8.734862934497883
      ],
      [
        "Ou",
        -8.734912845487147
      ],
      [
        "cz",
        -8.73492444094347
      ],
      [
        "bb",
        -8.735017727833643
      ],
      [
        "AQ",
        -8.735083646061645
      ],
      [
        "vl",
        -8.735086337209879
      ],
      [
        "gc",
        -8.735394651464862
      ],
      [
        "zL",
        -8.735437164706227
      ],
      [
        "KM",
        -8.735452753333869
      ],
      [
        "Wp",
        -8.735463614671145
      ],
      [
        "dG",
        -8.735603102496171
      ],
      [
        "BT",
        -8.735746165709402
      ],
      [
        "uc",
        -8.735766321963204
      ],
      [
        "qG",
        -8.735841865781016
      ],
      [
        "GQ",
        -8.735878229559926
      ],
      [
        "Ru",
        -8.736082695009094
      ],
      [
        "oV",
        -8.736219573546439
      ],
      [
        "NQ",
        -8.736350212201652
      ],
      [
        "NT",
        -8.73660822620084
      ],
      [
        "Dy",
        -8.736686380370156
      ],
      [
        "QB",
        -8.73669834505358
      ],
      [
        "YQ",
        -8.736776645745822
      ],
      [
        "BY",
        -8.736886802779136
      ],
      [
        "mu",
        -8.736902121974802
      ],
      [
        "lK",
        -8.737259860540268
      ],
      [
        "jo",
        -8.737290736532753
      ],
      [
        "gu",
        -8.737446744355251
      ],
      [
        "xr",
        -8.737515073434349
      ],
      [
        "wy",
        -8.737533802572917
      ],
      [
        "Jp",
        -8.737553087731072
      ],
      [
        "Ao",
        -8.737558754260448
      ],
      [
        "Ts",
        -8.73766546301785
      ],
      [
        "XY",
        -8.737785342809332
      ],
      [
        "RX",
        -8.737786506172444
      ],
      [
        "Uh",
        -8.738080622429194
      ],
      [
        "qp",
        -8.738155125541788
      ],
      [
        "lm",
        -8.738410422699394
      ],
      [
        "NB",
        -8.738480602322939
      ],
      [
        "VR",
        -8.738511538951172
      ],
      [
        "Ja",
        -8.738616214158252
      ],
      [
        "gA",
        -8.738622182654705
      ],
      [
        "Yh",
        -8.738639929496355
      ],
      [
        "jA",
        -8.738658529839235
      ],
      [
        "Lh",
        -8.73877529817361
      ],
      [
        "Rg",
        -8.73896266360886
      ],
      [
        "bK",
        -8.738975084821849
      ],
      [
        "Rm",
        -8.73904003582247
      ],
      [
        "UV",
        -8.739045703866072
      ],
      [
        "Ym",
        -8.739376917624224
      ],
      [
        "KW",
        -8.73941363927425
      ],
      [
        "ad",
        -8.739673158594266
      ],
      [
        "bo",
        -8.739717240466518
      ],
      [
        "LY",
        -8.739764219547709
      ],
      [
        "cV",
        -8.739764873729737
      ],
      [
        "fg",
        -8.739784592660154
      ],
      [
        "BI",
        -8.740072656879804
      ],
      [
        "BC",
        -8.740131125450475
      ],
      [
        "Ha",
        -8.740140491160945
      ],
      [
        "Ml",
        -8.740202588175691
      ],
      [
        "eO",
        -8.740243708654827
      ],
      [
        "Yo",
        -8.740330184004172
      ],
      [
        "oJ",
        -8.740464135379359
      ],
      [
        "aY",
        -8.740485362456814
      ],
      [
        "IK",
        -8.74061482569152
      ],
      [
        "mX",
        -8.740849288067727
      ],
      [
        "ZW",
        -8.740867478776249
      ],
      [
        "Lg",
        -8.740877668811542
      ],
      [
        "WO",
        -8.741159040592462
      ],
      [
        "hU",
        -8.741243554736457
      ],
      [
        "Bp",
        -8.741266102272391
      ],
      [
        "Yr",
        -8.741414408921205
      ],
      [
        "QM",
        -8.741504240815573
      ],
      [
        "eQ",
        -8.741713014037964
      ],
      [
        "YK",
        -8.741840852540715
      ],
      [
        "Gg",
        -8.741870821690526
      ],
      [
        "fd",
        -8.741911780667682
      ],
      [
        "Az",
        -8.741942067866052
      ],
      [
        "xg",
        -8.741986350190857
      ],
      [
        "qz",
        -8.742047192185787
      ],
      [
        "pJ",
        -8.74204855850514
      ],
      [
        "XX",
        -8.742088035430317
      ],
      [
        "zb",
        -8.742107934460734
      ],
      [
        "IQ",
        -8.742222656043335
      ],
      [
        "hT",
        -8.74226339421757
      ],
      [
        "Hu",
        -8.742270705889197
      ],
      [
        "RJ",
        -8.742285096569866
      ],
      [
        "nz",
        -8.742487967529009
      ],
      [
        "zI",
        -8.742596950957672
      ],
      [
        "uw",
        -8.74262902710652
      ],
      [
        "fR",
        -8.742707023710329
      ],
      [
        "bq",
        -8.742757544538435
      ],
      [
        "dC",
        -8.743090398778088
      ],
      [
        "wv",
        -8.743100201455512
      ],
      [
        "Go",
        -8.743127518374722
      ],
      [
        "sa",
        -8.743181347146546
      ],
      [
        "Vq",
        -8.743277345051741
      ],
      [
        "KL",
        -8.743277414857868
      ],
      [
        "Gm",
        -8.743341549407148
      ],
      [
        "gM",
        -8.743427391464298
      ],
      [
        "hl",
        -8.743507063986732
      ],
      [
        "xT",
        -8.743516662336049
      ],
      [
        "YI",
        -8.743534777238459
      ],
      [
        "JM",
        -8.743619302955047
      ],
      [
        "Ie",
        -8.74363892876153
      ],
      [
        "We",
        -8.743767034324986
      ],
      [
        "Cj",
        -8.74390313559148
      ],
      [
        "NL",
        -8.744089076480595
      ],
      [
        "wp",
        -8.744132001250806
      ],
      [
        "OK",
        -8.744393354449743
      ],
      [
        "pu",
        -8.744396278034209
      ],
      [
        "TI",
        -8.744399770229673
      ],
      [
        "hA",
        -8.744410145773521
      ],
      [
        "jI",
        -8.744444016867511
      ],
      [
        "vq",
        -8.744468875980955
      ],
      [
        "ax",
        -8.74453349375909
      ],
      [
        "no",
        -8.744544283023856
      ],
      [
        "Iw",
        -8.744618583877262
      ],
      [
        "zu",
        -8.744651132857278
      ],
      [
        "TN",
        -8.744660756045917
      ],
      [
        "eY",
        -8.745019480466341
      ],
      [
        "VC",
        -8.745072822588934
      ],
      [
        "JO",
        -8.74514863299558
      ],
      [
        "ua",
        -8.74521572570106
      ],
      [
        "q3",
        -8.745275507841537
      ],
      [
        "vU",
        -8.745385475393217
      ],
      [
        "JN",
        -8.745594907800015
      ],
      [
        "VI",
        -8.745655358616691
      ],
      [
        "wL",
        -8.745861844580203
      ],
      [
        "Om",
        -8.74617794493357
      ],
      [
        "DW",
        -8.746300245394284
      ],
      [
        "Nj",
        -8.746459651884656
      ],
      [
        "mG",
        -8.746721298366868
      ],
      [
        "ox",
        -8.746842412407045
      ],
      [
        "nL",
        -8.747092775513156
      ],
      [
        "Tb",
        -8.747101802368316
      ],
      [
        "zZ",
        -8.747166440678207
      ],
      [
        "wh",
        -8.747259830483852
      ],
      [
        "Xb",
        -8.747299043022783
      ],
      [
        "oC",
        -8.74743413797933
      ],
      [
        "xJ",
        -8.747443482443277
      ],
      [
        "qm",
        -8.747465176440555
      ],
      [
        "lg",
        -8.747601556507407
      ],
      [
        "NX",
        -8.747674263288118
      ],
      [
        "oU",
        -8.747737831932934
      ],
      [
        "pL",
        -8.747764089147639
      ],
      [
        "mV",
        -8.74826012907965
      ],
      [
        "fp",
        -8.748413724424685
      ],
      [
        "gg",
        -8.748465791437173
      ],
      [
        "UA",
        -8.7485246243285
      ],
      [
        "cT",
        -8.748599057951571
      ],
      [
        "pH",
        -8.748607199379068
      ],
      [
        "WC",
        -8.748784355910182
      ],
      [
        "gY",
        -8.748943515314355
      ],
      [
        "QV",
        -8.74898153009701
      ],
      [
        "Bg",
        -8.749003658190775
      ],
      [
        "qI",
        -8.749120701204673
      ],
      [
        "AY",
        -8.749124033127845
      ],
      [
        "fJ",
        -8.7491463520738
      ],
      [
        "Tj",
        -8.74924743255971
      ],
      [
        "LT",
        -8.749287710710322
      ],
      [
        "Kl",
        -8.74936606322154
      ],
      [
        "Ab",
        -8.749688686186708
      ],
      [
        "II",
        -8.749729281104468
      ],
      [
        "Ve",
        -8.749823101473336
      ],
      [
        "Wl",
        -8.74988570280173
      ],
      [
        "AM",
        -8.750037036082496
      ],
      [
        "GM",
        -8.750079713386754
      ],
      [
        "YO",
        -8.750093425761758
      ],
      [
        "QC",
        -8.750240012150176
      ],
      [
        "Dv",
        -8.750340422188088
      ],
      [
        "Kn",
        -8.750356280510932
      ],
      [
        "Dc",
        -8.750358090301583
      ],
      [
        "wR",
        -8.750370833346363
      ],
      [
        "KJ",
        -8.750370923637195
      ],
      [
        "bm",
        -8.750461538832681
      ],
      [
        "rr",
        -8.750655745344638
      ],
      [
        "uV",
        -8.75071380331843
      ],
      [
        "w3",
        -8.750719747007869
      ],
      [
        "mK",
        -8.750752012539843
      ],
      [
        "lR",
        -8.750804287760957
      ],
      [
        "UD",
        -8.750830472673462
      ],
      [
        "IX",
        -8.750834822195248
      ],
      [
        "zR",
        -8.750855992677428
      ],
      [
        "DX",
        -8.750927180723867
      ],
      [
        "jw",
        -8.750941817252222
      ],
      [
        "v9",
        -8.751149736529568
      ],
      [
        "Fd",
        -8.75117857490742
      ],
      [
        "GL",
        -8.75127650847432
      ],
      [
        "ar",
        -8.751320799999876
      ],
      [
        "we",
        -8.751429301446532
      ],
      [
        "sI",
        -8.751698601365817
      ],
      [
        "LL",
        -8.751700859369578
      ],
      [
        "vK",
        -8.751953972647907
      ],
      [
        "LX",
        -8.75200304334432
      ],
      [
        "bU",
        -8.752008179973128
      ],
      [
        "Im",
        -8.752081513391227
      ],
      [
        "Bj",
        -8.75210440707807
      ],
      [
        "lV",
        -8.752140255972542
      ],
      [
        "JG",
        -8.752149882517852
      ],
      [
        "TQ",
        -8.752274217502599
      ],
      [
        "Lw",
        -8.752275376757995
      ],
      [
        "WD",
        -8.752317567027944
      ],
      [
        "Vz",
        -8.752363442915478
      ],
      [
        "rs",
        -8.752384296654663
      ],
      [
        "Mm",
        -8.752384310285397
      ],
      [
        "DV",
        -8.752392750984615
      ],
      [
        "mq",
        -8.752419042909732
      ],
      [
        "Ko",
        -8.75278289743762
      ],
      [
        "lo",
        -8.752800165287496
      ],
      [
        "LQ",
        -8.752810503645943
      ],
      [
        "ZC",
        -8.752857541093226
      ],
      [
        "og",
        -8.752972829685877
      ],
      [
        "He",
        -8.753003744736148
      ],
      [
        "mD",
        -8.753146837646689
      ],
      [
        "wI",
        -8.753168961158082
      ],
      [
        "HI",
        -8.75323003479906
      ],
      [
        "nT",
        -8.753267843939287
      ],
      [
        "WF",
        -8.753346266133729
      ],
      [
        "IA",
        -8.753472898025926
      ],
      [
        "wN",
        -8.75374416395363
      ],
      [
        "os",
        -8.753756371989518
      ],
      [
        "uv",
        -8.7537728767091
      ],
      [
        "As",
        -8.753944047478345
      ],
      [
        "eg",
        -8.753946590617964
      ],
      [
        "cM",
        -8.754093867257264
      ],
      [
        "Dp",
        -8.754123956372005
      ],
      [
        "AV",
        -8.75419130715378
      ],
      [
        "lJ",
        -8.754313113886024
      ],
      [
        "qs",
        -8.754340536906938
      ],
      [
        "Nl",
        -8.754361602743977
      ],
      [
        "uM",
        -8.75437243585905
      ],
      [
        "TV",
        -8.754378000099063
      ],
      [
        "fo",
        -8.75437831717105
      ],
      [
        "Bx",
        -8.754437562207215
      ],
      [
        "dd",
        -8.754807441626376
      ],
      [
        "mM",
        -8.755085882147455
      ],
      [
        "jp",
        -8.755093466615321
      ],
      [
        "lu",
        -8.75512477272288
      ],
      [
        "OB",
        -8.755178340369074
      ],
      [
        "Gb",
        -8.755319514527198
      ],
      [
        "gl",
        -8.755397093115832
      ],
      [
        "UC",
        -8.755498968046602
      ],
      [
        "DD",
        -8.755511037811965
      ],
      [
        "xX",
        -8.755614517584892
      ],
      [
        "YH",
        -8.75591196438381
      ],
      [
        "RV",
        -8.756121551171454
      ],
      [
        "Yu",
        -8.756172250062065
      ],
      [
        "MT",
        -8.756182441940677
      ],
      [
        "jZ",
        -8.756239636431271
      ],
      [
        "cU",
        -8.756259036548927
      ],
      [
        "CC",
        -8.756264973857096
      ],
      [
        "vp",
        -8.756406739307614
      ],
      [
        "hD",
        -8.756418178325973
      ],
      [
        "QA",
        -8.756419385098198
      ],
      [
        "mC",
        -8.756452970573916
      ],
      [
        "pX",
        -8.756458887682768
      ],
      [
        "RU",
        -8.756470378549595
      ],
      [
        "IU",
        -8.756549005083933
      ],
      [
        "RI",
        -8.756592675209298
      ],
      [
        "ZA",
        -8.756788039316739
      ],
      [
        "gC",
        -8.756806036581331
      ],
      [
        "Yl",
        -8.756820762955659
      ],
      [
        "IW",
        -8.756871646882892
      ],
      [
        "Mb",
        -8.757030620381457
      ],
      [
        "Ap",
        -8.757050955675805
      ],
      [
        "zU",
        -8.757073674808447
      ],
      [
        "Zm",
        -8.75710153860738
      ],
      [
        "jN",
        -8.75711240752572
      ],
      [
        "fT",
        -8.757340902401308
      ],
      [
        "Gq",
        -8.75736355567706
      ],
      [
        "sK",
        -8.757466969050416
      ],
      [
        "pe",
        -8.757493631914231
      ],
      [
        "XK",
        -8.757551569667129
      ],
      [
        "Kb",
        -8.757601243883377
      ],
      [
        "MX",
        -8.757723237906069
      ],
      [
        "LK",
        -8.757817227486061
      ],
      [
        "YB",
        -8.757991328229288
      ],
      [
        "AU",
        -8.758038313974112
      ],
      [
        "AB",
        -8.758327429340646
      ],
      [
        "uW",
        -8.758428820809021
      ],
      [
        "VQ",
        -8.758524916854865
      ],
      [
        "Cl",
        -8.758666847386731
      ],
      [
        "BW",
        -8.758780954941965
      ],
      [
        "Xa",
        -8.758789629423468
      ],
      [
        "KN",
        -8.758919930811892
      ],
      [
        "bv",
        -8.759020078898699
      ],
      [
        "Ch",
        -8.759051697103462
      ],
      [
        "Bz",
        -8.759516195991129
      ],
      [
        "N5",
        -8.759532248971542
      ],
      [
        "rd",
        -8.759612735685984
      ],
      [
        "qT",
        -8.759654913599821
      ],
      [
        "DT",
        -8.759720305004201
      ],
      [
        "xM",
        -8.759943566079572
      ],
      [
        "HL",
        -8.759955841053433
      ],
      [
        "jv",
        -8.760047293671754
      ],
      [
        "lX",
        -8.760190812849096
      ],
      [
        "GA",
        -8.760270293273045
      ],
      [
        "dQ",
        -8.76027085309702
      ],
      [
        "Ta",
        -8.760333049753118
      ],
      [
        "uZ",
        -8.760464118676232
      ],
      [
        "Tn",
        -8.760479305306522
      ],
      [
        "Jb",
        -8.76048690050441
      ],
      [
        "Is",
        -8.760531899695195
      ],
      [
        "on",
        -8.760586687390758
      ],
      [
        "Xm",
        -8.760600236149957
      ],
      [
        "q5",
        -8.76065132511916
      ],
      [
        "nI",
        -8.760741151006144
      ],
      [
        "ZX",
        -8.760798739810248
      ],
      [
        "GZ",
        -8.760798798202757
      ],
      [
        "fM",
        -8.76087692467961
      ],
      [
        "CI",
        -8.760890358830991
      ],
      [
        "JY",
        -8.761350497975886
      ],
      [
        "Aj",
        -8.76142050279817
      ],
      [
        "Dg",
        -8.76148758852275
      ],
      [
        "JL",
        -8.761698512864019
      ],
      [
        "OW",
        -8.761759039707119
      ],
      [
        "aq",
        -8.761768248335104
      ],
      [
        "MH",
        -8.761944044626077
      ],
      [
        "xw",
        -8.761995025333478
      ],
      [
        "MW",
        -8.762057241215294
      ],
      [
        "Cf",
        -8.762183985709935
      ],
      [
        "au",
        -8.762352062149976
      ],
      [
        "GY",
        -8.762566602231995
      ],
      [
        "Tg",
        -8.76261901856449
      ],
      [
        "ya",
        -8.762645638046465
      ],
      [
        "Do",
        -8.762746881511706
      ],
      [
        "wq",
        -8.763096650717733
      ],
      [
        "cZ",
        -8.76316575352406
      ],
      [
        "ou",
        -8.763313349796896
      ],
      [
        "jY",
        -8.76342916779836
      ],
      [
        "jl",
        -8.763494482892497
      ],
      [
        "IL",
        -8.763538914222096
      ],
      [
        "LU",
        -8.763574789312516
      ],
      [
        "ro",
        -8.763613228150113
      ],
      [
        "ao",
        -8.763830908733961
      ],
      [
        "Au",
        -8.763951053594443
      ],
      [
        "HD",
        -8.764059724770998
      ],
      [
        "nG",
        -8.76430318242673
      ],
      [
        "Js",
        -8.764306675962501
      ],
      [
        "sw",
        -8.764393724053107
      ],
      [
        "aK",
        -8.764411510818036
      ],
      [
        "gm",
        -8.764645069060599
      ],
      [
        "bB",
        -8.764922067628756
      ],
      [
        "eL",
        -8.76501520490421
      ],
      [
        "mT",
        -8.76514312942728
      ],
      [
        "Jw",
        -8.765281528208952
      ],
      [
        "aQ",
        -8.765288283319277
      ],
      [
        "vj",
        -8.765302523961552
      ],
      [
        "bX",
        -8.765430344571925
      ],
      [
        "VB",
        -8.765472143136112
      ],
      [
        "Db",
        -8.765519232736253
      ],
      [
        "qO",
        -8.765733041288819
      ],
      [
        "Ah",
        -8.765767219934903
      ],
      [
        "aH",
        -8.765875584679852
      ],
      [
        "dI",
        -8.765898265441306
      ],
      [
        "eB",
        -8.765973072843849
      ],
      [
        "eA",
        -8.76615768424513
      ],
      [
        "vb",
        -8.76620340887371
      ],
      [
        "fz",
        -8.766410660086443
      ],
      [
        "xf",
        -8.766568196640506
      ],
      [
        "Bl",
        -8.766605419480143
      ],
      [
        "TA",
        -8.766640490543011
      ],
      [
        "zp",
        -8.766640850286105
      ],
      [
        "sG",
        -8.76675752075873
      ],
      [
        "DC",
        -8.766775229729934
      ],
      [
        "Wa",
        -8.767015785582927
      ],
      [
        "Yf",
        -8.767166059343355
      ],
      [
        "Yv",
        -8.767205190945441
      ],
      [
        "Xn",
        -8.767405646921077
      ],
      [
        "zo",
        -8.767532532847246
      ],
      [
        "ng",
        -8.76754755339564
      ],
      [
        "YD",
        -8.767572473260014
      ],
      [
        "za",
        -8.767662828166635
      ],
      [
        "IH",
        -8.767736841922915
      ],
      [
        "VV",
        -8.768017481725629
      ],
      [
        "pD",
        -8.76812184460194
      ],
      [
        "XA",
        -8.768362041456804
      ],
      [
        "wX",
        -8.768392098704135
      ],
      [
        "uR",
        -8.768565099201627
      ],
      [
        "fv",
        -8.768634981631493
      ],
      [
        "OY",
        -8.768673023957252
      ],
      [
        "xW",
        -8.768966383097567
      ],
      [
        "Ag",
        -8.769087882667247
      ],
      [
        "Dq",
        -8.769169929856442
      ],
      [
        "pZ",
        -8.76920467658891
      ],
      [
        "uI",
        -8.769378356555045
      ],
      [
        "ej",
        -8.769648039639993
      ],
      [
        "Gf",
        -8.769708730392349
      ],
      [
        "aN",
        -8.76991314348394
      ],
      [
        "jJ",
        -8.769931080236226
      ],
      [
        "mJ",
        -8.770429300237716
      ],
      [
        "Za",
        -8.770637908970354
      ],
      [
        "ZL",
        -8.770790181401708
      ],
      [
        "fA",
        -8.770875317574589
      ],
      [
        "NY",
        -8.770882007638203
      ],
      [
        "Gc",
        -8.770961812076699
      ],
      [
        "bn",
        -8.770966916607705
      ],
      [
        "dr",
        -8.770990482945543
      ],
      [
        "cc",
        -8.77104739536416
      ],
      [
        "ZR",
        -8.771067704192784
      ],
      [
        "wu",
        -8.771209854045411
      ],
      [
        "Zu",
        -8.771309190277963
      ],
      [
        "Cp",
        -8.771311989999553
      ],
      [
        "af",
        -8.771352097227354
      ],
      [
        "XL",
        -8.771519614948815
      ],
      [
        "ml",
        -8.77159412257141
      ],
      [
        "fL",
        -8.771646224090112
      ],
      [
        "pf",
        -8.77166980584483
      ],
      [
        "JD",
        -8.771752910704425
      ],
      [
        "fH",
        -8.771774006011777
      ],
      [
        "RD",
        -8.771803396316916
      ],
      [
        "YA",
        -8.771814011079881
      ],
      [
        "nc",
        -8.771984485840516
      ],
      [
        "dK",
        -8.772180478206987
      ],
      [
        "rR",
        -8.772228052134352
      ],
      [
        "KD",
        -8.772470305532433
      ],
      [
        "CL",
        -8.772477576039403
      ],
      [
        "el",
        -8.772511170803849
      ],
      [
        "bj",
        -8.772616712861659
      ],
      [
        "xK",
        -8.772755004568241
      ],
      [
        "wr",
        -8.77291925899549
      ],
      [
        "rq",
        -8.77293014590066
      ],
      [
        "Xw",
        -8.772942657228588
      ],
      [
        "wz",
        -8.773057525840386
      ],
      [
        "WQ",
        -8.773190435731243
      ],
      [
        "BX",
        -8.773323550737276
      ],
      [
        "nD",
        -8.773353282488687
      ],
      [
        "VZ",
        -8.773733594313555
      ],
      [
        "oG",
        -8.773739800336159
      ],
      [
        "rB",
        -8.773771978128096
      ],
      [
        "nU",
        -8.77386873599458
      ],
      [
        "WB",
        -8.773981840730965
      ],
      [
        "MC",
        -8.774059940301797
      ],
      [
        "MK",
        -8.774075746113695
      ],
      [
        "Ju",
        -8.774108592414542
      ],
      [
        "aW",
        -8.774649099908174
      ],
      [
        "nw",
        -8.774888091420248
      ],
      [
        "rG",
        -8.775188601293518
      ],
      [
        "dM",
        -8.775234716491882
      ],
      [
        "JW",
        -8.775279457018764
      ],
      [
        "VY",
        -8.775506699104653
      ],
      [
        "re",
        -8.77561078771881
      ],
      [
        "eI",
        -8.77579386718038
      ],
      [
        "wf",
        -8.775816596181993
      ],
      [
        "Wz",
        -8.775818606860609
      ],
      [
        "YY",
        -8.775958416719106
      ],
      [
        "YT",
        -8.776215376880899
      ],
      [
        "bN",
        -8.776228494120556
      ],
      [
        "TR",
        -8.776254393640254
      ],
      [
        "Xc",
        -8.776294936599173
      ],
      [
        "Ys",
        -8.776588944682251
      ],
      [
        "xR",
        -8.776602728945509
      ],
      [
        "RW",
        -8.776702455313153
      ],
      [
        "Gv",
        -8.776712736158153
      ],
      [
        "sA",
        -8.776770620197178
      ],
      [
        "In",
        -8.77707286597242
      ],
      [
        "NV",
        -8.777131635414417
      ],
      [
        "Iz",
        -8.777135680710394
      ],
      [
        "cg",
        -8.777154765176922
      ],
      [
        "se",
        -8.77742493283196
      ],
      [
        "Nz",
        -8.777523593972738
      ],
      [
        "BG",
        -8.777604354276596
      ],
      [
        "ql",
        -8.777705158928015
      ],
      [
        "TK",
        -8.77772123715136
      ],
      [
        "Dl",
        -8.777728330114275
      ],
      [
        "cI",
        -8.777825373329343
      ],
      [
        "eh",
        -8.778033269773438
      ],
      [
        "zB",
        -8.778064086497354
      ],
      [
        "DH",
        -8.778182630560547
      ],
      [
        "WK",
        -8.778282038680626
      ],
      [
        "YU",
        -8.778300385014655
      ],
      [
        "uX",
        -8.778716731195296
      ],
      [
        "sv",
        -8.778922546142963
      ],
      [
        "AK",
        -8.779008273454618
      ],
      [
        "qg",
        -8.779066895432337
      ],
      [
        "HY",
        -8.779242906673971
      ],
      [
        "Dh",
        -8.77927493774131
      ],
      [
        "LN",
        -8.779442434727763
      ],
      [
        "jV",
        -8.779530595871721
      ],
      [
        "vT",
        -8.77959155235666
      ],
      [
        "YR",
        -8.779752501338006
      ],
      [
        "wm",
        -8.779829160317215
      ],
      [
        "OG",
        -8.779892333524606
      ],
      [
        "YJ",
        -8.779951680613094
      ],
      [
        "GH",
        -8.77997982434688
      ],
      [
        "wY",
        -8.780146245080484
      ],
      [
        "sq",
        -8.780212615008079
      ],
      [
        "uG",
        -8.780324157057713
      ],
      [
        "wJ",
        -8.780428882584642
      ],
      [
        "QJ",
        -8.780430687084483
      ],
      [
        "A9",
        -8.780677663951957
      ],
      [
        "Kh",
        -8.780699287645646
      ],
      [
        "Qq",
        -8.781074565030972
      ],
      [
        "yX",
        -8.78113358422899
      ],
      [
        "Og",
        -8.781144723841983
      ],
      [
        "UI",
        -8.781188248001117
      ],
      [
        "OD",
        -8.781195359431084
      ],
      [
        "wA",
        -8.781320843529745
      ],
      [
        "oI",
        -8.78134657000511
      ],
      [
        "Wx",
        -8.781375592463075
      ],
      [
        "uL",
        -8.781698065367815
      ],
      [
        "uU",
        -8.781718520053019
      ],
      [
        "Mo",
        -8.782081819965612
      ],
      [
        "CJ",
        -8.782223069465681
      ],
      [
        "Yj",
        -8.782230111313485
      ],
      [
        "Lz",
        -8.78238632032085
      ],
      [
        "ZI",
        -8.782501811224893
      ],
      [
        "Fa",
        -8.782607093313597
      ],
      [
        "lW",
        -8.782765663107673
      ],
      [
        "me",
        -8.782792346342589
      ],
      [
        "pg",
        -8.782905036553899
      ],
      [
        "Oe",
        -8.78291410251155
      ],
      [
        "lc",
        -8.7829512319009
      ],
      [
        "Jv",
        -8.782966739811133
      ],
      [
        "qK",
        -8.783035695783877
      ],
      [
        "lY",
        -8.783119270274469
      ],
      [
        "lI",
        -8.783329067465893
      ],
      [
        "vC",
        -8.783491848403724
      ],
      [
        "Xe",
        -8.783609746997218
      ],
      [
        "BH",
        -8.78362063130818
      ],
      [
        "OJ",
        -8.783747666240458
      ],
      [
        "fV",
        -8.783763667957903
      ],
      [
        "ZV",
        -8.783834271369878
      ],
      [
        "uz",
        -8.78395601106499
      ],
      [
        "Tv",
        -8.784016209119905
      ],
      [
        "AG",
        -8.784074770419176
      ],
      [
        "ND",
        -8.784096502515634
      ],
      [
        "LJ",
        -8.784222877830283
      ],
      [
        "xV",
        -8.78432458636808
      ],
      [
        "TJ",
        -8.78451389165535
      ],
      [
        "sY",
        -8.784706861218714
      ],
      [
        "nY",
        -8.784750490189252
      ],
      [
        "fW",
        -8.784842507066585
      ],
      [
        "Cg",
        -8.784852002104266
      ],
      [
        "lU",
        -8.784994621570027
      ],
      [
        "QU",
        -8.785383635684061
      ],
      [
        "WX",
        -8.785402457784546
      ],
      [
        "HT",
        -8.78542216798336
      ],
      [
        "hq",
        -8.785482286975952
      ],
      [
        "HX",
        -8.785531854272028
      ],
      [
        "XC",
        -8.785573491034597
      ],
      [
        "uJ",
        -8.785702620632144
      ],
      [
        "wD",
        -8.78573498901486
      ],
      [
        "zv",
        -8.7858333543787
      ],
      [
        "pQ",
        -8.78618446929026
      ],
      [
        "xC",
        -8.786242946163243
      ],
      [
        "GG",
        -8.786354089427816
      ],
      [
        "Qg",
        -8.786409915850122
      ],
      [
        "Mq",
        -8.786480038121562
      ],
      [
        "qb",
        -8.786633672745893
      ],
      [
        "Zc",
        -8.786883098150021
      ],
      [
        "OA",
        -8.786929855571444
      ],
      [
        "aT",
        -8.787326172887703
      ],
      [
        "VT",
        -8.787528766309485
      ],
      [
        "wn",
        -8.787735446035944
      ],
      [
        "eJ",
        -8.787950077555827
      ],
      [
        "uQ",
        -8.787975086515342
      ],
      [
        "nQ",
        -8.78804119364968
      ],
      [
        "Lv",
        -8.788070822286132
      ],
      [
        "MJ",
        -8.788117617930785
      ],
      [
        "dZ",
        -8.788119107395318
      ],
      [
        "yL",
        -8.788373430143732
      ],
      [
        "AN",
        -8.788417409374627
      ],
      [
        "AI",
        -8.788430590003966
      ],
      [
        "WG",
        -8.788576688535398
      ],
      [
        "GC",
        -8.788588517433348
      ],
      [
        "AW",
        -8.788975124505292
      ],
      [
        "DU",
        -8.78914751870333
      ],
      [
        "CY",
        -8.789186756679015
      ],
      [
        "dW",
        -8.789389692905475
      ],
      [
        "qD",
        -8.789542458034997
      ],
      [
        "ZH",
        -8.789583514034184
      ],
      [
        "Yn",
        -8.789812272933567
      ],
      [
        "cp",
        -8.789847524829874
      ],
      [
        "cA",
        -8.790169911367077
      ],
      [
        "xm",
        -8.79060072890869
      ],
      [
        "HC",
        -8.791045560735055
      ],
      [
        "GV",
        -8.791063490872991
      ],
      [
        "Df",
        -8.791273265499054
      ],
      [
        "vG",
        -8.791316925363533
      ],
      [
        "XT",
        -8.79137847780482
      ],
      [
        "jL",
        -8.791584559391225
      ],
      [
        "bL",
        -8.791597832765238
      ],
      [
        "Iq",
        -8.791752664182411
      ],
      [
        "xQ",
        -8.791803626535
      ],
      [
        "Zw",
        -8.79184645973194
      ],
      [
        "uK",
        -8.792121176841984
      ],
      [
        "Rf",
        -8.792183168413565
      ],
      [
        "Rh",
        -8.792233856727192
      ],
      [
        "lq",
        -8.792364800093186
      ],
      [
        "Qp",
        -8.79247343543927
      ],
      [
        "rA",
        -8.792519820864332
      ],
      [
        "ZY",
        -8.792521018321828
      ],
      [
        "fm",
        -8.79254430772226
      ],
      [
        "UY",
        -8.79257447673708
      ],
      [
        "lp",
        -8.792620330673564
      ],
      [
        "fe",
        -8.792654625773569
      ],
      [
        "mL",
        -8.792825448353444
      ],
      [
        "jc",
        -8.792833998318368
      ],
      [
        "Ww",
        -8.792921109398428
      ],
      [
        "Yc",
        -8.792931952578591
      ],
      [
        "tW",
        -8.793199387313166
      ],
      [
        "oA",
        -8.793267708356847
      ],
      [
        "HQ",
        -8.793393660726277
      ],
      [
        "Cv",
        -8.793410655350034
      ],
      [
        "Lb",
        -8.793483831898174
      ],
      [
        "fw",
        -8.793520495296326
      ],
      [
        "WN",
        -8.793649040121226
      ],
      [
        "Uv",
        -8.793765104366415
      ],
      [
        "HJ",
        -8.793895034084944
      ],
      [
        "Wh",
        -8.793996422493803
      ],
      [
        "ve",
        -8.794331161460939
      ],
      [
        "aZ",
        -8.794344651629839
      ],
      [
        "XM",
        -8.794523463347176
      ],
      [
        "BN",
        -8.794620041954717
      ],
      [
        "po",
        -8.794676699807724
      ],
      [
        "sQ",
        -8.794743659863554
      ],
      [
        "Qb",
        -8.794829573403373
      ],
      [
        "aX",
        -8.794900378062966
      ],
      [
        "Ip",
        -8.794980755461939
      ],
      [
        "gq",
        -8.795500232743656
      ],
      [
        "Gp",
        -8.795572632228986
      ],
      [
        "dJ",
        -8.795879809887067
      ],
      [
        "uA",
        -8.796033557175
      ],
      [
        "zJ",
        -8.79623685473575
      ],
      [
        "cD",
        -8.79627771136964
      ],
      [
        "Wd",
        -8.79629171483873
      ],
      [
        "Th",
        -8.796315652257029
      ],
      [
        "Wc",
        -8.79636645374999
      ],
      [
        "Oc",
        -8.79670276128841
      ],
      [
        "oh",
        -8.796713798632798
      ],
      [
        "Hz",
        -8.796793334898304
      ],
      [
        "Zq",
        -8.796937540985873
      ],
      [
        "pq",
        -8.796964422680919
      ],
      [
        "Hg",
        -8.797165146331764
      ],
      [
        "uD",
        -8.797215826592023
      ],
      [
        "HG",
        -8.797244543660938
      ],
      [
        "dT",
        -8.79730371043604
      ],
      [
        "Hv",
        -8.7973608709973
      ],
      [
        "so",
        -8.797361127564162
      ],
      [
        "rH",
        -8.797874146693207
      ],
      [
        "XJ",
        -8.797880719307713
      ],
      [
        "yQ",
        -8.79789000219861
      ],
      [
        "bl",
        -8.798000374462589
      ],
      [
        "Wn",
        -8.798810362622824
      ],
      [
        "xb",
        -8.798843176727361
      ],
      [
        "vn",
        -8.798987686936595
      ],
      [
        "zc",
        -8.799380503183578
      ],
      [
        "jG",
        -8.799472939729565
      ],
      [
        "Rb",
        -8.799505934226683
      ],
      [
        "ZB",
        -8.799555190583822
      ],
      [
        "Ic",
        -8.799596898911057
      ],
      [
        "Gl",
        -8.799796257841663
      ],
      [
        "Lo",
        -8.79984550493064
      ],
      [
        "Jg",
        -8.799908253528528
      ],
      [
        "JV",
        -8.800246250302731
      ],
      [
        "eb",
        -8.800336153482247
      ],
      [
        "bC",
        -8.800342576189461
      ],
      [
        "lf",
        -8.800515274427214
      ],
      [
        "BD",
        -8.800632194113259
      ],
      [
        "Wg",
        -8.800880976300117
      ],
      [
        "YG",
        -8.801135878421405
      ],
      [
        "mQ",
        -8.80114764270742
      ],
      [
        "Bc",
        -8.801260044266133
      ],
      [
        "nC",
        -8.801421118533597
      ],
      [
        "TD",
        -8.801542170906796
      ],
      [
        "gL",
        -8.801559831325548
      ],
      [
        "Xv",
        -8.801577145184316
      ],
      [
        "KT",
        -8.801639853367188
      ],
      [
        "Xf",
        -8.801752726568253
      ],
      [
        "yJ",
        -8.801765849243637
      ],
      [
        "UK",
        -8.801926211005828
      ],
      [
        "RB",
        -8.802316004319936
      ],
      [
        "mv",
        -8.802409354151198
      ],
      [
        "dq",
        -8.802533515285372
      ],
      [
        "Nh",
        -8.802632801424588
      ],
      [
        "aw",
        -8.803721854037036
      ],
      [
        "Uc",
        -8.803765104508336
      ],
      [
        "pG",
        -8.80383726387041
      ],
      [
        "Me",
        -8.804341600531371
      ],
      [
        "Tw",
        -8.804593301806023
      ],
      [
        "ch",
        -8.805107391508987
      ],
      [
        "Jq",
        -8.805167007478794
      ],
      [
        "ub",
        -8.805227997064977
      ],
      [
        "dA",
        -8.805552035836609
      ],
      [
        "No",
        -8.805712280072443
      ],
      [
        "Tp",
        -8.805805244970607
      ],
      [
        "Mg",
        -8.805820506265539
      ],
      [
        "LD",
        -8.806017032796412
      ],
      [
        "XI",
        -8.80604464796454
      ],
      [
        "ZQ",
        -8.806160395893112
      ],
      [
        "pv",
        -8.806468204509924
      ],
      [
        "uC",
        -8.806500598726885
      ],
      [
        "Mp",
        -8.80663900963319
      ],
      [
        "OI",
        -8.80671396808243
      ],
      [
        "yf",
        -8.806721520790138
      ],
      [
        "GB",
        -8.807028133482346
      ],
      [
        "Lq",
        -8.807328585385086
      ],
      [
        "Vl",
        -8.80736301824992
      ],
      [
        "ul",
        -8.807430284017133
      ],
      [
        "mN",
        -8.807640237848123
      ],
      [
        "zm",
        -8.807835759032344
      ],
      [
        "oT",
        -8.807949612156758
      ],
      [
        "Ro",
        -8.807997221527511
      ],
      [
        "wo",
        -8.808032263010418
      ],
      [
        "Tq",
        -8.80807922929938
      ],
      [
        "XV",
        -8.808238251379427
      ],
      [
        "rf",
        -8.808448289556528
      ],
      [
        "Ig",
        -8.808554246832532
      ],
      [
        "Oq",
        -8.808617664387913
      ],
      [
        "xG",
        -8.808870121894952
      ],
      [
        "Mv",
        -8.808903419795861
      ],
      [
        "Lc",
        -8.808904574693646
      ],
      [
        "OC",
        -8.808983605361492
      ],
      [
        "mR",
        -8.809387864031304
      ],
      [
        "Mc",
        -8.809389172262208
      ],
      [
        "IT",
        -8.809502895284144
      ],
      [
        "JB",
        -8.809507392252586
      ],
      [
        "Xl",
        -8.809869631290056
      ],
      [
        "rw",
        -8.809923221541515
      ],
      [
        "yY",
        -8.809927040067228
      ],
      [
        "Qv",
        -8.810055040429837
      ],
      [
        "mb",
        -8.81009221894094
      ],
      [
        "aD",
        -8.810155418137665
      ],
      [
        "rc",
        -8.810163372870267
      ],
      [
        "iJ",
        -8.810566262078394
      ],
      [
        "wC",
        -8.810587540220794
      ],
      [
        "pm",
        -8.81078510516304
      ],
      [
        "Bo",
        -8.810798213169473
      ],
      [
        "zz",
        -8.810894686888428
      ],
      [
        "Xg",
        -8.810988589833448
      ],
      [
        "Kg",
        -8.811247257079295
      ],
      [
        "Fb",
        -8.811918355538566
      ],
      [
        "Hq",
        -8.811936227438505
      ],
      [
        "rJ",
        -8.812180794135998
      ],
      [
        "fI",
        -8.812194433723441
      ],
      [
        "rb",
        -8.812218955669495
      ],
      [
        "Lp",
        -8.812436015361575
      ],
      [
        "pc",
        -8.812446722265193
      ],
      [
        "Xo",
        -8.81247822926476
      ],
      [
        "da",
        -8.812670778725835
      ],
      [
        "WY",
        -8.812699745989093
      ],
      [
        "xo",
        -8.812765065767536
      ],
      [
        "RG",
        -8.812777950203674
      ],
      [
        "Xz",
        -8.812973494578744
      ],
      [
        "Oo",
        -8.812976230337712
      ],
      [
        "QQ",
        -8.812994037281062
      ],
      [
        "wg",
        -8.813134671334709
      ],
      [
        "eo",
        -8.813331407560977
      ],
      [
        "VL",
        -8.813338821443258
      ],
      [
        "pl",
        -8.81353326647984
      ],
      [
        "aI",
        -8.81370689141312
      ],
      [
        "XR",
        -8.813952845678493
      ],
      [
        "QK",
        -8.814262494195452
      ],
      [
        "pN",
        -8.814755786310458
      ],
      [
        "Qh",
        -8.814826019187713
      ],
      [
        "Fw",
        -8.815328409313143
      ],
      [
        "zD",
        -8.8155986599082
      ],
      [
        "fh",
        -8.815659772503054
      ],
      [
        "nV",
        -8.815796576586063
      ],
      [
        "eV",
        -8.815797259062421
      ],
      [
        "Ne",
        -8.816076666133796
      ],
      [
        "JU",
        -8.816953746254104
      ],
      [
        "up",
        -8.816962036226954
      ],
      [
        "Zl",
        -8.817100628038194
      ],
      [
        "0W",
        -8.817282385285875
      ],
      [
        "rl",
        -8.817498985807699
      ],
      [
        "Ih",
        -8.817769882590827
      ],
      [
        "ug",
        -8.817889558859093
      ],
      [
        "oO",
        -8.81790551720728
      ],
      [
        "RQ",
        -8.818318881309501
      ],
      [
        "pw",
        -8.818644853353
      ],
      [
        "rm",
        -8.818686237421916
      ],
      [
        "ab",
        -8.819113557744124
      ],
      [
        "wK",
        -8.81917322410954
      ],
      [
        "dN",
        -8.81919545538747
      ],
      [
        "Le",
        -8.819198419554334
      ],
      [
        "Zb",
        -8.819398962695445
      ],
      [
        "Wq",
        -8.819473237298856
      ],
      [
        "lh",
        -8.820104319736043
      ],
      [
        "VX",
        -8.82044314325504
      ],
      [
        "aM",
        -8.820550347218301
      ],
      [
        "uh",
        -8.820750748359426
      ],
      [
        "Mf",
        -8.820921353642623
      ],
      [
        "jC",
        -8.820994516581738
      ],
      [
        "fC",
        -8.82109222401672
      ],
      [
        "BL",
        -8.82111070908675
      ],
      [
        "vg",
        -8.82121333479691
      ],
      [
        "Ll",
        -8.821375078346861
      ],
      [
        "rL",
        -8.821540785030091
      ],
      [
        "rM",
        -8.821617528640335
      ],
      [
        "ag",
        -8.82181468843017
      ],
      [
        "mg",
        -8.821982584929554
      ],
      [
        "xB",
        -8.82218577224155
      ],
      [
        "Dz",
        -8.82251935476782
      ],
      [
        "Ov",
        -8.82266949103029
      ],
      [
        "KU",
        -8.82319425059088
      ],
      [
        "fG",
        -8.823330042300324
      ],
      [
        "JT",
        -8.824307310266606
      ],
      [
        "ZD",
        -8.82437654344939
      ],
      [
        "Oh",
        -8.82440816942112
      ],
      [
        "XB",
        -8.824442647149185
      ],
      [
        "fD",
        -8.824459456055433
      ],
      [
        "zC",
        -8.824772716648708
      ],
      [
        "xN",
        -8.824980028534153
      ],
      [
        "Rq",
        -8.825185965232805
      ],
      [
        "aC",
        -8.825203287238388
      ],
      [
        "Vv",
        -8.825411493936564
      ],
      [
        "um",
        -8.825444246126967
      ],
      [
        "fK",
        -8.826000924374139
      ],
      [
        "Zo",
        -8.826093370919075
      ],
      [
        "HB",
        -8.826281906323452
      ],
      [
        "Jz",
        -8.82661093260278
      ],
      [
        "IN",
        -8.826643118104137
      ],
      [
        "Zz",
        -8.826760927704576
      ],
      [
        "lD",
        -8.827153527593225
      ],
      [
        "eU",
        -8.827350425904228
      ],
      [
        "CQ",
        -8.827472374395871
      ],
      [
        "0w",
        -8.828134141526094
      ],
      [
        "yo",
        -8.82886614581858
      ],
      [
        "Hb",
        -8.828943659264603
      ],
      [
        "aB",
        -8.829167606149184
      ],
      [
        "Nw",
        -8.829331355508938
      ],
      [
        "Jo",
        -8.829405650177666
      ],
      [
        "Zv",
        -8.8294223409295
      ],
      [
        "bh",
        -8.829568751545981
      ],
      [
        "ra",
        -8.829625206435654
      ],
      [
        "Wm",
        -8.829853067474964
      ],
      [
        "Qw",
        -8.829859675905352
      ],
      [
        "zq",
        -8.83010205195508
      ],
      [
        "dL",
        -8.83021863520337
      ],
      [
        "IJ",
        -8.83049851131725
      ],
      [
        "iA",
        -8.830846816687831
      ],
      [
        "Yb",
        -8.83120739597847
      ],
      [
        "ZN",
        -8.832431187409249
      ],
      [
        "az",
        -8.83252016588067
      ],
      [
        "IC",
        -8.832531896481399
      ],
      [
        "aU",
        -8.832618374633983
      ],
      [
        "rz",
        -8.832760597885638
      ],
      [
        "Vw",
        -8.833228257811909
      ],
      [
        "Bq",
        -8.833420993375858
      ],
      [
        "Ob",
        -8.833462995576443
      ],
      [
        "zh",
        -8.83348900594153
      ],
      [
        "BQ",
        -8.833904166003599
      ],
      [
        "zA",
        -8.833968116980916
      ],
      [
        "rg",
        -8.834875937070906
      ],
      [
        "rp",
        -8.835061641518523
      ],
      [
        "sU",
        -8.835107792696885
      ],
      [
        "Jl",
        -8.835216324625861
      ],
      [
        "VG",
        -8.835423869479282
      ],
      [
        "Dw",
        -8.835611873001104
      ],
      [
        "rI",
        -8.83568367625189
      ],
      [
        "Xq",
        -8.836310113811502
      ],
      [
        "XD",
        -8.836548330607512
      ],
      [
        "jQ",
        -8.836780509347278
      ],
      [
        "aJ",
        -8.837267900373984
      ],
      [
        "fB",
        -8.837565479393152
      ],
      [
        "Kv",
        -8.837902259677913
      ],
      [
        "yD",
        -8.83823962857922
      ],
      [
        "Vh",
        -8.838715711433402
      ],
      [
        "GR",
        -8.838840496299927
      ],
      [
        "Kc",
        -8.839015765955013
      ],
      [
        "dD",
        -8.839797551879606
      ],
      [
        "Nc",
        -8.840194271861222
      ],
      [
        "tw",
        -8.841223387235546
      ],
      [
        "Al",
        -8.841677049387123
      ],
      [
        "Nu",
        -8.84216780279253
      ],
      [
        "XQ",
        -8.842423443946352
      ],
      [
        "FC",
        -8.842991855264383
      ],
      [
        "NC",
        -8.843214231449895
      ],
      [
        "fQ",
        -8.843500610398737
      ],
      [
        "rD",
        -8.843779213588556
      ],
      [
        "Qm",
        -8.843789377424777
      ],
      [
        "HW",
        -8.844074266331827
      ],
      [
        "fq",
        -8.844342990260053
      ],
      [
        "wT",
        -8.844587228033728
      ],
      [
        "Hl",
        -8.844833276592265
      ],
      [
        "Yg",
        -8.845017679738984
      ],
      [
        "mU",
        -8.845261018803757
      ],
      [
        "cv",
        -8.845837424209229
      ],
      [
        "iw",
        -8.845981682534667
      ],
      [
        "ol",
        -8.846460127514245
      ],
      [
        "XG",
        -8.846736755895295
      ],
      [
        "dR",
        -8.846861987471879
      ],
      [
        "ah",
        -8.847086949933523
      ],
      [
        "ac",
        -8.847941070191444
      ],
      [
        "xD",
        -8.848052362484452
      ],
      [
        "Ze",
        -8.848581179086734
      ],
      [
        "sC",
        -8.848761230221797
      ],
      [
        "yw",
        -8.848766007723373
      ],
      [
        "eq",
        -8.849573995187722
      ],
      [
        "Wv",
        -8.849606917063387
      ],
      [
        "wU",
        -8.849679849805486
      ],
      [
        "jb",
        -8.850572582907223
      ],
      [
        "Wo",
        -8.850828709933257
      ],
      [
        "FL",
        -8.85160039165766
      ],
      [
        "Jc",
        -8.851850172713505
      ],
      [
        "Co",
        -8.851935883605169
      ],
      [
        "FG",
        -8.85340505475924
      ],
      [
        "Wb",
        -8.854111543608088
      ],
      [
        "dB",
        -8.854299806146795
      ],
      [
        "yT",
        -8.85430321760149
      ],
      [
        "rv",
        -8.854460582975292
      ],
      [
        "fN",
        -8.855031299664468
      ],
      [
        "bA",
        -8.855162125502176
      ],
      [
        "FT",
        -8.855770458814169
      ],
      [
        "yb",
        -8.855776743472344
      ],
      [
        "Iv",
        -8.855859399219245
      ],
      [
        "Zg",
        -8.856857249920658
      ],
      [
        "df",
        -8.857052988710777
      ],
      [
        "Yq",
        -8.857058338632827
      ],
      [
        "yC",
        -8.857746198631055
      ],
      [
        "Mh",
        -8.858078695655848
      ],
      [
        "fU",
        -8.85821557244158
      ],
      [
        "rT",
        -8.858492234212932
      ],
      [
        "Xh",
        -8.858916298369046
      ],
      [
        "mA",
        -8.8590672734882
      ],
      [
        "al",
        -8.859903568870976
      ],
      [
        "rY",
        -8.86101555440737
      ],
      [
        "xI",
        -8.861527100134218
      ],
      [
        "FB",
        -8.861592966050218
      ],
      [
        "ap",
        -8.861867714353163
      ],
      [
        "wc",
        -8.862424807599517
      ],
      [
        "0e",
        -8.862629907069254
      ],
      [
        "FA",
        -8.862861171079658
      ],
      [
        "WT",
        -8.863314142447729
      ],
      [
        "wQ",
        -8.863833936636578
      ],
      [
        "rQ",
        -8.865614142618188
      ],
      [
        "BR",
        -8.865619485516879
      ],
      [
        "qv",
        -8.865634488598072
      ],
      [
        "db",
        -8.86623953375021
      ],
      [
        "RC",
        -8.86645398283217
      ],
      [
        "LC",
        -8.867180775223982
      ],
      [
        "CK",
        -8.867592414680015
      ],
      [
        "ZJ",
        -8.86800537682285
      ],
      [
        "Rv",
        -8.868173402689717
      ],
      [
        "ib",
        -8.868322327164607
      ],
      [
        "Rw",
        -8.869610242342377
      ],
      [
        "rh",
        -8.86968466870885
      ],
      [
        "dz",
        -8.870022086800489
      ],
      [
        "MD",
        -8.87016502824936
      ],
      [
        "FJ",
        -8.87029412030596
      ],
      [
        "rC",
        -8.870637376344625
      ],
      [
        "HA",
        -8.870789999100271
      ],
      [
        "xq",
        -8.870897529882512
      ],
      [
        "aG",
        -8.871536117080915
      ],
      [
        "xc",
        -8.871550709622271
      ],
      [
        "GU",
        -8.871581985018858
      ],
      [
        "Fg",
        -8.872007750281352
      ],
      [
        "aL",
        -8.872489654823028
      ],
      [
        "sJ",
        -8.873146182247254
      ],
      [
        "xe",
        -8.873605095592875
      ],
      [
        "Ho",
        -8.874343757157245
      ],
      [
        "pC",
        -8.874782054686168
      ],
      [
        "BU",
        -8.874918814212524
      ],
      [
        "Bw",
        -8.874992157878957
      ],
      [
        "iv",
        -8.875738975704992
      ],
      [
        "FI",
        -8.875745955709352
      ],
      [
        "FN",
        -8.876142414171891
      ],
      [
        "Bh",
        -8.87738104981629
      ],
      [
        "Hh",
        -8.878580793934336
      ],
      [
        "LG",
        -8.878690867771123
      ],
      [
        "0o",
        -8.878898449360284
      ],
      [
        "ph",
        -8.879109402620372
      ],
      [
        "JK",
        -8.87951448232267
      ],
      [
        "MQ",
        -8.880473162946085
      ],
      [
        "ZK",
        -8.880827104510542
      ],
      [
        "dv",
        -8.881442342692278
      ],
      [
        "Wu",
        -8.881866563521545
      ],
      [
        "yv",
        -8.882147161139876
      ],
      [
        "Bm",
        -8.882744985564095
      ],
      [
        "dc",
        -8.882858169252557
      ],
      [
        "fY",
        -8.883003395662616
      ],
      [
        "rV",
        -8.883462317475036
      ],
      [
        "aA",
        -8.883490262879747
      ],
      [
        "av",
        -8.884312774843341
      ],
      [
        "WU",
        -8.88458945044119
      ],
      [
        "rN",
        -8.884696312268165
      ],
      [
        "yA",
        -8.888814706371932
      ],
      [
        "FY",
        -8.890557220650907
      ],
      [
        "xU",
        -8.892443103400307
      ],
      [
        "0Y",
        -8.894821870797042
      ],
      [
        "NG",
        -8.895690500012272
      ],
      [
        "Yp",
        -8.897335530393985
      ],
      [
        "zQ",
        -8.902828906881137
      ],
      [
        "ZU",
        -8.90598487005089
      ],
      [
        "Fq",
        -8.907773060014929
      ],
      [
        "Fo",
        -8.908262154589004
      ],
      [
        "HU",
        -8.911165033812036
      ],
      [
        "ZG",
        -8.913718079704779
      ],
      [
        "Zh",
        -8.921754471524268
      ],
      [
        "dg",
        -8.9308879699023
      ],
      [
        "0A",
        -8.933125902445308
      ],
      [
        "xY",
        -8.939522697525637
      ],
      [
        "do",
        -8.940080555654841
      ]
    ],
    "byte_fallback": false
  }
}