{
  "version": "1.0",
  "truncation": null,
  "padding": null,
  "added_tokens": [
    {
      "id": 0,
      "content": "[PAD]",
      "single_word": false,
      "lstrip": false,
      "rstrip": false,
      "normalized": false,
      "special": true
    },
    {
      "id": 1,
      "content": "[UNK]",
      "single_word": false,
      "lstrip": false,
      "rstrip": false,
      "normalized": false,
      "special": true
    },
    {
      "id": 2,
      "content": "[CLS]",
      "single_word": false,
      "lstrip": false,
      "rstrip": false,
      "normalized": false,
      "special": true
    },
    {
      "id": 3,
      "content": "[SEP]",
      "single_word": false,
      "lstrip": false,
      "rstrip": false,
      "normalized": false,
      "special": true
    },
    {
      "id": 4,
      "content": "[MASK]",
      "single_word": false,
      "lstrip": false,
      "rstrip": false,
      "normalized": false,
      "special": true
    }
  ],
  "normalizer": {
    "type": "NFKC"
  },
  "pre_tokenizer": {
    "type": "Whitespace"
  },
  "post_processor": null,
  "decoder": null,
  "model": {
    "type": "Unigram",
    "unk_id": null,
    "vocab": [
      [
        "[PAD]",
        0.0
      ],
      [
        "[UNK]",
        0.0
      ],
      [
        "[CLS]",
        0.0
      ],
      [
        "[SEP]",
        0.0
      ],
      [
        "[MASK]",
        0.0
      ],
      [
        ">",
        -3.5083677930206587
      ],
      [
        "<",
        -3.5083677930206587
      ],
      [
        "=",
        -3.557158195286103
      ],
      [
        "SEP",
        -3.608619072818353
      ],
      [
        "k",
        -3.872535761785411
      ],
      [
        "S",
        -3.8843054820685303
      ],
      [
        "1",
        -3.901931832895519
      ],
      [
        "7",
        -3.9351704738377116
      ],
      [
        "2",
        -3.938920511226085
      ],
      [
        "4",
        -3.941913789437061
      ],
      [
        "E",
        -3.9514673633684954
      ],
      [
        "P",
        -3.955463053562193
      ],
      [
        "5",
        -4.012609564297289
      ],
      [
        "9",
        -4.046041589481115
      ],
      [
        "3",
        -4.057975276662537
      ],
      [
        "6",
        -4.179112595495365
      ],
      [
        "8",
        -4.2462128127976975
      ],
      [
        "t",
        -4.254022994111656
      ],
      [
        "0",
        -4.370500745951389
      ],
      [
        "i",
        -4.375055318694816
      ],
      [
        "s",
        -4.604816803105654
      ],
      [
        "F",
        -4.6499646049748975
      ],
      [
        "O",
        -4.709675556444447
      ],
      [
        "y",
        -4.725495839618526
      ],
      [
        "j",
        -4.729209794954011
      ],
      [
        "n",
        -4.780241890878713
      ],
      [
        "x",
        -4.903720662359749
      ],
      [
        "H",
        -5.072109508876194
      ],
      [
        "u",
        -5.157200650188827
      ],
      [
        "d",
        -5.192544990709186
      ],
      [
        "R",
        -5.192918248518989
      ],
      [
        "Z",
        -5.194666819817748
      ],
      [
        "r",
        -5.22601849204956
      ],
      [
        "M",
        -5.258784856786912
      ],
      [
        "X",
        -5.315119004851949
      ],
      [
        "z",
        -5.317134698917073
      ],
      [
        "m",
        -5.332551107142134
      ],
      [
        "p",
        -5.3466700328198105
      ],
      [
        "l",
        -5.370805322413503
      ],
      [
        "V",
        -5.398055216915083
      ],
      [
        "f",
        -5.430190428589354
      ],
      [
        "K",
        -5.445787105435793
      ],
      [
        "L",
        -5.475743701652899
      ],
      [
        "a",
        -5.499716598777857
      ],
      [
        "c",
        -5.52496680565163
      ],
      [
        "W",
        -5.54720481480485
      ],
      [
        "h",
        -5.560017162820898
      ],
      [
        "e",
        -5.564303635624542
      ],
      [
        "I",
        -5.5674744433761845
      ],
      [
        "G",
        -5.574250164765441
      ],
      [
        "D",
        -5.579004728557273
      ],
      [
        "Q",
        -5.595426012592526
      ],
      [
        "g",
        -5.617119099175257
      ],
      [
        "B",
        -5.640137111053395
      ],
      [
        "J",
        -5.642067388158651
      ],
      [
        "T",
        -5.65383701448952
      ],
      [
        "A",
        -5.700119666635905
      ],
      [
        "U",
        -5.71627358301372
      ],
      [
        "b",
        -5.73061355776106
      ],
      [
        "w",
        -5.742222644234548
      ],
      [
        "Y",
        -5.744373985686726
      ],
      [
        "N",
        -5.74617309039165
      ],
      [
        "C",
        -5.757996015373299
      ],
      [
        "v",
        -5.807569058351628
      ],
      [
        "q",
        -5.859494616795413
      ],
      [
        "o",
        -5.862611158920517
      ],
      [
        "k1",
        -6.460574736137147
      ],
      [
        "k0",
        -6.492520159971308
      ],
      [
        "k6",
        -6.509665551147862
      ],
      [
        "k8",
        -6.511139143007618
      ],
      [
        "sig",
        -6.549217893288047
      ],
      [
        "REC",
        -6.549573983085869
      ],
      [
        "END",
        -6.550371385869553
      ],
      [
        "nal",
        -6.551133756399151
      ],
      [
        "k9",
        -6.552927708591289
      ],
      [
        "_",
        -6.552985472165098
      ],
      [
        "k3",
        -6.556206627591937
      ],
      [
        "k5",
        -6.566922460322154
      ],
      [
        "k18",
        -6.567663344814955
      ],
      [
        "k16",
        -6.568449433914276
      ],
      [
        "k13",
        -6.570785323225019
      ],
      [
        "k19",
        -6.573540928153577
      ],
      [
        "k15",
        -6.5737721322553195
      ],
      [
        "k12",
        -6.574948869971621
      ],
      [
        "k14",
        -6.575076293131401
      ],
      [
        "k11",
        -6.575372908525253
      ],
      [
        "k17",
        -6.5761953546800385
      ],
      [
        "k7",
        -6.5844100960121335
      ],
      [
        "k2",
        -6.596373263276158
      ],
      [
        "k4",
        -6.606101419312797
      ],
      [
        "bZ",
        -8.504516011024855
      ],
      [
        "vF",
        -8.524734990232993
      ],
      [
        "hR",
        -8.53566768306976
      ],
      [
        "bF",
        -8.554357481663468
      ],
      [
        "UR",
        -8.555273077390927
      ],
      [
        "hd",
        -8.56000843360631
      ],
      [
        "o8",
        -8.560426184273876
      ],
      [
        "UF",
        -8.56085438651083
      ],
      [
        "h8",
        -8.567268114036885
      ],
      [
        "hQ",
        -8.571957704852906
      ],
      [
        "oa",
        -8.573961070998863
      ],
      [
        "Gx",
        -8.576277063262422
      ],
      [
        "Ut",
        -8.578800896776869
      ],
      [
        "Cx",
        -8.57890328183699
      ],
      [
        "Ui",
        -8.580193351958025
      ],
      [
        "AF",
        -8.581335412625211
      ],
      [
        "Di",
        -8.581670933083402
      ],
      [
        "Gd",
        -8.582098461000903
      ],
      [
        "zF",
        -8.58358186885581
      ],
      [
        "TF",
        -8.585699429829148
      ],
      [
        "mW",
        -8.586338817795355
      ],
      [
        "h0",
        -8.586375377622005
      ],
      [
        "bY",
        -8.587145567483038
      ],
      [
        "lF",
        -8.587491576130072
      ],
      [
        "hf",
        -8.587596052779901
      ],
      [
        "hN",
        -8.587778705057685
      ],
      [
        "bi",
        -8.58875098765508
      ],
      [
        "bd",
        -8.588792760380445
      ],
      [
        "va",
        -8.589277147908309
      ],
      [
        "hr",
        -8.589979463858656
      ],
      [
        "l0",
        -8.592575203364579
      ],
      [
        "W8",
        -8.592905359743606
      ],
      [
        "Td",
        -8.593303734087513
      ],
      [
        "vr",
        -8.594975868375716
      ],
      [
        "Gi",
        -8.594982702345186
      ],
      [
        "cy",
        -8.595639124834964
      ],
      [
        "L0",
        -8.595751155258503
      ],
      [
        "c8",
        -8.595805778861047
      ],
      [
        "I6",
        -8.596614177499383
      ],
      [
        "my",
        -8.597246512553724
      ],
      [
        "gJ",
        -8.598261908323739
      ],
      [
        "ld",
        -8.598966203107572
      ],
      [
        "LF",
        -8.601305416030566
      ],
      [
        "Ux",
        -8.601383753347555
      ],
      [
        "h6",
        -8.601850926156004
      ],
      [
        "T8",
        -8.601910207701211
      ],
      [
        "DF",
        -8.602327000648259
      ],
      [
        "qr",
        -8.602822418038299
      ],
      [
        "KF",
        -8.603162965191963
      ],
      [
        "vx",
        -8.60371657309408
      ],
      [
        "oc",
        -8.603909719029811
      ],
      [
        "gV",
        -8.605130698581958
      ],
      [
        "Uy",
        -8.6063572219586
      ],
      [
        "py",
        -8.606368591367646
      ],
      [
        "p8",
        -8.607419810228855
      ],
      [
        "vu",
        -8.607760831660979
      ],
      [
        "c0",
        -8.60840450040632
      ],
      [
        "Ny",
        -8.608560038648616
      ],
      [
        "gd",
        -8.609221184823856
      ],
      [
        "GF",
        -8.609399863750419
      ],
      [
        "hF",
        -8.609729945202256
      ],
      [
        "hH",
        -8.611342136219834
      ],
      [
        "vR",
        -8.611510571510145
      ],
      [
        "ha",
        -8.611914037627624
      ],
      [
        "gx",
        -8.61212177700894
      ],
      [
        "Aw",
        -8.61324286313544
      ],
      [
        "V8",
        -8.6134763671371
      ],
      [
        "J8",
        -8.61366201234533
      ],
      [
        "MF",
        -8.614116979754852
      ],
      [
        "Ky",
        -8.614179849536953
      ],
      [
        "C8",
        -8.615130098218465
      ],
      [
        "vf",
        -8.61518436173925
      ],
      [
        "IZ",
        -8.61518514912558
      ],
      [
        "qX",
        -8.61528588306917
      ],
      [
        "Qe",
        -8.616025699406785
      ],
      [
        "Bf",
        -8.616479299104075
      ],
      [
        "vZ",
        -8.616920007629712
      ],
      [
        "UZ",
        -8.616998398607935
      ],
      [
        "hi",
        -8.617367090328118
      ],
      [
        "CB",
        -8.617645266548587
      ],
      [
        "uF",
        -8.617771971108942
      ],
      [
        "CO",
        -8.617844992856707
      ],
      [
        "uf",
        -8.617921726316922
      ],
      [
        "A8",
        -8.618488452504252
      ],
      [
        "Um",
        -8.61856817996421
      ],
      [
        "fx",
        -8.618601227144293
      ],
      [
        "hX",
        -8.618875479107283
      ],
      [
        "pr",
        -8.619096115592235
      ],
      [
        "Hn",
        -8.619704925497219
      ],
      [
        "Ir",
        -8.619833618927373
      ],
      [
        "G6",
        -8.62006431445537
      ],
      [
        "lH",
        -8.62021921142929
      ],
      [
        "g6",
        -8.620755741330836
      ],
      [
        "UQ",
        -8.620942034674318
      ],
      [
        "BZ",
        -8.621627597425485
      ],
      [
        "Vr",
        -8.62197491472358
      ],
      [
        "vm",
        -8.62222983345733
      ],
      [
        "pB",
        -8.622305118367047
      ],
      [
        "pi",
        -8.622722446951174
      ],
      [
        "vi",
        -8.622773431819054
      ],
      [
        "GX",
        -8.623208388392321
      ],
      [
        "Ad",
        -8.623594444523214
      ],
      [
        "c6",
        -8.623973326127286
      ],
      [
        "hC",
        -8.624518050597585
      ],
      [
        "oZ",
        -8.624695545128393
      ],
      [
        "Q6",
        -8.625170666165658
      ],
      [
        "Ua",
        -8.62526759320447
      ],
      [
        "o6",
        -8.62547693387469
      ],
      [
        "nr",
        -8.62576600948508
      ],
      [
        "UM",
        -8.62613724947959
      ],
      [
        "zK",
        -8.62649462461616
      ],
      [
        "lx",
        -8.62668801567522
      ],
      [
        "QW",
        -8.627014310217376
      ],
      [
        "nZ",
        -8.627254859347067
      ],
      [
        "LZ",
        -8.627327642430064
      ],
      [
        "eT",
        -8.627447370235867
      ],
      [
        "G8",
        -8.627583054924333
      ],
      [
        "C0",
        -8.62759025059755
      ],
      [
        "Lu",
        -8.627674130445468
      ],
      [
        "Ug",
        -8.627699712052383
      ],
      [
        "ba",
        -8.627952003680573
      ],
      [
        "vo",
        -8.627996458730301
      ],
      [
        "Ki",
        -8.62823689602857
      ],
      [
        "U0",
        -8.62860665974825
      ],
      [
        "JH",
        -8.628753127110372
      ],
      [
        "LW",
        -8.62888121621349
      ],
      [
        "AA",
        -8.628886977098123
      ],
      [
        "YL",
        -8.629008983174806
      ],
      [
        "B8",
        -8.62939029683304
      ],
      [
        "qZ",
        -8.629600974095894
      ],
      [
        "N0",
        -8.62990145436105
      ],
      [
        "Cw",
        -8.630294376026932
      ],
      [
        "vw",
        -8.630361101239618
      ],
      [
        "Ga",
        -8.630561235089655
      ],
      [
        "ur",
        -8.631092222803542
      ],
      [
        "hp",
        -8.6310942675543
      ],
      [
        "DB",
        -8.631236215904353
      ],
      [
        "lz",
        -8.632303732962228
      ],
      [
        "q0",
        -8.63272280970704
      ],
      [
        "VF",
        -8.633930552133398
      ],
      [
        "IF",
        -8.634209052861674
      ],
      [
        "Jx",
        -8.634332187650358
      ],
      [
        "Up",
        -8.6345092929195
      ],
      [
        "AZ",
        -8.635059568682795
      ],
      [
        "hM",
        -8.636219033625563
      ],
      [
        "wH",
        -8.63678106782347
      ],
      [
        "qQ",
        -8.63683977427472
      ],
      [
        "Vc",
        -8.636920983792528
      ],
      [
        "fF",
        -8.637163985262232
      ],
      [
        "qu",
        -8.637984944445758
      ],
      [
        "ww",
        -8.638285886269237
      ],
      [
        "Y8",
        -8.638605080385503
      ],
      [
        "hB",
        -8.638796543122217
      ],
      [
        "Ca",
        -8.639587581482907
      ],
      [
        "N8",
        -8.639805436071976
      ],
      [
        "D8",
        -8.639913658860515
      ],
      [
        "qd",
        -8.640439770717071
      ],
      [
        "sB",
        -8.640709243871612
      ],
      [
        "TO",
        -8.641069193362153
      ],
      [
        "em",
        -8.641542940160358
      ],
      [
        "gi",
        -8.641948834031702
      ],
      [
        "hh",
        -8.642169114455058
      ],
      [
        "g8",
        -8.642590218558537
      ],
      [
        "Iy",
        -8.642662922247837
      ],
      [
        "o0",
        -8.643367295171966
      ],
      [
        "gz",
        -8.643505340069021
      ],
      [
        "qN",
        -8.644066689235514
      ],
      [
        "hL",
        -8.644082696969237
      ],
      [
        "QL",
        -8.644284296433046
      ],
      [
        "cd",
        -8.644332917065697
      ],
      [
        "vs",
        -8.64451668402668
      ],
      [
        "Np",
        -8.6445535534278
      ],
      [
        "ay",
        -8.644916630184426
      ],
      [
        "Ar",
        -8.644944929358351
      ],
      [
        "gR",
        -8.645593470989802
      ],
      [
        "aR",
        -8.645861572435829
      ],
      [
        "vy",
        -8.646106176342636
      ],
      [
        "Ya",
        -8.646278238634553
      ],
      [
        "gf",
        -8.646438297994997
      ],
      [
        "RF",
        -8.646587117726217
      ],
      [
        "Jr",
        -8.647582315508881
      ],
      [
        "T6",
        -8.64816016943075
      ],
      [
        "D0",
        -8.648193808842612
      ],
      [
        "CT",
        -8.648217232505598
      ],
      [
        "qF",
        -8.64832386537923
      ],
      [
        "Qx",
        -8.64842351786735
      ],
      [
        "mO",
        -8.64848863650355
      ],
      [
        "mB",
        -8.648631161167904
      ],
      [
        "Zr",
        -8.64863438702085
      ],
      [
        "Xd",
        -8.648643320223389
      ],
      [
        "ud",
        -8.649505683614104
      ],
      [
        "N6",
        -8.64957756228167
      ],
      [
        "Br",
        -8.649636540562318
      ],
      [
        "UT",
        -8.649815027594894
      ],
      [
        "U6",
        -8.650074462212853
      ],
      [
        "oy",
        -8.650354129042753
      ],
      [
        "vv",
        -8.650495480702038
      ],
      [
        "a8",
        -8.650532898004489
      ],
      [
        "qH",
        -8.650652814382372
      ],
      [
        "UW",
        -8.651029400204195
      ],
      [
        "AT",
        -8.651224365536809
      ],
      [
        "Qd",
        -8.651348427717362
      ],
      [
        "cr",
        -8.651426014948768
      ],
      [
        "Yd",
        -8.652140159743803
      ],
      [
        "di",
        -8.652640062737554
      ],
      [
        "vX",
        -8.652703194682623
      ],
      [
        "vd",
        -8.652867139424838
      ],
      [
        "hJ",
        -8.65290312761579
      ],
      [
        "vL",
        -8.652993110601994
      ],
      [
        "qB",
        -8.653010470200433
      ],
      [
        "Vm",
        -8.653282526027185
      ],
      [
        "Hf",
        -8.653351780693097
      ],
      [
        "gy",
        -8.653386993263409
      ],
      [
        "mH",
        -8.653648825707737
      ],
      [
        "Tr",
        -8.653730064833944
      ],
      [
        "w8",
        -8.653730260131194
      ],
      [
        "vO",
        -8.65373840400186
      ],
      [
        "zd",
        -8.654036480207802
      ],
      [
        "hK",
        -8.654111230140472
      ],
      [
        "Nn",
        -8.655029313397208
      ],
      [
        "La",
        -8.65513219640362
      ],
      [
        "br",
        -8.655431973430986
      ],
      [
        "eR",
        -8.655758797425516
      ],
      [
        "QR",
        -8.655785995950595
      ],
      [
        "UB",
        -8.655939921023208
      ],
      [
        "qc",
        -8.65597475563872
      ],
      [
        "Rd",
        -8.6563143690389
      ],
      [
        "gr",
        -8.656508894498899
      ],
      [
        "nX",
        -8.656587884356298
      ],
      [
        "bz",
        -8.65668543940017
      ],
      [
        "YC",
        -8.65670724825756
      ],
      [
        "Kt",
        -8.656878358954142
      ],
      [
        "bD",
        -8.656899605624423
      ],
      [
        "zH",
        -8.657100486857988
      ],
      [
        "cJ",
        -8.657193190273428
      ],
      [
        "hV",
        -8.657353401540746
      ],
      [
        "B0",
        -8.657365432191128
      ],
      [
        "UJ",
        -8.6575512438001
      ],
      [
        "Qu",
        -8.657779727173926
      ],
      [
        "fa",
        -8.657813039747651
      ],
      [
        "V0",
        -8.65781461597877
      ],
      [
        "Ur",
        -8.657946009093127
      ],
      [
        "Ub",
        -8.657969350487363
      ],
      [
        "CF",
        -8.65797292940714
      ],
      [
        "nx",
        -8.658153934873987
      ],
      [
        "hW",
        -8.658170273210317
      ],
      [
        "lG",
        -8.658555684693022
      ],
      [
        "TW",
        -8.65896039434342
      ],
      [
        "ho",
        -8.659236467774264
      ],
      [
        "pR",
        -8.659418375755248
      ],
      [
        "bW",
        -8.659552403110416
      ],
      [
        "Md",
        -8.65959618549973
      ],
      [
        "Na",
        -8.659606240210525
      ],
      [
        "oq",
        -8.659711731042671
      ],
      [
        "Nv",
        -8.659735545928172
      ],
      [
        "Nd",
        -8.659858463731052
      ],
      [
        "Mj",
        -8.659929079053473
      ],
      [
        "A0",
        -8.660064387027951
      ],
      [
        "wd",
        -8.66052133450738
      ],
      [
        "LB",
        -8.660541753513943
      ],
      [
        "ga",
        -8.660670014364683
      ],
      [
        "U8",
        -8.660681139916285
      ],
      [
        "uy",
        -8.660856389050817
      ],
      [
        "ec",
        -8.660919186648593
      ],
      [
        "hv",
        -8.661086779068338
      ],
      [
        "Ul",
        -8.661305655257202
      ],
      [
        "pd",
        -8.6613725338662
      ],
      [
        "Ji",
        -8.66147468091503
      ],
      [
        "Ax",
        -8.66163052159475
      ],
      [
        "pb",
        -8.662084125650972
      ],
      [
        "ed",
        -8.662107596032678
      ],
      [
        "Ud",
        -8.662440927601889
      ],
      [
        "ow",
        -8.662978410267389
      ],
      [
        "Ld",
        -8.663231430259048
      ],
      [
        "VW",
        -8.663293398941764
      ],
      [
        "v8",
        -8.663641546379228
      ],
      [
        "vY",
        -8.664062674889287
      ],
      [
        "Mr",
        -8.664423798892589
      ],
      [
        "zx",
        -8.664455148358401
      ],
      [
        "qR",
        -8.664526106866937
      ],
      [
        "CH",
        -8.664676413497236
      ],
      [
        "sr",
        -8.664857863666306
      ],
      [
        "CD",
        -8.664909887008669
      ],
      [
        "Nt",
        -8.664927571185247
      ],
      [
        "GJ",
        -8.665032704926155
      ],
      [
        "NW",
        -8.665101812734742
      ],
      [
        "CZ",
        -8.665113445857024
      ],
      [
        "qy",
        -8.66516312120716
      ],
      [
        "Ai",
        -8.66517343387278
      ],
      [
        "gs",
        -8.66531153684915
      ],
      [
        "h5",
        -8.665440483337466
      ],
      [
        "AH",
        -8.665518143651493
      ],
      [
        "oj",
        -8.665674453360456
      ],
      [
        "At",
        -8.665849547158691
      ],
      [
        "WH",
        -8.665922610117057
      ],
      [
        "wi",
        -8.666172053142262
      ],
      [
        "Ge",
        -8.666232058812081
      ],
      [
        "ws",
        -8.666280843956049
      ],
      [
        "lM",
        -8.666409189059113
      ],
      [
        "ex",
        -8.666424137342373
      ],
      [
        "hy",
        -8.66650512633152
      ],
      [
        "WI",
        -8.666667236375801
      ],
      [
        "co",
        -8.666704561918976
      ],
      [
        "hz",
        -8.66680280541967
      ],
      [
        "wW",
        -8.666830788485909
      ],
      [
        "ov",
        -8.666838089707873
      ],
      [
        "Jd",
        -8.666865353198409
      ],
      [
        "Ns",
        -8.667165660382754
      ],
      [
        "Cr",
        -8.667250083398006
      ],
      [
        "cL",
        -8.667506505617652
      ],
      [
        "MA",
        -8.667880396888773
      ],
      [
        "wB",
        -8.667887173036409
      ],
      [
        "pY",
        -8.667959565506614
      ],
      [
        "Od",
        -8.668007234703394
      ],
      [
        "xa",
        -8.668043098027484
      ],
      [
        "cq",
        -8.668066630097
      ],
      [
        "Cu",
        -8.668079098650338
      ],
      [
        "Zd",
        -8.66832447622027
      ],
      [
        "Un",
        -8.668392235111998
      ],
      [
        "ZF",
        -8.668461621563413
      ],
      [
        "zX",
        -8.66861986188976
      ],
      [
        "cR",
        -8.668749619108684
      ],
      [
        "vW",
        -8.668777297836616
      ],
      [
        "qi",
        -8.668841161141952
      ],
      [
        "Ng",
        -8.668842664037161
      ],
      [
        "oz",
        -8.669101330351134
      ],
      [
        "BF",
        -8.669445641479665
      ],
      [
        "DR",
        -8.669501139306352
      ],
      [
        "LH",
        -8.66955556064267
      ],
      [
        "cf",
        -8.669665630554785
      ],
      [
        "zW",
        -8.669727490258746
      ],
      [
        "Gr",
        -8.669848223420626
      ],
      [
        "W6",
        -8.670194458981069
      ],
      [
        "ma",
        -8.670228499724427
      ],
      [
        "ze",
        -8.67026976077959
      ],
      [
        "KH",
        -8.670281898010877
      ],
      [
        "YZ",
        -8.670341356154962
      ],
      [
        "Da",
        -8.670614589418987
      ],
      [
        "NH",
        -8.670650924456393
      ],
      [
        "uT",
        -8.671069443694519
      ],
      [
        "mZ",
        -8.671207683292785
      ],
      [
        "of",
        -8.671209475101568
      ],
      [
        "Uf",
        -8.671354985725124
      ],
      [
        "Gt",
        -8.671417730700831
      ],
      [
        "px",
        -8.671576280685283
      ],
      [
        "VO",
        -8.671729263935328
      ],
      [
        "Qr",
        -8.67179991012209
      ],
      [
        "eX",
        -8.67242838090641
      ],
      [
        "gG",
        -8.67252352006584
      ],
      [
        "oY",
        -8.672611123506666
      ],
      [
        "od",
        -8.672728299083172
      ],
      [
        "GN",
        -8.672785764088431
      ],
      [
        "gF",
        -8.672910159777896
      ],
      [
        "fX",
        -8.67292166711962
      ],
      [
        "hx",
        -8.672953204435306
      ],
      [
        "De",
        -8.673075004923767
      ],
      [
        "gn",
        -8.673179914603914
      ],
      [
        "Yz",
        -8.673288030494142
      ],
      [
        "Tu",
        -8.673335113060858
      ],
      [
        "gQ",
        -8.673779353968062
      ],
      [
        "BM",
        -8.673907608733188
      ],
      [
        "gZ",
        -8.674224338897583
      ],
      [
        "gh",
        -8.674235691385217
      ],
      [
        "jT",
        -8.674498076077338
      ],
      [
        "cb",
        -8.674563504292523
      ],
      [
        "Jm",
        -8.675080994120158
      ],
      [
        "Uw",
        -8.67515834636906
      ],
      [
        "LO",
        -8.675208536211013
      ],
      [
        "Kd",
        -8.675220236895896
      ],
      [
        "DL",
        -8.675635129859032
      ],
      [
        "Qz",
        -8.675740180770697
      ],
      [
        "cB",
        -8.675870498245015
      ],
      [
        "GD",
        -8.675941805029762
      ],
      [
        "Xx",
        -8.676033960368493
      ],
      [
        "wZ",
        -8.676089823948857
      ],
      [
        "NZ",
        -8.676219531872281
      ],
      [
        "vt",
        -8.676401046834641
      ],
      [
        "Wr",
        -8.676527108974145
      ],
      [
        "nd",
        -8.676644767940834
      ],
      [
        "QF",
        -8.676695771685676
      ],
      [
        "Kx",
        -8.676867394134936
      ],
      [
        "UX",
        -8.676874136007056
      ],
      [
        "ct",
        -8.676952913226799
      ],
      [
        "hw",
        -8.677334235557566
      ],
      [
        "vI",
        -8.677387314421063
      ],
      [
        "NF",
        -8.677735500745502
      ],
      [
        "Qa",
        -8.678050490725184
      ],
      [
        "na",
        -8.678060628704237
      ],
      [
        "oH",
        -8.678159408398567
      ],
      [
        "hg",
        -8.678203384175173
      ],
      [
        "qn",
        -8.67838467869871
      ],
      [
        "uu",
        -8.678701788231926
      ],
      [
        "GO",
        -8.678715641622446
      ],
      [
        "XW",
        -8.678752247523214
      ],
      [
        "pz",
        -8.67883747818626
      ],
      [
        "vB",
        -8.678853905333575
      ],
      [
        "pV",
        -8.678895659099254
      ],
      [
        "Kq",
        -8.679047696037959
      ],
      [
        "Aa",
        -8.679077627609573
      ],
      [
        "AO",
        -8.679083840379443
      ],
      [
        "pA",
        -8.679168508413772
      ],
      [
        "ca",
        -8.67973872964502
      ],
      [
        "MB",
        -8.679776188491152
      ],
      [
        "qx",
        -8.679859744911777
      ],
      [
        "mf",
        -8.68001065789744
      ],
      [
        "bu",
        -8.680013916260766
      ],
      [
        "KI",
        -8.680177527187542
      ],
      [
        "DQ",
        -8.680178797085079
      ],
      [
        "NI",
        -8.680216518910495
      ],
      [
        "UO",
        -8.680249061747418
      ],
      [
        "oF",
        -8.680307122570536
      ],
      [
        "qf",
        -8.680418586028274
      ],
      [
        "Ka",
        -8.68051772755653
      ],
      [
        "ey",
        -8.680626421969354
      ],
      [
        "Vd",
        -8.680677508538711
      ],
      [
        "lT",
        -8.680683921101206
      ],
      [
        "IV",
        -8.680739169301493
      ],
      [
        "Uz",
        -8.68089895923114
      ],
      [
        "z0",
        -8.680924867121659
      ],
      [
        "cK",
        -8.680977815447232
      ],
      [
        "hu",
        -8.681125741988332
      ],
      [
        "Hx",
        -8.681138269912742
      ],
      [
        "VH",
        -8.68117881625146
      ],
      [
        "pK",
        -8.681314635719428
      ],
      [
        "ew",
        -8.681361114389954
      ],
      [
        "Rc",
        -8.681382520175777
      ],
      [
        "Dd",
        -8.68218705664218
      ],
      [
        "es",
        -8.682239240606222
      ],
      [
        "CW",
        -8.682289453346925
      ],
      [
        "ot",
        -8.68247830839592
      ],
      [
        "zn",
        -8.682519915503317
      ],
      [
        "cY",
        -8.682572800899484
      ],
      [
        "Vg",
        -8.68265393516091
      ],
      [
        "o3",
        -8.682756044266856
      ],
      [
        "Je",
        -8.682938935812237
      ],
      [
        "he",
        -8.68303718733541
      ],
      [
        "Xy",
        -8.683173410450827
      ],
      [
        "By",
        -8.68324740077297
      ],
      [
        "cX",
        -8.68336506365651
      ],
      [
        "mm",
        -8.683700627496709
      ],
      [
        "BV",
        -8.683725821448098
      ],
      [
        "lL",
        -8.683727423957798
      ],
      [
        "uq",
        -8.683807647593339
      ],
      [
        "pF",
        -8.683987035153628
      ],
      [
        "oR",
        -8.684098346391554
      ],
      [
        "Ls",
        -8.68411634845942
      ],
      [
        "eF",
        -8.684330054331918
      ],
      [
        "le",
        -8.684419143202842
      ],
      [
        "Kz",
        -8.68451671185893
      ],
      [
        "oK",
        -8.684522227715538
      ],
      [
        "Gz",
        -8.684780833651502
      ],
      [
        "Lx",
        -8.684828365390523
      ],
      [
        "Mu",
        -8.684877842562418
      ],
      [
        "bg",
        -8.684955552691564
      ],
      [
        "cO",
        -8.685292880034066
      ],
      [
        "vH",
        -8.68533505228817
      ],
      [
        "zG",
        -8.685341975491962
      ],
      [
        "YM",
        -8.685385808525936
      ],
      [
        "hI",
        -8.685454480640196
      ],
      [
        "Vn",
        -8.68547736150302
      ],
      [
        "Ke",
        -8.685511655373016
      ],
      [
        "GK",
        -8.685513683105528
      ],
      [
        "jg",
        -8.685687325876604
      ],
      [
        "cm",
        -8.68581353133158
      ],
      [
        "VD",
        -8.685845243860362
      ],
      [
        "B6",
        -8.686011840572974
      ],
      [
        "Ce",
        -8.686150981726144
      ],
      [
        "qA",
        -8.686263476347339
      ],
      [
        "md",
        -8.686354521480698
      ],
      [
        "Vy",
        -8.68649573665456
      ],
      [
        "qh",
        -8.686522856388201
      ],
      [
        "Km",
        -8.686674098309012
      ],
      [
        "Gy",
        -8.686789836391618
      ],
      [
        "hs",
        -8.686833448225062
      ],
      [
        "b8",
        -8.687025922163693
      ],
      [
        "pM",
        -8.687537177711672
      ],
      [
        "Vo",
        -8.687866309725909
      ],
      [
        "nA",
        -8.687931880979276
      ],
      [
        "vD",
        -8.688102381591714
      ],
      [
        "sW",
        -8.688188104446557
      ],
      [
        "XZ",
        -8.688205202005273
      ],
      [
        "b0",
        -8.688272751597442
      ],
      [
        "NR",
        -8.68847373480865
      ],
      [
        "KA",
        -8.688512413699298
      ],
      [
        "Cc",
        -8.688517152877594
      ],
      [
        "To",
        -8.688574644708542
      ],
      [
        "KV",
        -8.688655134880534
      ],
      [
        "CX",
        -8.688671384271473
      ],
      [
        "Nf",
        -8.689238264558398
      ],
      [
        "TT",
        -8.689402129252336
      ],
      [
        "e0",
        -8.689479595947958
      ],
      [
        "q8",
        -8.689668966944664
      ],
      [
        "Oa",
        -8.689826650053815
      ],
      [
        "YN",
        -8.690016521543864
      ],
      [
        "TC",
        -8.690144808824275
      ],
      [
        "Kw",
        -8.690310892226316
      ],
      [
        "QT",
        -8.690455654410968
      ],
      [
        "IM",
        -8.690513353077051
      ],
      [
        "hO",
        -8.690568820153072
      ],
      [
        "Aq",
        -8.690634398844352
      ],
      [
        "CV",
        -8.69063739359074
      ],
      [
        "TY",
        -8.690638288546577
      ],
      [
        "AL",
        -8.690653426324793
      ],
      [
        "VU",
        -8.690858270044707
      ],
      [
        "zw",
        -8.690862901028968
      ],
      [
        "Vb",
        -8.690905615421261
      ],
      [
        "ML",
        -8.691042004966768
      ],
      [
        "Ac",
        -8.69131912361701
      ],
      [
        "YV",
        -8.691740051562316
      ],
      [
        "zN",
        -8.691814754724781
      ],
      [
        "by",
        -8.691921303393421
      ],
      [
        "be",
        -8.692022806964513
      ],
      [
        "or",
        -8.692066448192314
      ],
      [
        "Ij",
        -8.692079991028743
      ],
      [
        "W0",
        -8.692086093993684
      ],
      [
        "DY",
        -8.692094362407026
      ],
      [
        "bH",
        -8.692096735523505
      ],
      [
        "lb",
        -8.692188103074223
      ],
      [
        "Vf",
        -8.69230143852344
      ],
      [
        "Dr",
        -8.692532006950524
      ],
      [
        "WM",
        -8.692617507550924
      ],
      [
        "vc",
        -8.69266639403153
      ],
      [
        "Lm",
        -8.6929075650663
      ],
      [
        "Yx",
        -8.692911713184746
      ],
      [
        "ef",
        -8.693055030750706
      ],
      [
        "KK",
        -8.693462140445382
      ],
      [
        "Ku",
        -8.693510652454112
      ],
      [
        "Jn",
        -8.693978968706737
      ],
      [
        "LA",
        -8.694070104455719
      ],
      [
        "lZ",
        -8.694139357590895
      ],
      [
        "DO",
        -8.694168711955086
      ],
      [
        "U9",
        -8.694431671460771
      ],
      [
        "Mx",
        -8.69446080705237
      ],
      [
        "UG",
        -8.694631823999417
      ],
      [
        "QN",
        -8.694759291368676
      ],
      [
        "mn",
        -8.69480198048064
      ],
      [
        "nR",
        -8.694802992903096
      ],
      [
        "RT",
        -8.695094758944334
      ],
      [
        "OM",
        -8.695135343213401
      ],
      [
        "Iu",
        -8.695453677899451
      ],
      [
        "TZ",
        -8.695455403164743
      ],
      [
        "VA",
        -8.69559218205001
      ],
      [
        "nJ",
        -8.69561832237575
      ],
      [
        "CN",
        -8.695666736865537
      ],
      [
        "zs",
        -8.695703610656611
      ],
      [
        "AR",
        -8.695723322886263
      ],
      [
        "TB",
        -8.695739136361055
      ],
      [
        "wM",
        -8.695750201651691
      ],
      [
        "CA",
        -8.695831995272894
      ],
      [
        "RH",
        -8.695881050132627
      ],
      [
        "Kr",
        -8.696101839877294
      ],
      [
        "oB",
        -8.69610671487062
      ],
      [
        "gw",
        -8.696156798579711
      ],
      [
        "C3",
        -8.696256969491895
      ],
      [
        "NN",
        -8.696457818102628
      ],
      [
        "Qy",
        -8.696524013128963
      ],
      [
        "qj",
        -8.696525567762526
      ],
      [
        "ae",
        -8.696763089922015
      ],
      [
        "MY",
        -8.696838307198735
      ],
      [
        "gD",
        -8.696923160355468
      ],
      [
        "LI",
        -8.69696691222629
      ],
      [
        "Dm",
        -8.697018011380194
      ],
      [
        "vQ",
        -8.697052756666224
      ],
      [
        "Q0",
        -8.697058543389971
      ],
      [
        "mo",
        -8.697250326114371
      ],
      [
        "Lf",
        -8.697563481645858
      ],
      [
        "DI",
        -8.697635799315172
      ],
      [
        "Gs",
        -8.697658151631368
      ],
      [
        "cl",
        -8.6977271634934
      ],
      [
        "JZ",
        -8.697752465965758
      ],
      [
        "hb",
        -8.697779733530139
      ],
      [
        "BB",
        -8.697790783717437
      ],
      [
        "HZ",
        -8.6978397537683
      ],
      [
        "bO",
        -8.697894597010302
      ],
      [
        "w0",
        -8.698033905838848
      ],
      [
        "ue",
        -8.698052980326267
      ],
      [
        "GW",
        -8.698269783268513
      ],
      [
        "hG",
        -8.698716874221246
      ],
      [
        "vA",
        -8.698853888155185
      ],
      [
        "QD",
        -8.698913327740996
      ],
      [
        "zY",
        -8.698961122881133
      ],
      [
        "BO",
        -8.699314241683492
      ],
      [
        "TM",
        -8.69959198030948
      ],
      [
        "XU",
        -8.699601613786271
      ],
      [
        "ez",
        -8.699691419799947
      ],
      [
        "Nq",
        -8.699730168502509
      ],
      [
        "ge",
        -8.69985644163339
      ],
      [
        "eM",
        -8.700065310886552
      ],
      [
        "bM",
        -8.700187312643255
      ],
      [
        "Qc",
        -8.700238518375428
      ],
      [
        "Yy",
        -8.700320887124066
      ],
      [
        "bc",
        -8.700472213401799
      ],
      [
        "NU",
        -8.700530908606652
      ],
      [
        "nM",
        -8.700649313124348
      ],
      [
        "oM",
        -8.700835637918647
      ],
      [
        "Bd",
        -8.70095923250083
      ],
      [
        "Uo",
        -8.700981698766281
      ],
      [
        "LV",
        -8.701032250878999
      ],
      [
        "hn",
        -8.701119605855997
      ],
      [
        "lA",
        -8.701142553521121
      ],
      [
        "ry",
        -8.701170226892023
      ],
      [
        "cW",
        -8.701173475690686
      ],
      [
        "bR",
        -8.701225989337544
      ],
      [
        "cx",
        -8.701315689115997
      ],
      [
        "hZ",
        -8.701495512407309
      ],
      [
        "JF",
        -8.701529890814616
      ],
      [
        "IY",
        -8.701664111433873
      ],
      [
        "hm",
        -8.701671909995127
      ],
      [
        "hj",
        -8.701718659288662
      ],
      [
        "dY",
        -8.701784809011656
      ],
      [
        "Uq",
        -8.701809266556664
      ],
      [
        "gB",
        -8.701869192468902
      ],
      [
        "ll",
        -8.701950391932154
      ],
      [
        "KR",
        -8.702023118226988
      ],
      [
        "gj",
        -8.702032764137538
      ],
      [
        "nB",
        -8.702067339880452
      ],
      [
        "YW",
        -8.702123915382739
      ],
      [
        "je",
        -8.702316480009245
      ],
      [
        "fb",
        -8.702359587503881
      ],
      [
        "Gn",
        -8.702369995619005
      ],
      [
        "KX",
        -8.702444156231149
      ],
      [
        "oe",
        -8.702483518979044
      ],
      [
        "DN",
        -8.702494621138596
      ],
      [
        "Gu",
        -8.702580087676221
      ],
      [
        "qM",
        -8.70265897793063
      ],
      [
        "Av",
        -8.70271750908259
      ],
      [
        "zr",
        -8.702828782136757
      ],
      [
        "ce",
        -8.702896686388232
      ],
      [
        "oo",
        -8.702971100548488
      ],
      [
        "Nr",
        -8.702981688831041
      ],
      [
        "RY",
        -8.703007367861233
      ],
      [
        "Ay",
        -8.70301203082369
      ],
      [
        "cG",
        -8.703163155007974
      ],
      [
        "mz",
        -8.703292434275816
      ],
      [
        "oD",
        -8.70355802680887
      ],
      [
        "WA",
        -8.703635288694048
      ],
      [
        "am",
        -8.703715265253152
      ],
      [
        "pT",
        -8.703720574800732
      ],
      [
        "Am",
        -8.703782327346335
      ],
      [
        "oi",
        -8.703965565782363
      ],
      [
        "NA",
        -8.70402503191227
      ],
      [
        "dX",
        -8.704033418120524
      ],
      [
        "oW",
        -8.704127712342924
      ],
      [
        "RR",
        -8.704516559537481
      ],
      [
        "VJ",
        -8.704775312694125
      ],
      [
        "Tz",
        -8.705117658098583
      ],
      [
        "wG",
        -8.705880245191864
      ],
      [
        "AC",
        -8.706024164214742
      ],
      [
        "mI",
        -8.706066751805341
      ],
      [
        "wl",
        -8.706089494757155
      ],
      [
        "jX",
        -8.706235892001327
      ],
      [
        "Ty",
        -8.706276759524444
      ],
      [
        "It",
        -8.706322314263222
      ],
      [
        "Hc",
        -8.706653347396234
      ],
      [
        "zl",
        -8.706827415484213
      ],
      [
        "Ia",
        -8.706871137075812
      ],
      [
        "rx",
        -8.706976908173038
      ],
      [
        "om",
        -8.707126475469135
      ],
      [
        "qe",
        -8.707424383600745
      ],
      [
        "op",
        -8.707434988735251
      ],
      [
        "gb",
        -8.707443473784014
      ],
      [
        "lQ",
        -8.707525485111798
      ],
      [
        "oX",
        -8.707760144808207
      ],
      [
        "qU",
        -8.707783540384838
      ],
      [
        "MM",
        -8.707879409220563
      ],
      [
        "CG",
        -8.708072627816907
      ],
      [
        "jH",
        -8.708081989042741
      ],
      [
        "Be",
        -8.708112359852993
      ],
      [
        "ZM",
        -8.708371531446572
      ],
      [
        "zV",
        -8.70840203631671
      ],
      [
        "eG",
        -8.70859597669052
      ],
      [
        "Gw",
        -8.708709109180006
      ],
      [
        "gU",
        -8.70873195129253
      ],
      [
        "QY",
        -8.70877256346224
      ],
      [
        "bp",
        -8.708942140846464
      ],
      [
        "BJ",
        -8.7091337342761
      ],
      [
        "rU",
        -8.709426038267122
      ],
      [
        "qV",
        -8.70959249625398
      ],
      [
        "RN",
        -8.709758023863426
      ],
      [
        "lC",
        -8.709782407360837
      ],
      [
        "MR",
        -8.709883968690665
      ],
      [
        "Y0",
        -8.709919248153874
      ],
      [
        "ja",
        -8.709978598378113
      ],
      [
        "pW",
        -8.71016407453706
      ],
      [
        "UL",
        -8.710298151832752
      ],
      [
        "cu",
        -8.710525113748297
      ],
      [
        "Tx",
        -8.71063455812172
      ],
      [
        "mx",
        -8.71068439078725
      ],
      [
        "eZ",
        -8.710756937023598
      ],
      [
        "gv",
        -8.71087510951173
      ],
      [
        "NO",
        -8.711242014103764
      ],
      [
        "pU",
        -8.711308450279102
      ],
      [
        "jD",
        -8.71145169742505
      ],
      [
        "uY",
        -8.711510499010146
      ],
      [
        "Hr",
        -8.711700115046291
      ],
      [
        "DG",
        -8.71183941517431
      ],
      [
        "JJ",
        -8.711873260843621
      ],
      [
        "zT",
        -8.711879863835078
      ],
      [
        "gO",
        -8.712001565182483
      ],
      [
        "gI",
        -8.712022582615901
      ],
      [
        "Ql",
        -8.71206121851711
      ],
      [
        "qJ",
        -8.712090630961272
      ],
      [
        "bV",
        -8.712130101936658
      ],
      [
        "Ye",
        -8.71213244423899
      ],
      [
        "dy",
        -8.712253013482755
      ],
      [
        "Uu",
        -8.712377616581351
      ],
      [
        "JC",
        -8.71241078698365
      ],
      [
        "WZ",
        -8.712557469299245
      ],
      [
        "qq",
        -8.7126554188824
      ],
      [
        "QH",
        -8.712881558865575
      ],
      [
        "wx",
        -8.712963843728785
      ],
      [
        "zg",
        -8.712967421380778
      ],
      [
        "er",
        -8.71312845656622
      ],
      [
        "cN",
        -8.713192788788271
      ],
      [
        "jB",
        -8.71334321361815
      ],
      [
        "vJ",
        -8.713484284324547
      ],
      [
        "DM",
        -8.713514934026476
      ],
      [
        "Nm",
        -8.713637399125176
      ],
      [
        "BK",
        -8.713656755634405
      ],
      [
        "Mz",
        -8.713686108069922
      ],
      [
        "qa",
        -8.713894018577353
      ],
      [
        "jR",
        -8.713919214530806
      ],
      [
        "Wf",
        -8.713938310622478
      ],
      [
        "Bb",
        -8.714062133503546
      ],
      [
        "DZ",
        -8.714102263575178
      ],
      [
        "QI",
        -8.714202165132342
      ],
      [
        "KZ",
        -8.714384256311419
      ],
      [
        "Jf",
        -8.714435726686323
      ],
      [
        "Jy",
        -8.714458921370973
      ],
      [
        "RA",
        -8.714568960333253
      ],
      [
        "Yw",
        -8.714624820497907
      ],
      [
        "KY",
        -8.714907951008623
      ],
      [
        "Kf",
        -8.714911409764174
      ],
      [
        "bG",
        -8.714913927530256
      ],
      [
        "gN",
        -8.715009296187672
      ],
      [
        "ob",
        -8.715150208545712
      ],
      [
        "dw",
        -8.715279029254614
      ],
      [
        "UN",
        -8.715460172606294
      ],
      [
        "pI",
        -8.715662467332947
      ],
      [
        "YF",
        -8.715745298691676
      ],
      [
        "Bu",
        -8.715762655528055
      ],
      [
        "mw",
        -8.71580517988383
      ],
      [
        "eN",
        -8.716037546767499
      ],
      [
        "bs",
        -8.716041243917092
      ],
      [
        "QX",
        -8.716263859611079
      ],
      [
        "qo",
        -8.71628649326544
      ],
      [
        "VK",
        -8.716309547780462
      ],
      [
        "MG",
        -8.716341268120654
      ],
      [
        "cH",
        -8.716349640406051
      ],
      [
        "Nx",
        -8.716536035519312
      ],
      [
        "Dx",
        -8.716899319918106
      ],
      [
        "Ae",
        -8.71696810583467
      ],
      [
        "Gh",
        -8.717034877598994
      ],
      [
        "mc",
        -8.717062840608508
      ],
      [
        "bx",
        -8.71725848130052
      ],
      [
        "ID",
        -8.7174053426332
      ],
      [
        "cC",
        -8.71743150474947
      ],
      [
        "TX",
        -8.717526977407669
      ],
      [
        "QZ",
        -8.7179300019046
      ],
      [
        "KC",
        -8.717934551574622
      ],
      [
        "aV",
        -8.717997670969076
      ],
      [
        "Cq",
        -8.718076948056023
      ],
      [
        "Vp",
        -8.718281107087599
      ],
      [
        "KB",
        -8.718432622981036
      ],
      [
        "NK",
        -8.718486542043397
      ],
      [
        "OQ",
        -8.718565235552413
      ],
      [
        "zM",
        -8.718566341052835
      ],
      [
        "oN",
        -8.718682615474613
      ],
      [
        "Du",
        -8.718758237368855
      ],
      [
        "fl",
        -8.718775961399562
      ],
      [
        "Hd",
        -8.718914304512769
      ],
      [
        "wF",
        -8.718931042031212
      ],
      [
        "CU",
        -8.719256343877403
      ],
      [
        "bw",
        -8.719461762142048
      ],
      [
        "IR",
        -8.719698501771783
      ],
      [
        "eC",
        -8.719849378761765
      ],
      [
        "Bn",
        -8.719948754323868
      ],
      [
        "QG",
        -8.720133254924281
      ],
      [
        "bT",
        -8.720169099167968
      ],
      [
        "wO",
        -8.72037597775018
      ],
      [
        "wj",
        -8.720397697559122
      ],
      [
        "XN",
        -8.720640728535418
      ],
      [
        "IG",
        -8.720654305424512
      ],
      [
        "CM",
        -8.720661721544944
      ],
      [
        "uH",
        -8.720805932164085
      ],
      [
        "DA",
        -8.7208080367588
      ],
      [
        "wa",
        -8.720868646209263
      ],
      [
        "gH",
        -8.720871002189497
      ],
      [
        "lr",
        -8.7209171565795
      ],
      [
        "WW",
        -8.720940581947215
      ],
      [
        "bQ",
        -8.720970128373764
      ],
      [
        "mr",
        -8.721024685097898
      ],
      [
        "Cs",
        -8.721268880346038
      ],
      [
        "eK",
        -8.721447855265174
      ],
      [
        "Vx",
        -8.721619228320819
      ],
      [
        "vh",
        -8.72174340991833
      ],
      [
        "An",
        -8.721809818327506
      ],
      [
        "vM",
        -8.721852191692655
      ],
      [
        "bJ",
        -8.72187742580612
      ],
      [
        "ev",
        -8.721935937464242
      ],
      [
        "JX",
        -8.721954549468258
      ],
      [
        "pa",
        -8.721955360957567
      ],
      [
        "Rx",
        -8.722190828404933
      ],
      [
        "eW",
        -8.722257791420429
      ],
      [
        "cn",
        -8.722443302566194
      ],
      [
        "Ra",
        -8.722467883831715
      ],
      [
        "uB",
        -8.722487593994138
      ],
      [
        "q6",
        -8.722499315044875
      ],
      [
        "qw",
        -8.722507374769139
      ],
      [
        "MI",
        -8.722537507007516
      ],
      [
        "fy",
        -8.722568461166382
      ],
      [
        "la",
        -8.722730155648996
      ],
      [
        "Rr",
        -8.722737015530416
      ],
      [
        "JR",
        -8.722794111249605
      ],
      [
        "bI",
        -8.722809770943217
      ],
      [
        "vV",
        -8.722824455616948
      ],
      [
        "RL",
        -8.723212613915965
      ],
      [
        "KQ",
        -8.723242307752356
      ],
      [
        "zj",
        -8.723469092513104
      ],
      [
        "Bv",
        -8.72351962292762
      ],
      [
        "A6",
        -8.723562353493492
      ],
      [
        "lw",
        -8.72364322535904
      ],
      [
        "Nb",
        -8.723753164790732
      ],
      [
        "RK",
        -8.723789297476786
      ],
      [
        "Cd",
        -8.72378938696341
      ],
      [
        "qY",
        -8.723837091182713
      ],
      [
        "lB",
        -8.724144246741975
      ],
      [
        "WL",
        -8.724166430065875
      ],
      [
        "Qj",
        -8.724234208220135
      ],
      [
        "cw",
        -8.724364110451422
      ],
      [
        "Tc",
        -8.724439271629508
      ],
      [
        "ea",
        -8.724482014706378
      ],
      [
        "Ib",
        -8.724489967505571
      ],
      [
        "K0",
        -8.724505007097434
      ],
      [
        "ps",
        -8.724579770586054
      ],
      [
        "DK",
        -8.724630366269139
      ],
      [
        "Cz",
        -8.724689943794418
      ],
      [
        "nl",
        -8.724838570315
      ],
      [
        "UH",
        -8.724846258277136
      ],
      [
        "UU",
        -8.724950312375615
      ],
      [
        "AX",
        -8.725038056069739
      ],
      [
        "DJ",
        -8.725055866351397
      ],
      [
        "zf",
        -8.72512460198163
      ],
      [
        "Re",
        -8.72515548521285
      ],
      [
        "hc",
        -8.725167449418578
      ],
      [
        "nq",
        -8.725403129022698
      ],
      [
        "OL",
        -8.725553327072062
      ],
      [
        "Xr",
        -8.725562832279781
      ],
      [
        "Te",
        -8.725601181587017
      ],
      [
        "MN",
        -8.725637183559536
      ],
      [
        "Af",
        -8.725719324285212
      ],
      [
        "nv",
        -8.72574283141524
      ],
      [
        "nb",
        -8.725742898336645
      ],
      [
        "TH",
        -8.725754583255661
      ],
      [
        "Il",
        -8.725835110462569
      ],
      [
        "JA",
        -8.72585264131208
      ],
      [
        "NJ",
        -8.72586755904813
      ],
      [
        "eu",
        -8.725900629469947
      ],
      [
        "Ba",
        -8.725989804250792
      ],
      [
        "BA",
        -8.726051166210699
      ],
      [
        "Ix",
        -8.726062203791807
      ],
      [
        "rX",
        -8.726108259911792
      ],
      [
        "VM",
        -8.726123173895424
      ],
      [
        "qt",
        -8.726164100281524
      ],
      [
        "AD",
        -8.726188392502296
      ],
      [
        "Kp",
        -8.72633562279151
      ],
      [
        "Ue",
        -8.726436298472969
      ],
      [
        "WR",
        -8.726456983211655
      ],
      [
        "mY",
        -8.726515600908467
      ],
      [
        "gK",
        -8.726779548262083
      ],
      [
        "oL",
        -8.726862774699292
      ],
      [
        "Cm",
        -8.726962300066246
      ],
      [
        "WV",
        -8.726990322245822
      ],
      [
        "GT",
        -8.727004342438228
      ],
      [
        "Va",
        -8.727034050452241
      ],
      [
        "jf",
        -8.727189469922674
      ],
      [
        "JI",
        -8.727243820790251
      ],
      [
        "lN",
        -8.727252484850649
      ],
      [
        "TG",
        -8.727304504847904
      ],
      [
        "NM",
        -8.727523766249082
      ],
      [
        "qC",
        -8.72756059575915
      ],
      [
        "MZ",
        -8.727632925147892
      ],
      [
        "eH",
        -8.727671737394793
      ],
      [
        "CR",
        -8.727943736205475
      ],
      [
        "uN",
        -8.728219880602225
      ],
      [
        "de",
        -8.728267209346601
      ],
      [
        "Zf",
        -8.728373367087496
      ],
      [
        "TU",
        -8.72842840912506
      ],
      [
        "QO",
        -8.728647288892674
      ],
      [
        "HN",
        -8.728661196182028
      ],
      [
        "fr",
        -8.728686562176943
      ],
      [
        "Io",
        -8.728829038439432
      ],
      [
        "rK",
        -8.72883774163111
      ],
      [
        "Mw",
        -8.72899134193053
      ],
      [
        "gp",
        -8.729148595790129
      ],
      [
        "GI",
        -8.729378385025456
      ],
      [
        "nf",
        -8.72939604353034
      ],
      [
        "Qn",
        -8.729421272417643
      ],
      [
        "ZT",
        -8.72947291324849
      ],
      [
        "Tm",
        -8.729607695036414
      ],
      [
        "nN",
        -8.729632358785153
      ],
      [
        "Ow",
        -8.72976469377901
      ],
      [
        "qW",
        -8.72979605698714
      ],
      [
        "Lr",
        -8.729860492557812
      ],
      [
        "ux",
        -8.729964559755887
      ],
      [
        "fO",
        -8.730006571663015
      ],
      [
        "ZZ",
        -8.730125886969649
      ],
      [
        "cQ",
        -8.730197242239946
      ],
      [
        "Tf",
        -8.730207735902601
      ],
      [
        "TL",
        -8.730337649099564
      ],
      [
        "Jh",
        -8.730357362684558
      ],
      [
        "YX",
        -8.730433619098497
      ],
      [
        "lv",
        -8.73048979152141
      ],
      [
        "Qo",
        -8.730511360064757
      ],
      [
        "Qf",
        -8.730568717253714
      ],
      [
        "wV",
        -8.730665282402878
      ],
      [
        "ff",
        -8.730750173115172
      ],
      [
        "Cb",
        -8.73091857617721
      ],
      [
        "gT",
        -8.731008696864238
      ],
      [
        "yr",
        -8.731085303613202
      ],
      [
        "Tl",
        -8.731099006883277
      ],
      [
        "KG",
        -8.731138130718506
      ],
      [
        "vz",
        -8.731170324995635
      ],
      [
        "uo",
        -8.731490159130832
      ],
      [
        "rW",
        -8.73170880437467
      ],
      [
        "ep",
        -8.731875136769283
      ],
      [
        "LR",
        -8.731937897884588
      ],
      [
        "v0",
        -8.731971808106193
      ],
      [
        "qL",
        -8.731982772676425
      ],
      [
        "Wy",
        -8.732193373167998
      ],
      [
        "RZ",
        -8.732455333289023
      ],
      [
        "MU",
        -8.732559886663136
      ],
      [
        "nW",
        -8.732608018562445
      ],
      [
        "fZ",
        -8.732612351451994
      ],
      [
        "gX",
        -8.732821123490368
      ],
      [
        "LM",
        -8.732887944838051
      ],
      [
        "RM",
        -8.732925786778692
      ],
      [
        "bf",
        -8.733052032577636
      ],
      [
        "AJ",
        -8.73307938476388
      ],
      [
        "JQ",
        -8.733185576313929
      ],
      [
        "eD",
        -8.733454738484085
      ],
      [
        "pp",
        -8.733541228705363
      ],
      [
        "wb",
        -8.733711915061093
      ],
      [
        "vN",
        -8.733777589245708
      ],
      [
        "hY",
        -8.733825940163094
      ],
      [
        "pj",
        -8.7338995857826
      ],
      [
        "Cn",
        -8.734005547244447
      ],
      [
        "gW",
        -8.734006994993855
      ],
      [
        "go",
        -8.734309617490203
      ],
      [
        "oQ",
        -8.734329675252184
      ],
      [
        "fc",
        -8.734473607365905
      ],
      [
        "ee",
        -8.734477582450253
      ],
      [
        "If",
        -8.734535474174162
      ],
      [
        "Ma",
        -8.734585670405544
      ],
      [
        "WJ",
        -8.734586001225153
      ],
      [
        "ne",
        -8.73463686747451
      ],
      [
        "IB",
        -8.734728439182746
      ],
      [
        "Id",
        -8.734807304887845
      ],
      [
        "VN",
        -8.734862934497881
      ],
      [
        "Ou",
        -8.734912845487147
      ],
      [
        "cz",
        -8.73492444094347
      ],
      [
        "bb",
        -8.735017727833641
      ],
      [
        "AQ",
        -8.735083646061643
      ],
      [
        "vl",
        -8.73508633720988
      ],
      [
        "gc",
        -8.735394651464865
      ],
      [
        "zL",
        -8.735437164706227
      ],
      [
        "KM",
        -8.735452753333867
      ],
      [
        "Wp",
        -8.735463614671145
      ],
      [
        "dG",
        -8.735603102496173
      ],
      [
        "BT",
        -8.735746165709404
      ],
      [
        "uc",
        -8.735766321963204
      ],
      [
        "qG",
        -8.735841865781016
      ],
      [
        "GQ",
        -8.735878229559926
      ],
      [
        "Ru",
        -8.736082695009095
      ],
      [
        "oV",
        -8.736219573546435
      ],
      [
        "NQ",
        -8.73635021220165
      ],
      [
        "NT",
        -8.736608226200838
      ],
      [
        "Dy",
        -8.736686380370152
      ],
      [
        "QB",
        -8.736698345053583
      ],
      [
        "YQ",
        -8.736776645745822
      ],
      [
        "BY",
        -8.736886802779136
      ],
      [
        "mu",
        -8.7369021219748
      ],
      [
        "lK",
        -8.737259860540275
      ],
      [
        "jo",
        -8.737290736532751
      ],
      [
        "gu",
        -8.737446744355251
      ],
      [
        "xr",
        -8.73751507343435
      ],
      [
        "wy",
        -8.73753380257292
      ],
      [
        "Jp",
        -8.737553087731072
      ],
      [
        "Ao",
        -8.737558754260448
      ],
      [
        "Ts",
        -8.737665463017848
      ],
      [
        "XY",
        -8.737785342809332
      ],
      [
        "RX",
        -8.737786506172448
      ],
      [
        "Uh",
        -8.738080622429196
      ],
      [
        "qp",
        -8.738155125541788
      ],
      [
        "lm",
        -8.738410422699392
      ],
      [
        "NB",
        -8.738480602322937
      ],
      [
        "VR",
        -8.738511538951176
      ],
      [
        "Ja",
        -8.73861621415825
      ],
      [
        "gA",
        -8.738622182654705
      ],
      [
        "Yh",
        -8.738639929496353
      ],
      [
        "jA",
        -8.738658529839235
      ],
      [
        "Lh",
        -8.738775298173607
      ],
      [
        "Rg",
        -8.738962663608863
      ],
      [
        "bK",
        -8.738975084821849
      ],
      [
        "Rm",
        -8.73904003582247
      ],
      [
        "UV",
        -8.739045703866068
      ],
      [
        "Ym",
        -8.739376917624222
      ],
      [
        "KW",
        -8.73941363927425
      ],
      [
        "ad",
        -8.739673158594266
      ],
      [
        "bo",
        -8.739717240466518
      ],
      [
        "LY",
        -8.739764219547705
      ],
      [
        "cV",
        -8.739764873729737
      ],
      [
        "fg",
        -8.739784592660154
      ],
      [
        "BI",
        -8.740072656879804
      ],
      [
        "BC",
        -8.740131125450475
      ],
      [
        "Ha",
        -8.740140491160945
      ],
      [
        "Ml",
        -8.740202588175691
      ],
      [
        "eO",
        -8.74024370865483
      ],
      [
        "Yo",
        -8.740330184004172
      ],
      [
        "oJ",
        -8.740464135379355
      ],
      [
        "aY",
        -8.74048536245682
      ],
      [
        "IK",
        -8.74061482569152
      ],
      [
        "mX",
        -8.740849288067725
      ],
      [
        "ZW",
        -8.740867478776245
      ],
      [
        "Lg",
        -8.74087766881154
      ],
      [
        "WO",
        -8.741159040592464
      ],
      [
        "hU",
        -8.741243554736457
      ],
      [
        "Bp",
        -8.741266102272393
      ],
      [
        "Yr",
        -8.741414408921209
      ],
      [
        "QM",
        -8.74150424081557
      ],
      [
        "eQ",
        -8.741713014037964
      ],
      [
        "YK",
        -8.741840852540715
      ],
      [
        "Gg",
        -8.741870821690526
      ],
      [
        "fd",
        -8.741911780667682
      ],
      [
        "Az",
        -8.741942067866054
      ],
      [
        "xg",
        -8.741986350190858
      ],
      [
        "qz",
        -8.742047192185787
      ],
      [
        "pJ",
        -8.74204855850514
      ],
      [
        "XX",
        -8.742088035430315
      ],
      [
        "zb",
        -8.742107934460735
      ],
      [
        "IQ",
        -8.742222656043335
      ],
      [
        "hT",
        -8.74226339421757
      ],
      [
        "Hu",
        -8.742270705889197
      ],
      [
        "RJ",
        -8.742285096569866
      ],
      [
        "nz",
        -8.742487967529009
      ],
      [
        "zI",
        -8.742596950957672
      ],
      [
        "uw",
        -8.74262902710652
      ],
      [
        "fR",
        -8.74270702371033
      ],
      [
        "bq",
        -8.742757544538435
      ],
      [
        "dC",
        -8.743090398778088
      ],
      [
        "wv",
        -8.743100201455514
      ],
      [
        "Go",
        -8.743127518374722
      ],
      [
        "sa",
        -8.743181347146546
      ],
      [
        "Vq",
        -8.743277345051741
      ],
      [
        "KL",
        -8.743277414857868
      ],
      [
        "Gm",
        -8.743341549407146
      ],
      [
        "gM",
        -8.7434273914643
      ],
      [
        "hl",
        -8.743507063986733
      ],
      [
        "xT",
        -8.743516662336056
      ],
      [
        "YI",
        -8.743534777238459
      ],
      [
        "JM",
        -8.743619302955043
      ],
      [
        "Ie",
        -8.743638928761527
      ],
      [
        "We",
        -8.743767034324986
      ],
      [
        "Cj",
        -8.74390313559148
      ],
      [
        "NL",
        -8.744089076480597
      ],
      [
        "wp",
        -8.744132001250811
      ],
      [
        "OK",
        -8.744393354449743
      ],
      [
        "pu",
        -8.744396278034209
      ],
      [
        "TI",
        -8.744399770229675
      ],
      [
        "hA",
        -8.744410145773523
      ],
      [
        "jI",
        -8.744444016867508
      ],
      [
        "vq",
        -8.744468875980953
      ],
      [
        "ax",
        -8.74453349375909
      ],
      [
        "no",
        -8.744544283023853
      ],
      [
        "Iw",
        -8.744618583877262
      ],
      [
        "zu",
        -8.74465113285728
      ],
      [
        "TN",
        -8.744660756045915
      ],
      [
        "eY",
        -8.745019480466343
      ],
      [
        "VC",
        -8.745072822588932
      ],
      [
        "JO",
        -8.74514863299558
      ],
      [
        "ua",
        -8.745215725701058
      ],
      [
        "q3",
        -8.745275507841537
      ],
      [
        "vU",
        -8.745385475393215
      ],
      [
        "JN",
        -8.745594907800015
      ],
      [
        "VI",
        -8.745655358616691
      ],
      [
        "wL",
        -8.745861844580203
      ],
      [
        "Om",
        -8.746177944933569
      ],
      [
        "DW",
        -8.74630024539428
      ],
      [
        "Nj",
        -8.746459651884656
      ],
      [
        "mG",
        -8.746721298366868
      ],
      [
        "ox",
        -8.746842412407045
      ],
      [
        "nL",
        -8.747092775513151
      ],
      [
        "Tb",
        -8.747101802368316
      ],
      [
        "zZ",
        -8.747166440678207
      ],
      [
        "wh",
        -8.747259830483852
      ],
      [
        "Xb",
        -8.747299043022782
      ],
      [
        "oC",
        -8.747434137979326
      ],
      [
        "xJ",
        -8.747443482443275
      ],
      [
        "qm",
        -8.747465176440556
      ],
      [
        "lg",
        -8.747601556507409
      ],
      [
        "NX",
        -8.747674263288118
      ],
      [
        "oU",
        -8.74773783193293
      ],
      [
        "pL",
        -8.747764089147637
      ],
      [
        "mV",
        -8.748260129079645
      ],
      [
        "fp",
        -8.748413724424687
      ],
      [
        "gg",
        -8.748465791437177
      ],
      [
        "UA",
        -8.7485246243285
      ],
      [
        "cT",
        -8.74859905795157
      ],
      [
        "pH",
        -8.74860719937907
      ],
      [
        "WC",
        -8.74878435591018
      ],
      [
        "gY",
        -8.748943515314355
      ],
      [
        "QV",
        -8.748981530097012
      ],
      [
        "Bg",
        -8.749003658190773
      ],
      [
        "qI",
        -8.749120701204673
      ],
      [
        "AY",
        -8.749124033127842
      ],
      [
        "fJ",
        -8.7491463520738
      ],
      [
        "Tj",
        -8.749247432559706
      ],
      [
        "LT",
        -8.74928771071032
      ],
      [
        "Kl",
        -8.749366063221538
      ],
      [
        "Ab",
        -8.749688686186708
      ],
      [
        "II",
        -8.74972928110447
      ],
      [
        "Ve",
        -8.749823101473332
      ],
      [
        "Wl",
        -8.749885702801732
      ],
      [
        "AM",
        -8.750037036082498
      ],
      [
        "GM",
        -8.750079713386754
      ],
      [
        "YO",
        -8.750093425761754
      ],
      [
        "QC",
        -8.750240012150176
      ],
      [
        "Dv",
        -8.750340422188088
      ],
      [
        "Kn",
        -8.750356280510928
      ],
      [
        "Dc",
        -8.750358090301582
      ],
      [
        "wR",
        -8.750370833346365
      ],
      [
        "KJ",
        -8.750370923637195
      ],
      [
        "bm",
        -8.750461538832681
      ],
      [
        "rr",
        -8.750655745344638
      ],
      [
        "uV",
        -8.750713803318426
      ],
      [
        "w3",
        -8.750719747007873
      ],
      [
        "mK",
        -8.750752012539838
      ],
      [
        "lR",
        -8.75080428776096
      ],
      [
        "UD",
        -8.750830472673464
      ],
      [
        "IX",
        -8.750834822195248
      ],
      [
        "zR",
        -8.750855992677426
      ],
      [
        "DX",
        -8.750927180723867
      ],
      [
        "jw",
        -8.750941817252226
      ],
      [
        "v9",
        -8.75114973652957
      ],
      [
        "Fd",
        -8.751178574907419
      ],
      [
        "GL",
        -8.75127650847432
      ],
      [
        "ar",
        -8.751320799999876
      ],
      [
        "we",
        -8.751429301446528
      ],
      [
        "sI",
        -8.75169860136582
      ],
      [
        "LL",
        -8.751700859369578
      ],
      [
        "vK",
        -8.751953972647907
      ],
      [
        "LX",
        -8.752003043344322
      ],
      [
        "bU",
        -8.752008179973128
      ],
      [
        "Im",
        -8.752081513391225
      ],
      [
        "Bj",
        -8.75210440707807
      ],
      [
        "lV",
        -8.752140255972542
      ],
      [
        "JG",
        -8.752149882517854
      ],
      [
        "TQ",
        -8.752274217502597
      ],
      [
        "Lw",
        -8.752275376757995
      ],
      [
        "WD",
        -8.75231756702794
      ],
      [
        "Vz",
        -8.752363442915478
      ],
      [
        "rs",
        -8.752384296654661
      ],
      [
        "Mm",
        -8.752384310285395
      ],
      [
        "DV",
        -8.752392750984612
      ],
      [
        "mq",
        -8.752419042909732
      ],
      [
        "Ko",
        -8.75278289743762
      ],
      [
        "lo",
        -8.752800165287496
      ],
      [
        "LQ",
        -8.75281050364594
      ],
      [
        "ZC",
        -8.752857541093228
      ],
      [
        "og",
        -8.752972829685877
      ],
      [
        "He",
        -8.753003744736148
      ],
      [
        "mD",
        -8.75314683764669
      ],
      [
        "wI",
        -8.753168961158082
      ],
      [
        "HI",
        -8.753230034799062
      ],
      [
        "nT",
        -8.753267843939286
      ],
      [
        "WF",
        -8.75334626613373
      ],
      [
        "IA",
        -8.75347289802593
      ],
      [
        "wN",
        -8.753744163953634
      ],
      [
        "os",
        -8.753756371989518
      ],
      [
        "uv",
        -8.7537728767091
      ],
      [
        "As",
        -8.753944047478345
      ],
      [
        "eg",
        -8.753946590617964
      ],
      [
        "cM",
        -8.754093867257264
      ],
      [
        "Dp",
        -8.754123956372004
      ],
      [
        "AV",
        -8.754191307153778
      ],
      [
        "lJ",
        -8.754313113886024
      ],
      [
        "qs",
        -8.75434053690694
      ],
      [
        "Nl",
        -8.754361602743977
      ],
      [
        "uM",
        -8.75437243585905
      ],
      [
        "TV",
        -8.75437800009906
      ],
      [
        "fo",
        -8.75437831717105
      ],
      [
        "Bx",
        -8.754437562207215
      ],
      [
        "dd",
        -8.754807441626378
      ],
      [
        "mM",
        -8.755085882147457
      ],
      [
        "jp",
        -8.755093466615321
      ],
      [
        "lu",
        -8.75512477272288
      ],
      [
        "OB",
        -8.755178340369074
      ],
      [
        "Gb",
        -8.755319514527194
      ],
      [
        "gl",
        -8.755397093115835
      ],
      [
        "UC",
        -8.7554989680466
      ],
      [
        "DD",
        -8.755511037811965
      ],
      [
        "xX",
        -8.75561451758489
      ],
      [
        "YH",
        -8.75591196438381
      ],
      [
        "RV",
        -8.756121551171455
      ],
      [
        "Yu",
        -8.756172250062068
      ],
      [
        "MT",
        -8.756182441940677
      ],
      [
        "jZ",
        -8.756239636431271
      ],
      [
        "cU",
        -8.75625903654893
      ],
      [
        "CC",
        -8.7562649738571
      ],
      [
        "vp",
        -8.756406739307618
      ],
      [
        "hD",
        -8.756418178325973
      ],
      [
        "QA",
        -8.756419385098198
      ],
      [
        "mC",
        -8.756452970573914
      ],
      [
        "pX",
        -8.756458887682768
      ],
      [
        "RU",
        -8.756470378549597
      ],
      [
        "IU",
        -8.756549005083937
      ],
      [
        "RI",
        -8.756592675209298
      ],
      [
        "ZA",
        -8.756788039316742
      ],
      [
        "gC",
        -8.756806036581334
      ],
      [
        "Yl",
        -8.75682076295566
      ],
      [
        "IW",
        -8.756871646882892
      ],
      [
        "Mb",
        -8.757030620381459
      ],
      [
        "Ap",
        -8.757050955675805
      ],
      [
        "zU",
        -8.757073674808446
      ],
      [
        "Zm",
        -8.75710153860738
      ],
      [
        "jN",
        -8.757112407525721
      ],
      [
        "fT",
        -8.757340902401307
      ],
      [
        "Gq",
        -8.757363555677061
      ],
      [
        "sK",
        -8.757466969050414
      ],
      [
        "pe",
        -8.757493631914231
      ],
      [
        "XK",
        -8.75755156966713
      ],
      [
        "Kb",
        -8.757601243883379
      ],
      [
        "MX",
        -8.75772323790607
      ],
      [
        "LK",
        -8.757817227486061
      ],
      [
        "YB",
        -8.757991328229284
      ],
      [
        "AU",
        -8.758038313974113
      ],
      [
        "AB",
        -8.758327429340646
      ],
      [
        "uW",
        -8.758428820809023
      ],
      [
        "VQ",
        -8.758524916854865
      ],
      [
        "Cl",
        -8.758666847386735
      ],
      [
        "BW",
        -8.758780954941962
      ],
      [
        "Xa",
        -8.758789629423468
      ],
      [
        "KN",
        -8.758919930811892
      ],
      [
        "bv",
        -8.759020078898697
      ],
      [
        "Ch",
        -8.759051697103462
      ],
      [
        "Bz",
        -8.759516195991127
      ],
      [
        "N5",
        -8.759532248971542
      ],
      [
        "rd",
        -8.759612735685984
      ],
      [
        "qT",
        -8.759654913599821
      ],
      [
        "DT",
        -8.759720305004203
      ],
      [
        "xM",
        -8.75994356607957
      ],
      [
        "HL",
        -8.759955841053435
      ],
      [
        "jv",
        -8.760047293671755
      ],
      [
        "lX",
        -8.760190812849093
      ],
      [
        "GA",
        -8.760270293273045
      ],
      [
        "dQ",
        -8.760270853097023
      ],
      [
        "Ta",
        -8.760333049753118
      ],
      [
        "uZ",
        -8.760464118676232
      ],
      [
        "Tn",
        -8.76047930530652
      ],
      [
        "Jb",
        -8.760486900504409
      ],
      [
        "Is",
        -8.760531899695195
      ],
      [
        "on",
        -8.760586687390752
      ],
      [
        "Xm",
        -8.760600236149955
      ],
      [
        "q5",
        -8.760651325119163
      ],
      [
        "nI",
        -8.760741151006142
      ],
      [
        "ZX",
        -8.760798739810252
      ],
      [
        "GZ",
        -8.760798798202755
      ],
      [
        "fM",
        -8.760876924679607
      ],
      [
        "CI",
        -8.760890358830991
      ],
      [
        "JY",
        -8.761350497975885
      ],
      [
        "Aj",
        -8.76142050279817
      ],
      [
        "Dg",
        -8.76148758852275
      ],
      [
        "JL",
        -8.761698512864022
      ],
      [
        "OW",
        -8.761759039707119
      ],
      [
        "aq",
        -8.761768248335105
      ],
      [
        "MH",
        -8.761944044626077
      ],
      [
        "xw",
        -8.761995025333478
      ],
      [
        "MW",
        -8.762057241215292
      ],
      [
        "Cf",
        -8.762183985709939
      ],
      [
        "au",
        -8.762352062149976
      ],
      [
        "GY",
        -8.762566602231997
      ],
      [
        "Tg",
        -8.76261901856449
      ],
      [
        "ya",
        -8.762645638046463
      ],
      [
        "Do",
        -8.762746881511703
      ],
      [
        "wq",
        -8.763096650717735
      ],
      [
        "cZ",
        -8.763165753524065
      ],
      [
        "ou",
        -8.763313349796892
      ],
      [
        "jY",
        -8.76342916779836
      ],
      [
        "jl",
        -8.763494482892497
      ],
      [
        "IL",
        -8.763538914222096
      ],
      [
        "LU",
        -8.763574789312518
      ],
      [
        "ro",
        -8.76361322815011
      ],
      [
        "ao",
        -8.763830908733958
      ],
      [
        "Au",
        -8.763951053594447
      ],
      [
        "HD",
        -8.764059724771002
      ],
      [
        "nG",
        -8.764303182426728
      ],
      [
        "Js",
        -8.764306675962501
      ],
      [
        "sw",
        -8.764393724053107
      ],
      [
        "aK",
        -8.764411510818034
      ],
      [
        "gm",
        -8.764645069060599
      ],
      [
        "bB",
        -8.764922067628756
      ],
      [
        "eL",
        -8.765015204904206
      ],
      [
        "mT",
        -8.76514312942728
      ],
      [
        "Jw",
        -8.765281528208952
      ],
      [
        "aQ",
        -8.76528828331928
      ],
      [
        "vj",
        -8.765302523961552
      ],
      [
        "bX",
        -8.765430344571923
      ],
      [
        "VB",
        -8.765472143136112
      ],
      [
        "Db",
        -8.765519232736253
      ],
      [
        "qO",
        -8.765733041288819
      ],
      [
        "Ah",
        -8.765767219934904
      ],
      [
        "aH",
        -8.76587558467985
      ],
      [
        "dI",
        -8.765898265441304
      ],
      [
        "eB",
        -8.765973072843847
      ],
      [
        "eA",
        -8.766157684245126
      ],
      [
        "vb",
        -8.76620340887371
      ],
      [
        "fz",
        -8.766410660086441
      ],
      [
        "xf",
        -8.766568196640506
      ],
      [
        "Bl",
        -8.766605419480143
      ],
      [
        "TA",
        -8.766640490543015
      ],
      [
        "zp",
        -8.766640850286105
      ],
      [
        "sG",
        -8.766757520758729
      ],
      [
        "DC",
        -8.766775229729937
      ],
      [
        "Wa",
        -8.767015785582927
      ],
      [
        "Yf",
        -8.767166059343353
      ],
      [
        "Yv",
        -8.76720519094544
      ],
      [
        "Xn",
        -8.767405646921073
      ],
      [
        "zo",
        -8.767532532847245
      ],
      [
        "ng",
        -8.767547553395637
      ],
      [
        "YD",
        -8.767572473260014
      ],
      [
        "za",
        -8.767662828166635
      ],
      [
        "IH",
        -8.767736841922915
      ],
      [
        "VV",
        -8.768017481725625
      ],
      [
        "pD",
        -8.76812184460194
      ],
      [
        "XA",
        -8.768362041456806
      ],
      [
        "wX",
        -8.768392098704137
      ],
      [
        "uR",
        -8.768565099201627
      ],
      [
        "fv",
        -8.768634981631493
      ],
      [
        "OY",
        -8.768673023957252
      ],
      [
        "xW",
        -8.76896638309757
      ],
      [
        "Ag",
        -8.76908788266725
      ],
      [
        "Dq",
        -8.769169929856446
      ],
      [
        "pZ",
        -8.769204676588913
      ],
      [
        "uI",
        -8.769378356555045
      ],
      [
        "ej",
        -8.769648039639993
      ],
      [
        "Gf",
        -8.769708730392349
      ],
      [
        "aN",
        -8.769913143483942
      ],
      [
        "jJ",
        -8.769931080236226
      ],
      [
        "mJ",
        -8.770429300237716
      ],
      [
        "Za",
        -8.770637908970354
      ],
      [
        "ZL",
        -8.770790181401708
      ],
      [
        "fA",
        -8.770875317574589
      ],
      [
        "NY",
        -8.770882007638203
      ],
      [
        "Gc",
        -8.770961812076699
      ],
      [
        "bn",
        -8.770966916607705
      ],
      [
        "dr",
        -8.770990482945546
      ],
      [
        "cc",
        -8.77104739536416
      ],
      [
        "ZR",
        -8.771067704192788
      ],
      [
        "wu",
        -8.771209854045411
      ],
      [
        "Zu",
        -8.771309190277961
      ],
      [
        "Cp",
        -8.771311989999552
      ],
      [
        "af",
        -8.771352097227357
      ],
      [
        "XL",
        -8.771519614948815
      ],
      [
        "ml",
        -8.771594122571408
      ],
      [
        "fL",
        -8.771646224090112
      ],
      [
        "pf",
        -8.77166980584483
      ],
      [
        "JD",
        -8.771752910704425
      ],
      [
        "fH",
        -8.771774006011775
      ],
      [
        "RD",
        -8.771803396316916
      ],
      [
        "YA",
        -8.771814011079883
      ],
      [
        "nc",
        -8.771984485840512
      ],
      [
        "dK",
        -8.772180478206987
      ],
      [
        "rR",
        -8.77222805213435
      ],
      [
        "KD",
        -8.772470305532433
      ],
      [
        "CL",
        -8.772477576039403
      ],
      [
        "el",
        -8.772511170803849
      ],
      [
        "bj",
        -8.772616712861659
      ],
      [
        "xK",
        -8.772755004568236
      ],
      [
        "wr",
        -8.772919258995486
      ],
      [
        "rq",
        -8.77293014590066
      ],
      [
        "Xw",
        -8.77294265722859
      ],
      [
        "wz",
        -8.773057525840386
      ],
      [
        "WQ",
        -8.773190435731241
      ],
      [
        "BX",
        -8.773323550737274
      ],
      [
        "nD",
        -8.773353282488678
      ],
      [
        "VZ",
        -8.773733594313555
      ],
      [
        "oG",
        -8.773739800336159
      ],
      [
        "rB",
        -8.773771978128096
      ],
      [
        "nU",
        -8.77386873599458
      ],
      [
        "WB",
        -8.773981840730963
      ],
      [
        "MC",
        -8.774059940301795
      ],
      [
        "MK",
        -8.774075746113693
      ],
      [
        "Ju",
        -8.774108592414542
      ],
      [
        "aW",
        -8.77464909990817
      ],
      [
        "nw",
        -8.774888091420248
      ],
      [
        "rG",
        -8.775188601293518
      ],
      [
        "dM",
        -8.77523471649188
      ],
      [
        "JW",
        -8.775279457018762
      ],
      [
        "VY",
        -8.775506699104653
      ],
      [
        "re",
        -8.775610787718808
      ],
      [
        "eI",
        -8.775793867180376
      ],
      [
        "wf",
        -8.775816596181997
      ],
      [
        "Wz",
        -8.77581860686061
      ],
      [
        "YY",
        -8.775958416719106
      ],
      [
        "YT",
        -8.776215376880902
      ],
      [
        "bN",
        -8.776228494120556
      ],
      [
        "TR",
        -8.776254393640254
      ],
      [
        "Xc",
        -8.776294936599179
      ],
      [
        "Ys",
        -8.776588944682251
      ],
      [
        "xR",
        -8.77660272894551
      ],
      [
        "RW",
        -8.776702455313153
      ],
      [
        "Gv",
        -8.776712736158153
      ],
      [
        "sA",
        -8.77677062019718
      ],
      [
        "In",
        -8.777072865972418
      ],
      [
        "NV",
        -8.77713163541442
      ],
      [
        "Iz",
        -8.777135680710394
      ],
      [
        "cg",
        -8.777154765176924
      ],
      [
        "se",
        -8.777424932831961
      ],
      [
        "Nz",
        -8.777523593972736
      ],
      [
        "BG",
        -8.777604354276594
      ],
      [
        "ql",
        -8.777705158928015
      ],
      [
        "TK",
        -8.77772123715136
      ],
      [
        "Dl",
        -8.777728330114275
      ],
      [
        "cI",
        -8.777825373329343
      ],
      [
        "eh",
        -8.778033269773438
      ],
      [
        "zB",
        -8.778064086497356
      ],
      [
        "DH",
        -8.778182630560547
      ],
      [
        "WK",
        -8.778282038680622
      ],
      [
        "YU",
        -8.778300385014656
      ],
      [
        "uX",
        -8.778716731195296
      ],
      [
        "sv",
        -8.778922546142962
      ],
      [
        "AK",
        -8.779008273454618
      ],
      [
        "qg",
        -8.779066895432337
      ],
      [
        "HY",
        -8.779242906673971
      ],
      [
        "Dh",
        -8.77927493774131
      ],
      [
        "LN",
        -8.77944243472776
      ],
      [
        "jV",
        -8.779530595871721
      ],
      [
        "vT",
        -8.77959155235666
      ],
      [
        "YR",
        -8.77975250133801
      ],
      [
        "wm",
        -8.779829160317213
      ],
      [
        "OG",
        -8.779892333524606
      ],
      [
        "YJ",
        -8.779951680613092
      ],
      [
        "GH",
        -8.779979824346881
      ],
      [
        "wY",
        -8.78014624508049
      ],
      [
        "sq",
        -8.780212615008073
      ],
      [
        "uG",
        -8.780324157057713
      ],
      [
        "wJ",
        -8.780428882584646
      ],
      [
        "QJ",
        -8.780430687084483
      ],
      [
        "A9",
        -8.780677663951959
      ],
      [
        "Kh",
        -8.780699287645646
      ],
      [
        "Qq",
        -8.781074565030973
      ],
      [
        "yX",
        -8.78113358422899
      ],
      [
        "Og",
        -8.781144723841983
      ],
      [
        "UI",
        -8.781188248001119
      ],
      [
        "OD",
        -8.781195359431083
      ],
      [
        "wA",
        -8.78132084352975
      ],
      [
        "oI",
        -8.78134657000511
      ],
      [
        "Wx",
        -8.781375592463077
      ],
      [
        "uL",
        -8.781698065367815
      ],
      [
        "uU",
        -8.781718520053015
      ],
      [
        "Mo",
        -8.782081819965612
      ],
      [
        "CJ",
        -8.78222306946568
      ],
      [
        "Yj",
        -8.782230111313485
      ],
      [
        "Lz",
        -8.78238632032085
      ],
      [
        "ZI",
        -8.782501811224892
      ],
      [
        "Fa",
        -8.782607093313597
      ],
      [
        "lW",
        -8.782765663107675
      ],
      [
        "me",
        -8.782792346342585
      ],
      [
        "pg",
        -8.782905036553899
      ],
      [
        "Oe",
        -8.782914102511544
      ],
      [
        "lc",
        -8.7829512319009
      ],
      [
        "Jv",
        -8.782966739811133
      ],
      [
        "qK",
        -8.783035695783877
      ],
      [
        "lY",
        -8.78311927027447
      ],
      [
        "lI",
        -8.783329067465894
      ],
      [
        "vC",
        -8.783491848403724
      ],
      [
        "Xe",
        -8.78360974699722
      ],
      [
        "BH",
        -8.78362063130818
      ],
      [
        "OJ",
        -8.783747666240457
      ],
      [
        "fV",
        -8.7837636679579
      ],
      [
        "ZV",
        -8.783834271369876
      ],
      [
        "uz",
        -8.783956011064994
      ],
      [
        "Tv",
        -8.784016209119905
      ],
      [
        "AG",
        -8.78407477041918
      ],
      [
        "ND",
        -8.784096502515634
      ],
      [
        "LJ",
        -8.784222877830281
      ],
      [
        "xV",
        -8.784324586368077
      ],
      [
        "TJ",
        -8.784513891655351
      ],
      [
        "sY",
        -8.784706861218716
      ],
      [
        "nY",
        -8.78475049018925
      ],
      [
        "fW",
        -8.784842507066585
      ],
      [
        "Cg",
        -8.784852002104264
      ],
      [
        "lU",
        -8.784994621570029
      ],
      [
        "QU",
        -8.785383635684063
      ],
      [
        "WX",
        -8.785402457784546
      ],
      [
        "HT",
        -8.785422167983361
      ],
      [
        "hq",
        -8.785482286975952
      ],
      [
        "HX",
        -8.78553185427203
      ],
      [
        "XC",
        -8.785573491034597
      ],
      [
        "uJ",
        -8.785702620632144
      ],
      [
        "wD",
        -8.785734989014863
      ],
      [
        "zv",
        -8.785833354378703
      ],
      [
        "pQ",
        -8.78618446929026
      ],
      [
        "xC",
        -8.786242946163242
      ],
      [
        "GG",
        -8.786354089427814
      ],
      [
        "Qg",
        -8.786409915850122
      ],
      [
        "Mq",
        -8.786480038121564
      ],
      [
        "qb",
        -8.786633672745893
      ],
      [
        "Zc",
        -8.786883098150021
      ],
      [
        "OA",
        -8.786929855571444
      ],
      [
        "aT",
        -8.7873261728877
      ],
      [
        "VT",
        -8.787528766309489
      ],
      [
        "wn",
        -8.787735446035944
      ],
      [
        "eJ",
        -8.787950077555827
      ],
      [
        "uQ",
        -8.787975086515342
      ],
      [
        "nQ",
        -8.788041193649672
      ],
      [
        "Lv",
        -8.788070822286134
      ],
      [
        "MJ",
        -8.788117617930784
      ],
      [
        "dZ",
        -8.788119107395316
      ],
      [
        "yL",
        -8.788373430143732
      ],
      [
        "AN",
        -8.78841740937463
      ],
      [
        "AI",
        -8.788430590003966
      ],
      [
        "WG",
        -8.788576688535397
      ],
      [
        "GC",
        -8.78858851743335
      ],
      [
        "AW",
        -8.78897512450529
      ],
      [
        "DU",
        -8.78914751870333
      ],
      [
        "CY",
        -8.789186756679017
      ],
      [
        "dW",
        -8.789389692905477
      ],
      [
        "qD",
        -8.789542458035
      ],
      [
        "ZH",
        -8.789583514034184
      ],
      [
        "Yn",
        -8.789812272933563
      ],
      [
        "cp",
        -8.789847524829876
      ],
      [
        "cA",
        -8.790169911367075
      ],
      [
        "xm",
        -8.790600728908688
      ],
      [
        "HC",
        -8.791045560735057
      ],
      [
        "GV",
        -8.791063490872988
      ],
      [
        "Df",
        -8.791273265499054
      ],
      [
        "vG",
        -8.791316925363532
      ],
      [
        "XT",
        -8.791378477804818
      ],
      [
        "jL",
        -8.791584559391225
      ],
      [
        "bL",
        -8.791597832765238
      ],
      [
        "Iq",
        -8.79175266418241
      ],
      [
        "xQ",
        -8.791803626535
      ],
      [
        "Zw",
        -8.79184645973194
      ],
      [
        "uK",
        -8.792121176841984
      ],
      [
        "Rf",
        -8.792183168413569
      ],
      [
        "Rh",
        -8.79223385672719
      ],
      [
        "lq",
        -8.792364800093186
      ],
      [
        "Qp",
        -8.792473435439266
      ],
      [
        "rA",
        -8.792519820864332
      ],
      [
        "ZY",
        -8.792521018321828
      ],
      [
        "fm",
        -8.792544307722258
      ],
      [
        "UY",
        -8.79257447673708
      ],
      [
        "lp",
        -8.792620330673564
      ],
      [
        "fe",
        -8.79265462577357
      ],
      [
        "mL",
        -8.792825448353444
      ],
      [
        "jc",
        -8.792833998318368
      ],
      [
        "Ww",
        -8.792921109398428
      ],
      [
        "Yc",
        -8.792931952578595
      ],
      [
        "tW",
        -8.793199387313162
      ],
      [
        "oA",
        -8.793267708356847
      ],
      [
        "HQ",
        -8.79339366072628
      ],
      [
        "Cv",
        -8.79341065535003
      ],
      [
        "Lb",
        -8.793483831898175
      ],
      [
        "fw",
        -8.79352049529633
      ],
      [
        "WN",
        -8.793649040121224
      ],
      [
        "Uv",
        -8.793765104366416
      ],
      [
        "HJ",
        -8.793895034084947
      ],
      [
        "Wh",
        -8.793996422493805
      ],
      [
        "ve",
        -8.794331161460939
      ],
      [
        "aZ",
        -8.794344651629839
      ],
      [
        "XM",
        -8.794523463347176
      ],
      [
        "BN",
        -8.794620041954715
      ],
      [
        "po",
        -8.794676699807724
      ],
      [
        "sQ",
        -8.794743659863553
      ],
      [
        "Qb",
        -8.794829573403373
      ],
      [
        "aX",
        -8.794900378062966
      ],
      [
        "Ip",
        -8.794980755461939
      ],
      [
        "gq",
        -8.795500232743654
      ],
      [
        "Gp",
        -8.795572632228986
      ],
      [
        "dJ",
        -8.795879809887069
      ],
      [
        "uA",
        -8.796033557175003
      ],
      [
        "zJ",
        -8.796236854735747
      ],
      [
        "cD",
        -8.79627771136964
      ],
      [
        "Wd",
        -8.79629171483873
      ],
      [
        "Th",
        -8.796315652257032
      ],
      [
        "Wc",
        -8.79636645374999
      ],
      [
        "Oc",
        -8.796702761288408
      ],
      [
        "oh",
        -8.796713798632798
      ],
      [
        "Hz",
        -8.796793334898304
      ],
      [
        "Zq",
        -8.796937540985871
      ],
      [
        "pq",
        -8.796964422680922
      ],
      [
        "Hg",
        -8.797165146331768
      ],
      [
        "uD",
        -8.797215826592023
      ],
      [
        "HG",
        -8.797244543660941
      ],
      [
        "dT",
        -8.79730371043604
      ],
      [
        "Hv",
        -8.797360870997302
      ],
      [
        "so",
        -8.797361127564162
      ],
      [
        "rH",
        -8.797874146693207
      ],
      [
        "XJ",
        -8.797880719307713
      ],
      [
        "yQ",
        -8.79789000219861
      ],
      [
        "bl",
        -8.798000374462589
      ],
      [
        "Wn",
        -8.79881036262282
      ],
      [
        "xb",
        -8.798843176727363
      ],
      [
        "vn",
        -8.798987686936592
      ],
      [
        "zc",
        -8.799380503183578
      ],
      [
        "jG",
        -8.799472939729567
      ],
      [
        "Rb",
        -8.799505934226683
      ],
      [
        "ZB",
        -8.799555190583819
      ],
      [
        "Ic",
        -8.799596898911059
      ],
      [
        "Gl",
        -8.799796257841665
      ],
      [
        "Lo",
        -8.79984550493064
      ],
      [
        "Jg",
        -8.799908253528525
      ],
      [
        "JV",
        -8.800246250302731
      ],
      [
        "eb",
        -8.800336153482249
      ],
      [
        "bC",
        -8.800342576189458
      ],
      [
        "lf",
        -8.800515274427216
      ],
      [
        "BD",
        -8.800632194113259
      ],
      [
        "Wg",
        -8.800880976300117
      ],
      [
        "YG",
        -8.801135878421409
      ],
      [
        "mQ",
        -8.80114764270742
      ],
      [
        "Bc",
        -8.801260044266131
      ],
      [
        "nC",
        -8.801421118533593
      ],
      [
        "TD",
        -8.801542170906796
      ],
      [
        "gL",
        -8.801559831325548
      ],
      [
        "Xv",
        -8.801577145184314
      ],
      [
        "KT",
        -8.801639853367188
      ],
      [
        "Xf",
        -8.801752726568253
      ],
      [
        "yJ",
        -8.801765849243633
      ],
      [
        "UK",
        -8.801926211005828
      ],
      [
        "RB",
        -8.802316004319938
      ],
      [
        "mv",
        -8.8024093541512
      ],
      [
        "dq",
        -8.802533515285372
      ],
      [
        "Nh",
        -8.802632801424588
      ],
      [
        "aw",
        -8.803721854037036
      ],
      [
        "Uc",
        -8.803765104508336
      ],
      [
        "pG",
        -8.80383726387041
      ],
      [
        "Me",
        -8.804341600531373
      ],
      [
        "Tw",
        -8.804593301806026
      ],
      [
        "ch",
        -8.805107391508987
      ],
      [
        "Jq",
        -8.805167007478794
      ],
      [
        "ub",
        -8.805227997064977
      ],
      [
        "dA",
        -8.805552035836609
      ],
      [
        "No",
        -8.805712280072443
      ],
      [
        "Tp",
        -8.805805244970605
      ],
      [
        "Mg",
        -8.805820506265542
      ],
      [
        "LD",
        -8.806017032796412
      ],
      [
        "XI",
        -8.806044647964544
      ],
      [
        "ZQ",
        -8.806160395893109
      ],
      [
        "pv",
        -8.806468204509924
      ],
      [
        "uC",
        -8.806500598726885
      ],
      [
        "Mp",
        -8.806639009633189
      ],
      [
        "OI",
        -8.80671396808243
      ],
      [
        "yf",
        -8.806721520790138
      ],
      [
        "GB",
        -8.807028133482344
      ],
      [
        "Lq",
        -8.807328585385086
      ],
      [
        "Vl",
        -8.807363018249921
      ],
      [
        "ul",
        -8.807430284017133
      ],
      [
        "mN",
        -8.807640237848123
      ],
      [
        "zm",
        -8.807835759032344
      ],
      [
        "oT",
        -8.807949612156756
      ],
      [
        "Ro",
        -8.80799722152751
      ],
      [
        "wo",
        -8.80803226301042
      ],
      [
        "Tq",
        -8.808079229299382
      ],
      [
        "XV",
        -8.808238251379425
      ],
      [
        "rf",
        -8.80844828955653
      ],
      [
        "Ig",
        -8.808554246832532
      ],
      [
        "Oq",
        -8.80861766438791
      ],
      [
        "xG",
        -8.808870121894952
      ],
      [
        "Mv",
        -8.808903419795861
      ],
      [
        "Lc",
        -8.808904574693646
      ],
      [
        "OC",
        -8.80898360536149
      ],
      [
        "mR",
        -8.8093878640313
      ],
      [
        "Mc",
        -8.809389172262208
      ],
      [
        "IT",
        -8.809502895284146
      ],
      [
        "JB",
        -8.809507392252584
      ],
      [
        "Xl",
        -8.809869631290056
      ],
      [
        "rw",
        -8.809923221541517
      ],
      [
        "yY",
        -8.809927040067228
      ],
      [
        "Qv",
        -8.810055040429837
      ],
      [
        "mb",
        -8.810092218940937
      ],
      [
        "aD",
        -8.810155418137667
      ],
      [
        "rc",
        -8.810163372870267
      ],
      [
        "iJ",
        -8.810566262078392
      ],
      [
        "wC",
        -8.810587540220794
      ],
      [
        "pm",
        -8.810785105163042
      ],
      [
        "Bo",
        -8.810798213169472
      ],
      [
        "zz",
        -8.810894686888428
      ],
      [
        "Xg",
        -8.810988589833446
      ],
      [
        "Kg",
        -8.811247257079293
      ],
      [
        "Fb",
        -8.81191835553857
      ],
      [
        "Hq",
        -8.811936227438505
      ],
      [
        "rJ",
        -8.812180794136
      ],
      [
        "fI",
        -8.812194433723441
      ],
      [
        "rb",
        -8.812218955669493
      ],
      [
        "Lp",
        -8.812436015361575
      ],
      [
        "pc",
        -8.812446722265193
      ],
      [
        "Xo",
        -8.812478229264759
      ],
      [
        "da",
        -8.812670778725833
      ],
      [
        "WY",
        -8.812699745989093
      ],
      [
        "xo",
        -8.812765065767538
      ],
      [
        "RG",
        -8.812777950203674
      ],
      [
        "Xz",
        -8.812973494578742
      ],
      [
        "Oo",
        -8.81297623033771
      ],
      [
        "QQ",
        -8.812994037281065
      ],
      [
        "wg",
        -8.813134671334709
      ],
      [
        "eo",
        -8.813331407560977
      ],
      [
        "VL",
        -8.813338821443256
      ],
      [
        "pl",
        -8.813533266479837
      ],
      [
        "aI",
        -8.813706891413121
      ],
      [
        "XR",
        -8.813952845678495
      ],
      [
        "QK",
        -8.81426249419545
      ],
      [
        "pN",
        -8.81475578631046
      ],
      [
        "Qh",
        -8.814826019187715
      ],
      [
        "Fw",
        -8.815328409313146
      ],
      [
        "zD",
        -8.815598659908204
      ],
      [
        "fh",
        -8.815659772503054
      ],
      [
        "nV",
        -8.815796576586063
      ],
      [
        "eV",
        -8.815797259062418
      ],
      [
        "Ne",
        -8.816076666133792
      ],
      [
        "JU",
        -8.816953746254098
      ],
      [
        "up",
        -8.81696203622695
      ],
      [
        "Zl",
        -8.817100628038194
      ],
      [
        "0W",
        -8.817282385285875
      ],
      [
        "rl",
        -8.817498985807699
      ],
      [
        "Ih",
        -8.817769882590827
      ],
      [
        "ug",
        -8.817889558859092
      ],
      [
        "oO",
        -8.81790551720728
      ],
      [
        "RQ",
        -8.818318881309505
      ],
      [
        "pw",
        -8.818644853353
      ],
      [
        "rm",
        -8.818686237421915
      ],
      [
        "ab",
        -8.81911355774412
      ],
      [
        "wK",
        -8.81917322410954
      ],
      [
        "dN",
        -8.819195455387469
      ],
      [
        "Le",
        -8.819198419554336
      ],
      [
        "Zb",
        -8.819398962695441
      ],
      [
        "Wq",
        -8.819473237298855
      ],
      [
        "lh",
        -8.820104319736043
      ],
      [
        "VX",
        -8.82044314325504
      ],
      [
        "aM",
        -8.820550347218303
      ],
      [
        "uh",
        -8.820750748359426
      ],
      [
        "Mf",
        -8.820921353642625
      ],
      [
        "jC",
        -8.820994516581735
      ],
      [
        "fC",
        -8.821092224016718
      ],
      [
        "BL",
        -8.821110709086748
      ],
      [
        "vg",
        -8.82121333479691
      ],
      [
        "Ll",
        -8.821375078346863
      ],
      [
        "rL",
        -8.821540785030088
      ],
      [
        "rM",
        -8.821617528640331
      ],
      [
        "ag",
        -8.82181468843017
      ],
      [
        "mg",
        -8.82198258492955
      ],
      [
        "xB",
        -8.822185772241546
      ],
      [
        "Dz",
        -8.822519354767817
      ],
      [
        "Ov",
        -8.82266949103029
      ],
      [
        "KU",
        -8.823194250590879
      ],
      [
        "fG",
        -8.823330042300324
      ],
      [
        "JT",
        -8.824307310266608
      ],
      [
        "ZD",
        -8.824376543449393
      ],
      [
        "Oh",
        -8.824408169421122
      ],
      [
        "XB",
        -8.824442647149183
      ],
      [
        "fD",
        -8.824459456055433
      ],
      [
        "zC",
        -8.824772716648706
      ],
      [
        "xN",
        -8.824980028534153
      ],
      [
        "Rq",
        -8.825185965232803
      ],
      [
        "aC",
        -8.825203287238388
      ],
      [
        "Vv",
        -8.82541149393656
      ],
      [
        "um",
        -8.825444246126965
      ],
      [
        "fK",
        -8.826000924374137
      ],
      [
        "Zo",
        -8.826093370919075
      ],
      [
        "HB",
        -8.82628190632345
      ],
      [
        "Jz",
        -8.82661093260278
      ],
      [
        "IN",
        -8.826643118104135
      ],
      [
        "Zz",
        -8.826760927704576
      ],
      [
        "lD",
        -8.827153527593227
      ],
      [
        "eU",
        -8.827350425904227
      ],
      [
        "CQ",
        -8.827472374395871
      ],
      [
        "0w",
        -8.828134141526096
      ],
      [
        "yo",
        -8.82886614581858
      ],
      [
        "Hb",
        -8.828943659264603
      ],
      [
        "aB",
        -8.829167606149184
      ],
      [
        "Nw",
        -8.829331355508934
      ],
      [
        "Jo",
        -8.829405650177664
      ],
      [
        "Zv",
        -8.829422340929499
      ],
      [
        "bh",
        -8.829568751545981
      ],
      [
        "ra",
        -8.829625206435656
      ],
      [
        "Wm",
        -8.82985306747496
      ],
      [
        "Qw",
        -8.829859675905354
      ],
      [
        "zq",
        -8.83010205195508
      ],
      [
        "dL",
        -8.830218635203373
      ],
      [
        "IJ",
        -8.830498511317252
      ],
      [
        "iA",
        -8.83084681668783
      ],
      [
        "Yb",
        -8.83120739597847
      ],
      [
        "ZN",
        -8.83243118740925
      ],
      [
        "az",
        -8.83252016588067
      ],
      [
        "IC",
        -8.832531896481399
      ],
      [
        "aU",
        -8.83261837463398
      ],
      [
        "rz",
        -8.832760597885636
      ],
      [
        "Vw",
        -8.833228257811909
      ],
      [
        "Bq",
        -8.833420993375857
      ],
      [
        "Ob",
        -8.833462995576443
      ],
      [
        "zh",
        -8.833489005941532
      ],
      [
        "BQ",
        -8.833904166003599
      ],
      [
        "zA",
        -8.833968116980918
      ],
      [
        "rg",
        -8.834875937070908
      ],
      [
        "rp",
        -8.835061641518523
      ],
      [
        "sU",
        -8.835107792696885
      ],
      [
        "Jl",
        -8.835216324625861
      ],
      [
        "VG",
        -8.835423869479282
      ],
      [
        "Dw",
        -8.835611873001103
      ],
      [
        "rI",
        -8.835683676251888
      ],
      [
        "Xq",
        -8.836310113811502
      ],
      [
        "XD",
        -8.83654833060751
      ],
      [
        "jQ",
        -8.836780509347278
      ],
      [
        "aJ",
        -8.837267900373984
      ],
      [
        "fB",
        -8.837565479393152
      ],
      [
        "Kv",
        -8.83790225967791
      ],
      [
        "yD",
        -8.838239628579219
      ],
      [
        "Vh",
        -8.8387157114334
      ],
      [
        "GR",
        -8.838840496299927
      ],
      [
        "Kc",
        -8.839015765955011
      ],
      [
        "dD",
        -8.839797551879606
      ],
      [
        "Nc",
        -8.840194271861222
      ],
      [
        "tw",
        -8.841223387235546
      ],
      [
        "Al",
        -8.841677049387123
      ],
      [
        "Nu",
        -8.842167802792531
      ],
      [
        "XQ",
        -8.842423443946355
      ],
      [
        "FC",
        -8.842991855264383
      ],
      [
        "NC",
        -8.843214231449895
      ],
      [
        "fQ",
        -8.843500610398735
      ],
      [
        "rD",
        -8.843779213588556
      ],
      [
        "Qm",
        -8.843789377424775
      ],
      [
        "HW",
        -8.844074266331827
      ],
      [
        "fq",
        -8.844342990260055
      ],
      [
        "wT",
        -8.844587228033731
      ],
      [
        "Hl",
        -8.844833276592265
      ],
      [
        "Yg",
        -8.845017679738984
      ],
      [
        "mU",
        -8.845261018803757
      ],
      [
        "cv",
        -8.845837424209233
      ],
      [
        "iw",
        -8.845981682534664
      ],
      [
        "ol",
        -8.846460127514241
      ],
      [
        "XG",
        -8.846736755895293
      ],
      [
        "dR",
        -8.846861987471879
      ],
      [
        "ah",
        -8.847086949933523
      ],
      [
        "ac",
        -8.847941070191442
      ],
      [
        "xD",
        -8.848052362484452
      ],
      [
        "Ze",
        -8.848581179086734
      ],
      [
        "sC",
        -8.848761230221799
      ],
      [
        "yw",
        -8.848766007723377
      ],
      [
        "eq",
        -8.849573995187722
      ],
      [
        "Wv",
        -8.849606917063387
      ],
      [
        "wU",
        -8.849679849805486
      ],
      [
        "jb",
        -8.850572582907223
      ],
      [
        "Wo",
        -8.850828709933253
      ],
      [
        "FL",
        -8.851600391657659
      ],
      [
        "Jc",
        -8.851850172713505
      ],
      [
        "Co",
        -8.851935883605169
      ],
      [
        "FG",
        -8.85340505475924
      ],
      [
        "Wb",
        -8.854111543608084
      ],
      [
        "dB",
        -8.854299806146797
      ],
      [
        "yT",
        -8.854303217601489
      ],
      [
        "rv",
        -8.854460582975292
      ],
      [
        "fN",
        -8.85503129966447
      ],
      [
        "bA",
        -8.85516212550218
      ],
      [
        "FT",
        -8.85577045881417
      ],
      [
        "yb",
        -8.855776743472346
      ],
      [
        "Iv",
        -8.855859399219245
      ],
      [
        "Zg",
        -8.856857249920655
      ],
      [
        "df",
        -8.857052988710777
      ],
      [
        "Yq",
        -8.857058338632825
      ],
      [
        "yC",
        -8.857746198631055
      ],
      [
        "Mh",
        -8.858078695655845
      ],
      [
        "fU",
        -8.85821557244158
      ],
      [
        "rT",
        -8.858492234212932
      ],
      [
        "Xh",
        -8.858916298369042
      ],
      [
        "mA",
        -8.8590672734882
      ],
      [
        "al",
        -8.859903568870974
      ],
      [
        "rY",
        -8.86101555440737
      ],
      [
        "xI",
        -8.861527100134218
      ],
      [
        "FB",
        -8.861592966050216
      ],
      [
        "ap",
        -8.861867714353162
      ],
      [
        "wc",
        -8.862424807599519
      ],
      [
        "0e",
        -8.862629907069254
      ],
      [
        "FA",
        -8.862861171079658
      ],
      [
        "WT",
        -8.86331414244773
      ],
      [
        "wQ",
        -8.863833936636578
      ],
      [
        "rQ",
        -8.865614142618188
      ],
      [
        "BR",
        -8.86561948551688
      ],
      [
        "qv",
        -8.865634488598072
      ],
      [
        "db",
        -8.866239533750214
      ],
      [
        "RC",
        -8.866453982832171
      ],
      [
        "LC",
        -8.867180775223984
      ],
      [
        "CK",
        -8.867592414680015
      ],
      [
        "ZJ",
        -8.868005376822852
      ],
      [
        "Rv",
        -8.86817340268972
      ],
      [
        "ib",
        -8.868322327164606
      ],
      [
        "Rw",
        -8.869610242342379
      ],
      [
        "rh",
        -8.86968466870885
      ],
      [
        "dz",
        -8.870022086800489
      ],
      [
        "MD",
        -8.87016502824936
      ],
      [
        "FJ",
        -8.870294120305962
      ],
      [
        "rC",
        -8.870637376344622
      ],
      [
        "HA",
        -8.87078999910027
      ],
      [
        "xq",
        -8.870897529882512
      ],
      [
        "aG",
        -8.871536117080913
      ],
      [
        "xc",
        -8.871550709622273
      ],
      [
        "GU",
        -8.871581985018857
      ],
      [
        "Fg",
        -8.872007750281353
      ],
      [
        "aL",
        -8.872489654823028
      ],
      [
        "sJ",
        -8.873146182247254
      ],
      [
        "xe",
        -8.873605095592874
      ],
      [
        "Ho",
        -8.874343757157245
      ],
      [
        "pC",
        -8.874782054686172
      ],
      [
        "BU",
        -8.874918814212528
      ],
      [
        "Bw",
        -8.874992157878959
      ],
      [
        "iv",
        -8.875738975704992
      ],
      [
        "FI",
        -8.875745955709354
      ],
      [
        "FN",
        -8.876142414171895
      ],
      [
        "Bh",
        -8.877381049816288
      ],
      [
        "Hh",
        -8.878580793934335
      ],
      [
        "LG",
        -8.878690867771123
      ],
      [
        "0o",
        -8.878898449360284
      ],
      [
        "ph",
        -8.879109402620376
      ],
      [
        "JK",
        -8.879514482322667
      ],
      [
        "MQ",
        -8.880473162946084
      ],
      [
        "ZK",
        -8.88082710451054
      ],
      [
        "dv",
        -8.881442342692281
      ],
      [
        "Wu",
        -8.881866563521545
      ],
      [
        "yv",
        -8.882147161139876
      ],
      [
        "Bm",
        -8.882744985564091
      ],
      [
        "dc",
        -8.882858169252557
      ],
      [
        "fY",
        -8.883003395662616
      ],
      [
        "rV",
        -8.883462317475033
      ],
      [
        "aA",
        -8.883490262879747
      ],
      [
        "av",
        -8.884312774843341
      ],
      [
        "WU",
        -8.884589450441187
      ],
      [
        "rN",
        -8.884696312268167
      ],
      [
        "yA",
        -8.888814706371932
      ],
      [
        "FY",
        -8.89055722065091
      ],
      [
        "xU",
        -8.892443103400307
      ],
      [
        "0Y",
        -8.894821870797042
      ],
      [
        "NG",
        -8.895690500012272
      ],
      [
        "Yp",
        -8.897335530393985
      ],
      [
        "zQ",
        -8.90282890688114
      ],
      [
        "ZU",
        -8.905984870050894
      ],
      [
        "Fq",
        -8.907773060014929
      ],
      [
        "Fo",
        -8.908262154588996
      ],
      [
        "HU",
        -8.911165033812033
      ],
      [
        "ZG",
        -8.913718079704777
      ],
      [
        "Zh",
        -8.921754471524267
      ],
      [
        "dg",
        -8.930887969902296
      ],
      [
        "0A",
        -8.933125902445308
      ],
      [
        "xY",
        -8.93952269752564
      ],
      [
        "do",
        -8.940080555654841
      ]
    ],
    "byte_fallback": false
  }
}