{
  "version": "1.0",
  "truncation": null,
  "padding": null,
  "added_tokens": [
    {
      "id": 0,
      "content": "[PAD]",
      "single_word": false,
      "lstrip": false,
      "rstrip": false,
      "normalized": false,
      "special": true
    },
    {
      "id": 1,
      "content": "[UNK]",
      "single_word": false,
      "lstrip": false,
      "rstrip": false,
      "normalized": false,
      "special": true
    },
    {
      "id": 2,
      "content": "[CLS]",
      "single_word": false,
      "lstrip": false,
      "rstrip": false,
      "normalized": false,
      "special": true
    },
    {
      "id": 3,
      "content": "[SEP]",
      "single_word": false,
      "lstrip": false,
      "rstrip": false,
      "normalized": false,
      "special": true
    },
    {
      "id": 4,
      "content": "[MASK]",
      "single_word": false,
      "lstrip": false,
      "rstrip": false,
      "normalized": false,
      "special": true
    }
  ],
  "normalizer": {
    "type": "NFKC"
  },
  "pre_tokenizer": {
    "type": "Whitespace"
  },
  "post_processor": null,
  "decoder": null,
  "model": {
    "type": "Unigram",
    "unk_id": null,
    "vocab": [
      [
        "[PAD]",
        0.0
      ],
      [
        "[UNK]",
        0.0
      ],
      [
        "[CLS]",
        0.0
      ],
      [
        "[SEP]",
        0.0
      ],
      [
        "[MASK]",
        0.0
      ],
      [
        ">",
        -3.5083677930206587
      ],
      [
        "<",
        -3.5083677930206587
      ],
      [
        "=",
        -3.557158195286103
      ],
      [
        "SEP",
        -3.608619072818353
      ],
      [
        "k",
        -3.872535761785411
      ],
      [
        "S",
        -3.8843054820685303
      ],
      [
        "1",
        -3.901931832895519
      ],
      [
        "7",
        -3.9351704738377116
      ],
      [
        "2",
        -3.938920511226085
      ],
      [
        "4",
        -3.941913789437061
      ],
      [
        "E",
        -3.951467363368497
      ],
      [
        "P",
        -3.955463053562193
      ],
      [
        "5",
        -4.012609564297289
      ],
      [
        "9",
        -4.046041589481117
      ],
      [
        "3",
        -4.057975276662537
      ],
      [
        "6",
        -4.179112595495367
      ],
      [
        "8",
        -4.246212812797699
      ],
      [
        "t",
        -4.254022994111656
      ],
      [
        "0",
        -4.370500745951391
      ],
      [
        "i",
        -4.375055318694816
      ],
      [
        "s",
        -4.604816803105654
      ],
      [
        "F",
        -4.649964604974899
      ],
      [
        "O",
        -4.709675556444447
      ],
      [
        "y",
        -4.725495839618528
      ],
      [
        "j",
        -4.729209794954011
      ],
      [
        "n",
        -4.780241890878711
      ],
      [
        "x",
        -4.903720662359751
      ],
      [
        "H",
        -5.072109508876196
      ],
      [
        "u",
        -5.157200650188829
      ],
      [
        "d",
        -5.192544990709187
      ],
      [
        "R",
        -5.192918248518994
      ],
      [
        "Z",
        -5.194666819817748
      ],
      [
        "r",
        -5.22601849204956
      ],
      [
        "M",
        -5.25878485678691
      ],
      [
        "X",
        -5.315119004851953
      ],
      [
        "z",
        -5.317134698917073
      ],
      [
        "m",
        -5.332551107142132
      ],
      [
        "p",
        -5.346670032819812
      ],
      [
        "l",
        -5.370805322413506
      ],
      [
        "V",
        -5.398055216915086
      ],
      [
        "f",
        -5.430190428589356
      ],
      [
        "K",
        -5.445787105435791
      ],
      [
        "L",
        -5.475743701652901
      ],
      [
        "a",
        -5.499716598777857
      ],
      [
        "c",
        -5.5249668056516335
      ],
      [
        "W",
        -5.547204814804852
      ],
      [
        "h",
        -5.5600171628209
      ],
      [
        "e",
        -5.564303635624542
      ],
      [
        "I",
        -5.567474443376186
      ],
      [
        "G",
        -5.574250164765443
      ],
      [
        "D",
        -5.579004728557273
      ],
      [
        "Q",
        -5.595426012592528
      ],
      [
        "g",
        -5.617119099175255
      ],
      [
        "B",
        -5.640137111053397
      ],
      [
        "J",
        -5.642067388158653
      ],
      [
        "T",
        -5.653837014489522
      ],
      [
        "A",
        -5.700119666635901
      ],
      [
        "U",
        -5.716273583013722
      ],
      [
        "b",
        -5.730613557761062
      ],
      [
        "w",
        -5.742222644234554
      ],
      [
        "Y",
        -5.744373985686726
      ],
      [
        "N",
        -5.746173090391652
      ],
      [
        "C",
        -5.757996015373299
      ],
      [
        "v",
        -5.807569058351628
      ],
      [
        "q",
        -5.859494616795413
      ],
      [
        "o",
        -5.862611158920512
      ],
      [
        "k1",
        -6.460574736137147
      ],
      [
        "k0",
        -6.49252015997131
      ],
      [
        "k6",
        -6.509665551147863
      ],
      [
        "k8",
        -6.511139143007616
      ],
      [
        "sig",
        -6.54921789328805
      ],
      [
        "REC",
        -6.549573983085869
      ],
      [
        "END",
        -6.550371385869553
      ],
      [
        "nal",
        -6.55113375639915
      ],
      [
        "k9",
        -6.552927708591291
      ],
      [
        "_",
        -6.552985472165094
      ],
      [
        "k3",
        -6.556206627591935
      ],
      [
        "k5",
        -6.566922460322155
      ],
      [
        "k18",
        -6.567663344814955
      ],
      [
        "k16",
        -6.568449433914276
      ],
      [
        "k13",
        -6.570785323225019
      ],
      [
        "k19",
        -6.573540928153577
      ],
      [
        "k15",
        -6.5737721322553195
      ],
      [
        "k12",
        -6.574948869971621
      ],
      [
        "k14",
        -6.575076293131401
      ],
      [
        "k11",
        -6.575372908525253
      ],
      [
        "k17",
        -6.5761953546800385
      ],
      [
        "k7",
        -6.584410096012135
      ],
      [
        "k2",
        -6.596373263276158
      ],
      [
        "k4",
        -6.606101419312797
      ],
      [
        "bZ",
        -8.504516011024853
      ],
      [
        "vF",
        -8.524734990232993
      ],
      [
        "hR",
        -8.535667683069764
      ],
      [
        "bF",
        -8.55435748166347
      ],
      [
        "UR",
        -8.555273077390927
      ],
      [
        "hd",
        -8.56000843360631
      ],
      [
        "o8",
        -8.560426184273876
      ],
      [
        "UF",
        -8.56085438651083
      ],
      [
        "h8",
        -8.567268114036885
      ],
      [
        "hQ",
        -8.571957704852906
      ],
      [
        "oa",
        -8.573961070998863
      ],
      [
        "Gx",
        -8.57627706326242
      ],
      [
        "Ut",
        -8.578800896776873
      ],
      [
        "Cx",
        -8.57890328183699
      ],
      [
        "Ui",
        -8.580193351958027
      ],
      [
        "AF",
        -8.581335412625215
      ],
      [
        "Di",
        -8.581670933083402
      ],
      [
        "Gd",
        -8.582098461000907
      ],
      [
        "zF",
        -8.583581868855811
      ],
      [
        "TF",
        -8.58569942982915
      ],
      [
        "mW",
        -8.586338817795358
      ],
      [
        "h0",
        -8.586375377622003
      ],
      [
        "bY",
        -8.587145567483038
      ],
      [
        "lF",
        -8.587491576130073
      ],
      [
        "hf",
        -8.587596052779901
      ],
      [
        "hN",
        -8.587778705057685
      ],
      [
        "bi",
        -8.588750987655082
      ],
      [
        "bd",
        -8.588792760380446
      ],
      [
        "va",
        -8.589277147908309
      ],
      [
        "hr",
        -8.589979463858661
      ],
      [
        "l0",
        -8.592575203364579
      ],
      [
        "W8",
        -8.592905359743604
      ],
      [
        "Td",
        -8.593303734087517
      ],
      [
        "vr",
        -8.594975868375714
      ],
      [
        "Gi",
        -8.594982702345185
      ],
      [
        "cy",
        -8.595639124834964
      ],
      [
        "L0",
        -8.595751155258505
      ],
      [
        "c8",
        -8.595805778861045
      ],
      [
        "I6",
        -8.596614177499385
      ],
      [
        "my",
        -8.597246512553724
      ],
      [
        "gJ",
        -8.598261908323742
      ],
      [
        "ld",
        -8.598966203107569
      ],
      [
        "LF",
        -8.601305416030566
      ],
      [
        "Ux",
        -8.601383753347553
      ],
      [
        "h6",
        -8.601850926156008
      ],
      [
        "T8",
        -8.601910207701211
      ],
      [
        "DF",
        -8.602327000648259
      ],
      [
        "qr",
        -8.6028224180383
      ],
      [
        "KF",
        -8.603162965191965
      ],
      [
        "vx",
        -8.603716573094083
      ],
      [
        "oc",
        -8.603909719029811
      ],
      [
        "gV",
        -8.60513069858196
      ],
      [
        "Uy",
        -8.6063572219586
      ],
      [
        "py",
        -8.606368591367648
      ],
      [
        "p8",
        -8.607419810228855
      ],
      [
        "vu",
        -8.607760831660979
      ],
      [
        "c0",
        -8.60840450040632
      ],
      [
        "Ny",
        -8.608560038648616
      ],
      [
        "gd",
        -8.60922118482386
      ],
      [
        "GF",
        -8.609399863750419
      ],
      [
        "hF",
        -8.609729945202258
      ],
      [
        "hH",
        -8.611342136219834
      ],
      [
        "vR",
        -8.611510571510141
      ],
      [
        "ha",
        -8.611914037627624
      ],
      [
        "gx",
        -8.612121777008943
      ],
      [
        "Aw",
        -8.613242863135442
      ],
      [
        "V8",
        -8.613476367137093
      ],
      [
        "J8",
        -8.61366201234533
      ],
      [
        "MF",
        -8.614116979754852
      ],
      [
        "Ky",
        -8.614179849536953
      ],
      [
        "C8",
        -8.615130098218463
      ],
      [
        "vf",
        -8.615184361739251
      ],
      [
        "IZ",
        -8.61518514912558
      ],
      [
        "qX",
        -8.615285883069173
      ],
      [
        "Qe",
        -8.616025699406785
      ],
      [
        "Bf",
        -8.616479299104075
      ],
      [
        "vZ",
        -8.616920007629714
      ],
      [
        "UZ",
        -8.616998398607933
      ],
      [
        "hi",
        -8.617367090328123
      ],
      [
        "CB",
        -8.617645266548589
      ],
      [
        "uF",
        -8.617771971108944
      ],
      [
        "CO",
        -8.617844992856707
      ],
      [
        "uf",
        -8.617921726316922
      ],
      [
        "A8",
        -8.618488452504252
      ],
      [
        "Um",
        -8.618568179964209
      ],
      [
        "fx",
        -8.618601227144293
      ],
      [
        "hX",
        -8.618875479107283
      ],
      [
        "pr",
        -8.619096115592235
      ],
      [
        "Hn",
        -8.61970492549722
      ],
      [
        "Ir",
        -8.619833618927377
      ],
      [
        "G6",
        -8.620064314455371
      ],
      [
        "lH",
        -8.62021921142929
      ],
      [
        "g6",
        -8.620755741330838
      ],
      [
        "UQ",
        -8.620942034674322
      ],
      [
        "BZ",
        -8.621627597425487
      ],
      [
        "Vr",
        -8.621974914723582
      ],
      [
        "vm",
        -8.622229833457336
      ],
      [
        "pB",
        -8.622305118367048
      ],
      [
        "pi",
        -8.622722446951176
      ],
      [
        "vi",
        -8.622773431819056
      ],
      [
        "GX",
        -8.623208388392321
      ],
      [
        "Ad",
        -8.623594444523215
      ],
      [
        "c6",
        -8.623973326127288
      ],
      [
        "hC",
        -8.624518050597587
      ],
      [
        "oZ",
        -8.624695545128397
      ],
      [
        "Q6",
        -8.625170666165662
      ],
      [
        "Ua",
        -8.625267593204468
      ],
      [
        "o6",
        -8.625476933874694
      ],
      [
        "nr",
        -8.625766009485083
      ],
      [
        "UM",
        -8.62613724947959
      ],
      [
        "zK",
        -8.626494624616164
      ],
      [
        "lx",
        -8.626688015675224
      ],
      [
        "QW",
        -8.627014310217376
      ],
      [
        "nZ",
        -8.627254859347069
      ],
      [
        "LZ",
        -8.627327642430064
      ],
      [
        "eT",
        -8.627447370235867
      ],
      [
        "G8",
        -8.627583054924331
      ],
      [
        "C0",
        -8.62759025059755
      ],
      [
        "Lu",
        -8.62767413044547
      ],
      [
        "Ug",
        -8.627699712052383
      ],
      [
        "ba",
        -8.627952003680575
      ],
      [
        "vo",
        -8.627996458730303
      ],
      [
        "Ki",
        -8.628236896028573
      ],
      [
        "U0",
        -8.628606659748254
      ],
      [
        "JH",
        -8.628753127110372
      ],
      [
        "LW",
        -8.62888121621349
      ],
      [
        "AA",
        -8.628886977098126
      ],
      [
        "YL",
        -8.62900898317481
      ],
      [
        "B8",
        -8.62939029683304
      ],
      [
        "qZ",
        -8.629600974095894
      ],
      [
        "N0",
        -8.62990145436105
      ],
      [
        "Cw",
        -8.630294376026935
      ],
      [
        "vw",
        -8.630361101239618
      ],
      [
        "Ga",
        -8.630561235089658
      ],
      [
        "ur",
        -8.631092222803542
      ],
      [
        "hp",
        -8.631094267554301
      ],
      [
        "DB",
        -8.631236215904352
      ],
      [
        "lz",
        -8.632303732962228
      ],
      [
        "q0",
        -8.632722809707042
      ],
      [
        "VF",
        -8.633930552133394
      ],
      [
        "IF",
        -8.634209052861674
      ],
      [
        "Jx",
        -8.634332187650356
      ],
      [
        "Up",
        -8.6345092929195
      ],
      [
        "AZ",
        -8.635059568682795
      ],
      [
        "hM",
        -8.636219033625565
      ],
      [
        "wH",
        -8.63678106782347
      ],
      [
        "qQ",
        -8.63683977427472
      ],
      [
        "Vc",
        -8.636920983792526
      ],
      [
        "fF",
        -8.637163985262232
      ],
      [
        "qu",
        -8.637984944445758
      ],
      [
        "ww",
        -8.638285886269237
      ],
      [
        "Y8",
        -8.6386050803855
      ],
      [
        "hB",
        -8.638796543122218
      ],
      [
        "Ca",
        -8.63958758148291
      ],
      [
        "N8",
        -8.639805436071974
      ],
      [
        "D8",
        -8.639913658860515
      ],
      [
        "qd",
        -8.64043977071707
      ],
      [
        "sB",
        -8.640709243871612
      ],
      [
        "TO",
        -8.641069193362153
      ],
      [
        "em",
        -8.64154294016036
      ],
      [
        "gi",
        -8.641948834031703
      ],
      [
        "hh",
        -8.642169114455058
      ],
      [
        "g8",
        -8.642590218558535
      ],
      [
        "Iy",
        -8.64266292224784
      ],
      [
        "o0",
        -8.643367295171968
      ],
      [
        "gz",
        -8.643505340069023
      ],
      [
        "qN",
        -8.644066689235515
      ],
      [
        "hL",
        -8.644082696969235
      ],
      [
        "QL",
        -8.64428429643305
      ],
      [
        "cd",
        -8.6443329170657
      ],
      [
        "vs",
        -8.64451668402668
      ],
      [
        "Np",
        -8.6445535534278
      ],
      [
        "ay",
        -8.644916630184426
      ],
      [
        "Ar",
        -8.644944929358351
      ],
      [
        "gR",
        -8.645593470989802
      ],
      [
        "aR",
        -8.645861572435827
      ],
      [
        "vy",
        -8.646106176342638
      ],
      [
        "Ya",
        -8.646278238634553
      ],
      [
        "gf",
        -8.646438297994997
      ],
      [
        "RF",
        -8.646587117726217
      ],
      [
        "Jr",
        -8.647582315508881
      ],
      [
        "T6",
        -8.648160169430748
      ],
      [
        "D0",
        -8.648193808842613
      ],
      [
        "CT",
        -8.648217232505596
      ],
      [
        "qF",
        -8.648323865379231
      ],
      [
        "Qx",
        -8.648423517867354
      ],
      [
        "mO",
        -8.648488636503554
      ],
      [
        "mB",
        -8.648631161167906
      ],
      [
        "Zr",
        -8.648634387020852
      ],
      [
        "Xd",
        -8.648643320223389
      ],
      [
        "ud",
        -8.649505683614105
      ],
      [
        "N6",
        -8.649577562281669
      ],
      [
        "Br",
        -8.64963654056232
      ],
      [
        "UT",
        -8.649815027594894
      ],
      [
        "U6",
        -8.650074462212853
      ],
      [
        "oy",
        -8.650354129042755
      ],
      [
        "vv",
        -8.650495480702038
      ],
      [
        "a8",
        -8.650532898004489
      ],
      [
        "qH",
        -8.650652814382376
      ],
      [
        "UW",
        -8.651029400204198
      ],
      [
        "AT",
        -8.65122436553681
      ],
      [
        "Qd",
        -8.651348427717364
      ],
      [
        "cr",
        -8.651426014948768
      ],
      [
        "Yd",
        -8.652140159743805
      ],
      [
        "di",
        -8.652640062737557
      ],
      [
        "vX",
        -8.652703194682621
      ],
      [
        "vd",
        -8.652867139424838
      ],
      [
        "hJ",
        -8.652903127615792
      ],
      [
        "vL",
        -8.652993110601995
      ],
      [
        "qB",
        -8.653010470200435
      ],
      [
        "Vm",
        -8.653282526027185
      ],
      [
        "Hf",
        -8.653351780693097
      ],
      [
        "gy",
        -8.65338699326341
      ],
      [
        "mH",
        -8.653648825707737
      ],
      [
        "Tr",
        -8.653730064833946
      ],
      [
        "w8",
        -8.65373026013119
      ],
      [
        "vO",
        -8.653738404001864
      ],
      [
        "zd",
        -8.654036480207802
      ],
      [
        "hK",
        -8.654111230140474
      ],
      [
        "Nn",
        -8.655029313397208
      ],
      [
        "La",
        -8.65513219640362
      ],
      [
        "br",
        -8.655431973430986
      ],
      [
        "eR",
        -8.655758797425516
      ],
      [
        "QR",
        -8.655785995950595
      ],
      [
        "UB",
        -8.655939921023208
      ],
      [
        "qc",
        -8.65597475563872
      ],
      [
        "Rd",
        -8.656314369038903
      ],
      [
        "gr",
        -8.656508894498902
      ],
      [
        "nX",
        -8.656587884356298
      ],
      [
        "bz",
        -8.656685439400174
      ],
      [
        "YC",
        -8.656707248257561
      ],
      [
        "Kt",
        -8.656878358954142
      ],
      [
        "bD",
        -8.656899605624425
      ],
      [
        "zH",
        -8.657100486857988
      ],
      [
        "cJ",
        -8.65719319027343
      ],
      [
        "hV",
        -8.657353401540748
      ],
      [
        "B0",
        -8.65736543219113
      ],
      [
        "UJ",
        -8.657551243800103
      ],
      [
        "Qu",
        -8.657779727173928
      ],
      [
        "fa",
        -8.657813039747651
      ],
      [
        "V0",
        -8.657814615978772
      ],
      [
        "Ur",
        -8.657946009093127
      ],
      [
        "Ub",
        -8.657969350487367
      ],
      [
        "CF",
        -8.657972929407144
      ],
      [
        "nx",
        -8.658153934873987
      ],
      [
        "hW",
        -8.658170273210317
      ],
      [
        "lG",
        -8.658555684693024
      ],
      [
        "TW",
        -8.65896039434342
      ],
      [
        "ho",
        -8.659236467774267
      ],
      [
        "pR",
        -8.659418375755248
      ],
      [
        "bW",
        -8.659552403110416
      ],
      [
        "Md",
        -8.659596185499733
      ],
      [
        "Na",
        -8.659606240210525
      ],
      [
        "oq",
        -8.659711731042673
      ],
      [
        "Nv",
        -8.659735545928172
      ],
      [
        "Nd",
        -8.659858463731053
      ],
      [
        "Mj",
        -8.659929079053477
      ],
      [
        "A0",
        -8.660064387027951
      ],
      [
        "wd",
        -8.66052133450738
      ],
      [
        "LB",
        -8.660541753513943
      ],
      [
        "ga",
        -8.66067001436469
      ],
      [
        "U8",
        -8.660681139916282
      ],
      [
        "uy",
        -8.660856389050817
      ],
      [
        "ec",
        -8.660919186648595
      ],
      [
        "hv",
        -8.661086779068341
      ],
      [
        "Ul",
        -8.661305655257205
      ],
      [
        "pd",
        -8.6613725338662
      ],
      [
        "Ji",
        -8.661474680915031
      ],
      [
        "Ax",
        -8.661630521594748
      ],
      [
        "pb",
        -8.662084125650974
      ],
      [
        "ed",
        -8.662107596032676
      ],
      [
        "Ud",
        -8.662440927601889
      ],
      [
        "ow",
        -8.662978410267389
      ],
      [
        "Ld",
        -8.663231430259048
      ],
      [
        "VW",
        -8.663293398941764
      ],
      [
        "v8",
        -8.663641546379226
      ],
      [
        "vY",
        -8.664062674889287
      ],
      [
        "Mr",
        -8.664423798892592
      ],
      [
        "zx",
        -8.664455148358403
      ],
      [
        "qR",
        -8.664526106866939
      ],
      [
        "CH",
        -8.664676413497238
      ],
      [
        "sr",
        -8.664857863666306
      ],
      [
        "CD",
        -8.66490988700867
      ],
      [
        "Nt",
        -8.664927571185245
      ],
      [
        "GJ",
        -8.665032704926155
      ],
      [
        "NW",
        -8.66510181273474
      ],
      [
        "CZ",
        -8.665113445857024
      ],
      [
        "qy",
        -8.66516312120716
      ],
      [
        "Ai",
        -8.665173433872784
      ],
      [
        "gs",
        -8.66531153684915
      ],
      [
        "h5",
        -8.66544048333747
      ],
      [
        "AH",
        -8.665518143651491
      ],
      [
        "oj",
        -8.665674453360456
      ],
      [
        "At",
        -8.665849547158693
      ],
      [
        "WH",
        -8.665922610117057
      ],
      [
        "wi",
        -8.666172053142262
      ],
      [
        "Ge",
        -8.66623205881208
      ],
      [
        "ws",
        -8.666280843956052
      ],
      [
        "lM",
        -8.666409189059117
      ],
      [
        "ex",
        -8.666424137342375
      ],
      [
        "hy",
        -8.666505126331518
      ],
      [
        "WI",
        -8.666667236375805
      ],
      [
        "co",
        -8.666704561918976
      ],
      [
        "hz",
        -8.666802805419671
      ],
      [
        "wW",
        -8.66683078848591
      ],
      [
        "ov",
        -8.666838089707877
      ],
      [
        "Jd",
        -8.66686535319841
      ],
      [
        "Ns",
        -8.667165660382752
      ],
      [
        "Cr",
        -8.667250083398006
      ],
      [
        "cL",
        -8.667506505617652
      ],
      [
        "MA",
        -8.667880396888773
      ],
      [
        "wB",
        -8.667887173036409
      ],
      [
        "pY",
        -8.667959565506616
      ],
      [
        "Od",
        -8.668007234703396
      ],
      [
        "xa",
        -8.668043098027486
      ],
      [
        "cq",
        -8.668066630097002
      ],
      [
        "Cu",
        -8.668079098650342
      ],
      [
        "Zd",
        -8.66832447622027
      ],
      [
        "Un",
        -8.668392235112002
      ],
      [
        "ZF",
        -8.668461621563413
      ],
      [
        "zX",
        -8.668619861889757
      ],
      [
        "cR",
        -8.668749619108679
      ],
      [
        "vW",
        -8.66877729783662
      ],
      [
        "qi",
        -8.668841161141955
      ],
      [
        "Ng",
        -8.668842664037161
      ],
      [
        "oz",
        -8.669101330351136
      ],
      [
        "BF",
        -8.669445641479665
      ],
      [
        "DR",
        -8.669501139306348
      ],
      [
        "LH",
        -8.66955556064267
      ],
      [
        "cf",
        -8.669665630554785
      ],
      [
        "zW",
        -8.669727490258747
      ],
      [
        "Gr",
        -8.66984822342063
      ],
      [
        "W6",
        -8.67019445898107
      ],
      [
        "ma",
        -8.67022849972443
      ],
      [
        "ze",
        -8.67026976077959
      ],
      [
        "KH",
        -8.670281898010877
      ],
      [
        "YZ",
        -8.670341356154964
      ],
      [
        "Da",
        -8.670614589418989
      ],
      [
        "NH",
        -8.670650924456394
      ],
      [
        "uT",
        -8.67106944369452
      ],
      [
        "mZ",
        -8.671207683292788
      ],
      [
        "of",
        -8.67120947510157
      ],
      [
        "Uf",
        -8.671354985725124
      ],
      [
        "Gt",
        -8.671417730700835
      ],
      [
        "px",
        -8.671576280685283
      ],
      [
        "VO",
        -8.671729263935326
      ],
      [
        "Qr",
        -8.67179991012209
      ],
      [
        "eX",
        -8.67242838090641
      ],
      [
        "gG",
        -8.672523520065841
      ],
      [
        "oY",
        -8.672611123506666
      ],
      [
        "od",
        -8.672728299083174
      ],
      [
        "GN",
        -8.672785764088431
      ],
      [
        "gF",
        -8.6729101597779
      ],
      [
        "fX",
        -8.672921667119624
      ],
      [
        "hx",
        -8.672953204435306
      ],
      [
        "De",
        -8.673075004923765
      ],
      [
        "gn",
        -8.673179914603915
      ],
      [
        "Yz",
        -8.673288030494144
      ],
      [
        "Tu",
        -8.673335113060858
      ],
      [
        "gQ",
        -8.673779353968062
      ],
      [
        "BM",
        -8.673907608733188
      ],
      [
        "gZ",
        -8.674224338897584
      ],
      [
        "gh",
        -8.674235691385219
      ],
      [
        "jT",
        -8.674498076077338
      ],
      [
        "cb",
        -8.674563504292525
      ],
      [
        "Jm",
        -8.67508099412016
      ],
      [
        "Uw",
        -8.675158346369061
      ],
      [
        "LO",
        -8.675208536211015
      ],
      [
        "Kd",
        -8.6752202368959
      ],
      [
        "DL",
        -8.675635129859032
      ],
      [
        "Qz",
        -8.675740180770697
      ],
      [
        "cB",
        -8.675870498245018
      ],
      [
        "GD",
        -8.675941805029762
      ],
      [
        "Xx",
        -8.676033960368493
      ],
      [
        "wZ",
        -8.676089823948857
      ],
      [
        "NZ",
        -8.676219531872281
      ],
      [
        "vt",
        -8.676401046834641
      ],
      [
        "Wr",
        -8.676527108974149
      ],
      [
        "nd",
        -8.676644767940836
      ],
      [
        "QF",
        -8.67669577168568
      ],
      [
        "Kx",
        -8.676867394134938
      ],
      [
        "UX",
        -8.676874136007054
      ],
      [
        "ct",
        -8.676952913226799
      ],
      [
        "hw",
        -8.677334235557566
      ],
      [
        "vI",
        -8.677387314421063
      ],
      [
        "NF",
        -8.677735500745502
      ],
      [
        "Qa",
        -8.678050490725186
      ],
      [
        "na",
        -8.678060628704237
      ],
      [
        "oH",
        -8.678159408398567
      ],
      [
        "hg",
        -8.678203384175175
      ],
      [
        "qn",
        -8.678384678698713
      ],
      [
        "uu",
        -8.67870178823193
      ],
      [
        "GO",
        -8.678715641622446
      ],
      [
        "XW",
        -8.678752247523214
      ],
      [
        "pz",
        -8.678837478186264
      ],
      [
        "vB",
        -8.678853905333575
      ],
      [
        "pV",
        -8.678895659099254
      ],
      [
        "Kq",
        -8.679047696037962
      ],
      [
        "Aa",
        -8.679077627609574
      ],
      [
        "AO",
        -8.679083840379445
      ],
      [
        "pA",
        -8.679168508413774
      ],
      [
        "ca",
        -8.679738729645022
      ],
      [
        "MB",
        -8.679776188491154
      ],
      [
        "qx",
        -8.679859744911777
      ],
      [
        "mf",
        -8.680010657897443
      ],
      [
        "bu",
        -8.680013916260767
      ],
      [
        "KI",
        -8.680177527187546
      ],
      [
        "DQ",
        -8.68017879708508
      ],
      [
        "NI",
        -8.680216518910497
      ],
      [
        "UO",
        -8.680249061747416
      ],
      [
        "oF",
        -8.680307122570536
      ],
      [
        "qf",
        -8.680418586028274
      ],
      [
        "Ka",
        -8.68051772755653
      ],
      [
        "ey",
        -8.680626421969354
      ],
      [
        "Vd",
        -8.680677508538714
      ],
      [
        "lT",
        -8.680683921101208
      ],
      [
        "IV",
        -8.680739169301493
      ],
      [
        "Uz",
        -8.680898959231143
      ],
      [
        "z0",
        -8.68092486712166
      ],
      [
        "cK",
        -8.680977815447232
      ],
      [
        "hu",
        -8.681125741988335
      ],
      [
        "Hx",
        -8.681138269912744
      ],
      [
        "VH",
        -8.68117881625146
      ],
      [
        "pK",
        -8.681314635719435
      ],
      [
        "ew",
        -8.681361114389954
      ],
      [
        "Rc",
        -8.681382520175777
      ],
      [
        "Dd",
        -8.682187056642181
      ],
      [
        "es",
        -8.682239240606222
      ],
      [
        "CW",
        -8.682289453346927
      ],
      [
        "ot",
        -8.682478308395922
      ],
      [
        "zn",
        -8.68251991550332
      ],
      [
        "cY",
        -8.682572800899486
      ],
      [
        "Vg",
        -8.682653935160914
      ],
      [
        "o3",
        -8.682756044266858
      ],
      [
        "Je",
        -8.682938935812238
      ],
      [
        "he",
        -8.68303718733541
      ],
      [
        "Xy",
        -8.683173410450827
      ],
      [
        "By",
        -8.68324740077297
      ],
      [
        "cX",
        -8.68336506365651
      ],
      [
        "mm",
        -8.683700627496712
      ],
      [
        "BV",
        -8.6837258214481
      ],
      [
        "lL",
        -8.6837274239578
      ],
      [
        "uq",
        -8.68380764759334
      ],
      [
        "pF",
        -8.68398703515363
      ],
      [
        "oR",
        -8.684098346391554
      ],
      [
        "Ls",
        -8.68411634845942
      ],
      [
        "eF",
        -8.68433005433192
      ],
      [
        "le",
        -8.684419143202842
      ],
      [
        "Kz",
        -8.68451671185893
      ],
      [
        "oK",
        -8.684522227715545
      ],
      [
        "Gz",
        -8.684780833651503
      ],
      [
        "Lx",
        -8.684828365390524
      ],
      [
        "Mu",
        -8.684877842562418
      ],
      [
        "bg",
        -8.684955552691566
      ],
      [
        "cO",
        -8.68529288003407
      ],
      [
        "vH",
        -8.685335052288169
      ],
      [
        "zG",
        -8.685341975491964
      ],
      [
        "YM",
        -8.685385808525938
      ],
      [
        "hI",
        -8.685454480640196
      ],
      [
        "Vn",
        -8.68547736150302
      ],
      [
        "Ke",
        -8.68551165537302
      ],
      [
        "GK",
        -8.685513683105532
      ],
      [
        "jg",
        -8.685687325876607
      ],
      [
        "cm",
        -8.68581353133158
      ],
      [
        "VD",
        -8.685845243860363
      ],
      [
        "B6",
        -8.686011840572977
      ],
      [
        "Ce",
        -8.686150981726144
      ],
      [
        "qA",
        -8.686263476347339
      ],
      [
        "md",
        -8.686354521480698
      ],
      [
        "Vy",
        -8.686495736654564
      ],
      [
        "qh",
        -8.686522856388205
      ],
      [
        "Km",
        -8.686674098309016
      ],
      [
        "Gy",
        -8.686789836391618
      ],
      [
        "hs",
        -8.686833448225066
      ],
      [
        "b8",
        -8.687025922163695
      ],
      [
        "pM",
        -8.687537177711672
      ],
      [
        "Vo",
        -8.687866309725909
      ],
      [
        "nA",
        -8.687931880979278
      ],
      [
        "vD",
        -8.688102381591715
      ],
      [
        "sW",
        -8.688188104446557
      ],
      [
        "XZ",
        -8.688205202005271
      ],
      [
        "b0",
        -8.688272751597445
      ],
      [
        "NR",
        -8.68847373480865
      ],
      [
        "KA",
        -8.6885124136993
      ],
      [
        "Cc",
        -8.688517152877596
      ],
      [
        "To",
        -8.688574644708543
      ],
      [
        "KV",
        -8.688655134880534
      ],
      [
        "CX",
        -8.688671384271474
      ],
      [
        "Nf",
        -8.689238264558398
      ],
      [
        "TT",
        -8.689402129252336
      ],
      [
        "e0",
        -8.689479595947962
      ],
      [
        "q8",
        -8.689668966944666
      ],
      [
        "Oa",
        -8.689826650053817
      ],
      [
        "YN",
        -8.690016521543864
      ],
      [
        "TC",
        -8.690144808824275
      ],
      [
        "Kw",
        -8.690310892226314
      ],
      [
        "QT",
        -8.69045565441097
      ],
      [
        "IM",
        -8.690513353077055
      ],
      [
        "hO",
        -8.690568820153073
      ],
      [
        "Aq",
        -8.690634398844352
      ],
      [
        "CV",
        -8.690637393590745
      ],
      [
        "TY",
        -8.690638288546577
      ],
      [
        "AL",
        -8.690653426324792
      ],
      [
        "VU",
        -8.690858270044707
      ],
      [
        "zw",
        -8.690862901028966
      ],
      [
        "Vb",
        -8.690905615421261
      ],
      [
        "ML",
        -8.691042004966768
      ],
      [
        "Ac",
        -8.69131912361701
      ],
      [
        "YV",
        -8.691740051562316
      ],
      [
        "zN",
        -8.691814754724781
      ],
      [
        "by",
        -8.691921303393423
      ],
      [
        "be",
        -8.692022806964513
      ],
      [
        "or",
        -8.692066448192316
      ],
      [
        "Ij",
        -8.692079991028745
      ],
      [
        "W0",
        -8.692086093993685
      ],
      [
        "DY",
        -8.692094362407026
      ],
      [
        "bH",
        -8.692096735523503
      ],
      [
        "lb",
        -8.692188103074223
      ],
      [
        "Vf",
        -8.69230143852344
      ],
      [
        "Dr",
        -8.692532006950525
      ],
      [
        "WM",
        -8.692617507550926
      ],
      [
        "vc",
        -8.692666394031532
      ],
      [
        "Lm",
        -8.692907565066303
      ],
      [
        "Yx",
        -8.692911713184747
      ],
      [
        "ef",
        -8.693055030750706
      ],
      [
        "KK",
        -8.693462140445384
      ],
      [
        "Ku",
        -8.693510652454112
      ],
      [
        "Jn",
        -8.693978968706737
      ],
      [
        "LA",
        -8.694070104455719
      ],
      [
        "lZ",
        -8.694139357590895
      ],
      [
        "DO",
        -8.69416871195509
      ],
      [
        "U9",
        -8.694431671460773
      ],
      [
        "Mx",
        -8.694460807052373
      ],
      [
        "UG",
        -8.69463182399942
      ],
      [
        "QN",
        -8.694759291368678
      ],
      [
        "mn",
        -8.694801980480642
      ],
      [
        "nR",
        -8.694802992903096
      ],
      [
        "RT",
        -8.695094758944332
      ],
      [
        "OM",
        -8.695135343213405
      ],
      [
        "Iu",
        -8.695453677899451
      ],
      [
        "TZ",
        -8.695455403164745
      ],
      [
        "VA",
        -8.695592182050008
      ],
      [
        "nJ",
        -8.695618322375752
      ],
      [
        "CN",
        -8.695666736865537
      ],
      [
        "zs",
        -8.695703610656611
      ],
      [
        "AR",
        -8.695723322886261
      ],
      [
        "TB",
        -8.695739136361057
      ],
      [
        "wM",
        -8.695750201651691
      ],
      [
        "CA",
        -8.695831995272897
      ],
      [
        "RH",
        -8.695881050132623
      ],
      [
        "Kr",
        -8.696101839877297
      ],
      [
        "oB",
        -8.696106714870622
      ],
      [
        "gw",
        -8.696156798579711
      ],
      [
        "C3",
        -8.696256969491897
      ],
      [
        "NN",
        -8.69645781810263
      ],
      [
        "Qy",
        -8.696524013128963
      ],
      [
        "qj",
        -8.696525567762524
      ],
      [
        "ae",
        -8.696763089922019
      ],
      [
        "MY",
        -8.696838307198739
      ],
      [
        "gD",
        -8.696923160355471
      ],
      [
        "LI",
        -8.696966912226292
      ],
      [
        "Dm",
        -8.697018011380194
      ],
      [
        "vQ",
        -8.697052756666224
      ],
      [
        "Q0",
        -8.697058543389975
      ],
      [
        "mo",
        -8.697250326114375
      ],
      [
        "Lf",
        -8.697563481645858
      ],
      [
        "DI",
        -8.697635799315172
      ],
      [
        "Gs",
        -8.69765815163137
      ],
      [
        "cl",
        -8.697727163493404
      ],
      [
        "JZ",
        -8.69775246596576
      ],
      [
        "hb",
        -8.69777973353014
      ],
      [
        "BB",
        -8.697790783717437
      ],
      [
        "HZ",
        -8.697839753768296
      ],
      [
        "bO",
        -8.6978945970103
      ],
      [
        "w0",
        -8.69803390583885
      ],
      [
        "ue",
        -8.69805298032627
      ],
      [
        "GW",
        -8.698269783268513
      ],
      [
        "hG",
        -8.698716874221248
      ],
      [
        "vA",
        -8.698853888155186
      ],
      [
        "QD",
        -8.698913327740996
      ],
      [
        "zY",
        -8.698961122881137
      ],
      [
        "BO",
        -8.699314241683492
      ],
      [
        "TM",
        -8.699591980309481
      ],
      [
        "XU",
        -8.699601613786271
      ],
      [
        "ez",
        -8.699691419799947
      ],
      [
        "Nq",
        -8.69973016850251
      ],
      [
        "ge",
        -8.699856441633393
      ],
      [
        "eM",
        -8.700065310886554
      ],
      [
        "bM",
        -8.700187312643257
      ],
      [
        "Qc",
        -8.70023851837543
      ],
      [
        "Yy",
        -8.70032088712407
      ],
      [
        "bc",
        -8.700472213401802
      ],
      [
        "NU",
        -8.700530908606652
      ],
      [
        "nM",
        -8.700649313124352
      ],
      [
        "oM",
        -8.700835637918647
      ],
      [
        "Bd",
        -8.70095923250083
      ],
      [
        "Uo",
        -8.700981698766284
      ],
      [
        "LV",
        -8.701032250878999
      ],
      [
        "hn",
        -8.701119605856
      ],
      [
        "lA",
        -8.701142553521123
      ],
      [
        "ry",
        -8.701170226892021
      ],
      [
        "cW",
        -8.701173475690684
      ],
      [
        "bR",
        -8.701225989337543
      ],
      [
        "cx",
        -8.701315689115997
      ],
      [
        "hZ",
        -8.701495512407309
      ],
      [
        "JF",
        -8.701529890814616
      ],
      [
        "IY",
        -8.701664111433871
      ],
      [
        "hm",
        -8.701671909995127
      ],
      [
        "hj",
        -8.701718659288664
      ],
      [
        "dY",
        -8.701784809011658
      ],
      [
        "Uq",
        -8.701809266556666
      ],
      [
        "gB",
        -8.701869192468902
      ],
      [
        "ll",
        -8.701950391932154
      ],
      [
        "KR",
        -8.702023118226986
      ],
      [
        "gj",
        -8.702032764137538
      ],
      [
        "nB",
        -8.702067339880454
      ],
      [
        "YW",
        -8.702123915382739
      ],
      [
        "je",
        -8.702316480009248
      ],
      [
        "fb",
        -8.702359587503881
      ],
      [
        "Gn",
        -8.702369995619007
      ],
      [
        "KX",
        -8.702444156231149
      ],
      [
        "oe",
        -8.702483518979047
      ],
      [
        "DN",
        -8.702494621138596
      ],
      [
        "Gu",
        -8.702580087676223
      ],
      [
        "qM",
        -8.702658977930632
      ],
      [
        "Av",
        -8.70271750908259
      ],
      [
        "zr",
        -8.702828782136756
      ],
      [
        "ce",
        -8.702896686388234
      ],
      [
        "oo",
        -8.702971100548494
      ],
      [
        "Nr",
        -8.702981688831043
      ],
      [
        "RY",
        -8.703007367861233
      ],
      [
        "Ay",
        -8.70301203082369
      ],
      [
        "cG",
        -8.703163155007973
      ],
      [
        "mz",
        -8.703292434275815
      ],
      [
        "oD",
        -8.703558026808876
      ],
      [
        "WA",
        -8.703635288694048
      ],
      [
        "am",
        -8.703715265253155
      ],
      [
        "pT",
        -8.703720574800732
      ],
      [
        "Am",
        -8.703782327346335
      ],
      [
        "oi",
        -8.703965565782369
      ],
      [
        "NA",
        -8.704025031912273
      ],
      [
        "dX",
        -8.704033418120527
      ],
      [
        "oW",
        -8.704127712342924
      ],
      [
        "RR",
        -8.704516559537478
      ],
      [
        "VJ",
        -8.704775312694128
      ],
      [
        "Tz",
        -8.705117658098583
      ],
      [
        "wG",
        -8.705880245191867
      ],
      [
        "AC",
        -8.706024164214744
      ],
      [
        "mI",
        -8.706066751805341
      ],
      [
        "wl",
        -8.706089494757155
      ],
      [
        "jX",
        -8.706235892001331
      ],
      [
        "Ty",
        -8.706276759524446
      ],
      [
        "It",
        -8.706322314263222
      ],
      [
        "Hc",
        -8.706653347396236
      ],
      [
        "zl",
        -8.706827415484213
      ],
      [
        "Ia",
        -8.706871137075812
      ],
      [
        "rx",
        -8.70697690817304
      ],
      [
        "om",
        -8.707126475469135
      ],
      [
        "qe",
        -8.707424383600742
      ],
      [
        "op",
        -8.707434988735251
      ],
      [
        "gb",
        -8.707443473784016
      ],
      [
        "lQ",
        -8.707525485111802
      ],
      [
        "oX",
        -8.707760144808208
      ],
      [
        "qU",
        -8.707783540384836
      ],
      [
        "MM",
        -8.707879409220565
      ],
      [
        "CG",
        -8.708072627816907
      ],
      [
        "jH",
        -8.708081989042743
      ],
      [
        "Be",
        -8.708112359852993
      ],
      [
        "ZM",
        -8.708371531446573
      ],
      [
        "zV",
        -8.70840203631671
      ],
      [
        "eG",
        -8.70859597669052
      ],
      [
        "Gw",
        -8.708709109180008
      ],
      [
        "gU",
        -8.708731951292531
      ],
      [
        "QY",
        -8.70877256346224
      ],
      [
        "bp",
        -8.708942140846464
      ],
      [
        "BJ",
        -8.709133734276103
      ],
      [
        "rU",
        -8.709426038267125
      ],
      [
        "qV",
        -8.709592496253983
      ],
      [
        "RN",
        -8.709758023863422
      ],
      [
        "lC",
        -8.709782407360837
      ],
      [
        "MR",
        -8.709883968690665
      ],
      [
        "Y0",
        -8.709919248153872
      ],
      [
        "ja",
        -8.709978598378115
      ],
      [
        "pW",
        -8.710164074537062
      ],
      [
        "UL",
        -8.710298151832752
      ],
      [
        "cu",
        -8.7105251137483
      ],
      [
        "Tx",
        -8.710634558121718
      ],
      [
        "mx",
        -8.71068439078725
      ],
      [
        "eZ",
        -8.7107569370236
      ],
      [
        "gv",
        -8.710875109511731
      ],
      [
        "NO",
        -8.711242014103767
      ],
      [
        "pU",
        -8.711308450279104
      ],
      [
        "jD",
        -8.711451697425048
      ],
      [
        "uY",
        -8.71151049901015
      ],
      [
        "Hr",
        -8.711700115046291
      ],
      [
        "DG",
        -8.71183941517431
      ],
      [
        "JJ",
        -8.71187326084362
      ],
      [
        "zT",
        -8.71187986383508
      ],
      [
        "gO",
        -8.712001565182486
      ],
      [
        "gI",
        -8.712022582615901
      ],
      [
        "Ql",
        -8.712061218517112
      ],
      [
        "qJ",
        -8.712090630961274
      ],
      [
        "bV",
        -8.712130101936658
      ],
      [
        "Ye",
        -8.712132444238993
      ],
      [
        "dy",
        -8.712253013482751
      ],
      [
        "Uu",
        -8.712377616581353
      ],
      [
        "JC",
        -8.71241078698365
      ],
      [
        "WZ",
        -8.712557469299247
      ],
      [
        "qq",
        -8.7126554188824
      ],
      [
        "QH",
        -8.712881558865575
      ],
      [
        "wx",
        -8.712963843728783
      ],
      [
        "zg",
        -8.712967421380778
      ],
      [
        "er",
        -8.71312845656622
      ],
      [
        "cN",
        -8.713192788788273
      ],
      [
        "jB",
        -8.713343213618153
      ],
      [
        "vJ",
        -8.71348428432455
      ],
      [
        "DM",
        -8.71351493402648
      ],
      [
        "Nm",
        -8.713637399125176
      ],
      [
        "BK",
        -8.713656755634407
      ],
      [
        "Mz",
        -8.713686108069924
      ],
      [
        "qa",
        -8.713894018577353
      ],
      [
        "jR",
        -8.713919214530804
      ],
      [
        "Wf",
        -8.71393831062248
      ],
      [
        "Bb",
        -8.714062133503546
      ],
      [
        "DZ",
        -8.714102263575178
      ],
      [
        "QI",
        -8.714202165132345
      ],
      [
        "KZ",
        -8.714384256311423
      ],
      [
        "Jf",
        -8.714435726686322
      ],
      [
        "Jy",
        -8.714458921370971
      ],
      [
        "RA",
        -8.714568960333251
      ],
      [
        "Yw",
        -8.714624820497907
      ],
      [
        "KY",
        -8.714907951008627
      ],
      [
        "Kf",
        -8.714911409764175
      ],
      [
        "bG",
        -8.714913927530258
      ],
      [
        "gN",
        -8.715009296187674
      ],
      [
        "ob",
        -8.715150208545715
      ],
      [
        "dw",
        -8.715279029254614
      ],
      [
        "UN",
        -8.715460172606294
      ],
      [
        "pI",
        -8.715662467332947
      ],
      [
        "YF",
        -8.715745298691676
      ],
      [
        "Bu",
        -8.715762655528057
      ],
      [
        "mw",
        -8.715805179883834
      ],
      [
        "eN",
        -8.716037546767499
      ],
      [
        "bs",
        -8.716041243917093
      ],
      [
        "QX",
        -8.71626385961108
      ],
      [
        "qo",
        -8.716286493265443
      ],
      [
        "VK",
        -8.716309547780465
      ],
      [
        "MG",
        -8.716341268120654
      ],
      [
        "cH",
        -8.71634964040605
      ],
      [
        "Nx",
        -8.716536035519312
      ],
      [
        "Dx",
        -8.716899319918106
      ],
      [
        "Ae",
        -8.716968105834674
      ],
      [
        "Gh",
        -8.717034877598996
      ],
      [
        "mc",
        -8.71706284060851
      ],
      [
        "bx",
        -8.71725848130052
      ],
      [
        "ID",
        -8.7174053426332
      ],
      [
        "cC",
        -8.71743150474947
      ],
      [
        "TX",
        -8.71752697740767
      ],
      [
        "QZ",
        -8.717930001904602
      ],
      [
        "KC",
        -8.717934551574626
      ],
      [
        "aV",
        -8.717997670969078
      ],
      [
        "Cq",
        -8.718076948056023
      ],
      [
        "Vp",
        -8.718281107087597
      ],
      [
        "KB",
        -8.718432622981037
      ],
      [
        "NK",
        -8.7184865420434
      ],
      [
        "OQ",
        -8.718565235552417
      ],
      [
        "zM",
        -8.718566341052835
      ],
      [
        "oN",
        -8.718682615474616
      ],
      [
        "Du",
        -8.718758237368855
      ],
      [
        "fl",
        -8.718775961399563
      ],
      [
        "Hd",
        -8.718914304512765
      ],
      [
        "wF",
        -8.718931042031212
      ],
      [
        "CU",
        -8.719256343877404
      ],
      [
        "bw",
        -8.71946176214205
      ],
      [
        "IR",
        -8.719698501771784
      ],
      [
        "eC",
        -8.719849378761765
      ],
      [
        "Bn",
        -8.719948754323873
      ],
      [
        "QG",
        -8.720133254924283
      ],
      [
        "bT",
        -8.720169099167972
      ],
      [
        "wO",
        -8.72037597775018
      ],
      [
        "wj",
        -8.720397697559125
      ],
      [
        "XN",
        -8.720640728535416
      ],
      [
        "IG",
        -8.720654305424514
      ],
      [
        "CM",
        -8.72066172154495
      ],
      [
        "uH",
        -8.720805932164087
      ],
      [
        "DA",
        -8.7208080367588
      ],
      [
        "wa",
        -8.720868646209265
      ],
      [
        "gH",
        -8.720871002189497
      ],
      [
        "lr",
        -8.720917156579501
      ],
      [
        "WW",
        -8.720940581947216
      ],
      [
        "bQ",
        -8.720970128373764
      ],
      [
        "mr",
        -8.721024685097898
      ],
      [
        "Cs",
        -8.721268880346042
      ],
      [
        "eK",
        -8.721447855265174
      ],
      [
        "Vx",
        -8.72161922832082
      ],
      [
        "vh",
        -8.721743409918332
      ],
      [
        "An",
        -8.721809818327507
      ],
      [
        "vM",
        -8.721852191692655
      ],
      [
        "bJ",
        -8.72187742580612
      ],
      [
        "ev",
        -8.721935937464242
      ],
      [
        "JX",
        -8.721954549468258
      ],
      [
        "pa",
        -8.721955360957573
      ],
      [
        "Rx",
        -8.722190828404933
      ],
      [
        "eW",
        -8.72225779142043
      ],
      [
        "cn",
        -8.722443302566196
      ],
      [
        "Ra",
        -8.722467883831712
      ],
      [
        "uB",
        -8.722487593994142
      ],
      [
        "q6",
        -8.722499315044876
      ],
      [
        "qw",
        -8.722507374769139
      ],
      [
        "MI",
        -8.72253750700752
      ],
      [
        "fy",
        -8.722568461166382
      ],
      [
        "la",
        -8.722730155648996
      ],
      [
        "Rr",
        -8.722737015530416
      ],
      [
        "JR",
        -8.722794111249604
      ],
      [
        "bI",
        -8.722809770943218
      ],
      [
        "vV",
        -8.72282445561695
      ],
      [
        "RL",
        -8.723212613915965
      ],
      [
        "KQ",
        -8.723242307752358
      ],
      [
        "zj",
        -8.723469092513104
      ],
      [
        "Bv",
        -8.72351962292762
      ],
      [
        "A6",
        -8.723562353493495
      ],
      [
        "lw",
        -8.72364322535904
      ],
      [
        "Nb",
        -8.723753164790736
      ],
      [
        "RK",
        -8.723789297476785
      ],
      [
        "Cd",
        -8.72378938696341
      ],
      [
        "qY",
        -8.723837091182713
      ],
      [
        "lB",
        -8.724144246741975
      ],
      [
        "WL",
        -8.724166430065878
      ],
      [
        "Qj",
        -8.724234208220135
      ],
      [
        "cw",
        -8.724364110451422
      ],
      [
        "Tc",
        -8.72443927162951
      ],
      [
        "ea",
        -8.724482014706378
      ],
      [
        "Ib",
        -8.724489967505573
      ],
      [
        "K0",
        -8.724505007097434
      ],
      [
        "ps",
        -8.724579770586052
      ],
      [
        "DK",
        -8.724630366269135
      ],
      [
        "Cz",
        -8.72468994379442
      ],
      [
        "nl",
        -8.724838570315004
      ],
      [
        "UH",
        -8.724846258277132
      ],
      [
        "UU",
        -8.724950312375615
      ],
      [
        "AX",
        -8.725038056069739
      ],
      [
        "DJ",
        -8.725055866351397
      ],
      [
        "zf",
        -8.72512460198163
      ],
      [
        "Re",
        -8.725155485212852
      ],
      [
        "hc",
        -8.725167449418578
      ],
      [
        "nq",
        -8.725403129022698
      ],
      [
        "OL",
        -8.725553327072063
      ],
      [
        "Xr",
        -8.725562832279781
      ],
      [
        "Te",
        -8.72560118158702
      ],
      [
        "MN",
        -8.725637183559538
      ],
      [
        "Af",
        -8.725719324285215
      ],
      [
        "nv",
        -8.725742831415243
      ],
      [
        "nb",
        -8.725742898336648
      ],
      [
        "TH",
        -8.725754583255664
      ],
      [
        "Il",
        -8.725835110462569
      ],
      [
        "JA",
        -8.725852641312082
      ],
      [
        "NJ",
        -8.725867559048131
      ],
      [
        "eu",
        -8.725900629469947
      ],
      [
        "Ba",
        -8.725989804250794
      ],
      [
        "BA",
        -8.726051166210699
      ],
      [
        "Ix",
        -8.726062203791809
      ],
      [
        "rX",
        -8.726108259911793
      ],
      [
        "VM",
        -8.726123173895427
      ],
      [
        "qt",
        -8.726164100281526
      ],
      [
        "AD",
        -8.726188392502298
      ],
      [
        "Kp",
        -8.726335622791513
      ],
      [
        "Ue",
        -8.726436298472969
      ],
      [
        "WR",
        -8.726456983211653
      ],
      [
        "mY",
        -8.726515600908467
      ],
      [
        "gK",
        -8.726779548262087
      ],
      [
        "oL",
        -8.726862774699288
      ],
      [
        "Cm",
        -8.726962300066248
      ],
      [
        "WV",
        -8.726990322245822
      ],
      [
        "GT",
        -8.727004342438224
      ],
      [
        "Va",
        -8.727034050452243
      ],
      [
        "jf",
        -8.727189469922678
      ],
      [
        "JI",
        -8.727243820790253
      ],
      [
        "lN",
        -8.727252484850652
      ],
      [
        "TG",
        -8.727304504847906
      ],
      [
        "NM",
        -8.727523766249082
      ],
      [
        "qC",
        -8.727560595759153
      ],
      [
        "MZ",
        -8.727632925147894
      ],
      [
        "eH",
        -8.727671737394793
      ],
      [
        "CR",
        -8.727943736205475
      ],
      [
        "uN",
        -8.728219880602227
      ],
      [
        "de",
        -8.728267209346601
      ],
      [
        "Zf",
        -8.728373367087498
      ],
      [
        "TU",
        -8.72842840912506
      ],
      [
        "QO",
        -8.728647288892677
      ],
      [
        "HN",
        -8.728661196182031
      ],
      [
        "fr",
        -8.728686562176946
      ],
      [
        "Io",
        -8.728829038439432
      ],
      [
        "rK",
        -8.728837741631114
      ],
      [
        "Mw",
        -8.72899134193053
      ],
      [
        "gp",
        -8.729148595790129
      ],
      [
        "GI",
        -8.729378385025454
      ],
      [
        "nf",
        -8.729396043530343
      ],
      [
        "Qn",
        -8.72942127241765
      ],
      [
        "ZT",
        -8.729472913248488
      ],
      [
        "Tm",
        -8.729607695036417
      ],
      [
        "nN",
        -8.729632358785157
      ],
      [
        "Ow",
        -8.72976469377901
      ],
      [
        "qW",
        -8.729796056987139
      ],
      [
        "Lr",
        -8.729860492557814
      ],
      [
        "ux",
        -8.729964559755889
      ],
      [
        "fO",
        -8.730006571663013
      ],
      [
        "ZZ",
        -8.730125886969649
      ],
      [
        "cQ",
        -8.73019724223995
      ],
      [
        "Tf",
        -8.730207735902603
      ],
      [
        "TL",
        -8.730337649099566
      ],
      [
        "Jh",
        -8.730357362684565
      ],
      [
        "YX",
        -8.730433619098495
      ],
      [
        "lv",
        -8.73048979152141
      ],
      [
        "Qo",
        -8.73051136006476
      ],
      [
        "Qf",
        -8.730568717253714
      ],
      [
        "wV",
        -8.730665282402878
      ],
      [
        "ff",
        -8.730750173115174
      ],
      [
        "Cb",
        -8.730918576177213
      ],
      [
        "gT",
        -8.73100869686424
      ],
      [
        "yr",
        -8.731085303613202
      ],
      [
        "Tl",
        -8.731099006883278
      ],
      [
        "KG",
        -8.73113813071851
      ],
      [
        "vz",
        -8.731170324995636
      ],
      [
        "uo",
        -8.731490159130836
      ],
      [
        "rW",
        -8.73170880437467
      ],
      [
        "ep",
        -8.731875136769284
      ],
      [
        "LR",
        -8.731937897884585
      ],
      [
        "v0",
        -8.731971808106195
      ],
      [
        "qL",
        -8.731982772676425
      ],
      [
        "Wy",
        -8.732193373168002
      ],
      [
        "RZ",
        -8.73245533328902
      ],
      [
        "MU",
        -8.732559886663136
      ],
      [
        "nW",
        -8.732608018562445
      ],
      [
        "fZ",
        -8.732612351451998
      ],
      [
        "gX",
        -8.732821123490368
      ],
      [
        "LM",
        -8.732887944838048
      ],
      [
        "RM",
        -8.732925786778694
      ],
      [
        "bf",
        -8.733052032577636
      ],
      [
        "AJ",
        -8.73307938476388
      ],
      [
        "JQ",
        -8.733185576313929
      ],
      [
        "eD",
        -8.733454738484085
      ],
      [
        "pp",
        -8.733541228705363
      ],
      [
        "wb",
        -8.733711915061095
      ],
      [
        "vN",
        -8.733777589245712
      ],
      [
        "hY",
        -8.733825940163094
      ],
      [
        "pj",
        -8.733899585782602
      ],
      [
        "Cn",
        -8.73400554724445
      ],
      [
        "gW",
        -8.734006994993857
      ],
      [
        "go",
        -8.734309617490203
      ],
      [
        "oQ",
        -8.734329675252184
      ],
      [
        "fc",
        -8.734473607365905
      ],
      [
        "ee",
        -8.734477582450253
      ],
      [
        "If",
        -8.734535474174164
      ],
      [
        "Ma",
        -8.734585670405547
      ],
      [
        "WJ",
        -8.734586001225153
      ],
      [
        "ne",
        -8.734636867474517
      ],
      [
        "IB",
        -8.734728439182746
      ],
      [
        "Id",
        -8.734807304887845
      ],
      [
        "VN",
        -8.734862934497881
      ],
      [
        "Ou",
        -8.734912845487148
      ],
      [
        "cz",
        -8.73492444094347
      ],
      [
        "bb",
        -8.735017727833643
      ],
      [
        "AQ",
        -8.735083646061643
      ],
      [
        "vl",
        -8.73508633720988
      ],
      [
        "gc",
        -8.735394651464865
      ],
      [
        "zL",
        -8.735437164706228
      ],
      [
        "KM",
        -8.73545275333387
      ],
      [
        "Wp",
        -8.735463614671144
      ],
      [
        "dG",
        -8.735603102496174
      ],
      [
        "BT",
        -8.735746165709404
      ],
      [
        "uc",
        -8.735766321963204
      ],
      [
        "qG",
        -8.735841865781016
      ],
      [
        "GQ",
        -8.735878229559926
      ],
      [
        "Ru",
        -8.736082695009095
      ],
      [
        "oV",
        -8.73621957354644
      ],
      [
        "NQ",
        -8.736350212201652
      ],
      [
        "NT",
        -8.73660822620084
      ],
      [
        "Dy",
        -8.736686380370154
      ],
      [
        "QB",
        -8.736698345053584
      ],
      [
        "YQ",
        -8.736776645745824
      ],
      [
        "BY",
        -8.73688680277914
      ],
      [
        "mu",
        -8.736902121974802
      ],
      [
        "lK",
        -8.73725986054027
      ],
      [
        "jo",
        -8.737290736532753
      ],
      [
        "gu",
        -8.737446744355253
      ],
      [
        "xr",
        -8.737515073434352
      ],
      [
        "wy",
        -8.737533802572917
      ],
      [
        "Jp",
        -8.73755308773107
      ],
      [
        "Ao",
        -8.737558754260451
      ],
      [
        "Ts",
        -8.737665463017851
      ],
      [
        "XY",
        -8.737785342809332
      ],
      [
        "RX",
        -8.737786506172446
      ],
      [
        "Uh",
        -8.738080622429198
      ],
      [
        "qp",
        -8.738155125541786
      ],
      [
        "lm",
        -8.738410422699394
      ],
      [
        "NB",
        -8.738480602322937
      ],
      [
        "VR",
        -8.738511538951172
      ],
      [
        "Ja",
        -8.738616214158256
      ],
      [
        "gA",
        -8.738622182654705
      ],
      [
        "Yh",
        -8.738639929496355
      ],
      [
        "jA",
        -8.738658529839238
      ],
      [
        "Lh",
        -8.73877529817361
      ],
      [
        "Rg",
        -8.738962663608863
      ],
      [
        "bK",
        -8.738975084821853
      ],
      [
        "Rm",
        -8.73904003582247
      ],
      [
        "UV",
        -8.739045703866072
      ],
      [
        "Ym",
        -8.739376917624224
      ],
      [
        "KW",
        -8.739413639274252
      ],
      [
        "ad",
        -8.739673158594268
      ],
      [
        "bo",
        -8.739717240466518
      ],
      [
        "LY",
        -8.739764219547705
      ],
      [
        "cV",
        -8.739764873729737
      ],
      [
        "fg",
        -8.739784592660158
      ],
      [
        "BI",
        -8.740072656879804
      ],
      [
        "BC",
        -8.740131125450475
      ],
      [
        "Ha",
        -8.740140491160945
      ],
      [
        "Ml",
        -8.740202588175691
      ],
      [
        "eO",
        -8.74024370865483
      ],
      [
        "Yo",
        -8.740330184004176
      ],
      [
        "oJ",
        -8.740464135379359
      ],
      [
        "aY",
        -8.740485362456818
      ],
      [
        "IK",
        -8.74061482569152
      ],
      [
        "mX",
        -8.740849288067729
      ],
      [
        "ZW",
        -8.740867478776249
      ],
      [
        "Lg",
        -8.740877668811542
      ],
      [
        "WO",
        -8.741159040592462
      ],
      [
        "hU",
        -8.741243554736458
      ],
      [
        "Bp",
        -8.741266102272391
      ],
      [
        "Yr",
        -8.741414408921205
      ],
      [
        "QM",
        -8.741504240815573
      ],
      [
        "eQ",
        -8.741713014037968
      ],
      [
        "YK",
        -8.741840852540717
      ],
      [
        "Gg",
        -8.74187082169053
      ],
      [
        "fd",
        -8.741911780667682
      ],
      [
        "Az",
        -8.741942067866056
      ],
      [
        "xg",
        -8.741986350190858
      ],
      [
        "qz",
        -8.74204719218579
      ],
      [
        "pJ",
        -8.74204855850514
      ],
      [
        "XX",
        -8.742088035430314
      ],
      [
        "zb",
        -8.742107934460735
      ],
      [
        "IQ",
        -8.742222656043337
      ],
      [
        "hT",
        -8.742263394217574
      ],
      [
        "Hu",
        -8.742270705889197
      ],
      [
        "RJ",
        -8.742285096569866
      ],
      [
        "nz",
        -8.742487967529009
      ],
      [
        "zI",
        -8.742596950957674
      ],
      [
        "uw",
        -8.74262902710652
      ],
      [
        "fR",
        -8.74270702371033
      ],
      [
        "bq",
        -8.742757544538433
      ],
      [
        "dC",
        -8.74309039877809
      ],
      [
        "wv",
        -8.743100201455512
      ],
      [
        "Go",
        -8.743127518374722
      ],
      [
        "sa",
        -8.74318134714655
      ],
      [
        "Vq",
        -8.743277345051741
      ],
      [
        "KL",
        -8.743277414857872
      ],
      [
        "Gm",
        -8.743341549407148
      ],
      [
        "gM",
        -8.7434273914643
      ],
      [
        "hl",
        -8.743507063986733
      ],
      [
        "xT",
        -8.74351666233605
      ],
      [
        "YI",
        -8.743534777238459
      ],
      [
        "JM",
        -8.743619302955045
      ],
      [
        "Ie",
        -8.74363892876153
      ],
      [
        "We",
        -8.74376703432499
      ],
      [
        "Cj",
        -8.743903135591484
      ],
      [
        "NL",
        -8.744089076480595
      ],
      [
        "wp",
        -8.744132001250808
      ],
      [
        "OK",
        -8.744393354449745
      ],
      [
        "pu",
        -8.744396278034209
      ],
      [
        "TI",
        -8.744399770229677
      ],
      [
        "hA",
        -8.744410145773521
      ],
      [
        "jI",
        -8.744444016867511
      ],
      [
        "vq",
        -8.744468875980957
      ],
      [
        "ax",
        -8.744533493759091
      ],
      [
        "no",
        -8.744544283023854
      ],
      [
        "Iw",
        -8.744618583877266
      ],
      [
        "zu",
        -8.744651132857282
      ],
      [
        "TN",
        -8.744660756045917
      ],
      [
        "eY",
        -8.745019480466343
      ],
      [
        "VC",
        -8.745072822588934
      ],
      [
        "JO",
        -8.745148632995582
      ],
      [
        "ua",
        -8.745215725701062
      ],
      [
        "q3",
        -8.745275507841537
      ],
      [
        "vU",
        -8.745385475393217
      ],
      [
        "JN",
        -8.745594907800015
      ],
      [
        "VI",
        -8.745655358616693
      ],
      [
        "wL",
        -8.745861844580208
      ],
      [
        "Om",
        -8.74617794493357
      ],
      [
        "DW",
        -8.746300245394284
      ],
      [
        "Nj",
        -8.746459651884656
      ],
      [
        "mG",
        -8.74672129836687
      ],
      [
        "ox",
        -8.746842412407046
      ],
      [
        "nL",
        -8.747092775513153
      ],
      [
        "Tb",
        -8.747101802368316
      ],
      [
        "zZ",
        -8.747166440678209
      ],
      [
        "wh",
        -8.747259830483852
      ],
      [
        "Xb",
        -8.747299043022783
      ],
      [
        "oC",
        -8.74743413797933
      ],
      [
        "xJ",
        -8.747443482443277
      ],
      [
        "qm",
        -8.747465176440553
      ],
      [
        "lg",
        -8.747601556507409
      ],
      [
        "NX",
        -8.747674263288118
      ],
      [
        "oU",
        -8.747737831932938
      ],
      [
        "pL",
        -8.747764089147639
      ],
      [
        "mV",
        -8.748260129079647
      ],
      [
        "fp",
        -8.748413724424688
      ],
      [
        "gg",
        -8.748465791437177
      ],
      [
        "UA",
        -8.7485246243285
      ],
      [
        "cT",
        -8.748599057951571
      ],
      [
        "pH",
        -8.74860719937907
      ],
      [
        "WC",
        -8.74878435591018
      ],
      [
        "gY",
        -8.748943515314355
      ],
      [
        "QV",
        -8.748981530097009
      ],
      [
        "Bg",
        -8.749003658190778
      ],
      [
        "qI",
        -8.749120701204674
      ],
      [
        "AY",
        -8.749124033127845
      ],
      [
        "fJ",
        -8.749146352073804
      ],
      [
        "Tj",
        -8.74924743255971
      ],
      [
        "LT",
        -8.74928771071032
      ],
      [
        "Kl",
        -8.749366063221542
      ],
      [
        "Ab",
        -8.74968868618671
      ],
      [
        "II",
        -8.749729281104468
      ],
      [
        "Ve",
        -8.749823101473332
      ],
      [
        "Wl",
        -8.74988570280173
      ],
      [
        "AM",
        -8.7500370360825
      ],
      [
        "GM",
        -8.750079713386754
      ],
      [
        "YO",
        -8.750093425761756
      ],
      [
        "QC",
        -8.750240012150178
      ],
      [
        "Dv",
        -8.750340422188092
      ],
      [
        "Kn",
        -8.750356280510932
      ],
      [
        "Dc",
        -8.750358090301585
      ],
      [
        "wR",
        -8.750370833346363
      ],
      [
        "KJ",
        -8.750370923637197
      ],
      [
        "bm",
        -8.750461538832681
      ],
      [
        "rr",
        -8.750655745344638
      ],
      [
        "uV",
        -8.75071380331843
      ],
      [
        "w3",
        -8.750719747007869
      ],
      [
        "mK",
        -8.750752012539841
      ],
      [
        "lR",
        -8.750804287760957
      ],
      [
        "UD",
        -8.750830472673464
      ],
      [
        "IX",
        -8.750834822195248
      ],
      [
        "zR",
        -8.750855992677426
      ],
      [
        "DX",
        -8.750927180723867
      ],
      [
        "jw",
        -8.750941817252222
      ],
      [
        "v9",
        -8.75114973652957
      ],
      [
        "Fd",
        -8.75117857490742
      ],
      [
        "GL",
        -8.751276508474321
      ],
      [
        "ar",
        -8.751320799999878
      ],
      [
        "we",
        -8.75142930144653
      ],
      [
        "sI",
        -8.75169860136582
      ],
      [
        "LL",
        -8.751700859369578
      ],
      [
        "vK",
        -8.751953972647907
      ],
      [
        "LX",
        -8.752003043344324
      ],
      [
        "bU",
        -8.752008179973128
      ],
      [
        "Im",
        -8.752081513391225
      ],
      [
        "Bj",
        -8.752104407078072
      ],
      [
        "lV",
        -8.752140255972542
      ],
      [
        "JG",
        -8.752149882517852
      ],
      [
        "TQ",
        -8.752274217502599
      ],
      [
        "Lw",
        -8.752275376757993
      ],
      [
        "WD",
        -8.75231756702794
      ],
      [
        "Vz",
        -8.752363442915478
      ],
      [
        "rs",
        -8.752384296654661
      ],
      [
        "Mm",
        -8.752384310285397
      ],
      [
        "DV",
        -8.752392750984612
      ],
      [
        "mq",
        -8.752419042909734
      ],
      [
        "Ko",
        -8.75278289743762
      ],
      [
        "lo",
        -8.752800165287498
      ],
      [
        "LQ",
        -8.752810503645941
      ],
      [
        "ZC",
        -8.752857541093228
      ],
      [
        "og",
        -8.752972829685877
      ],
      [
        "He",
        -8.753003744736152
      ],
      [
        "mD",
        -8.753146837646689
      ],
      [
        "wI",
        -8.753168961158082
      ],
      [
        "HI",
        -8.753230034799062
      ],
      [
        "nT",
        -8.753267843939287
      ],
      [
        "WF",
        -8.75334626613373
      ],
      [
        "IA",
        -8.75347289802593
      ],
      [
        "wN",
        -8.753744163953634
      ],
      [
        "os",
        -8.753756371989518
      ],
      [
        "uv",
        -8.7537728767091
      ],
      [
        "As",
        -8.753944047478347
      ],
      [
        "eg",
        -8.753946590617964
      ],
      [
        "cM",
        -8.754093867257264
      ],
      [
        "Dp",
        -8.754123956372005
      ],
      [
        "AV",
        -8.754191307153782
      ],
      [
        "lJ",
        -8.754313113886026
      ],
      [
        "qs",
        -8.754340536906945
      ],
      [
        "Nl",
        -8.754361602743979
      ],
      [
        "uM",
        -8.75437243585905
      ],
      [
        "TV",
        -8.75437800009906
      ],
      [
        "fo",
        -8.75437831717105
      ],
      [
        "Bx",
        -8.754437562207213
      ],
      [
        "dd",
        -8.75480744162638
      ],
      [
        "mM",
        -8.755085882147457
      ],
      [
        "jp",
        -8.755093466615321
      ],
      [
        "lu",
        -8.75512477272288
      ],
      [
        "OB",
        -8.755178340369078
      ],
      [
        "Gb",
        -8.755319514527194
      ],
      [
        "gl",
        -8.755397093115835
      ],
      [
        "UC",
        -8.755498968046599
      ],
      [
        "DD",
        -8.755511037811967
      ],
      [
        "xX",
        -8.75561451758489
      ],
      [
        "YH",
        -8.75591196438381
      ],
      [
        "RV",
        -8.756121551171454
      ],
      [
        "Yu",
        -8.756172250062066
      ],
      [
        "MT",
        -8.756182441940677
      ],
      [
        "jZ",
        -8.756239636431275
      ],
      [
        "cU",
        -8.75625903654893
      ],
      [
        "CC",
        -8.7562649738571
      ],
      [
        "vp",
        -8.756406739307618
      ],
      [
        "hD",
        -8.756418178325976
      ],
      [
        "QA",
        -8.7564193850982
      ],
      [
        "mC",
        -8.756452970573914
      ],
      [
        "pX",
        -8.75645888768277
      ],
      [
        "RU",
        -8.756470378549597
      ],
      [
        "IU",
        -8.756549005083933
      ],
      [
        "RI",
        -8.756592675209298
      ],
      [
        "ZA",
        -8.756788039316742
      ],
      [
        "gC",
        -8.756806036581338
      ],
      [
        "Yl",
        -8.756820762955662
      ],
      [
        "IW",
        -8.756871646882894
      ],
      [
        "Mb",
        -8.75703062038146
      ],
      [
        "Ap",
        -8.757050955675805
      ],
      [
        "zU",
        -8.757073674808447
      ],
      [
        "Zm",
        -8.757101538607381
      ],
      [
        "jN",
        -8.757112407525721
      ],
      [
        "fT",
        -8.75734090240131
      ],
      [
        "Gq",
        -8.757363555677061
      ],
      [
        "sK",
        -8.757466969050416
      ],
      [
        "pe",
        -8.757493631914231
      ],
      [
        "XK",
        -8.75755156966713
      ],
      [
        "Kb",
        -8.75760124388338
      ],
      [
        "MX",
        -8.75772323790607
      ],
      [
        "LK",
        -8.757817227486061
      ],
      [
        "YB",
        -8.757991328229286
      ],
      [
        "AU",
        -8.758038313974115
      ],
      [
        "AB",
        -8.75832742934065
      ],
      [
        "uW",
        -8.758428820809023
      ],
      [
        "VQ",
        -8.758524916854867
      ],
      [
        "Cl",
        -8.758666847386735
      ],
      [
        "BW",
        -8.758780954941964
      ],
      [
        "Xa",
        -8.758789629423468
      ],
      [
        "KN",
        -8.758919930811892
      ],
      [
        "bv",
        -8.7590200788987
      ],
      [
        "Ch",
        -8.759051697103462
      ],
      [
        "Bz",
        -8.759516195991129
      ],
      [
        "N5",
        -8.759532248971542
      ],
      [
        "rd",
        -8.759612735685986
      ],
      [
        "qT",
        -8.759654913599823
      ],
      [
        "DT",
        -8.759720305004201
      ],
      [
        "xM",
        -8.759943566079572
      ],
      [
        "HL",
        -8.759955841053436
      ],
      [
        "jv",
        -8.760047293671757
      ],
      [
        "lX",
        -8.760190812849094
      ],
      [
        "GA",
        -8.760270293273049
      ],
      [
        "dQ",
        -8.760270853097023
      ],
      [
        "Ta",
        -8.760333049753118
      ],
      [
        "uZ",
        -8.760464118676236
      ],
      [
        "Tn",
        -8.760479305306522
      ],
      [
        "Jb",
        -8.760486900504414
      ],
      [
        "Is",
        -8.760531899695195
      ],
      [
        "on",
        -8.760586687390756
      ],
      [
        "Xm",
        -8.760600236149955
      ],
      [
        "q5",
        -8.760651325119163
      ],
      [
        "nI",
        -8.760741151006144
      ],
      [
        "ZX",
        -8.760798739810248
      ],
      [
        "GZ",
        -8.760798798202757
      ],
      [
        "fM",
        -8.76087692467961
      ],
      [
        "CI",
        -8.760890358830995
      ],
      [
        "JY",
        -8.761350497975888
      ],
      [
        "Aj",
        -8.761420502798172
      ],
      [
        "Dg",
        -8.761487588522751
      ],
      [
        "JL",
        -8.761698512864022
      ],
      [
        "OW",
        -8.76175903970712
      ],
      [
        "aq",
        -8.761768248335105
      ],
      [
        "MH",
        -8.761944044626077
      ],
      [
        "xw",
        -8.76199502533348
      ],
      [
        "MW",
        -8.762057241215292
      ],
      [
        "Cf",
        -8.762183985709939
      ],
      [
        "au",
        -8.76235206214998
      ],
      [
        "GY",
        -8.762566602231999
      ],
      [
        "Tg",
        -8.762619018564491
      ],
      [
        "ya",
        -8.762645638046466
      ],
      [
        "Do",
        -8.762746881511706
      ],
      [
        "wq",
        -8.763096650717735
      ],
      [
        "cZ",
        -8.76316575352406
      ],
      [
        "ou",
        -8.763313349796896
      ],
      [
        "jY",
        -8.763429167798364
      ],
      [
        "jl",
        -8.763494482892499
      ],
      [
        "IL",
        -8.7635389142221
      ],
      [
        "LU",
        -8.763574789312514
      ],
      [
        "ro",
        -8.763613228150113
      ],
      [
        "ao",
        -8.76383090873396
      ],
      [
        "Au",
        -8.763951053594447
      ],
      [
        "HD",
        -8.764059724771
      ],
      [
        "nG",
        -8.76430318242673
      ],
      [
        "Js",
        -8.764306675962501
      ],
      [
        "sw",
        -8.764393724053107
      ],
      [
        "aK",
        -8.764411510818036
      ],
      [
        "gm",
        -8.764645069060602
      ],
      [
        "bB",
        -8.764922067628756
      ],
      [
        "eL",
        -8.76501520490421
      ],
      [
        "mT",
        -8.76514312942728
      ],
      [
        "Jw",
        -8.765281528208954
      ],
      [
        "aQ",
        -8.76528828331928
      ],
      [
        "vj",
        -8.765302523961553
      ],
      [
        "bX",
        -8.765430344571921
      ],
      [
        "VB",
        -8.76547214313611
      ],
      [
        "Db",
        -8.765519232736255
      ],
      [
        "qO",
        -8.765733041288819
      ],
      [
        "Ah",
        -8.765767219934904
      ],
      [
        "aH",
        -8.76587558467985
      ],
      [
        "dI",
        -8.765898265441308
      ],
      [
        "eB",
        -8.765973072843849
      ],
      [
        "eA",
        -8.76615768424513
      ],
      [
        "vb",
        -8.766203408873714
      ],
      [
        "fz",
        -8.766410660086443
      ],
      [
        "xf",
        -8.766568196640506
      ],
      [
        "Bl",
        -8.766605419480143
      ],
      [
        "TA",
        -8.766640490543015
      ],
      [
        "zp",
        -8.766640850286105
      ],
      [
        "sG",
        -8.76675752075873
      ],
      [
        "DC",
        -8.766775229729934
      ],
      [
        "Wa",
        -8.767015785582927
      ],
      [
        "Yf",
        -8.767166059343355
      ],
      [
        "Yv",
        -8.767205190945441
      ],
      [
        "Xn",
        -8.767405646921077
      ],
      [
        "zo",
        -8.767532532847246
      ],
      [
        "ng",
        -8.76754755339564
      ],
      [
        "YD",
        -8.767572473260014
      ],
      [
        "za",
        -8.767662828166639
      ],
      [
        "IH",
        -8.767736841922915
      ],
      [
        "VV",
        -8.768017481725625
      ],
      [
        "pD",
        -8.76812184460194
      ],
      [
        "XA",
        -8.768362041456804
      ],
      [
        "wX",
        -8.768392098704133
      ],
      [
        "uR",
        -8.768565099201629
      ],
      [
        "fv",
        -8.768634981631493
      ],
      [
        "OY",
        -8.768673023957254
      ],
      [
        "xW",
        -8.76896638309757
      ],
      [
        "Ag",
        -8.76908788266725
      ],
      [
        "Dq",
        -8.769169929856446
      ],
      [
        "pZ",
        -8.769204676588911
      ],
      [
        "uI",
        -8.769378356555048
      ],
      [
        "ej",
        -8.769648039639993
      ],
      [
        "Gf",
        -8.769708730392349
      ],
      [
        "aN",
        -8.769913143483942
      ],
      [
        "jJ",
        -8.769931080236226
      ],
      [
        "mJ",
        -8.770429300237716
      ],
      [
        "Za",
        -8.770637908970354
      ],
      [
        "ZL",
        -8.77079018140171
      ],
      [
        "fA",
        -8.770875317574589
      ],
      [
        "NY",
        -8.770882007638205
      ],
      [
        "Gc",
        -8.770961812076699
      ],
      [
        "bn",
        -8.770966916607705
      ],
      [
        "dr",
        -8.770990482945543
      ],
      [
        "cc",
        -8.771047395364162
      ],
      [
        "ZR",
        -8.771067704192786
      ],
      [
        "wu",
        -8.771209854045411
      ],
      [
        "Zu",
        -8.771309190277961
      ],
      [
        "Cp",
        -8.771311989999553
      ],
      [
        "af",
        -8.771352097227357
      ],
      [
        "XL",
        -8.771519614948811
      ],
      [
        "ml",
        -8.771594122571411
      ],
      [
        "fL",
        -8.771646224090112
      ],
      [
        "pf",
        -8.77166980584483
      ],
      [
        "JD",
        -8.771752910704425
      ],
      [
        "fH",
        -8.771774006011777
      ],
      [
        "RD",
        -8.771803396316916
      ],
      [
        "YA",
        -8.771814011079886
      ],
      [
        "nc",
        -8.771984485840516
      ],
      [
        "dK",
        -8.772180478206991
      ],
      [
        "rR",
        -8.772228052134352
      ],
      [
        "KD",
        -8.772470305532435
      ],
      [
        "CL",
        -8.772477576039403
      ],
      [
        "el",
        -8.772511170803849
      ],
      [
        "bj",
        -8.772616712861659
      ],
      [
        "xK",
        -8.772755004568243
      ],
      [
        "wr",
        -8.77291925899549
      ],
      [
        "rq",
        -8.772930145900663
      ],
      [
        "Xw",
        -8.772942657228585
      ],
      [
        "wz",
        -8.773057525840386
      ],
      [
        "WQ",
        -8.773190435731243
      ],
      [
        "BX",
        -8.773323550737272
      ],
      [
        "nD",
        -8.773353282488685
      ],
      [
        "VZ",
        -8.773733594313558
      ],
      [
        "oG",
        -8.77373980033616
      ],
      [
        "rB",
        -8.773771978128096
      ],
      [
        "nU",
        -8.77386873599458
      ],
      [
        "WB",
        -8.773981840730965
      ],
      [
        "MC",
        -8.774059940301797
      ],
      [
        "MK",
        -8.774075746113697
      ],
      [
        "Ju",
        -8.774108592414542
      ],
      [
        "aW",
        -8.774649099908174
      ],
      [
        "nw",
        -8.774888091420248
      ],
      [
        "rG",
        -8.775188601293522
      ],
      [
        "dM",
        -8.775234716491884
      ],
      [
        "JW",
        -8.775279457018762
      ],
      [
        "VY",
        -8.775506699104653
      ],
      [
        "re",
        -8.775610787718811
      ],
      [
        "eI",
        -8.77579386718038
      ],
      [
        "wf",
        -8.775816596181993
      ],
      [
        "Wz",
        -8.77581860686061
      ],
      [
        "YY",
        -8.775958416719106
      ],
      [
        "YT",
        -8.776215376880902
      ],
      [
        "bN",
        -8.776228494120556
      ],
      [
        "TR",
        -8.776254393640254
      ],
      [
        "Xc",
        -8.776294936599173
      ],
      [
        "Ys",
        -8.776588944682253
      ],
      [
        "xR",
        -8.776602728945507
      ],
      [
        "RW",
        -8.776702455313153
      ],
      [
        "Gv",
        -8.776712736158155
      ],
      [
        "sA",
        -8.77677062019718
      ],
      [
        "In",
        -8.77707286597242
      ],
      [
        "NV",
        -8.777131635414417
      ],
      [
        "Iz",
        -8.777135680710396
      ],
      [
        "cg",
        -8.777154765176924
      ],
      [
        "se",
        -8.777424932831961
      ],
      [
        "Nz",
        -8.777523593972738
      ],
      [
        "BG",
        -8.777604354276596
      ],
      [
        "ql",
        -8.777705158928017
      ],
      [
        "TK",
        -8.777721237151361
      ],
      [
        "Dl",
        -8.777728330114275
      ],
      [
        "cI",
        -8.777825373329344
      ],
      [
        "eh",
        -8.778033269773438
      ],
      [
        "zB",
        -8.778064086497354
      ],
      [
        "DH",
        -8.77818263056055
      ],
      [
        "WK",
        -8.778282038680626
      ],
      [
        "YU",
        -8.778300385014656
      ],
      [
        "uX",
        -8.778716731195296
      ],
      [
        "sv",
        -8.778922546142963
      ],
      [
        "AK",
        -8.77900827345462
      ],
      [
        "qg",
        -8.779066895432337
      ],
      [
        "HY",
        -8.779242906673975
      ],
      [
        "Dh",
        -8.77927493774131
      ],
      [
        "LN",
        -8.77944243472776
      ],
      [
        "jV",
        -8.779530595871721
      ],
      [
        "vT",
        -8.77959155235666
      ],
      [
        "YR",
        -8.779752501338008
      ],
      [
        "wm",
        -8.779829160317213
      ],
      [
        "OG",
        -8.779892333524607
      ],
      [
        "YJ",
        -8.779951680613092
      ],
      [
        "GH",
        -8.779979824346881
      ],
      [
        "wY",
        -8.780146245080484
      ],
      [
        "sq",
        -8.780212615008077
      ],
      [
        "uG",
        -8.780324157057713
      ],
      [
        "wJ",
        -8.780428882584646
      ],
      [
        "QJ",
        -8.780430687084483
      ],
      [
        "A9",
        -8.78067766395196
      ],
      [
        "Kh",
        -8.780699287645648
      ],
      [
        "Qq",
        -8.78107456503097
      ],
      [
        "yX",
        -8.78113358422899
      ],
      [
        "Og",
        -8.781144723841987
      ],
      [
        "UI",
        -8.781188248001119
      ],
      [
        "OD",
        -8.781195359431084
      ],
      [
        "wA",
        -8.781320843529748
      ],
      [
        "oI",
        -8.781346570005113
      ],
      [
        "Wx",
        -8.781375592463078
      ],
      [
        "uL",
        -8.781698065367815
      ],
      [
        "uU",
        -8.781718520053017
      ],
      [
        "Mo",
        -8.782081819965612
      ],
      [
        "CJ",
        -8.782223069465681
      ],
      [
        "Yj",
        -8.782230111313485
      ],
      [
        "Lz",
        -8.78238632032085
      ],
      [
        "ZI",
        -8.782501811224893
      ],
      [
        "Fa",
        -8.782607093313597
      ],
      [
        "lW",
        -8.782765663107675
      ],
      [
        "me",
        -8.782792346342587
      ],
      [
        "pg",
        -8.7829050365539
      ],
      [
        "Oe",
        -8.782914102511548
      ],
      [
        "lc",
        -8.782951231900903
      ],
      [
        "Jv",
        -8.782966739811135
      ],
      [
        "qK",
        -8.783035695783878
      ],
      [
        "lY",
        -8.783119270274469
      ],
      [
        "lI",
        -8.783329067465894
      ],
      [
        "vC",
        -8.783491848403724
      ],
      [
        "Xe",
        -8.783609746997218
      ],
      [
        "BH",
        -8.78362063130818
      ],
      [
        "OJ",
        -8.783747666240458
      ],
      [
        "fV",
        -8.7837636679579
      ],
      [
        "ZV",
        -8.78383427136988
      ],
      [
        "uz",
        -8.783956011064996
      ],
      [
        "Tv",
        -8.784016209119905
      ],
      [
        "AG",
        -8.784074770419185
      ],
      [
        "ND",
        -8.784096502515634
      ],
      [
        "LJ",
        -8.784222877830281
      ],
      [
        "xV",
        -8.784324586368077
      ],
      [
        "TJ",
        -8.784513891655351
      ],
      [
        "sY",
        -8.784706861218716
      ],
      [
        "nY",
        -8.78475049018925
      ],
      [
        "fW",
        -8.784842507066585
      ],
      [
        "Cg",
        -8.784852002104266
      ],
      [
        "lU",
        -8.78499462157003
      ],
      [
        "QU",
        -8.785383635684065
      ],
      [
        "WX",
        -8.785402457784548
      ],
      [
        "HT",
        -8.78542216798336
      ],
      [
        "hq",
        -8.785482286975956
      ],
      [
        "HX",
        -8.785531854272026
      ],
      [
        "XC",
        -8.785573491034597
      ],
      [
        "uJ",
        -8.785702620632144
      ],
      [
        "wD",
        -8.785734989014863
      ],
      [
        "zv",
        -8.785833354378703
      ],
      [
        "pQ",
        -8.786184469290262
      ],
      [
        "xC",
        -8.786242946163245
      ],
      [
        "GG",
        -8.786354089427814
      ],
      [
        "Qg",
        -8.786409915850124
      ],
      [
        "Mq",
        -8.786480038121564
      ],
      [
        "qb",
        -8.786633672745893
      ],
      [
        "Zc",
        -8.786883098150025
      ],
      [
        "OA",
        -8.786929855571447
      ],
      [
        "aT",
        -8.787326172887703
      ],
      [
        "VT",
        -8.787528766309487
      ],
      [
        "wn",
        -8.787735446035942
      ],
      [
        "eJ",
        -8.787950077555829
      ],
      [
        "uQ",
        -8.787975086515342
      ],
      [
        "nQ",
        -8.78804119364968
      ],
      [
        "Lv",
        -8.788070822286134
      ],
      [
        "MJ",
        -8.788117617930787
      ],
      [
        "dZ",
        -8.788119107395318
      ],
      [
        "yL",
        -8.788373430143732
      ],
      [
        "AN",
        -8.788417409374631
      ],
      [
        "AI",
        -8.78843059000397
      ],
      [
        "WG",
        -8.7885766885354
      ],
      [
        "GC",
        -8.788588517433352
      ],
      [
        "AW",
        -8.788975124505292
      ],
      [
        "DU",
        -8.789147518703329
      ],
      [
        "CY",
        -8.789186756679019
      ],
      [
        "dW",
        -8.789389692905473
      ],
      [
        "qD",
        -8.789542458035
      ],
      [
        "ZH",
        -8.789583514034186
      ],
      [
        "Yn",
        -8.789812272933567
      ],
      [
        "cp",
        -8.789847524829877
      ],
      [
        "cA",
        -8.790169911367077
      ],
      [
        "xm",
        -8.79060072890869
      ],
      [
        "HC",
        -8.791045560735057
      ],
      [
        "GV",
        -8.79106349087299
      ],
      [
        "Df",
        -8.791273265499056
      ],
      [
        "vG",
        -8.791316925363532
      ],
      [
        "XT",
        -8.791378477804818
      ],
      [
        "jL",
        -8.791584559391227
      ],
      [
        "bL",
        -8.79159783276524
      ],
      [
        "Iq",
        -8.79175266418241
      ],
      [
        "xQ",
        -8.791803626535003
      ],
      [
        "Zw",
        -8.79184645973194
      ],
      [
        "uK",
        -8.792121176841988
      ],
      [
        "Rf",
        -8.792183168413567
      ],
      [
        "Rh",
        -8.792233856727192
      ],
      [
        "lq",
        -8.792364800093186
      ],
      [
        "Qp",
        -8.79247343543927
      ],
      [
        "rA",
        -8.792519820864333
      ],
      [
        "ZY",
        -8.792521018321828
      ],
      [
        "fm",
        -8.79254430772226
      ],
      [
        "UY",
        -8.792574476737082
      ],
      [
        "lp",
        -8.792620330673568
      ],
      [
        "fe",
        -8.792654625773572
      ],
      [
        "mL",
        -8.792825448353446
      ],
      [
        "jc",
        -8.79283399831837
      ],
      [
        "Ww",
        -8.792921109398428
      ],
      [
        "Yc",
        -8.792931952578595
      ],
      [
        "tW",
        -8.793199387313162
      ],
      [
        "oA",
        -8.79326770835685
      ],
      [
        "HQ",
        -8.79339366072628
      ],
      [
        "Cv",
        -8.793410655350034
      ],
      [
        "Lb",
        -8.793483831898175
      ],
      [
        "fw",
        -8.793520495296328
      ],
      [
        "WN",
        -8.793649040121228
      ],
      [
        "Uv",
        -8.793765104366416
      ],
      [
        "HJ",
        -8.793895034084947
      ],
      [
        "Wh",
        -8.793996422493805
      ],
      [
        "ve",
        -8.794331161460939
      ],
      [
        "aZ",
        -8.79434465162984
      ],
      [
        "XM",
        -8.794523463347176
      ],
      [
        "BN",
        -8.794620041954717
      ],
      [
        "po",
        -8.794676699807724
      ],
      [
        "sQ",
        -8.794743659863556
      ],
      [
        "Qb",
        -8.794829573403376
      ],
      [
        "aX",
        -8.794900378062968
      ],
      [
        "Ip",
        -8.794980755461939
      ],
      [
        "gq",
        -8.795500232743658
      ],
      [
        "Gp",
        -8.795572632228986
      ],
      [
        "dJ",
        -8.795879809887069
      ],
      [
        "uA",
        -8.796033557175004
      ],
      [
        "zJ",
        -8.79623685473575
      ],
      [
        "cD",
        -8.79627771136964
      ],
      [
        "Wd",
        -8.796291714838732
      ],
      [
        "Th",
        -8.796315652257032
      ],
      [
        "Wc",
        -8.79636645374999
      ],
      [
        "Oc",
        -8.79670276128841
      ],
      [
        "oh",
        -8.796713798632801
      ],
      [
        "Hz",
        -8.796793334898307
      ],
      [
        "Zq",
        -8.796937540985873
      ],
      [
        "pq",
        -8.796964422680922
      ],
      [
        "Hg",
        -8.797165146331768
      ],
      [
        "uD",
        -8.797215826592026
      ],
      [
        "HG",
        -8.797244543660941
      ],
      [
        "dT",
        -8.797303710436042
      ],
      [
        "Hv",
        -8.797360870997302
      ],
      [
        "so",
        -8.797361127564162
      ],
      [
        "rH",
        -8.797874146693207
      ],
      [
        "XJ",
        -8.797880719307713
      ],
      [
        "yQ",
        -8.79789000219861
      ],
      [
        "bl",
        -8.798000374462589
      ],
      [
        "Wn",
        -8.798810362622824
      ],
      [
        "xb",
        -8.798843176727363
      ],
      [
        "vn",
        -8.798987686936595
      ],
      [
        "zc",
        -8.799380503183581
      ],
      [
        "jG",
        -8.799472939729569
      ],
      [
        "Rb",
        -8.799505934226683
      ],
      [
        "ZB",
        -8.79955519058382
      ],
      [
        "Ic",
        -8.799596898911059
      ],
      [
        "Gl",
        -8.799796257841663
      ],
      [
        "Lo",
        -8.79984550493064
      ],
      [
        "Jg",
        -8.799908253528528
      ],
      [
        "JV",
        -8.800246250302731
      ],
      [
        "eb",
        -8.800336153482249
      ],
      [
        "bC",
        -8.800342576189461
      ],
      [
        "lf",
        -8.800515274427216
      ],
      [
        "BD",
        -8.800632194113259
      ],
      [
        "Wg",
        -8.80088097630012
      ],
      [
        "YG",
        -8.801135878421409
      ],
      [
        "mQ",
        -8.80114764270742
      ],
      [
        "Bc",
        -8.801260044266133
      ],
      [
        "nC",
        -8.801421118533597
      ],
      [
        "TD",
        -8.801542170906798
      ],
      [
        "gL",
        -8.801559831325548
      ],
      [
        "Xv",
        -8.801577145184313
      ],
      [
        "KT",
        -8.80163985336719
      ],
      [
        "Xf",
        -8.801752726568251
      ],
      [
        "yJ",
        -8.801765849243637
      ],
      [
        "UK",
        -8.80192621100583
      ],
      [
        "RB",
        -8.802316004319938
      ],
      [
        "mv",
        -8.802409354151202
      ],
      [
        "dq",
        -8.802533515285372
      ],
      [
        "Nh",
        -8.80263280142459
      ],
      [
        "aw",
        -8.80372185403704
      ],
      [
        "Uc",
        -8.803765104508336
      ],
      [
        "pG",
        -8.80383726387041
      ],
      [
        "Me",
        -8.804341600531373
      ],
      [
        "Tw",
        -8.804593301806023
      ],
      [
        "ch",
        -8.805107391508987
      ],
      [
        "Jq",
        -8.805167007478795
      ],
      [
        "ub",
        -8.805227997064978
      ],
      [
        "dA",
        -8.805552035836609
      ],
      [
        "No",
        -8.805712280072445
      ],
      [
        "Tp",
        -8.805805244970607
      ],
      [
        "Mg",
        -8.805820506265544
      ],
      [
        "LD",
        -8.806017032796412
      ],
      [
        "XI",
        -8.80604464796454
      ],
      [
        "ZQ",
        -8.806160395893109
      ],
      [
        "pv",
        -8.806468204509926
      ],
      [
        "uC",
        -8.806500598726885
      ],
      [
        "Mp",
        -8.806639009633193
      ],
      [
        "OI",
        -8.806713968082432
      ],
      [
        "yf",
        -8.806721520790138
      ],
      [
        "GB",
        -8.807028133482348
      ],
      [
        "Lq",
        -8.807328585385086
      ],
      [
        "Vl",
        -8.807363018249921
      ],
      [
        "ul",
        -8.807430284017137
      ],
      [
        "mN",
        -8.807640237848124
      ],
      [
        "zm",
        -8.807835759032345
      ],
      [
        "oT",
        -8.807949612156762
      ],
      [
        "Ro",
        -8.807997221527508
      ],
      [
        "wo",
        -8.808032263010418
      ],
      [
        "Tq",
        -8.80807922929938
      ],
      [
        "XV",
        -8.808238251379425
      ],
      [
        "rf",
        -8.80844828955653
      ],
      [
        "Ig",
        -8.808554246832532
      ],
      [
        "Oq",
        -8.808617664387913
      ],
      [
        "xG",
        -8.808870121894953
      ],
      [
        "Mv",
        -8.808903419795863
      ],
      [
        "Lc",
        -8.808904574693647
      ],
      [
        "OC",
        -8.808983605361494
      ],
      [
        "mR",
        -8.809387864031303
      ],
      [
        "Mc",
        -8.809389172262211
      ],
      [
        "IT",
        -8.809502895284147
      ],
      [
        "JB",
        -8.809507392252588
      ],
      [
        "Xl",
        -8.80986963129006
      ],
      [
        "rw",
        -8.809923221541517
      ],
      [
        "yY",
        -8.80992704006723
      ],
      [
        "Qv",
        -8.81005504042984
      ],
      [
        "mb",
        -8.81009221894094
      ],
      [
        "aD",
        -8.810155418137665
      ],
      [
        "rc",
        -8.810163372870267
      ],
      [
        "iJ",
        -8.810566262078392
      ],
      [
        "wC",
        -8.810587540220796
      ],
      [
        "pm",
        -8.810785105163045
      ],
      [
        "Bo",
        -8.810798213169473
      ],
      [
        "zz",
        -8.81089468688843
      ],
      [
        "Xg",
        -8.81098858983345
      ],
      [
        "Kg",
        -8.811247257079296
      ],
      [
        "Fb",
        -8.81191835553857
      ],
      [
        "Hq",
        -8.811936227438503
      ],
      [
        "rJ",
        -8.812180794136001
      ],
      [
        "fI",
        -8.812194433723443
      ],
      [
        "rb",
        -8.812218955669497
      ],
      [
        "Lp",
        -8.812436015361577
      ],
      [
        "pc",
        -8.812446722265193
      ],
      [
        "Xo",
        -8.81247822926476
      ],
      [
        "da",
        -8.812670778725835
      ],
      [
        "WY",
        -8.812699745989095
      ],
      [
        "xo",
        -8.81276506576754
      ],
      [
        "RG",
        -8.812777950203674
      ],
      [
        "Xz",
        -8.812973494578742
      ],
      [
        "Oo",
        -8.81297623033771
      ],
      [
        "QQ",
        -8.812994037281065
      ],
      [
        "wg",
        -8.813134671334707
      ],
      [
        "eo",
        -8.813331407560977
      ],
      [
        "VL",
        -8.813338821443256
      ],
      [
        "pl",
        -8.81353326647984
      ],
      [
        "aI",
        -8.813706891413123
      ],
      [
        "XR",
        -8.813952845678493
      ],
      [
        "QK",
        -8.814262494195454
      ],
      [
        "pN",
        -8.81475578631046
      ],
      [
        "Qh",
        -8.814826019187716
      ],
      [
        "Fw",
        -8.815328409313144
      ],
      [
        "zD",
        -8.815598659908204
      ],
      [
        "fh",
        -8.815659772503054
      ],
      [
        "nV",
        -8.815796576586061
      ],
      [
        "eV",
        -8.81579725906242
      ],
      [
        "Ne",
        -8.816076666133796
      ],
      [
        "JU",
        -8.8169537462541
      ],
      [
        "up",
        -8.81696203622695
      ],
      [
        "Zl",
        -8.817100628038197
      ],
      [
        "0W",
        -8.817282385285875
      ],
      [
        "rl",
        -8.8174989858077
      ],
      [
        "Ih",
        -8.817769882590829
      ],
      [
        "ug",
        -8.817889558859093
      ],
      [
        "oO",
        -8.81790551720728
      ],
      [
        "RQ",
        -8.818318881309503
      ],
      [
        "pw",
        -8.818644853353003
      ],
      [
        "rm",
        -8.818686237421918
      ],
      [
        "ab",
        -8.819113557744124
      ],
      [
        "wK",
        -8.819173224109543
      ],
      [
        "dN",
        -8.819195455387469
      ],
      [
        "Le",
        -8.819198419554338
      ],
      [
        "Zb",
        -8.819398962695445
      ],
      [
        "Wq",
        -8.819473237298855
      ],
      [
        "lh",
        -8.82010431973604
      ],
      [
        "VX",
        -8.820443143255039
      ],
      [
        "aM",
        -8.820550347218303
      ],
      [
        "uh",
        -8.820750748359428
      ],
      [
        "Mf",
        -8.820921353642623
      ],
      [
        "jC",
        -8.820994516581738
      ],
      [
        "fC",
        -8.82109222401672
      ],
      [
        "BL",
        -8.82111070908675
      ],
      [
        "vg",
        -8.821213334796912
      ],
      [
        "Ll",
        -8.821375078346861
      ],
      [
        "rL",
        -8.821540785030091
      ],
      [
        "rM",
        -8.821617528640335
      ],
      [
        "ag",
        -8.82181468843017
      ],
      [
        "mg",
        -8.821982584929557
      ],
      [
        "xB",
        -8.822185772241546
      ],
      [
        "Dz",
        -8.82251935476782
      ],
      [
        "Ov",
        -8.822669491030291
      ],
      [
        "KU",
        -8.82319425059088
      ],
      [
        "fG",
        -8.823330042300324
      ],
      [
        "JT",
        -8.824307310266608
      ],
      [
        "ZD",
        -8.824376543449393
      ],
      [
        "Oh",
        -8.82440816942112
      ],
      [
        "XB",
        -8.824442647149183
      ],
      [
        "fD",
        -8.824459456055433
      ],
      [
        "zC",
        -8.824772716648708
      ],
      [
        "xN",
        -8.824980028534153
      ],
      [
        "Rq",
        -8.825185965232803
      ],
      [
        "aC",
        -8.82520328723839
      ],
      [
        "Vv",
        -8.82541149393656
      ],
      [
        "um",
        -8.825444246126967
      ],
      [
        "fK",
        -8.826000924374139
      ],
      [
        "Zo",
        -8.826093370919075
      ],
      [
        "HB",
        -8.826281906323452
      ],
      [
        "Jz",
        -8.826610932602781
      ],
      [
        "IN",
        -8.826643118104137
      ],
      [
        "Zz",
        -8.826760927704576
      ],
      [
        "lD",
        -8.827153527593227
      ],
      [
        "eU",
        -8.827350425904228
      ],
      [
        "CQ",
        -8.827472374395871
      ],
      [
        "0w",
        -8.828134141526094
      ],
      [
        "yo",
        -8.82886614581858
      ],
      [
        "Hb",
        -8.828943659264601
      ],
      [
        "aB",
        -8.829167606149182
      ],
      [
        "Nw",
        -8.829331355508936
      ],
      [
        "Jo",
        -8.829405650177666
      ],
      [
        "Zv",
        -8.829422340929499
      ],
      [
        "bh",
        -8.829568751545981
      ],
      [
        "ra",
        -8.829625206435658
      ],
      [
        "Wm",
        -8.829853067474962
      ],
      [
        "Qw",
        -8.829859675905354
      ],
      [
        "zq",
        -8.83010205195508
      ],
      [
        "dL",
        -8.83021863520337
      ],
      [
        "IJ",
        -8.830498511317254
      ],
      [
        "iA",
        -8.830846816687831
      ],
      [
        "Yb",
        -8.831207395978472
      ],
      [
        "ZN",
        -8.832431187409252
      ],
      [
        "az",
        -8.83252016588067
      ],
      [
        "IC",
        -8.832531896481402
      ],
      [
        "aU",
        -8.832618374633984
      ],
      [
        "rz",
        -8.832760597885638
      ],
      [
        "Vw",
        -8.833228257811909
      ],
      [
        "Bq",
        -8.833420993375857
      ],
      [
        "Ob",
        -8.833462995576445
      ],
      [
        "zh",
        -8.833489005941534
      ],
      [
        "BQ",
        -8.833904166003599
      ],
      [
        "zA",
        -8.83396811698092
      ],
      [
        "rg",
        -8.834875937070905
      ],
      [
        "rp",
        -8.835061641518527
      ],
      [
        "sU",
        -8.835107792696885
      ],
      [
        "Jl",
        -8.835216324625861
      ],
      [
        "VG",
        -8.835423869479284
      ],
      [
        "Dw",
        -8.835611873001103
      ],
      [
        "rI",
        -8.835683676251891
      ],
      [
        "Xq",
        -8.836310113811502
      ],
      [
        "XD",
        -8.836548330607512
      ],
      [
        "jQ",
        -8.836780509347278
      ],
      [
        "aJ",
        -8.837267900373986
      ],
      [
        "fB",
        -8.837565479393156
      ],
      [
        "Kv",
        -8.837902259677914
      ],
      [
        "yD",
        -8.838239628579219
      ],
      [
        "Vh",
        -8.838715711433398
      ],
      [
        "GR",
        -8.838840496299927
      ],
      [
        "Kc",
        -8.839015765955013
      ],
      [
        "dD",
        -8.83979755187961
      ],
      [
        "Nc",
        -8.840194271861224
      ],
      [
        "tw",
        -8.841223387235548
      ],
      [
        "Al",
        -8.841677049387124
      ],
      [
        "Nu",
        -8.84216780279253
      ],
      [
        "XQ",
        -8.842423443946352
      ],
      [
        "FC",
        -8.842991855264383
      ],
      [
        "NC",
        -8.843214231449895
      ],
      [
        "fQ",
        -8.843500610398738
      ],
      [
        "rD",
        -8.843779213588556
      ],
      [
        "Qm",
        -8.843789377424777
      ],
      [
        "HW",
        -8.844074266331827
      ],
      [
        "fq",
        -8.844342990260053
      ],
      [
        "wT",
        -8.84458722803373
      ],
      [
        "Hl",
        -8.844833276592265
      ],
      [
        "Yg",
        -8.845017679738985
      ],
      [
        "mU",
        -8.845261018803757
      ],
      [
        "cv",
        -8.845837424209233
      ],
      [
        "iw",
        -8.845981682534667
      ],
      [
        "ol",
        -8.846460127514241
      ],
      [
        "XG",
        -8.846736755895293
      ],
      [
        "dR",
        -8.846861987471879
      ],
      [
        "ah",
        -8.847086949933525
      ],
      [
        "ac",
        -8.847941070191446
      ],
      [
        "xD",
        -8.848052362484452
      ],
      [
        "Ze",
        -8.848581179086734
      ],
      [
        "sC",
        -8.8487612302218
      ],
      [
        "yw",
        -8.848766007723377
      ],
      [
        "eq",
        -8.849573995187722
      ],
      [
        "Wv",
        -8.849606917063387
      ],
      [
        "wU",
        -8.849679849805483
      ],
      [
        "jb",
        -8.850572582907224
      ],
      [
        "Wo",
        -8.850828709933257
      ],
      [
        "FL",
        -8.851600391657659
      ],
      [
        "Jc",
        -8.851850172713505
      ],
      [
        "Co",
        -8.851935883605169
      ],
      [
        "FG",
        -8.85340505475924
      ],
      [
        "Wb",
        -8.854111543608086
      ],
      [
        "dB",
        -8.854299806146798
      ],
      [
        "yT",
        -8.85430321760149
      ],
      [
        "rv",
        -8.854460582975292
      ],
      [
        "fN",
        -8.855031299664468
      ],
      [
        "bA",
        -8.85516212550218
      ],
      [
        "FT",
        -8.85577045881417
      ],
      [
        "yb",
        -8.855776743472346
      ],
      [
        "Iv",
        -8.855859399219247
      ],
      [
        "Zg",
        -8.856857249920658
      ],
      [
        "df",
        -8.857052988710777
      ],
      [
        "Yq",
        -8.857058338632825
      ],
      [
        "yC",
        -8.857746198631059
      ],
      [
        "Mh",
        -8.858078695655848
      ],
      [
        "fU",
        -8.85821557244158
      ],
      [
        "rT",
        -8.858492234212935
      ],
      [
        "Xh",
        -8.858916298369042
      ],
      [
        "mA",
        -8.859067273488204
      ],
      [
        "al",
        -8.859903568870976
      ],
      [
        "rY",
        -8.861015554407372
      ],
      [
        "xI",
        -8.86152710013422
      ],
      [
        "FB",
        -8.86159296605022
      ],
      [
        "ap",
        -8.861867714353163
      ],
      [
        "wc",
        -8.862424807599519
      ],
      [
        "0e",
        -8.862629907069255
      ],
      [
        "FA",
        -8.862861171079658
      ],
      [
        "WT",
        -8.863314142447734
      ],
      [
        "wQ",
        -8.863833936636578
      ],
      [
        "rQ",
        -8.865614142618192
      ],
      [
        "BR",
        -8.865619485516877
      ],
      [
        "qv",
        -8.865634488598074
      ],
      [
        "db",
        -8.866239533750216
      ],
      [
        "RC",
        -8.86645398283217
      ],
      [
        "LC",
        -8.867180775223982
      ],
      [
        "CK",
        -8.867592414680018
      ],
      [
        "ZJ",
        -8.868005376822854
      ],
      [
        "Rv",
        -8.868173402689717
      ],
      [
        "ib",
        -8.86832232716461
      ],
      [
        "Rw",
        -8.869610242342379
      ],
      [
        "rh",
        -8.86968466870885
      ],
      [
        "dz",
        -8.870022086800493
      ],
      [
        "MD",
        -8.870165028249362
      ],
      [
        "FJ",
        -8.870294120305962
      ],
      [
        "rC",
        -8.870637376344622
      ],
      [
        "HA",
        -8.870789999100271
      ],
      [
        "xq",
        -8.870897529882514
      ],
      [
        "aG",
        -8.871536117080915
      ],
      [
        "xc",
        -8.871550709622273
      ],
      [
        "GU",
        -8.87158198501886
      ],
      [
        "Fg",
        -8.872007750281353
      ],
      [
        "aL",
        -8.872489654823028
      ],
      [
        "sJ",
        -8.873146182247254
      ],
      [
        "xe",
        -8.873605095592875
      ],
      [
        "Ho",
        -8.874343757157247
      ],
      [
        "pC",
        -8.874782054686172
      ],
      [
        "BU",
        -8.874918814212526
      ],
      [
        "Bw",
        -8.874992157878957
      ],
      [
        "iv",
        -8.87573897570499
      ],
      [
        "FI",
        -8.875745955709352
      ],
      [
        "FN",
        -8.876142414171895
      ],
      [
        "Bh",
        -8.877381049816286
      ],
      [
        "Hh",
        -8.878580793934333
      ],
      [
        "LG",
        -8.878690867771123
      ],
      [
        "0o",
        -8.878898449360285
      ],
      [
        "ph",
        -8.879109402620376
      ],
      [
        "JK",
        -8.87951448232267
      ],
      [
        "MQ",
        -8.880473162946082
      ],
      [
        "ZK",
        -8.880827104510544
      ],
      [
        "dv",
        -8.88144234269228
      ],
      [
        "Wu",
        -8.881866563521545
      ],
      [
        "yv",
        -8.882147161139876
      ],
      [
        "Bm",
        -8.882744985564095
      ],
      [
        "dc",
        -8.882858169252561
      ],
      [
        "fY",
        -8.88300339566262
      ],
      [
        "rV",
        -8.883462317475033
      ],
      [
        "aA",
        -8.883490262879748
      ],
      [
        "av",
        -8.884312774843341
      ],
      [
        "WU",
        -8.88458945044119
      ],
      [
        "rN",
        -8.884696312268169
      ],
      [
        "yA",
        -8.888814706371933
      ],
      [
        "FY",
        -8.890557220650908
      ],
      [
        "xU",
        -8.89244310340031
      ],
      [
        "0Y",
        -8.894821870797044
      ],
      [
        "NG",
        -8.895690500012272
      ],
      [
        "Yp",
        -8.897335530393985
      ],
      [
        "zQ",
        -8.90282890688114
      ],
      [
        "ZU",
        -8.905984870050892
      ],
      [
        "Fq",
        -8.90777306001493
      ],
      [
        "Fo",
        -8.908262154589002
      ],
      [
        "HU",
        -8.911165033812035
      ],
      [
        "ZG",
        -8.913718079704779
      ],
      [
        "Zh",
        -8.921754471524267
      ],
      [
        "dg",
        -8.930887969902297
      ],
      [
        "0A",
        -8.93312590244531
      ],
      [
        "xY",
        -8.939522697525641
      ],
      [
        "do",
        -8.940080555654841
      ]
    ],
    "byte_fallback": false
  }
}