{
  "version": "1.0",
  "truncation": null,
  "padding": null,
  "added_tokens": [
    {
      "id": 0,
      "content": "[PAD]",
      "single_word": false,
      "lstrip": false,
      "rstrip": false,
      "normalized": false,
      "special": true
    },
    {
      "id": 1,
      "content": "[UNK]",
      "single_word": false,
      "lstrip": false,
      "rstrip": false,
      "normalized": false,
      "special": true
    },
    {
      "id": 2,
      "content": "[CLS]",
      "single_word": false,
      "lstrip": false,
      "rstrip": false,
      "normalized": false,
      "special": true
    },
    {
      "id": 3,
      "content": "[SEP]",
      "single_word": false,
      "lstrip": false,
      "rstrip": false,
      "normalized": false,
      "special": true
    },
    {
      "id": 4,
      "content": "[MASK]",
      "single_word": false,
      "lstrip": false,
      "rstrip": false,
      "normalized": false,
      "special": true
    }
  ],
  "normalizer": {
    "type": "NFKC"
  },
  "pre_tokenizer": {
    "type": "Whitespace"
  },
  "post_processor": null,
  "decoder": null,
  "model": {
    "type": "Unigram",
    "unk_id": null,
    "vocab": [
      [
        "[PAD]",
        0.0
      ],
      [
        "[UNK]",
        0.0
      ],
      [
        "[CLS]",
        0.0
      ],
      [
        "[SEP]",
        0.0
      ],
      [
        "[MASK]",
        0.0
      ],
      [
        ">",
        -3.5083677930206587
      ],
      [
        "<",
        -3.5083677930206587
      ],
      [
        "=",
        -3.557158195286103
      ],
      [
        "SEP",
        -3.608619072818353
      ],
      [
        "k",
        -3.872535761785411
      ],
      [
        "S",
        -3.8843054820685303
      ],
      [
        "1",
        -3.901931832895519
      ],
      [
        "7",
        -3.9351704738377116
      ],
      [
        "2",
        -3.938920511226085
      ],
      [
        "4",
        -3.941913789437061
      ],
      [
        "E",
        -3.951467363368497
      ],
      [
        "P",
        -3.955463053562193
      ],
      [
        "5",
        -4.012609564297289
      ],
      [
        "9",
        -4.046041589481117
      ],
      [
        "3",
        -4.057975276662537
      ],
      [
        "6",
        -4.179112595495367
      ],
      [
        "8",
        -4.2462128127976975
      ],
      [
        "t",
        -4.254022994111656
      ],
      [
        "0",
        -4.370500745951391
      ],
      [
        "i",
        -4.375055318694816
      ],
      [
        "s",
        -4.604816803105654
      ],
      [
        "F",
        -4.6499646049748975
      ],
      [
        "O",
        -4.709675556444447
      ],
      [
        "y",
        -4.725495839618528
      ],
      [
        "j",
        -4.729209794954011
      ],
      [
        "n",
        -4.780241890878711
      ],
      [
        "x",
        -4.903720662359751
      ],
      [
        "H",
        -5.072109508876196
      ],
      [
        "u",
        -5.157200650188827
      ],
      [
        "d",
        -5.192544990709187
      ],
      [
        "R",
        -5.192918248518989
      ],
      [
        "Z",
        -5.194666819817748
      ],
      [
        "r",
        -5.22601849204956
      ],
      [
        "M",
        -5.25878485678691
      ],
      [
        "X",
        -5.315119004851949
      ],
      [
        "z",
        -5.317134698917073
      ],
      [
        "m",
        -5.332551107142134
      ],
      [
        "p",
        -5.346670032819812
      ],
      [
        "l",
        -5.370805322413505
      ],
      [
        "V",
        -5.398055216915081
      ],
      [
        "f",
        -5.430190428589354
      ],
      [
        "K",
        -5.4457871054357945
      ],
      [
        "L",
        -5.475743701652899
      ],
      [
        "a",
        -5.499716598777857
      ],
      [
        "c",
        -5.52496680565163
      ],
      [
        "W",
        -5.547204814804852
      ],
      [
        "h",
        -5.560017162820898
      ],
      [
        "e",
        -5.564303635624542
      ],
      [
        "I",
        -5.5674744433761845
      ],
      [
        "G",
        -5.574250164765441
      ],
      [
        "D",
        -5.579004728557273
      ],
      [
        "Q",
        -5.595426012592528
      ],
      [
        "g",
        -5.617119099175257
      ],
      [
        "B",
        -5.640137111053395
      ],
      [
        "J",
        -5.642067388158653
      ],
      [
        "T",
        -5.653837014489522
      ],
      [
        "A",
        -5.700119666635901
      ],
      [
        "U",
        -5.716273583013722
      ],
      [
        "b",
        -5.73061355776106
      ],
      [
        "w",
        -5.742222644234552
      ],
      [
        "Y",
        -5.744373985686726
      ],
      [
        "N",
        -5.74617309039165
      ],
      [
        "C",
        -5.757996015373299
      ],
      [
        "v",
        -5.807569058351627
      ],
      [
        "q",
        -5.859494616795413
      ],
      [
        "o",
        -5.86261115892051
      ],
      [
        "k1",
        -6.460574736137149
      ],
      [
        "k0",
        -6.492520159971308
      ],
      [
        "k6",
        -6.509665551147863
      ],
      [
        "k8",
        -6.511139143007618
      ],
      [
        "sig",
        -6.549217893288047
      ],
      [
        "REC",
        -6.549573983085869
      ],
      [
        "END",
        -6.550371385869553
      ],
      [
        "nal",
        -6.551133756399151
      ],
      [
        "k9",
        -6.552927708591291
      ],
      [
        "_",
        -6.552985472165098
      ],
      [
        "k3",
        -6.556206627591937
      ],
      [
        "k5",
        -6.566922460322154
      ],
      [
        "k18",
        -6.567663344814955
      ],
      [
        "k16",
        -6.568449433914276
      ],
      [
        "k13",
        -6.570785323225019
      ],
      [
        "k19",
        -6.573540928153577
      ],
      [
        "k15",
        -6.5737721322553195
      ],
      [
        "k12",
        -6.574948869971621
      ],
      [
        "k14",
        -6.575076293131401
      ],
      [
        "k11",
        -6.575372908525253
      ],
      [
        "k17",
        -6.5761953546800385
      ],
      [
        "k7",
        -6.5844100960121335
      ],
      [
        "k2",
        -6.596373263276158
      ],
      [
        "k4",
        -6.606101419312797
      ],
      [
        "bZ",
        -8.504516011024855
      ],
      [
        "vF",
        -8.524734990232993
      ],
      [
        "hR",
        -8.535667683069763
      ],
      [
        "bF",
        -8.55435748166347
      ],
      [
        "UR",
        -8.555273077390927
      ],
      [
        "hd",
        -8.56000843360631
      ],
      [
        "o8",
        -8.560426184273874
      ],
      [
        "UF",
        -8.56085438651083
      ],
      [
        "h8",
        -8.567268114036883
      ],
      [
        "hQ",
        -8.571957704852906
      ],
      [
        "oa",
        -8.573961070998863
      ],
      [
        "Gx",
        -8.576277063262424
      ],
      [
        "Ut",
        -8.578800896776873
      ],
      [
        "Cx",
        -8.578903281836991
      ],
      [
        "Ui",
        -8.580193351958027
      ],
      [
        "AF",
        -8.581335412625215
      ],
      [
        "Di",
        -8.581670933083403
      ],
      [
        "Gd",
        -8.582098461000905
      ],
      [
        "zF",
        -8.583581868855813
      ],
      [
        "TF",
        -8.585699429829148
      ],
      [
        "mW",
        -8.586338817795355
      ],
      [
        "h0",
        -8.586375377622005
      ],
      [
        "bY",
        -8.587145567483036
      ],
      [
        "lF",
        -8.587491576130072
      ],
      [
        "hf",
        -8.587596052779901
      ],
      [
        "hN",
        -8.587778705057685
      ],
      [
        "bi",
        -8.58875098765508
      ],
      [
        "bd",
        -8.588792760380445
      ],
      [
        "va",
        -8.589277147908309
      ],
      [
        "hr",
        -8.589979463858658
      ],
      [
        "l0",
        -8.592575203364579
      ],
      [
        "W8",
        -8.592905359743604
      ],
      [
        "Td",
        -8.593303734087513
      ],
      [
        "vr",
        -8.594975868375716
      ],
      [
        "Gi",
        -8.594982702345185
      ],
      [
        "cy",
        -8.595639124834968
      ],
      [
        "L0",
        -8.595751155258505
      ],
      [
        "c8",
        -8.595805778861045
      ],
      [
        "I6",
        -8.596614177499385
      ],
      [
        "my",
        -8.597246512553724
      ],
      [
        "gJ",
        -8.59826190832374
      ],
      [
        "ld",
        -8.598966203107569
      ],
      [
        "LF",
        -8.601305416030566
      ],
      [
        "Ux",
        -8.601383753347557
      ],
      [
        "h6",
        -8.601850926156008
      ],
      [
        "T8",
        -8.60191020770121
      ],
      [
        "DF",
        -8.60232700064826
      ],
      [
        "qr",
        -8.6028224180383
      ],
      [
        "KF",
        -8.603162965191963
      ],
      [
        "vx",
        -8.60371657309408
      ],
      [
        "oc",
        -8.603909719029815
      ],
      [
        "gV",
        -8.605130698581958
      ],
      [
        "Uy",
        -8.6063572219586
      ],
      [
        "py",
        -8.606368591367648
      ],
      [
        "p8",
        -8.607419810228855
      ],
      [
        "vu",
        -8.60776083166098
      ],
      [
        "c0",
        -8.608404500406321
      ],
      [
        "Ny",
        -8.608560038648616
      ],
      [
        "gd",
        -8.609221184823857
      ],
      [
        "GF",
        -8.609399863750419
      ],
      [
        "hF",
        -8.609729945202254
      ],
      [
        "hH",
        -8.611342136219832
      ],
      [
        "vR",
        -8.611510571510145
      ],
      [
        "ha",
        -8.611914037627624
      ],
      [
        "gx",
        -8.61212177700894
      ],
      [
        "Aw",
        -8.61324286313544
      ],
      [
        "V8",
        -8.6134763671371
      ],
      [
        "J8",
        -8.613662012345328
      ],
      [
        "MF",
        -8.614116979754852
      ],
      [
        "Ky",
        -8.614179849536953
      ],
      [
        "C8",
        -8.615130098218462
      ],
      [
        "vf",
        -8.61518436173925
      ],
      [
        "IZ",
        -8.61518514912558
      ],
      [
        "qX",
        -8.61528588306917
      ],
      [
        "Qe",
        -8.616025699406787
      ],
      [
        "Bf",
        -8.616479299104075
      ],
      [
        "vZ",
        -8.616920007629712
      ],
      [
        "UZ",
        -8.616998398607933
      ],
      [
        "hi",
        -8.61736709032812
      ],
      [
        "CB",
        -8.617645266548589
      ],
      [
        "uF",
        -8.617771971108944
      ],
      [
        "CO",
        -8.617844992856707
      ],
      [
        "uf",
        -8.617921726316922
      ],
      [
        "A8",
        -8.618488452504252
      ],
      [
        "Um",
        -8.61856817996421
      ],
      [
        "fx",
        -8.618601227144291
      ],
      [
        "hX",
        -8.618875479107285
      ],
      [
        "pr",
        -8.619096115592235
      ],
      [
        "Hn",
        -8.61970492549722
      ],
      [
        "Ir",
        -8.619833618927377
      ],
      [
        "G6",
        -8.62006431445537
      ],
      [
        "lH",
        -8.62021921142929
      ],
      [
        "g6",
        -8.620755741330836
      ],
      [
        "UQ",
        -8.62094203467432
      ],
      [
        "BZ",
        -8.621627597425487
      ],
      [
        "Vr",
        -8.621974914723582
      ],
      [
        "vm",
        -8.622229833457332
      ],
      [
        "pB",
        -8.622305118367048
      ],
      [
        "pi",
        -8.622722446951173
      ],
      [
        "vi",
        -8.622773431819054
      ],
      [
        "GX",
        -8.623208388392321
      ],
      [
        "Ad",
        -8.623594444523214
      ],
      [
        "c6",
        -8.623973326127288
      ],
      [
        "hC",
        -8.624518050597585
      ],
      [
        "oZ",
        -8.624695545128397
      ],
      [
        "Q6",
        -8.625170666165662
      ],
      [
        "Ua",
        -8.62526759320447
      ],
      [
        "o6",
        -8.625476933874694
      ],
      [
        "nr",
        -8.625766009485083
      ],
      [
        "UM",
        -8.62613724947959
      ],
      [
        "zK",
        -8.62649462461616
      ],
      [
        "lx",
        -8.62668801567522
      ],
      [
        "QW",
        -8.627014310217376
      ],
      [
        "nZ",
        -8.627254859347069
      ],
      [
        "LZ",
        -8.627327642430064
      ],
      [
        "eT",
        -8.627447370235867
      ],
      [
        "G8",
        -8.627583054924333
      ],
      [
        "C0",
        -8.62759025059755
      ],
      [
        "Lu",
        -8.627674130445467
      ],
      [
        "Ug",
        -8.627699712052383
      ],
      [
        "ba",
        -8.627952003680573
      ],
      [
        "vo",
        -8.627996458730301
      ],
      [
        "Ki",
        -8.628236896028572
      ],
      [
        "U0",
        -8.62860665974825
      ],
      [
        "JH",
        -8.628753127110372
      ],
      [
        "LW",
        -8.62888121621349
      ],
      [
        "AA",
        -8.628886977098126
      ],
      [
        "YL",
        -8.629008983174806
      ],
      [
        "B8",
        -8.62939029683304
      ],
      [
        "qZ",
        -8.629600974095894
      ],
      [
        "N0",
        -8.629901454361052
      ],
      [
        "Cw",
        -8.630294376026933
      ],
      [
        "vw",
        -8.630361101239618
      ],
      [
        "Ga",
        -8.630561235089655
      ],
      [
        "ur",
        -8.631092222803542
      ],
      [
        "hp",
        -8.6310942675543
      ],
      [
        "DB",
        -8.631236215904353
      ],
      [
        "lz",
        -8.632303732962228
      ],
      [
        "q0",
        -8.63272280970704
      ],
      [
        "VF",
        -8.633930552133396
      ],
      [
        "IF",
        -8.634209052861674
      ],
      [
        "Jx",
        -8.634332187650358
      ],
      [
        "Up",
        -8.6345092929195
      ],
      [
        "AZ",
        -8.635059568682795
      ],
      [
        "hM",
        -8.636219033625565
      ],
      [
        "wH",
        -8.63678106782347
      ],
      [
        "qQ",
        -8.63683977427472
      ],
      [
        "Vc",
        -8.636920983792528
      ],
      [
        "fF",
        -8.637163985262234
      ],
      [
        "qu",
        -8.63798494444576
      ],
      [
        "ww",
        -8.638285886269237
      ],
      [
        "Y8",
        -8.638605080385503
      ],
      [
        "hB",
        -8.638796543122218
      ],
      [
        "Ca",
        -8.639587581482909
      ],
      [
        "N8",
        -8.639805436071974
      ],
      [
        "D8",
        -8.639913658860515
      ],
      [
        "qd",
        -8.64043977071707
      ],
      [
        "sB",
        -8.64070924387161
      ],
      [
        "TO",
        -8.641069193362156
      ],
      [
        "em",
        -8.64154294016036
      ],
      [
        "gi",
        -8.641948834031702
      ],
      [
        "hh",
        -8.642169114455058
      ],
      [
        "g8",
        -8.642590218558537
      ],
      [
        "Iy",
        -8.642662922247837
      ],
      [
        "o0",
        -8.64336729517197
      ],
      [
        "gz",
        -8.643505340069021
      ],
      [
        "qN",
        -8.644066689235515
      ],
      [
        "hL",
        -8.644082696969235
      ],
      [
        "QL",
        -8.644284296433046
      ],
      [
        "cd",
        -8.644332917065698
      ],
      [
        "vs",
        -8.64451668402668
      ],
      [
        "Np",
        -8.644553553427802
      ],
      [
        "ay",
        -8.644916630184426
      ],
      [
        "Ar",
        -8.64494492935835
      ],
      [
        "gR",
        -8.645593470989802
      ],
      [
        "aR",
        -8.64586157243583
      ],
      [
        "vy",
        -8.646106176342638
      ],
      [
        "Ya",
        -8.646278238634554
      ],
      [
        "gf",
        -8.646438297994997
      ],
      [
        "RF",
        -8.646587117726217
      ],
      [
        "Jr",
        -8.647582315508878
      ],
      [
        "T6",
        -8.648160169430748
      ],
      [
        "D0",
        -8.648193808842613
      ],
      [
        "CT",
        -8.648217232505598
      ],
      [
        "qF",
        -8.648323865379231
      ],
      [
        "Qx",
        -8.648423517867352
      ],
      [
        "mO",
        -8.64848863650355
      ],
      [
        "mB",
        -8.648631161167904
      ],
      [
        "Zr",
        -8.648634387020852
      ],
      [
        "Xd",
        -8.648643320223389
      ],
      [
        "ud",
        -8.649505683614105
      ],
      [
        "N6",
        -8.649577562281674
      ],
      [
        "Br",
        -8.649636540562318
      ],
      [
        "UT",
        -8.649815027594894
      ],
      [
        "U6",
        -8.650074462212853
      ],
      [
        "oy",
        -8.650354129042753
      ],
      [
        "vv",
        -8.650495480702038
      ],
      [
        "a8",
        -8.650532898004489
      ],
      [
        "qH",
        -8.650652814382376
      ],
      [
        "UW",
        -8.651029400204198
      ],
      [
        "AT",
        -8.651224365536809
      ],
      [
        "Qd",
        -8.651348427717362
      ],
      [
        "cr",
        -8.65142601494877
      ],
      [
        "Yd",
        -8.652140159743803
      ],
      [
        "di",
        -8.652640062737555
      ],
      [
        "vX",
        -8.65270319468262
      ],
      [
        "vd",
        -8.652867139424838
      ],
      [
        "hJ",
        -8.65290312761579
      ],
      [
        "vL",
        -8.652993110601995
      ],
      [
        "qB",
        -8.653010470200433
      ],
      [
        "Vm",
        -8.653282526027187
      ],
      [
        "Hf",
        -8.6533517806931
      ],
      [
        "gy",
        -8.65338699326341
      ],
      [
        "mH",
        -8.653648825707739
      ],
      [
        "Tr",
        -8.653730064833944
      ],
      [
        "w8",
        -8.653730260131193
      ],
      [
        "vO",
        -8.653738404001862
      ],
      [
        "zd",
        -8.654036480207802
      ],
      [
        "hK",
        -8.654111230140472
      ],
      [
        "Nn",
        -8.655029313397208
      ],
      [
        "La",
        -8.65513219640362
      ],
      [
        "br",
        -8.655431973430986
      ],
      [
        "eR",
        -8.655758797425516
      ],
      [
        "QR",
        -8.655785995950595
      ],
      [
        "UB",
        -8.65593992102321
      ],
      [
        "qc",
        -8.65597475563872
      ],
      [
        "Rd",
        -8.656314369038903
      ],
      [
        "gr",
        -8.656508894498899
      ],
      [
        "nX",
        -8.656587884356298
      ],
      [
        "bz",
        -8.65668543940017
      ],
      [
        "YC",
        -8.656707248257561
      ],
      [
        "Kt",
        -8.656878358954142
      ],
      [
        "bD",
        -8.656899605624425
      ],
      [
        "zH",
        -8.657100486857988
      ],
      [
        "cJ",
        -8.657193190273428
      ],
      [
        "hV",
        -8.657353401540748
      ],
      [
        "B0",
        -8.657365432191131
      ],
      [
        "UJ",
        -8.657551243800102
      ],
      [
        "Qu",
        -8.657779727173926
      ],
      [
        "fa",
        -8.657813039747651
      ],
      [
        "V0",
        -8.657814615978772
      ],
      [
        "Ur",
        -8.657946009093127
      ],
      [
        "Ub",
        -8.657969350487363
      ],
      [
        "CF",
        -8.65797292940714
      ],
      [
        "nx",
        -8.658153934873987
      ],
      [
        "hW",
        -8.658170273210315
      ],
      [
        "lG",
        -8.658555684693026
      ],
      [
        "TW",
        -8.658960394343419
      ],
      [
        "ho",
        -8.659236467774267
      ],
      [
        "pR",
        -8.659418375755248
      ],
      [
        "bW",
        -8.659552403110418
      ],
      [
        "Md",
        -8.659596185499733
      ],
      [
        "Na",
        -8.659606240210525
      ],
      [
        "oq",
        -8.659711731042673
      ],
      [
        "Nv",
        -8.659735545928172
      ],
      [
        "Nd",
        -8.659858463731052
      ],
      [
        "Mj",
        -8.659929079053475
      ],
      [
        "A0",
        -8.660064387027951
      ],
      [
        "wd",
        -8.660521334507381
      ],
      [
        "LB",
        -8.660541753513943
      ],
      [
        "ga",
        -8.660670014364687
      ],
      [
        "U8",
        -8.660681139916282
      ],
      [
        "uy",
        -8.660856389050817
      ],
      [
        "ec",
        -8.660919186648595
      ],
      [
        "hv",
        -8.66108677906834
      ],
      [
        "Ul",
        -8.661305655257202
      ],
      [
        "pd",
        -8.661372533866201
      ],
      [
        "Ji",
        -8.661474680915031
      ],
      [
        "Ax",
        -8.661630521594752
      ],
      [
        "pb",
        -8.662084125650974
      ],
      [
        "ed",
        -8.662107596032676
      ],
      [
        "Ud",
        -8.662440927601889
      ],
      [
        "ow",
        -8.662978410267389
      ],
      [
        "Ld",
        -8.663231430259046
      ],
      [
        "VW",
        -8.663293398941764
      ],
      [
        "v8",
        -8.663641546379228
      ],
      [
        "vY",
        -8.664062674889287
      ],
      [
        "Mr",
        -8.664423798892592
      ],
      [
        "zx",
        -8.664455148358401
      ],
      [
        "qR",
        -8.664526106866939
      ],
      [
        "CH",
        -8.664676413497238
      ],
      [
        "sr",
        -8.664857863666303
      ],
      [
        "CD",
        -8.66490988700867
      ],
      [
        "Nt",
        -8.664927571185249
      ],
      [
        "GJ",
        -8.665032704926155
      ],
      [
        "NW",
        -8.665101812734742
      ],
      [
        "CZ",
        -8.665113445857024
      ],
      [
        "qy",
        -8.665163121207158
      ],
      [
        "Ai",
        -8.665173433872784
      ],
      [
        "gs",
        -8.66531153684915
      ],
      [
        "h5",
        -8.665440483337466
      ],
      [
        "AH",
        -8.66551814365149
      ],
      [
        "oj",
        -8.665674453360456
      ],
      [
        "At",
        -8.665849547158693
      ],
      [
        "WH",
        -8.66592261011706
      ],
      [
        "wi",
        -8.666172053142262
      ],
      [
        "Ge",
        -8.666232058812081
      ],
      [
        "ws",
        -8.666280843956049
      ],
      [
        "lM",
        -8.666409189059113
      ],
      [
        "ex",
        -8.666424137342375
      ],
      [
        "hy",
        -8.666505126331522
      ],
      [
        "WI",
        -8.666667236375805
      ],
      [
        "co",
        -8.666704561918978
      ],
      [
        "hz",
        -8.666802805419671
      ],
      [
        "wW",
        -8.66683078848591
      ],
      [
        "ov",
        -8.666838089707877
      ],
      [
        "Jd",
        -8.666865353198409
      ],
      [
        "Ns",
        -8.667165660382754
      ],
      [
        "Cr",
        -8.667250083398006
      ],
      [
        "cL",
        -8.667506505617652
      ],
      [
        "MA",
        -8.667880396888775
      ],
      [
        "wB",
        -8.667887173036409
      ],
      [
        "pY",
        -8.667959565506616
      ],
      [
        "Od",
        -8.668007234703392
      ],
      [
        "xa",
        -8.668043098027482
      ],
      [
        "cq",
        -8.668066630097002
      ],
      [
        "Cu",
        -8.668079098650342
      ],
      [
        "Zd",
        -8.66832447622027
      ],
      [
        "Un",
        -8.668392235112002
      ],
      [
        "ZF",
        -8.668461621563413
      ],
      [
        "zX",
        -8.66861986188976
      ],
      [
        "cR",
        -8.668749619108684
      ],
      [
        "vW",
        -8.66877729783662
      ],
      [
        "qi",
        -8.668841161141955
      ],
      [
        "Ng",
        -8.668842664037161
      ],
      [
        "oz",
        -8.669101330351136
      ],
      [
        "BF",
        -8.669445641479665
      ],
      [
        "DR",
        -8.669501139306352
      ],
      [
        "LH",
        -8.669555560642669
      ],
      [
        "cf",
        -8.669665630554784
      ],
      [
        "zW",
        -8.669727490258747
      ],
      [
        "Gr",
        -8.669848223420628
      ],
      [
        "W6",
        -8.670194458981069
      ],
      [
        "ma",
        -8.67022849972443
      ],
      [
        "ze",
        -8.67026976077959
      ],
      [
        "KH",
        -8.670281898010877
      ],
      [
        "YZ",
        -8.670341356154962
      ],
      [
        "Da",
        -8.670614589418987
      ],
      [
        "NH",
        -8.670650924456394
      ],
      [
        "uT",
        -8.67106944369452
      ],
      [
        "mZ",
        -8.671207683292787
      ],
      [
        "of",
        -8.67120947510157
      ],
      [
        "Uf",
        -8.671354985725127
      ],
      [
        "Gt",
        -8.671417730700833
      ],
      [
        "px",
        -8.671576280685283
      ],
      [
        "VO",
        -8.671729263935328
      ],
      [
        "Qr",
        -8.67179991012209
      ],
      [
        "eX",
        -8.67242838090641
      ],
      [
        "gG",
        -8.67252352006584
      ],
      [
        "oY",
        -8.672611123506666
      ],
      [
        "od",
        -8.672728299083172
      ],
      [
        "GN",
        -8.672785764088431
      ],
      [
        "gF",
        -8.672910159777896
      ],
      [
        "fX",
        -8.672921667119624
      ],
      [
        "hx",
        -8.672953204435306
      ],
      [
        "De",
        -8.673075004923763
      ],
      [
        "gn",
        -8.673179914603915
      ],
      [
        "Yz",
        -8.673288030494142
      ],
      [
        "Tu",
        -8.673335113060858
      ],
      [
        "gQ",
        -8.673779353968062
      ],
      [
        "BM",
        -8.67390760873319
      ],
      [
        "gZ",
        -8.67422433889758
      ],
      [
        "gh",
        -8.674235691385217
      ],
      [
        "jT",
        -8.674498076077338
      ],
      [
        "cb",
        -8.674563504292525
      ],
      [
        "Jm",
        -8.675080994120158
      ],
      [
        "Uw",
        -8.675158346369063
      ],
      [
        "LO",
        -8.675208536211013
      ],
      [
        "Kd",
        -8.675220236895898
      ],
      [
        "DL",
        -8.675635129859032
      ],
      [
        "Qz",
        -8.675740180770699
      ],
      [
        "cB",
        -8.675870498245018
      ],
      [
        "GD",
        -8.675941805029762
      ],
      [
        "Xx",
        -8.676033960368493
      ],
      [
        "wZ",
        -8.67608982394886
      ],
      [
        "NZ",
        -8.676219531872281
      ],
      [
        "vt",
        -8.676401046834641
      ],
      [
        "Wr",
        -8.676527108974145
      ],
      [
        "nd",
        -8.676644767940836
      ],
      [
        "QF",
        -8.676695771685676
      ],
      [
        "Kx",
        -8.676867394134938
      ],
      [
        "UX",
        -8.676874136007058
      ],
      [
        "ct",
        -8.6769529132268
      ],
      [
        "hw",
        -8.677334235557566
      ],
      [
        "vI",
        -8.677387314421063
      ],
      [
        "NF",
        -8.677735500745502
      ],
      [
        "Qa",
        -8.678050490725186
      ],
      [
        "na",
        -8.67806062870424
      ],
      [
        "oH",
        -8.678159408398567
      ],
      [
        "hg",
        -8.678203384175173
      ],
      [
        "qn",
        -8.678384678698713
      ],
      [
        "uu",
        -8.678701788231928
      ],
      [
        "GO",
        -8.678715641622446
      ],
      [
        "XW",
        -8.678752247523216
      ],
      [
        "pz",
        -8.678837478186262
      ],
      [
        "vB",
        -8.678853905333575
      ],
      [
        "pV",
        -8.678895659099254
      ],
      [
        "Kq",
        -8.679047696037959
      ],
      [
        "Aa",
        -8.679077627609573
      ],
      [
        "AO",
        -8.679083840379445
      ],
      [
        "pA",
        -8.679168508413774
      ],
      [
        "ca",
        -8.679738729645022
      ],
      [
        "MB",
        -8.679776188491154
      ],
      [
        "qx",
        -8.679859744911777
      ],
      [
        "mf",
        -8.680010657897444
      ],
      [
        "bu",
        -8.680013916260766
      ],
      [
        "KI",
        -8.680177527187544
      ],
      [
        "DQ",
        -8.68017879708508
      ],
      [
        "NI",
        -8.680216518910495
      ],
      [
        "UO",
        -8.680249061747414
      ],
      [
        "oF",
        -8.680307122570536
      ],
      [
        "qf",
        -8.680418586028274
      ],
      [
        "Ka",
        -8.68051772755653
      ],
      [
        "ey",
        -8.680626421969354
      ],
      [
        "Vd",
        -8.680677508538711
      ],
      [
        "lT",
        -8.680683921101206
      ],
      [
        "IV",
        -8.680739169301496
      ],
      [
        "Uz",
        -8.680898959231143
      ],
      [
        "z0",
        -8.680924867121659
      ],
      [
        "cK",
        -8.680977815447232
      ],
      [
        "hu",
        -8.681125741988334
      ],
      [
        "Hx",
        -8.681138269912742
      ],
      [
        "VH",
        -8.681178816251464
      ],
      [
        "pK",
        -8.681314635719431
      ],
      [
        "ew",
        -8.681361114389954
      ],
      [
        "Rc",
        -8.681382520175777
      ],
      [
        "Dd",
        -8.682187056642181
      ],
      [
        "es",
        -8.682239240606222
      ],
      [
        "CW",
        -8.682289453346923
      ],
      [
        "ot",
        -8.682478308395925
      ],
      [
        "zn",
        -8.682519915503317
      ],
      [
        "cY",
        -8.682572800899484
      ],
      [
        "Vg",
        -8.682653935160912
      ],
      [
        "o3",
        -8.682756044266858
      ],
      [
        "Je",
        -8.682938935812237
      ],
      [
        "he",
        -8.683037187335412
      ],
      [
        "Xy",
        -8.68317341045083
      ],
      [
        "By",
        -8.68324740077297
      ],
      [
        "cX",
        -8.68336506365651
      ],
      [
        "mm",
        -8.683700627496709
      ],
      [
        "BV",
        -8.6837258214481
      ],
      [
        "lL",
        -8.683727423957798
      ],
      [
        "uq",
        -8.68380764759334
      ],
      [
        "pF",
        -8.683987035153631
      ],
      [
        "oR",
        -8.684098346391554
      ],
      [
        "Ls",
        -8.68411634845942
      ],
      [
        "eF",
        -8.684330054331916
      ],
      [
        "le",
        -8.684419143202842
      ],
      [
        "Kz",
        -8.684516711858928
      ],
      [
        "oK",
        -8.68452222771554
      ],
      [
        "Gz",
        -8.684780833651502
      ],
      [
        "Lx",
        -8.684828365390523
      ],
      [
        "Mu",
        -8.684877842562418
      ],
      [
        "bg",
        -8.684955552691566
      ],
      [
        "cO",
        -8.68529288003407
      ],
      [
        "vH",
        -8.68533505228817
      ],
      [
        "zG",
        -8.685341975491962
      ],
      [
        "YM",
        -8.685385808525936
      ],
      [
        "hI",
        -8.685454480640196
      ],
      [
        "Vn",
        -8.685477361503022
      ],
      [
        "Ke",
        -8.685511655373016
      ],
      [
        "GK",
        -8.68551368310553
      ],
      [
        "jg",
        -8.6856873258766
      ],
      [
        "cm",
        -8.68581353133158
      ],
      [
        "VD",
        -8.685845243860363
      ],
      [
        "B6",
        -8.686011840572974
      ],
      [
        "Ce",
        -8.686150981726144
      ],
      [
        "qA",
        -8.686263476347339
      ],
      [
        "md",
        -8.686354521480698
      ],
      [
        "Vy",
        -8.686495736654564
      ],
      [
        "qh",
        -8.686522856388203
      ],
      [
        "Km",
        -8.68667409830901
      ],
      [
        "Gy",
        -8.686789836391618
      ],
      [
        "hs",
        -8.686833448225064
      ],
      [
        "b8",
        -8.687025922163695
      ],
      [
        "pM",
        -8.687537177711672
      ],
      [
        "Vo",
        -8.68786630972591
      ],
      [
        "nA",
        -8.687931880979278
      ],
      [
        "vD",
        -8.688102381591714
      ],
      [
        "sW",
        -8.68818810444656
      ],
      [
        "XZ",
        -8.688205202005275
      ],
      [
        "b0",
        -8.688272751597445
      ],
      [
        "NR",
        -8.68847373480865
      ],
      [
        "KA",
        -8.688512413699298
      ],
      [
        "Cc",
        -8.688517152877598
      ],
      [
        "To",
        -8.688574644708542
      ],
      [
        "KV",
        -8.688655134880536
      ],
      [
        "CX",
        -8.688671384271474
      ],
      [
        "Nf",
        -8.689238264558398
      ],
      [
        "TT",
        -8.689402129252336
      ],
      [
        "e0",
        -8.689479595947958
      ],
      [
        "q8",
        -8.689668966944666
      ],
      [
        "Oa",
        -8.689826650053817
      ],
      [
        "YN",
        -8.690016521543864
      ],
      [
        "TC",
        -8.690144808824275
      ],
      [
        "Kw",
        -8.690310892226314
      ],
      [
        "QT",
        -8.690455654410968
      ],
      [
        "IM",
        -8.690513353077055
      ],
      [
        "hO",
        -8.690568820153072
      ],
      [
        "Aq",
        -8.690634398844356
      ],
      [
        "CV",
        -8.690637393590748
      ],
      [
        "TY",
        -8.690638288546577
      ],
      [
        "AL",
        -8.690653426324793
      ],
      [
        "VU",
        -8.690858270044709
      ],
      [
        "zw",
        -8.690862901028966
      ],
      [
        "Vb",
        -8.690905615421263
      ],
      [
        "ML",
        -8.69104200496677
      ],
      [
        "Ac",
        -8.69131912361701
      ],
      [
        "YV",
        -8.69174005156232
      ],
      [
        "zN",
        -8.691814754724781
      ],
      [
        "by",
        -8.691921303393421
      ],
      [
        "be",
        -8.692022806964514
      ],
      [
        "or",
        -8.692066448192318
      ],
      [
        "Ij",
        -8.692079991028745
      ],
      [
        "W0",
        -8.692086093993684
      ],
      [
        "DY",
        -8.692094362407026
      ],
      [
        "bH",
        -8.692096735523506
      ],
      [
        "lb",
        -8.692188103074223
      ],
      [
        "Vf",
        -8.692301438523442
      ],
      [
        "Dr",
        -8.692532006950525
      ],
      [
        "WM",
        -8.692617507550924
      ],
      [
        "vc",
        -8.692666394031532
      ],
      [
        "Lm",
        -8.692907565066303
      ],
      [
        "Yx",
        -8.692911713184746
      ],
      [
        "ef",
        -8.693055030750706
      ],
      [
        "KK",
        -8.69346214044538
      ],
      [
        "Ku",
        -8.693510652454112
      ],
      [
        "Jn",
        -8.693978968706737
      ],
      [
        "LA",
        -8.69407010445572
      ],
      [
        "lZ",
        -8.694139357590895
      ],
      [
        "DO",
        -8.69416871195509
      ],
      [
        "U9",
        -8.69443167146077
      ],
      [
        "Mx",
        -8.694460807052371
      ],
      [
        "UG",
        -8.69463182399942
      ],
      [
        "QN",
        -8.694759291368676
      ],
      [
        "mn",
        -8.694801980480642
      ],
      [
        "nR",
        -8.694802992903096
      ],
      [
        "RT",
        -8.695094758944334
      ],
      [
        "OM",
        -8.695135343213403
      ],
      [
        "Iu",
        -8.695453677899451
      ],
      [
        "TZ",
        -8.695455403164745
      ],
      [
        "VA",
        -8.695592182050012
      ],
      [
        "nJ",
        -8.69561832237575
      ],
      [
        "CN",
        -8.695666736865538
      ],
      [
        "zs",
        -8.69570361065661
      ],
      [
        "AR",
        -8.695723322886263
      ],
      [
        "TB",
        -8.695739136361059
      ],
      [
        "wM",
        -8.695750201651691
      ],
      [
        "CA",
        -8.695831995272894
      ],
      [
        "RH",
        -8.695881050132625
      ],
      [
        "Kr",
        -8.696101839877295
      ],
      [
        "oB",
        -8.696106714870623
      ],
      [
        "gw",
        -8.696156798579711
      ],
      [
        "C3",
        -8.696256969491897
      ],
      [
        "NN",
        -8.69645781810263
      ],
      [
        "Qy",
        -8.696524013128961
      ],
      [
        "qj",
        -8.696525567762524
      ],
      [
        "ae",
        -8.696763089922015
      ],
      [
        "MY",
        -8.696838307198739
      ],
      [
        "gD",
        -8.696923160355471
      ],
      [
        "LI",
        -8.696966912226292
      ],
      [
        "Dm",
        -8.697018011380194
      ],
      [
        "vQ",
        -8.697052756666224
      ],
      [
        "Q0",
        -8.697058543389975
      ],
      [
        "mo",
        -8.697250326114371
      ],
      [
        "Lf",
        -8.697563481645858
      ],
      [
        "DI",
        -8.697635799315174
      ],
      [
        "Gs",
        -8.69765815163137
      ],
      [
        "cl",
        -8.697727163493402
      ],
      [
        "JZ",
        -8.697752465965758
      ],
      [
        "hb",
        -8.69777973353014
      ],
      [
        "BB",
        -8.697790783717439
      ],
      [
        "HZ",
        -8.697839753768298
      ],
      [
        "bO",
        -8.6978945970103
      ],
      [
        "w0",
        -8.69803390583885
      ],
      [
        "ue",
        -8.698052980326269
      ],
      [
        "GW",
        -8.698269783268511
      ],
      [
        "hG",
        -8.698716874221248
      ],
      [
        "vA",
        -8.698853888155185
      ],
      [
        "QD",
        -8.698913327740996
      ],
      [
        "zY",
        -8.698961122881133
      ],
      [
        "BO",
        -8.699314241683492
      ],
      [
        "TM",
        -8.69959198030948
      ],
      [
        "XU",
        -8.699601613786273
      ],
      [
        "ez",
        -8.699691419799947
      ],
      [
        "Nq",
        -8.699730168502512
      ],
      [
        "ge",
        -8.69985644163339
      ],
      [
        "eM",
        -8.700065310886554
      ],
      [
        "bM",
        -8.700187312643255
      ],
      [
        "Qc",
        -8.70023851837543
      ],
      [
        "Yy",
        -8.700320887124068
      ],
      [
        "bc",
        -8.700472213401799
      ],
      [
        "NU",
        -8.700530908606654
      ],
      [
        "nM",
        -8.700649313124352
      ],
      [
        "oM",
        -8.700835637918647
      ],
      [
        "Bd",
        -8.70095923250083
      ],
      [
        "Uo",
        -8.700981698766284
      ],
      [
        "LV",
        -8.701032250879
      ],
      [
        "hn",
        -8.701119605855999
      ],
      [
        "lA",
        -8.701142553521121
      ],
      [
        "ry",
        -8.701170226892021
      ],
      [
        "cW",
        -8.701173475690686
      ],
      [
        "bR",
        -8.70122598933754
      ],
      [
        "cx",
        -8.701315689115999
      ],
      [
        "hZ",
        -8.701495512407307
      ],
      [
        "JF",
        -8.701529890814612
      ],
      [
        "IY",
        -8.701664111433871
      ],
      [
        "hm",
        -8.701671909995127
      ],
      [
        "hj",
        -8.701718659288662
      ],
      [
        "dY",
        -8.701784809011654
      ],
      [
        "Uq",
        -8.701809266556666
      ],
      [
        "gB",
        -8.701869192468902
      ],
      [
        "ll",
        -8.701950391932156
      ],
      [
        "KR",
        -8.702023118226988
      ],
      [
        "gj",
        -8.702032764137538
      ],
      [
        "nB",
        -8.702067339880454
      ],
      [
        "YW",
        -8.702123915382739
      ],
      [
        "je",
        -8.702316480009245
      ],
      [
        "fb",
        -8.702359587503881
      ],
      [
        "Gn",
        -8.702369995619007
      ],
      [
        "KX",
        -8.702444156231149
      ],
      [
        "oe",
        -8.702483518979045
      ],
      [
        "DN",
        -8.702494621138596
      ],
      [
        "Gu",
        -8.702580087676221
      ],
      [
        "qM",
        -8.702658977930632
      ],
      [
        "Av",
        -8.70271750908259
      ],
      [
        "zr",
        -8.702828782136756
      ],
      [
        "ce",
        -8.702896686388232
      ],
      [
        "oo",
        -8.702971100548494
      ],
      [
        "Nr",
        -8.702981688831043
      ],
      [
        "RY",
        -8.70300736786123
      ],
      [
        "Ay",
        -8.70301203082369
      ],
      [
        "cG",
        -8.703163155007974
      ],
      [
        "mz",
        -8.703292434275816
      ],
      [
        "oD",
        -8.703558026808874
      ],
      [
        "WA",
        -8.703635288694048
      ],
      [
        "am",
        -8.703715265253155
      ],
      [
        "pT",
        -8.703720574800734
      ],
      [
        "Am",
        -8.703782327346335
      ],
      [
        "oi",
        -8.703965565782365
      ],
      [
        "NA",
        -8.704025031912272
      ],
      [
        "dX",
        -8.704033418120527
      ],
      [
        "oW",
        -8.704127712342927
      ],
      [
        "RR",
        -8.704516559537481
      ],
      [
        "VJ",
        -8.704775312694126
      ],
      [
        "Tz",
        -8.705117658098583
      ],
      [
        "wG",
        -8.705880245191867
      ],
      [
        "AC",
        -8.706024164214742
      ],
      [
        "mI",
        -8.706066751805343
      ],
      [
        "wl",
        -8.706089494757155
      ],
      [
        "jX",
        -8.70623589200133
      ],
      [
        "Ty",
        -8.706276759524446
      ],
      [
        "It",
        -8.706322314263222
      ],
      [
        "Hc",
        -8.706653347396234
      ],
      [
        "zl",
        -8.706827415484213
      ],
      [
        "Ia",
        -8.706871137075812
      ],
      [
        "rx",
        -8.706976908173038
      ],
      [
        "om",
        -8.707126475469135
      ],
      [
        "qe",
        -8.707424383600744
      ],
      [
        "op",
        -8.707434988735251
      ],
      [
        "gb",
        -8.707443473784014
      ],
      [
        "lQ",
        -8.707525485111798
      ],
      [
        "oX",
        -8.707760144808208
      ],
      [
        "qU",
        -8.707783540384836
      ],
      [
        "MM",
        -8.707879409220567
      ],
      [
        "CG",
        -8.708072627816907
      ],
      [
        "jH",
        -8.70808198904274
      ],
      [
        "Be",
        -8.708112359852992
      ],
      [
        "ZM",
        -8.708371531446573
      ],
      [
        "zV",
        -8.70840203631671
      ],
      [
        "eG",
        -8.708595976690521
      ],
      [
        "Gw",
        -8.708709109180008
      ],
      [
        "gU",
        -8.70873195129253
      ],
      [
        "QY",
        -8.70877256346224
      ],
      [
        "bp",
        -8.708942140846464
      ],
      [
        "BJ",
        -8.7091337342761
      ],
      [
        "rU",
        -8.709426038267122
      ],
      [
        "qV",
        -8.709592496253983
      ],
      [
        "RN",
        -8.709758023863426
      ],
      [
        "lC",
        -8.709782407360837
      ],
      [
        "MR",
        -8.709883968690665
      ],
      [
        "Y0",
        -8.709919248153874
      ],
      [
        "ja",
        -8.709978598378115
      ],
      [
        "pW",
        -8.71016407453706
      ],
      [
        "UL",
        -8.710298151832752
      ],
      [
        "cu",
        -8.7105251137483
      ],
      [
        "Tx",
        -8.71063455812172
      ],
      [
        "mx",
        -8.71068439078725
      ],
      [
        "eZ",
        -8.710756937023596
      ],
      [
        "gv",
        -8.71087510951173
      ],
      [
        "NO",
        -8.711242014103766
      ],
      [
        "pU",
        -8.711308450279102
      ],
      [
        "jD",
        -8.711451697425048
      ],
      [
        "uY",
        -8.711510499010146
      ],
      [
        "Hr",
        -8.711700115046293
      ],
      [
        "DG",
        -8.71183941517431
      ],
      [
        "JJ",
        -8.711873260843618
      ],
      [
        "zT",
        -8.711879863835076
      ],
      [
        "gO",
        -8.712001565182485
      ],
      [
        "gI",
        -8.712022582615901
      ],
      [
        "Ql",
        -8.71206121851711
      ],
      [
        "qJ",
        -8.71209063096127
      ],
      [
        "bV",
        -8.712130101936662
      ],
      [
        "Ye",
        -8.712132444238993
      ],
      [
        "dy",
        -8.71225301348275
      ],
      [
        "Uu",
        -8.712377616581353
      ],
      [
        "JC",
        -8.712410786983648
      ],
      [
        "WZ",
        -8.712557469299247
      ],
      [
        "qq",
        -8.712655418882402
      ],
      [
        "QH",
        -8.712881558865574
      ],
      [
        "wx",
        -8.712963843728785
      ],
      [
        "zg",
        -8.712967421380778
      ],
      [
        "er",
        -8.71312845656622
      ],
      [
        "cN",
        -8.713192788788273
      ],
      [
        "jB",
        -8.713343213618149
      ],
      [
        "vJ",
        -8.713484284324547
      ],
      [
        "DM",
        -8.713514934026477
      ],
      [
        "Nm",
        -8.713637399125176
      ],
      [
        "BK",
        -8.713656755634407
      ],
      [
        "Mz",
        -8.713686108069922
      ],
      [
        "qa",
        -8.713894018577353
      ],
      [
        "jR",
        -8.713919214530804
      ],
      [
        "Wf",
        -8.713938310622481
      ],
      [
        "Bb",
        -8.714062133503543
      ],
      [
        "DZ",
        -8.714102263575178
      ],
      [
        "QI",
        -8.714202165132342
      ],
      [
        "KZ",
        -8.714384256311419
      ],
      [
        "Jf",
        -8.714435726686322
      ],
      [
        "Jy",
        -8.714458921370971
      ],
      [
        "RA",
        -8.714568960333253
      ],
      [
        "Yw",
        -8.714624820497907
      ],
      [
        "KY",
        -8.714907951008623
      ],
      [
        "Kf",
        -8.714911409764174
      ],
      [
        "bG",
        -8.714913927530258
      ],
      [
        "gN",
        -8.715009296187674
      ],
      [
        "ob",
        -8.715150208545712
      ],
      [
        "dw",
        -8.715279029254614
      ],
      [
        "UN",
        -8.715460172606296
      ],
      [
        "pI",
        -8.715662467332947
      ],
      [
        "YF",
        -8.715745298691676
      ],
      [
        "Bu",
        -8.715762655528053
      ],
      [
        "mw",
        -8.71580517988383
      ],
      [
        "eN",
        -8.716037546767499
      ],
      [
        "bs",
        -8.716041243917093
      ],
      [
        "QX",
        -8.716263859611079
      ],
      [
        "qo",
        -8.716286493265441
      ],
      [
        "VK",
        -8.716309547780464
      ],
      [
        "MG",
        -8.716341268120651
      ],
      [
        "cH",
        -8.71634964040605
      ],
      [
        "Nx",
        -8.716536035519313
      ],
      [
        "Dx",
        -8.716899319918106
      ],
      [
        "Ae",
        -8.716968105834674
      ],
      [
        "Gh",
        -8.717034877598994
      ],
      [
        "mc",
        -8.71706284060851
      ],
      [
        "bx",
        -8.717258481300522
      ],
      [
        "ID",
        -8.7174053426332
      ],
      [
        "cC",
        -8.71743150474947
      ],
      [
        "TX",
        -8.717526977407669
      ],
      [
        "QZ",
        -8.717930001904602
      ],
      [
        "KC",
        -8.717934551574622
      ],
      [
        "aV",
        -8.71799767096908
      ],
      [
        "Cq",
        -8.718076948056023
      ],
      [
        "Vp",
        -8.718281107087597
      ],
      [
        "KB",
        -8.718432622981037
      ],
      [
        "NK",
        -8.7184865420434
      ],
      [
        "OQ",
        -8.718565235552413
      ],
      [
        "zM",
        -8.718566341052835
      ],
      [
        "oN",
        -8.718682615474616
      ],
      [
        "Du",
        -8.718758237368855
      ],
      [
        "fl",
        -8.718775961399563
      ],
      [
        "Hd",
        -8.718914304512769
      ],
      [
        "wF",
        -8.718931042031212
      ],
      [
        "CU",
        -8.719256343877404
      ],
      [
        "bw",
        -8.719461762142046
      ],
      [
        "IR",
        -8.719698501771784
      ],
      [
        "eC",
        -8.719849378761763
      ],
      [
        "Bn",
        -8.719948754323873
      ],
      [
        "QG",
        -8.720133254924281
      ],
      [
        "bT",
        -8.72016909916797
      ],
      [
        "wO",
        -8.72037597775018
      ],
      [
        "wj",
        -8.720397697559125
      ],
      [
        "XN",
        -8.720640728535418
      ],
      [
        "IG",
        -8.720654305424514
      ],
      [
        "CM",
        -8.720661721544946
      ],
      [
        "uH",
        -8.720805932164085
      ],
      [
        "DA",
        -8.7208080367588
      ],
      [
        "wa",
        -8.720868646209265
      ],
      [
        "gH",
        -8.720871002189496
      ],
      [
        "lr",
        -8.7209171565795
      ],
      [
        "WW",
        -8.720940581947215
      ],
      [
        "bQ",
        -8.720970128373764
      ],
      [
        "mr",
        -8.721024685097898
      ],
      [
        "Cs",
        -8.721268880346042
      ],
      [
        "eK",
        -8.721447855265172
      ],
      [
        "Vx",
        -8.721619228320822
      ],
      [
        "vh",
        -8.72174340991833
      ],
      [
        "An",
        -8.721809818327507
      ],
      [
        "vM",
        -8.721852191692655
      ],
      [
        "bJ",
        -8.72187742580612
      ],
      [
        "ev",
        -8.721935937464242
      ],
      [
        "JX",
        -8.72195454946826
      ],
      [
        "pa",
        -8.721955360957569
      ],
      [
        "Rx",
        -8.722190828404933
      ],
      [
        "eW",
        -8.72225779142043
      ],
      [
        "cn",
        -8.722443302566196
      ],
      [
        "Ra",
        -8.722467883831715
      ],
      [
        "uB",
        -8.722487593994142
      ],
      [
        "q6",
        -8.722499315044878
      ],
      [
        "qw",
        -8.72250737476914
      ],
      [
        "MI",
        -8.722537507007518
      ],
      [
        "fy",
        -8.722568461166384
      ],
      [
        "la",
        -8.722730155648994
      ],
      [
        "Rr",
        -8.72273701553042
      ],
      [
        "JR",
        -8.722794111249607
      ],
      [
        "bI",
        -8.722809770943218
      ],
      [
        "vV",
        -8.722824455616951
      ],
      [
        "RL",
        -8.723212613915965
      ],
      [
        "KQ",
        -8.723242307752358
      ],
      [
        "zj",
        -8.723469092513106
      ],
      [
        "Bv",
        -8.72351962292762
      ],
      [
        "A6",
        -8.723562353493492
      ],
      [
        "lw",
        -8.72364322535904
      ],
      [
        "Nb",
        -8.723753164790734
      ],
      [
        "RK",
        -8.723789297476785
      ],
      [
        "Cd",
        -8.723789386963409
      ],
      [
        "qY",
        -8.723837091182716
      ],
      [
        "lB",
        -8.724144246741975
      ],
      [
        "WL",
        -8.724166430065878
      ],
      [
        "Qj",
        -8.724234208220132
      ],
      [
        "cw",
        -8.724364110451422
      ],
      [
        "Tc",
        -8.724439271629508
      ],
      [
        "ea",
        -8.724482014706378
      ],
      [
        "Ib",
        -8.724489967505573
      ],
      [
        "K0",
        -8.724505007097434
      ],
      [
        "ps",
        -8.72457977058605
      ],
      [
        "DK",
        -8.724630366269135
      ],
      [
        "Cz",
        -8.72468994379442
      ],
      [
        "nl",
        -8.724838570315004
      ],
      [
        "UH",
        -8.724846258277136
      ],
      [
        "UU",
        -8.724950312375613
      ],
      [
        "AX",
        -8.725038056069739
      ],
      [
        "DJ",
        -8.725055866351395
      ],
      [
        "zf",
        -8.72512460198163
      ],
      [
        "Re",
        -8.725155485212852
      ],
      [
        "hc",
        -8.725167449418578
      ],
      [
        "nq",
        -8.725403129022704
      ],
      [
        "OL",
        -8.725553327072063
      ],
      [
        "Xr",
        -8.725562832279783
      ],
      [
        "Te",
        -8.72560118158702
      ],
      [
        "MN",
        -8.725637183559538
      ],
      [
        "Af",
        -8.725719324285215
      ],
      [
        "nv",
        -8.725742831415243
      ],
      [
        "nb",
        -8.725742898336648
      ],
      [
        "TH",
        -8.725754583255661
      ],
      [
        "Il",
        -8.725835110462569
      ],
      [
        "JA",
        -8.725852641312082
      ],
      [
        "NJ",
        -8.725867559048131
      ],
      [
        "eu",
        -8.725900629469947
      ],
      [
        "Ba",
        -8.725989804250792
      ],
      [
        "BA",
        -8.726051166210699
      ],
      [
        "Ix",
        -8.726062203791809
      ],
      [
        "rX",
        -8.726108259911793
      ],
      [
        "VM",
        -8.726123173895427
      ],
      [
        "qt",
        -8.726164100281526
      ],
      [
        "AD",
        -8.726188392502298
      ],
      [
        "Kp",
        -8.726335622791511
      ],
      [
        "Ue",
        -8.726436298472969
      ],
      [
        "WR",
        -8.726456983211655
      ],
      [
        "mY",
        -8.726515600908465
      ],
      [
        "gK",
        -8.726779548262083
      ],
      [
        "oL",
        -8.72686277469929
      ],
      [
        "Cm",
        -8.726962300066248
      ],
      [
        "WV",
        -8.726990322245824
      ],
      [
        "GT",
        -8.72700434243823
      ],
      [
        "Va",
        -8.727034050452243
      ],
      [
        "jf",
        -8.727189469922678
      ],
      [
        "JI",
        -8.727243820790251
      ],
      [
        "lN",
        -8.727252484850649
      ],
      [
        "TG",
        -8.727304504847904
      ],
      [
        "NM",
        -8.727523766249083
      ],
      [
        "qC",
        -8.72756059575915
      ],
      [
        "MZ",
        -8.727632925147892
      ],
      [
        "eH",
        -8.727671737394795
      ],
      [
        "CR",
        -8.727943736205479
      ],
      [
        "uN",
        -8.728219880602225
      ],
      [
        "de",
        -8.728267209346605
      ],
      [
        "Zf",
        -8.728373367087496
      ],
      [
        "TU",
        -8.728428409125058
      ],
      [
        "QO",
        -8.728647288892674
      ],
      [
        "HN",
        -8.728661196182028
      ],
      [
        "fr",
        -8.728686562176946
      ],
      [
        "Io",
        -8.728829038439432
      ],
      [
        "rK",
        -8.72883774163111
      ],
      [
        "Mw",
        -8.728991341930532
      ],
      [
        "gp",
        -8.729148595790129
      ],
      [
        "GI",
        -8.729378385025456
      ],
      [
        "nf",
        -8.729396043530343
      ],
      [
        "Qn",
        -8.729421272417643
      ],
      [
        "ZT",
        -8.729472913248488
      ],
      [
        "Tm",
        -8.729607695036416
      ],
      [
        "nN",
        -8.729632358785157
      ],
      [
        "Ow",
        -8.72976469377901
      ],
      [
        "qW",
        -8.72979605698714
      ],
      [
        "Lr",
        -8.729860492557812
      ],
      [
        "ux",
        -8.729964559755889
      ],
      [
        "fO",
        -8.730006571663012
      ],
      [
        "ZZ",
        -8.730125886969649
      ],
      [
        "cQ",
        -8.730197242239948
      ],
      [
        "Tf",
        -8.730207735902601
      ],
      [
        "TL",
        -8.730337649099564
      ],
      [
        "Jh",
        -8.730357362684561
      ],
      [
        "YX",
        -8.730433619098495
      ],
      [
        "lv",
        -8.730489791521412
      ],
      [
        "Qo",
        -8.730511360064764
      ],
      [
        "Qf",
        -8.730568717253712
      ],
      [
        "wV",
        -8.73066528240288
      ],
      [
        "ff",
        -8.730750173115172
      ],
      [
        "Cb",
        -8.73091857617721
      ],
      [
        "gT",
        -8.73100869686424
      ],
      [
        "yr",
        -8.731085303613202
      ],
      [
        "Tl",
        -8.731099006883278
      ],
      [
        "KG",
        -8.731138130718506
      ],
      [
        "vz",
        -8.731170324995636
      ],
      [
        "uo",
        -8.731490159130836
      ],
      [
        "rW",
        -8.73170880437467
      ],
      [
        "ep",
        -8.731875136769283
      ],
      [
        "LR",
        -8.731937897884588
      ],
      [
        "v0",
        -8.731971808106195
      ],
      [
        "qL",
        -8.731982772676425
      ],
      [
        "Wy",
        -8.732193373167998
      ],
      [
        "RZ",
        -8.732455333289025
      ],
      [
        "MU",
        -8.732559886663136
      ],
      [
        "nW",
        -8.732608018562447
      ],
      [
        "fZ",
        -8.732612351451996
      ],
      [
        "gX",
        -8.732821123490368
      ],
      [
        "LM",
        -8.732887944838051
      ],
      [
        "RM",
        -8.732925786778692
      ],
      [
        "bf",
        -8.733052032577636
      ],
      [
        "AJ",
        -8.73307938476388
      ],
      [
        "JQ",
        -8.733185576313929
      ],
      [
        "eD",
        -8.733454738484083
      ],
      [
        "pp",
        -8.733541228705363
      ],
      [
        "wb",
        -8.733711915061097
      ],
      [
        "vN",
        -8.733777589245708
      ],
      [
        "hY",
        -8.733825940163094
      ],
      [
        "pj",
        -8.733899585782602
      ],
      [
        "Cn",
        -8.734005547244449
      ],
      [
        "gW",
        -8.734006994993855
      ],
      [
        "go",
        -8.7343096174902
      ],
      [
        "oQ",
        -8.734329675252187
      ],
      [
        "fc",
        -8.734473607365905
      ],
      [
        "ee",
        -8.734477582450253
      ],
      [
        "If",
        -8.734535474174164
      ],
      [
        "Ma",
        -8.734585670405547
      ],
      [
        "WJ",
        -8.734586001225153
      ],
      [
        "ne",
        -8.734636867474514
      ],
      [
        "IB",
        -8.734728439182746
      ],
      [
        "Id",
        -8.734807304887845
      ],
      [
        "VN",
        -8.734862934497883
      ],
      [
        "Ou",
        -8.734912845487148
      ],
      [
        "cz",
        -8.734924440943471
      ],
      [
        "bb",
        -8.735017727833643
      ],
      [
        "AQ",
        -8.735083646061645
      ],
      [
        "vl",
        -8.73508633720988
      ],
      [
        "gc",
        -8.735394651464864
      ],
      [
        "zL",
        -8.735437164706228
      ],
      [
        "KM",
        -8.73545275333387
      ],
      [
        "Wp",
        -8.735463614671145
      ],
      [
        "dG",
        -8.735603102496173
      ],
      [
        "BT",
        -8.735746165709404
      ],
      [
        "uc",
        -8.735766321963206
      ],
      [
        "qG",
        -8.735841865781016
      ],
      [
        "GQ",
        -8.735878229559926
      ],
      [
        "Ru",
        -8.736082695009095
      ],
      [
        "oV",
        -8.736219573546439
      ],
      [
        "NQ",
        -8.73635021220165
      ],
      [
        "NT",
        -8.736608226200838
      ],
      [
        "Dy",
        -8.736686380370156
      ],
      [
        "QB",
        -8.736698345053583
      ],
      [
        "YQ",
        -8.736776645745826
      ],
      [
        "BY",
        -8.736886802779138
      ],
      [
        "mu",
        -8.736902121974804
      ],
      [
        "lK",
        -8.73725986054027
      ],
      [
        "jo",
        -8.737290736532753
      ],
      [
        "gu",
        -8.737446744355253
      ],
      [
        "xr",
        -8.737515073434352
      ],
      [
        "wy",
        -8.737533802572921
      ],
      [
        "Jp",
        -8.737553087731069
      ],
      [
        "Ao",
        -8.73755875426045
      ],
      [
        "Ts",
        -8.737665463017848
      ],
      [
        "XY",
        -8.737785342809332
      ],
      [
        "RX",
        -8.737786506172446
      ],
      [
        "Uh",
        -8.738080622429198
      ],
      [
        "qp",
        -8.738155125541788
      ],
      [
        "lm",
        -8.738410422699392
      ],
      [
        "NB",
        -8.738480602322937
      ],
      [
        "VR",
        -8.738511538951176
      ],
      [
        "Ja",
        -8.738616214158252
      ],
      [
        "gA",
        -8.738622182654703
      ],
      [
        "Yh",
        -8.738639929496355
      ],
      [
        "jA",
        -8.738658529839235
      ],
      [
        "Lh",
        -8.738775298173609
      ],
      [
        "Rg",
        -8.738962663608865
      ],
      [
        "bK",
        -8.738975084821849
      ],
      [
        "Rm",
        -8.73904003582247
      ],
      [
        "UV",
        -8.739045703866074
      ],
      [
        "Ym",
        -8.739376917624224
      ],
      [
        "KW",
        -8.73941363927425
      ],
      [
        "ad",
        -8.739673158594265
      ],
      [
        "bo",
        -8.739717240466518
      ],
      [
        "LY",
        -8.739764219547705
      ],
      [
        "cV",
        -8.73976487372974
      ],
      [
        "fg",
        -8.739784592660154
      ],
      [
        "BI",
        -8.740072656879804
      ],
      [
        "BC",
        -8.740131125450475
      ],
      [
        "Ha",
        -8.740140491160947
      ],
      [
        "Ml",
        -8.740202588175695
      ],
      [
        "eO",
        -8.74024370865483
      ],
      [
        "Yo",
        -8.740330184004174
      ],
      [
        "oJ",
        -8.740464135379355
      ],
      [
        "aY",
        -8.740485362456816
      ],
      [
        "IK",
        -8.74061482569152
      ],
      [
        "mX",
        -8.740849288067725
      ],
      [
        "ZW",
        -8.740867478776249
      ],
      [
        "Lg",
        -8.74087766881154
      ],
      [
        "WO",
        -8.74115904059246
      ],
      [
        "hU",
        -8.741243554736458
      ],
      [
        "Bp",
        -8.741266102272395
      ],
      [
        "Yr",
        -8.741414408921209
      ],
      [
        "QM",
        -8.741504240815573
      ],
      [
        "eQ",
        -8.741713014037966
      ],
      [
        "YK",
        -8.741840852540715
      ],
      [
        "Gg",
        -8.741870821690528
      ],
      [
        "fd",
        -8.741911780667682
      ],
      [
        "Az",
        -8.741942067866058
      ],
      [
        "xg",
        -8.74198635019086
      ],
      [
        "qz",
        -8.742047192185789
      ],
      [
        "pJ",
        -8.74204855850514
      ],
      [
        "XX",
        -8.742088035430315
      ],
      [
        "zb",
        -8.742107934460737
      ],
      [
        "IQ",
        -8.742222656043335
      ],
      [
        "hT",
        -8.742263394217572
      ],
      [
        "Hu",
        -8.742270705889197
      ],
      [
        "RJ",
        -8.742285096569866
      ],
      [
        "nz",
        -8.742487967529009
      ],
      [
        "zI",
        -8.742596950957672
      ],
      [
        "uw",
        -8.742629027106519
      ],
      [
        "fR",
        -8.742707023710333
      ],
      [
        "bq",
        -8.742757544538435
      ],
      [
        "dC",
        -8.743090398778087
      ],
      [
        "wv",
        -8.743100201455515
      ],
      [
        "Go",
        -8.743127518374722
      ],
      [
        "sa",
        -8.743181347146548
      ],
      [
        "Vq",
        -8.743277345051741
      ],
      [
        "KL",
        -8.743277414857868
      ],
      [
        "Gm",
        -8.743341549407148
      ],
      [
        "gM",
        -8.7434273914643
      ],
      [
        "hl",
        -8.743507063986733
      ],
      [
        "xT",
        -8.743516662336056
      ],
      [
        "YI",
        -8.743534777238457
      ],
      [
        "JM",
        -8.743619302955043
      ],
      [
        "Ie",
        -8.743638928761529
      ],
      [
        "We",
        -8.743767034324987
      ],
      [
        "Cj",
        -8.743903135591484
      ],
      [
        "NL",
        -8.744089076480597
      ],
      [
        "wp",
        -8.74413200125081
      ],
      [
        "OK",
        -8.744393354449745
      ],
      [
        "pu",
        -8.744396278034205
      ],
      [
        "TI",
        -8.744399770229677
      ],
      [
        "hA",
        -8.744410145773523
      ],
      [
        "jI",
        -8.744444016867511
      ],
      [
        "vq",
        -8.744468875980955
      ],
      [
        "ax",
        -8.74453349375909
      ],
      [
        "no",
        -8.744544283023856
      ],
      [
        "Iw",
        -8.744618583877266
      ],
      [
        "zu",
        -8.744651132857282
      ],
      [
        "TN",
        -8.744660756045917
      ],
      [
        "eY",
        -8.745019480466343
      ],
      [
        "VC",
        -8.745072822588934
      ],
      [
        "JO",
        -8.74514863299558
      ],
      [
        "ua",
        -8.745215725701062
      ],
      [
        "q3",
        -8.745275507841539
      ],
      [
        "vU",
        -8.745385475393217
      ],
      [
        "JN",
        -8.745594907800013
      ],
      [
        "VI",
        -8.745655358616693
      ],
      [
        "wL",
        -8.745861844580203
      ],
      [
        "Om",
        -8.74617794493357
      ],
      [
        "DW",
        -8.746300245394284
      ],
      [
        "Nj",
        -8.746459651884656
      ],
      [
        "mG",
        -8.746721298366868
      ],
      [
        "ox",
        -8.746842412407046
      ],
      [
        "nL",
        -8.747092775513153
      ],
      [
        "Tb",
        -8.747101802368318
      ],
      [
        "zZ",
        -8.747166440678207
      ],
      [
        "wh",
        -8.747259830483852
      ],
      [
        "Xb",
        -8.747299043022783
      ],
      [
        "oC",
        -8.74743413797933
      ],
      [
        "xJ",
        -8.747443482443277
      ],
      [
        "qm",
        -8.747465176440553
      ],
      [
        "lg",
        -8.747601556507409
      ],
      [
        "NX",
        -8.747674263288118
      ],
      [
        "oU",
        -8.747737831932934
      ],
      [
        "pL",
        -8.747764089147637
      ],
      [
        "mV",
        -8.748260129079647
      ],
      [
        "fp",
        -8.748413724424687
      ],
      [
        "gg",
        -8.748465791437177
      ],
      [
        "UA",
        -8.748524624328503
      ],
      [
        "cT",
        -8.748599057951571
      ],
      [
        "pH",
        -8.748607199379071
      ],
      [
        "WC",
        -8.748784355910182
      ],
      [
        "gY",
        -8.748943515314355
      ],
      [
        "QV",
        -8.748981530097014
      ],
      [
        "Bg",
        -8.749003658190773
      ],
      [
        "qI",
        -8.749120701204674
      ],
      [
        "AY",
        -8.749124033127844
      ],
      [
        "fJ",
        -8.7491463520738
      ],
      [
        "Tj",
        -8.74924743255971
      ],
      [
        "LT",
        -8.749287710710322
      ],
      [
        "Kl",
        -8.749366063221542
      ],
      [
        "Ab",
        -8.749688686186708
      ],
      [
        "II",
        -8.749729281104472
      ],
      [
        "Ve",
        -8.749823101473336
      ],
      [
        "Wl",
        -8.749885702801734
      ],
      [
        "AM",
        -8.7500370360825
      ],
      [
        "GM",
        -8.750079713386754
      ],
      [
        "YO",
        -8.750093425761756
      ],
      [
        "QC",
        -8.750240012150176
      ],
      [
        "Dv",
        -8.750340422188092
      ],
      [
        "Kn",
        -8.750356280510932
      ],
      [
        "Dc",
        -8.750358090301583
      ],
      [
        "wR",
        -8.750370833346363
      ],
      [
        "KJ",
        -8.750370923637195
      ],
      [
        "bm",
        -8.750461538832678
      ],
      [
        "rr",
        -8.750655745344638
      ],
      [
        "uV",
        -8.75071380331843
      ],
      [
        "w3",
        -8.75071974700787
      ],
      [
        "mK",
        -8.750752012539841
      ],
      [
        "lR",
        -8.75080428776096
      ],
      [
        "UD",
        -8.750830472673464
      ],
      [
        "IX",
        -8.750834822195248
      ],
      [
        "zR",
        -8.750855992677428
      ],
      [
        "DX",
        -8.750927180723869
      ],
      [
        "jw",
        -8.750941817252222
      ],
      [
        "v9",
        -8.751149736529568
      ],
      [
        "Fd",
        -8.751178574907419
      ],
      [
        "GL",
        -8.751276508474321
      ],
      [
        "ar",
        -8.751320799999878
      ],
      [
        "we",
        -8.751429301446532
      ],
      [
        "sI",
        -8.751698601365819
      ],
      [
        "LL",
        -8.751700859369578
      ],
      [
        "vK",
        -8.751953972647907
      ],
      [
        "LX",
        -8.752003043344324
      ],
      [
        "bU",
        -8.752008179973128
      ],
      [
        "Im",
        -8.752081513391225
      ],
      [
        "Bj",
        -8.75210440707807
      ],
      [
        "lV",
        -8.752140255972542
      ],
      [
        "JG",
        -8.752149882517852
      ],
      [
        "TQ",
        -8.752274217502595
      ],
      [
        "Lw",
        -8.752275376757995
      ],
      [
        "WD",
        -8.75231756702794
      ],
      [
        "Vz",
        -8.75236344291548
      ],
      [
        "rs",
        -8.752384296654663
      ],
      [
        "Mm",
        -8.752384310285395
      ],
      [
        "DV",
        -8.752392750984615
      ],
      [
        "mq",
        -8.752419042909732
      ],
      [
        "Ko",
        -8.75278289743762
      ],
      [
        "lo",
        -8.752800165287496
      ],
      [
        "LQ",
        -8.752810503645941
      ],
      [
        "ZC",
        -8.752857541093228
      ],
      [
        "og",
        -8.752972829685877
      ],
      [
        "He",
        -8.753003744736148
      ],
      [
        "mD",
        -8.753146837646689
      ],
      [
        "wI",
        -8.753168961158082
      ],
      [
        "HI",
        -8.75323003479906
      ],
      [
        "nT",
        -8.753267843939286
      ],
      [
        "WF",
        -8.753346266133729
      ],
      [
        "IA",
        -8.75347289802593
      ],
      [
        "wN",
        -8.753744163953632
      ],
      [
        "os",
        -8.75375637198952
      ],
      [
        "uv",
        -8.7537728767091
      ],
      [
        "As",
        -8.753944047478345
      ],
      [
        "eg",
        -8.753946590617964
      ],
      [
        "cM",
        -8.754093867257264
      ],
      [
        "Dp",
        -8.754123956372005
      ],
      [
        "AV",
        -8.754191307153784
      ],
      [
        "lJ",
        -8.754313113886022
      ],
      [
        "qs",
        -8.754340536906941
      ],
      [
        "Nl",
        -8.754361602743979
      ],
      [
        "uM",
        -8.75437243585905
      ],
      [
        "TV",
        -8.754378000099061
      ],
      [
        "fo",
        -8.75437831717105
      ],
      [
        "Bx",
        -8.754437562207215
      ],
      [
        "dd",
        -8.754807441626376
      ],
      [
        "mM",
        -8.755085882147457
      ],
      [
        "jp",
        -8.755093466615321
      ],
      [
        "lu",
        -8.75512477272288
      ],
      [
        "OB",
        -8.755178340369074
      ],
      [
        "Gb",
        -8.755319514527194
      ],
      [
        "gl",
        -8.755397093115835
      ],
      [
        "UC",
        -8.7554989680466
      ],
      [
        "DD",
        -8.755511037811965
      ],
      [
        "xX",
        -8.755614517584892
      ],
      [
        "YH",
        -8.75591196438381
      ],
      [
        "RV",
        -8.756121551171457
      ],
      [
        "Yu",
        -8.756172250062065
      ],
      [
        "MT",
        -8.756182441940679
      ],
      [
        "jZ",
        -8.756239636431271
      ],
      [
        "cU",
        -8.75625903654893
      ],
      [
        "CC",
        -8.7562649738571
      ],
      [
        "vp",
        -8.756406739307621
      ],
      [
        "hD",
        -8.756418178325976
      ],
      [
        "QA",
        -8.756419385098202
      ],
      [
        "mC",
        -8.756452970573914
      ],
      [
        "pX",
        -8.756458887682772
      ],
      [
        "RU",
        -8.756470378549597
      ],
      [
        "IU",
        -8.756549005083937
      ],
      [
        "RI",
        -8.756592675209301
      ],
      [
        "ZA",
        -8.756788039316742
      ],
      [
        "gC",
        -8.756806036581334
      ],
      [
        "Yl",
        -8.756820762955659
      ],
      [
        "IW",
        -8.756871646882892
      ],
      [
        "Mb",
        -8.75703062038146
      ],
      [
        "Ap",
        -8.757050955675805
      ],
      [
        "zU",
        -8.757073674808447
      ],
      [
        "Zm",
        -8.75710153860738
      ],
      [
        "jN",
        -8.757112407525721
      ],
      [
        "fT",
        -8.75734090240131
      ],
      [
        "Gq",
        -8.757363555677063
      ],
      [
        "sK",
        -8.757466969050412
      ],
      [
        "pe",
        -8.757493631914233
      ],
      [
        "XK",
        -8.757551569667129
      ],
      [
        "Kb",
        -8.757601243883379
      ],
      [
        "MX",
        -8.75772323790607
      ],
      [
        "LK",
        -8.757817227486061
      ],
      [
        "YB",
        -8.757991328229288
      ],
      [
        "AU",
        -8.758038313974113
      ],
      [
        "AB",
        -8.75832742934065
      ],
      [
        "uW",
        -8.758428820809023
      ],
      [
        "VQ",
        -8.758524916854867
      ],
      [
        "Cl",
        -8.758666847386733
      ],
      [
        "BW",
        -8.758780954941964
      ],
      [
        "Xa",
        -8.758789629423468
      ],
      [
        "KN",
        -8.758919930811894
      ],
      [
        "bv",
        -8.759020078898699
      ],
      [
        "Ch",
        -8.759051697103462
      ],
      [
        "Bz",
        -8.759516195991129
      ],
      [
        "N5",
        -8.759532248971546
      ],
      [
        "rd",
        -8.759612735685984
      ],
      [
        "qT",
        -8.759654913599825
      ],
      [
        "DT",
        -8.7597203050042
      ],
      [
        "xM",
        -8.75994356607957
      ],
      [
        "HL",
        -8.759955841053436
      ],
      [
        "jv",
        -8.760047293671757
      ],
      [
        "lX",
        -8.760190812849096
      ],
      [
        "GA",
        -8.760270293273045
      ],
      [
        "dQ",
        -8.760270853097019
      ],
      [
        "Ta",
        -8.760333049753118
      ],
      [
        "uZ",
        -8.760464118676232
      ],
      [
        "Tn",
        -8.760479305306522
      ],
      [
        "Jb",
        -8.76048690050441
      ],
      [
        "Is",
        -8.760531899695195
      ],
      [
        "on",
        -8.760586687390758
      ],
      [
        "Xm",
        -8.760600236149955
      ],
      [
        "q5",
        -8.760651325119163
      ],
      [
        "nI",
        -8.760741151006144
      ],
      [
        "ZX",
        -8.760798739810252
      ],
      [
        "GZ",
        -8.760798798202755
      ],
      [
        "fM",
        -8.76087692467961
      ],
      [
        "CI",
        -8.760890358830995
      ],
      [
        "JY",
        -8.761350497975885
      ],
      [
        "Aj",
        -8.761420502798172
      ],
      [
        "Dg",
        -8.76148758852275
      ],
      [
        "JL",
        -8.76169851286402
      ],
      [
        "OW",
        -8.761759039707119
      ],
      [
        "aq",
        -8.761768248335105
      ],
      [
        "MH",
        -8.761944044626077
      ],
      [
        "xw",
        -8.76199502533348
      ],
      [
        "MW",
        -8.762057241215294
      ],
      [
        "Cf",
        -8.762183985709939
      ],
      [
        "au",
        -8.762352062149976
      ],
      [
        "GY",
        -8.762566602231999
      ],
      [
        "Tg",
        -8.762619018564486
      ],
      [
        "ya",
        -8.762645638046465
      ],
      [
        "Do",
        -8.762746881511704
      ],
      [
        "wq",
        -8.763096650717733
      ],
      [
        "cZ",
        -8.763165753524065
      ],
      [
        "ou",
        -8.763313349796894
      ],
      [
        "jY",
        -8.76342916779836
      ],
      [
        "jl",
        -8.7634944828925
      ],
      [
        "IL",
        -8.7635389142221
      ],
      [
        "LU",
        -8.763574789312514
      ],
      [
        "ro",
        -8.763613228150113
      ],
      [
        "ao",
        -8.76383090873396
      ],
      [
        "Au",
        -8.763951053594447
      ],
      [
        "HD",
        -8.764059724771
      ],
      [
        "nG",
        -8.76430318242673
      ],
      [
        "Js",
        -8.764306675962501
      ],
      [
        "sw",
        -8.764393724053107
      ],
      [
        "aK",
        -8.764411510818036
      ],
      [
        "gm",
        -8.764645069060599
      ],
      [
        "bB",
        -8.764922067628756
      ],
      [
        "eL",
        -8.765015204904206
      ],
      [
        "mT",
        -8.76514312942728
      ],
      [
        "Jw",
        -8.765281528208952
      ],
      [
        "aQ",
        -8.76528828331928
      ],
      [
        "vj",
        -8.765302523961552
      ],
      [
        "bX",
        -8.765430344571925
      ],
      [
        "VB",
        -8.765472143136115
      ],
      [
        "Db",
        -8.765519232736253
      ],
      [
        "qO",
        -8.765733041288819
      ],
      [
        "Ah",
        -8.765767219934904
      ],
      [
        "aH",
        -8.76587558467985
      ],
      [
        "dI",
        -8.765898265441308
      ],
      [
        "eB",
        -8.765973072843849
      ],
      [
        "eA",
        -8.766157684245128
      ],
      [
        "vb",
        -8.76620340887371
      ],
      [
        "fz",
        -8.76641066008644
      ],
      [
        "xf",
        -8.766568196640506
      ],
      [
        "Bl",
        -8.766605419480141
      ],
      [
        "TA",
        -8.766640490543015
      ],
      [
        "zp",
        -8.766640850286104
      ],
      [
        "sG",
        -8.76675752075873
      ],
      [
        "DC",
        -8.766775229729936
      ],
      [
        "Wa",
        -8.767015785582927
      ],
      [
        "Yf",
        -8.767166059343353
      ],
      [
        "Yv",
        -8.76720519094544
      ],
      [
        "Xn",
        -8.767405646921075
      ],
      [
        "zo",
        -8.767532532847248
      ],
      [
        "ng",
        -8.76754755339564
      ],
      [
        "YD",
        -8.767572473260014
      ],
      [
        "za",
        -8.767662828166634
      ],
      [
        "IH",
        -8.767736841922915
      ],
      [
        "VV",
        -8.768017481725629
      ],
      [
        "pD",
        -8.76812184460194
      ],
      [
        "XA",
        -8.768362041456806
      ],
      [
        "wX",
        -8.768392098704137
      ],
      [
        "uR",
        -8.76856509920163
      ],
      [
        "fv",
        -8.768634981631493
      ],
      [
        "OY",
        -8.768673023957254
      ],
      [
        "xW",
        -8.768966383097569
      ],
      [
        "Ag",
        -8.76908788266725
      ],
      [
        "Dq",
        -8.769169929856448
      ],
      [
        "pZ",
        -8.769204676588913
      ],
      [
        "uI",
        -8.769378356555045
      ],
      [
        "ej",
        -8.769648039639993
      ],
      [
        "Gf",
        -8.769708730392349
      ],
      [
        "aN",
        -8.769913143483942
      ],
      [
        "jJ",
        -8.769931080236226
      ],
      [
        "mJ",
        -8.770429300237714
      ],
      [
        "Za",
        -8.770637908970354
      ],
      [
        "ZL",
        -8.770790181401708
      ],
      [
        "fA",
        -8.770875317574589
      ],
      [
        "NY",
        -8.770882007638203
      ],
      [
        "Gc",
        -8.770961812076703
      ],
      [
        "bn",
        -8.770966916607708
      ],
      [
        "dr",
        -8.770990482945546
      ],
      [
        "cc",
        -8.771047395364164
      ],
      [
        "ZR",
        -8.771067704192788
      ],
      [
        "wu",
        -8.771209854045411
      ],
      [
        "Zu",
        -8.771309190277961
      ],
      [
        "Cp",
        -8.771311989999553
      ],
      [
        "af",
        -8.771352097227355
      ],
      [
        "XL",
        -8.771519614948813
      ],
      [
        "ml",
        -8.77159412257141
      ],
      [
        "fL",
        -8.771646224090112
      ],
      [
        "pf",
        -8.77166980584483
      ],
      [
        "JD",
        -8.771752910704425
      ],
      [
        "fH",
        -8.771774006011777
      ],
      [
        "RD",
        -8.771803396316919
      ],
      [
        "YA",
        -8.771814011079886
      ],
      [
        "nc",
        -8.771984485840516
      ],
      [
        "dK",
        -8.772180478206991
      ],
      [
        "rR",
        -8.772228052134352
      ],
      [
        "KD",
        -8.772470305532433
      ],
      [
        "CL",
        -8.772477576039403
      ],
      [
        "el",
        -8.772511170803849
      ],
      [
        "bj",
        -8.772616712861659
      ],
      [
        "xK",
        -8.772755004568237
      ],
      [
        "wr",
        -8.77291925899549
      ],
      [
        "rq",
        -8.772930145900663
      ],
      [
        "Xw",
        -8.77294265722859
      ],
      [
        "wz",
        -8.773057525840386
      ],
      [
        "WQ",
        -8.773190435731241
      ],
      [
        "BX",
        -8.773323550737274
      ],
      [
        "nD",
        -8.773353282488682
      ],
      [
        "VZ",
        -8.773733594313558
      ],
      [
        "oG",
        -8.773739800336163
      ],
      [
        "rB",
        -8.773771978128096
      ],
      [
        "nU",
        -8.77386873599458
      ],
      [
        "WB",
        -8.773981840730965
      ],
      [
        "MC",
        -8.774059940301797
      ],
      [
        "MK",
        -8.774075746113695
      ],
      [
        "Ju",
        -8.774108592414542
      ],
      [
        "aW",
        -8.77464909990817
      ],
      [
        "nw",
        -8.77488809142025
      ],
      [
        "rG",
        -8.775188601293522
      ],
      [
        "dM",
        -8.77523471649188
      ],
      [
        "JW",
        -8.775279457018764
      ],
      [
        "VY",
        -8.775506699104653
      ],
      [
        "re",
        -8.775610787718808
      ],
      [
        "eI",
        -8.77579386718038
      ],
      [
        "wf",
        -8.775816596181997
      ],
      [
        "Wz",
        -8.77581860686061
      ],
      [
        "YY",
        -8.775958416719106
      ],
      [
        "YT",
        -8.7762153768809
      ],
      [
        "bN",
        -8.776228494120556
      ],
      [
        "TR",
        -8.776254393640254
      ],
      [
        "Xc",
        -8.776294936599179
      ],
      [
        "Ys",
        -8.776588944682251
      ],
      [
        "xR",
        -8.776602728945509
      ],
      [
        "RW",
        -8.776702455313153
      ],
      [
        "Gv",
        -8.776712736158155
      ],
      [
        "sA",
        -8.77677062019718
      ],
      [
        "In",
        -8.777072865972418
      ],
      [
        "NV",
        -8.77713163541442
      ],
      [
        "Iz",
        -8.777135680710394
      ],
      [
        "cg",
        -8.777154765176924
      ],
      [
        "se",
        -8.777424932831963
      ],
      [
        "Nz",
        -8.777523593972738
      ],
      [
        "BG",
        -8.777604354276596
      ],
      [
        "ql",
        -8.777705158928018
      ],
      [
        "TK",
        -8.777721237151361
      ],
      [
        "Dl",
        -8.777728330114275
      ],
      [
        "cI",
        -8.777825373329343
      ],
      [
        "eh",
        -8.778033269773438
      ],
      [
        "zB",
        -8.778064086497356
      ],
      [
        "DH",
        -8.77818263056055
      ],
      [
        "WK",
        -8.778282038680622
      ],
      [
        "YU",
        -8.778300385014655
      ],
      [
        "uX",
        -8.778716731195296
      ],
      [
        "sv",
        -8.778922546142962
      ],
      [
        "AK",
        -8.779008273454618
      ],
      [
        "qg",
        -8.779066895432337
      ],
      [
        "HY",
        -8.779242906673975
      ],
      [
        "Dh",
        -8.77927493774131
      ],
      [
        "LN",
        -8.779442434727759
      ],
      [
        "jV",
        -8.779530595871723
      ],
      [
        "vT",
        -8.779591552356663
      ],
      [
        "YR",
        -8.77975250133801
      ],
      [
        "wm",
        -8.779829160317211
      ],
      [
        "OG",
        -8.779892333524606
      ],
      [
        "YJ",
        -8.779951680613092
      ],
      [
        "GH",
        -8.779979824346881
      ],
      [
        "wY",
        -8.780146245080491
      ],
      [
        "sq",
        -8.780212615008075
      ],
      [
        "uG",
        -8.780324157057713
      ],
      [
        "wJ",
        -8.780428882584644
      ],
      [
        "QJ",
        -8.780430687084479
      ],
      [
        "A9",
        -8.78067766395196
      ],
      [
        "Kh",
        -8.780699287645646
      ],
      [
        "Qq",
        -8.78107456503097
      ],
      [
        "yX",
        -8.78113358422899
      ],
      [
        "Og",
        -8.781144723841985
      ],
      [
        "UI",
        -8.781188248001119
      ],
      [
        "OD",
        -8.781195359431083
      ],
      [
        "wA",
        -8.78132084352975
      ],
      [
        "oI",
        -8.781346570005113
      ],
      [
        "Wx",
        -8.781375592463078
      ],
      [
        "uL",
        -8.781698065367813
      ],
      [
        "uU",
        -8.781718520053015
      ],
      [
        "Mo",
        -8.782081819965613
      ],
      [
        "CJ",
        -8.78222306946568
      ],
      [
        "Yj",
        -8.782230111313487
      ],
      [
        "Lz",
        -8.78238632032085
      ],
      [
        "ZI",
        -8.782501811224893
      ],
      [
        "Fa",
        -8.782607093313597
      ],
      [
        "lW",
        -8.782765663107675
      ],
      [
        "me",
        -8.782792346342585
      ],
      [
        "pg",
        -8.782905036553903
      ],
      [
        "Oe",
        -8.782914102511546
      ],
      [
        "lc",
        -8.782951231900903
      ],
      [
        "Jv",
        -8.782966739811133
      ],
      [
        "qK",
        -8.783035695783877
      ],
      [
        "lY",
        -8.78311927027447
      ],
      [
        "lI",
        -8.783329067465896
      ],
      [
        "vC",
        -8.783491848403722
      ],
      [
        "Xe",
        -8.783609746997222
      ],
      [
        "BH",
        -8.783620631308182
      ],
      [
        "OJ",
        -8.783747666240458
      ],
      [
        "fV",
        -8.7837636679579
      ],
      [
        "ZV",
        -8.783834271369878
      ],
      [
        "uz",
        -8.783956011064994
      ],
      [
        "Tv",
        -8.784016209119905
      ],
      [
        "AG",
        -8.784074770419181
      ],
      [
        "ND",
        -8.784096502515634
      ],
      [
        "LJ",
        -8.784222877830281
      ],
      [
        "xV",
        -8.78432458636808
      ],
      [
        "TJ",
        -8.78451389165535
      ],
      [
        "sY",
        -8.784706861218718
      ],
      [
        "nY",
        -8.78475049018925
      ],
      [
        "fW",
        -8.784842507066585
      ],
      [
        "Cg",
        -8.784852002104266
      ],
      [
        "lU",
        -8.784994621570029
      ],
      [
        "QU",
        -8.785383635684061
      ],
      [
        "WX",
        -8.785402457784546
      ],
      [
        "HT",
        -8.78542216798336
      ],
      [
        "hq",
        -8.785482286975956
      ],
      [
        "HX",
        -8.78553185427203
      ],
      [
        "XC",
        -8.785573491034597
      ],
      [
        "uJ",
        -8.785702620632144
      ],
      [
        "wD",
        -8.785734989014863
      ],
      [
        "zv",
        -8.785833354378703
      ],
      [
        "pQ",
        -8.786184469290262
      ],
      [
        "xC",
        -8.786242946163242
      ],
      [
        "GG",
        -8.786354089427814
      ],
      [
        "Qg",
        -8.786409915850122
      ],
      [
        "Mq",
        -8.786480038121564
      ],
      [
        "qb",
        -8.786633672745893
      ],
      [
        "Zc",
        -8.786883098150023
      ],
      [
        "OA",
        -8.786929855571444
      ],
      [
        "aT",
        -8.7873261728877
      ],
      [
        "VT",
        -8.787528766309487
      ],
      [
        "wn",
        -8.787735446035942
      ],
      [
        "eJ",
        -8.787950077555827
      ],
      [
        "uQ",
        -8.787975086515344
      ],
      [
        "nQ",
        -8.788041193649677
      ],
      [
        "Lv",
        -8.788070822286134
      ],
      [
        "MJ",
        -8.788117617930785
      ],
      [
        "dZ",
        -8.788119107395314
      ],
      [
        "yL",
        -8.788373430143732
      ],
      [
        "AN",
        -8.788417409374631
      ],
      [
        "AI",
        -8.78843059000397
      ],
      [
        "WG",
        -8.788576688535397
      ],
      [
        "GC",
        -8.788588517433352
      ],
      [
        "AW",
        -8.78897512450529
      ],
      [
        "DU",
        -8.78914751870333
      ],
      [
        "CY",
        -8.789186756679017
      ],
      [
        "dW",
        -8.789389692905472
      ],
      [
        "qD",
        -8.789542458035001
      ],
      [
        "ZH",
        -8.789583514034188
      ],
      [
        "Yn",
        -8.789812272933567
      ],
      [
        "cp",
        -8.789847524829877
      ],
      [
        "cA",
        -8.790169911367077
      ],
      [
        "xm",
        -8.790600728908688
      ],
      [
        "HC",
        -8.791045560735057
      ],
      [
        "GV",
        -8.791063490872991
      ],
      [
        "Df",
        -8.791273265499054
      ],
      [
        "vG",
        -8.791316925363532
      ],
      [
        "XT",
        -8.791378477804818
      ],
      [
        "jL",
        -8.791584559391229
      ],
      [
        "bL",
        -8.79159783276524
      ],
      [
        "Iq",
        -8.791752664182411
      ],
      [
        "xQ",
        -8.791803626535003
      ],
      [
        "Zw",
        -8.79184645973194
      ],
      [
        "uK",
        -8.792121176841986
      ],
      [
        "Rf",
        -8.792183168413569
      ],
      [
        "Rh",
        -8.792233856727192
      ],
      [
        "lq",
        -8.792364800093186
      ],
      [
        "Qp",
        -8.79247343543927
      ],
      [
        "rA",
        -8.792519820864332
      ],
      [
        "ZY",
        -8.792521018321827
      ],
      [
        "fm",
        -8.792544307722258
      ],
      [
        "UY",
        -8.79257447673708
      ],
      [
        "lp",
        -8.792620330673566
      ],
      [
        "fe",
        -8.792654625773569
      ],
      [
        "mL",
        -8.792825448353444
      ],
      [
        "jc",
        -8.792833998318368
      ],
      [
        "Ww",
        -8.79292110939843
      ],
      [
        "Yc",
        -8.792931952578597
      ],
      [
        "tW",
        -8.793199387313162
      ],
      [
        "oA",
        -8.79326770835685
      ],
      [
        "HQ",
        -8.79339366072628
      ],
      [
        "Cv",
        -8.793410655350032
      ],
      [
        "Lb",
        -8.793483831898172
      ],
      [
        "fw",
        -8.793520495296326
      ],
      [
        "WN",
        -8.793649040121228
      ],
      [
        "Uv",
        -8.793765104366415
      ],
      [
        "HJ",
        -8.793895034084947
      ],
      [
        "Wh",
        -8.793996422493805
      ],
      [
        "ve",
        -8.794331161460939
      ],
      [
        "aZ",
        -8.794344651629839
      ],
      [
        "XM",
        -8.794523463347176
      ],
      [
        "BN",
        -8.794620041954715
      ],
      [
        "po",
        -8.794676699807724
      ],
      [
        "sQ",
        -8.794743659863556
      ],
      [
        "Qb",
        -8.794829573403373
      ],
      [
        "aX",
        -8.794900378062966
      ],
      [
        "Ip",
        -8.794980755461943
      ],
      [
        "gq",
        -8.795500232743656
      ],
      [
        "Gp",
        -8.795572632228986
      ],
      [
        "dJ",
        -8.795879809887067
      ],
      [
        "uA",
        -8.796033557175
      ],
      [
        "zJ",
        -8.79623685473575
      ],
      [
        "cD",
        -8.796277711369639
      ],
      [
        "Wd",
        -8.79629171483873
      ],
      [
        "Th",
        -8.796315652257032
      ],
      [
        "Wc",
        -8.796366453749991
      ],
      [
        "Oc",
        -8.796702761288412
      ],
      [
        "oh",
        -8.796713798632801
      ],
      [
        "Hz",
        -8.796793334898306
      ],
      [
        "Zq",
        -8.796937540985873
      ],
      [
        "pq",
        -8.796964422680922
      ],
      [
        "Hg",
        -8.797165146331771
      ],
      [
        "uD",
        -8.797215826592026
      ],
      [
        "HG",
        -8.797244543660941
      ],
      [
        "dT",
        -8.79730371043604
      ],
      [
        "Hv",
        -8.797360870997302
      ],
      [
        "so",
        -8.797361127564162
      ],
      [
        "rH",
        -8.797874146693207
      ],
      [
        "XJ",
        -8.797880719307713
      ],
      [
        "yQ",
        -8.79789000219861
      ],
      [
        "bl",
        -8.798000374462589
      ],
      [
        "Wn",
        -8.798810362622824
      ],
      [
        "xb",
        -8.798843176727361
      ],
      [
        "vn",
        -8.798987686936595
      ],
      [
        "zc",
        -8.799380503183581
      ],
      [
        "jG",
        -8.799472939729569
      ],
      [
        "Rb",
        -8.799505934226687
      ],
      [
        "ZB",
        -8.79955519058382
      ],
      [
        "Ic",
        -8.799596898911059
      ],
      [
        "Gl",
        -8.799796257841665
      ],
      [
        "Lo",
        -8.79984550493064
      ],
      [
        "Jg",
        -8.799908253528525
      ],
      [
        "JV",
        -8.800246250302731
      ],
      [
        "eb",
        -8.800336153482249
      ],
      [
        "bC",
        -8.80034257618946
      ],
      [
        "lf",
        -8.800515274427216
      ],
      [
        "BD",
        -8.800632194113259
      ],
      [
        "Wg",
        -8.80088097630012
      ],
      [
        "YG",
        -8.801135878421409
      ],
      [
        "mQ",
        -8.80114764270742
      ],
      [
        "Bc",
        -8.801260044266133
      ],
      [
        "nC",
        -8.801421118533595
      ],
      [
        "TD",
        -8.801542170906798
      ],
      [
        "gL",
        -8.801559831325548
      ],
      [
        "Xv",
        -8.801577145184314
      ],
      [
        "KT",
        -8.80163985336719
      ],
      [
        "Xf",
        -8.801752726568253
      ],
      [
        "yJ",
        -8.801765849243633
      ],
      [
        "UK",
        -8.801926211005828
      ],
      [
        "RB",
        -8.802316004319938
      ],
      [
        "mv",
        -8.802409354151202
      ],
      [
        "dq",
        -8.802533515285372
      ],
      [
        "Nh",
        -8.80263280142459
      ],
      [
        "aw",
        -8.803721854037038
      ],
      [
        "Uc",
        -8.803765104508336
      ],
      [
        "pG",
        -8.80383726387041
      ],
      [
        "Me",
        -8.804341600531373
      ],
      [
        "Tw",
        -8.804593301806026
      ],
      [
        "ch",
        -8.80510739150899
      ],
      [
        "Jq",
        -8.805167007478794
      ],
      [
        "ub",
        -8.805227997064978
      ],
      [
        "dA",
        -8.805552035836609
      ],
      [
        "No",
        -8.805712280072445
      ],
      [
        "Tp",
        -8.805805244970605
      ],
      [
        "Mg",
        -8.805820506265544
      ],
      [
        "LD",
        -8.80601703279641
      ],
      [
        "XI",
        -8.806044647964544
      ],
      [
        "ZQ",
        -8.806160395893109
      ],
      [
        "pv",
        -8.806468204509926
      ],
      [
        "uC",
        -8.806500598726885
      ],
      [
        "Mp",
        -8.806639009633189
      ],
      [
        "OI",
        -8.80671396808243
      ],
      [
        "yf",
        -8.806721520790138
      ],
      [
        "GB",
        -8.807028133482346
      ],
      [
        "Lq",
        -8.807328585385088
      ],
      [
        "Vl",
        -8.807363018249923
      ],
      [
        "ul",
        -8.807430284017137
      ],
      [
        "mN",
        -8.807640237848123
      ],
      [
        "zm",
        -8.807835759032344
      ],
      [
        "oT",
        -8.807949612156758
      ],
      [
        "Ro",
        -8.807997221527511
      ],
      [
        "wo",
        -8.80803226301042
      ],
      [
        "Tq",
        -8.808079229299384
      ],
      [
        "XV",
        -8.808238251379429
      ],
      [
        "rf",
        -8.80844828955653
      ],
      [
        "Ig",
        -8.808554246832532
      ],
      [
        "Oq",
        -8.808617664387913
      ],
      [
        "xG",
        -8.808870121894952
      ],
      [
        "Mv",
        -8.808903419795861
      ],
      [
        "Lc",
        -8.808904574693646
      ],
      [
        "OC",
        -8.808983605361492
      ],
      [
        "mR",
        -8.8093878640313
      ],
      [
        "Mc",
        -8.809389172262211
      ],
      [
        "IT",
        -8.809502895284147
      ],
      [
        "JB",
        -8.809507392252586
      ],
      [
        "Xl",
        -8.80986963129006
      ],
      [
        "rw",
        -8.809923221541517
      ],
      [
        "yY",
        -8.809927040067228
      ],
      [
        "Qv",
        -8.81005504042984
      ],
      [
        "mb",
        -8.810092218940937
      ],
      [
        "aD",
        -8.810155418137668
      ],
      [
        "rc",
        -8.810163372870267
      ],
      [
        "iJ",
        -8.810566262078392
      ],
      [
        "wC",
        -8.810587540220794
      ],
      [
        "pm",
        -8.810785105163044
      ],
      [
        "Bo",
        -8.81079821316947
      ],
      [
        "zz",
        -8.810894686888432
      ],
      [
        "Xg",
        -8.81098858983345
      ],
      [
        "Kg",
        -8.811247257079295
      ],
      [
        "Fb",
        -8.81191835553857
      ],
      [
        "Hq",
        -8.811936227438505
      ],
      [
        "rJ",
        -8.812180794136001
      ],
      [
        "fI",
        -8.812194433723443
      ],
      [
        "rb",
        -8.812218955669495
      ],
      [
        "Lp",
        -8.812436015361575
      ],
      [
        "pc",
        -8.812446722265191
      ],
      [
        "Xo",
        -8.812478229264759
      ],
      [
        "da",
        -8.812670778725835
      ],
      [
        "WY",
        -8.812699745989095
      ],
      [
        "xo",
        -8.81276506576754
      ],
      [
        "RG",
        -8.812777950203674
      ],
      [
        "Xz",
        -8.812973494578744
      ],
      [
        "Oo",
        -8.81297623033771
      ],
      [
        "QQ",
        -8.812994037281065
      ],
      [
        "wg",
        -8.813134671334709
      ],
      [
        "eo",
        -8.813331407560977
      ],
      [
        "VL",
        -8.813338821443256
      ],
      [
        "pl",
        -8.81353326647984
      ],
      [
        "aI",
        -8.813706891413123
      ],
      [
        "XR",
        -8.813952845678493
      ],
      [
        "QK",
        -8.81426249419545
      ],
      [
        "pN",
        -8.81475578631046
      ],
      [
        "Qh",
        -8.814826019187716
      ],
      [
        "Fw",
        -8.815328409313146
      ],
      [
        "zD",
        -8.815598659908202
      ],
      [
        "fh",
        -8.815659772503057
      ],
      [
        "nV",
        -8.815796576586063
      ],
      [
        "eV",
        -8.815797259062421
      ],
      [
        "Ne",
        -8.816076666133792
      ],
      [
        "JU",
        -8.816953746254098
      ],
      [
        "up",
        -8.816962036226954
      ],
      [
        "Zl",
        -8.817100628038194
      ],
      [
        "0W",
        -8.817282385285873
      ],
      [
        "rl",
        -8.817498985807703
      ],
      [
        "Ih",
        -8.817769882590827
      ],
      [
        "ug",
        -8.81788955885909
      ],
      [
        "oO",
        -8.81790551720728
      ],
      [
        "RQ",
        -8.818318881309503
      ],
      [
        "pw",
        -8.818644853353
      ],
      [
        "rm",
        -8.818686237421916
      ],
      [
        "ab",
        -8.819113557744123
      ],
      [
        "wK",
        -8.81917322410954
      ],
      [
        "dN",
        -8.819195455387469
      ],
      [
        "Le",
        -8.819198419554338
      ],
      [
        "Zb",
        -8.819398962695445
      ],
      [
        "Wq",
        -8.819473237298855
      ],
      [
        "lh",
        -8.820104319736041
      ],
      [
        "VX",
        -8.820443143255039
      ],
      [
        "aM",
        -8.820550347218305
      ],
      [
        "uh",
        -8.820750748359426
      ],
      [
        "Mf",
        -8.820921353642625
      ],
      [
        "jC",
        -8.820994516581735
      ],
      [
        "fC",
        -8.82109222401672
      ],
      [
        "BL",
        -8.82111070908675
      ],
      [
        "vg",
        -8.82121333479691
      ],
      [
        "Ll",
        -8.821375078346867
      ],
      [
        "rL",
        -8.821540785030091
      ],
      [
        "rM",
        -8.821617528640335
      ],
      [
        "ag",
        -8.82181468843017
      ],
      [
        "mg",
        -8.82198258492955
      ],
      [
        "xB",
        -8.82218577224155
      ],
      [
        "Dz",
        -8.822519354767818
      ],
      [
        "Ov",
        -8.82266949103029
      ],
      [
        "KU",
        -8.82319425059088
      ],
      [
        "fG",
        -8.823330042300324
      ],
      [
        "JT",
        -8.824307310266608
      ],
      [
        "ZD",
        -8.824376543449393
      ],
      [
        "Oh",
        -8.824408169421122
      ],
      [
        "XB",
        -8.824442647149187
      ],
      [
        "fD",
        -8.824459456055433
      ],
      [
        "zC",
        -8.824772716648706
      ],
      [
        "xN",
        -8.824980028534153
      ],
      [
        "Rq",
        -8.825185965232805
      ],
      [
        "aC",
        -8.825203287238388
      ],
      [
        "Vv",
        -8.825411493936562
      ],
      [
        "um",
        -8.825444246126969
      ],
      [
        "fK",
        -8.826000924374137
      ],
      [
        "Zo",
        -8.826093370919075
      ],
      [
        "HB",
        -8.826281906323452
      ],
      [
        "Jz",
        -8.82661093260278
      ],
      [
        "IN",
        -8.826643118104135
      ],
      [
        "Zz",
        -8.82676092770458
      ],
      [
        "lD",
        -8.827153527593227
      ],
      [
        "eU",
        -8.827350425904228
      ],
      [
        "CQ",
        -8.827472374395871
      ],
      [
        "0w",
        -8.828134141526096
      ],
      [
        "yo",
        -8.82886614581858
      ],
      [
        "Hb",
        -8.828943659264601
      ],
      [
        "aB",
        -8.829167606149184
      ],
      [
        "Nw",
        -8.829331355508934
      ],
      [
        "Jo",
        -8.829405650177666
      ],
      [
        "Zv",
        -8.8294223409295
      ],
      [
        "bh",
        -8.829568751545981
      ],
      [
        "ra",
        -8.829625206435658
      ],
      [
        "Wm",
        -8.829853067474964
      ],
      [
        "Qw",
        -8.829859675905354
      ],
      [
        "zq",
        -8.83010205195508
      ],
      [
        "dL",
        -8.83021863520337
      ],
      [
        "IJ",
        -8.830498511317252
      ],
      [
        "iA",
        -8.830846816687831
      ],
      [
        "Yb",
        -8.83120739597847
      ],
      [
        "ZN",
        -8.83243118740925
      ],
      [
        "az",
        -8.83252016588067
      ],
      [
        "IC",
        -8.832531896481402
      ],
      [
        "aU",
        -8.832618374633983
      ],
      [
        "rz",
        -8.832760597885638
      ],
      [
        "Vw",
        -8.83322825781191
      ],
      [
        "Bq",
        -8.83342099337586
      ],
      [
        "Ob",
        -8.833462995576445
      ],
      [
        "zh",
        -8.833489005941532
      ],
      [
        "BQ",
        -8.833904166003599
      ],
      [
        "zA",
        -8.83396811698092
      ],
      [
        "rg",
        -8.834875937070906
      ],
      [
        "rp",
        -8.835061641518525
      ],
      [
        "sU",
        -8.835107792696885
      ],
      [
        "Jl",
        -8.835216324625858
      ],
      [
        "VG",
        -8.835423869479282
      ],
      [
        "Dw",
        -8.835611873001104
      ],
      [
        "rI",
        -8.83568367625189
      ],
      [
        "Xq",
        -8.836310113811503
      ],
      [
        "XD",
        -8.836548330607513
      ],
      [
        "jQ",
        -8.836780509347278
      ],
      [
        "aJ",
        -8.837267900373984
      ],
      [
        "fB",
        -8.837565479393152
      ],
      [
        "Kv",
        -8.837902259677914
      ],
      [
        "yD",
        -8.838239628579219
      ],
      [
        "Vh",
        -8.838715711433398
      ],
      [
        "GR",
        -8.83884049629993
      ],
      [
        "Kc",
        -8.839015765955013
      ],
      [
        "dD",
        -8.839797551879606
      ],
      [
        "Nc",
        -8.840194271861224
      ],
      [
        "tw",
        -8.841223387235548
      ],
      [
        "Al",
        -8.841677049387123
      ],
      [
        "Nu",
        -8.842167802792533
      ],
      [
        "XQ",
        -8.842423443946355
      ],
      [
        "FC",
        -8.842991855264383
      ],
      [
        "NC",
        -8.843214231449892
      ],
      [
        "fQ",
        -8.843500610398737
      ],
      [
        "rD",
        -8.843779213588556
      ],
      [
        "Qm",
        -8.843789377424777
      ],
      [
        "HW",
        -8.844074266331827
      ],
      [
        "fq",
        -8.844342990260056
      ],
      [
        "wT",
        -8.84458722803373
      ],
      [
        "Hl",
        -8.844833276592265
      ],
      [
        "Yg",
        -8.845017679738984
      ],
      [
        "mU",
        -8.845261018803757
      ],
      [
        "cv",
        -8.845837424209234
      ],
      [
        "iw",
        -8.845981682534665
      ],
      [
        "ol",
        -8.846460127514241
      ],
      [
        "XG",
        -8.846736755895293
      ],
      [
        "dR",
        -8.846861987471879
      ],
      [
        "ah",
        -8.847086949933527
      ],
      [
        "ac",
        -8.847941070191444
      ],
      [
        "xD",
        -8.848052362484452
      ],
      [
        "Ze",
        -8.848581179086736
      ],
      [
        "sC",
        -8.8487612302218
      ],
      [
        "yw",
        -8.848766007723377
      ],
      [
        "eq",
        -8.849573995187722
      ],
      [
        "Wv",
        -8.84960691706339
      ],
      [
        "wU",
        -8.849679849805486
      ],
      [
        "jb",
        -8.850572582907223
      ],
      [
        "Wo",
        -8.850828709933253
      ],
      [
        "FL",
        -8.851600391657659
      ],
      [
        "Jc",
        -8.851850172713505
      ],
      [
        "Co",
        -8.851935883605169
      ],
      [
        "FG",
        -8.85340505475924
      ],
      [
        "Wb",
        -8.854111543608086
      ],
      [
        "dB",
        -8.854299806146797
      ],
      [
        "yT",
        -8.854303217601489
      ],
      [
        "rv",
        -8.854460582975292
      ],
      [
        "fN",
        -8.855031299664468
      ],
      [
        "bA",
        -8.85516212550218
      ],
      [
        "FT",
        -8.85577045881417
      ],
      [
        "yb",
        -8.855776743472344
      ],
      [
        "Iv",
        -8.855859399219247
      ],
      [
        "Zg",
        -8.856857249920655
      ],
      [
        "df",
        -8.857052988710779
      ],
      [
        "Yq",
        -8.857058338632825
      ],
      [
        "yC",
        -8.857746198631054
      ],
      [
        "Mh",
        -8.858078695655847
      ],
      [
        "fU",
        -8.85821557244158
      ],
      [
        "rT",
        -8.858492234212935
      ],
      [
        "Xh",
        -8.858916298369044
      ],
      [
        "mA",
        -8.859067273488202
      ],
      [
        "al",
        -8.859903568870976
      ],
      [
        "rY",
        -8.861015554407373
      ],
      [
        "xI",
        -8.86152710013422
      ],
      [
        "FB",
        -8.861592966050216
      ],
      [
        "ap",
        -8.861867714353163
      ],
      [
        "wc",
        -8.86242480759952
      ],
      [
        "0e",
        -8.862629907069254
      ],
      [
        "FA",
        -8.86286117107966
      ],
      [
        "WT",
        -8.863314142447729
      ],
      [
        "wQ",
        -8.863833936636578
      ],
      [
        "rQ",
        -8.865614142618188
      ],
      [
        "BR",
        -8.865619485516882
      ],
      [
        "qv",
        -8.865634488598074
      ],
      [
        "db",
        -8.866239533750212
      ],
      [
        "RC",
        -8.86645398283217
      ],
      [
        "LC",
        -8.867180775223986
      ],
      [
        "CK",
        -8.867592414680015
      ],
      [
        "ZJ",
        -8.868005376822854
      ],
      [
        "Rv",
        -8.86817340268972
      ],
      [
        "ib",
        -8.868322327164606
      ],
      [
        "Rw",
        -8.869610242342379
      ],
      [
        "rh",
        -8.86968466870885
      ],
      [
        "dz",
        -8.870022086800493
      ],
      [
        "MD",
        -8.87016502824936
      ],
      [
        "FJ",
        -8.87029412030596
      ],
      [
        "rC",
        -8.870637376344623
      ],
      [
        "HA",
        -8.87078999910027
      ],
      [
        "xq",
        -8.870897529882512
      ],
      [
        "aG",
        -8.871536117080913
      ],
      [
        "xc",
        -8.871550709622273
      ],
      [
        "GU",
        -8.87158198501886
      ],
      [
        "Fg",
        -8.872007750281353
      ],
      [
        "aL",
        -8.872489654823028
      ],
      [
        "sJ",
        -8.87314618224725
      ],
      [
        "xe",
        -8.873605095592875
      ],
      [
        "Ho",
        -8.874343757157247
      ],
      [
        "pC",
        -8.874782054686172
      ],
      [
        "BU",
        -8.874918814212524
      ],
      [
        "Bw",
        -8.874992157878959
      ],
      [
        "iv",
        -8.875738975704992
      ],
      [
        "FI",
        -8.875745955709352
      ],
      [
        "FN",
        -8.876142414171891
      ],
      [
        "Bh",
        -8.877381049816286
      ],
      [
        "Hh",
        -8.878580793934333
      ],
      [
        "LG",
        -8.878690867771123
      ],
      [
        "0o",
        -8.878898449360285
      ],
      [
        "ph",
        -8.879109402620376
      ],
      [
        "JK",
        -8.879514482322667
      ],
      [
        "MQ",
        -8.880473162946084
      ],
      [
        "ZK",
        -8.88082710451054
      ],
      [
        "dv",
        -8.881442342692281
      ],
      [
        "Wu",
        -8.881866563521545
      ],
      [
        "yv",
        -8.882147161139876
      ],
      [
        "Bm",
        -8.882744985564093
      ],
      [
        "dc",
        -8.88285816925256
      ],
      [
        "fY",
        -8.883003395662616
      ],
      [
        "rV",
        -8.883462317475033
      ],
      [
        "aA",
        -8.883490262879747
      ],
      [
        "av",
        -8.884312774843341
      ],
      [
        "WU",
        -8.884589450441187
      ],
      [
        "rN",
        -8.884696312268167
      ],
      [
        "yA",
        -8.888814706371933
      ],
      [
        "FY",
        -8.890557220650912
      ],
      [
        "xU",
        -8.89244310340031
      ],
      [
        "0Y",
        -8.894821870797042
      ],
      [
        "NG",
        -8.895690500012272
      ],
      [
        "Yp",
        -8.897335530393985
      ],
      [
        "zQ",
        -8.90282890688114
      ],
      [
        "ZU",
        -8.905984870050894
      ],
      [
        "Fq",
        -8.907773060014929
      ],
      [
        "Fo",
        -8.908262154589
      ],
      [
        "HU",
        -8.911165033812036
      ],
      [
        "ZG",
        -8.913718079704779
      ],
      [
        "Zh",
        -8.921754471524267
      ],
      [
        "dg",
        -8.930887969902297
      ],
      [
        "0A",
        -8.933125902445312
      ],
      [
        "xY",
        -8.939522697525636
      ],
      [
        "do",
        -8.940080555654841
      ]
    ],
    "byte_fallback": false
  }
}