{
  "version": "1.0",
  "truncation": null,
  "padding": null,
  "added_tokens": [
    {
      "id": 0,
      "content": "[PAD]",
      "single_word": false,
      "lstrip": false,
      "rstrip": false,
      "normalized": false,
      "special": true
    },
    {
      "id": 1,
      "content": "[UNK]",
      "single_word": false,
      "lstrip": false,
      "rstrip": false,
      "normalized": false,
      "special": true
    },
    {
      "id": 2,
      "content": "[CLS]",
      "single_word": false,
      "lstrip": false,
      "rstrip": false,
      "normalized": false,
      "special": true
    },
    {
      "id": 3,
      "content": "[SEP]",
      "single_word": false,
      "lstrip": false,
      "rstrip": false,
      "normalized": false,
      "special": true
    },
    {
      "id": 4,
      "content": "[MASK]",
      "single_word": false,
      "lstrip": false,
      "rstrip": false,
      "normalized": false,
      "special": true
    }
  ],
  "normalizer": {
    "type": "NFKC"
  },
  "pre_tokenizer": {
    "type": "Whitespace"
  },
  "post_processor": null,
  "decoder": null,
  "model": {
    "type": "Unigram",
    "unk_id": null,
    "vocab": [
      [
        "[PAD]",
        0.0
      ],
      [
        "[UNK]",
        0.0
      ],
      [
        "[CLS]",
        0.0
      ],
      [
        "[SEP]",
        0.0
      ],
      [
        "[MASK]",
        0.0
      ],
      [
        "<",
        -2.5988255088678542
      ],
      [
        ">",
        -2.601822768748141
      ],
      [
        "S",
        -3.2142972268733008
      ],
      [
        "=",
        -3.2476935309737875
      ],
      [
        "EP",
        -3.306555060396798
      ],
      [
        "-",
        -3.3115273606331446
      ],
      [
        "/",
        -3.5122185756060897
      ],
      [
        ".",
        -3.5712765391262344
      ],
      [
        "_EQ",
        -3.6587036584260897
      ],
      [
        "ESC",
        -3.658835548184509
      ],
      [
        "0",
        -3.9232490395926956
      ],
      [
        ";",
        -4.052099400727446
      ],
      [
        "5",
        -4.101358216392889
      ],
      [
        ",",
        -4.151911476202319
      ],
      [
        "A",
        -4.223841053687131
      ],
      [
        "8",
        -4.375342578099001
      ],
      [
        "q",
        -4.398914211479648
      ],
      [
        "1",
        -4.494347280786831
      ],
      [
        "L",
        -4.543110975531462
      ],
      [
        "E",
        -4.654009476332343
      ],
      [
        "C",
        -4.722330349581219
      ],
      [
        "&",
        -4.762095128798402
      ],
      [
        "T",
        -4.7847738554504495
      ],
      [
        "3",
        -4.80627776041452
      ],
      [
        "ccept",
        -4.9109146901020875
      ],
      [
        "%",
        -4.922469883193672
      ],
      [
        "NUL",
        -4.970249868543004
      ],
      [
        "P",
        -4.987966857462736
      ],
      [
        "e",
        -5.096138657895301
      ],
      [
        "t",
        -5.143379680118123
      ],
      [
        "9",
        -5.184345886576212
      ],
      [
        "nt",
        -5.206564718176185
      ],
      [
        "text",
        -5.2194808313114915
      ],
      [
        "D",
        -5.230209185132367
      ],
      [
        "xml",
        -5.240773732755651
      ],
      [
        "n",
        -5.3109716702211305
      ],
      [
        "Conte",
        -5.31977791221375
      ],
      [
        "Host",
        -5.319879183114601
      ],
      [
        "+",
        -5.35402235473574
      ],
      [
        "no",
        -5.412033114629393
      ],
      [
        "x",
        -5.413417062335304
      ],
      [
        "o",
        -5.427681077276809
      ],
      [
        "GE",
        -5.456779665618782
      ],
      [
        "application",
        -5.4570523774859705
      ],
      [
        "(",
        -5.502871545486391
      ],
      [
        ")",
        -5.503231803074435
      ],
      [
        "cache",
        -5.521798490782281
      ],
      [
        "H",
        -5.616873414661729
      ],
      [
        "html",
        -5.630254456960184
      ],
      [
        "M",
        -5.640378487745652
      ],
      [
        "utf",
        -5.64580168649014
      ],
      [
        "OST",
        -5.806264833396899
      ],
      [
        "2",
        -5.835072343298185
      ],
      [
        "r",
        -5.8510959807098235
      ],
      [
        "ol",
        -5.902259268372212
      ],
      [
        "*",
        -5.907402334457432
      ],
      [
        "K",
        -5.964999885681701
      ],
      [
        "age",
        -5.969649737105561
      ],
      [
        "a",
        -5.982250666571764
      ],
      [
        "ion",
        -5.991960712923799
      ],
      [
        "ata",
        -5.9953209351537495
      ],
      [
        "set",
        -6.000047703366512
      ],
      [
        "ND",
        -6.003678759060438
      ],
      [
        "ype",
        -6.009331083598166
      ],
      [
        "ache",
        -6.010474724023037
      ],
      [
        "ookie",
        -6.011608538481385
      ],
      [
        "Pr",
        -6.0117658764431585
      ],
      [
        "gth",
        -6.011776010619128
      ],
      [
        "gent",
        -6.0125133864218725
      ],
      [
        "Connect",
        -6.012637163904065
      ],
      [
        "Char",
        -6.012940925220182
      ],
      [
        "contr",
        -6.01298816220641
      ],
      [
        "eader",
        -6.012988966703372
      ],
      [
        "angu",
        -6.012992444923203
      ],
      [
        "agma",
        -6.0129929308840815
      ],
      [
        "Query",
        -6.01303704044572
      ],
      [
        "URI",
        -6.013037564321257
      ],
      [
        "REC",
        -6.013124494373818
      ],
      [
        "ethod",
        -6.013137889273139
      ],
      [
        "User",
        -6.013146160012544
      ],
      [
        "HTT",
        -6.013240808529872
      ],
      [
        "7",
        -6.016348423116488
      ],
      [
        "Len",
        -6.022942063454696
      ],
      [
        "4",
        -6.026760144149314
      ],
      [
        "en",
        -6.058192775124068
      ],
      [
        ":",
        -6.063853753248624
      ],
      [
        "6",
        -6.084783153081855
      ],
      [
        "image",
        -6.131030919971874
      ],
      [
        "illa",
        -6.152987511784712
      ],
      [
        "Moz",
        -6.172855019076408
      ],
      [
        "Ge",
        -6.201275782144203
      ],
      [
        "cko",
        -6.213368425256725
      ],
      [
        "clos",
        -6.224500086168048
      ],
      [
        "compa",
        -6.304092268018692
      ],
      [
        "ible",
        -6.30409912035792
      ],
      [
        "*/*",
        -6.3122091826807285
      ],
      [
        "ux",
        -6.316124804248098
      ],
      [
        "png",
        -6.319633488089458
      ],
      [
        "Lin",
        -6.330949292370208
      ],
      [
        "like",
        -6.331000226486047
      ],
      [
        "s",
        -6.334391167429233
      ],
      [
        "eror",
        -6.334944216914433
      ],
      [
        "onqu",
        -6.335402987715792
      ],
      [
        "plai",
        -6.338190883200568
      ],
      [
        "lhost",
        -6.349859439929206
      ],
      [
        "loca",
        -6.350769485873213
      ],
      [
        "KH",
        -6.351002292688586
      ],
      [
        "NID",
        -6.351264421467862
      ],
      [
        "SIO",
        -6.351281106578691
      ],
      [
        "TML",
        -6.351371500050261
      ],
      [
        "8080",
        -6.356710029843686
      ],
      [
        "JS",
        -6.366648131382064
      ],
      [
        "tienda",
        -6.384479632636165
      ],
      [
        "l",
        -6.448471380452752
      ],
      [
        "c",
        -6.4508595787166385
      ],
      [
        "p",
        -6.4677676283979455
      ],
      [
        "i",
        -6.497460507804178
      ],
      [
        "jsp",
        -6.589215133713511
      ],
      [
        "g",
        -6.601346593457205
      ],
      [
        "h",
        -6.634579667786113
      ],
      [
        "N",
        -6.658781202235819
      ],
      [
        "U",
        -6.700790874834512
      ],
      [
        "d",
        -6.739318656011113
      ],
      [
        "www",
        -6.814426155452875
      ],
      [
        "R",
        -6.826355469239051
      ],
      [
        "B",
        -6.843136325286805
      ],
      [
        "public",
        -6.910079151053418
      ],
      [
        "I",
        -6.922868531012259
      ],
      [
        "F",
        -6.942683630993683
      ],
      [
        "27",
        -6.9589420789015435
      ],
      [
        "G",
        -6.965327139119049
      ],
      [
        "O",
        -6.986808201866749
      ],
      [
        "Y",
        -7.026032492559786
      ],
      [
        "W",
        -7.026670181423992
      ],
      [
        "2F",
        -7.033315883280517
      ],
      [
        "m",
        -7.040132445943158
      ],
      [
        "J",
        -7.047196057306088
      ],
      [
        "X",
        -7.067086873358445
      ],
      [
        "b",
        -7.081795236986098
      ],
      [
        "B1",
        -7.082404501859852
      ],
      [
        "V",
        -7.094047665226599
      ],
      [
        "Z",
        -7.094548533044147
      ],
      [
        "u",
        -7.114575725306485
      ],
      [
        "ur",
        -7.1257008731064495
      ],
      [
        "y",
        -7.143043980837746
      ],
      [
        "Q",
        -7.1468817966578015
      ],
      [
        "_",
        -7.158929445913861
      ],
      [
        "w",
        -7.171686464545687
      ],
      [
        "29",
        -7.171731034468808
      ],
      [
        "f",
        -7.195873898527811
      ],
      [
        "form",
        -7.199315965629484
      ],
      [
        "k",
        -7.2271746341749825
      ],
      [
        "28",
        -7.248092565339581
      ],
      [
        "v",
        -7.286436816646091
      ],
      [
        "j",
        -7.295293858068627
      ],
      [
        "ded",
        -7.35642916503048
      ],
      [
        "lenco",
        -7.370978427442072
      ],
      [
        "@",
        -7.371354955559795
      ],
      [
        "z",
        -7.372583750198368
      ],
      [
        "40",
        -7.487608068287479
      ],
      [
        "2C",
        -7.495787183525385
      ],
      [
        "modo",
        -7.515914147688264
      ],
      [
        "3D",
        -7.526507478111837
      ],
      [
        "22",
        -7.6557883143353305
      ],
      [
        "id",
        -7.678479264035348
      ],
      [
        "ar",
        -7.716494992621826
      ],
      [
        "al",
        -7.720525043607589
      ],
      [
        "nombre",
        -7.7709551706354745
      ],
      [
        "registro",
        -7.7832089248701255
      ],
      [
        "es",
        -7.788055602520158
      ],
      [
        "login",
        -7.796236800441523
      ],
      [
        "'",
        -7.799907940089767
      ],
      [
        "or",
        -7.868172140771479
      ],
      [
        "cp",
        -7.876930972158483
      ],
      [
        "mie",
        -7.911724464696787
      ],
      [
        "de",
        -7.940226469837033
      ],
      [
        "mbros",
        -7.947814202385935
      ],
      [
        "3B",
        -7.963863690401423
      ],
      [
        "+%",
        -8.02702849034035
      ],
      [
        "on",
        -8.027282379042555
      ],
      [
        "3C",
        -8.034000903370067
      ],
      [
        "nes",
        -8.051023714289574
      ],
      [
        "rv",
        -8.090206564247886
      ],
      [
        "3A",
        -8.124945021243608
      ],
      [
        "/*",
        -8.160810766475107
      ],
      [
        "iso",
        -8.160944890282305
      ],
      [
        "dni",
        -8.168116449876724
      ],
      [
        "=*/*",
        -8.189387508556472
      ],
      [
        "password",
        -8.195522614526773
      ],
      [
        "email",
        -8.196282241024896
      ],
      [
        "ciudad",
        -8.197769109780436
      ],
      [
        "apellidos",
        -8.198630964210368
      ],
      [
        "provincia",
        -8.198630964211326
      ],
      [
        "direccion",
        -8.198630964292644
      ],
      [
        "precio",
        -8.2004115138228
      ],
      [
        "ntc",
        -8.207546489857794
      ],
      [
        "Registrar",
        -8.207565577885886
      ],
      [
        "2B",
        -8.237330390090275
      ],
      [
        "carrito",
        -8.24087158324075
      ],
      [
        "+++",
        -8.244437516568352
      ],
      [
        "++++",
        -8.250884931734316
      ],
      [
        "el",
        -8.252686595934517
      ],
      [
        "in",
        -8.255289339591403
      ],
      [
        "7C",
        -8.25624819231367
      ],
      [
        "as",
        -8.258632603584697
      ],
      [
        "mac",
        -8.261349342309948
      ],
      [
        "se",
        -8.280548944493198
      ],
      [
        "26",
        -8.294255815461597
      ],
      [
        "et",
        -8.2944159426441
      ],
      [
        "an",
        -8.304504514547553
      ],
      [
        "ia",
        -8.305244016518083
      ],
      [
        "gif",
        -8.31273101183639
      ],
      [
        "entrar",
        -8.313002602167956
      ],
      [
        "st",
        -8.34051026302641
      ],
      [
        "it",
        -8.34903939158694
      ],
      [
        "os",
        -8.355352778758984
      ],
      [
        "live",
        -8.362160696473886
      ],
      [
        "sa",
        -8.367372456426923
      ],
      [
        "keep",
        -8.36997251021117
      ],
      [
        "la",
        -8.387910872875716
      ],
      [
        "na",
        -8.391467073758061
      ],
      [
        "3F",
        -8.418060595846821
      ],
      [
        "re",
        -8.436235049535888
      ],
      [
        "5D",
        -8.436440576534544
      ],
      [
        "ea",
        -8.440561832346354
      ],
      [
        "ie",
        -8.447094650341182
      ],
      [
        "ro",
        -8.460192845442922
      ],
      [
        ">'",
        -8.46024534866853
      ],
      [
        "ae",
        -8.464587548926232
      ],
      [
        "window",
        -8.46943022333781
      ],
      [
        "io",
        -8.4715429085601
      ],
      [
        "8859",
        -8.47218236771414
      ],
      [
        "he",
        -8.477001680347804
      ],
      [
        "le",
        -8.477376914640242
      ],
      [
        "ce",
        -8.48049040895581
      ],
      [
        "va",
        -8.491266593776475
      ],
      [
        "ai",
        -8.494633481834672
      ],
      [
        "ta",
        -8.500569768791896
      ],
      [
        "eh",
        -8.501560470284353
      ],
      [
        "ciar",
        -8.502987747296503
      ],
      [
        "ss",
        -8.512109337637554
      ],
      [
        "Win",
        -8.51263019048701
      ],
      [
        "si",
        -8.513053598450263
      ],
      [
        "ts",
        -8.515537926857114
      ],
      [
        "te",
        -8.520483749409685
      ],
      [
        "at",
        -8.524703492413003
      ],
      [
        "ne",
        -8.529471403123821
      ],
      [
        "++",
        -8.535593703141828
      ],
      [
        "ei",
        -8.545764884450499
      ],
      [
        "is",
        -8.547019210902752
      ],
      [
        "39",
        -8.547983189354719
      ],
      [
        "ra",
        -8.552715149508671
      ],
      [
        "er",
        -8.562300835642526
      ],
      [
        "ti",
        -8.562740083478133
      ],
      [
        "ed",
        -8.570306309340683
      ],
      [
        "aa",
        -8.58832443368059
      ],
      [
        "da",
        -8.601566281923589
      ],
      [
        "ns",
        -8.625732680515494
      ],
      [
        "21",
        -8.626469906518844
      ],
      [
        "sh",
        -8.638090545499946
      ],
      [
        "ri",
        -8.650491771486072
      ],
      [
        "24",
        -8.653326981732587
      ],
      [
        "max",
        -8.655566350415413
      ],
      [
        "th",
        -8.658848000776988
      ],
      [
        "46",
        -8.663294050780994
      ],
      [
        "ht",
        -8.664812650233868
      ],
      [
        "tr",
        -8.668917560135679
      ],
      [
        "ni",
        -8.682464821349779
      ],
      [
        "ii",
        -8.68550841554742
      ],
      [
        "if",
        -8.688050739014688
      ],
      [
        "B2",
        -8.693976649559161
      ],
      [
        "so",
        -8.699986145695267
      ],
      [
        "ha",
        -8.705183034341179
      ],
      [
        "ca",
        -8.70550426053841
      ],
      [
        "ho",
        -8.712220143345919
      ],
      [
        "ad",
        -8.71707755949417
      ],
      [
        "ec",
        -8.732100678078861
      ],
      [
        "me",
        -8.737763957468957
      ],
      [
        "rs",
        -8.73895595293147
      ],
      [
        "ir",
        -8.745007758097199
      ],
      [
        "ch",
        -8.74648253373998
      ],
      [
        "+++++",
        -8.748419743437994
      ],
      [
        "sn",
        -8.768495214112113
      ],
      [
        "be",
        -8.769943301737278
      ],
      [
        "5B",
        -8.771677185311365
      ],
      [
        "ah",
        -8.774226520116407
      ],
      [
        "em",
        -8.777886779234443
      ],
      [
        "ma",
        -8.782668641939521
      ],
      [
        "jpg",
        -8.782775893676323
      ],
      [
        "64",
        -8.787550471138221
      ],
      [
        "25",
        -8.795982903707186
      ],
      [
        "do",
        -8.797009699647706
      ],
      [
        "http",
        -8.805599540326526
      ],
      [
        "hi",
        -8.807481617719404
      ],
      [
        "ue",
        -8.815590596448885
      ],
      [
        "76",
        -8.815773286129541
      ],
      [
        "67",
        -8.821532784125377
      ],
      [
        "co",
        -8.839791627284624
      ],
      [
        "..%",
        -8.840478265890862
      ],
      [
        "oi",
        -8.841058045891696
      ],
      [
        "ih",
        -8.841626948984384
      ],
      [
        "34",
        -8.841994729979861
      ],
      [
        "il",
        -8.846403454675244
      ],
      [
        "42",
        -8.85096616415435
      ],
      [
        "+&",
        -8.85392304928023
      ],
      [
        "ls",
        -8.854345861665017
      ],
      [
        "eu",
        -8.85715984275803
      ],
      [
        "pwd",
        -8.859000879741945
      ],
      [
        "anadi",
        -8.861622337782316
      ],
      [
        "video",
        -8.865227859977493
      ],
      [
        "sr",
        -8.865640099163151
      ],
      [
        "hs",
        -8.869182089896473
      ],
      [
        "cantidad",
        -8.873053045534338
      ],
      [
        "lo",
        -8.877767426379267
      ],
      [
        "69",
        -8.877838504581877
      ],
      [
        "72",
        -8.87816743667814
      ],
      [
        "aute",
        -8.879715934373383
      ],
      [
        "icar",
        -8.880104454522108
      ],
      [
        "43",
        -8.888770088711146
      ],
      [
        "F1adi",
        -8.892535125896835
      ],
      [
        "audio",
        -8.893336838087588
      ],
      [
        "62",
        -8.893778881406774
      ],
      [
        "78",
        -8.895379515867273
      ],
      [
        "paga",
        -8.899175575317342
      ],
      [
        "dt",
        -8.901462916327215
      ],
      [
        "74",
        -8.901804907672261
      ],
      [
        "2D",
        -8.902533404882615
      ],
      [
        "edit",
        -8.908039904346836
      ],
      [
        "remember",
        -8.911313937102882
      ],
      [
        "li",
        -8.914188756542671
      ],
      [
        "47",
        -8.919936683355989
      ],
      [
        "script",
        -8.926868447793396
      ],
      [
        "97",
        -8.927691075972525
      ],
      [
        "hr",
        -8.928413701659817
      ],
      [
        "4F",
        -8.930264947322812
      ],
      [
        "Entrar",
        -8.931471153588245
      ],
      [
        "us",
        -8.931952652785004
      ],
      [
        "79",
        -8.933735976595841
      ],
      [
        "68",
        -8.939313055224902
      ],
      [
        "66",
        -8.943049750835343
      ],
      [
        "eg",
        -8.943238089888169
      ],
      [
        "insertar",
        -8.948376531993073
      ],
      [
        "ac",
        -8.94890700013595
      ],
      [
        "44",
        -8.953890699166225
      ],
      [
        "oh",
        -8.959877169360293
      ],
      [
        "49",
        -8.960082638562284
      ],
      [
        "nh",
        -8.965363756593334
      ],
      [
        "hn",
        -8.96982185332933
      ],
      [
        "od",
        -8.978359843129407
      ],
      [
        "96",
        -8.987588789704773
      ],
      [
        "lobal",
        -8.989591145577625
      ],
      [
        "cn",
        -8.995407445648294
      ],
      [
        "icas",
        -8.996117272713922
      ],
      [
        "td",
        -9.002914824385998
      ],
      [
        "ui",
        -9.004327721708309
      ],
      [
        "36",
        -9.011190811907657
      ],
      [
        "pe",
        -9.014326760524735
      ],
      [
        "94",
        -9.01476955021158
      ],
      [
        "carac",
        -9.019472263962598
      ],
      [
        "erist",
        -9.019599034855485
      ],
      [
        "am",
        -9.021933945181456
      ],
      [
        "mo",
        -9.024512315125593
      ],
      [
        "rh",
        -9.024679219857163
      ],
      [
        "di",
        -9.029456554978648
      ],
      [
        "7D",
        -9.031842009591717
      ],
      [
        "99",
        -9.047921485213571
      ],
      [
        "ge",
        -9.052274467516295
      ],
      [
        "DF",
        -9.053685628307097
      ],
      [
        "dows",
        -9.054068117337938
      ],
      [
        "sd",
        -9.05521647651608
      ],
      [
        "com",
        -9.059727693750231
      ],
      [
        "77",
        -9.06987644833195
      ],
      [
        "F3",
        -9.071427031325989
      ],
      [
        "sl",
        -9.07776875389527
      ],
      [
        "nd",
        -9.081054753337405
      ],
      [
        "BC",
        -9.081863165981837
      ],
      [
        "ey",
        -9.082051593888234
      ],
      [
        "ci",
        -9.085492062094938
      ],
      [
        "rm",
        -9.085642645291077
      ],
      [
        "73",
        -9.088758283379775
      ],
      [
        "56",
        -9.0928427692494
      ],
      [
        "Va",
        -9.094572022802105
      ],
      [
        "ut",
        -9.103570093489349
      ],
      [
        "84",
        -9.105651408622204
      ],
      [
        "ua",
        -9.10911487504481
      ],
      [
        "ds",
        -9.110890288178094
      ],
      [
        "mt",
        -9.113283499583037
      ],
      [
        "errorMsg",
        -9.114810473795298
      ],
      [
        "BF",
        -9.119684479889719
      ],
      [
        "17",
        -9.126759746132041
      ],
      [
        "ba",
        -9.127282581786812
      ],
      [
        "37",
        -9.131410906214494
      ],
      [
        "BD",
        -9.132863702306235
      ],
      [
        "nc",
        -9.133571683678623
      ],
      [
        "au",
        -9.133614959229694
      ],
      [
        "4D",
        -9.14108881471368
      ],
      [
        "tosh",
        -9.141160680099276
      ],
      [
        "71",
        -9.148417909774452
      ],
      [
        "tu",
        -9.152222678333416
      ],
      [
        "7B",
        -9.153087688262204
      ],
      [
        "FC",
        -9.15445830768773
      ],
      [
        "im",
        -9.15565550676633
      ],
      [
        "rd",
        -9.162338406499078
      ],
      [
        "B6",
        -9.163518974466015
      ],
      [
        "ye",
        -9.163687858095578
      ],
      [
        "9F",
        -9.166374840001989
      ],
      [
        "6D",
        -9.171747726707089
      ],
      [
        "BA",
        -9.173795424644995
      ],
      [
        "FB",
        -9.174473479587414
      ],
      [
        "ew",
        -9.17507758994861
      ],
      [
        "1F",
        -9.175145841834723
      ],
      [
        "ul",
        -9.17817561030376
      ],
      [
        "CF",
        -9.185489539864836
      ],
      [
        "4B",
        -9.18957949975335
      ],
      [
        "eb",
        -9.190232106380163
      ],
      [
        "FD",
        -9.190583989362828
      ],
      [
        "min",
        -9.191480229665999
      ],
      [
        "ef",
        -9.195519830340757
      ],
      [
        "fr",
        -9.196864010047246
      ],
      [
        "ic",
        -9.197147832879358
      ],
      [
        "om",
        -9.199200876589499
      ],
      [
        "ay",
        -9.210702100877475
      ],
      [
        "hh",
        -9.211255267291563
      ],
      [
        "fe",
        -9.211571636259585
      ],
      [
        "F6",
        -9.212271151311464
      ],
      [
        "mi",
        -9.213625211087773
      ],
      [
        "D6",
        -9.21654689106338
      ],
      [
        "Cre",
        -9.217047318108929
      ],
      [
        "6F",
        -9.224084742894874
      ],
      [
        "AF",
        -9.224626657302501
      ],
      [
        "dencial",
        -9.231413070910097
      ],
      [
        "rl",
        -9.232488045488939
      ],
      [
        "B4",
        -9.232803031026023
      ],
      [
        "we",
        -9.23313775425683
      ],
      [
        "6B",
        -9.23516577997501
      ],
      [
        "incorrectas",
        -9.236422383634814
      ],
      [
        "7F",
        -9.239741932822088
      ],
      [
        "FF",
        -9.241399188554391
      ],
      [
        "92",
        -9.244697775628262
      ],
      [
        "9B",
        -9.245531885947582
      ],
      [
        "F9",
        -9.250285889155862
      ],
      [
        "tm",
        -9.253057831996145
      ],
      [
        "D4",
        -9.253829160935894
      ],
      [
        "61",
        -9.25392852805051
      ],
      [
        "ps",
        -9.257529148050107
      ],
      [
        "ga",
        -9.26020694684453
      ],
      [
        "dr",
        -9.261693251990469
      ],
      [
        "2e",
        -9.276078372082107
      ],
      [
        "5F",
        -9.281078518538845
      ],
      [
        "41",
        -9.285754095652909
      ],
      [
        "ru",
        -9.288017113628321
      ],
      [
        "tw",
        -9.292219735387018
      ],
      [
        "pa",
        -9.29386173428987
      ],
      [
        "8F",
        -9.308410222717821
      ],
      [
        "F1",
        -9.316588322211254
      ],
      [
        "://",
        -9.317368583384674
      ],
      [
        "F4",
        -9.318644920741763
      ],
      [
        "BB",
        -9.31906190616252
      ],
      [
        "un",
        -9.322058172717497
      ],
      [
        "CB",
        -9.326218912608674
      ],
      [
        "sc",
        -9.327603868524275
      ],
      [
        "B9",
        -9.329433733090777
      ],
      [
        "nly",
        -9.331311237369405
      ],
      [
        "270",
        -9.331473861600223
      ],
      [
        "hl",
        -9.332932250928737
      ],
      [
        "trans",
        -9.338178306389647
      ],
      [
        "fres",
        -9.338733955004798
      ],
      [
        "bin",
        -9.339408816800727
      ],
      [
        "oc",
        -9.340456993623048
      ],
      [
        "su",
        -9.342425543624703
      ],
      [
        "tc",
        -9.342757505168201
      ],
      [
        "23",
        -9.3450845069824
      ],
      [
        "bo",
        -9.349709522383826
      ],
      [
        "Machi",
        -9.35084609384785
      ],
      [
        "ab",
        -9.353483709961363
      ],
      [
        "ms",
        -9.353599263359541
      ],
      [
        "FA",
        -9.353983907033541
      ],
      [
        "go",
        -9.35417142077362
      ],
      [
        "ou",
        -9.354275552083152
      ],
      [
        "store",
        -9.357841892899453
      ],
      [
        "sm",
        -9.373658546379025
      ],
      [
        "B3",
        -9.374005785713557
      ],
      [
        "B5",
        -9.374008064550992
      ],
      [
        "DB",
        -9.377440737605816
      ],
      [
        "X1",
        -9.38334641242394
      ],
      [
        "87",
        -9.385317758694434
      ],
      [
        "B7",
        -9.38982938548171
      ],
      [
        "12",
        -9.397265647312388
      ],
      [
        "ld",
        -9.405475084094213
      ],
      [
        "stale",
        -9.410225931052764
      ],
      [
        "ez",
        -9.412321579388514
      ],
      [
        "uo",
        -9.413968036498634
      ],
      [
        "dn",
        -9.414539886585603
      ],
      [
        "cmd",
        -9.420476116678493
      ],
      [
        "dh",
        -9.421118877623583
      ],
      [
        "F3n",
        -9.423569500983678
      ],
      [
        "euc",
        -9.425485745413265
      ],
      [
        "iu",
        -9.427618445158085
      ],
      [
        "child",
        -9.428858466606783
      ],
      [
        "and",
        -9.43331559627167
      ],
      [
        "F8",
        -9.43541005363861
      ],
      [
        "65",
        -9.43862364174894
      ],
      [
        "ll",
        -9.439211135147966
      ],
      [
        "F7",
        -9.439704646068265
      ],
      [
        "nu",
        -9.439987834850253
      ],
      [
        "ig",
        -9.441716247619201
      ],
      [
        "fa",
        -9.449528818349902
      ],
      [
        "pi",
        -9.451792405760099
      ],
      [
        "ya",
        -9.460874931835654
      ],
      [
        "100",
        -9.46495622701254
      ],
      [
        "por",
        -9.476292847608995
      ],
      [
        "lh",
        -9.477794721272122
      ],
      [
        "cs",
        -9.483713616809414
      ],
      [
        "fo",
        -9.483773725028836
      ],
      [
        "nm",
        -9.487474775307994
      ],
      [
        "ng",
        -9.48804789343946
      ],
      [
        "pl",
        -9.501631071336215
      ],
      [
        "32",
        -9.508358309808543
      ],
      [
        "ty",
        -9.512174401286678
      ],
      [
        "mn",
        -9.514614650806825
      ],
      [
        "86",
        -9.514885328157103
      ],
      [
        "tf",
        -9.529393405646662
      ],
      [
        "tb",
        -9.532125722054289
      ],
      [
        "logo",
        -9.533319116016397
      ],
      [
        "ob",
        -9.535473184452247
      ],
      [
        "63",
        -9.53708705979044
      ],
      [
        "ini",
        -9.539985827517327
      ],
      [
        "bi",
        -9.540705194021845
      ],
      [
        "bt",
        -9.542839528581542
      ],
      [
        "hd",
        -9.545997631631609
      ],
      [
        "mr",
        -9.547139412947697
      ],
      [
        "|",
        -9.5476050045569
      ],
      [
        "open",
        -9.551775636028978
      ],
      [
        "kr",
        -9.55369336596776
      ],
      [
        "exec",
        -9.555925112109636
      ],
      [
        "57",
        -9.556179102652845
      ],
      [
        "wt",
        -9.559754693538874
      ],
      [
        "af",
        -9.565680875632825
      ],
      [
        "uh",
        -9.570958049392647
      ],
      [
        "aw",
        -9.575030919072418
      ],
      [
        "ft",
        -9.578946307762088
      ],
      [
        "gi",
        -9.58047384809717
      ],
      [
        "ag",
        -9.583274205672478
      ],
      [
        "fi",
        -9.585779392779184
      ],
      [
        "dd",
        -9.585828552398317
      ],
      [
        "sy",
        -9.588382410639932
      ],
      [
        "off",
        -9.594773825814432
      ],
      [
        "wa",
        -9.602454739673323
      ],
      [
        "js",
        -9.6025269105371
      ],
      [
        "ve",
        -9.60379001097624
      ],
      [
        "sp",
        -9.60432771143337
      ],
      [
        "PUT",
        -9.605048064465091
      ],
      [
        "etc",
        -9.607091281797118
      ],
      [
        "yo",
        -9.609689160236236
      ],
      [
        "asar",
        -9.613371297255423
      ],
      [
        "Confirmar",
        -9.616781495752518
      ],
      [
        "]",
        -9.618619731045925
      ],
      [
        "ib",
        -9.619276802702531
      ],
      [
        "css",
        -9.624188473446633
      ],
      [
        "nf",
        -9.625337016219909
      ],
      [
        "ip",
        -9.632518019428456
      ],
      [
        "ow",
        -9.635121413760682
      ],
      [
        "Calle",
        -9.63538252668701
      ],
      [
        "mh",
        -9.635469106606152
      ],
      [
        "gt",
        -9.636674105746954
      ],
      [
        "inde",
        -9.641914747433773
      ],
      [
        "75",
        -9.64593358428656
      ],
      [
        "14",
        -9.648442345081266
      ],
      [
        "Mac",
        -9.650049806586345
      ],
      [
        "je",
        -9.651575962628824
      ],
      [
        "hu",
        -9.652813328120027
      ],
      [
        "caja",
        -9.658181700423318
      ],
      [
        "wi",
        -9.658613437485304
      ],
      [
        "oy",
        -9.662099310289435
      ],
      [
        "za",
        -9.662266014565947
      ],
      [
        "bs",
        -9.662532374036388
      ],
      [
        "yt",
        -9.66308245594796
      ],
      [
        "dl",
        -9.670732905685329
      ],
      [
        "ke",
        -9.674416360256288
      ],
      [
        "F2",
        -9.674528858605747
      ],
      [
        "ry",
        -9.67924286753733
      ],
      [
        "uz",
        -9.679856559298695
      ],
      [
        "0B",
        -9.682123544476275
      ],
      [
        "dm",
        -9.68590307212855
      ],
      [
        "NT",
        -9.68690284959544
      ],
      [
        "net",
        -9.686996839328646
      ],
      [
        "of",
        -9.689782122932574
      ],
      [
        "lu",
        -9.693153463605643
      ],
      [
        "cz",
        -9.694443325142508
      ],
      [
        "ev",
        -9.695757209831102
      ],
      [
        "48",
        -9.6960373250366
      ],
      [
        "nw",
        -9.696630237095095
      ],
      [
        "du",
        -9.699405465071301
      ],
      [
        "org",
        -9.701485362326396
      ],
      [
        "hm",
        -9.70161816108174
      ],
      [
        "ws",
        -9.707052526539456
      ],
      [
        "by",
        -9.707615388127659
      ],
      [
        "rg",
        -9.711477113729513
      ],
      [
        "cl",
        -9.715192341009693
      ],
      [
        "cookie",
        -9.716331386815792
      ],
      [
        "gb",
        -9.719313382261593
      ],
      [
        "ej",
        -9.723470649307853
      ],
      [
        "og",
        -9.726058649199699
      ],
      [
        "br",
        -9.72836378097561
      ],
      [
        "tmp",
        -9.728589082130913
      ],
      [
        "iy",
        -9.736521205371382
      ],
      [
        "passwd",
        -9.742023587408225
      ],
      [
        "ys",
        -9.74415685418975
      ],
      [
        "wo",
        -9.747172260874176
      ],
      [
        "cgi",
        -9.747623035675026
      ],
      [
        "jo",
        -9.751479448044421
      ],
      [
        "\\\\",
        -9.752167476136263
      ],
      [
        "sg",
        -9.753518629699201
      ],
      [
        "exe",
        -9.755289634656165
      ],
      [
        "rf",
        -9.75571628396055
      ],
      [
        "Ib",
        -9.755952387121734
      ],
      [
        "gr",
        -9.756286347156086
      ],
      [
        "jp",
        -9.756855413726534
      ],
      [
        "386",
        -9.757047436837865
      ],
      [
        "iw",
        -9.767713571180327
      ],
      [
        "mu",
        -9.76878984473511
      ],
      [
        "sw",
        -9.772984828439931
      ],
      [
        "ud",
        -9.779014898677001
      ],
      [
        "2574",
        -9.780487415418252
      ],
      [
        "um",
        -9.784914290153932
      ],
      [
        "ny",
        -9.792813897261302
      ],
      [
        "sb",
        -9.794692767413686
      ],
      [
        "rw",
        -9.795903326268355
      ],
      [
        "586",
        -9.79640524268346
      ],
      [
        "gs",
        -9.806799739734304
      ],
      [
        "eee",
        -9.808420968910706
      ],
      [
        "lm",
        -9.809625526597097
      ],
      [
        "ja",
        -9.81018343229838
      ],
      [
        "rb",
        -9.81305789095415
      ],
      [
        "cu",
        -9.81632241216434
      ],
      [
        "Rioja",
        -9.81969974787196
      ],
      [
        "yn",
        -9.820684103138277
      ],
      [
        "mc",
        -9.820889070186333
      ],
      [
        "uk",
        -9.827307150550249
      ],
      [
        "az",
        -9.82941627022269
      ],
      [
        "sf",
        -9.834319451738196
      ],
      [
        "ph",
        -9.837779785732074
      ],
      [
        "F0",
        -9.839007329205463
      ],
      [
        "pn",
        -9.842207758070751
      ],
      [
        "yi",
        -9.844316463084361
      ],
      [
        "fs",
        -9.844843821744865
      ],
      [
        "jpe",
        -9.845480994404294
      ],
      [
        "dc",
        -9.847657304039558
      ],
      [
        "mail",
        -9.855945645227596
      ],
      [
        "nb",
        -9.856067754898739
      ],
      [
        "wn",
        -9.86632350067069
      ],
      [
        "e6",
        -9.869008818662628
      ],
      [
        "fn",
        -9.870340609239868
      ],
      [
        "av",
        -9.870639903828527
      ],
      [
        "16",
        -9.87227915090551
      ],
      [
        "all",
        -9.875068584618138
      ],
      [
        "document",
        -9.875785888470512
      ],
      [
        "253",
        -9.879996798655425
      ],
      [
        "2563",
        -9.885260169515004
      ],
      [
        "yr",
        -9.887721932807942
      ],
      [
        "ak",
        -9.893455869572954
      ],
      [
        "wh",
        -9.893722791072946
      ],
      [
        "gh",
        -9.894535645763241
      ],
      [
        "2312",
        -9.897303250385681
      ],
      [
        "ml",
        -9.898055715253651
      ],
      [
        "ek",
        -9.90214259310187
      ],
      [
        "hw",
        -9.903059964106706
      ],
      [
        "asp",
        -9.908102541850713
      ],
      [
        "gu",
        -9.908869676854884
      ],
      [
        "winnt",
        -9.911283804252704
      ],
      [
        "ze",
        -9.917070004832173
      ],
      [
        "Vino",
        -9.919012701109933
      ],
      [
        "wp",
        -9.921333414055402
      ],
      [
        "bn",
        -9.92544265276021
      ],
      [
        "vi",
        -9.92723448491963
      ],
      [
        "cd",
        -9.927416579654654
      ],
      [
        "253A",
        -9.938658341607379
      ],
      [
        "hz",
        -9.942108289122057
      ],
      [
        "style",
        -9.946742214651065
      ],
      [
        "location",
        -9.949762503622495
      ],
      [
        "system",
        -9.954060254771415
      ],
      [
        "ko",
        -9.954718042160874
      ],
      [
        "252",
        -9.957529355267857
      ],
      [
        "ug",
        -9.95860466020007
      ],
      [
        "tz",
        -9.961549560897405
      ],
      [
        "era",
        -9.967560024245019
      ],
      [
        "e4",
        -9.969487921312723
      ],
      [
        "wr",
        -9.970105648198135
      ],
      [
        "uc",
        -9.975095572267717
      ],
      [
        "~",
        -9.977794692515985
      ],
      [
        "md",
        -9.979469413826862
      ],
      [
        "bh",
        -9.98129179781898
      ],
      [
        "lert",
        -9.982499201173923
      ],
      [
        "256F",
        -9.98357843048555
      ],
      [
        "bl",
        -9.984348231026503
      ],
      [
        "asf",
        -9.986991781768232
      ],
      [
        "hy",
        -9.98789904757804
      ],
      [
        "del",
        -9.989381926245304
      ],
      [
        "hf",
        -9.99109171422431
      ],
      [
        "dy",
        -9.9980887849485
      ],
      [
        "mb",
        -10.002428718049007
      ],
      [
        "iv",
        -10.003368112925966
      ],
      [
        "iz",
        -10.003810991736994
      ],
      [
        "hg",
        -10.004124452160228
      ],
      [
        "from",
        -10.005270612428948
      ],
      [
        "936",
        -10.009250554431368
      ],
      [
        "select",
        -10.012657151917988
      ],
      [
        "250",
        -10.013610026821622
      ],
      [
        "ka",
        -10.014904248635524
      ],
      [
        "oz",
        -10.015199229789882
      ],
      [
        "Manchego",
        -10.01538298766462
      ],
      [
        "Ques",
        -10.015738080977608
      ],
      [
        "php",
        -10.015865232062403
      ],
      [
        "hb",
        -10.016532476431324
      ],
      [
        "ly",
        -10.016607553272923
      ],
      [
        "gov",
        -10.0213431029054
      ],
      [
        "up",
        -10.02232485828726
      ],
      [
        "position",
        -10.026212962578365
      ],
      [
        "htm",
        -10.031196193651379
      ],
      [
        "[",
        -10.031935079104839
      ],
      [
        "aj",
        -10.036706386886308
      ],
      [
        "replace",
        -10.037513902164548
      ],
      [
        "Jam",
        -10.040488594988902
      ],
      [
        "cat",
        -10.044484101771559
      ],
      [
        "grou",
        -10.046872079053177
      ],
      [
        "count",
        -10.048800914988554
      ],
      [
        "2022",
        -10.049792015119039
      ],
      [
        "zo",
        -10.050705267234912
      ],
      [
        "ell",
        -10.051728931008377
      ],
      [
        "wide",
        -10.05248298484105
      ],
      [
        "ub",
        -10.057424922800339
      ],
      [
        "253D",
        -10.060924411558997
      ],
      [
        "fl",
        -10.063608738915896
      ],
      [
        "bu",
        -10.066969198682205
      ],
      [
        "Fchild",
        -10.070449968947715
      ],
      [
        "fh",
        -10.071870949097107
      ],
      [
        "hp",
        -10.072558738127587
      ],
      [
        "wl",
        -10.076150466205679
      ],
      [
        "2565",
        -10.078920686151157
      ],
      [
        "2569",
        -10.089193322933593
      ],
      [
        "mm",
        -10.090717769994772
      ],
      [
        "log",
        -10.09163620759412
      ],
      [
        "mp",
        -10.09185780159665
      ],
      [
        "932",
        -10.092961799816921
      ],
      [
        "lb",
        -10.093126330832021
      ],
      [
        "ov",
        -10.09727876443761
      ],
      [
        "$",
        -10.098051061603012
      ],
      [
        "cm",
        -10.09869806255551
      ],
      [
        "koi",
        -10.098969119779085
      ],
      [
        "ki",
        -10.09967776910745
      ],
      [
        "vo",
        -10.100938324399804
      ],
      [
        "eO",
        -10.109942690636354
      ],
      [
        "E9rico",
        -10.110009445445762
      ],
      [
        "ck",
        -10.112526633841782
      ],
      [
        "db",
        -10.11328973659214
      ],
      [
        "nz",
        -10.116401059701802
      ],
      [
        "var",
        -10.119670293631035
      ],
      [
        "tv",
        -10.128106301893254
      ],
      [
        "where",
        -10.134611324232775
      ],
      [
        "name",
        -10.13568899351537
      ],
      [
        "yh",
        -10.137241027516904
      ],
      [
        "OS",
        -10.137413519697901
      ],
      [
        "Ope",
        -10.144203084783435
      ],
      [
        "gl",
        -10.144332513768507
      ],
      [
        "ina",
        -10.149543187436812
      ],
      [
        "tar",
        -10.149995663084894
      ],
      [
        "BSD",
        -10.152638718587996
      ],
      [
        "950",
        -10.155081107189982
      ],
      [
        "5Bposition",
        -10.156369814775791
      ],
      [
        "df",
        -10.157984705112684
      ],
      [
        "ik",
        -10.161726492330938
      ],
      [
        "lf",
        -10.162079875117842
      ],
      [
        "arabi",
        -10.162645636535958
      ],
      [
        "for",
        -10.172193375529154
      ],
      [
        "257",
        -10.172284280989569
      ],
      [
        "7a",
        -10.172754746800745
      ],
      [
        "4u",
        -10.178214751283303
      ],
      [
        "yl",
        -10.178732392247895
      ],
      [
        "fd",
        -10.182561770607414
      ],
      [
        "object",
        -10.195602317226427
      ],
      [
        "IN",
        -10.195685362130643
      ],
      [
        "uf",
        -10.198707962871435
      ],
      [
        "bd",
        -10.200942884591068
      ],
      [
        "uu",
        -10.201615838286122
      ],
      [
        "pd",
        -10.205933787353246
      ],
      [
        "iff",
        -10.20625968222793
      ],
      [
        "?",
        -10.211201363264516
      ],
      [
        "lw",
        -10.212118562725358
      ],
      [
        "ste",
        -10.215987089604383
      ],
      [
        "tk",
        -10.217496905030714
      ],
      [
        "wd",
        -10.222664593618955
      ],
      [
        "ierra",
        -10.222823312692569
      ],
      [
        "3A0",
        -10.224457619147307
      ],
      [
        "chinese",
        -10.224608525983125
      ],
      [
        "proc",
        -10.229041400590601
      ],
      [
        "dw",
        -10.22972775971521
      ],
      [
        "874",
        -10.235215631273494
      ],
      [
        "admin",
        -10.23563631051757
      ],
      [
        "sam",
        -10.236170883921464
      ],
      [
        "cb",
        -10.236827771606231
      ],
      [
        "img",
        -10.239814126665625
      ],
      [
        "tj",
        -10.240240397921923
      ],
      [
        "sta",
        -10.2404539351389
      ],
      [
        "any",
        -10.243863999342297
      ],
      [
        "eet",
        -10.244027346761065
      ],
      [
        "autoexec",
        -10.244896803028652
      ],
      [
        "time",
        -10.246760378954441
      ],
      [
        "opt",
        -10.249754779615397
      ],
      [
        "div",
        -10.250130224474297
      ],
      [
        "OR",
        -10.253260512387403
      ],
      [
        "sk",
        -10.254535331640643
      ],
      [
        "had",
        -10.25661143682912
      ],
      [
        "asic",
        -10.262133615020938
      ],
      [
        "essing",
        -10.262427535149243
      ],
      [
        "ogo",
        -10.263371942915857
      ],
      [
        "node",
        -10.26536651442392
      ],
      [
        "instruction",
        -10.265915810314294
      ],
      [
        "nph",
        -10.268337238062424
      ],
      [
        "kt",
        -10.268346836355365
      ],
      [
        "vt",
        -10.268979762504497
      ],
      [
        "mpe",
        -10.269234536706396
      ],
      [
        "eea",
        -10.269900694349616
      ],
      [
        "connect",
        -10.272970543258618
      ],
      [
        "quick",
        -10.272972391901579
      ],
      [
        "bul",
        -10.274553437217644
      ],
      [
        "B2A",
        -10.275292763114042
      ],
      [
        "jt",
        -10.276656312312412
      ],
      [
        "sv",
        -10.279035123663245
      ],
      [
        "dp",
        -10.279789954192921
      ],
      [
        "2522",
        -10.281260517109818
      ],
      [
        "zi",
        -10.281846747579227
      ],
      [
        "ftp",
        -10.284189324982002
      ],
      [
        "uy",
        -10.285874294817862
      ],
      [
        "dg",
        -10.287105164016145
      ],
      [
        "pm",
        -10.288905631384848
      ],
      [
        "253E",
        -10.28971698013708
      ],
      [
        "echo",
        -10.291190070421823
      ],
      [
        "zara",
        -10.29229002313409
      ],
      [
        "yu",
        -10.292534316874088
      ],
      [
        "rj",
        -10.293940719601624
      ],
      [
        "usr",
        -10.29629585502752
      ],
      [
        "zt",
        -10.297529216469545
      ],
      [
        "my",
        -10.304084177057375
      ],
      [
        "aros",
        -10.308755257940476
      ],
      [
        "Ba",
        -10.309519067181688
      ],
      [
        "sj",
        -10.31083665342485
      ],
      [
        "xp_",
        -10.31286362295483
      ],
      [
        "ete",
        -10.313346594744132
      ],
      [
        "sz",
        -10.313539600529696
      ],
      [
        "ji",
        -10.315714725284197
      ],
      [
        "fotos",
        -10.316431687033143
      ],
      [
        "res",
        -10.318212007079383
      ],
      [
        "biz",
        -10.319653373459431
      ],
      [
        "wav",
        -10.32051612077001
      ],
      [
        "254",
        -10.323894363918688
      ],
      [
        "boot",
        -10.325178547188997
      ],
      [
        "167",
        -10.326206726346628
      ],
      [
        "dir",
        -10.326497529947613
      ],
      [
        "productos",
        -10.32752943003811
      ],
      [
        "rz",
        -10.32798297632502
      ],
      [
        "4a",
        -10.328683773590244
      ],
      [
        "250A",
        -10.330778115807254
      ],
      [
        "kn",
        -10.33229477371579
      ],
      [
        "Ra",
        -10.333434244077369
      ],
      [
        "3A15",
        -10.333848841342466
      ],
      [
        "eval",
        -10.334870025620777
      ],
      [
        "body",
        -10.336170769269362
      ],
      [
        "wget",
        -10.336966294018687
      ],
      [
        "meta",
        -10.338095986809243
      ],
      [
        "telnet",
        -10.339078899730634
      ],
      [
        "wait",
        -10.33923109182798
      ],
      [
        "cmen",
        -10.342012252271832
      ],
      [
        "i4",
        -10.343246076486324
      ],
      [
        "ok",
        -10.345128499111054
      ],
      [
        "eoe",
        -10.346390141052083
      ],
      [
        "vbscript",
        -10.346469461833486
      ],
      [
        "union",
        -10.346785208173552
      ],
      [
        "a7",
        -10.347473044259292
      ],
      [
        "mw",
        -10.34823052007011
      ],
      [
        "a6",
        -10.34955112972245
      ],
      [
        "i7",
        -10.349711317814823
      ],
      [
        "amper",
        -10.350371817537656
      ],
      [
        "fu",
        -10.35079470890117
      ],
      [
        "zs",
        -10.35239240628081
      ],
      [
        "ij",
        -10.353691652576632
      ],
      [
        "ks",
        -10.354777450948358
      ],
      [
        "9s",
        -10.354799289339226
      ],
      [
        "909",
        -10.356290611401104
      ],
      [
        "access_log",
        -10.357892257310143
      ],
      [
        "htacces",
        -10.357892270563436
      ],
      [
        "206",
        -10.359968737019802
      ],
      [
        "stdin",
        -10.362217332415494
      ],
      [
        "pu",
        -10.364111966621529
      ],
      [
        "nuestra",
        -10.365629361796541
      ],
      [
        "castr",
        -10.365939558550384
      ],
      [
        "include",
        -10.367390554257604
      ],
      [
        "copy",
        -10.373708441639607
      ],
      [
        "nk",
        -10.374430207122264
      ],
      [
        "6a",
        -10.375088207910135
      ],
      [
        "see",
        -10.377095811381448
      ],
      [
        "uw",
        -10.377172744531213
      ],
      [
        "credito",
        -10.377350793114374
      ],
      [
        "aee",
        -10.377403424239636
      ],
      [
        "Ri",
        -10.380152038995906
      ],
      [
        "update",
        -10.381286158619858
      ],
      [
        "252F",
        -10.382752260620231
      ],
      [
        "titulo",
        -10.385237824451174
      ],
      [
        "gd",
        -10.385371864854882
      ],
      [
        "ett",
        -10.38718596960235
      ],
      [
        "insert",
        -10.388946951601662
      ],
      [
        "bc",
        -10.38909578087561
      ],
      [
        "home",
        -10.391807934039035
      ],
      [
        "oee",
        -10.397066546073452
      ],
      [
        "a4",
        -10.39953006432561
      ],
      [
        "passthru",
        -10.401206455799525
      ],
      [
        "iframe",
        -10.40121272665548
      ],
      [
        "ada",
        -10.403211214626728
      ],
      [
        "enum",
        -10.403787318563712
      ],
      [
        "htpass",
        -10.404847454876023
      ],
      [
        "FROM",
        -10.405238429820557
      ],
      [
        "vs",
        -10.406398185312142
      ],
      [
        "s6",
        -10.408882654443033
      ],
      [
        "yc",
        -10.408904316092354
      ],
      [
        "shutdown",
        -10.40928689950478
      ],
      [
        "lib",
        -10.409521537058314
      ],
      [
        "159",
        -10.41106430167057
      ],
      [
        "having",
        -10.413353875031724
      ],
      [
        "Or",
        -10.415549820690629
      ],
      [
        "sock_stream",
        -10.417433572752405
      ],
      [
        "between",
        -10.417433622427437
      ],
      [
        "elay",
        -10.417512647455583
      ],
      [
        "157",
        -10.418952034864066
      ],
      [
        "sali",
        -10.423441688298036
      ],
      [
        "oj",
        -10.425912128428166
      ],
      [
        "ees",
        -10.426112369186423
      ],
      [
        "156",
        -10.426687442052092
      ],
      [
        "4i",
        -10.427594812584822
      ],
      [
        "2s",
        -10.429413853434902
      ],
      [
        "xterm",
        -10.42982323870865
      ],
      [
        "lv",
        -10.43025425048872
      ],
      [
        "java",
        -10.430325334020779
      ],
      [
        "cy",
        -10.430820044304825
      ],
      [
        "151",
        -10.430910989321099
      ],
      [
        "238",
        -10.431295541251217
      ],
      [
        "103",
        -10.431509224064232
      ],
      [
        "path",
        -10.434544316764818
      ],
      [
        "2BT",
        -10.43462423665341
      ],
      [
        "jn",
        -10.437478868525748
      ],
      [
        "MSI",
        -10.438805301526575
      ],
      [
        "oO",
        -10.439260885294463
      ],
      [
        "gm",
        -10.440050935010003
      ],
      [
        "208",
        -10.440612891369428
      ],
      [
        "eta",
        -10.44091980940997
      ],
      [
        "iee",
        -10.442050754874504
      ],
      [
        "ate",
        -10.442878689615808
      ],
      [
        "Ni",
        -10.444168545661345
      ],
      [
        "yd",
        -10.44620217300053
      ],
      [
        "Is",
        -10.446998976387022
      ],
      [
        "estil",
        -10.449539693435206
      ],
      [
        "idA",
        -10.450034231720345
      ],
      [
        "s7",
        -10.451298571275508
      ],
      [
        "wm",
        -10.451333154005866
      ],
      [
        "nO",
        -10.454885425989943
      ],
      [
        "hk",
        -10.455690106243617
      ],
      [
        "null",
        -10.456768519103573
      ],
      [
        "239",
        -10.457414451669637
      ],
      [
        "191",
        -10.460325818983529
      ],
      [
        "mf",
        -10.46279342824134
      ],
      [
        "les",
        -10.464783965643065
      ],
      [
        "cf",
        -10.465577902553918
      ],
      [
        "zr",
        -10.467117598395877
      ],
      [
        "2f",
        -10.470045916108365
      ],
      [
        "link",
        -10.470314121026966
      ],
      [
        "rk",
        -10.471918732303333
      ],
      [
        "mocha",
        -10.472247989108187
      ],
      [
        "106",
        -10.478228817403178
      ],
      [
        "ero",
        -10.478433510169772
      ],
      [
        "204",
        -10.480429365872357
      ],
      [
        "6i",
        -10.481085644699295
      ],
      [
        "7i",
        -10.48200320976706
      ],
      [
        "nsf",
        -10.483858679897573
      ],
      [
        "nv",
        -10.483892729085415
      ],
      [
        "ana",
        -10.484893135810745
      ],
      [
        "input",
        -10.485447840115864
      ],
      [
        "i6",
        -10.492716703855642
      ],
      [
        "Bdocument",
        -10.492826056149838
      ],
      [
        "ish",
        -10.493233624345216
      ],
      [
        "186",
        -10.49385575302253
      ],
      [
        "192",
        -10.494807046126873
      ],
      [
        "sun",
        -10.495141101996015
      ],
      [
        "155",
        -10.495254666482463
      ],
      [
        "drop",
        -10.495539179951738
      ],
      [
        "244",
        -10.499181692305402
      ],
      [
        "cg",
        -10.503209031379269
      ],
      [
        "delete",
        -10.503767234735484
      ],
      [
        "253F",
        -10.505917644729923
      ],
      [
        "136",
        -10.508917374476713
      ],
      [
        "aR",
        -10.508986935423625
      ],
      [
        "jr",
        -10.509634720678772
      ],
      [
        "netcat",
        -10.509924174016763
      ],
      [
        "143",
        -10.510889626061648
      ],
      [
        "nj",
        -10.512744665050553
      ],
      [
        "tee",
        -10.512977153214731
      ],
      [
        "233",
        -10.514134792288026
      ],
      [
        "236",
        -10.514821221603825
      ],
      [
        "bm",
        -10.515179768551246
      ],
      [
        "ing",
        -10.515650393058674
      ],
      [
        "vn",
        -10.516738022191001
      ],
      [
        "zn",
        -10.517881031564215
      ],
      [
        "bgsound",
        -10.520751027569606
      ],
      [
        "wu",
        -10.52616278079094
      ],
      [
        "207",
        -10.527079688093103
      ],
      [
        "189",
        -10.527094183414363
      ],
      [
        "services",
        -10.52986272019352
      ],
      [
        "134",
        -10.531228370012828
      ],
      [
        "r7",
        -10.531527418974054
      ],
      [
        "ter",
        -10.531541033544595
      ],
      [
        "203",
        -10.531783523210116
      ],
      [
        "209",
        -10.533850685563237
      ],
      [
        "201",
        -10.534349699676163
      ],
      [
        "hv",
        -10.535382427335046
      ],
      [
        "s2",
        -10.53570366789161
      ],
      [
        "https",
        -10.536778782796747
      ],
      [
        "2561",
        -10.538195096585147
      ],
      [
        "154",
        -10.539112719082702
      ],
      [
        "eei",
        -10.539374842001642
      ],
      [
        "221",
        -10.540334728654585
      ],
      [
        "130",
        -10.540862779397221
      ],
      [
        "242",
        -10.542200545623194
      ],
      [
        "zh",
        -10.542627640099795
      ],
      [
        "243",
        -10.543363376039856
      ],
      [
        "Vi",
        -10.54432503316696
      ],
      [
        "180",
        -10.544531076055108
      ],
      [
        "mg",
        -10.54458423193974
      ],
      [
        "107",
        -10.546643903218825
      ],
      [
        "230",
        -10.54809162864059
      ],
      [
        "ite",
        -10.54860899081687
      ],
      [
        "174",
        -10.549116536884073
      ],
      [
        "i2",
        -10.55003366843248
      ],
      [
        "251",
        -10.550080396438263
      ],
      [
        "ber",
        -10.551100749530857
      ],
      [
        "err",
        -10.551855337047952
      ],
      [
        "asm",
        -10.55293399304264
      ],
      [
        "153",
        -10.553280830807903
      ],
      [
        "eeo",
        -10.554084132090814
      ],
      [
        "ert",
        -10.554388156554953
      ],
      [
        "fc",
        -10.558953641972927
      ],
      [
        "108",
        -10.559083529000295
      ],
      [
        "eae",
        -10.561423361380696
      ],
      [
        "tes",
        -10.561860302836752
      ],
      [
        "6s",
        -10.561870900447765
      ],
      [
        "ym",
        -10.562319148158117
      ],
      [
        "aO",
        -10.566008691439528
      ],
      [
        "fm",
        -10.566259820621948
      ],
      [
        "2i",
        -10.56794707370419
      ],
      [
        "iN",
        -10.570083016327509
      ],
      [
        "232",
        -10.570955113045521
      ],
      [
        "r6",
        -10.573178661920515
      ],
      [
        "158",
        -10.574455560070382
      ],
      [
        "vr",
        -10.575439492546979
      ],
      [
        "s4",
        -10.576026197202562
      ],
      [
        "183",
        -10.576083526026746
      ],
      [
        "246",
        -10.576508359536042
      ],
      [
        "247",
        -10.577690459709675
      ],
      [
        "ast",
        -10.5797841904445
      ],
      [
        "235",
        -10.580512605886266
      ],
      [
        "ote",
        -10.581071777354943
      ],
      [
        "hj",
        -10.584303751673897
      ],
      [
        "231",
        -10.586668324240627
      ],
      [
        "196",
        -10.587290576389673
      ],
      [
        "aI",
        -10.59062768262822
      ],
      [
        "vh",
        -10.591747358775148
      ],
      [
        "197",
        -10.592225654612982
      ],
      [
        "135",
        -10.592246734471011
      ],
      [
        "ere",
        -10.593720649198453
      ],
      [
        "bp",
        -10.59384419902091
      ],
      [
        "ara",
        -10.594683983681454
      ],
      [
        "133",
        -10.595037783710625
      ],
      [
        "iI",
        -10.595264692816986
      ],
      [
        "Anode",
        -10.59534285421715
      ],
      [
        "184",
        -10.596807497474227
      ],
      [
        "yy",
        -10.597747267726827
      ],
      [
        "138",
        -10.597795601174221
      ],
      [
        "gf",
        -10.597866606817416
      ],
      [
        "4s",
        -10.598355711949274
      ],
      [
        "248",
        -10.59955459556171
      ],
      [
        "182",
        -10.599938347844613
      ],
      [
        "152",
        -10.602326963964266
      ],
      [
        "131",
        -10.60288622152041
      ],
      [
        "cw",
        -10.603602232118739
      ],
      [
        "mar",
        -10.605152548225
      ],
      [
        "man",
        -10.605247690081395
      ],
      [
        "kh",
        -10.60598683292416
      ],
      [
        "pf",
        -10.606102194779638
      ],
      [
        "249",
        -10.608143250949047
      ],
      [
        "py",
        -10.60859538945128
      ],
      [
        "169",
        -10.609115422661976
      ],
      [
        "sN",
        -10.610944352261313
      ],
      [
        "Ia",
        -10.612715312472282
      ],
      [
        "194",
        -10.614607407589007
      ],
      [
        "uj",
        -10.615395388037296
      ],
      [
        "sR",
        -10.61810170195885
      ],
      [
        "199",
        -10.619694047155793
      ],
      [
        "rI",
        -10.619816485656942
      ],
      [
        "sI",
        -10.620270130384029
      ],
      [
        "255",
        -10.620354763829384
      ],
      [
        "tor",
        -10.621106429951869
      ],
      [
        "177",
        -10.621253881865705
      ],
      [
        "rcp",
        -10.621597355719354
      ],
      [
        "rte",
        -10.622391546888188
      ],
      [
        "139",
        -10.623125059661312
      ],
      [
        "185",
        -10.623147628739941
      ],
      [
        "yg",
        -10.62344638963179
      ],
      [
        "ff",
        -10.623719319067996
      ],
      [
        "ros",
        -10.623816220537275
      ],
      [
        "bb",
        -10.623981266233237
      ],
      [
        "sO",
        -10.624844607969225
      ],
      [
        "Mar",
        -10.624972584339723
      ],
      [
        "Os",
        -10.62910569283769
      ],
      [
        "217",
        -10.62927162328236
      ],
      [
        "132",
        -10.632555823311254
      ],
      [
        "166",
        -10.633299066161737
      ],
      [
        "rO",
        -10.63378957786997
      ],
      [
        "gg",
        -10.634455499330558
      ],
      [
        "cfm",
        -10.634553455355956
      ],
      [
        "104",
        -10.634596059974257
      ],
      [
        "150",
        -10.63516887683497
      ],
      [
        "oot",
        -10.63883725386656
      ],
      [
        "179",
        -10.64061520702802
      ],
      [
        "200",
        -10.642706514379714
      ],
      [
        "165",
        -10.642777532161181
      ],
      [
        "lk",
        -10.645113321278236
      ],
      [
        "wc",
        -10.646294213539464
      ],
      [
        "187",
        -10.648392660965161
      ],
      [
        "234",
        -10.64888431481575
      ],
      [
        "40c",
        -10.649387628958934
      ],
      [
        "168",
        -10.649947136778433
      ],
      [
        "ner",
        -10.651055135189957
      ],
      [
        "241",
        -10.651611230635787
      ],
      [
        "2529",
        -10.651837942862018
      ],
      [
        "ess",
        -10.652234995902386
      ],
      [
        "cia",
        -10.65258353509218
      ],
      [
        "173",
        -10.65434952679222
      ],
      [
        "perl",
        -10.654503403865842
      ],
      [
        "gy",
        -10.654914825942196
      ],
      [
        "Oa",
        -10.654961531593631
      ],
      [
        "163",
        -10.655197717934996
      ],
      [
        "arr",
        -10.655748134957008
      ],
      [
        "wf",
        -10.65606306116944
      ],
      [
        "WHERE",
        -10.656552314007495
      ],
      [
        "190",
        -10.659405790707067
      ],
      [
        "2528",
        -10.659572702074083
      ],
      [
        "tte",
        -10.660423439058395
      ],
      [
        "141",
        -10.66236269409378
      ],
      [
        "111",
        -10.66412908530232
      ],
      [
        "146",
        -10.66456595577786
      ],
      [
        "dll",
        -10.666423364766136
      ],
      [
        "nee",
        -10.666950392479485
      ],
      [
        "215",
        -10.667187973515997
      ],
      [
        "dj",
        -10.668273943913732
      ],
      [
        "jh",
        -10.668827123789441
      ],
      [
        "205",
        -10.670697658350267
      ],
      [
        "181",
        -10.671069826219584
      ],
      [
        "dz",
        -10.672111600407604
      ],
      [
        "101",
        -10.67269717731141
      ],
      [
        "ers",
        -10.674459911426066
      ],
      [
        "4h",
        -10.675261286388986
      ],
      [
        "258",
        -10.675910787903806
      ],
      [
        "eri",
        -10.676687745207367
      ],
      [
        "109",
        -10.678963678666202
      ],
      [
        "mdb",
        -10.680694365199635
      ],
      [
        "118",
        -10.681131800194095
      ],
      [
        "176",
        -10.682003024863356
      ],
      [
        "754",
        -10.68262430479821
      ],
      [
        "h7",
        -10.683878613832391
      ],
      [
        "245",
        -10.684374806088329
      ],
      [
        "oet",
        -10.686091745454256
      ],
      [
        "144",
        -10.68771207855413
      ],
      [
        "h4",
        -10.687774226349095
      ],
      [
        "SELECT",
        -10.688217268314432
      ],
      [
        "rR",
        -10.690527681960349
      ],
      [
        "toe",
        -10.69273798637218
      ],
      [
        "ran",
        -10.694094942009013
      ],
      [
        "237",
        -10.694162352793057
      ],
      [
        "178",
        -10.694525563623678
      ],
      [
        "102",
        -10.695377858628314
      ],
      [
        "3342",
        -10.697169566140715
      ],
      [
        "kl",
        -10.698838778627595
      ],
      [
        "149",
        -10.699856946635643
      ],
      [
        "unO",
        -10.700923722127985
      ],
      [
        "lz",
        -10.70113632809031
      ],
      [
        "gw",
        -10.70175722519351
      ],
      [
        "188",
        -10.701809002091142
      ],
      [
        "tea",
        -10.701904760777005
      ],
      [
        "bat",
        -10.70347876706862
      ],
      [
        "226",
        -10.704316758711585
      ],
      [
        "pw",
        -10.706351356312984
      ],
      [
        "175",
        -10.707367616555857
      ],
      [
        "ucs",
        -10.707391605668283
      ],
      [
        "263",
        -10.70777744025879
      ],
      [
        "306",
        -10.708506970302835
      ],
      [
        "2527",
        -10.709194348211955
      ],
      [
        "2FN",
        -10.711426121901113
      ],
      [
        "iO",
        -10.71202796871247
      ],
      [
        "193",
        -10.712518892381368
      ],
      [
        "iet",
        -10.71286332313038
      ],
      [
        "bw",
        -10.712917739279662
      ],
      [
        "ona",
        -10.71350879844088
      ],
      [
        "ment",
        -10.713558511235625
      ],
      [
        "ras",
        -10.716649681495415
      ],
      [
        "tra",
        -10.717075200975007
      ],
      [
        "137",
        -10.717469381713208
      ],
      [
        "147",
        -10.717501192744862
      ],
      [
        "116",
        -10.717680924689628
      ],
      [
        "post",
        -10.718221417618455
      ],
      [
        "tet",
        -10.718274966172142
      ],
      [
        "ku",
        -10.718319635499594
      ],
      [
        "pg",
        -10.719026228169813
      ],
      [
        "486",
        -10.719690995330156
      ],
      [
        "7s",
        -10.71986870307482
      ],
      [
        "458",
        -10.719922709926212
      ],
      [
        "msp",
        -10.726507669306509
      ],
      [
        "jis",
        -10.726826896424615
      ],
      [
        "reek",
        -10.72844131547142
      ],
      [
        "253C",
        -10.729865287834254
      ],
      [
        "142",
        -10.730139556957042
      ],
      [
        "2573",
        -10.730377311538959
      ],
      [
        "7h",
        -10.731556684034818
      ],
      [
        "bf",
        -10.731792126457282
      ],
      [
        "113",
        -10.732026277071157
      ],
      [
        "119",
        -10.733160231896429
      ],
      [
        "vd",
        -10.73421169192364
      ],
      [
        "Oi",
        -10.737750361560497
      ],
      [
        "hO",
        -10.740121277031893
      ],
      [
        "1255",
        -10.740179519513319
      ],
      [
        "paros",
        -10.740190386753255
      ],
      [
        "eer",
        -10.740277033940725
      ],
      [
        "F1a",
        -10.740441510361478
      ],
      [
        "eoa",
        -10.741601920115032
      ],
      [
        "dk",
        -10.742450201749543
      ],
      [
        "160",
        -10.74377995135756
      ],
      [
        "eie",
        -10.746010656641786
      ],
      [
        "ier",
        -10.750240414266258
      ],
      [
        "1987",
        -10.751306328747907
      ],
      [
        "rtf",
        -10.752043670100583
      ],
      [
        "219",
        -10.752572638305622
      ],
      [
        "307",
        -10.753351147765585
      ],
      [
        "5601",
        -10.75537066908606
      ],
      [
        "ien",
        -10.756078274858574
      ],
      [
        "per",
        -10.75617310861378
      ],
      [
        "user",
        -10.756933795517565
      ],
      [
        "685",
        -10.757140946068189
      ],
      [
        "148",
        -10.757590139328054
      ],
      [
        "114",
        -10.758700924992652
      ],
      [
        "ver",
        -10.758958145137886
      ],
      [
        "459",
        -10.759559991955353
      ],
      [
        "Ii",
        -10.760068541519388
      ],
      [
        "d7",
        -10.760103670230215
      ],
      [
        "ato",
        -10.760115040168294
      ],
      [
        "ria",
        -10.760310353464352
      ],
      [
        "Ol",
        -10.760775578347559
      ],
      [
        "wg",
        -10.763458573394965
      ],
      [
        "yf",
        -10.763874769034757
      ],
      [
        "bar",
        -10.764450760833707
      ],
      [
        "195",
        -10.7652770313146
      ],
      [
        "asci",
        -10.765472208929229
      ],
      [
        "110",
        -10.765540262942997
      ],
      [
        "931",
        -10.76581252852588
      ],
      [
        "aoe",
        -10.767051548598474
      ],
      [
        "ita",
        -10.767155126516657
      ],
      [
        "456",
        -10.768639214864574
      ],
      [
        "fg",
        -10.769593669584165
      ],
      [
        "213",
        -10.769705364273168
      ],
      [
        "bg",
        -10.771220734904656
      ],
      [
        "112",
        -10.771531102441365
      ],
      [
        "eot",
        -10.77195657533277
      ],
      [
        "cv",
        -10.773982382637985
      ],
      [
        "h6",
        -10.774525411341578
      ],
      [
        "ww",
        -10.775021265541653
      ],
      [
        "pb",
        -10.775555683160954
      ],
      [
        "d4",
        -10.776217702919414
      ],
      [
        "172",
        -10.777918599819568
      ],
      [
        "162",
        -10.778153788450673
      ],
      [
        "roman",
        -10.778216245245124
      ],
      [
        "454",
        -10.77928760705431
      ],
      [
        "aris",
        -10.780314684145617
      ],
      [
        "353",
        -10.781384935621222
      ],
      [
        "ica",
        -10.781717777163852
      ],
      [
        "250D",
        -10.782451756985884
      ],
      [
        "170",
        -10.783876227895409
      ],
      [
        "256E",
        -10.784953192622618
      ],
      [
        "Rs",
        -10.787501820911412
      ],
      [
        "145",
        -10.787704980294512
      ],
      [
        "sto",
        -10.78973389449776
      ],
      [
        "126",
        -10.790713590828034
      ],
      [
        "fw",
        -10.79160571333253
      ],
      [
        "2570",
        -10.792681278766512
      ],
      [
        "1252",
        -10.794711571420986
      ],
      [
        "isiri",
        -10.79567230305003
      ],
      [
        "yw",
        -10.796033718887868
      ],
      [
        "1254",
        -10.79714681755079
      ],
      [
        "218",
        -10.79716598266728
      ],
      [
        "1258",
        -10.797931143079477
      ],
      [
        "252E",
        -10.798205158098426
      ],
      [
        "uv",
        -10.798316334376814
      ],
      [
        "1250",
        -10.799007351811461
      ],
      [
        "macin",
        -10.799062072790335
      ],
      [
        "lass",
        -10.801152433529712
      ],
      [
        "ree",
        -10.801443905174565
      ],
      [
        "10646",
        -10.80213219652496
      ],
      [
        "wb",
        -10.802501012030088
      ],
      [
        "shif",
        -10.8034919014023
      ],
      [
        "6h",
        -10.804422797946494
      ],
      [
        "lI",
        -10.805091307236767
      ],
      [
        "swf",
        -10.806265795172301
      ],
      [
        "3FB",
        -10.806980851401743
      ],
      [
        "ks_c",
        -10.80767888821369
      ],
      [
        "ort",
        -10.811824454305114
      ],
      [
        "404",
        -10.812846466316323
      ],
      [
        "seo",
        -10.813803422155129
      ],
      [
        "489",
        -10.815103067608707
      ],
      [
        "1251",
        -10.815385529171131
      ],
      [
        "4l",
        -10.815485345501695
      ],
      [
        "fb",
        -10.8159527147399
      ],
      [
        "mer",
        -10.817131953061185
      ],
      [
        "hee",
        -10.81728109159099
      ],
      [
        "956",
        -10.817592866923505
      ],
      [
        "dI",
        -10.817616228469337
      ],
      [
        "lin",
        -10.818399686540108
      ],
      [
        "202",
        -10.818718017746882
      ],
      [
        "big5",
        -10.819972991729054
      ],
      [
        "10412",
        -10.820115598602504
      ],
      [
        "turk",
        -10.82024188996677
      ],
      [
        "74727",
        -10.82046950768978
      ],
      [
        "164",
        -10.821162591417579
      ],
      [
        "Il",
        -10.822314740319706
      ],
      [
        "453",
        -10.822688510588307
      ],
      [
        "480",
        -10.82308810535813
      ],
      [
        "soe",
        -10.823134232060646
      ],
      [
        "msf",
        -10.823212406924247
      ],
      [
        "484",
        -10.825855603373022
      ],
      [
        "640110",
        -10.82597586959427
      ],
      [
        "cha",
        -10.826835331539748
      ],
      [
        "zu",
        -10.827845826253483
      ],
      [
        "ret",
        -10.828975938580152
      ],
      [
        "l6",
        -10.830204830439762
      ],
      [
        "eeh",
        -10.830319917362761
      ],
      [
        "171",
        -10.830399936337269
      ],
      [
        "wy",
        -10.83068372155335
      ],
      [
        "mz",
        -10.832589325778725
      ],
      [
        "886",
        -10.832729815379233
      ],
      [
        "orean",
        -10.832734124216426
      ],
      [
        "esa",
        -10.833065352029587
      ],
      [
        "904",
        -10.834889354377239
      ],
      [
        "ual",
        -10.837045229751691
      ],
      [
        "hebre",
        -10.838573230351995
      ],
      [
        "ju",
        -10.838811097006348
      ],
      [
        "117",
        -10.838998121106297
      ],
      [
        "Oh",
        -10.839011808305159
      ],
      [
        "216",
        -10.839075926451738
      ],
      [
        "ado",
        -10.840227026748533
      ],
      [
        "trad",
        -10.840736260156401
      ],
      [
        "sea",
        -10.841914737918955
      ],
      [
        "yb",
        -10.842069239603733
      ],
      [
        "958",
        -10.843112030093282
      ],
      [
        "264",
        -10.84353983829686
      ],
      [
        "259",
        -10.845823913075929
      ],
      [
        "389",
        -10.845915510277106
      ],
      [
        "eat",
        -10.846166062741023
      ],
      [
        "ipt",
        -10.847546031437362
      ],
      [
        "054",
        -10.848990184496792
      ],
      [
        "japa",
        -10.851178064244014
      ],
      [
        "inc",
        -10.851903527457754
      ],
      [
        "zd",
        -10.853128330574169
      ],
      [
        "450",
        -10.855537824409726
      ],
      [
        "her",
        -10.856554042001878
      ],
      [
        "986",
        -10.857808228937857
      ],
      [
        "357",
        -10.85796318389445
      ],
      [
        "rto",
        -10.858807137609109
      ],
      [
        "907",
        -10.8589699973765
      ],
      [
        "llic",
        -10.859243314667012
      ],
      [
        "lj",
        -10.860773180260512
      ],
      [
        "837",
        -10.860797028718153
      ],
      [
        "m7",
        -10.862372390453933
      ],
      [
        "604",
        -10.862831017738213
      ],
      [
        "ttt",
        -10.862907933203335
      ],
      [
        "834",
        -10.86356264797791
      ],
      [
        "edo",
        -10.86381264801021
      ],
      [
        "eao",
        -10.864782610687802
      ],
      [
        "606",
        -10.865162126737744
      ],
      [
        "iR",
        -10.86528121604206
      ],
      [
        "teo",
        -10.865954591368652
      ],
      [
        "266",
        -10.86660012803315
      ],
      [
        "fy",
        -10.867373544583348
      ],
      [
        "6d",
        -10.87010001437151
      ],
      [
        "214",
        -10.871344738042282
      ],
      [
        "ito",
        -10.871476648716492
      ],
      [
        "557",
        -10.87169638039721
      ],
      [
        "mk",
        -10.87181565306512
      ],
      [
        "vu",
        -10.873734607604868
      ],
      [
        "zl",
        -10.873938636850227
      ],
      [
        "lan",
        -10.87703587467005
      ],
      [
        "359",
        -10.8771207899486
      ],
      [
        "Nu",
        -10.877592325850266
      ],
      [
        "212",
        -10.879689162377941
      ],
      [
        "482",
        -10.880200258680608
      ],
      [
        "hI",
        -10.886951975402225
      ],
      [
        "objectC",
        -10.887677405720835
      ],
      [
        "nese",
        -10.889561552368676
      ],
      [
        "cyri",
        -10.889784311116276
      ],
      [
        "zip",
        -10.889836934417161
      ],
      [
        "474",
        -10.890274596227314
      ],
      [
        "lR",
        -10.890316391246447
      ],
      [
        "eit",
        -10.89101940236817
      ],
      [
        "illo",
        -10.89159593269292
      ],
      [
        "ler",
        -10.89171953735317
      ],
      [
        "pro",
        -10.891955155799195
      ],
      [
        "eed",
        -10.892177043229442
      ],
      [
        "ard",
        -10.89251061431192
      ],
      [
        "708",
        -10.89369214969628
      ],
      [
        "737",
        -10.89425417601546
      ],
      [
        "906",
        -10.894523605330502
      ],
      [
        "tei",
        -10.894621461720888
      ],
      [
        "dv",
        -10.895058230109306
      ],
      [
        "att",
        -10.895572769918868
      ],
      [
        "simp",
        -10.89655190501916
      ],
      [
        "tti",
        -10.89794107207507
      ],
      [
        "itt",
        -10.898233913145368
      ],
      [
        "989",
        -10.899408378463594
      ],
      [
        "933",
        -10.899441020018726
      ],
      [
        "903",
        -10.901526000856183
      ],
      [
        "u7",
        -10.903775560156433
      ],
      [
        "asa",
        -10.905150562735944
      ],
      [
        "car",
        -10.908594839859926
      ],
      [
        "yp",
        -10.908858696893478
      ],
      [
        "757",
        -10.90919912820988
      ],
      [
        "der",
        -10.909918564707432
      ],
      [
        "mI",
        -10.910261108513371
      ],
      [
        "437",
        -10.910564243137028
      ],
      [
        "7m",
        -10.91125869779926
      ],
      [
        "oto",
        -10.911396659804065
      ],
      [
        "607",
        -10.91250187530052
      ],
      [
        "icel",
        -10.912809851233146
      ],
      [
        "988",
        -10.913412069482781
      ],
      [
        "ora",
        -10.915541051640584
      ],
      [
        "707",
        -10.91698016168353
      ],
      [
        "lei",
        -10.918014309303398
      ],
      [
        "rre",
        -10.918965957854585
      ],
      [
        "937",
        -10.919035738832179
      ],
      [
        "ern",
        -10.919575774381476
      ],
      [
        "dO",
        -10.919727480250721
      ],
      [
        "mO",
        -10.92038436574785
      ],
      [
        "559",
        -10.924321509082535
      ],
      [
        "lO",
        -10.924812207043741
      ],
      [
        "309",
        -10.925174548032196
      ],
      [
        "eto",
        -10.926058519501064
      ],
      [
        "vl",
        -10.927218393007841
      ],
      [
        "753",
        -10.928271512004429
      ],
      [
        "cj",
        -10.92851293088695
      ],
      [
        "953",
        -10.929417211862916
      ],
      [
        "3include",
        -10.933362759027926
      ],
      [
        "658",
        -10.934047346933188
      ],
      [
        "pv",
        -10.93528306174083
      ],
      [
        "cI",
        -10.935453115990907
      ],
      [
        "d6",
        -10.93582731169482
      ],
      [
        "ooe",
        -10.936367086604939
      ],
      [
        "706",
        -10.938764920478604
      ],
      [
        "896",
        -10.940621454884841
      ],
      [
        "198",
        -10.94097370013961
      ],
      [
        "lee",
        -10.941951481715105
      ],
      [
        "gra",
        -10.942380465811404
      ],
      [
        "php4",
        -10.94270016233266
      ],
      [
        "tie",
        -10.943445811834989
      ],
      [
        "755",
        -10.944434666805016
      ],
      [
        "767",
        -10.944451893504299
      ],
      [
        "jl",
        -10.945675023496158
      ],
      [
        "854",
        -10.94577555114195
      ],
      [
        "zm",
        -10.945815169045137
      ],
      [
        "161",
        -10.946103353325277
      ],
      [
        "dR",
        -10.948573747369096
      ],
      [
        "609",
        -10.94962413798183
      ],
      [
        "m6",
        -10.950020489547963
      ],
      [
        "982",
        -10.950483376114647
      ],
      [
        "jm",
        -10.950863959445751
      ],
      [
        "758",
        -10.952984918795138
      ],
      [
        "mj",
        -10.95353656795179
      ],
      [
        "686",
        -10.954155625541082
      ],
      [
        "tto",
        -10.954421677725724
      ],
      [
        "ico",
        -10.955028709491277
      ],
      [
        "eti",
        -10.955373788249396
      ],
      [
        "andic",
        -10.9578031111195
      ],
      [
        "806",
        -10.960438246865976
      ],
      [
        "636",
        -10.961692790831847
      ],
      [
        "ect",
        -10.961832711504563
      ],
      [
        "701",
        -10.961927955185342
      ],
      [
        "759",
        -10.962102464049163
      ],
      [
        "eoo",
        -10.962710789378566
      ],
      [
        "kc",
        -10.962746658190198
      ],
      [
        "aet",
        -10.962831849442061
      ],
      [
        "Rd",
        -10.963151989037765
      ],
      [
        "1253",
        -10.963208954672371
      ],
      [
        "267",
        -10.963391479941674
      ],
      [
        "Uni",
        -10.963837778739315
      ],
      [
        "2Fscript",
        -10.964113726179043
      ],
      [
        "3FF",
        -10.96448596789255
      ],
      [
        "ira",
        -10.964650027811002
      ],
      [
        "jd",
        -10.965444288211176
      ],
      [
        "uI",
        -10.965745999948188
      ],
      [
        "984",
        -10.968631420162671
      ],
      [
        "496",
        -10.968742172813418
      ],
      [
        "269",
        -10.969464791748727
      ],
      [
        "1257",
        -10.970811631717304
      ],
      [
        "689",
        -10.971372855309093
      ],
      [
        "str",
        -10.971427623103018
      ],
      [
        "nie",
        -10.97199743593282
      ],
      [
        "485",
        -10.972397351187048
      ],
      [
        "387",
        -10.973523410030324
      ],
      [
        "eaa",
        -10.974617675659143
      ],
      [
        "let",
        -10.974659704765422
      ],
      [
        "608",
        -10.97543145574874
      ],
      [
        "u6",
        -10.975523910317854
      ],
      [
        "883",
        -10.978134682837364
      ],
      [
        "304",
        -10.978531099951404
      ],
      [
        "ott",
        -10.979220522295929
      ],
      [
        "ser",
        -10.979793941759652
      ],
      [
        "Ih",
        -10.980881459078187
      ],
      [
        "las",
        -10.981719091913565
      ],
      [
        "006",
        -10.982632915215191
      ],
      [
        "383",
        -10.983149980711111
      ],
      [
        "504",
        -10.983447873241055
      ],
      [
        "kd",
        -10.983886148627887
      ],
      [
        "ias",
        -10.984036063431667
      ],
      [
        "tta",
        -10.984110295129774
      ],
      [
        "ota",
        -10.9843074862067
      ],
      [
        "vc",
        -10.984503776821457
      ],
      [
        "908",
        -10.984759780023719
      ],
      [
        "system3",
        -10.98661001415018
      ],
      [
        "807",
        -10.988830579613964
      ],
      [
        "605",
        -10.990747035603103
      ],
      [
        "433",
        -10.99345579411223
      ],
      [
        "kw",
        -10.99363210689555
      ],
      [
        "987",
        -10.993772631381013
      ],
      [
        "2572",
        -10.994731362043826
      ],
      [
        "rio",
        -10.998043906522767
      ],
      [
        "wz",
        -11.002227455723748
      ],
      [
        "oea",
        -11.00453230200396
      ],
      [
        "tel",
        -11.005691893224899
      ],
      [
        "983",
        -11.009093016409981
      ],
      [
        "731",
        -11.010554067258077
      ],
      [
        "452",
        -11.010819595757276
      ],
      [
        "aei",
        -11.010832089345438
      ],
      [
        "377",
        -11.011411451349232
      ],
      [
        "912",
        -11.013195165163907
      ],
      [
        "km",
        -11.014967009234127
      ],
      [
        "zw",
        -11.015103744173256
      ],
      [
        "733",
        -11.015398033767067
      ],
      [
        "481",
        -11.015541882900603
      ],
      [
        "653",
        -11.016717963468409
      ],
      [
        "uR",
        -11.017251383512
      ],
      [
        "734",
        -11.018478448445006
      ],
      [
        "zp",
        -11.021150398334417
      ],
      [
        "833",
        -11.021437174972599
      ],
      [
        "356",
        -11.021571055579269
      ],
      [
        "709",
        -11.022476900558123
      ],
      [
        "434",
        -11.024256368101305
      ],
      [
        "aot",
        -11.026285056905323
      ],
      [
        "pk",
        -11.027076311860412
      ],
      [
        "654",
        -11.027817420716316
      ],
      [
        "src",
        -11.027974994092041
      ],
      [
        "957",
        -11.029068606869792
      ],
      [
        "ets",
        -11.02914632460691
      ],
      [
        "457",
        -11.029794750692782
      ],
      [
        "iel",
        -11.03062636668794
      ],
      [
        "488",
        -11.03074641198798
      ],
      [
        "nne",
        -11.031123878014743
      ],
      [
        "443",
        -11.031568325497116
      ],
      [
        "483",
        -11.031614259071606
      ],
      [
        "Id",
        -11.031664307125126
      ],
      [
        "286",
        -11.035109706698464
      ],
      [
        "rti",
        -11.035222109725778
      ],
      [
        "aes",
        -11.035471250502361
      ],
      [
        "554",
        -11.03673144546317
      ],
      [
        "981",
        -11.03687168138131
      ],
      [
        "657",
        -11.037627575762187
      ],
      [
        "mv",
        -11.037679171288975
      ],
      [
        "506",
        -11.039350929028505
      ],
      [
        "oeo",
        -11.03995198079953
      ],
      [
        "sti",
        -11.039955779268544
      ],
      [
        "638",
        -11.039970432893806
      ],
      [
        "954",
        -11.040306770256839
      ],
      [
        "sei",
        -11.041460738593898
      ],
      [
        "8325",
        -11.04275543266002
      ],
      [
        "zg",
        -11.043198769745667
      ],
      [
        "646",
        -11.044359127237303
      ],
      [
        "etr",
        -11.045085804768181
      ],
      [
        "php3",
        -11.045344707043775
      ],
      [
        "703",
        -11.045902521587394
      ],
      [
        "256C",
        -11.046008187478737
      ],
      [
        "449",
        -11.046112679950818
      ],
      [
        "zy",
        -11.052002532845595
      ],
      [
        "224",
        -11.05222297185194
      ],
      [
        "256D",
        -11.054811894295959
      ],
      [
        "959",
        -11.056430273887688
      ],
      [
        "anc",
        -11.057045706599288
      ],
      [
        "Od",
        -11.057718386019467
      ],
      [
        "985",
        -11.058300180995955
      ],
      [
        "eli",
        -11.058957557442035
      ],
      [
        "oae",
        -11.059085560402977
      ],
      [
        "687",
        -11.059517308949756
      ],
      [
        "ati",
        -11.05956728715685
      ],
      [
        "rra",
        -11.06119079903414
      ],
      [
        "eme",
        -11.061880758170204
      ],
      [
        "nda",
        -11.062352796990758
      ],
      [
        "256B",
        -11.062581946986324
      ],
      [
        "994",
        -11.063635610537123
      ],
      [
        "705",
        -11.064675436163718
      ],
      [
        "684",
        -11.067432332691691
      ],
      [
        "rne",
        -11.0680745361856
      ],
      [
        "602",
        -11.0691146373483
      ],
      [
        "447",
        -11.070559345488663
      ],
      [
        "651",
        -11.07072573673814
      ],
      [
        "iea",
        -11.072031727279066
      ],
      [
        "ill",
        -11.072040981549293
      ],
      [
        "764",
        -11.072584162782116
      ],
      [
        "jc",
        -11.077010601379286
      ],
      [
        "ky",
        -11.077405379736362
      ],
      [
        "eoi",
        -11.079241818361195
      ],
      [
        "497",
        -11.079526486247826
      ],
      [
        "464",
        -11.079840751021006
      ],
      [
        "toa",
        -11.080563868842727
      ],
      [
        "639",
        -11.080782536586952
      ],
      [
        "966",
        -11.080942615292134
      ],
      [
        "979",
        -11.082595067360806
      ],
      [
        "796",
        -11.082629087496898
      ],
      [
        "633",
        -11.083011980248086
      ],
      [
        "777",
        -11.084653582027453
      ],
      [
        "rta",
        -11.086570861990094
      ],
      [
        "976",
        -11.087129461867795
      ],
      [
        "ami",
        -11.087293003333183
      ],
      [
        "852",
        -11.090160300535832
      ],
      [
        "935",
        -11.090810049715518
      ],
      [
        "uO",
        -11.091484492487563
      ],
      [
        "vm",
        -11.09158445711346
      ],
      [
        "aoo",
        -11.092533986893322
      ],
      [
        "726",
        -11.092902262003413
      ],
      [
        "614",
        -11.095435984830981
      ],
      [
        "3FD",
        -11.097023930422477
      ],
      [
        "kf",
        -11.097024782747516
      ],
      [
        "631",
        -11.099614356004722
      ],
      [
        "los",
        -11.099693972935512
      ],
      [
        "477",
        -11.099959881576632
      ],
      [
        "yv",
        -11.10054032348544
      ],
      [
        "ies",
        -11.101097544772214
      ],
      [
        "659",
        -11.102589766257676
      ],
      [
        "999",
        -11.104422943114319
      ],
      [
        "487",
        -11.105369829405667
      ],
      [
        "sch",
        -11.105589281873192
      ],
      [
        "436",
        -11.106134725786049
      ],
      [
        "354",
        -11.108209491071491
      ],
      [
        "2787",
        -11.109156343929222
      ],
      [
        "786",
        -11.111075644310683
      ],
      [
        "fk",
        -11.111597640754432
      ],
      [
        "949",
        -11.111738066320575
      ],
      [
        "rri",
        -11.113330848333174
      ],
      [
        "tnn",
        -11.114283037265384
      ],
      [
        "wj",
        -11.115878068394167
      ],
      [
        "lia",
        -11.116506728514457
      ],
      [
        "fI",
        -11.117152123582464
      ],
      [
        "aea",
        -11.117237718066603
      ],
      [
        "yj",
        -11.11764745451052
      ],
      [
        "rea",
        -11.12012314724377
      ],
      [
        "jf",
        -11.123052518439934
      ],
      [
        "bv",
        -11.12311892476108
      ],
      [
        "yz",
        -11.12533406283233
      ],
      [
        "arra",
        -11.125336064668204
      ],
      [
        "fj",
        -11.125462287243884
      ],
      [
        "uel",
        -11.126708325089751
      ],
      [
        "6909",
        -11.12676202960764
      ],
      [
        "799",
        -11.128381499570125
      ],
      [
        "702",
        -11.128867707286986
      ],
      [
        "jy",
        -11.129963345459219
      ],
      [
        "iei",
        -11.130750627075962
      ],
      [
        "vf",
        -11.131968197119452
      ],
      [
        "virt",
        -11.13353906474567
      ],
      [
        "756",
        -11.133905572928231
      ],
      [
        "946",
        -11.134053903009232
      ],
      [
        "iti",
        -11.134127392174692
      ],
      [
        "882",
        -11.136654443114889
      ],
      [
        "bO",
        -11.136882002267962
      ],
      [
        "694",
        -11.136949904202117
      ],
      [
        "446",
        -11.14148369594953
      ],
      [
        "676",
        -11.144980824244886
      ],
      [
        "262",
        -11.145581940469611
      ],
      [
        "794",
        -11.146199523664258
      ],
      [
        "bz",
        -11.149272361037976
      ],
      [
        "938",
        -11.151415327603665
      ],
      [
        "746",
        -11.152090693543041
      ],
      [
        "619",
        -11.154040691800812
      ],
      [
        "sne",
        -11.154201395059086
      ],
      [
        "704",
        -11.154353130445049
      ],
      [
        "ust",
        -11.156250367049921
      ],
      [
        "ttn",
        -11.157088946671514
      ],
      [
        "616",
        -11.158350794125315
      ],
      [
        "782",
        -11.158648114533001
      ],
      [
        "EXEC",
        -11.15880369995891
      ],
      [
        "712",
        -11.15986035531044
      ],
      [
        "634",
        -11.16139999837521
      ],
      [
        "aoa",
        -11.161724937146033
      ],
      [
        "vw",
        -11.162294519606409
      ],
      [
        "952",
        -11.164317709886454
      ],
      [
        "333",
        -11.165098747711031
      ],
      [
        "666",
        -11.165431113636338
      ],
      [
        "sre",
        -11.165903015079106
      ],
      [
        "774",
        -11.16610885853295
      ],
      [
        "fO",
        -11.166939579794514
      ],
      [
        "30637",
        -11.167759451013154
      ],
      [
        "63290",
        -11.16793136006049
      ],
      [
        "779",
        -11.170228507544696
      ],
      [
        "zz",
        -11.171760406228517
      ],
      [
        "316",
        -11.173036715614685
      ],
      [
        "ues",
        -11.174896330877111
      ],
      [
        "476",
        -11.175477575867234
      ],
      [
        "996",
        -11.1756799110054
      ],
      [
        "479",
        -11.17627079096922
      ],
      [
        "rtn",
        -11.176443183496216
      ],
      [
        "avi",
        -11.178756136327513
      ],
      [
        "656",
        -11.179843843340768
      ],
      [
        "997",
        -11.17988512168137
      ],
      [
        "ila",
        -11.18425517951659
      ],
      [
        "414",
        -11.184701637819437
      ],
      [
        "499",
        -11.184774144212843
      ],
      [
        "977",
        -11.18517324893483
      ],
      [
        "back",
        -11.185202843213933
      ],
      [
        "file",
        -11.186112332173504
      ],
      [
        "787",
        -11.188629407016156
      ],
      [
        "612",
        -11.190002963983362
      ],
      [
        "son",
        -11.192628107932691
      ],
      [
        "382",
        -11.196691054968865
      ],
      [
        "751",
        -11.196904648006168
      ],
      [
        "ris",
        -11.19909610919657
      ],
      [
        "766",
        -11.201932732112454
      ],
      [
        "784",
        -11.202426619360937
      ],
      [
        "alaman",
        -11.202660487396098
      ],
      [
        "ani",
        -11.203703871490392
      ],
      [
        "wk",
        -11.210264731927893
      ],
      [
        "613",
        -11.210675991959441
      ],
      [
        "Burgo",
        -11.211657456619434
      ],
      [
        "442",
        -11.212148278017665
      ],
      [
        "717",
        -11.21382759152373
      ],
      [
        "uer",
        -11.215662720233322
      ],
      [
        "3Ea",
        -11.215782157289526
      ],
      [
        "677",
        -11.216019276409064
      ],
      [
        "Bar",
        -11.216667773282243
      ],
      [
        "739",
        -11.217229213643792
      ],
      [
        "352",
        -11.218605957705732
      ],
      [
        "644",
        -11.220027977107726
      ],
      [
        "zk",
        -11.221075087806515
      ],
      [
        "bob",
        -11.221643944822727
      ],
      [
        "Vall",
        -11.225448385234152
      ],
      [
        "637",
        -11.227297536292484
      ],
      [
        "bj",
        -11.227951131144623
      ],
      [
        "776",
        -11.22812584953983
      ],
      [
        "WINNT",
        -11.22989605737072
      ],
      [
        "wv",
        -11.231762999915007
      ],
      [
        "3exec",
        -11.233388730821726
      ],
      [
        "sca",
        -11.235583491397698
      ],
      [
        "dor",
        -11.236000399462249
      ],
      [
        "494",
        -11.23699876393956
      ],
      [
        "erc",
        -11.240868881772514
      ],
      [
        "466",
        -11.243022181976258
      ],
      [
        "atr",
        -11.244071623474472
      ],
      [
        "dia",
        -11.244211765432425
      ],
      [
        "amples",
        -11.252424897392638
      ],
      [
        "fv",
        -11.256906468358444
      ],
      [
        "aba",
        -11.259219885592305
      ],
      [
        "719",
        -11.260371585738948
      ],
      [
        "ans",
        -11.266045969163855
      ],
      [
        "jw",
        -11.26762597051543
      ],
      [
        "CRI",
        -11.269344346322972
      ],
      [
        "lta",
        -11.269843292966884
      ],
      [
        "rtt",
        -11.273738609925573
      ],
      [
        "vv",
        -11.276582709283126
      ],
      [
        "89730",
        -11.27712725791245
      ],
      [
        "752",
        -11.278026222054333
      ],
      [
        "tot",
        -11.278841776381967
      ],
      [
        "62529",
        -11.282587066216053
      ],
      [
        "302",
        -11.282999381665764
      ],
      [
        "eve",
        -11.283798478007832
      ],
      [
        "yk",
        -11.284771948198133
      ],
      [
        "492",
        -11.286326847493239
      ],
      [
        "48613",
        -11.28716048501052
      ],
      [
        "ella",
        -11.290372838466897
      ],
      [
        "7E1",
        -11.290754745171526
      ],
      [
        "oria",
        -11.294601379374885
      ],
      [
        "too",
        -11.294719391018749
      ],
      [
        "467",
        -11.295865088771485
      ],
      [
        "797",
        -11.29655453674965
      ],
      [
        "aga",
        -11.29697619899862
      ],
      [
        "FEF",
        -11.297933913372718
      ],
      [
        "lte",
        -11.298991214615391
      ],
      [
        "732",
        -11.304700578321063
      ],
      [
        "UNION",
        -11.306487726071278
      ],
      [
        "2564",
        -11.310324871447651
      ],
      [
        "1EB",
        -11.311809513794955
      ],
      [
        "4EF",
        -11.311901991976322
      ],
      [
        "dra",
        -11.312331046762198
      ],
      [
        "9DD",
        -11.3138581514243
      ],
      [
        "6EF",
        -11.316061744006863
      ],
      [
        "F0D",
        -11.316225477853896
      ],
      [
        "2567",
        -11.321555701787798
      ],
      [
        "Iz",
        -11.321953804485743
      ],
      [
        "416",
        -11.325055694759286
      ],
      [
        "332",
        -11.325701545319957
      ],
      [
        "ego",
        -11.329860439616319
      ],
      [
        "BEB",
        -11.330961543433713
      ],
      [
        "772",
        -11.333167814454214
      ],
      [
        "DAB",
        -11.334513513343465
      ],
      [
        "2568",
        -11.335084701014335
      ],
      [
        "ooa",
        -11.338098545550256
      ],
      [
        "5C6",
        -11.339889720738393
      ],
      [
        "2EF",
        -11.340516281318733
      ],
      [
        "7E4",
        -11.340636979433736
      ],
      [
        "otn",
        -11.342236236842869
      ],
      [
        "747",
        -11.343150973480116
      ],
      [
        "sco",
        -11.343495858988582
      ],
      [
        "BEA",
        -11.345244461449806
      ],
      [
        "tnr",
        -11.345867066901688
      ],
      [
        "spa",
        -11.3468700439407
      ],
      [
        "Barcelon",
        -11.347102107806037
      ],
      [
        "252B",
        -11.348306123682455
      ],
      [
        "dis",
        -11.3500568162545
      ],
      [
        "916",
        -11.35342699252998
      ],
      [
        "AEB",
        -11.353693253676132
      ],
      [
        "ador",
        -11.355754780623645
      ],
      [
        "display",
        -11.357518771559757
      ],
      [
        "765205",
        -11.357525167918439
      ],
      [
        "56723",
        -11.357565264133367
      ],
      [
        "48762",
        -11.358538651993971
      ],
      [
        "DEB",
        -11.368548578508939
      ],
      [
        "nrt",
        -11.369484335976296
      ],
      [
        "BEF",
        -11.370347537139562
      ],
      [
        "BE1",
        -11.376167404714906
      ],
      [
        "2EB",
        -11.377928711519676
      ],
      [
        "7E6",
        -11.378124973212639
      ],
      [
        "D1B",
        -11.380093459230526
      ],
      [
        "CEF",
        -11.381066025984074
      ],
      [
        "FEB",
        -11.381647962972151
      ],
      [
        "DE4",
        -11.38380889856749
      ],
      [
        "20F",
        -11.384423346732097
      ],
      [
        "9C4",
        -11.384520844191623
      ],
      [
        "417",
        -11.386533043619217
      ],
      [
        "BE6",
        -11.386976790495527
      ],
      [
        "Inc",
        -11.388632379611774
      ],
      [
        "B8E",
        -11.388691628776542
      ],
      [
        "../../../",
        -11.389436066462157
      ],
      [
        "253CSCR",
        -11.390123725603711
      ],
      [
        "632",
        -11.392378701997071
      ],
      [
        "27br",
        -11.3934671578265
      ],
      [
        "4B7",
        -11.396614009608422
      ],
      [
        "prox",
        -11.396887754128766
      ],
      [
        "BED",
        -11.399690046634573
      ],
      [
        "B8D",
        -11.400781341393206
      ],
      [
        "DCD",
        -11.402009297948505
      ],
      [
        "11B",
        -11.403162687418273
      ],
      [
        "D9D",
        -11.404063533910374
      ],
      [
        "lto",
        -11.406141505081859
      ],
      [
        "Santa",
        -11.41223181941944
      ],
      [
        "FEC",
        -11.41999551715205
      ],
      [
        "9EF",
        -11.420162832284294
      ],
      [
        "6EB",
        -11.420309628632637
      ],
      [
        "D0F",
        -11.422898684158689
      ],
      [
        "6E6",
        -11.42484333522825
      ],
      [
        "bri",
        -11.425199511112854
      ],
      [
        "DEF",
        -11.425678542931959
      ],
      [
        "2E2",
        -11.427089282096203
      ],
      [
        "B0F",
        -11.42737579498111
      ],
      [
        "6AB",
        -11.4302512222757
      ],
      [
        "2Fscr",
        -11.430845615328625
      ],
      [
        "BB4",
        -11.431628247359622
      ],
      [
        "4A9",
        -11.431780734883715
      ],
      [
        "5EB",
        -11.433541129161966
      ],
      [
        "Guadalajara",
        -11.433641706882796
      ],
      [
        "48B",
        -11.437236332149945
      ],
      [
        "2ED",
        -11.44111022659103
      ],
      [
        "Ber",
        -11.44203625568991
      ],
      [
        "3E6",
        -11.442299251226089
      ],
      [
        "2E6",
        -11.445819346911211
      ],
      [
        "4C9",
        -11.452771518045672
      ],
      [
        "gue",
        -11.453027743011965
      ],
      [
        "sess",
        -11.454828256391554
      ],
      [
        "412",
        -11.460090261875541
      ],
      [
        "DD7",
        -11.470459416314085
      ],
      [
        "tlt",
        -11.471209322597268
      ],
      [
        "714",
        -11.472863170902741
      ],
      [
        "nrn",
        -11.472988977197012
      ],
      [
        "D8B",
        -11.474431125597457
      ],
      [
        "FE0",
        -11.475905754789672
      ],
      [
        "4E9",
        -11.478286332323442
      ],
      [
        "4C7",
        -11.478890389378755
      ],
      [
        "web",
        -11.480418412792334
      ],
      [
        "rrt",
        -11.482933316155886
      ],
      [
        "5EF",
        -11.484816335618504
      ],
      [
        "7ED",
        -11.48624649705362
      ],
      [
        "2E9",
        -11.488353663357433
      ],
      [
        "6C2",
        -11.488552325351762
      ],
      [
        "BE3",
        -11.489388771062654
      ],
      [
        "DA7",
        -11.492093081764303
      ],
      [
        "8D7",
        -11.493322000723136
      ],
      [
        "6C3",
        -11.493922852140088
      ],
      [
        "BD7",
        -11.494094920256583
      ],
      [
        "7DB",
        -11.495567665836669
      ],
      [
        "C1B",
        -11.497479861345445
      ],
      [
        "9EB",
        -11.4991644388667
      ],
      [
        "3CSCR",
        -11.501632476292832
      ],
      [
        "fer",
        -11.502576242314507
      ],
      [
        "Name",
        -11.50401223864688
      ],
      [
        "6C9",
        -11.505485284685898
      ],
      [
        "7A6",
        -11.511515557036082
      ],
      [
        "ltt",
        -11.511549702133799
      ],
      [
        "6E9",
        -11.51732549303987
      ],
      [
        "3D123",
        -11.51932101881105
      ],
      [
        "7AB",
        -11.521325487055083
      ],
      [
        "FAB",
        -11.521403079960313
      ],
      [
        "otl",
        -11.521513959608367
      ],
      [
        "BE2",
        -11.52219730427089
      ],
      [
        "6E4",
        -11.523446608959961
      ],
      [
        "BE9",
        -11.528608886214752
      ],
      [
        "F1B",
        -11.529799536790048
      ],
      [
        "igu",
        -11.533398239297632
      ],
      [
        "9C6",
        -11.534071524172044
      ],
      [
        "eep",
        -11.534103628457213
      ],
      [
        "BB7",
        -11.539656901598237
      ],
      [
        "91B",
        -11.54625282505995
      ],
      [
        "DC7",
        -11.548515226775177
      ],
      [
        "7EB",
        -11.549746430227946
      ],
      [
        "F7F",
        -11.549896713905163
      ],
      [
        "F8B",
        -11.55132777041867
      ],
      [
        "C1vila",
        -11.553544414629716
      ],
      [
        "Navarr",
        -11.55358282129303
      ],
      [
        "Giron",
        -11.553690577073821
      ],
      [
        "uela",
        -11.553857218407853
      ],
      [
        "../..%",
        -11.553916381958665
      ],
      [
        "6FF",
        -11.556061272630918
      ],
      [
        "4AB",
        -11.556238063445846
      ],
      [
        "B8B",
        -11.558528515860555
      ],
      [
        "B0B",
        -11.560607503367248
      ],
      [
        "9D7",
        -11.564074817693768
      ],
      [
        "2AB",
        -11.564973810393637
      ],
      [
        "Alc",
        -11.567988651949701
      ],
      [
        "FCF",
        -11.568744700922304
      ],
      [
        "BFF",
        -11.574550925303416
      ],
      [
        "4C4",
        -11.578189088823482
      ],
      [
        "FDB",
        -11.579464875268958
      ],
      [
        "Valencia",
        -11.580144335800764
      ],
      [
        "B7F",
        -11.58059630382823
      ],
      [
        "4CD",
        -11.582957389024031
      ],
      [
        "4E4",
        -11.58296255125019
      ],
      [
        "BDF",
        -11.584902283199286
      ],
      [
        "3EB",
        -11.587487766096832
      ],
      [
        "B86",
        -11.589751462827682
      ],
      [
        "4EB",
        -11.590449548751412
      ],
      [
        "B9B",
        -11.592993320165041
      ],
      [
        "4C6",
        -11.593672707075024
      ],
      [
        "B84",
        -11.593934463501572
      ],
      [
        "BBF",
        -11.596087949743122
      ],
      [
        "ttl",
        -11.602032089711003
      ],
      [
        "eruel",
        -11.604958663456237
      ],
      [
        "Madrid",
        -11.605843093728334
      ],
      [
        "6A6",
        -11.609918415273896
      ],
      [
        "lter",
        -11.610269479556695
      ],
      [
        "2E4",
        -11.611256384944202
      ],
      [
        "FE7",
        -11.61781102240164
      ],
      [
        "B07",
        -11.627588024205398
      ],
      [
        "BBB",
        -11.630930577268817
      ],
      [
        "alencia",
        -11.632222439774603
      ],
      [
        "F54",
        -11.638578615806656
      ],
      [
        "4A2",
        -11.645721107704869
      ],
      [
        "FE4",
        -11.648555322125926
      ],
      [
        "7EF",
        -11.65580566388607
      ],
      [
        "iana",
        -11.65760194899864
      ],
      [
        "7E7",
        -11.661003083090735
      ],
      [
        "B9F",
        -11.66414490699397
      ],
      [
        "B8F",
        -11.668377168841989
      ],
      [
        "F6F",
        -11.671941688291351
      ],
      [
        "BE4",
        -11.672727982695584
      ],
      [
        "B06",
        -11.675837343187181
      ],
      [
        "iza",
        -11.688819242826156
      ],
      [
        "BDB",
        -11.688956476870185
      ],
      [
        "4E6",
        -11.690360060491813
      ],
      [
        "5Cwin",
        -11.690492695883233
      ],
      [
        "2562",
        -11.69352689408694
      ],
      [
        "FE2",
        -11.696785881225374
      ],
      [
        "60F",
        -11.699222292410692
      ],
      [
        "Zaragoz",
        -11.704512854223875
      ],
      [
        "amora",
        -11.704844464719251
      ],
      [
        "4A4",
        -11.706872536503269
      ],
      [
        "4E7",
        -11.708472607452816
      ],
      [
        "70F",
        -11.710726610892308
      ],
      [
        "BAF",
        -11.719448150430388
      ],
      [
        "DOW",
        -11.726120420107115
      ],
      [
        "uenc",
        -11.742766753125627
      ],
      [
        "6E7",
        -11.749407898758946
      ],
      [
        "Camp",
        -11.752013365474665
      ],
      [
        "E1cer",
        -11.76584713673946
      ],
      [
        "TABLE",
        -11.781474095076138
      ],
      [
        "example",
        -11.790930935792272
      ],
      [
        "u002",
        -11.832471630781425
      ],
      [
        "Torre",
        -11.833458291997063
      ],
      [
        ">\\\\\\",
        -11.864854980071078
      ],
      [
        "Granad",
        -11.864890037918919
      ],
      [
        "etsca",
        -11.866035387425772
      ],
      [
        "hacker",
        -11.918436243413328
      ],
      [
        "Juan",
        -11.93713274932385
      ],
      [
        "archivo",
        -11.955821331896633
      ],
      [
        "secret",
        -11.955830869969484
      ],
      [
        "database",
        -11.975054891739452
      ],
      [
        "USER",
        -12.03515478001475
      ],
      [
        "Jose",
        -12.056684878847648
      ],
      [
        "..\\\\..\\\\..\\\\",
        -12.080705028752176
      ],
      [
        "DELETE",
        -12.098917208642412
      ],
      [
        "Cantabri",
        -12.121139372038598
      ],
      [
        "Valde",
        -12.122266595637527
      ],
      [
        "\\\\.\\.\\\\/\\.\\\\.\\/",
        -12.16712243691568
      ],
      [
        "Carrer",
        -12.167152799129017
      ],
      [
        "iudad",
        -12.264383345161626
      ],
      [
        "Castell",
        -12.319308752121252
      ],
      [
        "customer_",
        -12.34708382455233
      ],
      [
        "_vti_",
        -12.347083850744056
      ],
      [
        "40ajuntament",
        -12.375655253118596
      ],
      [
        "////////////////",
        -12.405067017824463
      ],
      [
        "............",
        -12.405067017824532
      ],
      [
        "iisadm",
        -12.467911047754551
      ],
      [
        "Fuente",
        -12.53222672716038
      ],
      [
        "Traves",
        -12.602411308399555
      ],
      [
        "Inetpub",
        -12.639445529426776
      ],
      [
        "software",
        -12.677907067029718
      ],
      [
        "barcelona2",
        -12.717907065811069
      ],
      [
        "#",
        -12.759573732477179
      ],
      [
        "\\",
        -12.946112105972382
      ],
      [
        "`",
        -13.90100810071968
      ],
      [
        "!",
        -14.410431910283451
      ],
      [
        "}",
        -14.410531910283451
      ],
      [
        "{",
        -14.410531910283451
      ]
    ],
    "byte_fallback": false
  }
}