{
  "version": "1.0",
  "truncation": null,
  "padding": null,
  "added_tokens": [
    {
      "id": 0,
      "content": "[PAD]",
      "single_word": false,
      "lstrip": false,
      "rstrip": false,
      "normalized": false,
      "special": true
    },
    {
      "id": 1,
      "content": "[UNK]",
      "single_word": false,
      "lstrip": false,
      "rstrip": false,
      "normalized": false,
      "special": true
    },
    {
      "id": 2,
      "content": "[CLS]",
      "single_word": false,
      "lstrip": false,
      "rstrip": false,
      "normalized": false,
      "special": true
    },
    {
      "id": 3,
      "content": "[SEP]",
      "single_word": false,
      "lstrip": false,
      "rstrip": false,
      "normalized": false,
      "special": true
    },
    {
      "id": 4,
      "content": "[MASK]",
      "single_word": false,
      "lstrip": false,
      "rstrip": false,
      "normalized": false,
      "special": true
    }
  ],
  "normalizer": {
    "type": "NFKC"
  },
  "pre_tokenizer": {
    "type": "Whitespace"
  },
  "post_processor": null,
  "decoder": null,
  "model": {
    "type": "Unigram",
    "unk_id": null,
    "vocab": [
      [
        "[PAD]",
        0.0
      ],
      [
        "[UNK]",
        0.0
      ],
      [
        "[CLS]",
        0.0
      ],
      [
        "[SEP]",
        0.0
      ],
      [
        "[MASK]",
        0.0
      ],
      [
        "<",
        -2.5836784590383424
      ],
      [
        ">",
        -2.5865480188988403
      ],
      [
        "=",
        -3.230366286005289
      ],
      [
        "SEP",
        -3.288308883109453
      ],
      [
        "-",
        -3.2955448970504673
      ],
      [
        "E",
        -3.364643934130763
      ],
      [
        "/",
        -3.4815328856603625
      ],
      [
        ".",
        -3.5533746663320755
      ],
      [
        "SC_",
        -3.6467091616723675
      ],
      [
        "EQ",
        -3.647381852920656
      ],
      [
        "0",
        -3.9090435876625182
      ],
      [
        ";",
        -4.034711221382947
      ],
      [
        "5",
        -4.0771815864769465
      ],
      [
        ",",
        -4.1255142605954465
      ],
      [
        "A",
        -4.214689697276736
      ],
      [
        "L",
        -4.23818098281329
      ],
      [
        "C",
        -4.239788938204375
      ],
      [
        "8",
        -4.36858393618501
      ],
      [
        "q",
        -4.379517860886661
      ],
      [
        "1",
        -4.477026212705736
      ],
      [
        "&",
        -4.757255261788352
      ],
      [
        "T",
        -4.778978502476697
      ],
      [
        "3",
        -4.784566285474359
      ],
      [
        "%",
        -4.882349503965834
      ],
      [
        "ccept",
        -4.894086644962725
      ],
      [
        "NUL",
        -4.953815077351109
      ],
      [
        "e",
        -5.056649681555372
      ],
      [
        "H",
        -5.09322481922174
      ],
      [
        "9",
        -5.1629047503511405
      ],
      [
        "text",
        -5.1886582796877505
      ],
      [
        "xml",
        -5.20837800383457
      ],
      [
        "r",
        -5.263248589152706
      ],
      [
        "n",
        -5.281170893819295
      ],
      [
        "+",
        -5.291988759529286
      ],
      [
        "ontent",
        -5.302891056771852
      ],
      [
        "Host",
        -5.3031178128611725
      ],
      [
        "no",
        -5.391727750423447
      ],
      [
        "x",
        -5.412880712474788
      ],
      [
        "application",
        -5.428525728295904
      ],
      [
        "P",
        -5.438527201249057
      ],
      [
        "GE",
        -5.466018675235972
      ],
      [
        "(",
        -5.475936083398651
      ],
      [
        ")",
        -5.478375580644107
      ],
      [
        "cache",
        -5.495601402634447
      ],
      [
        "o",
        -5.51363647925279
      ],
      [
        "html",
        -5.59945669355732
      ],
      [
        "U",
        -5.600750069738458
      ],
      [
        "utf",
        -5.613931876837073
      ],
      [
        "M",
        -5.629288436029377
      ],
      [
        "S",
        -5.698197438727025
      ],
      [
        "G",
        -5.7661065416788215
      ],
      [
        "OST",
        -5.785624649476427
      ],
      [
        "*",
        -5.804656767726291
      ],
      [
        "2",
        -5.845568502518081
      ],
      [
        "ol",
        -5.881892468721178
      ],
      [
        "age",
        -5.957207206630363
      ],
      [
        "K",
        -5.95919162045055
      ],
      [
        "ion",
        -5.97641214777803
      ],
      [
        "4",
        -5.978036731312811
      ],
      [
        "ND",
        -5.980214465832921
      ],
      [
        "set",
        -5.9843166644199
      ],
      [
        "RI",
        -5.9874670812743656
      ],
      [
        "ype",
        -5.992438362565121
      ],
      [
        "ache",
        -5.993828555133957
      ],
      [
        "ookie",
        -5.994759545241804
      ],
      [
        "gth",
        -5.995163821884297
      ],
      [
        "Pr",
        -5.995462937633693
      ],
      [
        "gent",
        -5.995661428686136
      ],
      [
        "Char",
        -5.995982081462397
      ],
      [
        "angu",
        -5.996036402106551
      ],
      [
        "eader",
        -5.996078147562807
      ],
      [
        "Connect",
        -5.996125612030793
      ],
      [
        "agma",
        -5.996131488482302
      ],
      [
        "Data",
        -5.996142993221273
      ],
      [
        "contr",
        -5.9961757932004325
      ],
      [
        "Query",
        -5.996225601343788
      ],
      [
        "ethod",
        -5.996225693654326
      ],
      [
        "User",
        -5.996309360421218
      ],
      [
        "TTP",
        -5.996398999124999
      ],
      [
        "REC",
        -5.9964914938345455
      ],
      [
        "Len",
        -6.009975545976314
      ],
      [
        "7",
        -6.025420281665841
      ],
      [
        "en",
        -6.036574093761432
      ],
      [
        "6",
        -6.037824890929004
      ],
      [
        ":",
        -6.042730614808232
      ],
      [
        "image",
        -6.10119834900777
      ],
      [
        "illa",
        -6.13031600517902
      ],
      [
        "a",
        -6.131250477779474
      ],
      [
        "Moz",
        -6.150889477281481
      ],
      [
        "ecko",
        -6.188759943133805
      ],
      [
        "s",
        -6.19671685036233
      ],
      [
        "clos",
        -6.199261513672168
      ],
      [
        "compa",
        -6.275507698187701
      ],
      [
        "tible",
        -6.275568637314082
      ],
      [
        "*/*",
        -6.278361911572082
      ],
      [
        "png",
        -6.288638285717369
      ],
      [
        "inux",
        -6.298910243737776
      ],
      [
        "like",
        -6.301828217725742
      ],
      [
        "quero",
        -6.303938739344401
      ],
      [
        "t",
        -6.304043478524438
      ],
      [
        "Kon",
        -6.304382304745763
      ],
      [
        "plai",
        -6.3067578373209
      ],
      [
        "loca",
        -6.31790640268469
      ],
      [
        "lhost",
        -6.317968782011963
      ],
      [
        "NID",
        -6.318521808401783
      ],
      [
        "SIO",
        -6.318522056127401
      ],
      [
        "JSE",
        -6.318573107688771
      ],
      [
        "HTM",
        -6.318623382318956
      ],
      [
        "8080",
        -6.324162120738961
      ],
      [
        "D",
        -6.332226312770631
      ],
      [
        "tienda",
        -6.350065883073116
      ],
      [
        "c",
        -6.428181989374535
      ],
      [
        "i",
        -6.538357643839429
      ],
      [
        "jsp",
        -6.553189213792503
      ],
      [
        "l",
        -6.572264634583497
      ],
      [
        "p",
        -6.590240625284094
      ],
      [
        "g",
        -6.645393152497791
      ],
      [
        "d",
        -6.70867582174065
      ],
      [
        "N",
        -6.738082291546991
      ],
      [
        "h",
        -6.741510769225066
      ],
      [
        "www",
        -6.806452389309829
      ],
      [
        "R",
        -6.830673417833879
      ],
      [
        "B",
        -6.839642026449916
      ],
      [
        "I",
        -6.864174825601507
      ],
      [
        "public",
        -6.888741711272775
      ],
      [
        "F",
        -6.932830910178849
      ],
      [
        "27",
        -6.983895588696026
      ],
      [
        "2F",
        -7.050344981789248
      ],
      [
        "m",
        -7.0505553577477595
      ],
      [
        "u",
        -7.063292751812572
      ],
      [
        "B1",
        -7.0658115883406865
      ],
      [
        "Y",
        -7.069222030885779
      ],
      [
        "W",
        -7.0705023823426405
      ],
      [
        "nc",
        -7.095769765232998
      ],
      [
        "X",
        -7.104184798154147
      ],
      [
        "J",
        -7.109906519988911
      ],
      [
        "Z",
        -7.117745437184425
      ],
      [
        "V",
        -7.1516291648696075
      ],
      [
        "Q",
        -7.1633794961566455
      ],
      [
        "b",
        -7.16841024646922
      ],
      [
        "O",
        -7.1758042804454405
      ],
      [
        "k",
        -7.17835414322707
      ],
      [
        "form",
        -7.1828992036669135
      ],
      [
        "y",
        -7.198383338129197
      ],
      [
        "29",
        -7.201718963816795
      ],
      [
        "_",
        -7.202022512223774
      ],
      [
        "v",
        -7.210403349019341
      ],
      [
        "f",
        -7.222608502039128
      ],
      [
        "w",
        -7.251705582990292
      ],
      [
        "j",
        -7.265407313806898
      ],
      [
        "28",
        -7.270972625448744
      ],
      [
        "z",
        -7.311761990163117
      ],
      [
        "oded",
        -7.336790448195991
      ],
      [
        "urle",
        -7.337323072131868
      ],
      [
        "@",
        -7.388361253030446
      ],
      [
        "40",
        -7.483625879269958
      ],
      [
        "modo",
        -7.489934104686906
      ],
      [
        "2C",
        -7.524541309322128
      ],
      [
        "3D",
        -7.578216351086301
      ],
      [
        "id",
        -7.6915670523260555
      ],
      [
        "22",
        -7.708004824743773
      ],
      [
        "an",
        -7.7382264286141
      ],
      [
        "nombre",
        -7.738320484108623
      ],
      [
        "al",
        -7.743912175309353
      ],
      [
        "registro",
        -7.760543524582268
      ],
      [
        "login",
        -7.763786147986497
      ],
      [
        "es",
        -7.774525937455522
      ],
      [
        "'",
        -7.8213390360955
      ],
      [
        "mie",
        -7.841996298325842
      ],
      [
        "cp",
        -7.845697956880967
      ],
      [
        "mbros",
        -7.881706917011115
      ],
      [
        "de",
        -7.8871089501266916
      ],
      [
        "or",
        -7.895571798832012
      ],
      [
        "nes",
        -8.008776720048534
      ],
      [
        "3B",
        -8.027774106319438
      ],
      [
        "on",
        -8.10012726418248
      ],
      [
        "3A",
        -8.119028698938235
      ],
      [
        "rv",
        -8.126667059768817
      ],
      [
        "dni",
        -8.13097678098579
      ],
      [
        "ntc",
        -8.137275348194294
      ],
      [
        "3C",
        -8.150118403545573
      ],
      [
        "email",
        -8.156719272787777
      ],
      [
        "password",
        -8.158956361668242
      ],
      [
        "provincia",
        -8.160696627471335
      ],
      [
        "apellidos",
        -8.160696627471662
      ],
      [
        "direccion",
        -8.160696627546546
      ],
      [
        "ciudad",
        -8.160720921111215
      ],
      [
        "mac",
        -8.16275336260852
      ],
      [
        "Registrar",
        -8.168565520406666
      ],
      [
        "precio",
        -8.179599181977379
      ],
      [
        "iso",
        -8.18686248940382
      ],
      [
        "carrito",
        -8.189408864144145
      ],
      [
        "2B",
        -8.215301229721417
      ],
      [
        "os",
        -8.224182960257195
      ],
      [
        "26",
        -8.240719826081643
      ],
      [
        "tica",
        -8.242382595890433
      ],
      [
        "=*/*",
        -8.247553001164235
      ],
      [
        "+++",
        -8.249555512812233
      ],
      [
        "++++",
        -8.258325690249794
      ],
      [
        "st",
        -8.263621020989603
      ],
      [
        "ntrar",
        -8.266740931034242
      ],
      [
        "it",
        -8.287712614295021
      ],
      [
        "in",
        -8.289736967702506
      ],
      [
        "5D",
        -8.291512535392169
      ],
      [
        "++",
        -8.300687379839474
      ],
      [
        "ia",
        -8.30215049227734
      ],
      [
        "se",
        -8.303368813219283
      ],
      [
        "3F",
        -8.305763224477458
      ],
      [
        "gif",
        -8.318964298835052
      ],
      [
        "ee",
        -8.324932739239735
      ],
      [
        "he",
        -8.368652989493036
      ],
      [
        "as",
        -8.390183576139194
      ],
      [
        "live",
        -8.391095957570034
      ],
      [
        "ciar",
        -8.401359644954438
      ],
      [
        "el",
        -8.405110722587485
      ],
      [
        "keep",
        -8.405727288486347
      ],
      [
        "et",
        -8.415416096006712
      ],
      [
        "te",
        -8.427828776926535
      ],
      [
        "ae",
        -8.428825508555214
      ],
      [
        "21",
        -8.429287523647847
      ],
      [
        "7C",
        -8.438076325188579
      ],
      [
        "va",
        -8.443280651571083
      ],
      [
        "ta",
        -8.44437809360177
      ],
      [
        "ts",
        -8.444918101630922
      ],
      [
        "window",
        -8.454232768850503
      ],
      [
        "sa",
        -8.460242502911182
      ],
      [
        "tt",
        -8.462333658593735
      ],
      [
        "ai",
        -8.464941274396672
      ],
      [
        "ie",
        -8.465772953113163
      ],
      [
        "ea",
        -8.469341321306036
      ],
      [
        "la",
        -8.476802503633449
      ],
      [
        "8859",
        -8.481827361385172
      ],
      [
        "ot",
        -8.482913281207999
      ],
      [
        "ei",
        -8.487839415096467
      ],
      [
        ">'",
        -8.500067090085265
      ],
      [
        "na",
        -8.50699141930392
      ],
      [
        "is",
        -8.516522302819023
      ],
      [
        "re",
        -8.520867604913636
      ],
      [
        "eh",
        -8.529578094555756
      ],
      [
        "th",
        -8.535755847578326
      ],
      [
        "er",
        -8.53666554926993
      ],
      [
        "ar",
        -8.554151900773084
      ],
      [
        "Win",
        -8.555261392383322
      ],
      [
        "aa",
        -8.558630953537046
      ],
      [
        "ii",
        -8.575764164370028
      ],
      [
        "39",
        -8.577274629876813
      ],
      [
        "le",
        -8.585554080804782
      ],
      [
        "B2",
        -8.590949025766523
      ],
      [
        "sh",
        -8.594541115804052
      ],
      [
        "at",
        -8.604363256140616
      ],
      [
        "io",
        -8.605331258883336
      ],
      [
        "ne",
        -8.61228939281256
      ],
      [
        "ce",
        -8.615921457152815
      ],
      [
        "ss",
        -8.62518879284119
      ],
      [
        "si",
        -8.638455879349213
      ],
      [
        "to",
        -8.639802071078055
      ],
      [
        "ti",
        -8.645757725389718
      ],
      [
        "ns",
        -8.650211250242753
      ],
      [
        "ht",
        -8.652179845764056
      ],
      [
        "ue",
        -8.656460952144641
      ],
      [
        "oa",
        -8.657094961675957
      ],
      [
        "ro",
        -8.66503894041162
      ],
      [
        "ed",
        -8.666771186937712
      ],
      [
        "ni",
        -8.676031865647511
      ],
      [
        "so",
        -8.689107232011906
      ],
      [
        "ha",
        -8.6938985950931
      ],
      [
        "me",
        -8.694775954438219
      ],
      [
        "+++++",
        -8.695632515902986
      ],
      [
        "max",
        -8.696197081829814
      ],
      [
        "tr",
        -8.696672568155122
      ],
      [
        "24",
        -8.701626483718028
      ],
      [
        "46",
        -8.711660584484875
      ],
      [
        "ri",
        -8.716607585965024
      ],
      [
        "jpg",
        -8.719942288150863
      ],
      [
        "ao",
        -8.723711223131636
      ],
      [
        "if",
        -8.726050521723273
      ],
      [
        "47",
        -8.73107190465033
      ],
      [
        "ra",
        -8.739804775964831
      ],
      [
        "rt",
        -8.750743172200934
      ],
      [
        "sn",
        -8.751874935232054
      ],
      [
        "da",
        -8.756376469211775
      ],
      [
        "ho",
        -8.757768349663372
      ],
      [
        "nt",
        -8.759269257002124
      ],
      [
        "ch",
        -8.76095073662518
      ],
      [
        "34",
        -8.760990694652868
      ],
      [
        "em",
        -8.764187668411601
      ],
      [
        "ad",
        -8.766292987845906
      ],
      [
        "ah",
        -8.776780256531708
      ],
      [
        "ec",
        -8.78289402226074
      ],
      [
        "do",
        -8.785870755104652
      ],
      [
        "be",
        -8.787709201127186
      ],
      [
        "64",
        -8.788747105098789
      ],
      [
        "72",
        -8.793350482118658
      ],
      [
        "5B",
        -8.79890383239243
      ],
      [
        "67",
        -8.800327910231
      ],
      [
        "62",
        -8.80482123150475
      ],
      [
        "adir",
        -8.809246766628835
      ],
      [
        "ir",
        -8.81520025597344
      ],
      [
        "eu",
        -8.815388287546373
      ],
      [
        "ditar",
        -8.815965968046001
      ],
      [
        "42",
        -8.815975598496792
      ],
      [
        "94",
        -8.81708341933686
      ],
      [
        "lo",
        -8.818595662895916
      ],
      [
        "ls",
        -8.82452827617597
      ],
      [
        "77",
        -8.83078322927745
      ],
      [
        "cantidad",
        -8.834651821837546
      ],
      [
        "74",
        -8.839590453829157
      ],
      [
        "44",
        -8.841353122184895
      ],
      [
        "hi",
        -8.841949893764276
      ],
      [
        "+&",
        -8.8426059801429
      ],
      [
        "ma",
        -8.843209515631008
      ],
      [
        "oi",
        -8.844686055583999
      ],
      [
        "pwd",
        -8.84813917089302
      ],
      [
        "25",
        -8.85535739694534
      ],
      [
        "tl",
        -8.857376843594764
      ],
      [
        "auten",
        -8.857999593110922
      ],
      [
        "eg",
        -8.858515282499496
      ],
      [
        "..%",
        -8.858810111748824
      ],
      [
        "audi",
        -8.860081146494036
      ],
      [
        "43",
        -8.8603905289308
      ],
      [
        "dt",
        -8.860680376693487
      ],
      [
        "il",
        -8.865529531321979
      ],
      [
        "2D",
        -8.870694112124593
      ],
      [
        "td",
        -8.875036145435326
      ],
      [
        "ih",
        -8.876059577390897
      ],
      [
        "F1adi",
        -8.876187857724116
      ],
      [
        "us",
        -8.879493218717986
      ],
      [
        "remember",
        -8.887272462050003
      ],
      [
        "video",
        -8.889978459621712
      ],
      [
        "paga",
        -8.891166073397908
      ],
      [
        "lt",
        -8.895786957188163
      ],
      [
        "li",
        -8.909214464807057
      ],
      [
        "lobal",
        -8.910991161823754
      ],
      [
        "76",
        -8.912253717710781
      ],
      [
        "BD",
        -8.912509811730477
      ],
      [
        "69",
        -8.913440880563122
      ],
      [
        "nh",
        -8.930271780564933
      ],
      [
        "rs",
        -8.931298913717223
      ],
      [
        "hs",
        -8.931484796331631
      ],
      [
        "insertar",
        -8.939062982999129
      ],
      [
        "6D",
        -8.940607028692677
      ],
      [
        "di",
        -8.9498756867569
      ],
      [
        "DF",
        -8.954381104102772
      ],
      [
        "Va",
        -8.95526386318978
      ],
      [
        "co",
        -8.955930565709174
      ],
      [
        "script",
        -8.95728596702443
      ],
      [
        "mo",
        -8.958142313770534
      ],
      [
        "DD",
        -8.959097540813666
      ],
      [
        "ca",
        -8.959844492605573
      ],
      [
        "Entrar",
        -8.972232236435733
      ],
      [
        "FD",
        -8.973822762487714
      ],
      [
        "od",
        -8.97516915649106
      ],
      [
        "4D",
        -8.975713503682872
      ],
      [
        "7D",
        -8.985466595232722
      ],
      [
        "49",
        -8.99107081255817
      ],
      [
        "ac",
        -8.992690935238247
      ],
      [
        "79",
        -8.99833040329397
      ],
      [
        "68",
        -8.999987342591265
      ],
      [
        "hn",
        -9.000394623019695
      ],
      [
        "http",
        -9.000791453630253
      ],
      [
        "97",
        -9.00544984557868
      ],
      [
        "nd",
        -9.006881657526195
      ],
      [
        "oh",
        -9.009189433259237
      ],
      [
        "D4",
        -9.012571582947682
      ],
      [
        "FF",
        -9.013911147148463
      ],
      [
        "sr",
        -9.016040389205362
      ],
      [
        "17",
        -9.023549662475308
      ],
      [
        "am",
        -9.023978834595598
      ],
      [
        "F3",
        -9.02463112960049
      ],
      [
        "ui",
        -9.028237106327756
      ],
      [
        "D7",
        -9.0294626329712
      ],
      [
        "caracteris",
        -9.041798406377799
      ],
      [
        "BF",
        -9.048008724096174
      ],
      [
        "FA",
        -9.05097807573383
      ],
      [
        "hr",
        -9.051576927248622
      ],
      [
        "96",
        -9.052905952029182
      ],
      [
        "36",
        -9.054221307400262
      ],
      [
        "ey",
        -9.067475905861253
      ],
      [
        "66",
        -9.069441792533004
      ],
      [
        "ua",
        -9.07884222309627
      ],
      [
        "71",
        -9.081351470041493
      ],
      [
        "mt",
        -9.08170215265219
      ],
      [
        "DB",
        -9.085413546504505
      ],
      [
        "9D",
        -9.090836275172236
      ],
      [
        "ut",
        -9.091315979532958
      ],
      [
        "sl",
        -9.10030133306081
      ],
      [
        "errorMsg",
        -9.106932649430824
      ],
      [
        "pe",
        -9.107739339364056
      ],
      [
        "4F",
        -9.109257321827904
      ],
      [
        "com",
        -9.113371996335056
      ],
      [
        "ds",
        -9.118598037837035
      ],
      [
        "ge",
        -9.119056915008539
      ],
      [
        "ic",
        -9.128446642146715
      ],
      [
        "BB",
        -9.133426719856942
      ],
      [
        "dows",
        -9.135261511228592
      ],
      [
        "ba",
        -9.139129505690047
      ],
      [
        "tu",
        -9.139376490729404
      ],
      [
        "im",
        -9.140528563244377
      ],
      [
        "F7",
        -9.140803556914637
      ],
      [
        "4B",
        -9.145614674564174
      ],
      [
        "F9",
        -9.147055148520744
      ],
      [
        "6B",
        -9.148136952039927
      ],
      [
        "D6",
        -9.152639004524497
      ],
      [
        "7B",
        -9.153101068812008
      ],
      [
        "73",
        -9.154512658949091
      ],
      [
        "sd",
        -9.154761365837883
      ],
      [
        "rh",
        -9.16545397174081
      ],
      [
        "eb",
        -9.169737526672158
      ],
      [
        "ef",
        -9.1718286509081
      ],
      [
        "au",
        -9.172313787943473
      ],
      [
        "F6",
        -9.174328062706543
      ],
      [
        "B7",
        -9.178608654685538
      ],
      [
        "tosh",
        -9.17908937829183
      ],
      [
        "6F",
        -9.17917792541197
      ],
      [
        "om",
        -9.183098623326437
      ],
      [
        "B6",
        -9.183984704043073
      ],
      [
        "37",
        -9.187971538769492
      ],
      [
        "63",
        -9.190609830773234
      ],
      [
        "tc",
        -9.19684366275126
      ],
      [
        "tm",
        -9.19817647290585
      ],
      [
        "78",
        -9.200240249647702
      ],
      [
        "ye",
        -9.203806063455435
      ],
      [
        "ew",
        -9.206713800265135
      ],
      [
        "ct",
        -9.207549127757822
      ],
      [
        "we",
        -9.208227797447424
      ],
      [
        "92",
        -9.216858627520688
      ],
      [
        "dencial",
        -9.21961108057269
      ],
      [
        "hh",
        -9.220330979605208
      ],
      [
        "F1",
        -9.2242878067716
      ],
      [
        "incorrectas",
        -9.225908193305361
      ],
      [
        "Cre",
        -9.226233435094432
      ],
      [
        "ci",
        -9.227702110737734
      ],
      [
        "270",
        -9.232231677025194
      ],
      [
        "D9",
        -9.238305087451222
      ],
      [
        "rm",
        -9.240594544928125
      ],
      [
        "fe",
        -9.241625227771646
      ],
      [
        "41",
        -9.24282118770276
      ],
      [
        "min",
        -9.24378234896168
      ],
      [
        "tw",
        -9.244303862707214
      ],
      [
        "23",
        -9.250263072147426
      ],
      [
        "ga",
        -9.251055794125623
      ],
      [
        "8F",
        -9.25227297110089
      ],
      [
        "mi",
        -9.25746254721546
      ],
      [
        "56",
        -9.260686190371391
      ],
      [
        "7F",
        -9.261372687036133
      ],
      [
        "ur",
        -9.261628040950677
      ],
      [
        "su",
        -9.262131076175905
      ],
      [
        "B9",
        -9.263418023758714
      ],
      [
        "AF",
        -9.264013699009475
      ],
      [
        "B4",
        -9.265711323716847
      ],
      [
        "84",
        -9.267871494043323
      ],
      [
        "ul",
        -9.271378504104703
      ],
      [
        "9F",
        -9.275369306165484
      ],
      [
        "sc",
        -9.279856077731026
      ],
      [
        "75",
        -9.280307129368994
      ],
      [
        "ay",
        -9.283068740014256
      ],
      [
        "rd",
        -9.283675287218937
      ],
      [
        "fr",
        -9.288095042326365
      ],
      [
        "ps",
        -9.290455046380345
      ],
      [
        "FB",
        -9.292327967396654
      ],
      [
        "oc",
        -9.294284207946617
      ],
      [
        "dr",
        -9.299121382099434
      ],
      [
        "only",
        -9.30216364397905
      ],
      [
        "87",
        -9.30649192553524
      ],
      [
        "dn",
        -9.309697113757359
      ],
      [
        "61",
        -9.312931609133587
      ],
      [
        "F4",
        -9.313998833022517
      ],
      [
        "://",
        -9.315850530247204
      ],
      [
        "BA",
        -9.326246590662677
      ],
      [
        "ab",
        -9.327446904920858
      ],
      [
        "ru",
        -9.336718574572775
      ],
      [
        "FC",
        -9.341074426634918
      ],
      [
        "hl",
        -9.34348452415992
      ],
      [
        "un",
        -9.347862222542265
      ],
      [
        "1B",
        -9.354987288939004
      ],
      [
        "sm",
        -9.358337502900792
      ],
      [
        "B3",
        -9.36064095693666
      ],
      [
        "ou",
        -9.361673819236872
      ],
      [
        "store",
        -9.362532130968507
      ],
      [
        "D2",
        -9.362779687258522
      ],
      [
        "ig",
        -9.363689428665918
      ],
      [
        "pa",
        -9.36406713836746
      ],
      [
        "rl",
        -9.370571314459374
      ],
      [
        "ms",
        -9.375141425858317
      ],
      [
        "fres",
        -9.37772919860019
      ],
      [
        "X11",
        -9.38121526122411
      ],
      [
        "F3n",
        -9.382938112804819
      ],
      [
        "and",
        -9.386333982039229
      ],
      [
        "9B",
        -9.390237346492587
      ],
      [
        "iu",
        -9.391761181452875
      ],
      [
        "Machi",
        -9.393461060941156
      ],
      [
        "B8",
        -9.403186686693186
      ],
      [
        "bo",
        -9.404379855500814
      ],
      [
        "child",
        -9.406746365630209
      ],
      [
        "bin",
        -9.410685010190058
      ],
      [
        "cmd",
        -9.413286308845766
      ],
      [
        "por",
        -9.416077874363861
      ],
      [
        "ap",
        -9.421549735309316
      ],
      [
        "stal",
        -9.426060569905713
      ],
      [
        "uo",
        -9.42985696013348
      ],
      [
        "euc",
        -9.436471541639259
      ],
      [
        "go",
        -9.436475923007464
      ],
      [
        "100",
        -9.439991168310591
      ],
      [
        "ez",
        -9.443566182502586
      ],
      [
        "trans",
        -9.443914224671708
      ],
      [
        "BC",
        -9.44493825572096
      ],
      [
        "nu",
        -9.445276713301904
      ],
      [
        "ya",
        -9.44911369218623
      ],
      [
        "F2",
        -9.451620197117563
      ],
      [
        "tg",
        -9.451989699564178
      ],
      [
        "ty",
        -9.452738691299803
      ],
      [
        "cs",
        -9.454759562395497
      ],
      [
        "fa",
        -9.461504190253166
      ],
      [
        "lh",
        -9.46873092257929
      ],
      [
        "ft",
        -9.472640037266636
      ],
      [
        "tp",
        -9.473438801080913
      ],
      [
        "dh",
        -9.47370978807744
      ],
      [
        "ag",
        -9.473952590353548
      ],
      [
        "af",
        -9.475398983981892
      ],
      [
        "tf",
        -9.475863678098914
      ],
      [
        "php",
        -9.476687204988524
      ],
      [
        "2e",
        -9.4770127040785
      ],
      [
        "wa",
        -9.481066061473186
      ],
      [
        "logo",
        -9.485781136346374
      ],
      [
        "nm",
        -9.490367739567585
      ],
      [
        "12",
        -9.490399136482598
      ],
      [
        "ll",
        -9.49302660830201
      ],
      [
        "ld",
        -9.499201794820141
      ],
      [
        "65",
        -9.510795049012529
      ],
      [
        "fo",
        -9.51229515089414
      ],
      [
        "mn",
        -9.514489011812312
      ],
      [
        "De",
        -9.517555710154062
      ],
      [
        "wt",
        -9.517597272699057
      ],
      [
        "bt",
        -9.518571517129601
      ],
      [
        "8B",
        -9.51873826055392
      ],
      [
        "pi",
        -9.519873455893514
      ],
      [
        "pl",
        -9.520185187116482
      ],
      [
        "za",
        -9.528178695489393
      ],
      [
        "asar",
        -9.542423928400272
      ],
      [
        "OS",
        -9.542728448971348
      ],
      [
        "open",
        -9.54374648523305
      ],
      [
        "dd",
        -9.545353213326653
      ],
      [
        "ng",
        -9.546812779913582
      ],
      [
        "hd",
        -9.547172964362243
      ],
      [
        "86",
        -9.55250608384824
      ],
      [
        "sy",
        -9.554040914363238
      ],
      [
        "tb",
        -9.55625804295676
      ],
      [
        "CF",
        -9.557332225904446
      ],
      [
        "hu",
        -9.56818891693427
      ],
      [
        "48",
        -9.574711397429558
      ],
      [
        "|",
        -9.579969395029792
      ],
      [
        "ini",
        -9.580149435742168
      ],
      [
        "ve",
        -9.582934574871192
      ],
      [
        "caja",
        -9.58369887211148
      ],
      [
        "bi",
        -9.584000125176185
      ],
      [
        "]",
        -9.58719616345013
      ],
      [
        "js",
        -9.589725435941912
      ],
      [
        "yt",
        -9.589802442403345
      ],
      [
        "Calle",
        -9.592760884960088
      ],
      [
        "nf",
        -9.593440169920028
      ],
      [
        "ib",
        -9.597414818463449
      ],
      [
        "ev",
        -9.597868940684938
      ],
      [
        "pt",
        -9.603037976830812
      ],
      [
        "ob",
        -9.604349497320777
      ],
      [
        "index",
        -9.60550848418611
      ],
      [
        "PUT",
        -9.605654034865399
      ],
      [
        "net",
        -9.605915600046051
      ],
      [
        "off",
        -9.611715757033096
      ],
      [
        "gt",
        -9.618023988496383
      ],
      [
        "wi",
        -9.619094240069417
      ],
      [
        "14",
        -9.619695412418931
      ],
      [
        "sp",
        -9.620236687372566
      ],
      [
        "css",
        -9.626342774592167
      ],
      [
        "F8",
        -9.626663458074589
      ],
      [
        "ow",
        -9.627915721818642
      ],
      [
        "aw",
        -9.628876756593527
      ],
      [
        "kr",
        -9.629000095049859
      ],
      [
        "je",
        -9.644535701338482
      ],
      [
        "exec",
        -9.646519323489127
      ],
      [
        "gi",
        -9.650992539436675
      ],
      [
        "mr",
        -9.653342077390512
      ],
      [
        "fi",
        -9.654447343263746
      ],
      [
        "uz",
        -9.65567987799913
      ],
      [
        "ny",
        -9.658186615205178
      ],
      [
        "ing",
        -9.661032283117311
      ],
      [
        "mh",
        -9.662867869199356
      ],
      [
        "5F",
        -9.66360447069519
      ],
      [
        "0F",
        -9.668945534907532
      ],
      [
        "uh",
        -9.678736667679123
      ],
      [
        "lu",
        -9.679260760050752
      ],
      [
        "of",
        -9.684817499642216
      ],
      [
        "hm",
        -9.685634638545348
      ],
      [
        "du",
        -9.688431529086941
      ],
      [
        "Mac",
        -9.689520613684145
      ],
      [
        "org",
        -9.691701478487234
      ],
      [
        "mu",
        -9.700477075494144
      ],
      [
        "yo",
        -9.709234078002911
      ],
      [
        "ip",
        -9.711026081262421
      ],
      [
        "cookie",
        -9.711258580031
      ],
      [
        "ja",
        -9.715942576606341
      ],
      [
        "ys",
        -9.717422170963243
      ],
      [
        "Confirmar",
        -9.720857039383045
      ],
      [
        "ws",
        -9.72411694974005
      ],
      [
        "iw",
        -9.724516845566281
      ],
      [
        "oy",
        -9.726800764127539
      ],
      [
        "B0",
        -9.73613324292156
      ],
      [
        "iy",
        -9.736443916880022
      ],
      [
        "hc",
        -9.740281611757283
      ],
      [
        "Ib",
        -9.740384962954757
      ],
      [
        "2574",
        -9.742334972383482
      ],
      [
        "sw",
        -9.742787131933838
      ],
      [
        "gb",
        -9.751185504175922
      ],
      [
        "gr",
        -9.752043801752787
      ],
      [
        "gu",
        -9.752762197857244
      ],
      [
        "jp",
        -9.754814682673295
      ],
      [
        "cu",
        -9.755791544377438
      ],
      [
        "dm",
        -9.756775628153417
      ],
      [
        "NT",
        -9.760860032270987
      ],
      [
        "386",
        -9.76399127892494
      ],
      [
        "uk",
        -9.773976355256892
      ],
      [
        "og",
        -9.778369595283273
      ],
      [
        "sg",
        -9.779882730860137
      ],
      [
        "dl",
        -9.78318857518364
      ],
      [
        "cgi",
        -9.784060724642758
      ],
      [
        "az",
        -9.786208929720479
      ],
      [
        "bs",
        -9.788054747895579
      ],
      [
        "asp",
        -9.790236447521341
      ],
      [
        "passwd",
        -9.791919585798276
      ],
      [
        "by",
        -9.792615074814066
      ],
      [
        "nw",
        -9.793139135602502
      ],
      [
        "winnt",
        -9.796183431276221
      ],
      [
        "ud",
        -9.797272317383646
      ],
      [
        "fn",
        -9.799558138743498
      ],
      [
        "cl",
        -9.803505426398162
      ],
      [
        "rf",
        -9.806804608650598
      ],
      [
        "um",
        -9.812285564374962
      ],
      [
        "ke",
        -9.813728057817784
      ],
      [
        "586",
        -9.813746182814718
      ],
      [
        "tmp",
        -9.814831660951098
      ],
      [
        "ej",
        -9.815648968522076
      ],
      [
        "\\\\",
        -9.816375142322997
      ],
      [
        "dc",
        -9.817419090756868
      ],
      [
        "2563",
        -9.819828852593147
      ],
      [
        "Rioja",
        -9.821049947549817
      ],
      [
        "ry",
        -9.821411440528346
      ],
      [
        "rg",
        -9.826179034449881
      ],
      [
        "br",
        -9.827666037051323
      ],
      [
        "wo",
        -9.832637171260236
      ],
      [
        "lm",
        -9.833406629864722
      ],
      [
        "sb",
        -9.836414136701546
      ],
      [
        "pn",
        -9.836737032395229
      ],
      [
        "exe",
        -9.83793060693295
      ],
      [
        "fs",
        -9.840592427192018
      ],
      [
        "vi",
        -9.844773188999067
      ],
      [
        "~",
        -9.846572960984512
      ],
      [
        "gs",
        -9.846836964533967
      ],
      [
        "yn",
        -9.84686948049209
      ],
      [
        "rb",
        -9.849651526430904
      ],
      [
        "cz",
        -9.849995603259861
      ],
      [
        "object",
        -9.851284645677312
      ],
      [
        "tz",
        -9.85689281205035
      ],
      [
        "nb",
        -9.857721836903975
      ],
      [
        "av",
        -9.861882561966413
      ],
      [
        "yi",
        -9.863039238153416
      ],
      [
        "sf",
        -9.867699561571813
      ],
      [
        "jo",
        -9.869403872026153
      ],
      [
        "ph",
        -9.872455158230016
      ],
      [
        "document",
        -9.876947625711658
      ],
      [
        "AB",
        -9.8781471866305
      ],
      [
        "db",
        -9.879132228457475
      ],
      [
        "ek",
        -9.889570622809156
      ],
      [
        "uc",
        -9.905151859495056
      ],
      [
        "style",
        -9.90717328212284
      ],
      [
        "lert",
        -9.912563535735705
      ],
      [
        "wn",
        -9.912912448336147
      ],
      [
        "ml",
        -9.914373987113756
      ],
      [
        "bu",
        -9.919160858987748
      ],
      [
        "bl",
        -9.924570933831117
      ],
      [
        "[",
        -9.927301331450268
      ],
      [
        "253",
        -9.929406812504414
      ],
      [
        "select",
        -9.934982945646912
      ],
      [
        "hy",
        -9.941359030222536
      ],
      [
        "2312",
        -9.942915423665879
      ],
      [
        "ka",
        -9.944090295222253
      ],
      [
        "Vino",
        -9.944856957697255
      ],
      [
        "253A",
        -9.944863088820853
      ],
      [
        "jpe",
        -9.948628452503417
      ],
      [
        "mail",
        -9.949771875921865
      ],
      [
        "256F",
        -9.951016417580167
      ],
      [
        "Jam",
        -9.95305592781796
      ],
      [
        "Manchego",
        -9.955727002136243
      ],
      [
        "Ques",
        -9.955848478264606
      ],
      [
        "wh",
        -9.958788544242559
      ],
      [
        "iz",
        -9.96030093159689
      ],
      [
        "system",
        -9.961777224411989
      ],
      [
        "gh",
        -9.964150002678593
      ],
      [
        "hz",
        -9.965419353311681
      ],
      [
        "from",
        -9.966951724688514
      ],
      [
        "iv",
        -9.96917734111361
      ],
      [
        "era",
        -9.97158763800551
      ],
      [
        "rw",
        -9.975936024248593
      ],
      [
        "all",
        -9.978892232780385
      ],
      [
        "252",
        -9.981718805803336
      ],
      [
        "del",
        -9.994431894298021
      ],
      [
        "BS",
        -9.996382174620024
      ],
      [
        "position",
        -9.996518877710804
      ],
      [
        "aj",
        -9.999678883364446
      ],
      [
        "location",
        -10.004248835757515
      ],
      [
        "E9rico",
        -10.006813876580466
      ],
      [
        "asf",
        -10.006824689133737
      ],
      [
        "mc",
        -10.008769986537107
      ],
      [
        "dy",
        -10.011677336087818
      ],
      [
        "cd",
        -10.01185918918377
      ],
      [
        "bn",
        -10.0125104372796
      ],
      [
        "wr",
        -10.015787194299149
      ],
      [
        "hb",
        -10.018706907438613
      ],
      [
        "tk",
        -10.0197409266532
      ],
      [
        "wp",
        -10.02062708890467
      ],
      [
        "log",
        -10.022226444476045
      ],
      [
        "count",
        -10.02913097308582
      ],
      [
        "fl",
        -10.034414827416256
      ],
      [
        "2569",
        -10.035633052159511
      ],
      [
        "mm",
        -10.039871450392592
      ],
      [
        "ina",
        -10.043720722111761
      ],
      [
        "jt",
        -10.043950374268901
      ],
      [
        "2565",
        -10.047462419430628
      ],
      [
        "md",
        -10.053650655614415
      ],
      [
        "yr",
        -10.053690943305387
      ],
      [
        "253D",
        -10.053740258193432
      ],
      [
        "lb",
        -10.065217236831373
      ],
      [
        "ell",
        -10.066276209072168
      ],
      [
        "hf",
        -10.066578095045982
      ],
      [
        "ov",
        -10.06709574389464
      ],
      [
        "eO",
        -10.067108720407425
      ],
      [
        "ze",
        -10.06733950217246
      ],
      [
        "tj",
        -10.069185236807122
      ],
      [
        "cat",
        -10.069353152940533
      ],
      [
        "ly",
        -10.07125926056581
      ],
      [
        "oz",
        -10.07208438170667
      ],
      [
        "936",
        -10.072452807979108
      ],
      [
        "ug",
        -10.079859247320353
      ],
      [
        "tv",
        -10.080438597835526
      ],
      [
        "hw",
        -10.080815543086914
      ],
      [
        "hp",
        -10.083759493456157
      ],
      [
        "950",
        -10.088158148175552
      ],
      [
        "kt",
        -10.089141946591024
      ],
      [
        "autoexec",
        -10.09019494967507
      ],
      [
        "Fchild",
        -10.090425042234703
      ],
      [
        "250",
        -10.094923669222513
      ],
      [
        "wide",
        -10.096894160068995
      ],
      [
        "htm",
        -10.097856504447368
      ],
      [
        "replace",
        -10.099231111338767
      ],
      [
        "var",
        -10.10080627203683
      ],
      [
        "tar",
        -10.103204401107348
      ],
      [
        "ak",
        -10.107420045894079
      ],
      [
        "koi",
        -10.108727559701453
      ],
      [
        "?",
        -10.114475284222092
      ],
      [
        "yl",
        -10.116746583596619
      ],
      [
        "grou",
        -10.118597572940047
      ],
      [
        "mp",
        -10.11865879568792
      ],
      [
        "yh",
        -10.129576952405895
      ],
      [
        "hg",
        -10.130806158254114
      ],
      [
        "lf",
        -10.134030554418409
      ],
      [
        "ub",
        -10.134884528657736
      ],
      [
        "ko",
        -10.136461180812017
      ],
      [
        "wl",
        -10.140718607324342
      ],
      [
        "eee",
        -10.144897343699261
      ],
      [
        "3A0",
        -10.147434600102173
      ],
      [
        "257",
        -10.150575017246108
      ],
      [
        "bh",
        -10.157561591424699
      ],
      [
        "fh",
        -10.157994391381454
      ],
      [
        "zo",
        -10.1587898214785
      ],
      [
        "t6",
        -10.162570117987858
      ],
      [
        "2022",
        -10.162861968639273
      ],
      [
        "yu",
        -10.16400656858325
      ],
      [
        "uu",
        -10.165316538486817
      ],
      [
        "node",
        -10.165908173546784
      ],
      [
        "7a",
        -10.169241130019088
      ],
      [
        "vo",
        -10.17020262374832
      ],
      [
        "ki",
        -10.17225710072196
      ],
      [
        "pd",
        -10.174301334617432
      ],
      [
        "$",
        -10.174619940226062
      ],
      [
        "chinese",
        -10.174627530911145
      ],
      [
        "wav",
        -10.175488656176892
      ],
      [
        "B2A",
        -10.177914599147925
      ],
      [
        "vt",
        -10.185646503405032
      ],
      [
        "mb",
        -10.1884757267683
      ],
      [
        "name",
        -10.189537283364544
      ],
      [
        "4u",
        -10.191666768336916
      ],
      [
        "Bposition",
        -10.1935617525852
      ],
      [
        "4t",
        -10.193941593186018
      ],
      [
        "df",
        -10.194442937091122
      ],
      [
        "arabi",
        -10.194522612361311
      ],
      [
        "sam",
        -10.195042378497845
      ],
      [
        "admin",
        -10.195696341994267
      ],
      [
        "Open",
        -10.197802335065287
      ],
      [
        "lg",
        -10.201692169922872
      ],
      [
        "up",
        -10.201818343229231
      ],
      [
        "ogo",
        -10.203754646994295
      ],
      [
        "932",
        -10.206752304535541
      ],
      [
        "2529",
        -10.207628372261613
      ],
      [
        "OR",
        -10.211611124256272
      ],
      [
        "eoe",
        -10.213700043770395
      ],
      [
        "etc",
        -10.214476159101764
      ],
      [
        "time",
        -10.217948107032658
      ],
      [
        "div",
        -10.218184708330002
      ],
      [
        "where",
        -10.218191971608771
      ],
      [
        "ierra",
        -10.219833267395382
      ],
      [
        "gl",
        -10.22968022869327
      ],
      [
        "Ra",
        -10.229827398725751
      ],
      [
        "aros",
        -10.2301548802794
      ],
      [
        "quic",
        -10.233699242336467
      ],
      [
        "t4",
        -10.235312390833958
      ],
      [
        "sj",
        -10.235496535161712
      ],
      [
        "union",
        -10.243687587214241
      ],
      [
        "254",
        -10.244863791499279
      ],
      [
        "img",
        -10.248613333874061
      ],
      [
        "nz",
        -10.249412466796272
      ],
      [
        "Set",
        -10.249417097967918
      ],
      [
        "874",
        -10.25648166781
      ],
      [
        "include",
        -10.26103210824839
      ],
      [
        "any",
        -10.263606350296463
      ],
      [
        "ste",
        -10.266938868836863
      ],
      [
        "dw",
        -10.270396312775361
      ],
      [
        "lw",
        -10.270677164373854
      ],
      [
        "i7",
        -10.271285677392912
      ],
      [
        "titulo",
        -10.27401697612499
      ],
      [
        "sk",
        -10.274264855156755
      ],
      [
        "xt",
        -10.275480727292575
      ],
      [
        "menu",
        -10.276335947852136
      ],
      [
        "zara",
        -10.278844288455158
      ],
      [
        "ck",
        -10.28129864480179
      ],
      [
        "gov",
        -10.281346436093855
      ],
      [
        "250A",
        -10.28422557190339
      ],
      [
        "echo",
        -10.28784966284239
      ],
      [
        "t7",
        -10.288033904330081
      ],
      [
        "sz",
        -10.288606423152974
      ],
      [
        "xp_",
        -10.288792186371971
      ],
      [
        "uy",
        -10.289653223928866
      ],
      [
        "basi",
        -10.2898826694105
      ],
      [
        "221",
        -10.295192783678461
      ],
      [
        "dg",
        -10.29827677313164
      ],
      [
        "cme",
        -10.301681541186404
      ],
      [
        "wd",
        -10.302043814432434
      ],
      [
        "ftp",
        -10.30227503105213
      ],
      [
        "fd",
        -10.303877202859178
      ],
      [
        "3D1",
        -10.305286776741738
      ],
      [
        "3A15",
        -10.30609321117294
      ],
      [
        "process",
        -10.306986684023126
      ],
      [
        "a6",
        -10.308718556659636
      ],
      [
        "pu",
        -10.309276951168066
      ],
      [
        "instruction",
        -10.31071799050939
      ],
      [
        "a7",
        -10.31147250125943
      ],
      [
        "pm",
        -10.31191722417266
      ],
      [
        "mpe",
        -10.314488614388633
      ],
      [
        "6a",
        -10.316207845970766
      ],
      [
        "eea",
        -10.316261040736123
      ],
      [
        "itfor",
        -10.318390085203237
      ],
      [
        "yd",
        -10.319000788071065
      ],
      [
        "stdin",
        -10.322447412662797
      ],
      [
        "nk",
        -10.32893306828834
      ],
      [
        "lib",
        -10.328936581367767
      ],
      [
        "gd",
        -10.329762103802473
      ],
      [
        "body",
        -10.32994367027305
      ],
      [
        "boot",
        -10.330338388736788
      ],
      [
        "ij",
        -10.334204223097867
      ],
      [
        "ik",
        -10.335345233578323
      ],
      [
        "amper",
        -10.337376691349395
      ],
      [
        "biz",
        -10.338482927255452
      ],
      [
        "ks",
        -10.342409744223186
      ],
      [
        "shutdown",
        -10.348817790702306
      ],
      [
        "sali",
        -10.350426906269117
      ],
      [
        "ok",
        -10.350456097106672
      ],
      [
        "ada",
        -10.351501363799613
      ],
      [
        "2522",
        -10.352883049519061
      ],
      [
        "estil",
        -10.356578109467762
      ],
      [
        "bc",
        -10.357233936147777
      ],
      [
        "bd",
        -10.359608532978136
      ],
      [
        "nuestra",
        -10.360536828073654
      ],
      [
        "zt",
        -10.360857981096382
      ],
      [
        "252F",
        -10.36323795239754
      ],
      [
        "rj",
        -10.364812179419708
      ],
      [
        "eet",
        -10.368005616729054
      ],
      [
        "htacces",
        -10.372394510974715
      ],
      [
        "connect",
        -10.37239455277544
      ],
      [
        "home",
        -10.373699399942243
      ],
      [
        "castr",
        -10.374326625303652
      ],
      [
        "drop",
        -10.37467980242421
      ],
      [
        "credito",
        -10.376378573404791
      ],
      [
        "fotos",
        -10.37642912983076
      ],
      [
        "cb",
        -10.376474314953189
      ],
      [
        "cy",
        -10.376587566130045
      ],
      [
        "man",
        -10.377042456787814
      ],
      [
        "154",
        -10.377839375195613
      ],
      [
        "253E",
        -10.377849941396514
      ],
      [
        "had",
        -10.378415858579555
      ],
      [
        "157",
        -10.380984700816711
      ],
      [
        "206",
        -10.382457031920518
      ],
      [
        "htpass",
        -10.384005254595719
      ],
      [
        "access_log",
        -10.38439461886259
      ],
      [
        "telnet",
        -10.38445710278307
      ],
      [
        "aR",
        -10.384616209366598
      ],
      [
        "nph",
        -10.388268741656109
      ],
      [
        "tur",
        -10.388882608691837
      ],
      [
        "tR",
        -10.392493416840948
      ],
      [
        "elay",
        -10.392995024580241
      ],
      [
        "ete",
        -10.395339303249818
      ],
      [
        "opt",
        -10.395723126342105
      ],
      [
        "i6",
        -10.396409880665008
      ],
      [
        "insert",
        -10.396518724492779
      ],
      [
        "path",
        -10.397129645494118
      ],
      [
        "link",
        -10.397492779187925
      ],
      [
        "hk",
        -10.397523008871445
      ],
      [
        "dir",
        -10.397804202409262
      ],
      [
        "248",
        -10.40262262833865
      ],
      [
        "i4",
        -10.403010069341263
      ],
      [
        "ero",
        -10.4032250901822
      ],
      [
        "4i",
        -10.406266684410848
      ],
      [
        "Bwa",
        -10.408382954822653
      ],
      [
        "my",
        -10.408964098544335
      ],
      [
        "sta",
        -10.409908463429037
      ],
      [
        "2BT",
        -10.410784203436044
      ],
      [
        "sv",
        -10.413363917676339
      ],
      [
        "189",
        -10.41376253166284
      ],
      [
        "iI",
        -10.413796096149188
      ],
      [
        "107",
        -10.414519361787104
      ],
      [
        "Or",
        -10.41582785019568
      ],
      [
        "6t",
        -10.416244121735147
      ],
      [
        "dp",
        -10.41897528017805
      ],
      [
        "nv",
        -10.42049896815621
      ],
      [
        "oj",
        -10.421958641186649
      ],
      [
        "s6",
        -10.423372045999518
      ],
      [
        "231",
        -10.424328503523968
      ],
      [
        "copy",
        -10.425913993644029
      ],
      [
        "input",
        -10.42652862982059
      ],
      [
        "user",
        -10.426776643678458
      ],
      [
        "4a",
        -10.429337879302416
      ],
      [
        "productos",
        -10.429669776978113
      ],
      [
        "between",
        -10.42966981945001
      ],
      [
        "ara",
        -10.429857169380366
      ],
      [
        "rz",
        -10.429982041749337
      ],
      [
        "7t",
        -10.430422121659687
      ],
      [
        "meta",
        -10.430971514810455
      ],
      [
        "wget",
        -10.432127800968267
      ],
      [
        "sock_stream",
        -10.433889186257874
      ],
      [
        "186",
        -10.437996509429144
      ],
      [
        "err",
        -10.438045478412668
      ],
      [
        "yc",
        -10.438462905826466
      ],
      [
        "xterm",
        -10.438644547001708
      ],
      [
        "bgsound",
        -10.442381794131286
      ],
      [
        "vbscript",
        -10.442398565028906
      ],
      [
        "nbul",
        -10.442591279187823
      ],
      [
        "java",
        -10.44293686231236
      ],
      [
        "dk",
        -10.44323158311974
      ],
      [
        "Is",
        -10.443660617506676
      ],
      [
        "Ba",
        -10.444591725378146
      ],
      [
        "i2",
        -10.444717126467802
      ],
      [
        "fu",
        -10.444717928287938
      ],
      [
        "null",
        -10.445664460489995
      ],
      [
        "mocha",
        -10.446814845393973
      ],
      [
        "usr",
        -10.447220454431557
      ],
      [
        "aO",
        -10.450779782001385
      ],
      [
        "174",
        -10.450952706160257
      ],
      [
        "netcat",
        -10.451111382090442
      ],
      [
        "IN",
        -10.452202165406558
      ],
      [
        "209",
        -10.453419930898338
      ],
      [
        "uw",
        -10.45481202127063
      ],
      [
        "uf",
        -10.454913278542351
      ],
      [
        "244",
        -10.457303890545587
      ],
      [
        "192",
        -10.45842925259586
      ],
      [
        "103",
        -10.458943450725428
      ],
      [
        "iff",
        -10.460173299215715
      ],
      [
        "eta",
        -10.460952516181568
      ],
      [
        "eval",
        -10.464848546374725
      ],
      [
        "183",
        -10.46930436234521
      ],
      [
        "zi",
        -10.471168881359077
      ],
      [
        "wu",
        -10.471490187492439
      ],
      [
        "Ri",
        -10.472574018320156
      ],
      [
        "iframe",
        -10.472689431376878
      ],
      [
        "MSI",
        -10.473131414833613
      ],
      [
        "253F",
        -10.473372904066
      ],
      [
        "2i",
        -10.474308715945188
      ],
      [
        "ter",
        -10.475209391421274
      ],
      [
        "247",
        -10.47550044508355
      ],
      [
        "243",
        -10.475538117384518
      ],
      [
        "mw",
        -10.47575798464597
      ],
      [
        "zs",
        -10.476171266955845
      ],
      [
        "delete",
        -10.477238079974242
      ],
      [
        "cm",
        -10.47733646009059
      ],
      [
        "rk",
        -10.478903532866505
      ],
      [
        "nsf",
        -10.480920778423435
      ],
      [
        "lv",
        -10.482373356304038
      ],
      [
        "jn",
        -10.483775006441864
      ],
      [
        "cw",
        -10.484778109085836
      ],
      [
        "tet",
        -10.485672437347741
      ],
      [
        "242",
        -10.485988313400807
      ],
      [
        "2s",
        -10.486586069415083
      ],
      [
        "2561",
        -10.48830981216314
      ],
      [
        "ji",
        -10.488895669876673
      ],
      [
        "167",
        -10.489227077105872
      ],
      [
        "zn",
        -10.492049856502852
      ],
      [
        "aee",
        -10.49208936390215
      ],
      [
        "136",
        -10.49283080362817
      ],
      [
        "ana",
        -10.493885295841888
      ],
      [
        "arr",
        -10.494438871442494
      ],
      [
        "238",
        -10.494486907254714
      ],
      [
        "passthru",
        -10.494911677124598
      ],
      [
        "tO",
        -10.496431826865614
      ],
      [
        "mf",
        -10.49658899769221
      ],
      [
        "ff",
        -10.500595389812595
      ],
      [
        "133",
        -10.501264842296468
      ],
      [
        "IPT",
        -10.501524592731915
      ],
      [
        "mg",
        -10.505587225428412
      ],
      [
        "wm",
        -10.506219391796979
      ],
      [
        "246",
        -10.507148805224729
      ],
      [
        "6s",
        -10.511543163348465
      ],
      [
        "169",
        -10.512521071031363
      ],
      [
        "tte",
        -10.514774775784623
      ],
      [
        "199",
        -10.516337462506229
      ],
      [
        "ym",
        -10.517642858144834
      ],
      [
        "cf",
        -10.517774727100228
      ],
      [
        "130",
        -10.519016251308063
      ],
      [
        "159",
        -10.520311255114544
      ],
      [
        "4s",
        -10.522360924154075
      ],
      [
        "108",
        -10.522537516176595
      ],
      [
        "seo",
        -10.522922812361285
      ],
      [
        "106",
        -10.523156583519626
      ],
      [
        "201",
        -10.523469368404879
      ],
      [
        "tes",
        -10.525322154924073
      ],
      [
        "having",
        -10.526880317131948
      ],
      [
        "nj",
        -10.528320755616624
      ],
      [
        "bm",
        -10.529426683510797
      ],
      [
        "tee",
        -10.531401807274385
      ],
      [
        "255",
        -10.533752840712118
      ],
      [
        "vs",
        -10.53399474650729
      ],
      [
        "FROM",
        -10.536202735522323
      ],
      [
        "109",
        -10.536632898165038
      ],
      [
        "nO",
        -10.537289703360205
      ],
      [
        "kn",
        -10.541149467020599
      ],
      [
        "eae",
        -10.542630289600515
      ],
      [
        "wf",
        -10.543318239709802
      ],
      [
        "sun",
        -10.544746830608577
      ],
      [
        "update",
        -10.545832789523985
      ],
      [
        "a4",
        -10.546289905993245
      ],
      [
        "204",
        -10.547002998429756
      ],
      [
        "sca",
        -10.547309100260941
      ],
      [
        "188",
        -10.547683043563861
      ],
      [
        "233",
        -10.548030960639728
      ],
      [
        "ere",
        -10.548142444758643
      ],
      [
        "185",
        -10.549342981759395
      ],
      [
        "196",
        -10.551446850304973
      ],
      [
        "191",
        -10.551453702833385
      ],
      [
        "s7",
        -10.551536311312166
      ],
      [
        "nto",
        -10.553978390444463
      ],
      [
        "348",
        -10.554757977556026
      ],
      [
        "les",
        -10.55543571833422
      ],
      [
        "San",
        -10.556321530778416
      ],
      [
        "res",
        -10.557212946561709
      ],
      [
        "235",
        -10.560817057041692
      ],
      [
        "Ni",
        -10.561445618220052
      ],
      [
        "tor",
        -10.562378221074574
      ],
      [
        "oee",
        -10.562562758445388
      ],
      [
        "230",
        -10.564271000560806
      ],
      [
        "104",
        -10.564737523959804
      ],
      [
        "lk",
        -10.565687082043398
      ],
      [
        "152",
        -10.566629055272877
      ],
      [
        "236",
        -10.567025823803737
      ],
      [
        "249",
        -10.567116689526284
      ],
      [
        "s2",
        -10.567651158314693
      ],
      [
        "178",
        -10.573776053575564
      ],
      [
        "197",
        -10.574807444982838
      ],
      [
        "237",
        -10.576641337421648
      ],
      [
        "184",
        -10.576659640938988
      ],
      [
        "py",
        -10.57676373745249
      ],
      [
        "cfm",
        -10.577306149193323
      ],
      [
        "239",
        -10.579889596097889
      ],
      [
        "187",
        -10.580332379087025
      ],
      [
        "s4",
        -10.580614331188151
      ],
      [
        "7i",
        -10.58091277656639
      ],
      [
        "car",
        -10.581797764043005
      ],
      [
        "gg",
        -10.58209526658191
      ],
      [
        "dz",
        -10.582127141961589
      ],
      [
        "101",
        -10.582269519380757
      ],
      [
        "mar",
        -10.584659079757678
      ],
      [
        "ers",
        -10.587295996525967
      ],
      [
        "jh",
        -10.588603249227264
      ],
      [
        "155",
        -10.588983572622494
      ],
      [
        "ees",
        -10.589538416355616
      ],
      [
        "168",
        -10.590145208468194
      ],
      [
        "sN",
        -10.590324174795795
      ],
      [
        "see",
        -10.591235790373464
      ],
      [
        "vn",
        -10.591729268814696
      ],
      [
        "iN",
        -10.592139924053228
      ],
      [
        "234",
        -10.594423325710352
      ],
      [
        "lz",
        -10.595286237170711
      ],
      [
        "116",
        -10.597192677429257
      ],
      [
        "219",
        -10.598830488339447
      ],
      [
        "nte",
        -10.599778552188718
      ],
      [
        "fc",
        -10.600151903693863
      ],
      [
        "139",
        -10.600509599909618
      ],
      [
        "258",
        -10.601222152414419
      ],
      [
        "der",
        -10.601446295872895
      ],
      [
        "sO",
        -10.603968431265779
      ],
      [
        "163",
        -10.605689062397811
      ],
      [
        "208",
        -10.606066974739159
      ],
      [
        "245",
        -10.607263738236735
      ],
      [
        "idA",
        -10.607548672462245
      ],
      [
        "iee",
        -10.609367082906038
      ],
      [
        "170",
        -10.612383249787257
      ],
      [
        "251",
        -10.612556052802358
      ],
      [
        "182",
        -10.612757823187662
      ],
      [
        "ju",
        -10.613844466622615
      ],
      [
        "oO",
        -10.61572936254605
      ],
      [
        "gm",
        -10.61999066410575
      ],
      [
        "137",
        -10.62037220881928
      ],
      [
        "ast",
        -10.621468476765287
      ],
      [
        "ote",
        -10.624142869974756
      ],
      [
        "357",
        -10.624444376271947
      ],
      [
        "250D",
        -10.624722031973757
      ],
      [
        "150",
        -10.625389011942854
      ],
      [
        "Anode",
        -10.62548221820183
      ],
      [
        "ert",
        -10.625554513258805
      ],
      [
        "uj",
        -10.626542132958544
      ],
      [
        "205",
        -10.627677283771291
      ],
      [
        "232",
        -10.627771104342948
      ],
      [
        "Ot",
        -10.628466486615721
      ],
      [
        "110",
        -10.629092738968442
      ],
      [
        "dll",
        -10.631011960483395
      ],
      [
        "sR",
        -10.631116247969114
      ],
      [
        "cia",
        -10.631348547930918
      ],
      [
        "zr",
        -10.632456678143834
      ],
      [
        "132",
        -10.635035974571087
      ],
      [
        "2Fetc",
        -10.63593319010974
      ],
      [
        "134",
        -10.637658127240236
      ],
      [
        "105",
        -10.63842666264251
      ],
      [
        "services",
        -10.639741172035507
      ],
      [
        "175",
        -10.639908943880556
      ],
      [
        "156",
        -10.640138529143115
      ],
      [
        "iO",
        -10.640281691401695
      ],
      [
        "151",
        -10.642239887093444
      ],
      [
        "eeo",
        -10.64247617591524
      ],
      [
        "iR",
        -10.644369636339547
      ],
      [
        "165",
        -10.644546558962354
      ],
      [
        "171",
        -10.644804163402775
      ],
      [
        "rcp",
        -10.648172551962606
      ],
      [
        "111",
        -10.648789315922976
      ],
      [
        "200",
        -10.649642272226256
      ],
      [
        "135",
        -10.651239382905098
      ],
      [
        "226",
        -10.65142797694946
      ],
      [
        "179",
        -10.651532373106722
      ],
      [
        "Oa",
        -10.651898208893073
      ],
      [
        "asm",
        -10.654642304023488
      ],
      [
        "Os",
        -10.654953741034802
      ],
      [
        "202",
        -10.656354331958067
      ],
      [
        "190",
        -10.65935384554175
      ],
      [
        "146",
        -10.660978969881608
      ],
      [
        "119",
        -10.661057259211855
      ],
      [
        "wc",
        -10.661071700008826
      ],
      [
        "ela",
        -10.66149073143207
      ],
      [
        "207",
        -10.661624590891188
      ],
      [
        "bw",
        -10.662969460603483
      ],
      [
        "6i",
        -10.665048361889195
      ],
      [
        "181",
        -10.665751898991054
      ],
      [
        "118",
        -10.66742955711104
      ],
      [
        "162",
        -10.669534302571275
      ],
      [
        "ucs",
        -10.670589501575257
      ],
      [
        "ida",
        -10.671502739593357
      ],
      [
        "h6",
        -10.672046564126555
      ],
      [
        "tra",
        -10.672151461406884
      ],
      [
        "ine",
        -10.672641171114849
      ],
      [
        "176",
        -10.674650680398848
      ],
      [
        "2f",
        -10.678213158923132
      ],
      [
        "zu",
        -10.678475560435743
      ],
      [
        "131",
        -10.67852324966362
      ],
      [
        "vh",
        -10.678629445651161
      ],
      [
        "kh",
        -10.680533514648967
      ],
      [
        "uel",
        -10.68176705358087
      ],
      [
        "bb",
        -10.682774758842978
      ],
      [
        "153",
        -10.6831639533738
      ],
      [
        "yw",
        -10.68426786896465
      ],
      [
        "148",
        -10.686513750011493
      ],
      [
        "138",
        -10.686612242923225
      ],
      [
        "https",
        -10.68785783240829
      ],
      [
        "perl",
        -10.689670302073601
      ],
      [
        "203",
        -10.69019065145028
      ],
      [
        "158",
        -10.693677783516527
      ],
      [
        "2FN",
        -10.694770215418075
      ],
      [
        "27http",
        -10.698271878542423
      ],
      [
        "paros",
        -10.700814053435836
      ],
      [
        "164",
        -10.702163739186812
      ],
      [
        "241",
        -10.702870560030217
      ],
      [
        "tea",
        -10.70371951050527
      ],
      [
        "194",
        -10.705721494004205
      ],
      [
        "oet",
        -10.706347735728821
      ],
      [
        "bat",
        -10.709109151559584
      ],
      [
        "177",
        -10.709159340497015
      ],
      [
        "198",
        -10.709503847833687
      ],
      [
        "ria",
        -10.709506406855555
      ],
      [
        "353",
        -10.711167232775148
      ],
      [
        "160",
        -10.711600165243247
      ],
      [
        "166",
        -10.714655222587577
      ],
      [
        "2527",
        -10.715433482136113
      ],
      [
        "ner",
        -10.715818063132414
      ],
      [
        "2573",
        -10.716814638028834
      ],
      [
        "143",
        -10.717976163420957
      ],
      [
        "7s",
        -10.718963446485681
      ],
      [
        "Ns",
        -10.7192293952259
      ],
      [
        "459",
        -10.725854131497147
      ],
      [
        "5601",
        -10.72616255771775
      ],
      [
        "1987",
        -10.727050359207702
      ],
      [
        "114",
        -10.728513803926688
      ],
      [
        "aris",
        -10.728859895429474
      ],
      [
        "837",
        -10.729396534713498
      ],
      [
        "147",
        -10.731343290745723
      ],
      [
        "259",
        -10.732419915288821
      ],
      [
        "ber",
        -10.73269610345751
      ],
      [
        "180",
        -10.73272858219818
      ],
      [
        "bf",
        -10.733349094817214
      ],
      [
        "rtf",
        -10.736473381735117
      ],
      [
        "Ol",
        -10.737618522886589
      ],
      [
        "ver",
        -10.73830599388906
      ],
      [
        "nne",
        -10.73863244472677
      ],
      [
        "reek",
        -10.740424625299037
      ],
      [
        "vd",
        -10.741345631987677
      ],
      [
        "144",
        -10.741502478172293
      ],
      [
        "bp",
        -10.742111359192997
      ],
      [
        "msp",
        -10.743035947645115
      ],
      [
        "tre",
        -10.743182797761994
      ],
      [
        "sI",
        -10.743826653637251
      ],
      [
        "h4",
        -10.74596293518223
      ],
      [
        "1254",
        -10.747602316319124
      ],
      [
        "pw",
        -10.749266502579008
      ],
      [
        "256E",
        -10.750951769820267
      ],
      [
        "Bdocument",
        -10.75100532335755
      ],
      [
        "gw",
        -10.751404147185461
      ],
      [
        "ual",
        -10.751709073141344
      ],
      [
        "604",
        -10.751714335462001
      ],
      [
        "265",
        -10.752008817724363
      ],
      [
        "sto",
        -10.75331302496967
      ],
      [
        "yg",
        -10.754209488596537
      ],
      [
        "dO",
        -10.754226801130294
      ],
      [
        "fw",
        -10.755629826851216
      ],
      [
        "ate",
        -10.756392839950426
      ],
      [
        "ret",
        -10.75826685746689
      ],
      [
        "807",
        -10.758498726966085
      ],
      [
        "mk",
        -10.759775986032135
      ],
      [
        "edo",
        -10.760085571643582
      ],
      [
        "fp",
        -10.76062941359486
      ],
      [
        "art",
        -10.76133748472623
      ],
      [
        "roman",
        -10.76143448155829
      ],
      [
        "123",
        -10.761635144179671
      ],
      [
        "3FB",
        -10.762294884075562
      ],
      [
        "ment",
        -10.762306123985452
      ],
      [
        "ww",
        -10.76247071376741
      ],
      [
        "2528",
        -10.762709515677143
      ],
      [
        "253C",
        -10.76306804359595
      ],
      [
        "dI",
        -10.765101218197827
      ],
      [
        "eat",
        -10.766769804022822
      ],
      [
        "trad",
        -10.768619947400984
      ],
      [
        "ser",
        -10.76867413617978
      ],
      [
        "yy",
        -10.7693874445971
      ],
      [
        "2570",
        -10.769551916391162
      ],
      [
        "7h",
        -10.769675490443362
      ],
      [
        "scii",
        -10.770092922394594
      ],
      [
        "wb",
        -10.770181503607228
      ],
      [
        "gy",
        -10.770891588147494
      ],
      [
        "fm",
        -10.771272767370856
      ],
      [
        "hv",
        -10.771506487899705
      ],
      [
        "fy",
        -10.772172159873968
      ],
      [
        "172",
        -10.772459110429548
      ],
      [
        "Vi",
        -10.77263104956334
      ],
      [
        "ite",
        -10.772742564050375
      ],
      [
        "are",
        -10.773933328277563
      ],
      [
        "ard",
        -10.775382167764072
      ],
      [
        "120",
        -10.777172918830368
      ],
      [
        "illo",
        -10.77773378244582
      ],
      [
        "214",
        -10.778205649741647
      ],
      [
        "ks_c",
        -10.778855277304046
      ],
      [
        "173",
        -10.779224424922674
      ],
      [
        "74727",
        -10.77953281544206
      ],
      [
        "1255",
        -10.779881384232983
      ],
      [
        "ien",
        -10.78129153513065
      ],
      [
        "toe",
        -10.781497117730755
      ],
      [
        "lI",
        -10.781774187470527
      ],
      [
        "216",
        -10.782175840916274
      ],
      [
        "Ih",
        -10.782268520571552
      ],
      [
        "pg",
        -10.783118175568024
      ],
      [
        "des",
        -10.783524247810456
      ],
      [
        "ett",
        -10.785311409906969
      ],
      [
        "217",
        -10.787267381556415
      ],
      [
        "3342",
        -10.787527567175655
      ],
      [
        "1257",
        -10.788013102032725
      ],
      [
        "240",
        -10.788720775127935
      ],
      [
        "ita",
        -10.788758002559266
      ],
      [
        "nta",
        -10.789234495051149
      ],
      [
        "955",
        -10.789634091508775
      ],
      [
        "1252",
        -10.790048943506825
      ],
      [
        "ira",
        -10.790130962126076
      ],
      [
        "msf",
        -10.790454843440656
      ],
      [
        "161",
        -10.79071634428718
      ],
      [
        "252E",
        -10.791268316157797
      ],
      [
        "iet",
        -10.792428043028602
      ],
      [
        "eei",
        -10.792528142477387
      ],
      [
        "ora",
        -10.794657730937121
      ],
      [
        "let",
        -10.796230040930006
      ],
      [
        "359",
        -10.796506233341093
      ],
      [
        "640110",
        -10.796932692654003
      ],
      [
        "10412",
        -10.797244672009455
      ],
      [
        "kish",
        -10.7973029779548
      ],
      [
        "ern",
        -10.797349946331039
      ],
      [
        "607",
        -10.798318459035245
      ],
      [
        "904",
        -10.79884519534905
      ],
      [
        "lj",
        -10.799606624637129
      ],
      [
        "ata",
        -10.800264448386983
      ],
      [
        "tne",
        -10.80064591176574
      ],
      [
        "145",
        -10.801313333851835
      ],
      [
        "gf",
        -10.802002894303005
      ],
      [
        "ipt",
        -10.802970171420846
      ],
      [
        "263",
        -10.803132536227725
      ],
      [
        "10646",
        -10.80341659274502
      ],
      [
        "nee",
        -10.80498558277162
      ],
      [
        "454",
        -10.805338091488727
      ],
      [
        "icel",
        -10.805957208313192
      ],
      [
        "337",
        -10.807379097486042
      ],
      [
        "swf",
        -10.808895089208594
      ],
      [
        "bg",
        -10.809236382813319
      ],
      [
        "korea",
        -10.809255980126862
      ],
      [
        "hj",
        -10.812537640608406
      ],
      [
        "4h",
        -10.812858977715887
      ],
      [
        "312",
        -10.813584085122972
      ],
      [
        "mdb",
        -10.814439257237156
      ],
      [
        "7l",
        -10.815025238445422
      ],
      [
        "simp",
        -10.815713141426349
      ],
      [
        "213",
        -10.816612450715963
      ],
      [
        "llic",
        -10.817698485104861
      ],
      [
        "193",
        -10.81801548118068
      ],
      [
        "d6",
        -10.818225275912258
      ],
      [
        "102",
        -10.81891579763309
      ],
      [
        "486",
        -10.819958374268907
      ],
      [
        "WHERE",
        -10.821542916855734
      ],
      [
        "int",
        -10.822256797411082
      ],
      [
        "cha",
        -10.823686878372285
      ],
      [
        "358",
        -10.82524576754881
      ],
      [
        "unO",
        -10.82575153154303
      ],
      [
        "389",
        -10.8257515946604
      ],
      [
        "ent",
        -10.82608290809246
      ],
      [
        "tie",
        -10.826906163870678
      ],
      [
        "956",
        -10.82759510219938
      ],
      [
        "ele",
        -10.828264885868371
      ],
      [
        "vl",
        -10.829394081573152
      ],
      [
        "Ii",
        -10.831694672446144
      ],
      [
        "zl",
        -10.831880255969532
      ],
      [
        "686",
        -10.83190633737544
      ],
      [
        "ran",
        -10.832012858034933
      ],
      [
        "488",
        -10.832295276590639
      ],
      [
        "1250",
        -10.832710254983397
      ],
      [
        "984",
        -10.834272565471803
      ],
      [
        "F1a",
        -10.834452306144467
      ],
      [
        "117",
        -10.835513159207629
      ],
      [
        "ant",
        -10.837975896527972
      ],
      [
        "126",
        -10.838213197911688
      ],
      [
        "nie",
        -10.838991258219295
      ],
      [
        "cv",
        -10.839522342466937
      ],
      [
        "fb",
        -10.840002753070348
      ],
      [
        "cyri",
        -10.840704121496085
      ],
      [
        "andic",
        -10.840899216147115
      ],
      [
        "40c",
        -10.841935587889989
      ],
      [
        "kl",
        -10.842958570368452
      ],
      [
        "457",
        -10.843432234222647
      ],
      [
        "113",
        -10.84352329580961
      ],
      [
        "rea",
        -10.845054117863052
      ],
      [
        "rre",
        -10.846287376092818
      ],
      [
        "ras",
        -10.846939694265568
      ],
      [
        "m6",
        -10.846981917471489
      ],
      [
        "vc",
        -10.847079156307412
      ],
      [
        "yb",
        -10.847834032850333
      ],
      [
        "her",
        -10.848049864406399
      ],
      [
        "987",
        -10.84905363318035
      ],
      [
        "tin",
        -10.849145955775846
      ],
      [
        "wg",
        -10.84937140019717
      ],
      [
        "d7",
        -10.85185983698794
      ],
      [
        "isir",
        -10.851991795443709
      ],
      [
        "yp",
        -10.853008194335253
      ],
      [
        "brew",
        -10.853550458105001
      ],
      [
        "ier",
        -10.854322930225404
      ],
      [
        "906",
        -10.855354883229086
      ],
      [
        "112",
        -10.857092747155948
      ],
      [
        "zc",
        -10.859759729878945
      ],
      [
        "ku",
        -10.859793766838802
      ],
      [
        "big",
        -10.859814318414724
      ],
      [
        "1251",
        -10.86020236328352
      ],
      [
        "sea",
        -10.860298557787534
      ],
      [
        "zm",
        -10.861040151376319
      ],
      [
        "836",
        -10.862268830595522
      ],
      [
        "437",
        -10.864557896047803
      ],
      [
        "307",
        -10.86484355519973
      ],
      [
        "1258",
        -10.864922944282103
      ],
      [
        "939",
        -10.866342471930723
      ],
      [
        "115",
        -10.86713325555283
      ],
      [
        "yf",
        -10.867274393433096
      ],
      [
        "zh",
        -10.867418979742617
      ],
      [
        "ehe",
        -10.86763045737927
      ],
      [
        "264",
        -10.867948392088078
      ],
      [
        "wy",
        -10.868327047596697
      ],
      [
        "aet",
        -10.868946074346322
      ],
      [
        "385",
        -10.86897651395051
      ],
      [
        "ito",
        -10.869236101621288
      ],
      [
        "694",
        -10.869296766543547
      ],
      [
        "asa",
        -10.870866538402883
      ],
      [
        "309",
        -10.871459848647447
      ],
      [
        "tos",
        -10.87207052078328
      ],
      [
        "954",
        -10.87270462838211
      ],
      [
        "iea",
        -10.874356544847064
      ],
      [
        "306",
        -10.874359407447567
      ],
      [
        "tei",
        -10.87459903391725
      ],
      [
        "149",
        -10.87512602669711
      ],
      [
        "804",
        -10.875460957677728
      ],
      [
        "754",
        -10.876778707797047
      ],
      [
        "vu",
        -10.880430174201521
      ],
      [
        "124",
        -10.881560848112816
      ],
      [
        "kc",
        -10.88263166418675
      ],
      [
        "eoa",
        -10.883438245129923
      ],
      [
        "soe",
        -10.883696670942648
      ],
      [
        "uI",
        -10.883739629499285
      ],
      [
        "ise",
        -10.883835821004416
      ],
      [
        "857",
        -10.88387374680342
      ],
      [
        "706",
        -10.889364941162855
      ],
      [
        "Mar",
        -10.890160471826324
      ],
      [
        "hI",
        -10.891344867407536
      ],
      [
        "709",
        -10.891452206602786
      ],
      [
        "806",
        -10.891531323357242
      ],
      [
        "lass",
        -10.891538202395516
      ],
      [
        "484",
        -10.892366487789026
      ],
      [
        "aoe",
        -10.892935874497901
      ],
      [
        "141",
        -10.894221860011271
      ],
      [
        "388",
        -10.895085506012316
      ],
      [
        "453",
        -10.895691137417742
      ],
      [
        "774",
        -10.895916214520595
      ],
      [
        "eli",
        -10.896377328320586
      ],
      [
        "jis",
        -10.896677261255729
      ],
      [
        "zd",
        -10.89766022234585
      ],
      [
        "354",
        -10.900884039503525
      ],
      [
        "ente",
        -10.903027534686316
      ],
      [
        "ree",
        -10.903269609585223
      ],
      [
        "759",
        -10.904001604793002
      ],
      [
        "eie",
        -10.905829171996338
      ],
      [
        "pb",
        -10.906152530367068
      ],
      [
        "451",
        -10.90723455591567
      ],
      [
        "pf",
        -10.907706524919048
      ],
      [
        "ati",
        -10.908672722467891
      ],
      [
        "608",
        -10.9093279501494
      ],
      [
        "dj",
        -10.910444238033044
      ],
      [
        "ico",
        -10.911021925620755
      ],
      [
        "450",
        -10.911572033092838
      ],
      [
        "057",
        -10.911606665921537
      ],
      [
        "374",
        -10.91179097759041
      ],
      [
        "6h",
        -10.912313756588809
      ],
      [
        "736",
        -10.912768175339288
      ],
      [
        "lO",
        -10.913318108928916
      ],
      [
        "dN",
        -10.914497946915013
      ],
      [
        "304",
        -10.91531444984548
      ],
      [
        "Nd",
        -10.915754569194686
      ],
      [
        "556",
        -10.915958092299542
      ],
      [
        "456",
        -10.916538033982672
      ],
      [
        "system3",
        -10.917593885741343
      ],
      [
        "mz",
        -10.919068909558144
      ],
      [
        "Id",
        -10.91926816728045
      ],
      [
        "mj",
        -10.92146394110274
      ],
      [
        "hO",
        -10.922783403350227
      ],
      [
        "266",
        -10.925141414448365
      ],
      [
        "vm",
        -10.925238724577289
      ],
      [
        "SELECT",
        -10.926557027136717
      ],
      [
        "japa",
        -10.926926593288638
      ],
      [
        "amples",
        -10.926983888795768
      ],
      [
        "636",
        -10.928311749345443
      ],
      [
        "3include",
        -10.930903587477873
      ],
      [
        "557",
        -10.930999503069984
      ],
      [
        "ky",
        -10.932227352866075
      ],
      [
        "eoo",
        -10.932526394024883
      ],
      [
        "584",
        -10.932767229752262
      ],
      [
        "fg",
        -10.933381909951828
      ],
      [
        "oea",
        -10.93343053354874
      ],
      [
        "ooe",
        -10.933696393035387
      ],
      [
        "iel",
        -10.934485909430453
      ],
      [
        "689",
        -10.934583918026991
      ],
      [
        "eri",
        -10.935068000661186
      ],
      [
        "937",
        -10.935831579447047
      ],
      [
        "989",
        -10.935925729376567
      ],
      [
        "uv",
        -10.936726078949931
      ],
      [
        "ton",
        -10.937447532757716
      ],
      [
        "aeo",
        -10.940769123909302
      ],
      [
        "rio",
        -10.941649027422887
      ],
      [
        "ioe",
        -10.942354118444552
      ],
      [
        "m2",
        -10.943839942336208
      ],
      [
        "404",
        -10.943980975797478
      ],
      [
        "teo",
        -10.94399779290642
      ],
      [
        "hR",
        -10.945281328400226
      ],
      [
        "789",
        -10.945544823180928
      ],
      [
        "jd",
        -10.948187746949731
      ],
      [
        "m4",
        -10.950222475750714
      ],
      [
        "hift",
        -10.950315628774323
      ],
      [
        "4m",
        -10.950395769763047
      ],
      [
        "377",
        -10.950792544961782
      ],
      [
        "653",
        -10.952242739455741
      ],
      [
        "7u",
        -10.953247800845416
      ],
      [
        "tat",
        -10.954188107670097
      ],
      [
        "Oh",
        -10.955034313204054
      ],
      [
        "082",
        -10.955955864348937
      ],
      [
        "957",
        -10.95771428045569
      ],
      [
        "2572",
        -10.958036746469574
      ],
      [
        "339",
        -10.958388285996161
      ],
      [
        "142",
        -10.958695961719265
      ],
      [
        "OW",
        -10.958953375220316
      ],
      [
        "224",
        -10.959972958704132
      ],
      [
        "609",
        -10.960590371719942
      ],
      [
        "zip",
        -10.960733895004129
      ],
      [
        "jm",
        -10.96076950513513
      ],
      [
        "297",
        -10.96079802083316
      ],
      [
        "mI",
        -10.961535956005566
      ],
      [
        "eeh",
        -10.962901323951822
      ],
      [
        "aes",
        -10.963733217716669
      ],
      [
        "mas",
        -10.963858913232578
      ],
      [
        "post",
        -10.96462802169935
      ],
      [
        "ont",
        -10.96469710168022
      ],
      [
        "Rh",
        -10.964835008653846
      ],
      [
        "ort",
        -10.966339469536765
      ],
      [
        "roe",
        -10.966563409042536
      ],
      [
        "654",
        -10.966644735612313
      ],
      [
        "787",
        -10.966715667095512
      ],
      [
        "ado",
        -10.967203222111312
      ],
      [
        "559",
        -10.967321367241496
      ],
      [
        "ler",
        -10.96792717394834
      ],
      [
        "2Fscript",
        -10.96829840029073
      ],
      [
        "704",
        -10.969997959710955
      ],
      [
        "896",
        -10.970579789963175
      ],
      [
        "753",
        -10.971679618699998
      ],
      [
        "988",
        -10.972145086243096
      ],
      [
        "658",
        -10.972643600096982
      ],
      [
        "907",
        -10.97418015048485
      ],
      [
        "Uni",
        -10.974353490001775
      ],
      [
        "677",
        -10.97478903184384
      ],
      [
        "782",
        -10.976076059456076
      ],
      [
        "3FD",
        -10.976275149489858
      ],
      [
        "sti",
        -10.97629786399547
      ],
      [
        "mN",
        -10.977161193485387
      ],
      [
        "rte",
        -10.977349690432568
      ],
      [
        "496",
        -10.977891907285668
      ],
      [
        "436",
        -10.977984216222968
      ],
      [
        "731",
        -10.97913836563558
      ],
      [
        "886",
        -10.980367537185064
      ],
      [
        "794",
        -10.980800428718133
      ],
      [
        "679",
        -10.982444923588172
      ],
      [
        "tae",
        -10.982811316559333
      ],
      [
        "dv",
        -10.984594899198726
      ],
      [
        "256D",
        -10.985175831195019
      ],
      [
        "659",
        -10.985271616588909
      ],
      [
        "iei",
        -10.985784699792383
      ],
      [
        "387",
        -10.985837198965875
      ],
      [
        "195",
        -10.98689327901091
      ],
      [
        "url",
        -10.986956093054935
      ],
      [
        "EDa",
        -10.98879847101249
      ],
      [
        "3FF",
        -10.98929147992829
      ],
      [
        "697",
        -10.989669090979941
      ],
      [
        "mR",
        -10.989782453945239
      ],
      [
        "603",
        -10.990181593729314
      ],
      [
        "458",
        -10.991420435926644
      ],
      [
        "uN",
        -10.991434313785986
      ],
      [
        "455",
        -10.991730421807706
      ],
      [
        "614",
        -10.992127921523936
      ],
      [
        "cj",
        -10.992128704841058
      ],
      [
        "fI",
        -10.992415140078517
      ],
      [
        "222",
        -10.994239478579768
      ],
      [
        "757",
        -10.994855446519995
      ],
      [
        "469",
        -10.99871687372573
      ],
      [
        "737",
        -10.999045781667295
      ],
      [
        "606",
        -10.999371834654774
      ],
      [
        "Oi",
        -10.999644262657288
      ],
      [
        "786",
        -11.000110805030523
      ],
      [
        "407",
        -11.000630855018708
      ],
      [
        "lin",
        -11.001627035314616
      ],
      [
        "262",
        -11.001915701827496
      ],
      [
        "RO",
        -11.002092989125947
      ],
      [
        "687",
        -11.002710005312967
      ],
      [
        "649",
        -11.003020925032171
      ],
      [
        "src",
        -11.003942679981389
      ],
      [
        "jl",
        -11.00418918147324
      ],
      [
        "909",
        -11.004628803745852
      ],
      [
        "ica",
        -11.006066087713243
      ],
      [
        "032",
        -11.008253661166627
      ],
      [
        "aei",
        -11.008434860331747
      ],
      [
        "346",
        -11.008529567253543
      ],
      [
        "333",
        -11.009002751706031
      ],
      [
        "703",
        -11.009269441691087
      ],
      [
        "rra",
        -11.009331246294535
      ],
      [
        "cio",
        -11.00967555007659
      ],
      [
        "lee",
        -11.010121326606958
      ],
      [
        "osa",
        -11.011382089885736
      ],
      [
        "256B",
        -11.01160698125744
      ],
      [
        "985",
        -11.01195052287018
      ],
      [
        "neo",
        -11.012992105323253
      ],
      [
        "7832",
        -11.01333637584785
      ],
      [
        "ami",
        -11.013426335660803
      ],
      [
        "km",
        -11.014574004508873
      ],
      [
        "256C",
        -11.01464444133677
      ],
      [
        "tel",
        -11.015554777885722
      ],
      [
        "eti",
        -11.016132969176107
      ],
      [
        "Od",
        -11.017531632590956
      ],
      [
        "tas",
        -11.01794430921726
      ],
      [
        "601",
        -11.018272051627605
      ],
      [
        "Ru",
        -11.018375972377918
      ],
      [
        "605",
        -11.019564102806749
      ],
      [
        "mv",
        -11.020147299935324
      ],
      [
        "tto",
        -11.023054887955961
      ],
      [
        "bar",
        -11.023595169487315
      ],
      [
        "384",
        -11.024004517174106
      ],
      [
        "uer",
        -11.025064445186171
      ],
      [
        "504",
        -11.026571821274098
      ],
      [
        "per",
        -11.029375205937193
      ],
      [
        "kd",
        -11.031673283329097
      ],
      [
        "497",
        -11.032004013910747
      ],
      [
        "464",
        -11.032163125561578
      ],
      [
        "wz",
        -11.032378909655055
      ],
      [
        "2787",
        -11.032955433839657
      ],
      [
        "Bu",
        -11.033321616333147
      ],
      [
        "383",
        -11.033985198938895
      ],
      [
        "356",
        -11.035279733157711
      ],
      [
        "854",
        -11.036832315951393
      ],
      [
        "832",
        -11.037077880231458
      ],
      [
        "eed",
        -11.0376616966875
      ],
      [
        "3Ea",
        -11.037706129777915
      ],
      [
        "434",
        -11.03814730823338
      ],
      [
        "nda",
        -11.038662227142945
      ],
      [
        "oei",
        -11.03992893433535
      ],
      [
        "719",
        -11.042157099313323
      ],
      [
        "447",
        -11.042705383414912
      ],
      [
        "494",
        -11.04270990515412
      ],
      [
        "999",
        -11.043380448295984
      ],
      [
        "pro",
        -11.043521038560971
      ],
      [
        "isa",
        -11.044363300768854
      ],
      [
        "959",
        -11.045399882719284
      ],
      [
        "los",
        -11.046916376756837
      ],
      [
        "382",
        -11.047380544139381
      ],
      [
        "jw",
        -11.047435161299491
      ],
      [
        "784",
        -11.047555873440878
      ],
      [
        "ari",
        -11.047581517130267
      ],
      [
        "639",
        -11.048223414571938
      ],
      [
        "489",
        -11.049576481862395
      ],
      [
        "mO",
        -11.051061582839578
      ],
      [
        "lia",
        -11.05385075890441
      ],
      [
        "708",
        -11.053969815013765
      ],
      [
        "702",
        -11.055018161023755
      ],
      [
        "1253",
        -11.056027591619895
      ],
      [
        "mer",
        -11.056493267857764
      ],
      [
        "tti",
        -11.057535334922335
      ],
      [
        "ist",
        -11.059288462363199
      ],
      [
        "ttt",
        -11.06127031731221
      ],
      [
        "859",
        -11.061377819943626
      ],
      [
        "yv",
        -11.062424448910306
      ],
      [
        "967",
        -11.063370708322378
      ],
      [
        "483",
        -11.06552434737889
      ],
      [
        "352",
        -11.065536315546648
      ],
      [
        "397",
        -11.066718407782988
      ],
      [
        "633",
        -11.069779330021044
      ],
      [
        "439",
        -11.07297317945685
      ],
      [
        "fk",
        -11.075428243104568
      ],
      [
        "Burgo",
        -11.075540692033865
      ],
      [
        "481",
        -11.078025491658725
      ],
      [
        "996",
        -11.078862070042254
      ],
      [
        "las",
        -11.078916295985941
      ],
      [
        "212",
        -11.079549499736839
      ],
      [
        "6909",
        -11.079600226213731
      ],
      [
        "son",
        -11.079604997771943
      ],
      [
        "507",
        -11.081171552060177
      ],
      [
        "rri",
        -11.083858309586677
      ],
      [
        "eoi",
        -11.085108552921781
      ],
      [
        "991",
        -11.08685292375866
      ],
      [
        "vy",
        -11.087620287743892
      ],
      [
        "tro",
        -11.088133194767263
      ],
      [
        "tts",
        -11.088838452153968
      ],
      [
        "nea",
        -11.089188811538826
      ],
      [
        "919",
        -11.091184075928204
      ],
      [
        "ila",
        -11.091274368405433
      ],
      [
        "virt",
        -11.09241722205779
      ],
      [
        "bz",
        -11.093875479019745
      ],
      [
        "997",
        -11.097938265642625
      ],
      [
        "952",
        -11.09828635819191
      ],
      [
        "414",
        -11.098385643233653
      ],
      [
        "att",
        -11.102698170019005
      ],
      [
        "797",
        -11.102809939102421
      ],
      [
        "tnr",
        -11.105644990790642
      ],
      [
        "Sala",
        -11.105695468590266
      ],
      [
        "302",
        -11.106026249146964
      ],
      [
        "734",
        -11.106276403431657
      ],
      [
        "tta",
        -11.106300425106891
      ],
      [
        "739",
        -11.10858887081307
      ],
      [
        "446",
        -11.108644890474046
      ],
      [
        "tnt",
        -11.111420969617209
      ],
      [
        "uO",
        -11.113757104967064
      ],
      [
        "619",
        -11.114310459081379
      ],
      [
        "934",
        -11.11446470815409
      ],
      [
        "sch",
        -11.114564652839833
      ],
      [
        "ias",
        -11.115249726389898
      ],
      [
        "982",
        -11.116944638674696
      ],
      [
        "699",
        -11.121392831421128
      ],
      [
        "aea",
        -11.12273443618713
      ],
      [
        "bob",
        -11.123253099084252
      ],
      [
        "oeo",
        -11.12454901706905
      ],
      [
        "bk",
        -11.12658763258157
      ],
      [
        "3exec",
        -11.129187178354314
      ],
      [
        "963",
        -11.130557723639878
      ],
      [
        "684",
        -11.13284358111547
      ],
      [
        "yk",
        -11.134345934064172
      ],
      [
        "EXEC",
        -11.13436973418306
      ],
      [
        "fO",
        -11.134441171282745
      ],
      [
        "482",
        -11.134930262764886
      ],
      [
        "769",
        -11.13565994407298
      ],
      [
        "764",
        -11.136890414759858
      ],
      [
        "979",
        -11.1371465473825
      ],
      [
        "sei",
        -11.138435492204755
      ],
      [
        "419",
        -11.139105714163335
      ],
      [
        "316",
        -11.139303490342368
      ],
      [
        "657",
        -11.139438327947566
      ],
      [
        "ato",
        -11.13987638511994
      ],
      [
        "ies",
        -11.140850571384608
      ],
      [
        "teh",
        -11.141022086306098
      ],
      [
        "767",
        -11.141392750145574
      ],
      [
        "03063",
        -11.142227159002196
      ],
      [
        "63290",
        -11.142445362986528
      ],
      [
        "412",
        -11.145011206008817
      ],
      [
        "899",
        -11.146437733013386
      ],
      [
        "802",
        -11.146770639547167
      ],
      [
        "ios",
        -11.147710261293794
      ],
      [
        "637",
        -11.147843841520846
      ],
      [
        "zz",
        -11.150243222601807
      ],
      [
        "zb",
        -11.152992976809351
      ],
      [
        "644",
        -11.15323457045449
      ],
      [
        "vw",
        -11.153578338814006
      ],
      [
        "799",
        -11.155016357075631
      ],
      [
        "jb",
        -11.156259128638377
      ],
      [
        "manca",
        -11.159878920339594
      ],
      [
        "chi",
        -11.162485558547083
      ],
      [
        "319",
        -11.162495843581684
      ],
      [
        "993",
        -11.162927616053
      ],
      [
        "pre",
        -11.166921069476793
      ],
      [
        "89730",
        -11.168077252161268
      ],
      [
        "aga",
        -11.168735340268189
      ],
      [
        "itt",
        -11.170533974484448
      ],
      [
        "zy",
        -11.172596568815003
      ],
      [
        "714",
        -11.173904492009058
      ],
      [
        "477",
        -11.175211841743202
      ],
      [
        "arcelona",
        -11.176881645534321
      ],
      [
        "717",
        -11.177834492335595
      ],
      [
        "tnn",
        -11.178533953470978
      ],
      [
        "vf",
        -11.181974014549905
      ],
      [
        "267",
        -11.182162248369469
      ],
      [
        "yj",
        -11.183032617357316
      ],
      [
        "612",
        -11.18486662588413
      ],
      [
        "86136",
        -11.185054364007321
      ],
      [
        "602",
        -11.18752208705644
      ],
      [
        "746",
        -11.188839693469601
      ],
      [
        "wj",
        -11.190810196335995
      ],
      [
        "666",
        -11.191223276532135
      ],
      [
        "tia",
        -11.191653000760429
      ],
      [
        "tis",
        -11.193186650075358
      ],
      [
        "756",
        -11.194369959356326
      ],
      [
        "416",
        -11.195552460155463
      ],
      [
        "732",
        -11.196080048076823
      ],
      [
        "wk",
        -11.198053161708888
      ],
      [
        "792",
        -11.199759930001699
      ],
      [
        "747",
        -11.199871203472807
      ],
      [
        "bj",
        -11.204212406307452
      ],
      [
        "647",
        -11.206823183875418
      ],
      [
        "iro",
        -11.20702336064503
      ],
      [
        "669",
        -11.207096319912372
      ],
      [
        "646",
        -11.208382543986335
      ],
      [
        "986",
        -11.208394066731014
      ],
      [
        "fj",
        -11.210610953626476
      ],
      [
        "701",
        -11.211074254482392
      ],
      [
        "38D",
        -11.212062651015259
      ],
      [
        "332",
        -11.21276219137351
      ],
      [
        "tit",
        -11.213165543305708
      ],
      [
        "752",
        -11.21873391680229
      ],
      [
        "467",
        -11.226820322533628
      ],
      [
        "998",
        -11.226879314907828
      ],
      [
        "933",
        -11.2280461643225
      ],
      [
        "iti",
        -11.228412059829342
      ],
      [
        "yz",
        -11.23160825686777
      ],
      [
        "bri",
        -11.232618597679542
      ],
      [
        "dia",
        -11.234143387530906
      ],
      [
        "444",
        -11.236190581827952
      ],
      [
        "716",
        -11.236755763209214
      ],
      [
        "992",
        -11.23762925533595
      ],
      [
        "3CSCR",
        -11.24093455764568
      ],
      [
        "back",
        -11.241449851656963
      ],
      [
        "ella",
        -11.244219535856379
      ],
      [
        "2567",
        -11.249972523000388
      ],
      [
        "DCB",
        -11.254549442387882
      ],
      [
        "toa",
        -11.254788919910862
      ],
      [
        "aba",
        -11.256389820414942
      ],
      [
        "796",
        -11.257117408774437
      ],
      [
        "452",
        -11.263716433794126
      ],
      [
        "667",
        -11.264261618833093
      ],
      [
        "gra",
        -11.264506366805268
      ],
      [
        "cas",
        -11.26544876018607
      ],
      [
        "lea",
        -11.265685960703186
      ],
      [
        "916",
        -11.265970815930688
      ],
      [
        "sat",
        -11.26819572233491
      ],
      [
        "BCD",
        -11.268288357695441
      ],
      [
        "fz",
        -11.270175676549664
      ],
      [
        "2568",
        -11.271079888799608
      ],
      [
        "file",
        -11.271128911348965
      ],
      [
        "8AD",
        -11.271245261909273
      ],
      [
        "432",
        -11.272628186824422
      ],
      [
        "Bar",
        -11.273632574989705
      ],
      [
        "jy",
        -11.277180725779191
      ],
      [
        "sess",
        -11.27897524798025
      ],
      [
        "776",
        -11.280277177130383
      ],
      [
        "tns",
        -11.280901418469007
      ],
      [
        "2564",
        -11.287063724430624
      ],
      [
        "fv",
        -11.287253739080004
      ],
      [
        "jf",
        -11.288378270193302
      ],
      [
        "487",
        -11.291827781843391
      ],
      [
        "656",
        -11.292771897010379
      ],
      [
        "ura",
        -11.293463753071979
      ],
      [
        "912",
        -11.293735236945404
      ],
      [
        "spa",
        -11.294563967815623
      ],
      [
        "dra",
        -11.2970148905946
      ],
      [
        "tri",
        -11.300314298586787
      ],
      [
        "ill",
        -11.304402945645666
      ],
      [
        "652",
        -11.307118453525794
      ],
      [
        "vila",
        -11.307253450975889
      ],
      [
        "616",
        -11.310889826776613
      ],
      [
        "arm",
        -11.312506836598672
      ],
      [
        "roxy",
        -11.312983309107668
      ],
      [
        "777",
        -11.313505554531098
      ],
      [
        "DAA",
        -11.316969223000767
      ],
      [
        "AAD",
        -11.318227231020515
      ],
      [
        "2Fscr",
        -11.323225701057105
      ],
      [
        "252B",
        -11.323401723738538
      ],
      [
        "914",
        -11.323851487500349
      ],
      [
        "417",
        -11.324829978648758
      ],
      [
        "76235",
        -11.330832316901134
      ],
      [
        "57652",
        -11.340778710535151
      ],
      [
        "../..%",
        -11.341023825974492
      ],
      [
        "55672",
        -11.341082728046043
      ],
      [
        "uet",
        -11.347913714187534
      ],
      [
        "D9D",
        -11.353643803668078
      ],
      [
        "trt",
        -11.353792460054944
      ],
      [
        "692",
        -11.35693071980764
      ],
      [
        "tni",
        -11.359272874952172
      ],
      [
        "BCB",
        -11.36294991837342
      ],
      [
        "Ber",
        -11.364261165977172
      ],
      [
        "F0B",
        -11.368437337010493
      ],
      [
        "B7B",
        -11.369359897445715
      ],
      [
        "Santa",
        -11.369805696401588
      ],
      [
        "avi",
        -11.370079268714875
      ],
      [
        "Sant",
        -11.380311161697662
      ],
      [
        "ley",
        -11.383054991261265
      ],
      [
        "744",
        -11.389905004538551
      ],
      [
        "WINNT",
        -11.394347143675038
      ],
      [
        "634",
        -11.394967989251104
      ],
      [
        "web",
        -11.39749346323615
      ],
      [
        "F7D",
        -11.399797783550733
      ],
      [
        "D57",
        -11.400759170622472
      ],
      [
        "example",
        -11.404956080608052
      ],
      [
        "D59",
        -11.406231702444446
      ],
      [
        "Giron",
        -11.406277274863061
      ],
      [
        "6B4",
        -11.40795674044673
      ],
      [
        "D07",
        -11.411056100539753
      ],
      [
        "9AD",
        -11.412163434675755
      ],
      [
        "ooo",
        -11.413589127062512
      ],
      [
        "F1D",
        -11.417511531804347
      ],
      [
        "mat",
        -11.420850220701475
      ],
      [
        "6AD",
        -11.421887623602334
      ],
      [
        "51F",
        -11.424595915096123
      ],
      [
        "11F",
        -11.42525613956522
      ],
      [
        "BED",
        -11.425963865957536
      ],
      [
        "D1D",
        -11.426194394779811
      ],
      [
        "6CB",
        -11.427043543113077
      ],
      [
        "rnr",
        -11.428722366513203
      ],
      [
        "D8B",
        -11.428750295194071
      ],
      [
        "eruel",
        -11.432859842943511
      ],
      [
        "DCD",
        -11.4365126829714
      ],
      [
        "ure",
        -11.437618032546858
      ],
      [
        "D04",
        -11.437903662047042
      ],
      [
        "ador",
        -11.440030827463376
      ],
      [
        "DAD",
        -11.444476428732806
      ],
      [
        "BFF",
        -11.4490176039192
      ],
      [
        "253CSCR",
        -11.45155472802995
      ],
      [
        "F58",
        -11.452462923803587
      ],
      [
        "B0B",
        -11.453245299584907
      ],
      [
        "6CD",
        -11.455370589445906
      ],
      [
        "B5F",
        -11.455808883214871
      ],
      [
        "D89",
        -11.457626837892331
      ],
      [
        "DC9",
        -11.460367015725877
      ],
      [
        "BAD",
        -11.462742722747757
      ],
      [
        "aragoza",
        -11.463081265900191
      ],
      [
        "41F",
        -11.467862819820805
      ],
      [
        "4C7",
        -11.469577542322536
      ],
      [
        "6A9",
        -11.473073041595526
      ],
      [
        "B4F",
        -11.474127615261574
      ],
      [
        "Mont",
        -11.474710319049475
      ],
      [
        "FCD",
        -11.475424235054657
      ],
      [
        "BEF",
        -11.476271509351214
      ],
      [
        "7A4",
        -11.476715670524689
      ],
      [
        "F0D",
        -11.47777802852513
      ],
      [
        "DA4",
        -11.478227432067824
      ],
      [
        "6A7",
        -11.482520016086946
      ],
      [
        "F7F",
        -11.484085904090335
      ],
      [
        "arra",
        -11.484292878238099
      ],
      [
        "D5F",
        -11.484461476191521
      ],
      [
        "DAB",
        -11.486105665043544
      ],
      [
        "FBD",
        -11.48772098007023
      ],
      [
        "F0F",
        -11.49200576947417
      ],
      [
        "B7F",
        -11.49649834257939
      ],
      [
        "31D",
        -11.499144479787402
      ],
      [
        "UNION",
        -11.499228846485394
      ],
      [
        "91F",
        -11.501666193222409
      ],
      [
        "70D",
        -11.505652261232335
      ],
      [
        "DC6",
        -11.508562858770835
      ],
      [
        "2AD",
        -11.509117953865818
      ],
      [
        "27br",
        -11.510222235675535
      ],
      [
        "alencia",
        -11.510788951860565
      ],
      [
        "display",
        -11.511574525717332
      ],
      [
        "7AD",
        -11.51222901499245
      ],
      [
        "BCF",
        -11.514722006984876
      ],
      [
        "81F",
        -11.516440253879756
      ],
      [
        "ares",
        -11.519240088935568
      ],
      [
        "BFB",
        -11.519522544702978
      ],
      [
        "7A6",
        -11.532290013789602
      ],
      [
        "D54",
        -11.536236908367783
      ],
      [
        "D9B",
        -11.536362471848268
      ],
      [
        "6A4",
        -11.537595699927978
      ],
      [
        "98D",
        -11.537932662476692
      ],
      [
        "6C7",
        -11.53899581809054
      ],
      [
        "DA9",
        -11.545036581673717
      ],
      [
        "Old",
        -11.54597715316207
      ],
      [
        "7AB",
        -11.546039371259681
      ],
      [
        "F1F",
        -11.54798741719525
      ],
      [
        "////////////////",
        -11.549553265761066
      ],
      [
        "Valencia",
        -11.55037290238872
      ],
      [
        "Torre",
        -11.550597626726246
      ],
      [
        "F5F",
        -11.551845695820461
      ],
      [
        "F87",
        -11.556836981980332
      ],
      [
        "B52",
        -11.559349960286248
      ],
      [
        "B4B",
        -11.561312946160136
      ],
      [
        "B57",
        -11.562756000089433
      ],
      [
        "tnl",
        -11.563640397443006
      ],
      [
        "iana",
        -11.564426920689176
      ],
      [
        "F4F",
        -11.565710175481815
      ],
      [
        "F54",
        -11.570491441044279
      ],
      [
        "F86",
        -11.571345860306263
      ],
      [
        "F4B",
        -11.573528960742076
      ],
      [
        "F5B",
        -11.578981486434447
      ],
      [
        "60D",
        -11.579215336598304
      ],
      [
        "BBB",
        -11.583501513113681
      ],
      [
        "DEB",
        -11.583652823110597
      ],
      [
        "D32",
        -11.584885065688493
      ],
      [
        "B54",
        -11.588253332173135
      ],
      [
        "4CD",
        -11.588626189951032
      ],
      [
        "Madrid",
        -11.589031735017333
      ],
      [
        "6AB",
        -11.59231191827731
      ],
      [
        "F07",
        -11.593216003424264
      ],
      [
        "DC7",
        -11.596086590564447
      ],
      [
        "B9B",
        -11.604272650220276
      ],
      [
        "FAF",
        -11.60558957445112
      ],
      [
        "9CB",
        -11.606347542485553
      ],
      [
        "eros",
        -11.608420782494488
      ],
      [
        "BEB",
        -11.60891141901264
      ],
      [
        "DA7",
        -11.610592164011534
      ],
      [
        "4C6",
        -11.614803290286055
      ],
      [
        "Guadalajara",
        -11.616243650468723
      ],
      [
        "FE7",
        -11.616517755413629
      ],
      [
        "Name",
        -11.616770058354177
      ],
      [
        "6C6",
        -11.624111120653946
      ],
      [
        "BE6",
        -11.628636424815983
      ],
      [
        "2EB",
        -11.629948489552788
      ],
      [
        "FBF",
        -11.630887577586835
      ],
      [
        "Camp",
        -11.633012150286007
      ],
      [
        "DBB",
        -11.642098479121382
      ],
      [
        "2A6",
        -11.642179988395178
      ],
      [
        "DA6",
        -11.643451271664546
      ],
      [
        "bert",
        -11.647846958785353
      ],
      [
        "F52",
        -11.650270605632791
      ],
      [
        "FCF",
        -11.65504311337888
      ],
      [
        "F06",
        -11.66420810112215
      ],
      [
        "F8B",
        -11.674494315311211
      ],
      [
        "F1B",
        -11.68024929646084
      ],
      [
        "D52",
        -11.683529396328485
      ],
      [
        "aria",
        -11.68720367689684
      ],
      [
        "D0B",
        -11.689264963109132
      ],
      [
        "guer",
        -11.69350556500911
      ],
      [
        "BAB",
        -11.702507056781323
      ],
      [
        "Navarr",
        -11.702662285772615
      ],
      [
        "Soria",
        -11.70270420511459
      ],
      [
        "ceres",
        -11.703368975450974
      ],
      [
        "DEF",
        -11.70374754504847
      ],
      [
        "ovia",
        -11.705083184018598
      ],
      [
        "mont",
        -11.741080862659445
      ],
      [
        "FEB",
        -11.783647983649809
      ],
      [
        "Tarragon",
        -11.797183617926839
      ],
      [
        "ubi",
        -11.805621836033557
      ],
      [
        "hacker",
        -11.84804148822397
      ],
      [
        "Vallad",
        -11.848242385627174
      ],
      [
        "28cn",
        -11.848921977927347
      ],
      [
        ">\\\\\\",
        -11.901625920225793
      ],
      [
        "USER",
        -11.901692138820277
      ],
      [
        "getfi",
        -11.921794026094837
      ],
      [
        "eRoo",
        -11.9257942332116
      ],
      [
        "u002",
        -11.960524529558205
      ],
      [
        "DELETE",
        -11.977850114465618
      ],
      [
        "/../../../",
        -11.999893402518145
      ],
      [
        "\\\\.\\.\\\\/\\.\\\\.\\/",
        -12.039089962307143
      ],
      [
        "database",
        -12.03908996912495
      ],
      [
        "archivo",
        -12.039089996491988
      ],
      [
        "..\\\\..\\\\..\\\\",
        -12.085080070241148
      ],
      [
        "secret",
        -12.104337820390455
      ],
      [
        "Alicant",
        -12.127055685627468
      ],
      [
        "Cantabri",
        -12.150311066623583
      ],
      [
        "Granad",
        -12.17433456454603
      ],
      [
        "TABLE",
        -12.249212686231543
      ],
      [
        "_vti_",
        -12.275467602509588
      ],
      [
        "customer_",
        -12.33027238502521
      ],
      [
        "iudad",
        -12.357239120781703
      ],
      [
        "Inetpub",
        -12.35884381513289
      ],
      [
        "Castell",
        -12.358849448130869
      ],
      [
        "40hiper",
        -12.549883353091197
      ],
      [
        "Traves",
        -12.5498837375209
      ],
      [
        "40ajuntament",
        -12.58559705078586
      ],
      [
        "#",
        -12.622634087822892
      ],
      [
        "..\\\\..\\\\..\\\\..\\\\",
        -12.65756931048631
      ],
      [
        "Francis",
        -12.661095640704104
      ],
      [
        "............",
        -12.70109562628453
      ],
      [
        "rofessional",
        -12.831702617068059
      ],
      [
        "\\",
        -13.096312417609369
      ],
      [
        "40sanchez",
        -13.158824810832416
      ],
      [
        "40automoviles",
        -13.225491477475623
      ],
      [
        "40intercambio",
        -13.457176459160781
      ],
      [
        "40velazquezlarra",
        -13.759196661184495
      ],
      [
        "`",
        -14.19372047075737
      ],
      [
        "!",
        -14.39362047075737
      ],
      [
        "{",
        -14.39372047075737
      ],
      [
        "}",
        -14.39372047075737
      ]
    ],
    "byte_fallback": false
  }
}