{
  "version": "1.0",
  "truncation": null,
  "padding": null,
  "added_tokens": [
    {
      "id": 0,
      "content": "[PAD]",
      "single_word": false,
      "lstrip": false,
      "rstrip": false,
      "normalized": false,
      "special": true
    },
    {
      "id": 1,
      "content": "[UNK]",
      "single_word": false,
      "lstrip": false,
      "rstrip": false,
      "normalized": false,
      "special": true
    },
    {
      "id": 2,
      "content": "[CLS]",
      "single_word": false,
      "lstrip": false,
      "rstrip": false,
      "normalized": false,
      "special": true
    },
    {
      "id": 3,
      "content": "[SEP]",
      "single_word": false,
      "lstrip": false,
      "rstrip": false,
      "normalized": false,
      "special": true
    },
    {
      "id": 4,
      "content": "[MASK]",
      "single_word": false,
      "lstrip": false,
      "rstrip": false,
      "normalized": false,
      "special": true
    }
  ],
  "normalizer": {
    "type": "NFKC"
  },
  "pre_tokenizer": {
    "type": "Whitespace"
  },
  "post_processor": null,
  "decoder": null,
  "model": {
    "type": "BPE",
    "dropout": null,
    "unk_token": "[UNK]",
    "continuing_subword_prefix": null,
    "end_of_word_suffix": null,
    "fuse_unk": false,
    "byte_fallback": false,
    "ignore_merges": false,
    "vocab": {
      "[PAD]": 0,
      "[UNK]": 1,
      "[CLS]": 2,
      "[SEP]": 3,
      "[MASK]": 4,
      "&": 5,
      "(": 6,
      ")": 7,
      "-": 8,
      ".": 9,
      "0": 10,
      "1": 11,
      "2": 12,
      "3": 13,
      "4": 14,
      "5": 15,
      "6": 16,
      "7": 17,
      "8": 18,
      "9": 19,
      "<": 20,
      "=": 21,
      ">": 22,
      "A": 23,
      "B": 24,
      "C": 25,
      "D": 26,
      "E": 27,
      "F": 28,
      "G": 29,
      "H": 30,
      "I": 31,
      "J": 32,
      "L": 33,
      "M": 34,
      "N": 35,
      "O": 36,
      "P": 37,
      "R": 38,
      "S": 39,
      "T": 40,
      "U": 41,
      "V": 42,
      "W": 43,
      "Y": 44,
      "a": 45,
      "b": 46,
      "c": 47,
      "d": 48,
      "e": 49,
      "f": 50,
      "g": 51,
      "h": 52,
      "i": 53,
      "k": 54,
      "l": 55,
      "m": 56,
      "n": 57,
      "o": 58,
      "p": 59,
      "r": 60,
      "s": 61,
      "t": 62,
      "u": 63,
      "v": 64,
      "w": 65,
      "x": 66,
      "y": 67,
      "EP": 68,
      "SEP": 69,
      "at": 70,
      "ati": 71,
      "it": 72,
      "al": 73,
      "ed": 74,
      "on": 75,
      "ation": 76,
      "ital": 77,
      "ou": 78,
      "ss": 79,
      "er": 80,
      "ca": 81,
      "cation": 82,
      "pital": 83,
      "ucation": 84,
      "education": 85,
      "capital": 86,
      "ar": 87,
      "tat": 88,
      "sp": 89,
      "in": 90,
      "ri": 91,
      "ra": 92,
      "se": 93,
      "mar": 94,
      "us": 95,
      "or": 96,
      "el": 97,
      "ge": 98,
      "oc": 99,
      "hi": 100,
      "cl": 101,
      "ale": 102,
      "ce": 103,
      "ve": 104,
      "rel": 105,
      "ative": 106,
      "up": 107,
      "nt": 108,
      "hou": 109,
      "Un": 110,
      "um": 111,
      "ee": 112,
      "wor": 113,
      "work": 114,
      "EC": 115,
      "EN": 116,
      "REC": 117,
      "ass": 118,
      "ain": 119,
      "age": 120,
      "cou": 121,
      "cup": 122,
      "fn": 123,
      "gt": 124,
      "gain": 125,
      "lo": 126,
      "lw": 127,
      "native": 128,
      "num": 129,
      "ry": 130,
      "rsp": 131,
      "stat": 132,
      "shi": 133,
      "wee": 134,
      "ationshi": 135,
      "erwee": 136,
      "capitalgain": 137,
      "capitallo": 138,
      "race": 139,
      "sex": 140,
      "marital": 141,
      "occup": 142,
      "class": 143,
      "relationshi": 144,
      "ntry": 145,
      "hoursp": 146,
      "workclass": 147,
      "END": 148,
      "country": 149,
      "fnlw": 150,
      "status": 151,
      "erweek": 152,
      "capitalloss": 153,
      "occupation": 154,
      "relationship": 155,
      "hoursperweek": 156,
      "fnlwgt": 157,
      "Stat": 158,
      "State": 159,
      "ried": 160,
      "ited": 161,
      "United": 162,
      "States": 163,
      "Wh": 164,
      "ite": 165,
      "White": 166,
      "ate": 167,
      "an": 168,
      "Pri": 169,
      "Priv": 170,
      "Private": 171,
      "Male": 172,
      "iv": 173,
      "and": 174,
      "Mar": 175,
      "ouse": 176,
      "spouse": 177,
      "Married": 178,
      "civ": 179,
      "em": 180,
      "married": 181,
      "Hus": 182,
      "band": 183,
      "Husband": 184,
      "ac": 185,
      "ot": 186,
      "10": 187,
      "Fem": 188,
      "Female": 189,
      "Ne": 190,
      "ver": 191,
      "Never": 192,
      "HS": 193,
      "gra": 194,
      "grad": 195,
      "ec": 196,
      "th": 197,
      "am": 198,
      "il": 199,
      "Not": 200,
      "fam": 201,
      "ily": 202,
      "family": 203,
      "ial": 204,
      "co": 205,
      "13": 206,
      "ach": 207,
      "om": 208,
      "Som": 209,
      "ege": 210,
      "ll": 211,
      "coll": 212,
      "Some": 213,
      "college": 214,
      "ov": 215,
      "Pr": 216,
      "Bach": 217,
      "ors": 218,
      "elors": 219,
      "Bachelors": 220,
      "hil": 221,
      "ep": 222,
      "Ow": 223,
      "chil": 224,
      "Own": 225,
      "child": 226,
      "11": 227,
      "dm": 228,
      "of": 229,
      "Prof": 230,
      "ers": 231,
      "ther": 232,
      "Other": 233,
      "Div": 234,
      "ced": 235,
      "orced": 236,
      "Divorced": 237,
      "gov": 238,
      "=<": 239,
      "LL": 240,
      "NU": 241,
      "NULL": 242,
      "ai": 243,
      "man": 244,
      "ty": 245,
      "spec": 246,
      "ialty": 247,
      "specialty": 248,
      "Cra": 249,
      "ft": 250,
      "rep": 251,
      "air": 252,
      "Craft": 253,
      "repair": 254,
      "ser": 255,
      "serv": 256,
      "ag": 257,
      "14": 258,
      "Ex": 259,
      "erial": 260,
      "manag": 261,
      "Exec": 262,
      "managerial": 263,
      "ic": 264,
      "12": 265,
      "Adm": 266,
      "eric": 267,
      "cleric": 268,
      "clerical": 269,
      "Sel": 270,
      "inc": 271,
      "emp": 272,
      "Self": 273,
      "ing": 274,
      "Sale": 275,
      "Sales": 276,
      "Unmarried": 277,
      "ice": 278,
      "service": 279,
      "Bl": 280,
      "ack": 281,
      "Black": 282,
      "16": 283,
      "15": 284,
      "18": 285,
      "19": 286,
      "17": 287,
      "ort": 288,
      "not": 289,
      "Wi": 290,
      "20": 291,
      "Ass": 292,
      "Assoc": 293,
      "ine": 294,
      "Loc": 295,
      "Local": 296,
      "Mach": 297,
      "ct": 298,
      "op": 299,
      "spct": 300,
      "inspct": 301,
      "Machine": 302,
      "st": 303,
      "24": 304,
      "23": 305,
      "Ma": 306,
      "sters": 307,
      "Masters": 308,
      "26": 309,
      "25": 310,
      "27": 311,
      "ran": 312,
      "28": 313,
      "Tran": 314,
      "mov": 315,
      "sport": 316,
      "Transport": 317,
      "moving": 318,
      "29": 319,
      "fe": 320,
      "Wife": 321,
      "30": 322,
      "34": 323,
      "Hand": 324,
      "ean": 325,
      "lers": 326,
      "clean": 327,
      "Handlers": 328,
      "cleaners": 329,
      "voc": 330,
      "ian": 331,
      "35": 332,
      "37": 333,
      "11th": 334,
      "36": 335,
      "land": 336,
      "38": 337,
      "39": 338,
      "acdm": 339,
      "Sep": 340,
      "ated": 341,
      "arated": 342,
      "Separated": 343,
      "Far": 344,
      "fi": 345,
      "hing": 346,
      "ming": 347,
      "shing": 348,
      "Farming": 349,
      "fishing": 350,
      "As": 351,
      "Is": 352,
      "Pac": 353,
      "lander": 354,
      "Asian": 355,
      "Islander": 356,
      "do": 357,
      "wed": 358,
      "Wido": 359,
      "Widowed": 360,
      "relative": 361,
      "54": 362,
      "89": 363,
      "Tec": 364,
      "port": 365,
      "sup": 366,
      "Tech": 367,
      "support": 368,
      "Fed": 369,
      "eral": 370,
      "Federal": 371,
      "10th": 372,
      "66": 373,
      "40": 374,
      "49": 375,
      "77": 376,
      "50": 377,
      "59": 378,
      "86": 379,
      "80": 380,
      "46": 381,
      "47": 382,
      "56": 383,
      "ico": 384,
      "57": 385,
      "87": 386,
      "99": 387,
      "ol": 388,
      "22": 389,
      "ive": 390,
      "tive": 391,
      "otec": 392,
      "Protec": 393,
      "Protective": 394,
      "7th": 395,
      "8th": 396,
      "ch": 397,
      "ool": 398,
      "sch": 399,
      "school": 400,
      "Me": 401,
      "xico": 402,
      "Mexico": 403,
      "96": 404,
      "88": 405,
      "33": 406,
      "90": 407,
      "76": 408,
      "44": 409,
      "58": 410,
      "70": 411,
      "9th": 412,
      "55": 413,
      "60": 414,
      "48": 415,
      "97": 416,
      "00": 417,
      "45": 418,
      "12th": 419,
      "32": 420,
      "ab": 421,
      "sent": 422,
      "absent": 423,
      "In": 424,
      "Ind": 425,
      "98": 426,
      "78": 427,
      "Doc": 428,
      "tor": 429,
      "Doctor": 430,
      "Doctorate": 431,
      "68": 432,
      "67": 433,
      "95": 434,
      "94": 435,
      "53": 436,
      "5th": 437,
      "6th": 438,
      "06": 439,
      "Am": 440,
      "Es": 441,
      "im": 442,
      "kim": 443,
      "Indian": 444,
      "Amer": 445,
      "Eskim": 446,
      "Eskimo": 447,
      "ad": 448,
      "21": 449,
      "84": 450,
      "74": 451,
      "85": 452,
      "79": 453,
      "69": 454,
      "64": 455,
      "09": 456,
      "75": 457,
      "65": 458,
      "08": 459,
      "07": 460,
      "93": 461,
      "43": 462,
      "83": 463,
      "42": 464,
      "216": 465,
      "04": 466,
      "05": 467,
      "51": 468,
      "113": 469,
      "52": 470,
      "63": 471,
      "Phil": 472,
      "ip": 473,
      "pine": 474,
      "Philip": 475,
      "pines": 476,
      "Philippines": 477,
      "110": 478,
      "ia": 479,
      "72": 480,
      "73": 481,
      "82": 482,
      "03": 483,
      "214": 484,
      "210": 485,
      "31": 486,
      "213": 487,
      "224": 488,
      "190": 489,
      "1st": 490,
      "4th": 491,
      "ub": 492,
      "house": 493,
      "200": 494,
      "41": 495,
      "218": 496,
      "91": 497,
      "215": 498,
      "227": 499,
      "211": 500,
      "226": 501,
      "81": 502,
      "212": 503,
      "176": 504,
      "187": 505,
      "196": 506,
      "220": 507,
      "225": 508,
      "ador": 509,
      "197": 510,
      "120": 511,
      "228": 512,
      "Ger": 513,
      "many": 514,
      "174": 515,
      "Germany": 516,
      "170": 517,
      "Can": 518,
      "116": 519,
      "ada": 520,
      "Canada": 521,
      "199": 522,
      "223": 523,
      "186": 524,
      "01": 525,
      "117": 526,
      "189": 527,
      "Pu": 528,
      "Rico": 529,
      "to": 530,
      "erto": 531,
      "Puerto": 532,
      "71": 533,
      "188": 534,
      "219": 535,
      "160": 536,
      "166": 537,
      "177": 538,
      "229": 539,
      "106": 540,
      "236": 541,
      "240": 542,
      "169": 543,
      "92": 544,
      "180": 545,
      "129": 546,
      "167": 547,
      "178": 548,
      "El": 549,
      "Sal": 550,
      "vador": 551,
      "198": 552,
      "230": 553,
      "Salvador": 554,
      "207": 555,
      "ica": 556,
      "107": 557,
      "206": 558,
      "100": 559,
      "185": 560,
      "India": 561,
      "184": 562,
      "168": 563,
      "195": 564,
      "ng": 565,
      "175": 566,
      "306": 567,
      "Cub": 568,
      "137": 569,
      "138": 570,
      "Cuba": 571,
      "156": 572,
      "149": 573,
      "154": 574,
      "246": 575,
      "108": 576,
      "147": 577,
      "104": 578,
      "148": 579,
      "179": 580,
      "119": 581,
      "126": 582,
      "164": 583,
      "157": 584,
      "02": 585,
      "329": 586,
      "209": 587,
      "139": 588,
      "155": 589,
      "159": 590,
      "334": 591,
      "Ch": 592,
      "Eng": 593,
      "ina": 594,
      "140": 595,
      "China": 596,
      "England": 597,
      "124": 598,
      "109": 599,
      "146": 600,
      "208": 601,
      "325": 602,
      "337": 603,
      "105": 604,
      "145": 605,
      "150": 606,
      "136": 607,
      "144": 608,
      "328": 609,
      "194": 610,
      "277": 611,
      "205": 612,
      "266": 613,
      "Sou": 614,
      "South": 615,
      "336": 616,
      "127": 617,
      "165": 618,
      "290": 619,
      "204": 620,
      "130": 621,
      "339": 622,
      "118": 623,
      "278": 624,
      "Gu": 625,
      "It": 626,
      "aly": 627,
      "115": 628,
      "Italy": 629,
      "330": 630,
      "335": 631,
      "Dom": 632,
      "Rep": 633,
      "lic": 634,
      "inica": 635,
      "247": 636,
      "235": 637,
      "237": 638,
      "258": 639,
      "ublic": 640,
      "Dominica": 641,
      "Republic": 642,
      "Dominican": 643,
      "326": 644,
      "Jam": 645,
      "et": 646,
      "aica": 647,
      "238": 648,
      "Jamaica": 649,
      "217": 650,
      "114": 651,
      "248": 652,
      "256": 653,
      "125": 654,
      "386": 655,
      "158": 656,
      "289": 657,
      "296": 658,
      "308": 659,
      "276": 660,
      "385": 661,
      "Ja": 662,
      "pan": 663,
      "254": 664,
      "Japan": 665,
      "183": 666,
      "267": 667,
      "270": 668,
      "ug": 669,
      "128": 670,
      "268": 671,
      "298": 672,
      "280": 673,
      "Col": 674,
      "bia": 675,
      "umbia": 676,
      "134": 677,
      "304": 678,
      "Columbia": 679,
      "135": 680,
      "347": 681,
      "mal": 682,
      "atemal": 683,
      "143": 684,
      "245": 685,
      "234": 686,
      "364": 687,
      "Guatemal": 688,
      "Guatemala": 689,
      "eschool": 690,
      "Preschool": 691,
      "309": 692,
      "340": 693,
      "356": 694,
      "358": 695,
      "300": 696,
      "249": 697,
      "239": 698,
      "193": 699,
      "257": 700,
      "379": 701,
      "Vi": 702,
      "nam": 703,
      "oland": 704,
      "250": 705,
      "279": 706,
      "307": 707,
      "376": 708,
      "360": 709,
      "etnam": 710,
      "Vietnam": 711,
      "Poland": 712,
      "269": 713,
      "274": 714,
      "378": 715,
      "312": 716,
      "244": 717,
      "260": 718,
      "259": 719,
      "286": 720,
      "346": 721,
      "890": 722,
      "310": 723,
      "338": 724,
      "287": 725,
      "Ha": 726,
      "iti": 727,
      "297": 728,
      "370": 729,
      "Haiti": 730,
      "317": 731,
      "Port": 732,
      "357": 733,
      "ugal": 734,
      "Portugal": 735,
      "316": 736,
      "320": 737,
      "275": 738,
      "285": 739,
      "311": 740,
      "318": 741,
      "324": 742,
      "323": 743,
      "265": 744,
      "295": 745,
      "350": 746,
      "315": 747,
      "163": 748,
      "294": 749,
      "409": 750,
      "460": 751,
      "303": 752,
      "313": 753,
      "123": 754,
      "366": 755,
      "546": 756,
      "509": 757,
      "Tai": 758,
      "wan": 759,
      "255": 760,
      "284": 761,
      "299": 762,
      "367": 763,
      "Taiwan": 764,
      "344": 765,
      "349": 766,
      "363": 767,
      "666": 768,
      "778": 769,
      "305": 770,
      "384": 771,
      "102": 772,
      "131": 773,
      "359": 774,
      "374": 775,
      "390": 776,
      "474": 777,
      "1177": 778,
      "172": 779,
      "253": 780,
      "894": 781,
      "895": 782,
      "668": 783,
      "496": 784,
      "314": 785,
      "Iran": 786,
      "1838": 787,
      "1759": 788,
      "288": 789,
      "387": 790,
      "395": 791,
      "549": 792,
      "574": 793,
      "Hon": 794,
      "103": 795,
      "243": 796,
      "391": 797,
      "540": 798,
      "497": 799,
      "1166": 800,
      "262": 801,
      "389": 802,
      "548": 803,
      "892": 804,
      "897": 805,
      "408": 806,
      "482": 807,
      "1930": 808,
      "355": 809,
      "361": 810,
      "380": 811,
      "397": 812,
      "1427": 813,
      "203": 814,
      "242": 815,
      "232": 816,
      "373": 817,
      "369": 818,
      "891": 819,
      "776": 820,
      "504": 821,
      "869": 822,
      "570": 823,
      "319": 824,
      "327": 825,
      "153": 826,
      "291": 827,
      "342": 828,
      "351": 829,
      "368": 830,
      "388": 831,
      "508": 832,
      "599": 833,
      "867": 834,
      "Nica": 835,
      "gu": 836,
      "ragu": 837,
      "1877": 838,
      "1949": 839,
      "2011": 840,
      "231": 841,
      "806": 842,
      "809": 843,
      "Nicaragu": 844,
      "Nicaragua": 845,
      "Gr": 846,
      "US": 847,
      "eece": 848,
      "1249": 849,
      "1747": 850,
      "261": 851,
      "354": 852,
      "399": 853,
      "660": 854,
      "576": 855,
      "874": 856,
      "876": 857,
      "968": 858,
      "Greece": 859,
      "456": 860,
      "133": 861,
      "1124": 862,
      "151": 863,
      "1990": 864,
      "273": 865,
      "293": 866,
      "343": 867,
      "372": 868,
      "377": 869,
      "396": 870,
      "541": 871,
      "400": 872,
      "490": 873,
      "493": 874,
      "498": 875,
      "500": 876,
      "506": 877,
      "591": 878,
      "862": 879,
      "222": 880,
      "583": 881,
      "1023": 882,
      "1230": 883,
      "1836": 884,
      "1854": 885,
      "543": 886,
      "896": 887,
      "669": 888,
      "779": 889,
      "568": 890,
      "967": 891,
      "551": 892,
      "Ec": 893,
      "Per": 894,
      "os": 895,
      "uador": 896,
      "1128": 897,
      "121": 898,
      "161": 899,
      "1923": 900,
      "1929": 901,
      "1900": 902,
      "2034": 903,
      "233": 904,
      "271": 905,
      "302": 906,
      "348": 907,
      "542": 908,
      "661": 909,
      "592": 910,
      "861": 911,
      "464": 912,
      "875": 913,
      "444": 914,
      "707": 915,
      "Ecuador": 916,
      "Peru": 917,
      "566": 918,
      "1089": 919,
      "1499": 920,
      "1623": 921,
      "182": 922,
      "1938": 923,
      "1946": 924,
      "283": 925,
      "345": 926,
      "596": 927,
      "860": 928,
      "804": 929,
      "565": 930,
      "483": 931,
      "956": 932,
      "1013": 933,
      "1039": 934,
      "1454": 935,
      "1500": 936,
      "1826": 937,
      "1825": 938,
      "1835": 939,
      "1850": 940,
      "1846": 941,
      "1913": 942,
      "1918": 943,
      "171": 944,
      "272": 945,
      "292": 946,
      "392": 947,
      "394": 948,
      "544": 949,
      "547": 950,
      "898": 951,
      "405": 952,
      "864": 953,
      "868": 954,
      "569": 955,
      "571": 956,
      "882": 957,
      "331": 958,
      "443": 959,
      "452": 960,
      "AF": 961,
      "Fran": 962,
      "1154": 963,
      "1276": 964,
      "1626": 965,
      "1630": 966,
      "152": 967,
      "1837": 968,
      "173": 969,
      "1767": 970,
      "2016": 971,
      "263": 972,
      "264": 973,
      "251": 974,
      "406": 975,
      "594": 976,
      "865": 977,
      "800": 978,
      "461": 979,
      "469": 980,
      "473": 981,
      "478": 982,
      "479": 983,
      "871": 984,
      "883": 985,
      "585": 986,
      "France": 987,
      "1339": 988,
      "1435": 989,
      "1489": 990,
      "122": 991,
      "1638": 992,
      "1554": 993,
      "1886": 994,
      "1725": 995,
      "1736": 996,
      "1700": 997,
      "282": 998,
      "398": 999,
      "598": 1000,
      "802": 1001,
      "476": 1002,
      "870": 1003,
      "333": 1004,
      "764": 1005,
      "538": 1006,
      "Irel": 1007,
      "1326": 1008,
      "1430": 1009,
      "1677": 1010,
      "1810": 1011,
      "1817": 1012,
      "1889": 1013,
      "1869": 1014,
      "1928": 1015,
      "1738": 1016,
      "1777": 1017,
      "1760": 1018,
      "2020": 1019,
      "2024": 1020,
      "375": 1021,
      "775": 1022,
      "562": 1023
    },
    "merges": [
      [
        "E",
        "P"
      ],
      [
        "S",
        "EP"
      ],
      [
        "a",
        "t"
      ],
      [
        "at",
        "i"
      ],
      [
        "i",
        "t"
      ],
      [
        "a",
        "l"
      ],
      [
        "e",
        "d"
      ],
      [
        "o",
        "n"
      ],
      [
        "ati",
        "on"
      ],
      [
        "it",
        "al"
      ],
      [
        "o",
        "u"
      ],
      [
        "s",
        "s"
      ],
      [
        "e",
        "r"
      ],
      [
        "c",
        "a"
      ],
      [
        "c",
        "ation"
      ],
      [
        "p",
        "ital"
      ],
      [
        "u",
        "cation"
      ],
      [
        "ed",
        "ucation"
      ],
      [
        "ca",
        "pital"
      ],
      [
        "a",
        "r"
      ],
      [
        "t",
        "at"
      ],
      [
        "s",
        "p"
      ],
      [
        "i",
        "n"
      ],
      [
        "r",
        "i"
      ],
      [
        "r",
        "a"
      ],
      [
        "s",
        "e"
      ],
      [
        "m",
        "ar"
      ],
      [
        "u",
        "s"
      ],
      [
        "o",
        "r"
      ],
      [
        "e",
        "l"
      ],
      [
        "g",
        "e"
      ],
      [
        "o",
        "c"
      ],
      [
        "h",
        "i"
      ],
      [
        "c",
        "l"
      ],
      [
        "al",
        "e"
      ],
      [
        "c",
        "e"
      ],
      [
        "v",
        "e"
      ],
      [
        "r",
        "el"
      ],
      [
        "ati",
        "ve"
      ],
      [
        "u",
        "p"
      ],
      [
        "n",
        "t"
      ],
      [
        "h",
        "ou"
      ],
      [
        "U",
        "n"
      ],
      [
        "u",
        "m"
      ],
      [
        "e",
        "e"
      ],
      [
        "w",
        "or"
      ],
      [
        "wor",
        "k"
      ],
      [
        "E",
        "C"
      ],
      [
        "E",
        "N"
      ],
      [
        "R",
        "EC"
      ],
      [
        "a",
        "ss"
      ],
      [
        "a",
        "in"
      ],
      [
        "a",
        "ge"
      ],
      [
        "c",
        "ou"
      ],
      [
        "c",
        "up"
      ],
      [
        "f",
        "n"
      ],
      [
        "g",
        "t"
      ],
      [
        "g",
        "ain"
      ],
      [
        "l",
        "o"
      ],
      [
        "l",
        "w"
      ],
      [
        "n",
        "ative"
      ],
      [
        "n",
        "um"
      ],
      [
        "r",
        "y"
      ],
      [
        "r",
        "sp"
      ],
      [
        "s",
        "tat"
      ],
      [
        "s",
        "hi"
      ],
      [
        "w",
        "ee"
      ],
      [
        "ation",
        "shi"
      ],
      [
        "er",
        "wee"
      ],
      [
        "capital",
        "gain"
      ],
      [
        "capital",
        "lo"
      ],
      [
        "ra",
        "ce"
      ],
      [
        "se",
        "x"
      ],
      [
        "mar",
        "ital"
      ],
      [
        "oc",
        "cup"
      ],
      [
        "cl",
        "ass"
      ],
      [
        "rel",
        "ationshi"
      ],
      [
        "nt",
        "ry"
      ],
      [
        "hou",
        "rsp"
      ],
      [
        "work",
        "class"
      ],
      [
        "EN",
        "D"
      ],
      [
        "cou",
        "ntry"
      ],
      [
        "fn",
        "lw"
      ],
      [
        "stat",
        "us"
      ],
      [
        "erwee",
        "k"
      ],
      [
        "capitallo",
        "ss"
      ],
      [
        "occup",
        "ation"
      ],
      [
        "relationshi",
        "p"
      ],
      [
        "hoursp",
        "erweek"
      ],
      [
        "fnlw",
        "gt"
      ],
      [
        "S",
        "tat"
      ],
      [
        "Stat",
        "e"
      ],
      [
        "ri",
        "ed"
      ],
      [
        "it",
        "ed"
      ],
      [
        "Un",
        "ited"
      ],
      [
        "State",
        "s"
      ],
      [
        "W",
        "h"
      ],
      [
        "it",
        "e"
      ],
      [
        "Wh",
        "ite"
      ],
      [
        "at",
        "e"
      ],
      [
        "a",
        "n"
      ],
      [
        "P",
        "ri"
      ],
      [
        "Pri",
        "v"
      ],
      [
        "Priv",
        "ate"
      ],
      [
        "M",
        "ale"
      ],
      [
        "i",
        "v"
      ],
      [
        "an",
        "d"
      ],
      [
        "M",
        "ar"
      ],
      [
        "ou",
        "se"
      ],
      [
        "sp",
        "ouse"
      ],
      [
        "Mar",
        "ried"
      ],
      [
        "c",
        "iv"
      ],
      [
        "e",
        "m"
      ],
      [
        "mar",
        "ried"
      ],
      [
        "H",
        "us"
      ],
      [
        "b",
        "and"
      ],
      [
        "Hus",
        "band"
      ],
      [
        "a",
        "c"
      ],
      [
        "o",
        "t"
      ],
      [
        "1",
        "0"
      ],
      [
        "F",
        "em"
      ],
      [
        "Fem",
        "ale"
      ],
      [
        "N",
        "e"
      ],
      [
        "v",
        "er"
      ],
      [
        "Ne",
        "ver"
      ],
      [
        "H",
        "S"
      ],
      [
        "g",
        "ra"
      ],
      [
        "gra",
        "d"
      ],
      [
        "e",
        "c"
      ],
      [
        "t",
        "h"
      ],
      [
        "a",
        "m"
      ],
      [
        "i",
        "l"
      ],
      [
        "N",
        "ot"
      ],
      [
        "f",
        "am"
      ],
      [
        "il",
        "y"
      ],
      [
        "fam",
        "ily"
      ],
      [
        "i",
        "al"
      ],
      [
        "c",
        "o"
      ],
      [
        "1",
        "3"
      ],
      [
        "ac",
        "h"
      ],
      [
        "o",
        "m"
      ],
      [
        "S",
        "om"
      ],
      [
        "e",
        "ge"
      ],
      [
        "l",
        "l"
      ],
      [
        "co",
        "ll"
      ],
      [
        "Som",
        "e"
      ],
      [
        "coll",
        "ege"
      ],
      [
        "o",
        "v"
      ],
      [
        "P",
        "r"
      ],
      [
        "B",
        "ach"
      ],
      [
        "or",
        "s"
      ],
      [
        "el",
        "ors"
      ],
      [
        "Bach",
        "elors"
      ],
      [
        "hi",
        "l"
      ],
      [
        "e",
        "p"
      ],
      [
        "O",
        "w"
      ],
      [
        "c",
        "hil"
      ],
      [
        "Ow",
        "n"
      ],
      [
        "chil",
        "d"
      ],
      [
        "1",
        "1"
      ],
      [
        "d",
        "m"
      ],
      [
        "o",
        "f"
      ],
      [
        "Pr",
        "of"
      ],
      [
        "er",
        "s"
      ],
      [
        "th",
        "er"
      ],
      [
        "O",
        "ther"
      ],
      [
        "D",
        "iv"
      ],
      [
        "c",
        "ed"
      ],
      [
        "or",
        "ced"
      ],
      [
        "Div",
        "orced"
      ],
      [
        "g",
        "ov"
      ],
      [
        "=",
        "<"
      ],
      [
        "L",
        "L"
      ],
      [
        "N",
        "U"
      ],
      [
        "NU",
        "LL"
      ],
      [
        "a",
        "i"
      ],
      [
        "m",
        "an"
      ],
      [
        "t",
        "y"
      ],
      [
        "sp",
        "ec"
      ],
      [
        "ial",
        "ty"
      ],
      [
        "spec",
        "ialty"
      ],
      [
        "C",
        "ra"
      ],
      [
        "f",
        "t"
      ],
      [
        "r",
        "ep"
      ],
      [
        "ai",
        "r"
      ],
      [
        "Cra",
        "ft"
      ],
      [
        "rep",
        "air"
      ],
      [
        "s",
        "er"
      ],
      [
        "ser",
        "v"
      ],
      [
        "a",
        "g"
      ],
      [
        "1",
        "4"
      ],
      [
        "E",
        "x"
      ],
      [
        "er",
        "ial"
      ],
      [
        "man",
        "ag"
      ],
      [
        "Ex",
        "ec"
      ],
      [
        "manag",
        "erial"
      ],
      [
        "i",
        "c"
      ],
      [
        "1",
        "2"
      ],
      [
        "A",
        "dm"
      ],
      [
        "er",
        "ic"
      ],
      [
        "cl",
        "eric"
      ],
      [
        "cleric",
        "al"
      ],
      [
        "S",
        "el"
      ],
      [
        "in",
        "c"
      ],
      [
        "em",
        "p"
      ],
      [
        "Sel",
        "f"
      ],
      [
        "in",
        "g"
      ],
      [
        "S",
        "ale"
      ],
      [
        "Sale",
        "s"
      ],
      [
        "Un",
        "married"
      ],
      [
        "i",
        "ce"
      ],
      [
        "serv",
        "ice"
      ],
      [
        "B",
        "l"
      ],
      [
        "ac",
        "k"
      ],
      [
        "Bl",
        "ack"
      ],
      [
        "1",
        "6"
      ],
      [
        "1",
        "5"
      ],
      [
        "1",
        "8"
      ],
      [
        "1",
        "9"
      ],
      [
        "1",
        "7"
      ],
      [
        "or",
        "t"
      ],
      [
        "n",
        "ot"
      ],
      [
        "W",
        "i"
      ],
      [
        "2",
        "0"
      ],
      [
        "A",
        "ss"
      ],
      [
        "Ass",
        "oc"
      ],
      [
        "in",
        "e"
      ],
      [
        "L",
        "oc"
      ],
      [
        "Loc",
        "al"
      ],
      [
        "M",
        "ach"
      ],
      [
        "c",
        "t"
      ],
      [
        "o",
        "p"
      ],
      [
        "sp",
        "ct"
      ],
      [
        "in",
        "spct"
      ],
      [
        "Mach",
        "ine"
      ],
      [
        "s",
        "t"
      ],
      [
        "2",
        "4"
      ],
      [
        "2",
        "3"
      ],
      [
        "M",
        "a"
      ],
      [
        "st",
        "ers"
      ],
      [
        "Ma",
        "sters"
      ],
      [
        "2",
        "6"
      ],
      [
        "2",
        "5"
      ],
      [
        "2",
        "7"
      ],
      [
        "ra",
        "n"
      ],
      [
        "2",
        "8"
      ],
      [
        "T",
        "ran"
      ],
      [
        "m",
        "ov"
      ],
      [
        "sp",
        "ort"
      ],
      [
        "Tran",
        "sport"
      ],
      [
        "mov",
        "ing"
      ],
      [
        "2",
        "9"
      ],
      [
        "f",
        "e"
      ],
      [
        "Wi",
        "fe"
      ],
      [
        "3",
        "0"
      ],
      [
        "3",
        "4"
      ],
      [
        "H",
        "and"
      ],
      [
        "e",
        "an"
      ],
      [
        "l",
        "ers"
      ],
      [
        "cl",
        "ean"
      ],
      [
        "Hand",
        "lers"
      ],
      [
        "clean",
        "ers"
      ],
      [
        "v",
        "oc"
      ],
      [
        "i",
        "an"
      ],
      [
        "3",
        "5"
      ],
      [
        "3",
        "7"
      ],
      [
        "11",
        "th"
      ],
      [
        "3",
        "6"
      ],
      [
        "l",
        "and"
      ],
      [
        "3",
        "8"
      ],
      [
        "3",
        "9"
      ],
      [
        "ac",
        "dm"
      ],
      [
        "S",
        "ep"
      ],
      [
        "at",
        "ed"
      ],
      [
        "ar",
        "ated"
      ],
      [
        "Sep",
        "arated"
      ],
      [
        "F",
        "ar"
      ],
      [
        "f",
        "i"
      ],
      [
        "h",
        "ing"
      ],
      [
        "m",
        "ing"
      ],
      [
        "s",
        "hing"
      ],
      [
        "Far",
        "ming"
      ],
      [
        "fi",
        "shing"
      ],
      [
        "A",
        "s"
      ],
      [
        "I",
        "s"
      ],
      [
        "P",
        "ac"
      ],
      [
        "land",
        "er"
      ],
      [
        "As",
        "ian"
      ],
      [
        "Is",
        "lander"
      ],
      [
        "d",
        "o"
      ],
      [
        "w",
        "ed"
      ],
      [
        "Wi",
        "do"
      ],
      [
        "Wido",
        "wed"
      ],
      [
        "rel",
        "ative"
      ],
      [
        "5",
        "4"
      ],
      [
        "8",
        "9"
      ],
      [
        "T",
        "ec"
      ],
      [
        "p",
        "ort"
      ],
      [
        "s",
        "up"
      ],
      [
        "Tec",
        "h"
      ],
      [
        "sup",
        "port"
      ],
      [
        "F",
        "ed"
      ],
      [
        "er",
        "al"
      ],
      [
        "Fed",
        "eral"
      ],
      [
        "10",
        "th"
      ],
      [
        "6",
        "6"
      ],
      [
        "4",
        "0"
      ],
      [
        "4",
        "9"
      ],
      [
        "7",
        "7"
      ],
      [
        "5",
        "0"
      ],
      [
        "5",
        "9"
      ],
      [
        "8",
        "6"
      ],
      [
        "8",
        "0"
      ],
      [
        "4",
        "6"
      ],
      [
        "4",
        "7"
      ],
      [
        "5",
        "6"
      ],
      [
        "i",
        "co"
      ],
      [
        "5",
        "7"
      ],
      [
        "8",
        "7"
      ],
      [
        "9",
        "9"
      ],
      [
        "o",
        "l"
      ],
      [
        "2",
        "2"
      ],
      [
        "i",
        "ve"
      ],
      [
        "t",
        "ive"
      ],
      [
        "ot",
        "ec"
      ],
      [
        "Pr",
        "otec"
      ],
      [
        "Protec",
        "tive"
      ],
      [
        "7",
        "th"
      ],
      [
        "8",
        "th"
      ],
      [
        "c",
        "h"
      ],
      [
        "o",
        "ol"
      ],
      [
        "s",
        "ch"
      ],
      [
        "sch",
        "ool"
      ],
      [
        "M",
        "e"
      ],
      [
        "x",
        "ico"
      ],
      [
        "Me",
        "xico"
      ],
      [
        "9",
        "6"
      ],
      [
        "8",
        "8"
      ],
      [
        "3",
        "3"
      ],
      [
        "9",
        "0"
      ],
      [
        "7",
        "6"
      ],
      [
        "4",
        "4"
      ],
      [
        "5",
        "8"
      ],
      [
        "7",
        "0"
      ],
      [
        "9",
        "th"
      ],
      [
        "5",
        "5"
      ],
      [
        "6",
        "0"
      ],
      [
        "4",
        "8"
      ],
      [
        "9",
        "7"
      ],
      [
        "0",
        "0"
      ],
      [
        "4",
        "5"
      ],
      [
        "12",
        "th"
      ],
      [
        "3",
        "2"
      ],
      [
        "a",
        "b"
      ],
      [
        "se",
        "nt"
      ],
      [
        "ab",
        "sent"
      ],
      [
        "I",
        "n"
      ],
      [
        "In",
        "d"
      ],
      [
        "9",
        "8"
      ],
      [
        "7",
        "8"
      ],
      [
        "D",
        "oc"
      ],
      [
        "t",
        "or"
      ],
      [
        "Doc",
        "tor"
      ],
      [
        "Doctor",
        "ate"
      ],
      [
        "6",
        "8"
      ],
      [
        "6",
        "7"
      ],
      [
        "9",
        "5"
      ],
      [
        "9",
        "4"
      ],
      [
        "5",
        "3"
      ],
      [
        "5",
        "th"
      ],
      [
        "6",
        "th"
      ],
      [
        "0",
        "6"
      ],
      [
        "A",
        "m"
      ],
      [
        "E",
        "s"
      ],
      [
        "i",
        "m"
      ],
      [
        "k",
        "im"
      ],
      [
        "Ind",
        "ian"
      ],
      [
        "Am",
        "er"
      ],
      [
        "Es",
        "kim"
      ],
      [
        "Eskim",
        "o"
      ],
      [
        "a",
        "d"
      ],
      [
        "2",
        "1"
      ],
      [
        "8",
        "4"
      ],
      [
        "7",
        "4"
      ],
      [
        "8",
        "5"
      ],
      [
        "7",
        "9"
      ],
      [
        "6",
        "9"
      ],
      [
        "6",
        "4"
      ],
      [
        "0",
        "9"
      ],
      [
        "7",
        "5"
      ],
      [
        "6",
        "5"
      ],
      [
        "0",
        "8"
      ],
      [
        "0",
        "7"
      ],
      [
        "9",
        "3"
      ],
      [
        "4",
        "3"
      ],
      [
        "8",
        "3"
      ],
      [
        "4",
        "2"
      ],
      [
        "2",
        "16"
      ],
      [
        "0",
        "4"
      ],
      [
        "0",
        "5"
      ],
      [
        "5",
        "1"
      ],
      [
        "1",
        "13"
      ],
      [
        "5",
        "2"
      ],
      [
        "6",
        "3"
      ],
      [
        "P",
        "hil"
      ],
      [
        "i",
        "p"
      ],
      [
        "p",
        "ine"
      ],
      [
        "Phil",
        "ip"
      ],
      [
        "pine",
        "s"
      ],
      [
        "Philip",
        "pines"
      ],
      [
        "1",
        "10"
      ],
      [
        "i",
        "a"
      ],
      [
        "7",
        "2"
      ],
      [
        "7",
        "3"
      ],
      [
        "8",
        "2"
      ],
      [
        "0",
        "3"
      ],
      [
        "2",
        "14"
      ],
      [
        "2",
        "10"
      ],
      [
        "3",
        "1"
      ],
      [
        "2",
        "13"
      ],
      [
        "2",
        "24"
      ],
      [
        "19",
        "0"
      ],
      [
        "1",
        "st"
      ],
      [
        "4",
        "th"
      ],
      [
        "u",
        "b"
      ],
      [
        "hou",
        "se"
      ],
      [
        "20",
        "0"
      ],
      [
        "4",
        "1"
      ],
      [
        "2",
        "18"
      ],
      [
        "9",
        "1"
      ],
      [
        "2",
        "15"
      ],
      [
        "2",
        "27"
      ],
      [
        "2",
        "11"
      ],
      [
        "2",
        "26"
      ],
      [
        "8",
        "1"
      ],
      [
        "2",
        "12"
      ],
      [
        "17",
        "6"
      ],
      [
        "18",
        "7"
      ],
      [
        "19",
        "6"
      ],
      [
        "2",
        "20"
      ],
      [
        "2",
        "25"
      ],
      [
        "ad",
        "or"
      ],
      [
        "19",
        "7"
      ],
      [
        "12",
        "0"
      ],
      [
        "2",
        "28"
      ],
      [
        "G",
        "er"
      ],
      [
        "man",
        "y"
      ],
      [
        "17",
        "4"
      ],
      [
        "Ger",
        "many"
      ],
      [
        "17",
        "0"
      ],
      [
        "C",
        "an"
      ],
      [
        "11",
        "6"
      ],
      [
        "ad",
        "a"
      ],
      [
        "Can",
        "ada"
      ],
      [
        "19",
        "9"
      ],
      [
        "2",
        "23"
      ],
      [
        "18",
        "6"
      ],
      [
        "0",
        "1"
      ],
      [
        "11",
        "7"
      ],
      [
        "18",
        "9"
      ],
      [
        "P",
        "u"
      ],
      [
        "R",
        "ico"
      ],
      [
        "t",
        "o"
      ],
      [
        "er",
        "to"
      ],
      [
        "Pu",
        "erto"
      ],
      [
        "7",
        "1"
      ],
      [
        "18",
        "8"
      ],
      [
        "2",
        "19"
      ],
      [
        "16",
        "0"
      ],
      [
        "16",
        "6"
      ],
      [
        "17",
        "7"
      ],
      [
        "2",
        "29"
      ],
      [
        "10",
        "6"
      ],
      [
        "23",
        "6"
      ],
      [
        "24",
        "0"
      ],
      [
        "16",
        "9"
      ],
      [
        "9",
        "2"
      ],
      [
        "18",
        "0"
      ],
      [
        "12",
        "9"
      ],
      [
        "16",
        "7"
      ],
      [
        "17",
        "8"
      ],
      [
        "E",
        "l"
      ],
      [
        "S",
        "al"
      ],
      [
        "v",
        "ador"
      ],
      [
        "19",
        "8"
      ],
      [
        "23",
        "0"
      ],
      [
        "Sal",
        "vador"
      ],
      [
        "20",
        "7"
      ],
      [
        "i",
        "ca"
      ],
      [
        "10",
        "7"
      ],
      [
        "20",
        "6"
      ],
      [
        "10",
        "0"
      ],
      [
        "18",
        "5"
      ],
      [
        "Ind",
        "ia"
      ],
      [
        "18",
        "4"
      ],
      [
        "16",
        "8"
      ],
      [
        "19",
        "5"
      ],
      [
        "n",
        "g"
      ],
      [
        "17",
        "5"
      ],
      [
        "30",
        "6"
      ],
      [
        "C",
        "ub"
      ],
      [
        "13",
        "7"
      ],
      [
        "13",
        "8"
      ],
      [
        "Cub",
        "a"
      ],
      [
        "15",
        "6"
      ],
      [
        "14",
        "9"
      ],
      [
        "15",
        "4"
      ],
      [
        "24",
        "6"
      ],
      [
        "10",
        "8"
      ],
      [
        "14",
        "7"
      ],
      [
        "10",
        "4"
      ],
      [
        "14",
        "8"
      ],
      [
        "17",
        "9"
      ],
      [
        "11",
        "9"
      ],
      [
        "12",
        "6"
      ],
      [
        "16",
        "4"
      ],
      [
        "15",
        "7"
      ],
      [
        "0",
        "2"
      ],
      [
        "3",
        "29"
      ],
      [
        "20",
        "9"
      ],
      [
        "13",
        "9"
      ],
      [
        "15",
        "5"
      ],
      [
        "15",
        "9"
      ],
      [
        "3",
        "34"
      ],
      [
        "C",
        "h"
      ],
      [
        "E",
        "ng"
      ],
      [
        "in",
        "a"
      ],
      [
        "14",
        "0"
      ],
      [
        "Ch",
        "ina"
      ],
      [
        "Eng",
        "land"
      ],
      [
        "12",
        "4"
      ],
      [
        "10",
        "9"
      ],
      [
        "14",
        "6"
      ],
      [
        "20",
        "8"
      ],
      [
        "3",
        "25"
      ],
      [
        "3",
        "37"
      ],
      [
        "10",
        "5"
      ],
      [
        "14",
        "5"
      ],
      [
        "15",
        "0"
      ],
      [
        "13",
        "6"
      ],
      [
        "14",
        "4"
      ],
      [
        "3",
        "28"
      ],
      [
        "19",
        "4"
      ],
      [
        "27",
        "7"
      ],
      [
        "20",
        "5"
      ],
      [
        "26",
        "6"
      ],
      [
        "S",
        "ou"
      ],
      [
        "Sou",
        "th"
      ],
      [
        "3",
        "36"
      ],
      [
        "12",
        "7"
      ],
      [
        "16",
        "5"
      ],
      [
        "29",
        "0"
      ],
      [
        "20",
        "4"
      ],
      [
        "13",
        "0"
      ],
      [
        "3",
        "39"
      ],
      [
        "11",
        "8"
      ],
      [
        "27",
        "8"
      ],
      [
        "G",
        "u"
      ],
      [
        "I",
        "t"
      ],
      [
        "al",
        "y"
      ],
      [
        "11",
        "5"
      ],
      [
        "It",
        "aly"
      ],
      [
        "3",
        "30"
      ],
      [
        "3",
        "35"
      ],
      [
        "D",
        "om"
      ],
      [
        "R",
        "ep"
      ],
      [
        "l",
        "ic"
      ],
      [
        "in",
        "ica"
      ],
      [
        "24",
        "7"
      ],
      [
        "23",
        "5"
      ],
      [
        "23",
        "7"
      ],
      [
        "25",
        "8"
      ],
      [
        "ub",
        "lic"
      ],
      [
        "Dom",
        "inica"
      ],
      [
        "Rep",
        "ublic"
      ],
      [
        "Dominica",
        "n"
      ],
      [
        "3",
        "26"
      ],
      [
        "J",
        "am"
      ],
      [
        "e",
        "t"
      ],
      [
        "ai",
        "ca"
      ],
      [
        "23",
        "8"
      ],
      [
        "Jam",
        "aica"
      ],
      [
        "2",
        "17"
      ],
      [
        "11",
        "4"
      ],
      [
        "24",
        "8"
      ],
      [
        "25",
        "6"
      ],
      [
        "12",
        "5"
      ],
      [
        "38",
        "6"
      ],
      [
        "15",
        "8"
      ],
      [
        "28",
        "9"
      ],
      [
        "29",
        "6"
      ],
      [
        "30",
        "8"
      ],
      [
        "27",
        "6"
      ],
      [
        "38",
        "5"
      ],
      [
        "J",
        "a"
      ],
      [
        "p",
        "an"
      ],
      [
        "25",
        "4"
      ],
      [
        "Ja",
        "pan"
      ],
      [
        "18",
        "3"
      ],
      [
        "26",
        "7"
      ],
      [
        "27",
        "0"
      ],
      [
        "u",
        "g"
      ],
      [
        "12",
        "8"
      ],
      [
        "26",
        "8"
      ],
      [
        "29",
        "8"
      ],
      [
        "28",
        "0"
      ],
      [
        "C",
        "ol"
      ],
      [
        "b",
        "ia"
      ],
      [
        "um",
        "bia"
      ],
      [
        "13",
        "4"
      ],
      [
        "30",
        "4"
      ],
      [
        "Col",
        "umbia"
      ],
      [
        "13",
        "5"
      ],
      [
        "34",
        "7"
      ],
      [
        "m",
        "al"
      ],
      [
        "ate",
        "mal"
      ],
      [
        "14",
        "3"
      ],
      [
        "24",
        "5"
      ],
      [
        "23",
        "4"
      ],
      [
        "36",
        "4"
      ],
      [
        "Gu",
        "atemal"
      ],
      [
        "Guatemal",
        "a"
      ],
      [
        "e",
        "school"
      ],
      [
        "Pr",
        "eschool"
      ],
      [
        "30",
        "9"
      ],
      [
        "34",
        "0"
      ],
      [
        "35",
        "6"
      ],
      [
        "35",
        "8"
      ],
      [
        "30",
        "0"
      ],
      [
        "24",
        "9"
      ],
      [
        "23",
        "9"
      ],
      [
        "19",
        "3"
      ],
      [
        "25",
        "7"
      ],
      [
        "37",
        "9"
      ],
      [
        "V",
        "i"
      ],
      [
        "n",
        "am"
      ],
      [
        "o",
        "land"
      ],
      [
        "25",
        "0"
      ],
      [
        "27",
        "9"
      ],
      [
        "30",
        "7"
      ],
      [
        "37",
        "6"
      ],
      [
        "36",
        "0"
      ],
      [
        "et",
        "nam"
      ],
      [
        "Vi",
        "etnam"
      ],
      [
        "P",
        "oland"
      ],
      [
        "26",
        "9"
      ],
      [
        "27",
        "4"
      ],
      [
        "37",
        "8"
      ],
      [
        "3",
        "12"
      ],
      [
        "24",
        "4"
      ],
      [
        "26",
        "0"
      ],
      [
        "25",
        "9"
      ],
      [
        "28",
        "6"
      ],
      [
        "34",
        "6"
      ],
      [
        "89",
        "0"
      ],
      [
        "3",
        "10"
      ],
      [
        "3",
        "38"
      ],
      [
        "28",
        "7"
      ],
      [
        "H",
        "a"
      ],
      [
        "it",
        "i"
      ],
      [
        "29",
        "7"
      ],
      [
        "37",
        "0"
      ],
      [
        "Ha",
        "iti"
      ],
      [
        "3",
        "17"
      ],
      [
        "P",
        "ort"
      ],
      [
        "35",
        "7"
      ],
      [
        "ug",
        "al"
      ],
      [
        "Port",
        "ugal"
      ],
      [
        "3",
        "16"
      ],
      [
        "3",
        "20"
      ],
      [
        "27",
        "5"
      ],
      [
        "28",
        "5"
      ],
      [
        "3",
        "11"
      ],
      [
        "3",
        "18"
      ],
      [
        "3",
        "24"
      ],
      [
        "3",
        "23"
      ],
      [
        "26",
        "5"
      ],
      [
        "29",
        "5"
      ],
      [
        "35",
        "0"
      ],
      [
        "3",
        "15"
      ],
      [
        "16",
        "3"
      ],
      [
        "29",
        "4"
      ],
      [
        "40",
        "9"
      ],
      [
        "46",
        "0"
      ],
      [
        "30",
        "3"
      ],
      [
        "3",
        "13"
      ],
      [
        "12",
        "3"
      ],
      [
        "36",
        "6"
      ],
      [
        "54",
        "6"
      ],
      [
        "50",
        "9"
      ],
      [
        "T",
        "ai"
      ],
      [
        "w",
        "an"
      ],
      [
        "25",
        "5"
      ],
      [
        "28",
        "4"
      ],
      [
        "29",
        "9"
      ],
      [
        "36",
        "7"
      ],
      [
        "Tai",
        "wan"
      ],
      [
        "34",
        "4"
      ],
      [
        "34",
        "9"
      ],
      [
        "36",
        "3"
      ],
      [
        "66",
        "6"
      ],
      [
        "77",
        "8"
      ],
      [
        "30",
        "5"
      ],
      [
        "38",
        "4"
      ],
      [
        "10",
        "2"
      ],
      [
        "13",
        "1"
      ],
      [
        "35",
        "9"
      ],
      [
        "37",
        "4"
      ],
      [
        "39",
        "0"
      ],
      [
        "47",
        "4"
      ],
      [
        "11",
        "77"
      ],
      [
        "17",
        "2"
      ],
      [
        "25",
        "3"
      ],
      [
        "89",
        "4"
      ],
      [
        "89",
        "5"
      ],
      [
        "66",
        "8"
      ],
      [
        "49",
        "6"
      ],
      [
        "3",
        "14"
      ],
      [
        "I",
        "ran"
      ],
      [
        "18",
        "38"
      ],
      [
        "17",
        "59"
      ],
      [
        "28",
        "8"
      ],
      [
        "38",
        "7"
      ],
      [
        "39",
        "5"
      ],
      [
        "54",
        "9"
      ],
      [
        "57",
        "4"
      ],
      [
        "H",
        "on"
      ],
      [
        "10",
        "3"
      ],
      [
        "24",
        "3"
      ],
      [
        "39",
        "1"
      ],
      [
        "54",
        "0"
      ],
      [
        "49",
        "7"
      ],
      [
        "11",
        "66"
      ],
      [
        "26",
        "2"
      ],
      [
        "38",
        "9"
      ],
      [
        "54",
        "8"
      ],
      [
        "89",
        "2"
      ],
      [
        "89",
        "7"
      ],
      [
        "40",
        "8"
      ],
      [
        "48",
        "2"
      ],
      [
        "19",
        "30"
      ],
      [
        "35",
        "5"
      ],
      [
        "36",
        "1"
      ],
      [
        "38",
        "0"
      ],
      [
        "39",
        "7"
      ],
      [
        "14",
        "27"
      ],
      [
        "20",
        "3"
      ],
      [
        "24",
        "2"
      ],
      [
        "23",
        "2"
      ],
      [
        "37",
        "3"
      ],
      [
        "36",
        "9"
      ],
      [
        "89",
        "1"
      ],
      [
        "77",
        "6"
      ],
      [
        "50",
        "4"
      ],
      [
        "86",
        "9"
      ],
      [
        "57",
        "0"
      ],
      [
        "3",
        "19"
      ],
      [
        "3",
        "27"
      ],
      [
        "15",
        "3"
      ],
      [
        "29",
        "1"
      ],
      [
        "34",
        "2"
      ],
      [
        "35",
        "1"
      ],
      [
        "36",
        "8"
      ],
      [
        "38",
        "8"
      ],
      [
        "50",
        "8"
      ],
      [
        "59",
        "9"
      ],
      [
        "86",
        "7"
      ],
      [
        "N",
        "ica"
      ],
      [
        "g",
        "u"
      ],
      [
        "ra",
        "gu"
      ],
      [
        "18",
        "77"
      ],
      [
        "19",
        "49"
      ],
      [
        "20",
        "11"
      ],
      [
        "23",
        "1"
      ],
      [
        "80",
        "6"
      ],
      [
        "80",
        "9"
      ],
      [
        "Nica",
        "ragu"
      ],
      [
        "Nicaragu",
        "a"
      ],
      [
        "G",
        "r"
      ],
      [
        "U",
        "S"
      ],
      [
        "ee",
        "ce"
      ],
      [
        "12",
        "49"
      ],
      [
        "17",
        "47"
      ],
      [
        "26",
        "1"
      ],
      [
        "35",
        "4"
      ],
      [
        "39",
        "9"
      ],
      [
        "66",
        "0"
      ],
      [
        "57",
        "6"
      ],
      [
        "87",
        "4"
      ],
      [
        "87",
        "6"
      ],
      [
        "96",
        "8"
      ],
      [
        "Gr",
        "eece"
      ],
      [
        "4",
        "56"
      ],
      [
        "13",
        "3"
      ],
      [
        "11",
        "24"
      ],
      [
        "15",
        "1"
      ],
      [
        "19",
        "90"
      ],
      [
        "27",
        "3"
      ],
      [
        "29",
        "3"
      ],
      [
        "34",
        "3"
      ],
      [
        "37",
        "2"
      ],
      [
        "37",
        "7"
      ],
      [
        "39",
        "6"
      ],
      [
        "54",
        "1"
      ],
      [
        "40",
        "0"
      ],
      [
        "49",
        "0"
      ],
      [
        "49",
        "3"
      ],
      [
        "49",
        "8"
      ],
      [
        "50",
        "0"
      ],
      [
        "50",
        "6"
      ],
      [
        "59",
        "1"
      ],
      [
        "86",
        "2"
      ],
      [
        "22",
        "2"
      ],
      [
        "58",
        "3"
      ],
      [
        "10",
        "23"
      ],
      [
        "12",
        "30"
      ],
      [
        "18",
        "36"
      ],
      [
        "18",
        "54"
      ],
      [
        "54",
        "3"
      ],
      [
        "89",
        "6"
      ],
      [
        "66",
        "9"
      ],
      [
        "77",
        "9"
      ],
      [
        "56",
        "8"
      ],
      [
        "96",
        "7"
      ],
      [
        "55",
        "1"
      ],
      [
        "E",
        "c"
      ],
      [
        "P",
        "er"
      ],
      [
        "o",
        "s"
      ],
      [
        "u",
        "ador"
      ],
      [
        "11",
        "28"
      ],
      [
        "12",
        "1"
      ],
      [
        "16",
        "1"
      ],
      [
        "19",
        "23"
      ],
      [
        "19",
        "29"
      ],
      [
        "19",
        "00"
      ],
      [
        "20",
        "34"
      ],
      [
        "23",
        "3"
      ],
      [
        "27",
        "1"
      ],
      [
        "30",
        "2"
      ],
      [
        "34",
        "8"
      ],
      [
        "54",
        "2"
      ],
      [
        "66",
        "1"
      ],
      [
        "59",
        "2"
      ],
      [
        "86",
        "1"
      ],
      [
        "46",
        "4"
      ],
      [
        "87",
        "5"
      ],
      [
        "44",
        "4"
      ],
      [
        "70",
        "7"
      ],
      [
        "Ec",
        "uador"
      ],
      [
        "Per",
        "u"
      ],
      [
        "5",
        "66"
      ],
      [
        "10",
        "89"
      ],
      [
        "14",
        "99"
      ],
      [
        "16",
        "23"
      ],
      [
        "18",
        "2"
      ],
      [
        "19",
        "38"
      ],
      [
        "19",
        "46"
      ],
      [
        "28",
        "3"
      ],
      [
        "34",
        "5"
      ],
      [
        "59",
        "6"
      ],
      [
        "86",
        "0"
      ],
      [
        "80",
        "4"
      ],
      [
        "56",
        "5"
      ],
      [
        "48",
        "3"
      ],
      [
        "9",
        "56"
      ],
      [
        "10",
        "13"
      ],
      [
        "10",
        "39"
      ],
      [
        "14",
        "54"
      ],
      [
        "15",
        "00"
      ],
      [
        "18",
        "26"
      ],
      [
        "18",
        "25"
      ],
      [
        "18",
        "35"
      ],
      [
        "18",
        "50"
      ],
      [
        "18",
        "46"
      ],
      [
        "19",
        "13"
      ],
      [
        "19",
        "18"
      ],
      [
        "17",
        "1"
      ],
      [
        "27",
        "2"
      ],
      [
        "29",
        "2"
      ],
      [
        "39",
        "2"
      ],
      [
        "39",
        "4"
      ],
      [
        "54",
        "4"
      ],
      [
        "54",
        "7"
      ],
      [
        "89",
        "8"
      ],
      [
        "40",
        "5"
      ],
      [
        "86",
        "4"
      ],
      [
        "86",
        "8"
      ],
      [
        "56",
        "9"
      ],
      [
        "57",
        "1"
      ],
      [
        "88",
        "2"
      ],
      [
        "33",
        "1"
      ],
      [
        "44",
        "3"
      ],
      [
        "45",
        "2"
      ],
      [
        "A",
        "F"
      ],
      [
        "F",
        "ran"
      ],
      [
        "11",
        "54"
      ],
      [
        "12",
        "76"
      ],
      [
        "16",
        "26"
      ],
      [
        "16",
        "30"
      ],
      [
        "15",
        "2"
      ],
      [
        "18",
        "37"
      ],
      [
        "17",
        "3"
      ],
      [
        "17",
        "67"
      ],
      [
        "20",
        "16"
      ],
      [
        "26",
        "3"
      ],
      [
        "26",
        "4"
      ],
      [
        "25",
        "1"
      ],
      [
        "40",
        "6"
      ],
      [
        "59",
        "4"
      ],
      [
        "86",
        "5"
      ],
      [
        "80",
        "0"
      ],
      [
        "46",
        "1"
      ],
      [
        "46",
        "9"
      ],
      [
        "47",
        "3"
      ],
      [
        "47",
        "8"
      ],
      [
        "47",
        "9"
      ],
      [
        "87",
        "1"
      ],
      [
        "88",
        "3"
      ],
      [
        "58",
        "5"
      ],
      [
        "Fran",
        "ce"
      ],
      [
        "13",
        "39"
      ],
      [
        "14",
        "35"
      ],
      [
        "14",
        "89"
      ],
      [
        "12",
        "2"
      ],
      [
        "16",
        "38"
      ],
      [
        "15",
        "54"
      ],
      [
        "18",
        "86"
      ],
      [
        "17",
        "25"
      ],
      [
        "17",
        "36"
      ],
      [
        "17",
        "00"
      ],
      [
        "28",
        "2"
      ],
      [
        "39",
        "8"
      ],
      [
        "59",
        "8"
      ],
      [
        "80",
        "2"
      ],
      [
        "47",
        "6"
      ],
      [
        "87",
        "0"
      ],
      [
        "33",
        "3"
      ],
      [
        "76",
        "4"
      ],
      [
        "5",
        "38"
      ],
      [
        "I",
        "rel"
      ],
      [
        "13",
        "26"
      ],
      [
        "14",
        "30"
      ],
      [
        "16",
        "77"
      ],
      [
        "18",
        "10"
      ],
      [
        "18",
        "17"
      ],
      [
        "18",
        "89"
      ],
      [
        "18",
        "69"
      ],
      [
        "19",
        "28"
      ],
      [
        "17",
        "38"
      ],
      [
        "17",
        "77"
      ],
      [
        "17",
        "60"
      ],
      [
        "20",
        "20"
      ],
      [
        "20",
        "24"
      ],
      [
        "37",
        "5"
      ],
      [
        "77",
        "5"
      ],
      [
        "56",
        "2"
      ]
    ]
  }
}