{
  "version": "1.0",
  "truncation": null,
  "padding": null,
  "added_tokens": [
    {
      "id": 0,
      "content": "[PAD]",
      "single_word": false,
      "lstrip": false,
      "rstrip": false,
      "normalized": false,
      "special": true
    },
    {
      "id": 1,
      "content": "[UNK]",
      "single_word": false,
      "lstrip": false,
      "rstrip": false,
      "normalized": false,
      "special": true
    },
    {
      "id": 2,
      "content": "[CLS]",
      "single_word": false,
      "lstrip": false,
      "rstrip": false,
      "normalized": false,
      "special": true
    },
    {
      "id": 3,
      "content": "[SEP]",
      "single_word": false,
      "lstrip": false,
      "rstrip": false,
      "normalized": false,
      "special": true
    },
    {
      "id": 4,
      "content": "[MASK]",
      "single_word": false,
      "lstrip": false,
      "rstrip": false,
      "normalized": false,
      "special": true
    }
  ],
  "normalizer": {
    "type": "NFKC"
  },
  "pre_tokenizer": {
    "type": "Whitespace"
  },
  "post_processor": null,
  "decoder": null,
  "model": {
    "type": "BPE",
    "dropout": null,
    "unk_token": "[UNK]",
    "continuing_subword_prefix": null,
    "end_of_word_suffix": null,
    "fuse_unk": false,
    "byte_fallback": false,
    "ignore_merges": false,
    "vocab": {
      "[PAD]": 0,
      "[UNK]": 1,
      "[CLS]": 2,
      "[SEP]": 3,
      "[MASK]": 4,
      "0": 5,
      "1": 6,
      "2": 7,
      "3": 8,
      "4": 9,
      "5": 10,
      "6": 11,
      "7": 12,
      "8": 13,
      "9": 14,
      "<": 15,
      "=": 16,
      ">": 17,
      "A": 18,
      "B": 19,
      "C": 20,
      "D": 21,
      "E": 22,
      "F": 23,
      "G": 24,
      "H": 25,
      "I": 26,
      "J": 27,
      "K": 28,
      "L": 29,
      "M": 30,
      "N": 31,
      "O": 32,
      "P": 33,
      "Q": 34,
      "R": 35,
      "S": 36,
      "T": 37,
      "U": 38,
      "V": 39,
      "W": 40,
      "X": 41,
      "Y": 42,
      "Z": 43,
      "_": 44,
      "a": 45,
      "b": 46,
      "c": 47,
      "d": 48,
      "e": 49,
      "f": 50,
      "g": 51,
      "h": 52,
      "i": 53,
      "j": 54,
      "k": 55,
      "l": 56,
      "m": 57,
      "n": 58,
      "o": 59,
      "p": 60,
      "q": 61,
      "r": 62,
      "s": 63,
      "t": 64,
      "u": 65,
      "v": 66,
      "w": 67,
      "x": 68,
      "y": 69,
      "z": 70,
      "SE": 71,
      "SEP": 72,
      "k1": 73,
      "k6": 74,
      "k2": 75,
      "EN": 76,
      "k7": 77,
      "k9": 78,
      "gn": 79,
      "k0": 80,
      "EC": 81,
      "al": 82,
      "k8": 83,
      "si": 84,
      "k5": 85,
      "k3": 86,
      "k4": 87,
      "k11": 88,
      "END": 89,
      "k12": 90,
      "k13": 91,
      "k14": 92,
      "REC": 93,
      "k16": 94,
      "k17": 95,
      "k15": 96,
      "k18": 97,
      "k19": 98,
      "_si": 99,
      "k_si": 100,
      "gnal": 101,
      "k_signal": 102,
      "S1": 103,
      "S7": 104,
      "S3": 105,
      "S5": 106,
      "S8": 107,
      "S9": 108,
      "S0": 109,
      "S6": 110,
      "S4": 111,
      "S2": 112,
      "Pc": 113,
      "Hn": 114,
      "bZ": 115,
      "YC": 116,
      "mW": 117,
      "rU": 118,
      "XU": 119,
      "zK": 120,
      "SC": 121,
      "dG": 122,
      "hQ": 123,
      "gV": 124,
      "LW": 125,
      "Rc": 126,
      "7i": 127,
      "ae": 128,
      "mo": 129,
      "di": 130,
      "uf": 131,
      "w2": 132,
      "DB": 133,
      "I6": 134,
      "dC": 135,
      "ze": 136,
      "AA": 137,
      "vo": 138,
      "Np": 139,
      "sB": 140,
      "dK": 141,
      "dQ": 142,
      "t3": 143,
      "El": 144,
      "Hf": 145,
      "M1": 146,
      "uT": 147,
      "qc": 148,
      "Mj": 149,
      "qQ": 150,
      "ro": 151,
      "E2": 152,
      "Ny": 153,
      "YL": 154,
      "Di": 155,
      "OQ": 156,
      "bi": 157,
      "my": 158,
      "Yo": 159,
      "g9": 160,
      "hR": 161,
      "FF": 162,
      "IV": 163,
      "YV": 164,
      "u7": 165,
      "ue": 166,
      "aV": 167,
      "gJ": 168,
      "r4": 169,
      "vR": 170,
      "xJ": 171,
      "82": 172,
      "ML": 173,
      "m0": 174,
      "zl": 175,
      "Hc": 176,
      "IZ": 177,
      "bW": 178,
      "de": 179,
      "wP": 180,
      "53": 181,
      "N2": 182,
      "DQ": 183,
      "MU": 184,
      "aR": 185,
      "hC": 186,
      "tW": 187,
      "AT": 188,
      "D1": 189,
      "kZ": 190,
      "tK": 191,
      "xC": 192,
      "z1": 193,
      "mf": 194,
      "De": 195,
      "ay": 196,
      "be": 197,
      "h6": 198,
      "xj": 199,
      "A1": 200,
      "MB": 201,
      "OK": 202,
      "rK": 203,
      "xK": 204,
      "xV": 205,
      "g4": 206,
      "kU": 207,
      "to": 208,
      "uj": 209,
      "xT": 210,
      "hf": 211,
      "5R": 212,
      "Gi": 213,
      "Hi": 214,
      "w3": 215,
      "NU": 216,
      "ko": 217,
      "zn": 218,
      "A2": 219,
      "YQ": 220,
      "bT": 221,
      "q2": 222,
      "rW": 223,
      "zF": 224,
      "Xi": 225,
      "aP": 226,
      "ao": 227,
      "qU": 228,
      "G1": 229,
      "MK": 230,
      "mV": 231,
      "u3": 232,
      "zT": 233,
      "5B": 234,
      "d6": 235,
      "ki": 236,
      "qj": 237,
      "wB": 238,
      "wV": 239,
      "gQ": 240,
      "pV": 241,
      "sW": 242,
      "E3": 243,
      "H4": 244,
      "IU": 245,
      "ho": 246,
      "s7": 247,
      "xf": 248,
      "a6": 249,
      "bF": 250,
      "Iy": 251,
      "gU": 252,
      "hV": 253,
      "pB": 254,
      "qn": 255,
      "s4": 256,
      "vv": 257,
      "wi": 258,
      "94": 259,
      "D0": 260,
      "Ml": 261,
      "kL": 262,
      "mn": 263,
      "qZ": 264,
      "sf": 265,
      "tj": 266,
      "w4": 267,
      "N1": 268,
      "a3": 269,
      "aQ": 270,
      "m2": 271,
      "mB": 272,
      "z7": 273,
      "Ij": 274,
      "O4": 275,
      "XZ": 276,
      "bV": 277,
      "dT": 278,
      "mC": 279,
      "mc": 280,
      "uc": 281,
      "Se": 282,
      "pU": 283,
      "MF": 284,
      "dy": 285,
      "pK": 286,
      "qB": 287,
      "uV": 288,
      "wj": 289,
      "xW": 290,
      "G7": 291,
      "Nn": 292,
      "O3": 293,
      "OB": 294,
      "OC": 295,
      "Sn": 296,
      "YW": 297,
      "aK": 298,
      "ge": 299,
      "gj": 300,
      "xU": 301,
      "5f": 302,
      "OL": 303,
      "Ol": 304,
      "Sf": 305,
      "XK": 306,
      "a8": 307,
      "gi": 308,
      "h0": 309,
      "h1": 310,
      "sU": 311,
      "SF": 312,
      "af": 313,
      "dl": 314,
      "g2": 315,
      "gy": 316,
      "rc": 317,
      "re": 318,
      "EZ": 319,
      "Ge": 320,
      "Ye": 321,
      "bc": 322,
      "kC": 323,
      "uU": 324,
      "D7": 325,
      "GP": 326,
      "XC": 327,
      "XW": 328,
      "YU": 329,
      "wW": 330,
      "we": 331,
      "G6": 332,
      "OF": 333,
      "YZ": 334,
      "ty": 335,
      "EJ": 336,
      "N7": 337,
      "bQ": 338,
      "kV": 339,
      "kn": 340,
      "mZ": 341,
      "so": 342,
      "wZ": 343,
      "G3": 344,
      "H1": 345,
      "M0": 346,
      "Mo": 347,
      "a0": 348,
      "uC": 349,
      "uo": 350,
      "xo": 351,
      "zj": 352,
      "D3": 353,
      "DC": 354,
      "HZ": 355,
      "Hj": 356,
      "Sl": 357,
      "bK": 358,
      "g6": 359,
      "gR": 360,
      "qV": 361,
      "u0": 362,
      "vf": 363,
      "x0": 364,
      "zU": 365,
      "zW": 366,
      "My": 367,
      "NQ": 368,
      "NW": 369,
      "aT": 370,
      "h7": 371,
      "m1": 372,
      "pi": 373,
      "qR": 374,
      "wl": 375,
      "GJ": 376,
      "IQ": 377,
      "Il": 378,
      "OW": 379,
      "Y4": 380,
      "b1": 381,
      "g3": 382,
      "gB": 383,
      "h2": 384,
      "ml": 385,
      "py": 386,
      "r6": 387,
      "zf": 388,
      "Ey": 389,
      "g1": 390,
      "gT": 391,
      "hK": 392,
      "kj": 393,
      "sK": 394,
      "tf": 395,
      "I4": 396,
      "MC": 397,
      "MT": 398,
      "So": 399,
      "Xc": 400,
      "b7": 401,
      "s2": 402,
      "uy": 403,
      "zV": 404,
      "5U": 405,
      "Xy": 406,
      "gK": 407,
      "hL": 408,
      "kl": 409,
      "rl": 410,
      "uB": 411,
      "vF": 412,
      "A4": 413,
      "AU": 414,
      "HC": 415,
      "Ie": 416,
      "O1": 417,
      "Oo": 418,
      "q0": 419,
      "ry": 420,
      "DK": 421,
      "DR": 422,
      "H0": 423,
      "Ic": 424,
      "M9": 425,
      "NT": 426,
      "Oi": 427,
      "Xj": 428,
      "Y8": 429,
      "dJ": 430,
      "hB": 431,
      "qo": 432,
      "sF": 433,
      "tB": 434,
      "wC": 435,
      "xQ": 436,
      "5Z": 437,
      "Ao": 438,
      "D4": 439,
      "HT": 440,
      "N6": 441,
      "NL": 442,
      "Yl": 443,
      "gC": 444,
      "rj": 445,
      "sR": 446,
      "tL": 447,
      "xR": 448,
      "DL": 449,
      "DU": 450,
      "Dn": 451,
      "EK": 452,
      "He": 453,
      "MR": 454,
      "NK": 455,
      "an": 456,
      "mT": 457,
      "r3": 458,
      "te": 459,
      "57": 460,
      "DT": 461,
      "Dl": 462,
      "Io": 463,
      "Nf": 464,
      "Nl": 465,
      "X3": 466,
      "XT": 467,
      "Yy": 468,
      "gf": 469,
      "kc": 470,
      "m9": 471,
      "q3": 472,
      "tc": 473,
      "vB": 474,
      "vZ": 475,
      "An": 476,
      "DJ": 477,
      "HJ": 478,
      "O6": 479,
      "Yj": 480,
      "b2": 481,
      "b4": 482,
      "d3": 483,
      "h9": 484,
      "vi": 485,
      "DF": 486,
      "DV": 487,
      "O0": 488,
      "SJ": 489,
      "bU": 490,
      "bo": 491,
      "go": 492,
      "tF": 493,
      "u1": 494,
      "zB": 495,
      "HL": 496,
      "Mc": 497,
      "NB": 498,
      "Y1": 499,
      "g8": 500,
      "qC": 501,
      "qe": 502,
      "w9": 503,
      "z0": 504,
      "E4": 505,
      "HQ": 506,
      "Sj": 507,
      "Xn": 508,
      "aF": 509,
      "qf": 510,
      "rQ": 511,
      "AC": 512,
      "IB": 513,
      "Oe": 514,
      "d2": 515,
      "p9": 516,
      "q4": 517,
      "s9": 518,
      "x2": 519,
      "z6": 520,
      "YK": 521,
      "a2": 522,
      "rB": 523,
      "ri": 524,
      "s0": 525,
      "sP": 526,
      "uF": 527,
      "xc": 528,
      "Ac": 529,
      "Oc": 530,
      "hn": 531,
      "qy": 532,
      "rn": 533,
      "tQ": 534,
      "w6": 535,
      "xB": 536,
      "E6": 537,
      "I3": 538,
      "SK": 539,
      "YP": 540,
      "aC": 541,
      "ai": 542,
      "bP": 543,
      "h3": 544,
      "mK": 545,
      "qi": 546,
      "se": 547,
      "5j": 548,
      "OV": 549,
      "XV": 550,
      "bC": 551,
      "gc": 552,
      "tC": 553,
      "Ai": 554,
      "Ee": 555,
      "If": 556,
      "Oj": 557,
      "gZ": 558,
      "hi": 559,
      "m8": 560,
      "p4": 561,
      "vl": 562,
      "wJ": 563,
      "5i": 564,
      "E1": 565,
      "N0": 566,
      "kT": 567,
      "xl": 568,
      "xn": 569,
      "z2": 570,
      "A9": 571,
      "E8": 572,
      "Me": 573,
      "Y9": 574,
      "tV": 575,
      "tn": 576,
      "u4": 577,
      "zR": 578,
      "DZ": 579,
      "Dc": 580,
      "EQ": 581,
      "Eo": 582,
      "Gn": 583,
      "In": 584,
      "SW": 585,
      "bf": 586,
      "d0": 587,
      "dV": 588,
      "he": 589,
      "m6": 590,
      "pR": 591,
      "rR": 592,
      "sQ": 593,
      "t4": 594,
      "ul": 595,
      "vL": 596,
      "wR": 597,
      "DP": 598,
      "On": 599,
      "Yc": 600,
      "hJ": 601,
      "hP": 602,
      "hc": 603,
      "kQ": 604,
      "r7": 605,
      "rC": 606,
      "t9": 607,
      "uQ": 608,
      "IF": 609,
      "X1": 610,
      "X6": 611,
      "YJ": 612,
      "aU": 613,
      "mj": 614,
      "ql": 615,
      "rf": 616,
      "sT": 617,
      "tZ": 618,
      "wL": 619,
      "zo": 620,
      "50": 621,
      "Ae": 622,
      "D6": 623,
      "H9": 624,
      "IK": 625,
      "bn": 626,
      "ke": 627,
      "sc": 628,
      "ti": 629,
      "vP": 630,
      "x3": 631,
      "AZ": 632,
      "Ef": 633,
      "dc": 634,
      "rJ": 635,
      "vQ": 636,
      "wo": 637,
      "xe": 638,
      "zL": 639,
      "Ii": 640,
      "NJ": 641,
      "Xe": 642,
      "Y2": 643,
      "gW": 644,
      "hU": 645,
      "mJ": 646,
      "t2": 647,
      "w0": 648,
      "AF": 649,
      "ER": 650,
      "ET": 651,
      "GK": 652,
      "HR": 653,
      "Mn": 654,
      "ST": 655,
      "X0": 656,
      "Y0": 657,
      "YB": 658,
      "bR": 659,
      "hW": 660,
      "w8": 661,
      "x8": 662,
      "xi": 663,
      "AJ": 664,
      "Do": 665,
      "O7": 666,
      "Y7": 667,
      "b3": 668,
      "m7": 669,
      "p0": 670,
      "q7": 671,
      "qJ": 672,
      "Ho": 673,
      "Xl": 674,
      "pT": 675,
      "u9": 676,
      "vy": 677,
      "z3": 678,
      "Ay": 679,
      "D8": 680,
      "Dy": 681,
      "Sy": 682,
      "Y3": 683,
      "kF": 684,
      "mi": 685,
      "p3": 686,
      "sC": 687,
      "t1": 688,
      "5W": 689,
      "M4": 690,
      "OJ": 691,
      "Yf": 692,
      "ac": 693,
      "bJ": 694,
      "p1": 695,
      "s3": 696,
      "vc": 697,
      "AL": 698,
      "AR": 699,
      "D2": 700,
      "Go": 701,
      "H8": 702,
      "N3": 703,
      "X9": 704,
      "h8": 705,
      "un": 706,
      "Ec": 707,
      "MZ": 708,
      "OT": 709,
      "kP": 710,
      "rT": 711,
      "uW": 712,
      "A0": 713,
      "GQ": 714,
      "GW": 715,
      "Xo": 716,
      "mP": 717,
      "qF": 718,
      "rF": 719,
      "u6": 720,
      "w1": 721,
      "5Q": 722,
      "5c": 723,
      "XJ": 724,
      "aj": 725,
      "d4": 726,
      "dP": 727,
      "m4": 728,
      "mQ": 729,
      "me": 730,
      "sZ": 731,
      "AQ": 732,
      "Gc": 733,
      "HW": 734,
      "IL": 735,
      "Yn": 736,
      "dW": 737,
      "dj": 738,
      "gl": 739,
      "E0": 740,
      "EV": 741,
      "NV": 742,
      "aW": 743,
      "b0": 744,
      "qK": 745,
      "vK": 746,
      "z9": 747,
      "5T": 748,
      "5o": 749,
      "HK": 750,
      "Hy": 751,
      "NR": 752,
      "No": 753,
      "X2": 754,
      "Yi": 755,
      "bj": 756,
      "dZ": 757,
      "gP": 758,
      "q6": 759,
      "s8": 760,
      "t6": 761,
      "tT": 762,
      "v1": 763,
      "wn": 764,
      "G9": 765,
      "MW": 766,
      "Nj": 767,
      "SU": 768,
      "hj": 769,
      "qL": 770,
      "r9": 771,
      "5C": 772,
      "EF": 773,
      "H2": 774,
      "SB": 775,
      "a9": 776,
      "bB": 777,
      "kB": 778,
      "kf": 779,
      "pe": 780,
      "pn": 781,
      "po": 782,
      "t8": 783,
      "ui": 784,
      "wK": 785,
      "zJ": 786,
      "G4": 787,
      "HU": 788,
      "Hl": 789,
      "YR": 790,
      "hF": 791,
      "p6": 792,
      "uP": 793,
      "GT": 794,
      "Gj": 795,
      "H3": 796,
      "I7": 797,
      "SV": 798,
      "r2": 799,
      "tJ": 800,
      "wQ": 801,
      "A8": 802,
      "G8": 803,
      "HB": 804,
      "M3": 805,
      "SP": 806,
      "XL": 807,
      "XQ": 808,
      "dF": 809,
      "do": 810,
      "5K": 811,
      "Gy": 812,
      "H6": 813,
      "d1": 814,
      "dB": 815,
      "pJ": 816,
      "r1": 817,
      "tl": 818,
      "MV": 819,
      "N9": 820,
      "pW": 821,
      "tR": 822,
      "uJ": 823,
      "vC": 824,
      "vU": 825,
      "wU": 826,
      "D9": 827,
      "G2": 828,
      "I9": 829,
      "g0": 830,
      "hy": 831,
      "mU": 832,
      "uZ": 833,
      "vW": 834,
      "A3": 835,
      "Ni": 836,
      "O2": 837,
      "SZ": 838,
      "df": 839,
      "pL": 840,
      "xF": 841,
      "zZ": 842,
      "52": 843,
      "5V": 844,
      "GF": 845,
      "IT": 846,
      "MJ": 847,
      "N8": 848,
      "hT": 849,
      "ky": 850,
      "uL": 851,
      "xy": 852,
      "z4": 853,
      "zC": 854,
      "dR": 855,
      "g7": 856,
      "hl": 857,
      "q9": 858,
      "qT": 859,
      "v3": 860,
      "M7": 861,
      "YT": 862,
      "b6": 863,
      "d7": 864,
      "p8": 865,
      "rL": 866,
      "tU": 867,
      "uR": 868,
      "v4": 869,
      "v9": 870,
      "IW": 871,
      "Mf": 872,
      "dL": 873,
      "mF": 874,
      "59": 875,
      "Aj": 876,
      "G0": 877,
      "IP": 878,
      "X8": 879,
      "a4": 880,
      "kK": 881,
      "mL": 882,
      "w7": 883,
      "wT": 884,
      "a7": 885,
      "z8": 886,
      "5L": 887,
      "AV": 888,
      "EW": 889,
      "GC": 890,
      "NZ": 891,
      "Of": 892,
      "v7": 893,
      "vJ": 894,
      "EU": 895,
      "I2": 896,
      "Xf": 897,
      "kJ": 898,
      "s6": 899,
      "5e": 900,
      "A6": 901,
      "E7": 902,
      "H7": 903,
      "p2": 904,
      "rP": 905,
      "vj": 906,
      "IR": 907,
      "O9": 908,
      "aJ": 909,
      "kW": 910,
      "t7": 911,
      "u8": 912,
      "wF": 913,
      "zP": 914,
      "EL": 915,
      "M6": 916,
      "Mi": 917,
      "OZ": 918,
      "h4": 919,
      "pP": 920,
      "pj": 921,
      "Y6": 922,
      "OP": 923,
      "XB": 924,
      "aZ": 925,
      "bl": 926,
      "wy": 927,
      "Ej": 928,
      "by": 929,
      "m3": 930,
      "pQ": 931,
      "u2": 932,
      "Al": 933,
      "HP": 934,
      "O8": 935,
      "sV": 936,
      "v8": 937,
      "wf": 938,
      "xZ": 939,
      "54": 940,
      "Af": 941,
      "DW": 942,
      "SL": 943,
      "aB": 944,
      "b9": 945,
      "d8": 946,
      "pl": 947,
      "r0": 948,
      "vT": 949,
      "x1": 950,
      "x7": 951,
      "En": 952,
      "IC": 953,
      "Ne": 954,
      "OU": 955,
      "b8": 956,
      "pc": 957,
      "pf": 958,
      "r8": 959,
      "uK": 960,
      "vV": 961,
      "x4": 962,
      "xP": 963,
      "NP": 964,
      "SQ": 965,
      "hZ": 966,
      "x6": 967,
      "AP": 968,
      "Ei": 969,
      "I1": 970,
      "d9": 971,
      "p7": 972,
      "qP": 973,
      "rV": 974,
      "zi": 975,
      "AK": 976,
      "IJ": 977,
      "NF": 978,
      "sn": 979,
      "zc": 980,
      "A7": 981,
      "HF": 982,
      "q8": 983,
      "qW": 984,
      "t0": 985,
      "51": 986,
      "AB": 987,
      "EP": 988,
      "Sc": 989,
      "GV": 990,
      "YF": 991,
      "xL": 992,
      "gF": 993,
      "q1": 994,
      "v6": 995,
      "N4": 996,
      "kR": 997,
      "Df": 998,
      "bL": 999,
      "dn": 1000,
      "ve": 1001,
      "56": 1002,
      "wc": 1003,
      "I8": 1004,
      "MP": 1005,
      "vn": 1006,
      "58": 1007,
      "SR": 1008,
      "sy": 1009,
      "AW": 1010,
      "GL": 1011,
      "dU": 1012,
      "pF": 1013,
      "zQ": 1014,
      "a1": 1015,
      "Gl": 1016,
      "sj": 1017,
      "5l": 1018,
      "5n": 1019,
      "MQ": 1020,
      "X7": 1021,
      "NC": 1022,
      "sL": 1023,
      "v2": 1024,
      "E9": 1025,
      "Gf": 1026,
      "HV": 1027,
      "tP": 1028,
      "Oy": 1029,
      "sJ": 1030,
      "v0": 1031,
      "Nc": 1032,
      "X4": 1033,
      "XP": 1034,
      "Dj": 1035,
      "GU": 1036,
      "OR": 1037,
      "5y": 1038,
      "XR": 1039,
      "I0": 1040,
      "XF": 1041,
      "mR": 1042,
      "sl": 1043,
      "5P": 1044,
      "M2": 1045,
      "GZ": 1046,
      "pZ": 1047,
      "M8": 1048,
      "aL": 1049,
      "zy": 1050,
      "rZ": 1051,
      "s1": 1052,
      "x9": 1053,
      "5F": 1054,
      "Si": 1055,
      "gL": 1056,
      "pC": 1057,
      "GR": 1058,
      "GB": 1059,
      "EB": 1060,
      "5J": 1061,
      "3l": 1062,
      "QT": 1063,
      "66": 1064,
      "Bf": 1065,
      "eC": 1066,
      "1l": 1067,
      "yf": 1068,
      "ec": 1069,
      "J9": 1070,
      "77": 1071,
      "PT": 1072,
      "U9": 1073,
      "Lf": 1074,
      "ZC": 1075,
      "6l": 1076,
      "nl": 1077,
      "yj": 1078,
      "yo": 1079,
      "12": 1080,
      "UR": 1081,
      "Vc": 1082,
      "am": 1083,
      "B0": 1084,
      "yl": 1085,
      "3K": 1086,
      "6W": 1087,
      "Ul": 1088,
      "Ji": 1089,
      "3T": 1090,
      "Uo": 1091,
      "yc": 1092,
      "B2": 1093,
      "Bj": 1094,
      "Zo": 1095,
      "C9": 1096,
      "LF": 1097,
      "BT": 1098,
      "RT": 1099,
      "U2": 1100,
      "eT": 1101,
      "BW": 1102,
      "LV": 1103,
      "0f": 1104,
      "Qc": 1105,
      "ks": 1106,
      "1c": 1107,
      "J4": 1108,
      "Ki": 1109,
      "ef": 1110,
      "nj": 1111,
      "64": 1112,
      "J8": 1113,
      "QW": 1114,
      "JF": 1115,
      "Ll": 1116,
      "Po": 1117,
      "Ql": 1118,
      "3Z": 1119,
      "P2": 1120,
      "kY": 1121,
      "B4": 1122,
      "Pl": 1123,
      "Qj": 1124,
      "el": 1125,
      "no": 1126,
      "xa": 1127,
      "1C": 1128,
      "Ui": 1129,
      "nc": 1130,
      "BC": 1131,
      "BV": 1132,
      "L9": 1133,
      "Ng": 1134,
      "Qi": 1135,
      "7K": 1136,
      "OO": 1137,
      "Ri": 1138,
      "UF": 1139,
      "z5": 1140,
      "0o": 1141,
      "32": 1142,
      "yT": 1143,
      "1W": 1144,
      "3F": 1145,
      "HI": 1146,
      "hh": 1147,
      "ku": 1148,
      "mm": 1149,
      "nW": 1150,
      "tM": 1151,
      "3i": 1152,
      "RK": 1153,
      "zs": 1154,
      "6f": 1155,
      "Bc": 1156,
      "yC": 1157,
      "3o": 1158,
      "Bl": 1159,
      "e4": 1160,
      "qY": 1161,
      "yF": 1162,
      "Hu": 1163,
      "P4": 1164,
      "PW": 1165,
      "nK": 1166,
      "1f": 1167,
      "Li": 1168,
      "xs": 1169,
      "0T": 1170,
      "0i": 1171,
      "9i": 1172,
      "Jf": 1173,
      "Q2": 1174,
      "QZ": 1175,
      "rs": 1176,
      "0W": 1177,
      "7F": 1178,
      "7c": 1179,
      "84": 1180,
      "PF": 1181,
      "BK": 1182,
      "BZ": 1183,
      "kD": 1184,
      "n4": 1185,
      "ws": 1186,
      "xg": 1187,
      "y4": 1188,
      "14": 1189,
      "1K": 1190,
      "3f": 1191,
      "PV": 1192,
      "Pf": 1193,
      "QC": 1194,
      "Rl": 1195,
      "UT": 1196,
      "ej": 1197,
      "8j": 1198,
      "Bo": 1199,
      "LZ": 1200,
      "e2": 1201,
      "nZ": 1202,
      "6i": 1203,
      "8W": 1204,
      "Pi": 1205,
      "pM": 1206,
      "qu": 1207,
      "zG": 1208,
      "1i": 1209,
      "62": 1210,
      "Lc": 1211,
      "QV": 1212,
      "UZ": 1213,
      "nf": 1214,
      "tu": 1215,
      "xO": 1216,
      "H5": 1217,
      "JW": 1218,
      "yZ": 1219,
      "0l": 1220,
      "1o": 1221,
      "8f": 1222,
      "JT": 1223,
      "LK": 1224,
      "Qf": 1225,
      "db": 1226,
      "7T": 1227,
      "7j": 1228,
      "8C": 1229,
      "Ns": 1230,
      "Xb": 1231,
      "qh": 1232,
      "wM": 1233,
      "yW": 1234,
      "3j": 1235,
      "Rf": 1236,
      "n2": 1237,
      "nT": 1238,
      "tE": 1239,
      "xM": 1240,
      "7o": 1241,
      "Uc": 1242,
      "eW": 1243,
      "zY": 1244,
      "6T": 1245,
      "7W": 1246,
      "8l": 1247,
      "Bi": 1248,
      "Ro": 1249,
      "Xm": 1250,
      "dY": 1251,
      "eK": 1252,
      "nC": 1253,
      "qm": 1254,
      "qs": 1255,
      "vu": 1256,
      "wG": 1257,
      "0j": 1258,
      "UV": 1259,
      "UW": 1260,
      "ni": 1261,
      "6c": 1262,
      "8i": 1263,
      "Ds": 1264,
      "Q4": 1265,
      "0C": 1266,
      "1Z": 1267,
      "74": 1268,
      "8Z": 1269,
      "e9": 1270,
      "nF": 1271,
      "3W": 1272,
      "6j": 1273,
      "Hg": 1274,
      "Jj": 1275,
      "L2": 1276,
      "Uf": 1277,
      "kM": 1278,
      "zE": 1279,
      "7f": 1280,
      "89": 1281,
      "pb": 1282,
      "wb": 1283,
      "xb": 1284,
      "04": 1285,
      "Hs": 1286,
      "Ih": 1287,
      "L4": 1288,
      "Lj": 1289,
      "Lo": 1290,
      "UC": 1291,
      "0Z": 1292,
      "7V": 1293,
      "8c": 1294,
      "JV": 1295,
      "Ou": 1296,
      "t5": 1297,
      "vm": 1298,
      "wh": 1299,
      "1j": 1300,
      "39": 1301,
      "PK": 1302,
      "U4": 1303,
      "rG": 1304,
      "zg": 1305,
      "0c": 1306,
      "PC": 1307,
      "QF": 1308,
      "ts": 1309,
      "As": 1310,
      "Ha": 1311,
      "JC": 1312,
      "JK": 1313,
      "PZ": 1314,
      "Pj": 1315,
      "Qo": 1316,
      "d5": 1317,
      "xu": 1318,
      "Jc": 1319,
      "Jo": 1320,
      "LT": 1321,
      "ds": 1322,
      "rE": 1323,
      "DG": 1324,
      "RF": 1325,
      "X5": 1326,
      "rg": 1327,
      "y9": 1328,
      "8T": 1329,
      "R2": 1330,
      "rm": 1331,
      "Hm": 1332,
      "NM": 1333,
      "Xs": 1334,
      "ei": 1335,
      "rb": 1336,
      "Dh": 1337,
      "Ib": 1338,
      "Sa": 1339,
      "Sb": 1340,
      "eZ": 1341,
      "kb": 1342,
      "02": 1343,
      "7l": 1344,
      "HO": 1345,
      "eV": 1346,
      "vY": 1347,
      "wg": 1348,
      "34": 1349,
      "6C": 1350,
      "79": 1351,
      "A5": 1352,
      "IY": 1353,
      "Nb": 1354,
      "QK": 1355,
      "SG": 1356,
      "BF": 1357,
      "Hp": 1358,
      "qb": 1359,
      "wO": 1360,
      "09": 1361,
      "1T": 1362,
      "3c": 1363,
      "JZ": 1364,
      "Sh": 1365,
      "nV": 1366,
      "zb": 1367,
      "72": 1368,
      "B9": 1369,
      "Q9": 1370,
      "RZ": 1371,
      "SM": 1372,
      "dE": 1373,
      "xG": 1374,
      "7C": 1375,
      "HG": 1376,
      "rY": 1377,
      "qM": 1378,
      "rO": 1379,
      "yi": 1380,
      "1F": 1381,
      "ps": 1382,
      "va": 1383,
      "19": 1384,
      "6o": 1385,
      "RV": 1386,
      "kO": 1387,
      "vs": 1388,
      "w5": 1389,
      "Iu": 1390,
      "Sm": 1391,
      "Xa": 1392,
      "eo": 1393,
      "th": 1394,
      "HM": 1395,
      "NO": 1396,
      "0V": 1397,
      "3C": 1398,
      "DA": 1399,
      "Im": 1400,
      "Jl": 1401,
      "P9": 1402,
      "vb": 1403,
      "6F": 1404,
      "Ig": 1405,
      "N5": 1406,
      "R4": 1407,
      "UK": 1408,
      "XY": 1409,
      "69": 1410,
      "7Z": 1411,
      "DM": 1412,
      "Da": 1413,
      "RW": 1414,
      "ka": 1415,
      "p5": 1416,
      "y2": 1417,
      "3V": 1418,
      "8V": 1419,
      "Hh": 1420,
      "I5": 1421,
      "dM": 1422,
      "kg": 1423,
      "zM": 1424,
      "Rj": 1425,
      "Uj": 1426,
      "tb": 1427,
      "yK": 1428,
      "1V": 1429,
      "DE": 1430,
      "Xh": 1431,
      "kh": 1432,
      "km": 1433,
      "6Z": 1434,
      "IG": 1435,
      "vh": 1436,
      "8o": 1437,
      "Du": 1438,
      "qA": 1439,
      "6K": 1440,
      "Nh": 1441,
      "pG": 1442,
      "Is": 1443,
      "LC": 1444,
      "pY": 1445,
      "J2": 1446,
      "eF": 1447,
      "n9": 1448,
      "qa": 1449,
      "vg": 1450,
      "wu": 1451,
      "SY": 1452,
      "q5": 1453,
      "qg": 1454,
      "ta": 1455,
      "Hb": 1456,
      "Su": 1457,
      "XM": 1458,
      "dm": 1459,
      "qG": 1460,
      "vE": 1461,
      "6V": 1462,
      "Sg": 1463,
      "XE": 1464,
      "XO": 1465,
      "zu": 1466,
      "8K": 1467,
      "D5": 1468,
      "DO": 1469,
      "Dm": 1470,
      "Ss": 1471,
      "dO": 1472,
      "pE": 1473,
      "qE": 1474,
      "tG": 1475,
      "Xu": 1476,
      "wE": 1477,
      "0F": 1478,
      "IE": 1479,
      "NY": 1480,
      "Na": 1481,
      "XG": 1482,
      "SA": 1483,
      "dg": 1484,
      "kG": 1485,
      "8F": 1486,
      "rh": 1487,
      "vO": 1488,
      "IM": 1489,
      "r5": 1490,
      "rA": 1491,
      "tY": 1492,
      "vG": 1493,
      "yV": 1494,
      "qO": 1495,
      "rM": 1496,
      "wm": 1497,
      "xE": 1498,
      "xm": 1499,
      "vM": 1500,
      "zh": 1501,
      "zm": 1502,
      "du": 1503,
      "kE": 1504,
      "0K": 1505,
      "Db": 1506,
      "R9": 1507,
      "HY": 1508,
      "ru": 1509,
      "DY": 1510,
      "RC": 1511,
      "ra": 1512,
      "tp": 1513,
      "tg": 1514,
      "v5": 1515,
      "Xg": 1516,
      "wY": 1517,
      "za": 1518,
      "Nm": 1519,
      "XA": 1520,
      "dA": 1521,
      "da": 1522,
      "vA": 1523,
      "xY": 1524,
      "tm": 1525,
      "x5": 1526,
      "Nu": 1527,
      "HA": 1528,
      "zA": 1529,
      "IO": 1530,
      "tA": 1531,
      "wA": 1532,
      "pm": 1533,
      "wa": 1534,
      "NA": 1535,
      "kA": 1536,
      "pa": 1537,
      "xh": 1538,
      "IA": 1539,
      "dh": 1540,
      "Dg": 1541,
      "Ia": 1542,
      "pu": 1543,
      "pg": 1544,
      "zO": 1545,
      "tO": 1546,
      "SO": 1547,
      "pO": 1548,
      "0e": 1549,
      "HE": 1550,
      "fl": 1551,
      "7L": 1552,
      "NE": 1553,
      "NG": 1554,
      "JQ": 1555,
      "UQ": 1556,
      "n1": 1557,
      "7y": 1558,
      "CT": 1559,
      "pA": 1560,
      "LP": 1561,
      "Kl": 1562,
      "xA": 1563,
      "01": 1564,
      "J1": 1565,
      "Be": 1566,
      "ph": 1567,
      "6P": 1568,
      "VW": 1569,
      "jT": 1570,
      "rk": 1571,
      "nR": 1572,
      "4c": 1573,
      "fT": 1574,
      "qS": 1575,
      "03": 1576,
      "Wl": 1577,
      "yy": 1578,
      "Hx": 1579,
      "22": 1580,
      "JR": 1581,
      "nL": 1582,
      "XN": 1583,
      "fF": 1584,
      "qr": 1585,
      "vk": 1586,
      "6Q": 1587,
      "Je": 1588,
      "fo": 1589,
      "zw": 1590,
      "B3": 1591,
      "dw": 1592,
      "jl": 1593,
      "KF": 1594,
      "KT": 1595,
      "Ko": 1596,
      "f2": 1597,
      "0R": 1598,
      "B8": 1599,
      "JP": 1600,
      "V9": 1601,
      "vD": 1602,
      "Cc": 1603,
      "Zc": 1604,
      "jF": 1605,
      "vp": 1606,
      "42": 1607,
      "tw": 1608,
      "zp": 1609,
      "6e": 1610,
      "J3": 1611,
      "Xw": 1612,
      "nP": 1613,
      "4T": 1614,
      "b5": 1615,
      "Nk": 1616,
      "fi": 1617,
      "0y": 1618,
      "KW": 1619,
      "Kc": 1620,
      "QR": 1621,
      "Ys": 1622,
      "fc": 1623,
      "j2": 1624,
      "jo": 1625,
      "rw": 1626,
      "08": 1627,
      "13": 1628,
      "II": 1629,
      "K9": 1630,
      "Yh": 1631,
      "lT": 1632,
      "rS": 1633,
      "0L": 1634,
      "By": 1635,
      "KV": 1636,
      "ZF": 1637,
      "Gu": 1638,
      "XS": 1639,
      "nU": 1640,
      "rD": 1641,
      "vw": 1642,
      "68": 1643,
      "Zi": 1644,
      "CV": 1645,
      "JL": 1646,
      "Xd": 1647,
      "YM": 1648,
      "qd": 1649,
      "ZW": 1650,
      "zx": 1651,
      "07": 1652,
      "HD": 1653,
      "Og": 1654,
      "ny": 1655,
      "BR": 1656,
      "EM": 1657,
      "vI": 1658,
      "7e": 1659,
      "PP": 1660,
      "ZV": 1661,
      "f9": 1662,
      "zI": 1663,
      "Uy": 1664,
      "ZT": 1665,
      "aM": 1666,
      "rq": 1667,
      "Eu": 1668,
      "K2": 1669,
      "Xx": 1670,
      "jc": 1671,
      "C4": 1672,
      "CW": 1673,
      "Qe": 1674,
      "n8": 1675,
      "GM": 1676,
      "Nt": 1677,
      "1R": 1678,
      "ji": 1679,
      "rx": 1680,
      "QL": 1681,
      "Eh": 1682,
      "U3": 1683,
      "mb": 1684,
      "rp": 1685,
      "63": 1686,
      "XI": 1687,
      "0P": 1688,
      "E5": 1689,
      "GG": 1690,
      "HS": 1691,
      "Hd": 1692,
      "Yu": 1693,
      "jW": 1694,
      "oi": 1695,
      "qp": 1696,
      "6R": 1697,
      "BL": 1698,
      "O5": 1699,
      "a5": 1700,
      "gs": 1701,
      "ND": 1702,
      "F2": 1703,
      "o2": 1704,
      "zd": 1705,
      "UU": 1706,
      "tI": 1707,
      "4l": 1708,
      "oc": 1709,
      "vx": 1710,
      "Q3": 1711,
      "Y5": 1712,
      "fW": 1713,
      "gA": 1714,
      "0n": 1715,
      "Cl": 1716,
      "Gb": 1717,
      "92": 1718,
      "Zl": 1719,
      "oW": 1720,
      "rd": 1721,
      "CF": 1722,
      "Hk": 1723,
      "TT": 1724,
      "V2": 1725,
      "qI": 1726,
      "td": 1727,
      "zN": 1728,
      "9c": 1729,
      "OM": 1730,
      "Z2": 1731,
      "tx": 1732,
      "4i": 1733,
      "6L": 1734,
      "SD": 1735,
      "Vi": 1736,
      "gu": 1737,
      "11": 1738,
      "J7": 1739,
      "n3": 1740,
      "s5": 1741,
      "4F": 1742,
      "Ci": 1743,
      "Ob": 1744,
      "UL": 1745,
      "y8": 1746,
      "HN": 1747,
      "ol": 1748,
      "vS": 1749,
      "61": 1750,
      "ye": 1751,
      "Vl": 1752,
      "XD": 1753,
      "hM": 1754,
      "qD": 1755,
      "zD": 1756,
      "BU": 1757,
      "Ya": 1758,
      "kw": 1759,
      "BP": 1760,
      "Jn": 1761,
      "9F": 1762,
      "mu": 1763,
      "px": 1764,
      "Eb": 1765,
      "vN": 1766,
      "y3": 1767,
      "8R": 1768,
      "EG": 1769,
      "kI": 1770,
      "C2": 1771,
      "Xz": 1772,
      "gM": 1773,
      "Aa": 1774,
      "Sd": 1775,
      "sM": 1776,
      "AM": 1777,
      "QP": 1778,
      "gg": 1779,
      "qw": 1780,
      "L3": 1781,
      "TW": 1782,
      "kx": 1783,
      "zt": 1784,
      "83": 1785,
      "eR": 1786,
      "4W": 1787,
      "Fi": 1788,
      "Hw": 1789,
      "Sx": 1790,
      "yP": 1791,
      "J6": 1792,
      "jV": 1793,
      "n7": 1794,
      "qx": 1795,
      "rN": 1796,
      "9l": 1797,
      "JU": 1798,
      "Q1": 1799,
      "yR": 1800,
      "0U": 1801,
      "KK": 1802,
      "SI": 1803,
      "Ym": 1804,
      "g5": 1805,
      "Ah": 1806,
      "Xp": 1807,
      "B7": 1808,
      "oo": 1809,
      "tD": 1810,
      "Q8": 1811,
      "TF": 1812,
      "ab": 1813,
      "Tl": 1814,
      "jZ": 1815,
      "kp": 1816,
      "Q7": 1817,
      "vd": 1818,
      "fV": 1819,
      "uM": 1820,
      "LR": 1821,
      "sG": 1822,
      "L1": 1823,
      "L7": 1824,
      "OG": 1825,
      "XX": 1826,
      "ah": 1827,
      "e3": 1828,
      "6U": 1829,
      "kN": 1830,
      "5u": 1831,
      "9V": 1832,
      "AG": 1833,
      "Hq": 1834,
      "aG": 1835,
      "oF": 1836,
      "B1": 1837,
      "gh": 1838,
      "oV": 1839,
      "wx": 1840,
      "CC": 1841,
      "mM": 1842,
      "5M": 1843,
      "kd": 1844,
      "Bn": 1845,
      "Sp": 1846,
      "YG": 1847,
      "Ab": 1848,
      "jK": 1849,
      "tN": 1850,
      "Qn": 1851,
      "Z4": 1852,
      "qq": 1853,
      "8n": 1854,
      "Hr": 1855,
      "RR": 1856,
      "aY": 1857,
      "il": 1858,
      "2c": 1859,
      "67": 1860,
      "ID": 1861,
      "au": 1862,
      "e1": 1863,
      "QQ": 1864,
      "Tc": 1865,
      "gE": 1866,
      "sb": 1867,
      "sm": 1868,
      "ff": 1869,
      "Nx": 1870,
      "OE": 1871,
      "pp": 1872,
      "5b": 1873,
      "Sw": 1874,
      "Xq": 1875,
      "gb": 1876,
      "iW": 1877,
      "y7": 1878,
      "9W": 1879,
      "Dd": 1880,
      "Yb": 1881,
      "tt": 1882,
      "vz": 1883,
      "Au": 1884,
      "K4": 1885,
      "KC": 1886,
      "gG": 1887,
      "rz": 1888,
      "BB": 1889,
      "Ix": 1890,
      "pd": 1891,
      "sh": 1892,
      "81": 1893,
      "RP": 1894,
      "UP": 1895,
      "cc": 1896,
      "vq": 1897,
      "vt": 1898,
      "Nd": 1899,
      "vr": 1900,
      "Am": 1901,
      "uG": 1902,
      "Hz": 1903,
      "Om": 1904,
      "aE": 1905,
      "wD": 1906,
      "33": 1907,
      "Id": 1908,
      "Le": 1909,
      "VF": 1910,
      "YE": 1911,
      "ss": 1912,
      "HX": 1913,
      "U1": 1914,
      "j9": 1915,
      "e7": 1916,
      "ii": 1917,
      "5h": 1918,
      "Ht": 1919,
      "JJ": 1920,
      "o9": 1921,
      "6y": 1922,
      "Kf": 1923,
      "R1": 1924,
      "VT": 1925,
      "Xt": 1926,
      "of": 1927,
      "ww": 1928,
      "88": 1929,
      "Oh": 1930,
      "gm": 1931,
      "71": 1932,
      "j4": 1933,
      "i2": 1934,
      "Ip": 1935,
      "L8": 1936,
      "QU": 1937,
      "06": 1938,
      "NN": 1939,
      "SS": 1940,
      "TC": 1941,
      "ZZ": 1942,
      "kX": 1943,
      "vX": 1944,
      "zz": 1945,
      "Qy": 1946,
      "jf": 1947,
      "ne": 1948,
      "7P": 1949,
      "ic": 1950,
      "nJ": 1951,
      "kt": 1952,
      "l2": 1953,
      "zr": 1954,
      "OY": 1955,
      "Oa": 1956,
      "hm": 1957,
      "kS": 1958,
      "L0": 1959,
      "Q6": 1960,
      "WF": 1961,
      "5G": 1962,
      "Iw": 1963,
      "P3": 1964,
      "7R": 1965,
      "99": 1966,
      "DD": 1967,
      "bM": 1968,
      "n6": 1969,
      "o4": 1970,
      "qt": 1971,
      "xw": 1972,
      "Ag": 1973,
      "Wc": 1974,
      "Zf": 1975,
      "j8": 1976,
      "y1": 1977,
      "B6": 1978,
      "BQ": 1979,
      "BJ": 1980,
      "Os": 1981,
      "uu": 1982,
      "bb": 1983,
      "vH": 1984,
      "ee": 1985,
      "i4": 1986,
      "Em": 1987,
      "hG": 1988,
      "F4": 1989,
      "Fl": 1990,
      "TV": 1991,
      "zq": 1992,
      "24": 1993,
      "R3": 1994,
      "U7": 1995,
      "dd": 1996,
      "kH": 1997,
      "rX": 1998,
      "00": 1999,
      "jC": 2000,
      "xS": 2001,
      "yJ": 2002,
      "kq": 2003,
      "3L": 2004,
      "sA": 2005,
      "2W": 2006,
      "Tf": 2007,
      "Ue": 2008,
      "YA": 2009,
      "ga": 2010,
      "8P": 2011,
      "T4": 2012,
      "lc": 2013,
      "0J": 2014,
      "It": 2015,
      "Nw": 2016,
      "5E": 2017,
      "OA": 2018,
      "T9": 2019,
      "oK": 2020,
      "Nz": 2021,
      "Ow": 2022,
      "nn": 2023,
      "oC": 2024,
      "rv": 2025,
      "8e": 2026,
      "Mu": 2027,
      "pD": 2028,
      "sY": 2029,
      "2F": 2030,
      "8L": 2031,
      "lF": 2032,
      "4V": 2033,
      "Cf": 2034,
      "rI": 2035,
      "sa": 2036,
      "Dx": 2037,
      "P1": 2038,
      "bG": 2039,
      "o3": 2040,
      "yL": 2041,
      "87": 2042,
      "HH": 2043,
      "Pe": 2044,
      "St": 2045,
      "Z9": 2046,
      "ZK": 2047
    },
    "merges": [
      [
        "S",
        "E"
      ],
      [
        "SE",
        "P"
      ],
      [
        "k",
        "1"
      ],
      [
        "k",
        "6"
      ],
      [
        "k",
        "2"
      ],
      [
        "E",
        "N"
      ],
      [
        "k",
        "7"
      ],
      [
        "k",
        "9"
      ],
      [
        "g",
        "n"
      ],
      [
        "k",
        "0"
      ],
      [
        "E",
        "C"
      ],
      [
        "a",
        "l"
      ],
      [
        "k",
        "8"
      ],
      [
        "s",
        "i"
      ],
      [
        "k",
        "5"
      ],
      [
        "k",
        "3"
      ],
      [
        "k",
        "4"
      ],
      [
        "k1",
        "1"
      ],
      [
        "EN",
        "D"
      ],
      [
        "k1",
        "2"
      ],
      [
        "k1",
        "3"
      ],
      [
        "k1",
        "4"
      ],
      [
        "R",
        "EC"
      ],
      [
        "k1",
        "6"
      ],
      [
        "k1",
        "7"
      ],
      [
        "k1",
        "5"
      ],
      [
        "k1",
        "8"
      ],
      [
        "k1",
        "9"
      ],
      [
        "_",
        "si"
      ],
      [
        "k",
        "_si"
      ],
      [
        "gn",
        "al"
      ],
      [
        "k_si",
        "gnal"
      ],
      [
        "S",
        "1"
      ],
      [
        "S",
        "7"
      ],
      [
        "S",
        "3"
      ],
      [
        "S",
        "5"
      ],
      [
        "S",
        "8"
      ],
      [
        "S",
        "9"
      ],
      [
        "S",
        "0"
      ],
      [
        "S",
        "6"
      ],
      [
        "S",
        "4"
      ],
      [
        "S",
        "2"
      ],
      [
        "P",
        "c"
      ],
      [
        "H",
        "n"
      ],
      [
        "b",
        "Z"
      ],
      [
        "Y",
        "C"
      ],
      [
        "m",
        "W"
      ],
      [
        "r",
        "U"
      ],
      [
        "X",
        "U"
      ],
      [
        "z",
        "K"
      ],
      [
        "S",
        "C"
      ],
      [
        "d",
        "G"
      ],
      [
        "h",
        "Q"
      ],
      [
        "g",
        "V"
      ],
      [
        "L",
        "W"
      ],
      [
        "R",
        "c"
      ],
      [
        "7",
        "i"
      ],
      [
        "a",
        "e"
      ],
      [
        "m",
        "o"
      ],
      [
        "d",
        "i"
      ],
      [
        "u",
        "f"
      ],
      [
        "w",
        "2"
      ],
      [
        "D",
        "B"
      ],
      [
        "I",
        "6"
      ],
      [
        "d",
        "C"
      ],
      [
        "z",
        "e"
      ],
      [
        "A",
        "A"
      ],
      [
        "v",
        "o"
      ],
      [
        "N",
        "p"
      ],
      [
        "s",
        "B"
      ],
      [
        "d",
        "K"
      ],
      [
        "d",
        "Q"
      ],
      [
        "t",
        "3"
      ],
      [
        "E",
        "l"
      ],
      [
        "H",
        "f"
      ],
      [
        "M",
        "1"
      ],
      [
        "u",
        "T"
      ],
      [
        "q",
        "c"
      ],
      [
        "M",
        "j"
      ],
      [
        "q",
        "Q"
      ],
      [
        "r",
        "o"
      ],
      [
        "E",
        "2"
      ],
      [
        "N",
        "y"
      ],
      [
        "Y",
        "L"
      ],
      [
        "D",
        "i"
      ],
      [
        "O",
        "Q"
      ],
      [
        "b",
        "i"
      ],
      [
        "m",
        "y"
      ],
      [
        "Y",
        "o"
      ],
      [
        "g",
        "9"
      ],
      [
        "h",
        "R"
      ],
      [
        "F",
        "F"
      ],
      [
        "I",
        "V"
      ],
      [
        "Y",
        "V"
      ],
      [
        "u",
        "7"
      ],
      [
        "u",
        "e"
      ],
      [
        "a",
        "V"
      ],
      [
        "g",
        "J"
      ],
      [
        "r",
        "4"
      ],
      [
        "v",
        "R"
      ],
      [
        "x",
        "J"
      ],
      [
        "8",
        "2"
      ],
      [
        "M",
        "L"
      ],
      [
        "m",
        "0"
      ],
      [
        "z",
        "l"
      ],
      [
        "H",
        "c"
      ],
      [
        "I",
        "Z"
      ],
      [
        "b",
        "W"
      ],
      [
        "d",
        "e"
      ],
      [
        "w",
        "P"
      ],
      [
        "5",
        "3"
      ],
      [
        "N",
        "2"
      ],
      [
        "D",
        "Q"
      ],
      [
        "M",
        "U"
      ],
      [
        "a",
        "R"
      ],
      [
        "h",
        "C"
      ],
      [
        "t",
        "W"
      ],
      [
        "A",
        "T"
      ],
      [
        "D",
        "1"
      ],
      [
        "k",
        "Z"
      ],
      [
        "t",
        "K"
      ],
      [
        "x",
        "C"
      ],
      [
        "z",
        "1"
      ],
      [
        "m",
        "f"
      ],
      [
        "D",
        "e"
      ],
      [
        "a",
        "y"
      ],
      [
        "b",
        "e"
      ],
      [
        "h",
        "6"
      ],
      [
        "x",
        "j"
      ],
      [
        "A",
        "1"
      ],
      [
        "M",
        "B"
      ],
      [
        "O",
        "K"
      ],
      [
        "r",
        "K"
      ],
      [
        "x",
        "K"
      ],
      [
        "x",
        "V"
      ],
      [
        "g",
        "4"
      ],
      [
        "k",
        "U"
      ],
      [
        "t",
        "o"
      ],
      [
        "u",
        "j"
      ],
      [
        "x",
        "T"
      ],
      [
        "h",
        "f"
      ],
      [
        "5",
        "R"
      ],
      [
        "G",
        "i"
      ],
      [
        "H",
        "i"
      ],
      [
        "w",
        "3"
      ],
      [
        "N",
        "U"
      ],
      [
        "k",
        "o"
      ],
      [
        "z",
        "n"
      ],
      [
        "A",
        "2"
      ],
      [
        "Y",
        "Q"
      ],
      [
        "b",
        "T"
      ],
      [
        "q",
        "2"
      ],
      [
        "r",
        "W"
      ],
      [
        "z",
        "F"
      ],
      [
        "X",
        "i"
      ],
      [
        "a",
        "P"
      ],
      [
        "a",
        "o"
      ],
      [
        "q",
        "U"
      ],
      [
        "G",
        "1"
      ],
      [
        "M",
        "K"
      ],
      [
        "m",
        "V"
      ],
      [
        "u",
        "3"
      ],
      [
        "z",
        "T"
      ],
      [
        "5",
        "B"
      ],
      [
        "d",
        "6"
      ],
      [
        "k",
        "i"
      ],
      [
        "q",
        "j"
      ],
      [
        "w",
        "B"
      ],
      [
        "w",
        "V"
      ],
      [
        "g",
        "Q"
      ],
      [
        "p",
        "V"
      ],
      [
        "s",
        "W"
      ],
      [
        "E",
        "3"
      ],
      [
        "H",
        "4"
      ],
      [
        "I",
        "U"
      ],
      [
        "h",
        "o"
      ],
      [
        "s",
        "7"
      ],
      [
        "x",
        "f"
      ],
      [
        "a",
        "6"
      ],
      [
        "b",
        "F"
      ],
      [
        "I",
        "y"
      ],
      [
        "g",
        "U"
      ],
      [
        "h",
        "V"
      ],
      [
        "p",
        "B"
      ],
      [
        "q",
        "n"
      ],
      [
        "s",
        "4"
      ],
      [
        "v",
        "v"
      ],
      [
        "w",
        "i"
      ],
      [
        "9",
        "4"
      ],
      [
        "D",
        "0"
      ],
      [
        "M",
        "l"
      ],
      [
        "k",
        "L"
      ],
      [
        "m",
        "n"
      ],
      [
        "q",
        "Z"
      ],
      [
        "s",
        "f"
      ],
      [
        "t",
        "j"
      ],
      [
        "w",
        "4"
      ],
      [
        "N",
        "1"
      ],
      [
        "a",
        "3"
      ],
      [
        "a",
        "Q"
      ],
      [
        "m",
        "2"
      ],
      [
        "m",
        "B"
      ],
      [
        "z",
        "7"
      ],
      [
        "I",
        "j"
      ],
      [
        "O",
        "4"
      ],
      [
        "X",
        "Z"
      ],
      [
        "b",
        "V"
      ],
      [
        "d",
        "T"
      ],
      [
        "m",
        "C"
      ],
      [
        "m",
        "c"
      ],
      [
        "u",
        "c"
      ],
      [
        "S",
        "e"
      ],
      [
        "p",
        "U"
      ],
      [
        "M",
        "F"
      ],
      [
        "d",
        "y"
      ],
      [
        "p",
        "K"
      ],
      [
        "q",
        "B"
      ],
      [
        "u",
        "V"
      ],
      [
        "w",
        "j"
      ],
      [
        "x",
        "W"
      ],
      [
        "G",
        "7"
      ],
      [
        "N",
        "n"
      ],
      [
        "O",
        "3"
      ],
      [
        "O",
        "B"
      ],
      [
        "O",
        "C"
      ],
      [
        "S",
        "n"
      ],
      [
        "Y",
        "W"
      ],
      [
        "a",
        "K"
      ],
      [
        "g",
        "e"
      ],
      [
        "g",
        "j"
      ],
      [
        "x",
        "U"
      ],
      [
        "5",
        "f"
      ],
      [
        "O",
        "L"
      ],
      [
        "O",
        "l"
      ],
      [
        "S",
        "f"
      ],
      [
        "X",
        "K"
      ],
      [
        "a",
        "8"
      ],
      [
        "g",
        "i"
      ],
      [
        "h",
        "0"
      ],
      [
        "h",
        "1"
      ],
      [
        "s",
        "U"
      ],
      [
        "S",
        "F"
      ],
      [
        "a",
        "f"
      ],
      [
        "d",
        "l"
      ],
      [
        "g",
        "2"
      ],
      [
        "g",
        "y"
      ],
      [
        "r",
        "c"
      ],
      [
        "r",
        "e"
      ],
      [
        "E",
        "Z"
      ],
      [
        "G",
        "e"
      ],
      [
        "Y",
        "e"
      ],
      [
        "b",
        "c"
      ],
      [
        "k",
        "C"
      ],
      [
        "u",
        "U"
      ],
      [
        "D",
        "7"
      ],
      [
        "G",
        "P"
      ],
      [
        "X",
        "C"
      ],
      [
        "X",
        "W"
      ],
      [
        "Y",
        "U"
      ],
      [
        "w",
        "W"
      ],
      [
        "w",
        "e"
      ],
      [
        "G",
        "6"
      ],
      [
        "O",
        "F"
      ],
      [
        "Y",
        "Z"
      ],
      [
        "t",
        "y"
      ],
      [
        "E",
        "J"
      ],
      [
        "N",
        "7"
      ],
      [
        "b",
        "Q"
      ],
      [
        "k",
        "V"
      ],
      [
        "k",
        "n"
      ],
      [
        "m",
        "Z"
      ],
      [
        "s",
        "o"
      ],
      [
        "w",
        "Z"
      ],
      [
        "G",
        "3"
      ],
      [
        "H",
        "1"
      ],
      [
        "M",
        "0"
      ],
      [
        "M",
        "o"
      ],
      [
        "a",
        "0"
      ],
      [
        "u",
        "C"
      ],
      [
        "u",
        "o"
      ],
      [
        "x",
        "o"
      ],
      [
        "z",
        "j"
      ],
      [
        "D",
        "3"
      ],
      [
        "D",
        "C"
      ],
      [
        "H",
        "Z"
      ],
      [
        "H",
        "j"
      ],
      [
        "S",
        "l"
      ],
      [
        "b",
        "K"
      ],
      [
        "g",
        "6"
      ],
      [
        "g",
        "R"
      ],
      [
        "q",
        "V"
      ],
      [
        "u",
        "0"
      ],
      [
        "v",
        "f"
      ],
      [
        "x",
        "0"
      ],
      [
        "z",
        "U"
      ],
      [
        "z",
        "W"
      ],
      [
        "M",
        "y"
      ],
      [
        "N",
        "Q"
      ],
      [
        "N",
        "W"
      ],
      [
        "a",
        "T"
      ],
      [
        "h",
        "7"
      ],
      [
        "m",
        "1"
      ],
      [
        "p",
        "i"
      ],
      [
        "q",
        "R"
      ],
      [
        "w",
        "l"
      ],
      [
        "G",
        "J"
      ],
      [
        "I",
        "Q"
      ],
      [
        "I",
        "l"
      ],
      [
        "O",
        "W"
      ],
      [
        "Y",
        "4"
      ],
      [
        "b",
        "1"
      ],
      [
        "g",
        "3"
      ],
      [
        "g",
        "B"
      ],
      [
        "h",
        "2"
      ],
      [
        "m",
        "l"
      ],
      [
        "p",
        "y"
      ],
      [
        "r",
        "6"
      ],
      [
        "z",
        "f"
      ],
      [
        "E",
        "y"
      ],
      [
        "g",
        "1"
      ],
      [
        "g",
        "T"
      ],
      [
        "h",
        "K"
      ],
      [
        "k",
        "j"
      ],
      [
        "s",
        "K"
      ],
      [
        "t",
        "f"
      ],
      [
        "I",
        "4"
      ],
      [
        "M",
        "C"
      ],
      [
        "M",
        "T"
      ],
      [
        "S",
        "o"
      ],
      [
        "X",
        "c"
      ],
      [
        "b",
        "7"
      ],
      [
        "s",
        "2"
      ],
      [
        "u",
        "y"
      ],
      [
        "z",
        "V"
      ],
      [
        "5",
        "U"
      ],
      [
        "X",
        "y"
      ],
      [
        "g",
        "K"
      ],
      [
        "h",
        "L"
      ],
      [
        "k",
        "l"
      ],
      [
        "r",
        "l"
      ],
      [
        "u",
        "B"
      ],
      [
        "v",
        "F"
      ],
      [
        "A",
        "4"
      ],
      [
        "A",
        "U"
      ],
      [
        "H",
        "C"
      ],
      [
        "I",
        "e"
      ],
      [
        "O",
        "1"
      ],
      [
        "O",
        "o"
      ],
      [
        "q",
        "0"
      ],
      [
        "r",
        "y"
      ],
      [
        "D",
        "K"
      ],
      [
        "D",
        "R"
      ],
      [
        "H",
        "0"
      ],
      [
        "I",
        "c"
      ],
      [
        "M",
        "9"
      ],
      [
        "N",
        "T"
      ],
      [
        "O",
        "i"
      ],
      [
        "X",
        "j"
      ],
      [
        "Y",
        "8"
      ],
      [
        "d",
        "J"
      ],
      [
        "h",
        "B"
      ],
      [
        "q",
        "o"
      ],
      [
        "s",
        "F"
      ],
      [
        "t",
        "B"
      ],
      [
        "w",
        "C"
      ],
      [
        "x",
        "Q"
      ],
      [
        "5",
        "Z"
      ],
      [
        "A",
        "o"
      ],
      [
        "D",
        "4"
      ],
      [
        "H",
        "T"
      ],
      [
        "N",
        "6"
      ],
      [
        "N",
        "L"
      ],
      [
        "Y",
        "l"
      ],
      [
        "g",
        "C"
      ],
      [
        "r",
        "j"
      ],
      [
        "s",
        "R"
      ],
      [
        "t",
        "L"
      ],
      [
        "x",
        "R"
      ],
      [
        "D",
        "L"
      ],
      [
        "D",
        "U"
      ],
      [
        "D",
        "n"
      ],
      [
        "E",
        "K"
      ],
      [
        "H",
        "e"
      ],
      [
        "M",
        "R"
      ],
      [
        "N",
        "K"
      ],
      [
        "a",
        "n"
      ],
      [
        "m",
        "T"
      ],
      [
        "r",
        "3"
      ],
      [
        "t",
        "e"
      ],
      [
        "5",
        "7"
      ],
      [
        "D",
        "T"
      ],
      [
        "D",
        "l"
      ],
      [
        "I",
        "o"
      ],
      [
        "N",
        "f"
      ],
      [
        "N",
        "l"
      ],
      [
        "X",
        "3"
      ],
      [
        "X",
        "T"
      ],
      [
        "Y",
        "y"
      ],
      [
        "g",
        "f"
      ],
      [
        "k",
        "c"
      ],
      [
        "m",
        "9"
      ],
      [
        "q",
        "3"
      ],
      [
        "t",
        "c"
      ],
      [
        "v",
        "B"
      ],
      [
        "v",
        "Z"
      ],
      [
        "A",
        "n"
      ],
      [
        "D",
        "J"
      ],
      [
        "H",
        "J"
      ],
      [
        "O",
        "6"
      ],
      [
        "Y",
        "j"
      ],
      [
        "b",
        "2"
      ],
      [
        "b",
        "4"
      ],
      [
        "d",
        "3"
      ],
      [
        "h",
        "9"
      ],
      [
        "v",
        "i"
      ],
      [
        "D",
        "F"
      ],
      [
        "D",
        "V"
      ],
      [
        "O",
        "0"
      ],
      [
        "S",
        "J"
      ],
      [
        "b",
        "U"
      ],
      [
        "b",
        "o"
      ],
      [
        "g",
        "o"
      ],
      [
        "t",
        "F"
      ],
      [
        "u",
        "1"
      ],
      [
        "z",
        "B"
      ],
      [
        "H",
        "L"
      ],
      [
        "M",
        "c"
      ],
      [
        "N",
        "B"
      ],
      [
        "Y",
        "1"
      ],
      [
        "g",
        "8"
      ],
      [
        "q",
        "C"
      ],
      [
        "q",
        "e"
      ],
      [
        "w",
        "9"
      ],
      [
        "z",
        "0"
      ],
      [
        "E",
        "4"
      ],
      [
        "H",
        "Q"
      ],
      [
        "S",
        "j"
      ],
      [
        "X",
        "n"
      ],
      [
        "a",
        "F"
      ],
      [
        "q",
        "f"
      ],
      [
        "r",
        "Q"
      ],
      [
        "A",
        "C"
      ],
      [
        "I",
        "B"
      ],
      [
        "O",
        "e"
      ],
      [
        "d",
        "2"
      ],
      [
        "p",
        "9"
      ],
      [
        "q",
        "4"
      ],
      [
        "s",
        "9"
      ],
      [
        "x",
        "2"
      ],
      [
        "z",
        "6"
      ],
      [
        "Y",
        "K"
      ],
      [
        "a",
        "2"
      ],
      [
        "r",
        "B"
      ],
      [
        "r",
        "i"
      ],
      [
        "s",
        "0"
      ],
      [
        "s",
        "P"
      ],
      [
        "u",
        "F"
      ],
      [
        "x",
        "c"
      ],
      [
        "A",
        "c"
      ],
      [
        "O",
        "c"
      ],
      [
        "h",
        "n"
      ],
      [
        "q",
        "y"
      ],
      [
        "r",
        "n"
      ],
      [
        "t",
        "Q"
      ],
      [
        "w",
        "6"
      ],
      [
        "x",
        "B"
      ],
      [
        "E",
        "6"
      ],
      [
        "I",
        "3"
      ],
      [
        "S",
        "K"
      ],
      [
        "Y",
        "P"
      ],
      [
        "a",
        "C"
      ],
      [
        "a",
        "i"
      ],
      [
        "b",
        "P"
      ],
      [
        "h",
        "3"
      ],
      [
        "m",
        "K"
      ],
      [
        "q",
        "i"
      ],
      [
        "s",
        "e"
      ],
      [
        "5",
        "j"
      ],
      [
        "O",
        "V"
      ],
      [
        "X",
        "V"
      ],
      [
        "b",
        "C"
      ],
      [
        "g",
        "c"
      ],
      [
        "t",
        "C"
      ],
      [
        "A",
        "i"
      ],
      [
        "E",
        "e"
      ],
      [
        "I",
        "f"
      ],
      [
        "O",
        "j"
      ],
      [
        "g",
        "Z"
      ],
      [
        "h",
        "i"
      ],
      [
        "m",
        "8"
      ],
      [
        "p",
        "4"
      ],
      [
        "v",
        "l"
      ],
      [
        "w",
        "J"
      ],
      [
        "5",
        "i"
      ],
      [
        "E",
        "1"
      ],
      [
        "N",
        "0"
      ],
      [
        "k",
        "T"
      ],
      [
        "x",
        "l"
      ],
      [
        "x",
        "n"
      ],
      [
        "z",
        "2"
      ],
      [
        "A",
        "9"
      ],
      [
        "E",
        "8"
      ],
      [
        "M",
        "e"
      ],
      [
        "Y",
        "9"
      ],
      [
        "t",
        "V"
      ],
      [
        "t",
        "n"
      ],
      [
        "u",
        "4"
      ],
      [
        "z",
        "R"
      ],
      [
        "D",
        "Z"
      ],
      [
        "D",
        "c"
      ],
      [
        "E",
        "Q"
      ],
      [
        "E",
        "o"
      ],
      [
        "G",
        "n"
      ],
      [
        "I",
        "n"
      ],
      [
        "S",
        "W"
      ],
      [
        "b",
        "f"
      ],
      [
        "d",
        "0"
      ],
      [
        "d",
        "V"
      ],
      [
        "h",
        "e"
      ],
      [
        "m",
        "6"
      ],
      [
        "p",
        "R"
      ],
      [
        "r",
        "R"
      ],
      [
        "s",
        "Q"
      ],
      [
        "t",
        "4"
      ],
      [
        "u",
        "l"
      ],
      [
        "v",
        "L"
      ],
      [
        "w",
        "R"
      ],
      [
        "D",
        "P"
      ],
      [
        "O",
        "n"
      ],
      [
        "Y",
        "c"
      ],
      [
        "h",
        "J"
      ],
      [
        "h",
        "P"
      ],
      [
        "h",
        "c"
      ],
      [
        "k",
        "Q"
      ],
      [
        "r",
        "7"
      ],
      [
        "r",
        "C"
      ],
      [
        "t",
        "9"
      ],
      [
        "u",
        "Q"
      ],
      [
        "I",
        "F"
      ],
      [
        "X",
        "1"
      ],
      [
        "X",
        "6"
      ],
      [
        "Y",
        "J"
      ],
      [
        "a",
        "U"
      ],
      [
        "m",
        "j"
      ],
      [
        "q",
        "l"
      ],
      [
        "r",
        "f"
      ],
      [
        "s",
        "T"
      ],
      [
        "t",
        "Z"
      ],
      [
        "w",
        "L"
      ],
      [
        "z",
        "o"
      ],
      [
        "5",
        "0"
      ],
      [
        "A",
        "e"
      ],
      [
        "D",
        "6"
      ],
      [
        "H",
        "9"
      ],
      [
        "I",
        "K"
      ],
      [
        "b",
        "n"
      ],
      [
        "k",
        "e"
      ],
      [
        "s",
        "c"
      ],
      [
        "t",
        "i"
      ],
      [
        "v",
        "P"
      ],
      [
        "x",
        "3"
      ],
      [
        "A",
        "Z"
      ],
      [
        "E",
        "f"
      ],
      [
        "d",
        "c"
      ],
      [
        "r",
        "J"
      ],
      [
        "v",
        "Q"
      ],
      [
        "w",
        "o"
      ],
      [
        "x",
        "e"
      ],
      [
        "z",
        "L"
      ],
      [
        "I",
        "i"
      ],
      [
        "N",
        "J"
      ],
      [
        "X",
        "e"
      ],
      [
        "Y",
        "2"
      ],
      [
        "g",
        "W"
      ],
      [
        "h",
        "U"
      ],
      [
        "m",
        "J"
      ],
      [
        "t",
        "2"
      ],
      [
        "w",
        "0"
      ],
      [
        "A",
        "F"
      ],
      [
        "E",
        "R"
      ],
      [
        "E",
        "T"
      ],
      [
        "G",
        "K"
      ],
      [
        "H",
        "R"
      ],
      [
        "M",
        "n"
      ],
      [
        "S",
        "T"
      ],
      [
        "X",
        "0"
      ],
      [
        "Y",
        "0"
      ],
      [
        "Y",
        "B"
      ],
      [
        "b",
        "R"
      ],
      [
        "h",
        "W"
      ],
      [
        "w",
        "8"
      ],
      [
        "x",
        "8"
      ],
      [
        "x",
        "i"
      ],
      [
        "A",
        "J"
      ],
      [
        "D",
        "o"
      ],
      [
        "O",
        "7"
      ],
      [
        "Y",
        "7"
      ],
      [
        "b",
        "3"
      ],
      [
        "m",
        "7"
      ],
      [
        "p",
        "0"
      ],
      [
        "q",
        "7"
      ],
      [
        "q",
        "J"
      ],
      [
        "H",
        "o"
      ],
      [
        "X",
        "l"
      ],
      [
        "p",
        "T"
      ],
      [
        "u",
        "9"
      ],
      [
        "v",
        "y"
      ],
      [
        "z",
        "3"
      ],
      [
        "A",
        "y"
      ],
      [
        "D",
        "8"
      ],
      [
        "D",
        "y"
      ],
      [
        "S",
        "y"
      ],
      [
        "Y",
        "3"
      ],
      [
        "k",
        "F"
      ],
      [
        "m",
        "i"
      ],
      [
        "p",
        "3"
      ],
      [
        "s",
        "C"
      ],
      [
        "t",
        "1"
      ],
      [
        "5",
        "W"
      ],
      [
        "M",
        "4"
      ],
      [
        "O",
        "J"
      ],
      [
        "Y",
        "f"
      ],
      [
        "a",
        "c"
      ],
      [
        "b",
        "J"
      ],
      [
        "p",
        "1"
      ],
      [
        "s",
        "3"
      ],
      [
        "v",
        "c"
      ],
      [
        "A",
        "L"
      ],
      [
        "A",
        "R"
      ],
      [
        "D",
        "2"
      ],
      [
        "G",
        "o"
      ],
      [
        "H",
        "8"
      ],
      [
        "N",
        "3"
      ],
      [
        "X",
        "9"
      ],
      [
        "h",
        "8"
      ],
      [
        "u",
        "n"
      ],
      [
        "E",
        "c"
      ],
      [
        "M",
        "Z"
      ],
      [
        "O",
        "T"
      ],
      [
        "k",
        "P"
      ],
      [
        "r",
        "T"
      ],
      [
        "u",
        "W"
      ],
      [
        "A",
        "0"
      ],
      [
        "G",
        "Q"
      ],
      [
        "G",
        "W"
      ],
      [
        "X",
        "o"
      ],
      [
        "m",
        "P"
      ],
      [
        "q",
        "F"
      ],
      [
        "r",
        "F"
      ],
      [
        "u",
        "6"
      ],
      [
        "w",
        "1"
      ],
      [
        "5",
        "Q"
      ],
      [
        "5",
        "c"
      ],
      [
        "X",
        "J"
      ],
      [
        "a",
        "j"
      ],
      [
        "d",
        "4"
      ],
      [
        "d",
        "P"
      ],
      [
        "m",
        "4"
      ],
      [
        "m",
        "Q"
      ],
      [
        "m",
        "e"
      ],
      [
        "s",
        "Z"
      ],
      [
        "A",
        "Q"
      ],
      [
        "G",
        "c"
      ],
      [
        "H",
        "W"
      ],
      [
        "I",
        "L"
      ],
      [
        "Y",
        "n"
      ],
      [
        "d",
        "W"
      ],
      [
        "d",
        "j"
      ],
      [
        "g",
        "l"
      ],
      [
        "E",
        "0"
      ],
      [
        "E",
        "V"
      ],
      [
        "N",
        "V"
      ],
      [
        "a",
        "W"
      ],
      [
        "b",
        "0"
      ],
      [
        "q",
        "K"
      ],
      [
        "v",
        "K"
      ],
      [
        "z",
        "9"
      ],
      [
        "5",
        "T"
      ],
      [
        "5",
        "o"
      ],
      [
        "H",
        "K"
      ],
      [
        "H",
        "y"
      ],
      [
        "N",
        "R"
      ],
      [
        "N",
        "o"
      ],
      [
        "X",
        "2"
      ],
      [
        "Y",
        "i"
      ],
      [
        "b",
        "j"
      ],
      [
        "d",
        "Z"
      ],
      [
        "g",
        "P"
      ],
      [
        "q",
        "6"
      ],
      [
        "s",
        "8"
      ],
      [
        "t",
        "6"
      ],
      [
        "t",
        "T"
      ],
      [
        "v",
        "1"
      ],
      [
        "w",
        "n"
      ],
      [
        "G",
        "9"
      ],
      [
        "M",
        "W"
      ],
      [
        "N",
        "j"
      ],
      [
        "S",
        "U"
      ],
      [
        "h",
        "j"
      ],
      [
        "q",
        "L"
      ],
      [
        "r",
        "9"
      ],
      [
        "5",
        "C"
      ],
      [
        "E",
        "F"
      ],
      [
        "H",
        "2"
      ],
      [
        "S",
        "B"
      ],
      [
        "a",
        "9"
      ],
      [
        "b",
        "B"
      ],
      [
        "k",
        "B"
      ],
      [
        "k",
        "f"
      ],
      [
        "p",
        "e"
      ],
      [
        "p",
        "n"
      ],
      [
        "p",
        "o"
      ],
      [
        "t",
        "8"
      ],
      [
        "u",
        "i"
      ],
      [
        "w",
        "K"
      ],
      [
        "z",
        "J"
      ],
      [
        "G",
        "4"
      ],
      [
        "H",
        "U"
      ],
      [
        "H",
        "l"
      ],
      [
        "Y",
        "R"
      ],
      [
        "h",
        "F"
      ],
      [
        "p",
        "6"
      ],
      [
        "u",
        "P"
      ],
      [
        "G",
        "T"
      ],
      [
        "G",
        "j"
      ],
      [
        "H",
        "3"
      ],
      [
        "I",
        "7"
      ],
      [
        "S",
        "V"
      ],
      [
        "r",
        "2"
      ],
      [
        "t",
        "J"
      ],
      [
        "w",
        "Q"
      ],
      [
        "A",
        "8"
      ],
      [
        "G",
        "8"
      ],
      [
        "H",
        "B"
      ],
      [
        "M",
        "3"
      ],
      [
        "S",
        "P"
      ],
      [
        "X",
        "L"
      ],
      [
        "X",
        "Q"
      ],
      [
        "d",
        "F"
      ],
      [
        "d",
        "o"
      ],
      [
        "5",
        "K"
      ],
      [
        "G",
        "y"
      ],
      [
        "H",
        "6"
      ],
      [
        "d",
        "1"
      ],
      [
        "d",
        "B"
      ],
      [
        "p",
        "J"
      ],
      [
        "r",
        "1"
      ],
      [
        "t",
        "l"
      ],
      [
        "M",
        "V"
      ],
      [
        "N",
        "9"
      ],
      [
        "p",
        "W"
      ],
      [
        "t",
        "R"
      ],
      [
        "u",
        "J"
      ],
      [
        "v",
        "C"
      ],
      [
        "v",
        "U"
      ],
      [
        "w",
        "U"
      ],
      [
        "D",
        "9"
      ],
      [
        "G",
        "2"
      ],
      [
        "I",
        "9"
      ],
      [
        "g",
        "0"
      ],
      [
        "h",
        "y"
      ],
      [
        "m",
        "U"
      ],
      [
        "u",
        "Z"
      ],
      [
        "v",
        "W"
      ],
      [
        "A",
        "3"
      ],
      [
        "N",
        "i"
      ],
      [
        "O",
        "2"
      ],
      [
        "S",
        "Z"
      ],
      [
        "d",
        "f"
      ],
      [
        "p",
        "L"
      ],
      [
        "x",
        "F"
      ],
      [
        "z",
        "Z"
      ],
      [
        "5",
        "2"
      ],
      [
        "5",
        "V"
      ],
      [
        "G",
        "F"
      ],
      [
        "I",
        "T"
      ],
      [
        "M",
        "J"
      ],
      [
        "N",
        "8"
      ],
      [
        "h",
        "T"
      ],
      [
        "k",
        "y"
      ],
      [
        "u",
        "L"
      ],
      [
        "x",
        "y"
      ],
      [
        "z",
        "4"
      ],
      [
        "z",
        "C"
      ],
      [
        "d",
        "R"
      ],
      [
        "g",
        "7"
      ],
      [
        "h",
        "l"
      ],
      [
        "q",
        "9"
      ],
      [
        "q",
        "T"
      ],
      [
        "v",
        "3"
      ],
      [
        "M",
        "7"
      ],
      [
        "Y",
        "T"
      ],
      [
        "b",
        "6"
      ],
      [
        "d",
        "7"
      ],
      [
        "p",
        "8"
      ],
      [
        "r",
        "L"
      ],
      [
        "t",
        "U"
      ],
      [
        "u",
        "R"
      ],
      [
        "v",
        "4"
      ],
      [
        "v",
        "9"
      ],
      [
        "I",
        "W"
      ],
      [
        "M",
        "f"
      ],
      [
        "d",
        "L"
      ],
      [
        "m",
        "F"
      ],
      [
        "5",
        "9"
      ],
      [
        "A",
        "j"
      ],
      [
        "G",
        "0"
      ],
      [
        "I",
        "P"
      ],
      [
        "X",
        "8"
      ],
      [
        "a",
        "4"
      ],
      [
        "k",
        "K"
      ],
      [
        "m",
        "L"
      ],
      [
        "w",
        "7"
      ],
      [
        "w",
        "T"
      ],
      [
        "a",
        "7"
      ],
      [
        "z",
        "8"
      ],
      [
        "5",
        "L"
      ],
      [
        "A",
        "V"
      ],
      [
        "E",
        "W"
      ],
      [
        "G",
        "C"
      ],
      [
        "N",
        "Z"
      ],
      [
        "O",
        "f"
      ],
      [
        "v",
        "7"
      ],
      [
        "v",
        "J"
      ],
      [
        "E",
        "U"
      ],
      [
        "I",
        "2"
      ],
      [
        "X",
        "f"
      ],
      [
        "k",
        "J"
      ],
      [
        "s",
        "6"
      ],
      [
        "5",
        "e"
      ],
      [
        "A",
        "6"
      ],
      [
        "E",
        "7"
      ],
      [
        "H",
        "7"
      ],
      [
        "p",
        "2"
      ],
      [
        "r",
        "P"
      ],
      [
        "v",
        "j"
      ],
      [
        "I",
        "R"
      ],
      [
        "O",
        "9"
      ],
      [
        "a",
        "J"
      ],
      [
        "k",
        "W"
      ],
      [
        "t",
        "7"
      ],
      [
        "u",
        "8"
      ],
      [
        "w",
        "F"
      ],
      [
        "z",
        "P"
      ],
      [
        "E",
        "L"
      ],
      [
        "M",
        "6"
      ],
      [
        "M",
        "i"
      ],
      [
        "O",
        "Z"
      ],
      [
        "h",
        "4"
      ],
      [
        "p",
        "P"
      ],
      [
        "p",
        "j"
      ],
      [
        "Y",
        "6"
      ],
      [
        "O",
        "P"
      ],
      [
        "X",
        "B"
      ],
      [
        "a",
        "Z"
      ],
      [
        "b",
        "l"
      ],
      [
        "w",
        "y"
      ],
      [
        "E",
        "j"
      ],
      [
        "b",
        "y"
      ],
      [
        "m",
        "3"
      ],
      [
        "p",
        "Q"
      ],
      [
        "u",
        "2"
      ],
      [
        "A",
        "l"
      ],
      [
        "H",
        "P"
      ],
      [
        "O",
        "8"
      ],
      [
        "s",
        "V"
      ],
      [
        "v",
        "8"
      ],
      [
        "w",
        "f"
      ],
      [
        "x",
        "Z"
      ],
      [
        "5",
        "4"
      ],
      [
        "A",
        "f"
      ],
      [
        "D",
        "W"
      ],
      [
        "S",
        "L"
      ],
      [
        "a",
        "B"
      ],
      [
        "b",
        "9"
      ],
      [
        "d",
        "8"
      ],
      [
        "p",
        "l"
      ],
      [
        "r",
        "0"
      ],
      [
        "v",
        "T"
      ],
      [
        "x",
        "1"
      ],
      [
        "x",
        "7"
      ],
      [
        "E",
        "n"
      ],
      [
        "I",
        "C"
      ],
      [
        "N",
        "e"
      ],
      [
        "O",
        "U"
      ],
      [
        "b",
        "8"
      ],
      [
        "p",
        "c"
      ],
      [
        "p",
        "f"
      ],
      [
        "r",
        "8"
      ],
      [
        "u",
        "K"
      ],
      [
        "v",
        "V"
      ],
      [
        "x",
        "4"
      ],
      [
        "x",
        "P"
      ],
      [
        "N",
        "P"
      ],
      [
        "S",
        "Q"
      ],
      [
        "h",
        "Z"
      ],
      [
        "x",
        "6"
      ],
      [
        "A",
        "P"
      ],
      [
        "E",
        "i"
      ],
      [
        "I",
        "1"
      ],
      [
        "d",
        "9"
      ],
      [
        "p",
        "7"
      ],
      [
        "q",
        "P"
      ],
      [
        "r",
        "V"
      ],
      [
        "z",
        "i"
      ],
      [
        "A",
        "K"
      ],
      [
        "I",
        "J"
      ],
      [
        "N",
        "F"
      ],
      [
        "s",
        "n"
      ],
      [
        "z",
        "c"
      ],
      [
        "A",
        "7"
      ],
      [
        "H",
        "F"
      ],
      [
        "q",
        "8"
      ],
      [
        "q",
        "W"
      ],
      [
        "t",
        "0"
      ],
      [
        "5",
        "1"
      ],
      [
        "A",
        "B"
      ],
      [
        "E",
        "P"
      ],
      [
        "S",
        "c"
      ],
      [
        "G",
        "V"
      ],
      [
        "Y",
        "F"
      ],
      [
        "x",
        "L"
      ],
      [
        "g",
        "F"
      ],
      [
        "q",
        "1"
      ],
      [
        "v",
        "6"
      ],
      [
        "N",
        "4"
      ],
      [
        "k",
        "R"
      ],
      [
        "D",
        "f"
      ],
      [
        "b",
        "L"
      ],
      [
        "d",
        "n"
      ],
      [
        "v",
        "e"
      ],
      [
        "5",
        "6"
      ],
      [
        "w",
        "c"
      ],
      [
        "I",
        "8"
      ],
      [
        "M",
        "P"
      ],
      [
        "v",
        "n"
      ],
      [
        "5",
        "8"
      ],
      [
        "S",
        "R"
      ],
      [
        "s",
        "y"
      ],
      [
        "A",
        "W"
      ],
      [
        "G",
        "L"
      ],
      [
        "d",
        "U"
      ],
      [
        "p",
        "F"
      ],
      [
        "z",
        "Q"
      ],
      [
        "a",
        "1"
      ],
      [
        "G",
        "l"
      ],
      [
        "s",
        "j"
      ],
      [
        "5",
        "l"
      ],
      [
        "5",
        "n"
      ],
      [
        "M",
        "Q"
      ],
      [
        "X",
        "7"
      ],
      [
        "N",
        "C"
      ],
      [
        "s",
        "L"
      ],
      [
        "v",
        "2"
      ],
      [
        "E",
        "9"
      ],
      [
        "G",
        "f"
      ],
      [
        "H",
        "V"
      ],
      [
        "t",
        "P"
      ],
      [
        "O",
        "y"
      ],
      [
        "s",
        "J"
      ],
      [
        "v",
        "0"
      ],
      [
        "N",
        "c"
      ],
      [
        "X",
        "4"
      ],
      [
        "X",
        "P"
      ],
      [
        "D",
        "j"
      ],
      [
        "G",
        "U"
      ],
      [
        "O",
        "R"
      ],
      [
        "5",
        "y"
      ],
      [
        "X",
        "R"
      ],
      [
        "I",
        "0"
      ],
      [
        "X",
        "F"
      ],
      [
        "m",
        "R"
      ],
      [
        "s",
        "l"
      ],
      [
        "5",
        "P"
      ],
      [
        "M",
        "2"
      ],
      [
        "G",
        "Z"
      ],
      [
        "p",
        "Z"
      ],
      [
        "M",
        "8"
      ],
      [
        "a",
        "L"
      ],
      [
        "z",
        "y"
      ],
      [
        "r",
        "Z"
      ],
      [
        "s",
        "1"
      ],
      [
        "x",
        "9"
      ],
      [
        "5",
        "F"
      ],
      [
        "S",
        "i"
      ],
      [
        "g",
        "L"
      ],
      [
        "p",
        "C"
      ],
      [
        "G",
        "R"
      ],
      [
        "G",
        "B"
      ],
      [
        "E",
        "B"
      ],
      [
        "5",
        "J"
      ],
      [
        "3",
        "l"
      ],
      [
        "Q",
        "T"
      ],
      [
        "6",
        "6"
      ],
      [
        "B",
        "f"
      ],
      [
        "e",
        "C"
      ],
      [
        "1",
        "l"
      ],
      [
        "y",
        "f"
      ],
      [
        "e",
        "c"
      ],
      [
        "J",
        "9"
      ],
      [
        "7",
        "7"
      ],
      [
        "P",
        "T"
      ],
      [
        "U",
        "9"
      ],
      [
        "L",
        "f"
      ],
      [
        "Z",
        "C"
      ],
      [
        "6",
        "l"
      ],
      [
        "n",
        "l"
      ],
      [
        "y",
        "j"
      ],
      [
        "y",
        "o"
      ],
      [
        "1",
        "2"
      ],
      [
        "U",
        "R"
      ],
      [
        "V",
        "c"
      ],
      [
        "a",
        "m"
      ],
      [
        "B",
        "0"
      ],
      [
        "y",
        "l"
      ],
      [
        "3",
        "K"
      ],
      [
        "6",
        "W"
      ],
      [
        "U",
        "l"
      ],
      [
        "J",
        "i"
      ],
      [
        "3",
        "T"
      ],
      [
        "U",
        "o"
      ],
      [
        "y",
        "c"
      ],
      [
        "B",
        "2"
      ],
      [
        "B",
        "j"
      ],
      [
        "Z",
        "o"
      ],
      [
        "C",
        "9"
      ],
      [
        "L",
        "F"
      ],
      [
        "B",
        "T"
      ],
      [
        "R",
        "T"
      ],
      [
        "U",
        "2"
      ],
      [
        "e",
        "T"
      ],
      [
        "B",
        "W"
      ],
      [
        "L",
        "V"
      ],
      [
        "0",
        "f"
      ],
      [
        "Q",
        "c"
      ],
      [
        "k",
        "s"
      ],
      [
        "1",
        "c"
      ],
      [
        "J",
        "4"
      ],
      [
        "K",
        "i"
      ],
      [
        "e",
        "f"
      ],
      [
        "n",
        "j"
      ],
      [
        "6",
        "4"
      ],
      [
        "J",
        "8"
      ],
      [
        "Q",
        "W"
      ],
      [
        "J",
        "F"
      ],
      [
        "L",
        "l"
      ],
      [
        "P",
        "o"
      ],
      [
        "Q",
        "l"
      ],
      [
        "3",
        "Z"
      ],
      [
        "P",
        "2"
      ],
      [
        "k",
        "Y"
      ],
      [
        "B",
        "4"
      ],
      [
        "P",
        "l"
      ],
      [
        "Q",
        "j"
      ],
      [
        "e",
        "l"
      ],
      [
        "n",
        "o"
      ],
      [
        "x",
        "a"
      ],
      [
        "1",
        "C"
      ],
      [
        "U",
        "i"
      ],
      [
        "n",
        "c"
      ],
      [
        "B",
        "C"
      ],
      [
        "B",
        "V"
      ],
      [
        "L",
        "9"
      ],
      [
        "N",
        "g"
      ],
      [
        "Q",
        "i"
      ],
      [
        "7",
        "K"
      ],
      [
        "O",
        "O"
      ],
      [
        "R",
        "i"
      ],
      [
        "U",
        "F"
      ],
      [
        "z",
        "5"
      ],
      [
        "0",
        "o"
      ],
      [
        "3",
        "2"
      ],
      [
        "y",
        "T"
      ],
      [
        "1",
        "W"
      ],
      [
        "3",
        "F"
      ],
      [
        "H",
        "I"
      ],
      [
        "h",
        "h"
      ],
      [
        "k",
        "u"
      ],
      [
        "m",
        "m"
      ],
      [
        "n",
        "W"
      ],
      [
        "t",
        "M"
      ],
      [
        "3",
        "i"
      ],
      [
        "R",
        "K"
      ],
      [
        "z",
        "s"
      ],
      [
        "6",
        "f"
      ],
      [
        "B",
        "c"
      ],
      [
        "y",
        "C"
      ],
      [
        "3",
        "o"
      ],
      [
        "B",
        "l"
      ],
      [
        "e",
        "4"
      ],
      [
        "q",
        "Y"
      ],
      [
        "y",
        "F"
      ],
      [
        "H",
        "u"
      ],
      [
        "P",
        "4"
      ],
      [
        "P",
        "W"
      ],
      [
        "n",
        "K"
      ],
      [
        "1",
        "f"
      ],
      [
        "L",
        "i"
      ],
      [
        "x",
        "s"
      ],
      [
        "0",
        "T"
      ],
      [
        "0",
        "i"
      ],
      [
        "9",
        "i"
      ],
      [
        "J",
        "f"
      ],
      [
        "Q",
        "2"
      ],
      [
        "Q",
        "Z"
      ],
      [
        "r",
        "s"
      ],
      [
        "0",
        "W"
      ],
      [
        "7",
        "F"
      ],
      [
        "7",
        "c"
      ],
      [
        "8",
        "4"
      ],
      [
        "P",
        "F"
      ],
      [
        "B",
        "K"
      ],
      [
        "B",
        "Z"
      ],
      [
        "k",
        "D"
      ],
      [
        "n",
        "4"
      ],
      [
        "w",
        "s"
      ],
      [
        "x",
        "g"
      ],
      [
        "y",
        "4"
      ],
      [
        "1",
        "4"
      ],
      [
        "1",
        "K"
      ],
      [
        "3",
        "f"
      ],
      [
        "P",
        "V"
      ],
      [
        "P",
        "f"
      ],
      [
        "Q",
        "C"
      ],
      [
        "R",
        "l"
      ],
      [
        "U",
        "T"
      ],
      [
        "e",
        "j"
      ],
      [
        "8",
        "j"
      ],
      [
        "B",
        "o"
      ],
      [
        "L",
        "Z"
      ],
      [
        "e",
        "2"
      ],
      [
        "n",
        "Z"
      ],
      [
        "6",
        "i"
      ],
      [
        "8",
        "W"
      ],
      [
        "P",
        "i"
      ],
      [
        "p",
        "M"
      ],
      [
        "q",
        "u"
      ],
      [
        "z",
        "G"
      ],
      [
        "1",
        "i"
      ],
      [
        "6",
        "2"
      ],
      [
        "L",
        "c"
      ],
      [
        "Q",
        "V"
      ],
      [
        "U",
        "Z"
      ],
      [
        "n",
        "f"
      ],
      [
        "t",
        "u"
      ],
      [
        "x",
        "O"
      ],
      [
        "H",
        "5"
      ],
      [
        "J",
        "W"
      ],
      [
        "y",
        "Z"
      ],
      [
        "0",
        "l"
      ],
      [
        "1",
        "o"
      ],
      [
        "8",
        "f"
      ],
      [
        "J",
        "T"
      ],
      [
        "L",
        "K"
      ],
      [
        "Q",
        "f"
      ],
      [
        "d",
        "b"
      ],
      [
        "7",
        "T"
      ],
      [
        "7",
        "j"
      ],
      [
        "8",
        "C"
      ],
      [
        "N",
        "s"
      ],
      [
        "X",
        "b"
      ],
      [
        "q",
        "h"
      ],
      [
        "w",
        "M"
      ],
      [
        "y",
        "W"
      ],
      [
        "3",
        "j"
      ],
      [
        "R",
        "f"
      ],
      [
        "n",
        "2"
      ],
      [
        "n",
        "T"
      ],
      [
        "t",
        "E"
      ],
      [
        "x",
        "M"
      ],
      [
        "7",
        "o"
      ],
      [
        "U",
        "c"
      ],
      [
        "e",
        "W"
      ],
      [
        "z",
        "Y"
      ],
      [
        "6",
        "T"
      ],
      [
        "7",
        "W"
      ],
      [
        "8",
        "l"
      ],
      [
        "B",
        "i"
      ],
      [
        "R",
        "o"
      ],
      [
        "X",
        "m"
      ],
      [
        "d",
        "Y"
      ],
      [
        "e",
        "K"
      ],
      [
        "n",
        "C"
      ],
      [
        "q",
        "m"
      ],
      [
        "q",
        "s"
      ],
      [
        "v",
        "u"
      ],
      [
        "w",
        "G"
      ],
      [
        "0",
        "j"
      ],
      [
        "U",
        "V"
      ],
      [
        "U",
        "W"
      ],
      [
        "n",
        "i"
      ],
      [
        "6",
        "c"
      ],
      [
        "8",
        "i"
      ],
      [
        "D",
        "s"
      ],
      [
        "Q",
        "4"
      ],
      [
        "0",
        "C"
      ],
      [
        "1",
        "Z"
      ],
      [
        "7",
        "4"
      ],
      [
        "8",
        "Z"
      ],
      [
        "e",
        "9"
      ],
      [
        "n",
        "F"
      ],
      [
        "3",
        "W"
      ],
      [
        "6",
        "j"
      ],
      [
        "H",
        "g"
      ],
      [
        "J",
        "j"
      ],
      [
        "L",
        "2"
      ],
      [
        "U",
        "f"
      ],
      [
        "k",
        "M"
      ],
      [
        "z",
        "E"
      ],
      [
        "7",
        "f"
      ],
      [
        "8",
        "9"
      ],
      [
        "p",
        "b"
      ],
      [
        "w",
        "b"
      ],
      [
        "x",
        "b"
      ],
      [
        "0",
        "4"
      ],
      [
        "H",
        "s"
      ],
      [
        "I",
        "h"
      ],
      [
        "L",
        "4"
      ],
      [
        "L",
        "j"
      ],
      [
        "L",
        "o"
      ],
      [
        "U",
        "C"
      ],
      [
        "0",
        "Z"
      ],
      [
        "7",
        "V"
      ],
      [
        "8",
        "c"
      ],
      [
        "J",
        "V"
      ],
      [
        "O",
        "u"
      ],
      [
        "t",
        "5"
      ],
      [
        "v",
        "m"
      ],
      [
        "w",
        "h"
      ],
      [
        "1",
        "j"
      ],
      [
        "3",
        "9"
      ],
      [
        "P",
        "K"
      ],
      [
        "U",
        "4"
      ],
      [
        "r",
        "G"
      ],
      [
        "z",
        "g"
      ],
      [
        "0",
        "c"
      ],
      [
        "P",
        "C"
      ],
      [
        "Q",
        "F"
      ],
      [
        "t",
        "s"
      ],
      [
        "A",
        "s"
      ],
      [
        "H",
        "a"
      ],
      [
        "J",
        "C"
      ],
      [
        "J",
        "K"
      ],
      [
        "P",
        "Z"
      ],
      [
        "P",
        "j"
      ],
      [
        "Q",
        "o"
      ],
      [
        "d",
        "5"
      ],
      [
        "x",
        "u"
      ],
      [
        "J",
        "c"
      ],
      [
        "J",
        "o"
      ],
      [
        "L",
        "T"
      ],
      [
        "d",
        "s"
      ],
      [
        "r",
        "E"
      ],
      [
        "D",
        "G"
      ],
      [
        "R",
        "F"
      ],
      [
        "X",
        "5"
      ],
      [
        "r",
        "g"
      ],
      [
        "y",
        "9"
      ],
      [
        "8",
        "T"
      ],
      [
        "R",
        "2"
      ],
      [
        "r",
        "m"
      ],
      [
        "H",
        "m"
      ],
      [
        "N",
        "M"
      ],
      [
        "X",
        "s"
      ],
      [
        "e",
        "i"
      ],
      [
        "r",
        "b"
      ],
      [
        "D",
        "h"
      ],
      [
        "I",
        "b"
      ],
      [
        "S",
        "a"
      ],
      [
        "S",
        "b"
      ],
      [
        "e",
        "Z"
      ],
      [
        "k",
        "b"
      ],
      [
        "0",
        "2"
      ],
      [
        "7",
        "l"
      ],
      [
        "H",
        "O"
      ],
      [
        "e",
        "V"
      ],
      [
        "v",
        "Y"
      ],
      [
        "w",
        "g"
      ],
      [
        "3",
        "4"
      ],
      [
        "6",
        "C"
      ],
      [
        "7",
        "9"
      ],
      [
        "A",
        "5"
      ],
      [
        "I",
        "Y"
      ],
      [
        "N",
        "b"
      ],
      [
        "Q",
        "K"
      ],
      [
        "S",
        "G"
      ],
      [
        "B",
        "F"
      ],
      [
        "H",
        "p"
      ],
      [
        "q",
        "b"
      ],
      [
        "w",
        "O"
      ],
      [
        "0",
        "9"
      ],
      [
        "1",
        "T"
      ],
      [
        "3",
        "c"
      ],
      [
        "J",
        "Z"
      ],
      [
        "S",
        "h"
      ],
      [
        "n",
        "V"
      ],
      [
        "z",
        "b"
      ],
      [
        "7",
        "2"
      ],
      [
        "B",
        "9"
      ],
      [
        "Q",
        "9"
      ],
      [
        "R",
        "Z"
      ],
      [
        "S",
        "M"
      ],
      [
        "d",
        "E"
      ],
      [
        "x",
        "G"
      ],
      [
        "7",
        "C"
      ],
      [
        "H",
        "G"
      ],
      [
        "r",
        "Y"
      ],
      [
        "q",
        "M"
      ],
      [
        "r",
        "O"
      ],
      [
        "y",
        "i"
      ],
      [
        "1",
        "F"
      ],
      [
        "p",
        "s"
      ],
      [
        "v",
        "a"
      ],
      [
        "1",
        "9"
      ],
      [
        "6",
        "o"
      ],
      [
        "R",
        "V"
      ],
      [
        "k",
        "O"
      ],
      [
        "v",
        "s"
      ],
      [
        "w",
        "5"
      ],
      [
        "I",
        "u"
      ],
      [
        "S",
        "m"
      ],
      [
        "X",
        "a"
      ],
      [
        "e",
        "o"
      ],
      [
        "t",
        "h"
      ],
      [
        "H",
        "M"
      ],
      [
        "N",
        "O"
      ],
      [
        "0",
        "V"
      ],
      [
        "3",
        "C"
      ],
      [
        "D",
        "A"
      ],
      [
        "I",
        "m"
      ],
      [
        "J",
        "l"
      ],
      [
        "P",
        "9"
      ],
      [
        "v",
        "b"
      ],
      [
        "6",
        "F"
      ],
      [
        "I",
        "g"
      ],
      [
        "N",
        "5"
      ],
      [
        "R",
        "4"
      ],
      [
        "U",
        "K"
      ],
      [
        "X",
        "Y"
      ],
      [
        "6",
        "9"
      ],
      [
        "7",
        "Z"
      ],
      [
        "D",
        "M"
      ],
      [
        "D",
        "a"
      ],
      [
        "R",
        "W"
      ],
      [
        "k",
        "a"
      ],
      [
        "p",
        "5"
      ],
      [
        "y",
        "2"
      ],
      [
        "3",
        "V"
      ],
      [
        "8",
        "V"
      ],
      [
        "H",
        "h"
      ],
      [
        "I",
        "5"
      ],
      [
        "d",
        "M"
      ],
      [
        "k",
        "g"
      ],
      [
        "z",
        "M"
      ],
      [
        "R",
        "j"
      ],
      [
        "U",
        "j"
      ],
      [
        "t",
        "b"
      ],
      [
        "y",
        "K"
      ],
      [
        "1",
        "V"
      ],
      [
        "D",
        "E"
      ],
      [
        "X",
        "h"
      ],
      [
        "k",
        "h"
      ],
      [
        "k",
        "m"
      ],
      [
        "6",
        "Z"
      ],
      [
        "I",
        "G"
      ],
      [
        "v",
        "h"
      ],
      [
        "8",
        "o"
      ],
      [
        "D",
        "u"
      ],
      [
        "q",
        "A"
      ],
      [
        "6",
        "K"
      ],
      [
        "N",
        "h"
      ],
      [
        "p",
        "G"
      ],
      [
        "I",
        "s"
      ],
      [
        "L",
        "C"
      ],
      [
        "p",
        "Y"
      ],
      [
        "J",
        "2"
      ],
      [
        "e",
        "F"
      ],
      [
        "n",
        "9"
      ],
      [
        "q",
        "a"
      ],
      [
        "v",
        "g"
      ],
      [
        "w",
        "u"
      ],
      [
        "S",
        "Y"
      ],
      [
        "q",
        "5"
      ],
      [
        "q",
        "g"
      ],
      [
        "t",
        "a"
      ],
      [
        "H",
        "b"
      ],
      [
        "S",
        "u"
      ],
      [
        "X",
        "M"
      ],
      [
        "d",
        "m"
      ],
      [
        "q",
        "G"
      ],
      [
        "v",
        "E"
      ],
      [
        "6",
        "V"
      ],
      [
        "S",
        "g"
      ],
      [
        "X",
        "E"
      ],
      [
        "X",
        "O"
      ],
      [
        "z",
        "u"
      ],
      [
        "8",
        "K"
      ],
      [
        "D",
        "5"
      ],
      [
        "D",
        "O"
      ],
      [
        "D",
        "m"
      ],
      [
        "S",
        "s"
      ],
      [
        "d",
        "O"
      ],
      [
        "p",
        "E"
      ],
      [
        "q",
        "E"
      ],
      [
        "t",
        "G"
      ],
      [
        "X",
        "u"
      ],
      [
        "w",
        "E"
      ],
      [
        "0",
        "F"
      ],
      [
        "I",
        "E"
      ],
      [
        "N",
        "Y"
      ],
      [
        "N",
        "a"
      ],
      [
        "X",
        "G"
      ],
      [
        "S",
        "A"
      ],
      [
        "d",
        "g"
      ],
      [
        "k",
        "G"
      ],
      [
        "8",
        "F"
      ],
      [
        "r",
        "h"
      ],
      [
        "v",
        "O"
      ],
      [
        "I",
        "M"
      ],
      [
        "r",
        "5"
      ],
      [
        "r",
        "A"
      ],
      [
        "t",
        "Y"
      ],
      [
        "v",
        "G"
      ],
      [
        "y",
        "V"
      ],
      [
        "q",
        "O"
      ],
      [
        "r",
        "M"
      ],
      [
        "w",
        "m"
      ],
      [
        "x",
        "E"
      ],
      [
        "x",
        "m"
      ],
      [
        "v",
        "M"
      ],
      [
        "z",
        "h"
      ],
      [
        "z",
        "m"
      ],
      [
        "d",
        "u"
      ],
      [
        "k",
        "E"
      ],
      [
        "0",
        "K"
      ],
      [
        "D",
        "b"
      ],
      [
        "R",
        "9"
      ],
      [
        "H",
        "Y"
      ],
      [
        "r",
        "u"
      ],
      [
        "D",
        "Y"
      ],
      [
        "R",
        "C"
      ],
      [
        "r",
        "a"
      ],
      [
        "t",
        "p"
      ],
      [
        "t",
        "g"
      ],
      [
        "v",
        "5"
      ],
      [
        "X",
        "g"
      ],
      [
        "w",
        "Y"
      ],
      [
        "z",
        "a"
      ],
      [
        "N",
        "m"
      ],
      [
        "X",
        "A"
      ],
      [
        "d",
        "A"
      ],
      [
        "d",
        "a"
      ],
      [
        "v",
        "A"
      ],
      [
        "x",
        "Y"
      ],
      [
        "t",
        "m"
      ],
      [
        "x",
        "5"
      ],
      [
        "N",
        "u"
      ],
      [
        "H",
        "A"
      ],
      [
        "z",
        "A"
      ],
      [
        "I",
        "O"
      ],
      [
        "t",
        "A"
      ],
      [
        "w",
        "A"
      ],
      [
        "p",
        "m"
      ],
      [
        "w",
        "a"
      ],
      [
        "N",
        "A"
      ],
      [
        "k",
        "A"
      ],
      [
        "p",
        "a"
      ],
      [
        "x",
        "h"
      ],
      [
        "I",
        "A"
      ],
      [
        "d",
        "h"
      ],
      [
        "D",
        "g"
      ],
      [
        "I",
        "a"
      ],
      [
        "p",
        "u"
      ],
      [
        "p",
        "g"
      ],
      [
        "z",
        "O"
      ],
      [
        "t",
        "O"
      ],
      [
        "S",
        "O"
      ],
      [
        "p",
        "O"
      ],
      [
        "0",
        "e"
      ],
      [
        "H",
        "E"
      ],
      [
        "f",
        "l"
      ],
      [
        "7",
        "L"
      ],
      [
        "N",
        "E"
      ],
      [
        "N",
        "G"
      ],
      [
        "J",
        "Q"
      ],
      [
        "U",
        "Q"
      ],
      [
        "n",
        "1"
      ],
      [
        "7",
        "y"
      ],
      [
        "C",
        "T"
      ],
      [
        "p",
        "A"
      ],
      [
        "L",
        "P"
      ],
      [
        "K",
        "l"
      ],
      [
        "x",
        "A"
      ],
      [
        "0",
        "1"
      ],
      [
        "J",
        "1"
      ],
      [
        "B",
        "e"
      ],
      [
        "p",
        "h"
      ],
      [
        "6",
        "P"
      ],
      [
        "V",
        "W"
      ],
      [
        "j",
        "T"
      ],
      [
        "r",
        "k"
      ],
      [
        "n",
        "R"
      ],
      [
        "4",
        "c"
      ],
      [
        "f",
        "T"
      ],
      [
        "q",
        "S"
      ],
      [
        "0",
        "3"
      ],
      [
        "W",
        "l"
      ],
      [
        "y",
        "y"
      ],
      [
        "H",
        "x"
      ],
      [
        "2",
        "2"
      ],
      [
        "J",
        "R"
      ],
      [
        "n",
        "L"
      ],
      [
        "X",
        "N"
      ],
      [
        "f",
        "F"
      ],
      [
        "q",
        "r"
      ],
      [
        "v",
        "k"
      ],
      [
        "6",
        "Q"
      ],
      [
        "J",
        "e"
      ],
      [
        "f",
        "o"
      ],
      [
        "z",
        "w"
      ],
      [
        "B",
        "3"
      ],
      [
        "d",
        "w"
      ],
      [
        "j",
        "l"
      ],
      [
        "K",
        "F"
      ],
      [
        "K",
        "T"
      ],
      [
        "K",
        "o"
      ],
      [
        "f",
        "2"
      ],
      [
        "0",
        "R"
      ],
      [
        "B",
        "8"
      ],
      [
        "J",
        "P"
      ],
      [
        "V",
        "9"
      ],
      [
        "v",
        "D"
      ],
      [
        "C",
        "c"
      ],
      [
        "Z",
        "c"
      ],
      [
        "j",
        "F"
      ],
      [
        "v",
        "p"
      ],
      [
        "4",
        "2"
      ],
      [
        "t",
        "w"
      ],
      [
        "z",
        "p"
      ],
      [
        "6",
        "e"
      ],
      [
        "J",
        "3"
      ],
      [
        "X",
        "w"
      ],
      [
        "n",
        "P"
      ],
      [
        "4",
        "T"
      ],
      [
        "b",
        "5"
      ],
      [
        "N",
        "k"
      ],
      [
        "f",
        "i"
      ],
      [
        "0",
        "y"
      ],
      [
        "K",
        "W"
      ],
      [
        "K",
        "c"
      ],
      [
        "Q",
        "R"
      ],
      [
        "Y",
        "s"
      ],
      [
        "f",
        "c"
      ],
      [
        "j",
        "2"
      ],
      [
        "j",
        "o"
      ],
      [
        "r",
        "w"
      ],
      [
        "0",
        "8"
      ],
      [
        "1",
        "3"
      ],
      [
        "I",
        "I"
      ],
      [
        "K",
        "9"
      ],
      [
        "Y",
        "h"
      ],
      [
        "l",
        "T"
      ],
      [
        "r",
        "S"
      ],
      [
        "0",
        "L"
      ],
      [
        "B",
        "y"
      ],
      [
        "K",
        "V"
      ],
      [
        "Z",
        "F"
      ],
      [
        "G",
        "u"
      ],
      [
        "X",
        "S"
      ],
      [
        "n",
        "U"
      ],
      [
        "r",
        "D"
      ],
      [
        "v",
        "w"
      ],
      [
        "6",
        "8"
      ],
      [
        "Z",
        "i"
      ],
      [
        "C",
        "V"
      ],
      [
        "J",
        "L"
      ],
      [
        "X",
        "d"
      ],
      [
        "Y",
        "M"
      ],
      [
        "q",
        "d"
      ],
      [
        "Z",
        "W"
      ],
      [
        "z",
        "x"
      ],
      [
        "0",
        "7"
      ],
      [
        "H",
        "D"
      ],
      [
        "O",
        "g"
      ],
      [
        "n",
        "y"
      ],
      [
        "B",
        "R"
      ],
      [
        "E",
        "M"
      ],
      [
        "v",
        "I"
      ],
      [
        "7",
        "e"
      ],
      [
        "P",
        "P"
      ],
      [
        "Z",
        "V"
      ],
      [
        "f",
        "9"
      ],
      [
        "z",
        "I"
      ],
      [
        "U",
        "y"
      ],
      [
        "Z",
        "T"
      ],
      [
        "a",
        "M"
      ],
      [
        "r",
        "q"
      ],
      [
        "E",
        "u"
      ],
      [
        "K",
        "2"
      ],
      [
        "X",
        "x"
      ],
      [
        "j",
        "c"
      ],
      [
        "C",
        "4"
      ],
      [
        "C",
        "W"
      ],
      [
        "Q",
        "e"
      ],
      [
        "n",
        "8"
      ],
      [
        "G",
        "M"
      ],
      [
        "N",
        "t"
      ],
      [
        "1",
        "R"
      ],
      [
        "j",
        "i"
      ],
      [
        "r",
        "x"
      ],
      [
        "Q",
        "L"
      ],
      [
        "E",
        "h"
      ],
      [
        "U",
        "3"
      ],
      [
        "m",
        "b"
      ],
      [
        "r",
        "p"
      ],
      [
        "6",
        "3"
      ],
      [
        "X",
        "I"
      ],
      [
        "0",
        "P"
      ],
      [
        "E",
        "5"
      ],
      [
        "G",
        "G"
      ],
      [
        "H",
        "S"
      ],
      [
        "H",
        "d"
      ],
      [
        "Y",
        "u"
      ],
      [
        "j",
        "W"
      ],
      [
        "o",
        "i"
      ],
      [
        "q",
        "p"
      ],
      [
        "6",
        "R"
      ],
      [
        "B",
        "L"
      ],
      [
        "O",
        "5"
      ],
      [
        "a",
        "5"
      ],
      [
        "g",
        "s"
      ],
      [
        "N",
        "D"
      ],
      [
        "F",
        "2"
      ],
      [
        "o",
        "2"
      ],
      [
        "z",
        "d"
      ],
      [
        "U",
        "U"
      ],
      [
        "t",
        "I"
      ],
      [
        "4",
        "l"
      ],
      [
        "o",
        "c"
      ],
      [
        "v",
        "x"
      ],
      [
        "Q",
        "3"
      ],
      [
        "Y",
        "5"
      ],
      [
        "f",
        "W"
      ],
      [
        "g",
        "A"
      ],
      [
        "0",
        "n"
      ],
      [
        "C",
        "l"
      ],
      [
        "G",
        "b"
      ],
      [
        "9",
        "2"
      ],
      [
        "Z",
        "l"
      ],
      [
        "o",
        "W"
      ],
      [
        "r",
        "d"
      ],
      [
        "C",
        "F"
      ],
      [
        "H",
        "k"
      ],
      [
        "T",
        "T"
      ],
      [
        "V",
        "2"
      ],
      [
        "q",
        "I"
      ],
      [
        "t",
        "d"
      ],
      [
        "z",
        "N"
      ],
      [
        "9",
        "c"
      ],
      [
        "O",
        "M"
      ],
      [
        "Z",
        "2"
      ],
      [
        "t",
        "x"
      ],
      [
        "4",
        "i"
      ],
      [
        "6",
        "L"
      ],
      [
        "S",
        "D"
      ],
      [
        "V",
        "i"
      ],
      [
        "g",
        "u"
      ],
      [
        "1",
        "1"
      ],
      [
        "J",
        "7"
      ],
      [
        "n",
        "3"
      ],
      [
        "s",
        "5"
      ],
      [
        "4",
        "F"
      ],
      [
        "C",
        "i"
      ],
      [
        "O",
        "b"
      ],
      [
        "U",
        "L"
      ],
      [
        "y",
        "8"
      ],
      [
        "H",
        "N"
      ],
      [
        "o",
        "l"
      ],
      [
        "v",
        "S"
      ],
      [
        "6",
        "1"
      ],
      [
        "y",
        "e"
      ],
      [
        "V",
        "l"
      ],
      [
        "X",
        "D"
      ],
      [
        "h",
        "M"
      ],
      [
        "q",
        "D"
      ],
      [
        "z",
        "D"
      ],
      [
        "B",
        "U"
      ],
      [
        "Y",
        "a"
      ],
      [
        "k",
        "w"
      ],
      [
        "B",
        "P"
      ],
      [
        "J",
        "n"
      ],
      [
        "9",
        "F"
      ],
      [
        "m",
        "u"
      ],
      [
        "p",
        "x"
      ],
      [
        "E",
        "b"
      ],
      [
        "v",
        "N"
      ],
      [
        "y",
        "3"
      ],
      [
        "8",
        "R"
      ],
      [
        "E",
        "G"
      ],
      [
        "k",
        "I"
      ],
      [
        "C",
        "2"
      ],
      [
        "X",
        "z"
      ],
      [
        "g",
        "M"
      ],
      [
        "A",
        "a"
      ],
      [
        "S",
        "d"
      ],
      [
        "s",
        "M"
      ],
      [
        "A",
        "M"
      ],
      [
        "Q",
        "P"
      ],
      [
        "g",
        "g"
      ],
      [
        "q",
        "w"
      ],
      [
        "L",
        "3"
      ],
      [
        "T",
        "W"
      ],
      [
        "k",
        "x"
      ],
      [
        "z",
        "t"
      ],
      [
        "8",
        "3"
      ],
      [
        "e",
        "R"
      ],
      [
        "4",
        "W"
      ],
      [
        "F",
        "i"
      ],
      [
        "H",
        "w"
      ],
      [
        "S",
        "x"
      ],
      [
        "y",
        "P"
      ],
      [
        "J",
        "6"
      ],
      [
        "j",
        "V"
      ],
      [
        "n",
        "7"
      ],
      [
        "q",
        "x"
      ],
      [
        "r",
        "N"
      ],
      [
        "9",
        "l"
      ],
      [
        "J",
        "U"
      ],
      [
        "Q",
        "1"
      ],
      [
        "y",
        "R"
      ],
      [
        "0",
        "U"
      ],
      [
        "K",
        "K"
      ],
      [
        "S",
        "I"
      ],
      [
        "Y",
        "m"
      ],
      [
        "g",
        "5"
      ],
      [
        "A",
        "h"
      ],
      [
        "X",
        "p"
      ],
      [
        "B",
        "7"
      ],
      [
        "o",
        "o"
      ],
      [
        "t",
        "D"
      ],
      [
        "Q",
        "8"
      ],
      [
        "T",
        "F"
      ],
      [
        "a",
        "b"
      ],
      [
        "T",
        "l"
      ],
      [
        "j",
        "Z"
      ],
      [
        "k",
        "p"
      ],
      [
        "Q",
        "7"
      ],
      [
        "v",
        "d"
      ],
      [
        "f",
        "V"
      ],
      [
        "u",
        "M"
      ],
      [
        "L",
        "R"
      ],
      [
        "s",
        "G"
      ],
      [
        "L",
        "1"
      ],
      [
        "L",
        "7"
      ],
      [
        "O",
        "G"
      ],
      [
        "X",
        "X"
      ],
      [
        "a",
        "h"
      ],
      [
        "e",
        "3"
      ],
      [
        "6",
        "U"
      ],
      [
        "k",
        "N"
      ],
      [
        "5",
        "u"
      ],
      [
        "9",
        "V"
      ],
      [
        "A",
        "G"
      ],
      [
        "H",
        "q"
      ],
      [
        "a",
        "G"
      ],
      [
        "o",
        "F"
      ],
      [
        "B",
        "1"
      ],
      [
        "g",
        "h"
      ],
      [
        "o",
        "V"
      ],
      [
        "w",
        "x"
      ],
      [
        "C",
        "C"
      ],
      [
        "m",
        "M"
      ],
      [
        "5",
        "M"
      ],
      [
        "k",
        "d"
      ],
      [
        "B",
        "n"
      ],
      [
        "S",
        "p"
      ],
      [
        "Y",
        "G"
      ],
      [
        "A",
        "b"
      ],
      [
        "j",
        "K"
      ],
      [
        "t",
        "N"
      ],
      [
        "Q",
        "n"
      ],
      [
        "Z",
        "4"
      ],
      [
        "q",
        "q"
      ],
      [
        "8",
        "n"
      ],
      [
        "H",
        "r"
      ],
      [
        "R",
        "R"
      ],
      [
        "a",
        "Y"
      ],
      [
        "i",
        "l"
      ],
      [
        "2",
        "c"
      ],
      [
        "6",
        "7"
      ],
      [
        "I",
        "D"
      ],
      [
        "a",
        "u"
      ],
      [
        "e",
        "1"
      ],
      [
        "Q",
        "Q"
      ],
      [
        "T",
        "c"
      ],
      [
        "g",
        "E"
      ],
      [
        "s",
        "b"
      ],
      [
        "s",
        "m"
      ],
      [
        "f",
        "f"
      ],
      [
        "N",
        "x"
      ],
      [
        "O",
        "E"
      ],
      [
        "p",
        "p"
      ],
      [
        "5",
        "b"
      ],
      [
        "S",
        "w"
      ],
      [
        "X",
        "q"
      ],
      [
        "g",
        "b"
      ],
      [
        "i",
        "W"
      ],
      [
        "y",
        "7"
      ],
      [
        "9",
        "W"
      ],
      [
        "D",
        "d"
      ],
      [
        "Y",
        "b"
      ],
      [
        "t",
        "t"
      ],
      [
        "v",
        "z"
      ],
      [
        "A",
        "u"
      ],
      [
        "K",
        "4"
      ],
      [
        "K",
        "C"
      ],
      [
        "g",
        "G"
      ],
      [
        "r",
        "z"
      ],
      [
        "B",
        "B"
      ],
      [
        "I",
        "x"
      ],
      [
        "p",
        "d"
      ],
      [
        "s",
        "h"
      ],
      [
        "8",
        "1"
      ],
      [
        "R",
        "P"
      ],
      [
        "U",
        "P"
      ],
      [
        "c",
        "c"
      ],
      [
        "v",
        "q"
      ],
      [
        "v",
        "t"
      ],
      [
        "N",
        "d"
      ],
      [
        "v",
        "r"
      ],
      [
        "A",
        "m"
      ],
      [
        "u",
        "G"
      ],
      [
        "H",
        "z"
      ],
      [
        "O",
        "m"
      ],
      [
        "a",
        "E"
      ],
      [
        "w",
        "D"
      ],
      [
        "3",
        "3"
      ],
      [
        "I",
        "d"
      ],
      [
        "L",
        "e"
      ],
      [
        "V",
        "F"
      ],
      [
        "Y",
        "E"
      ],
      [
        "s",
        "s"
      ],
      [
        "H",
        "X"
      ],
      [
        "U",
        "1"
      ],
      [
        "j",
        "9"
      ],
      [
        "e",
        "7"
      ],
      [
        "i",
        "i"
      ],
      [
        "5",
        "h"
      ],
      [
        "H",
        "t"
      ],
      [
        "J",
        "J"
      ],
      [
        "o",
        "9"
      ],
      [
        "6",
        "y"
      ],
      [
        "K",
        "f"
      ],
      [
        "R",
        "1"
      ],
      [
        "V",
        "T"
      ],
      [
        "X",
        "t"
      ],
      [
        "o",
        "f"
      ],
      [
        "w",
        "w"
      ],
      [
        "8",
        "8"
      ],
      [
        "O",
        "h"
      ],
      [
        "g",
        "m"
      ],
      [
        "7",
        "1"
      ],
      [
        "j",
        "4"
      ],
      [
        "i",
        "2"
      ],
      [
        "I",
        "p"
      ],
      [
        "L",
        "8"
      ],
      [
        "Q",
        "U"
      ],
      [
        "0",
        "6"
      ],
      [
        "N",
        "N"
      ],
      [
        "S",
        "S"
      ],
      [
        "T",
        "C"
      ],
      [
        "Z",
        "Z"
      ],
      [
        "k",
        "X"
      ],
      [
        "v",
        "X"
      ],
      [
        "z",
        "z"
      ],
      [
        "Q",
        "y"
      ],
      [
        "j",
        "f"
      ],
      [
        "n",
        "e"
      ],
      [
        "7",
        "P"
      ],
      [
        "i",
        "c"
      ],
      [
        "n",
        "J"
      ],
      [
        "k",
        "t"
      ],
      [
        "l",
        "2"
      ],
      [
        "z",
        "r"
      ],
      [
        "O",
        "Y"
      ],
      [
        "O",
        "a"
      ],
      [
        "h",
        "m"
      ],
      [
        "k",
        "S"
      ],
      [
        "L",
        "0"
      ],
      [
        "Q",
        "6"
      ],
      [
        "W",
        "F"
      ],
      [
        "5",
        "G"
      ],
      [
        "I",
        "w"
      ],
      [
        "P",
        "3"
      ],
      [
        "7",
        "R"
      ],
      [
        "9",
        "9"
      ],
      [
        "D",
        "D"
      ],
      [
        "b",
        "M"
      ],
      [
        "n",
        "6"
      ],
      [
        "o",
        "4"
      ],
      [
        "q",
        "t"
      ],
      [
        "x",
        "w"
      ],
      [
        "A",
        "g"
      ],
      [
        "W",
        "c"
      ],
      [
        "Z",
        "f"
      ],
      [
        "j",
        "8"
      ],
      [
        "y",
        "1"
      ],
      [
        "B",
        "6"
      ],
      [
        "B",
        "Q"
      ],
      [
        "B",
        "J"
      ],
      [
        "O",
        "s"
      ],
      [
        "u",
        "u"
      ],
      [
        "b",
        "b"
      ],
      [
        "v",
        "H"
      ],
      [
        "e",
        "e"
      ],
      [
        "i",
        "4"
      ],
      [
        "E",
        "m"
      ],
      [
        "h",
        "G"
      ],
      [
        "F",
        "4"
      ],
      [
        "F",
        "l"
      ],
      [
        "T",
        "V"
      ],
      [
        "z",
        "q"
      ],
      [
        "2",
        "4"
      ],
      [
        "R",
        "3"
      ],
      [
        "U",
        "7"
      ],
      [
        "d",
        "d"
      ],
      [
        "k",
        "H"
      ],
      [
        "r",
        "X"
      ],
      [
        "0",
        "0"
      ],
      [
        "j",
        "C"
      ],
      [
        "x",
        "S"
      ],
      [
        "y",
        "J"
      ],
      [
        "k",
        "q"
      ],
      [
        "3",
        "L"
      ],
      [
        "s",
        "A"
      ],
      [
        "2",
        "W"
      ],
      [
        "T",
        "f"
      ],
      [
        "U",
        "e"
      ],
      [
        "Y",
        "A"
      ],
      [
        "g",
        "a"
      ],
      [
        "8",
        "P"
      ],
      [
        "T",
        "4"
      ],
      [
        "l",
        "c"
      ],
      [
        "0",
        "J"
      ],
      [
        "I",
        "t"
      ],
      [
        "N",
        "w"
      ],
      [
        "5",
        "E"
      ],
      [
        "O",
        "A"
      ],
      [
        "T",
        "9"
      ],
      [
        "o",
        "K"
      ],
      [
        "N",
        "z"
      ],
      [
        "O",
        "w"
      ],
      [
        "n",
        "n"
      ],
      [
        "o",
        "C"
      ],
      [
        "r",
        "v"
      ],
      [
        "8",
        "e"
      ],
      [
        "M",
        "u"
      ],
      [
        "p",
        "D"
      ],
      [
        "s",
        "Y"
      ],
      [
        "2",
        "F"
      ],
      [
        "8",
        "L"
      ],
      [
        "l",
        "F"
      ],
      [
        "4",
        "V"
      ],
      [
        "C",
        "f"
      ],
      [
        "r",
        "I"
      ],
      [
        "s",
        "a"
      ],
      [
        "D",
        "x"
      ],
      [
        "P",
        "1"
      ],
      [
        "b",
        "G"
      ],
      [
        "o",
        "3"
      ],
      [
        "y",
        "L"
      ],
      [
        "8",
        "7"
      ],
      [
        "H",
        "H"
      ],
      [
        "P",
        "e"
      ],
      [
        "S",
        "t"
      ],
      [
        "Z",
        "9"
      ],
      [
        "Z",
        "K"
      ]
    ]
  }
}