{
  "version": "1.0",
  "truncation": null,
  "padding": null,
  "added_tokens": [
    {
      "id": 0,
      "content": "[PAD]",
      "single_word": false,
      "lstrip": false,
      "rstrip": false,
      "normalized": false,
      "special": true
    },
    {
      "id": 1,
      "content": "[UNK]",
      "single_word": false,
      "lstrip": false,
      "rstrip": false,
      "normalized": false,
      "special": true
    },
    {
      "id": 2,
      "content": "[CLS]",
      "single_word": false,
      "lstrip": false,
      "rstrip": false,
      "normalized": false,
      "special": true
    },
    {
      "id": 3,
      "content": "[SEP]",
      "single_word": false,
      "lstrip": false,
      "rstrip": false,
      "normalized": false,
      "special": true
    },
    {
      "id": 4,
      "content": "[MASK]",
      "single_word": false,
      "lstrip": false,
      "rstrip": false,
      "normalized": false,
      "special": true
    }
  ],
  "normalizer": {
    "type": "NFKC"
  },
  "pre_tokenizer": {
    "type": "Whitespace"
  },
  "post_processor": null,
  "decoder": null,
  "model": {
    "type": "WordPiece",
    "unk_token": "[UNK]",
    "continuing_subword_prefix": "##",
    "max_input_chars_per_word": 100,
    "vocab": {
      "[PAD]": 0,
      "[UNK]": 1,
      "[CLS]": 2,
      "[SEP]": 3,
      "[MASK]": 4,
      "&": 5,
      "(": 6,
      ")": 7,
      "-": 8,
      ".": 9,
      "0": 10,
      "1": 11,
      "2": 12,
      "3": 13,
      "4": 14,
      "5": 15,
      "6": 16,
      "7": 17,
      "8": 18,
      "9": 19,
      "<": 20,
      "=": 21,
      ">": 22,
      "A": 23,
      "B": 24,
      "C": 25,
      "D": 26,
      "E": 27,
      "F": 28,
      "G": 29,
      "H": 30,
      "I": 31,
      "J": 32,
      "L": 33,
      "M": 34,
      "N": 35,
      "O": 36,
      "P": 37,
      "R": 38,
      "S": 39,
      "T": 40,
      "U": 41,
      "V": 42,
      "W": 43,
      "Y": 44,
      "a": 45,
      "b": 46,
      "c": 47,
      "d": 48,
      "e": 49,
      "f": 50,
      "g": 51,
      "h": 52,
      "i": 53,
      "k": 54,
      "l": 55,
      "m": 56,
      "n": 57,
      "o": 58,
      "p": 59,
      "r": 60,
      "s": 61,
      "t": 62,
      "u": 63,
      "v": 64,
      "w": 65,
      "x": 66,
      "y": 67,
      "##0": 68,
      "##7": 69,
      "##8": 70,
      "##5": 71,
      "##6": 72,
      "##1": 73,
      "##2": 74,
      "##3": 75,
      "##4": 76,
      "##9": 77,
      "##t": 78,
      "##h": 79,
      "##i": 80,
      "##f": 81,
      "##e": 82,
      "##l": 83,
      "##s": 84,
      "##k": 85,
      "##m": 86,
      "##o": 87,
      "##u": 88,
      "##r": 89,
      "##p": 90,
      "##w": 91,
      "##c": 92,
      "##n": 93,
      "##g": 94,
      "##x": 95,
      "##a": 96,
      "##F": 97,
      "##d": 98,
      "##y": 99,
      "##v": 100,
      "##<": 101,
      "##b": 102,
      "##E": 103,
      "##C": 104,
      "##S": 105,
      "##V": 106,
      "##I": 107,
      "##N": 108,
      "##D": 109,
      "##U": 110,
      "##L": 111,
      "##P": 112,
      "SE": 113,
      "SEP": 114,
      "##at": 115,
      "##ati": 116,
      "##it": 117,
      "##al": 118,
      "##on": 119,
      "##ation": 120,
      "##ital": 121,
      "##ou": 122,
      "##ss": 123,
      "##er": 124,
      "##ed": 125,
      "##ap": 126,
      "##du": 127,
      "cap": 128,
      "edu": 129,
      "##cation": 130,
      "capital": 131,
      "education": 132,
      "##ar": 133,
      "##tat": 134,
      "##ri": 135,
      "##us": 136,
      "##or": 137,
      "##ac": 138,
      "mar": 139,
      "##el": 140,
      "##hi": 141,
      "##ge": 142,
      "##ai": 143,
      "##ale": 144,
      "##sp": 145,
      "##ve": 146,
      "##la": 147,
      "##shi": 148,
      "rel": 149,
      "##ative": 150,
      "##up": 151,
      "##ex": 152,
      "##nt": 153,
      "hou": 154,
      "Un": 155,
      "##um": 156,
      "##ee": 157,
      "wor": 158,
      "work": 159,
      "EN": 160,
      "RE": 161,
      "age": 162,
      "cou": 163,
      "fn": 164,
      "native": 165,
      "num": 166,
      "oc": 167,
      "rac": 168,
      "stat": 169,
      "sex": 170,
      "##lo": 171,
      "##lw": 172,
      "##ry": 173,
      "##rsp": 174,
      "##wee": 175,
      "##cla": 176,
      "##cup": 177,
      "##gt": 178,
      "##gai": 179,
      "##ationshi": 180,
      "##erwee": 181,
      "capitallo": 182,
      "capitalgai": 183,
      "marital": 184,
      "relationshi": 185,
      "##ntry": 186,
      "hoursp": 187,
      "workcla": 188,
      "END": 189,
      "REC": 190,
      "country": 191,
      "fnlw": 192,
      "occup": 193,
      "race": 194,
      "status": 195,
      "##erweek": 196,
      "capitalloss": 197,
      "capitalgain": 198,
      "relationship": 199,
      "hoursperweek": 200,
      "workclass": 201,
      "fnlwgt": 202,
      "occupation": 203,
      "Stat": 204,
      "State": 205,
      "##ried": 206,
      "##ited": 207,
      "United": 208,
      "States": 209,
      "Wh": 210,
      "##ite": 211,
      "White": 212,
      "##an": 213,
      "##ate": 214,
      "Pri": 215,
      "Priv": 216,
      "Private": 217,
      "Male": 218,
      "sp": 219,
      "##iv": 220,
      "##arried": 221,
      "##se": 222,
      "Married": 223,
      "##ouse": 224,
      "spouse": 225,
      "civ": 226,
      "##and": 227,
      "##ra": 228,
      "in": 229,
      "Hus": 230,
      "##band": 231,
      "Husband": 232,
      "##ot": 233,
      "Fe": 234,
      "##male": 235,
      "Female": 236,
      "Ne": 237,
      "##ver": 238,
      "Never": 239,
      "married": 240,
      "HS": 241,
      "gra": 242,
      "grad": 243,
      "##ec": 244,
      "##th": 245,
      "10": 246,
      "##mi": 247,
      "##le": 248,
      "##ly": 249,
      "Not": 250,
      "fa": 251,
      "##mily": 252,
      "family": 253,
      "##ial": 254,
      "##ol": 255,
      "##ic": 256,
      "So": 257,
      "col": 258,
      "##me": 259,
      "##lege": 260,
      "Some": 261,
      "college": 262,
      "13": 263,
      "##oc": 264,
      "##ov": 265,
      "Pr": 266,
      "Bac": 267,
      "##hel": 268,
      "##ors": 269,
      "Bachel": 270,
      "Bachelors": 271,
      "##hil": 272,
      "##ep": 273,
      "##ler": 274,
      "Ow": 275,
      "chil": 276,
      "Own": 277,
      "child": 278,
      "##dm": 279,
      "##of": 280,
      "Prof": 281,
      "##ther": 282,
      "Other": 283,
      "##orc": 284,
      "Div": 285,
      "##orced": 286,
      "Divorced": 287,
      "gov": 288,
      "=<": 289,
      "NU": 290,
      "##LL": 291,
      "NULL": 292,
      "##ana": 293,
      "##ty": 294,
      "spec": 295,
      "##ialty": 296,
      "specialty": 297,
      "Cra": 298,
      "rep": 299,
      "##ft": 300,
      "##air": 301,
      "Craft": 302,
      "repair": 303,
      "11": 304,
      "ser": 305,
      "serv": 306,
      "Ex": 307,
      "mana": 308,
      "##ger": 309,
      "Exec": 310,
      "manager": 311,
      "managerial": 312,
      "##ng": 313,
      "Adm": 314,
      "cler": 315,
      "##ical": 316,
      "clerical": 317,
      "Sel": 318,
      "em": 319,
      "inc": 320,
      "Self": 321,
      "emp": 322,
      "Sale": 323,
      "Sales": 324,
      "##married": 325,
      "Unmarried": 326,
      "##ice": 327,
      "service": 328,
      "##ers": 329,
      "Bl": 330,
      "##ack": 331,
      "Black": 332,
      "14": 333,
      "12": 334,
      "##ort": 335,
      "not": 336,
      "Wi": 337,
      "Ass": 338,
      "Assoc": 339,
      "##ne": 340,
      "Loc": 341,
      "Local": 342,
      "Mac": 343,
      "op": 344,
      "##ct": 345,
      "##hine": 346,
      "##spct": 347,
      "inspct": 348,
      "Machine": 349,
      "##st": 350,
      "16": 351,
      "18": 352,
      "15": 353,
      "19": 354,
      "Ma": 355,
      "##sters": 356,
      "Masters": 357,
      "17": 358,
      "##ran": 359,
      "##nd": 360,
      "##ing": 361,
      "Tran": 362,
      "mov": 363,
      "##sport": 364,
      "Transport": 365,
      "moving": 366,
      "##fe": 367,
      "Wife": 368,
      "20": 369,
      "Hand": 370,
      "cle": 371,
      "##aners": 372,
      "##lers": 373,
      "Handlers": 374,
      "cleaners": 375,
      "voc": 376,
      "##ian": 377,
      "##91": 378,
      "11th": 379,
      "##30": 380,
      "##land": 381,
      "##68": 382,
      "##21": 383,
      "21": 384,
      "##78": 385,
      "##54": 386,
      "##24": 387,
      "##58": 388,
      "##38": 389,
      "##28": 390,
      "##61": 391,
      "##20": 392,
      "##64": 393,
      "##31": 394,
      "ac": 395,
      "acdm": 396,
      "##90": 397,
      "##51": 398,
      "##34": 399,
      "##60": 400,
      "##94": 401,
      "##27": 402,
      "##98": 403,
      "Sep": 404,
      "##ated": 405,
      "##arated": 406,
      "Separated": 407,
      "Far": 408,
      "fi": 409,
      "##shing": 410,
      "##ming": 411,
      "Farming": 412,
      "fishing": 413,
      "##37": 414,
      "As": 415,
      "Is": 416,
      "Pac": 417,
      "##lander": 418,
      "Asian": 419,
      "Islander": 420,
      "##50": 421,
      "##ow": 422,
      "##dow": 423,
      "Widow": 424,
      "Widowed": 425,
      "relative": 426,
      "##67": 427,
      "Tec": 428,
      "sup": 429,
      "##57": 430,
      "##port": 431,
      "Tech": 432,
      "support": 433,
      "Fed": 434,
      "##eral": 435,
      "Federal": 436,
      "10th": 437,
      "##97": 438,
      "24": 439,
      "##26": 440,
      "##ico": 441,
      "##56": 442,
      "##53": 443,
      "##59": 444,
      "##29": 445,
      "##11": 446,
      "##74": 447,
      "##23": 448,
      "##ti": 449,
      "##otec": 450,
      "Protec": 451,
      "##tive": 452,
      "Protective": 453,
      "##70": 454,
      "7th": 455,
      "8th": 456,
      "##ho": 457,
      "##cho": 458,
      "##chool": 459,
      "Mex": 460,
      "Mexico": 461,
      "##63": 462,
      "28": 463,
      "##01": 464,
      "##69": 465,
      "##71": 466,
      "##41": 467,
      "school": 468,
      "##33": 469,
      "##22": 470,
      "##08": 471,
      "##48": 472,
      "##66": 473,
      "##55": 474,
      "9th": 475,
      "##77": 476,
      "##39": 477,
      "##04": 478,
      "34": 479,
      "##99": 480,
      "##25": 481,
      "31": 482,
      "##88": 483,
      "##00": 484,
      "12th": 485,
      "ab": 486,
      "##sent": 487,
      "absent": 488,
      "Ind": 489,
      "Doc": 490,
      "##tor": 491,
      "Doctor": 492,
      "Doctorate": 493,
      "##36": 494,
      "##81": 495,
      "##79": 496,
      "##44": 497,
      "##52": 498,
      "##76": 499,
      "30": 500,
      "##96": 501,
      "##32": 502,
      "5th": 503,
      "6th": 504,
      "##40": 505,
      "##35": 506,
      "Am": 507,
      "Es": 508,
      "##im": 509,
      "##kim": 510,
      "Indian": 511
    }
  }
}