{
  "[PAD]": 0,
  "[UNK]": 1,
  "[CLS]": 2,
  "[SEP]": 3,
  "[MASK]": 4,
  "<END>": 5,
  "<ESC_EQ>": 6,
  "<ID_LONG>": 7,
  "<NULL>": 8,
  "<NUM_LONG>": 9,
  "<REC>": 10,
  "<SEP>": 11,
  "=": 12,
  "e": 13,
  "t": 14,
  "o": 15,
  "a": 16,
  "E": 17,
  "n": 18,
  "c": 19,
  "i": 20,
  "C": 21,
  ">": 22,
  "<": 23,
  "l": 24,
  "S": 25,
  "_": 26,
  "-": 27,
  "r": 28,
  "/": 29,
  "p": 30,
  "L": 31,
  "Q": 32,
  "ES": 33,
  "SC": 34,
  "<E": 35,
  "<ES": 36,
  "<ESC": 37,
  "<ESC_": 38,
  "<ESC_E": 39,
  "<ESC_EQ": 40,
  "ESC": 41,
  "ESC_": 42,
  "ESC_E": 43,
  "ESC_EQ": 44,
  "ESC_EQ>": 45,
  "SC_": 46,
  "SC_E": 47,
  "SC_EQ": 48,
  "SC_EQ>": 49,
  "C_": 50,
  "C_E": 51,
  "C_EQ": 52,
  "C_EQ>": 53,
  "_E": 54,
  "_EQ": 55,
  "_EQ>": 56,
  "EQ": 57,
  "EQ>": 58,
  "Q>": 59,
  ".": 60,
  "s": 61,
  "h": 62,
  "m": 63,
  "g": 64,
  "0": 65,
  "on": 66,
  "N": 67,
  "u": 68,
  ";": 69,
  "T": 70,
  "x": 71,
  "d": 72,
  "nt": 73,
  ",": 74,
  "en": 75,
  "G": 76,
  "5": 77,
  "8": 78,
  "I": 79,
  "O": 80,
  "U": 81,
  "q": 82,
  "H": 83,
  "t-": 84,
  "D": 85,
  "ca": 86,
  "ti": 87,
  "A": 88,
  "te": 89,
  "1": 90,
  "<ESC_EQ>0": 91,
  "ESC_EQ>0": 92,
  "SC_EQ>0": 93,
  "C_EQ>0": 94,
  "_EQ>0": 95,
  "EQ>0": 96,
  "Q>0": 97,
  ">0": 98,
  "0.": 99,
  ";q": 100,
  ";q<": 101,
  ";q<E": 102,
  ";q<ES": 103,
  ";q<ESC": 104,
  ";q<ESC_": 105,
  ";q<ESC_E": 106,
  ";q<ESC_EQ": 107,
  ";q<ESC_EQ>": 108,
  ";q<ESC_EQ>0": 109,
  ";q<ESC_EQ>0.": 110,
  "q<": 111,
  "q<E": 112,
  "q<ES": 113,
  "q<ESC": 114,
  "q<ESC_": 115,
  "q<ESC_E": 116,
  "q<ESC_EQ": 117,
  "q<ESC_EQ>": 118,
  "q<ESC_EQ>0": 119,
  "q<ESC_EQ>0.": 120,
  "<ESC_EQ>0.": 121,
  "ESC_EQ>0.": 122,
  "SC_EQ>0.": 123,
  "C_EQ>0.": 124,
  "_EQ>0.": 125,
  "EQ>0.": 126,
  "Q>0.": 127,
  ">0.": 128,
  "&": 129,
  "er": 130,
  "os": 131,
  "ON": 132,
  "Co": 133,
  "ml": 134,
  ".5": 135,
  "at": 136,
  "P": 137,
  "M": 138,
  "3": 139,
  "ID": 140,
  "li": 141,
  "st": 142,
  "io": 143,
  "<N": 144,
  "<NU": 145,
  "NU": 146,
  "k": 147,
  "_L": 148,
  "_LO": 149,
  "_LON": 150,
  "_LONG": 151,
  "_LONG>": 152,
  "LO": 153,
  "LON": 154,
  "LONG": 155,
  "LONG>": 156,
  "ONG": 157,
  "ONG>": 158,
  "NG": 159,
  "NG>": 160,
  "G>": 161,
  "ce": 162,
  "cc": 163,
  "se": 164,
  "ep": 165,
  "ent": 166,
  "ac": 167,
  "ag": 168,
  "ge": 169,
  "pt": 170,
  "Con": 171,
  "cce": 172,
  "ccep": 173,
  "ccept": 174,
  "cep": 175,
  "cept": 176,
  "ept": 177,
  "ont": 178,
  "Ac": 179,
  "Acc": 180,
  "Acce": 181,
  "Accep": 182,
  "Accept": 183,
  "ion": 184,
  "ch": 185,
  "y": 186,
  "b": 187,
  "*": 188,
  "he": 189,
  "-c": 190,
  "<NUL": 191,
  "<NULL": 192,
  "NUL": 193,
  "NULL": 194,
  "NULL>": 195,
  "UL": 196,
  "ULL": 197,
  "ULL>": 198,
  "LL": 199,
  "LL>": 200,
  "L>": 201,
  "tio": 202,
  "tion": 203,
  "ng": 204,
  "<I": 205,
  "<ID": 206,
  "<ID_": 207,
  "<ID_L": 208,
  "<ID_LO": 209,
  "<ID_LON": 210,
  "<ID_LONG": 211,
  "ID_": 212,
  "ID_L": 213,
  "ID_LO": 214,
  "ID_LON": 215,
  "ID_LONG": 216,
  "ID_LONG>": 217,
  "D_": 218,
  "D_L": 219,
  "D_LO": 220,
  "D_LON": 221,
  "D_LONG": 222,
  "D_LONG>": 223,
  "f": 224,
  "che": 225,
  "ost": 226,
  "ach": 227,
  "co": 228,
  "ache": 229,
  "+": 230,
  "ati": 231,
  "/x": 232,
  "pl": 233,
  "ro": 234,
  "in": 235,
  "ic": 236,
  "ma": 237,
  "w": 238,
  "ex": 239,
  "xt": 240,
  "tex": 241,
  "text": 242,
  "ext": 243,
  "9": 244,
  "et": 245,
  ";q<ESC_EQ>0.5": 246,
  "q<ESC_EQ>0.5": 247,
  "<ESC_EQ>0.5": 248,
  "ESC_EQ>0.5": 249,
  "SC_EQ>0.5": 250,
  "C_EQ>0.5": 251,
  "_EQ>0.5": 252,
  "EQ>0.5": 253,
  "Q>0.5": 254,
  ">0.5": 255,
  "0.5": 256,
  "><": 257,
  "ar": 258,
  "text/": 259,
  "ext/": 260,
  "xt/": 261,
  "t/": 262,
  "xm": 263,
  "xml": 264,
  "lic": 265,
  "xml,": 266,
  "ml,": 267,
  "l,": 268,
  "2": 269,
  "ec": 270,
  "no": 271,
  "ie": 272,
  "/p": 273,
  "%": 274,
  "th": 275,
  "ten": 276,
  "tent": 277,
  "Ho": 278,
  "Hos": 279,
  "Host": 280,
  "Accept-": 281,
  "ccept-": 282,
  "cept-": 283,
  "ept-": 284,
  "pt-": 285,
  "t-L": 286,
  "-L": 287,
  "Cont": 288,
  "Conte": 289,
  "Conten": 290,
  "Content": 291,
  "Content-": 292,
  "onte": 293,
  "onten": 294,
  "ontent": 295,
  "ontent-": 296,
  "nte": 297,
  "nten": 298,
  "ntent": 299,
  "ntent-": 300,
  "tent-": 301,
  "ent-": 302,
  "nt-": 303,
  "T-": 304,
  "lo": 305,
  "age": 306,
  "ap": 307,
  "ue": 308,
  "o-": 309,
  "(": 310,
  "ica": 311,
  ")": 312,
  "cat": 313,
  "K": 314,
  "ho": 315,
  "n/": 316,
  "la": 317,
  "uer": 318,
  "GE": 319,
  "GET": 320,
  "ET": 321,
  "app": 322,
  "appl": 323,
  "appli": 324,
  "applic": 325,
  "applica": 326,
  "applicat": 327,
  "applicati": 328,
  "applicatio": 329,
  "application": 330,
  "application/": 331,
  "pp": 332,
  "ppl": 333,
  "ppli": 334,
  "pplic": 335,
  "pplica": 336,
  "pplicat": 337,
  "pplicati": 338,
  "pplicatio": 339,
  "pplication": 340,
  "pplication/": 341,
  "pli": 342,
  "plic": 343,
  "plica": 344,
  "plicat": 345,
  "plicati": 346,
  "plicatio": 347,
  "plication": 348,
  "plication/": 349,
  "lica": 350,
  "licat": 351,
  "licati": 352,
  "licatio": 353,
  "lication": 354,
  "lication/": 355,
  "icat": 356,
  "icati": 357,
  "icatio": 358,
  "ication": 359,
  "ication/": 360,
  "cati": 361,
  "catio": 362,
  "cation": 363,
  "cation/": 364,
  "atio": 365,
  "ation": 366,
  "ation/": 367,
  "tion/": 368,
  "ion/": 369,
  "on/": 370,
  "HT": 371,
  "application/x": 372,
  "pplication/x": 373,
  "plication/x": 374,
  "lication/x": 375,
  "ication/x": 376,
  "cation/x": 377,
  "ation/x": 378,
  "tion/x": 379,
  "ion/x": 380,
  "on/x": 381,
  "n/x": 382,
  "no-": 383,
  "-ca": 384,
  "*;": 385,
  "*;q": 386,
  "*;q<": 387,
  "*;q<E": 388,
  "*;q<ES": 389,
  "*;q<ESC": 390,
  "*;q<ESC_": 391,
  "*;q<ESC_E": 392,
  "*;q<ESC_EQ": 393,
  "*;q<ESC_EQ>": 394,
  "*;q<ESC_EQ>0": 395,
  "*;q<ESC_EQ>0.": 396,
  "o-c": 397,
  "-cac": 398,
  "-cach": 399,
  "-cache": 400,
  "cac": 401,
  "cach": 402,
  "cache": 403,
  "7": 404,
  "no-c": 405,
  "no-ca": 406,
  "no-cac": 407,
  "no-cach": 408,
  "no-cache": 409,
  "o-ca": 410,
  "o-cac": 411,
  "o-cach": 412,
  "o-cache": 413,
  "ut": 414,
  "3.": 415,
  "ht": 416,
  "-8": 417,
  "tr": 418,
  "ad": 419,
  "80": 420,
  ".8": 421,
  "od": 422,
  "tm": 423,
  "5.": 424,
  "ra": 425,
  "htm": 426,
  "<ESC_EQ><": 427,
  "ESC_EQ><": 428,
  "SC_EQ><": 429,
  "C_EQ><": 430,
  "_EQ><": 431,
  "EQ><": 432,
  "Q><": 433,
  "html": 434,
  "tml": 435,
  "/3": 436,
  "R": 437,
  "tf": 438,
  "f-": 439,
  "z": 440,
  "or": 441,
  "/3.": 442,
  "8,": 443,
  "/xm": 444,
  "/xml": 445,
  "/xml,": 446,
  "/xml,a": 447,
  "/xml,ap": 448,
  "/xml,app": 449,
  "/xml,appl": 450,
  "/xml,appli": 451,
  "/xml,applic": 452,
  "/xml,applica": 453,
  "/xml,applicat": 454,
  "/xml,applicati": 455,
  "/xml,applicatio": 456,
  "/xml,application": 457,
  "xml,a": 458,
  "xml,ap": 459,
  "xml,app": 460,
  "xml,appl": 461,
  "xml,appli": 462,
  "xml,applic": 463,
  "xml,applica": 464,
  "xml,applicat": 465,
  "xml,applicati": 466,
  "xml,applicatio": 467,
  "xml,application": 468,
  "xml,application/": 469,
  "ml,a": 470,
  "ml,ap": 471,
  "ml,app": 472,
  "ml,appl": 473,
  "ml,appli": 474,
  "ml,applic": 475,
  "ml,applica": 476,
  "ml,applicat": 477,
  "ml,applicati": 478,
  "ml,applicatio": 479,
  "ml,application": 480,
  "ml,application/": 481,
  "ml,application/x": 482,
  "l,a": 483,
  "l,ap": 484,
  "l,app": 485,
  "l,appl": 486,
  "l,appli": 487,
  "l,applic": 488,
  "l,applica": 489,
  "l,applicat": 490,
  "l,applicati": 491,
  "l,applicatio": 492,
  "l,application": 493,
  "l,application/": 494,
  "l,application/x": 495,
  ",a": 496,
  ",ap": 497,
  ",app": 498,
  ",appl": 499,
  ",appli": 500,
  ",applic": 501,
  ",applica": 502,
  ",applicat": 503,
  ",applicati": 504,
  ",applicatio": 505,
  ",application": 506,
  ",application/": 507,
  ",application/x": 508,
  ",t": 509,
  ",te": 510,
  ",tex": 511
}