{
  "version": "1.0",
  "truncation": null,
  "padding": null,
  "added_tokens": [
    {
      "id": 0,
      "content": "[PAD]",
      "single_word": false,
      "lstrip": false,
      "rstrip": false,
      "normalized": false,
      "special": true
    },
    {
      "id": 1,
      "content": "[UNK]",
      "single_word": false,
      "lstrip": false,
      "rstrip": false,
      "normalized": false,
      "special": true
    },
    {
      "id": 2,
      "content": "[CLS]",
      "single_word": false,
      "lstrip": false,
      "rstrip": false,
      "normalized": false,
      "special": true
    },
    {
      "id": 3,
      "content": "[SEP]",
      "single_word": false,
      "lstrip": false,
      "rstrip": false,
      "normalized": false,
      "special": true
    },
    {
      "id": 4,
      "content": "[MASK]",
      "single_word": false,
      "lstrip": false,
      "rstrip": false,
      "normalized": false,
      "special": true
    }
  ],
  "normalizer": {
    "type": "NFKC"
  },
  "pre_tokenizer": {
    "type": "Whitespace"
  },
  "post_processor": null,
  "decoder": null,
  "model": {
    "type": "BPE",
    "dropout": null,
    "unk_token": "[UNK]",
    "continuing_subword_prefix": null,
    "end_of_word_suffix": null,
    "fuse_unk": false,
    "byte_fallback": false,
    "ignore_merges": false,
    "vocab": {
      "[PAD]": 0,
      "[UNK]": 1,
      "[CLS]": 2,
      "[SEP]": 3,
      "[MASK]": 4,
      "$": 5,
      "%": 6,
      "&": 7,
      "'": 8,
      "(": 9,
      ")": 10,
      "*": 11,
      "+": 12,
      ",": 13,
      "-": 14,
      ".": 15,
      "/": 16,
      "0": 17,
      "1": 18,
      "2": 19,
      "3": 20,
      "4": 21,
      "5": 22,
      "6": 23,
      "7": 24,
      "8": 25,
      "9": 26,
      ":": 27,
      ";": 28,
      "<": 29,
      "=": 30,
      ">": 31,
      "?": 32,
      "@": 33,
      "A": 34,
      "B": 35,
      "C": 36,
      "D": 37,
      "E": 38,
      "F": 39,
      "G": 40,
      "H": 41,
      "I": 42,
      "J": 43,
      "K": 44,
      "L": 45,
      "M": 46,
      "N": 47,
      "O": 48,
      "P": 49,
      "Q": 50,
      "R": 51,
      "S": 52,
      "T": 53,
      "U": 54,
      "V": 55,
      "W": 56,
      "X": 57,
      "Y": 58,
      "Z": 59,
      "[": 60,
      "\\": 61,
      "]": 62,
      "_": 63,
      "a": 64,
      "b": 65,
      "c": 66,
      "d": 67,
      "e": 68,
      "f": 69,
      "g": 70,
      "h": 71,
      "i": 72,
      "j": 73,
      "k": 74,
      "l": 75,
      "m": 76,
      "n": 77,
      "o": 78,
      "p": 79,
      "q": 80,
      "r": 81,
      "s": 82,
      "t": 83,
      "u": 84,
      "v": 85,
      "w": 86,
      "x": 87,
      "y": 88,
      "z": 89,
      "|": 90,
      "~": 91,
      "SE": 92,
      "SEP": 93,
      "SC": 94,
      "EQ": 95,
      "ESC": 96,
      "_EQ": 97,
      "ESC_EQ": 98,
      "on": 99,
      "en": 100,
      "ti": 101,
      "ca": 102,
      "er": 103,
      "os": 104,
      "ml": 105,
      "li": 106,
      "ce": 107,
      "ag": 108,
      "ent": 109,
      "pt": 110,
      "Con": 111,
      "Ac": 112,
      "cept": 113,
      "ch": 114,
      "Accept": 115,
      "tion": 116,
      "ost": 117,
      "=<": 118,
      "LL": 119,
      "NU": 120,
      "che": 121,
      "NULL": 122,
      "in": 123,
      "te": 124,
      "et": 125,
      "ec": 126,
      "xt": 127,
      "text": 128,
      "xml": 129,
      "no": 130,
      "ar": 131,
      "Host": 132,
      "ap": 133,
      "tent": 134,
      "Content": 135,
      "la": 136,
      "age": 137,
      "cation": 138,
      "pli": 139,
      "appli": 140,
      "application": 141,
      "*;": 142,
      "uer": 143,
      "co": 144,
      "ng": 145,
      "HT": 146,
      "ht": 147,
      "ET": 148,
      "GET": 149,
      "cache": 150,
      "80": 151,
      "or": 152,
      "ut": 153,
      "ad": 154,
      "html": 155,
      "utf": 156,
      "od": 157,
      "ro": 158,
      "ma": 159,
      "ie": 160,
      "OS": 161,
      "ta": 162,
      "POS": 163,
      "POST": 164,
      "tro": 165,
      "il": 166,
      "pe": 167,
      "ser": 168,
      "th": 169,
      "EC": 170,
      "Ca": 171,
      "lo": 172,
      "oo": 173,
      "He": 174,
      "pa": 175,
      "set": 176,
      "Ag": 177,
      "Da": 178,
      "ND": 179,
      "RI": 180,
      "con": 181,
      "eng": 182,
      "La": 183,
      "kie": 184,
      "nec": 185,
      "rag": 186,
      "=/": 187,
      "Ch": 188,
      "Coo": 189,
      "END": 190,
      "Leng": 191,
      "Met": 192,
      "Prag": 193,
      "Quer": 194,
      "REC": 195,
      "TP": 196,
      "Ty": 197,
      "User": 198,
      "URI": 199,
      "hod": 200,
      "le": 201,
      "uage": 202,
      "Connec": 203,
      "arset": 204,
      "nguage": 205,
      "HTTP": 206,
      "ader": 207,
      "trol": 208,
      "Cache": 209,
      "Header": 210,
      "Agent": 211,
      "Data": 212,
      "control": 213,
      "Language": 214,
      "Charset": 215,
      "Cookie": 216,
      "Length": 217,
      "Method": 218,
      "Pragma": 219,
      "Query": 220,
      "Type": 221,
      "Connection": 222,
      "im": 223,
      "ww": 224,
      "oz": 225,
      "/*;": 226,
      "Moz": 227,
      "illa": 228,
      "Mozilla": 229,
      "++": 230,
      "cl": 231,
      "ko": 232,
      "Gec": 233,
      "da": 234,
      "ke": 235,
      "Gecko": 236,
      "lh": 237,
      "ose": 238,
      "*/*;": 239,
      "close": 240,
      "com": 241,
      "image": 242,
      "ble": 243,
      "ux": 244,
      "Lin": 245,
      "onq": 246,
      "tible": 247,
      "patible": 248,
      "compatible": 249,
      "Konq": 250,
      "SI": 251,
      "pla": 252,
      "ueror": 253,
      "Linux": 254,
      "Konqueror": 255,
      "ON": 256,
      "png": 257,
      "plain": 258,
      ",*/*;": 259,
      "ID": 260,
      "JSE": 261,
      "KHT": 262,
      "ML": 263,
      "SSI": 264,
      "xhtml": 265,
      "enda": 266,
      "tienda": 267,
      "calh": 268,
      "like": 269,
      "8080": 270,
      "localh": 271,
      "ONID": 272,
      "JSESSI": 273,
      "KHTML": 274,
      "tienda1": 275,
      "localhost": 276,
      "JSESSIONID": 277,
      "sp": 278,
      "ci": 279,
      "jsp": 280,
      "de": 281,
      "re": 282,
      "is": 283,
      "pu": 284,
      "bli": 285,
      "publi": 286,
      "publico": 287,
      "28": 288,
      "ir": 289,
      "www": 290,
      "25": 291,
      "27": 292,
      "B1": 293,
      "io": 294,
      "ss": 295,
      "29": 296,
      "mb": 297,
      "es": 298,
      "ri": 299,
      "nt": 300,
      "for": 301,
      "to": 302,
      "85": 303,
      "ur": 304,
      "..": 305,
      "07": 306,
      "al": 307,
      "13": 308,
      "67": 309,
      "ee": 310,
      "form": 311,
      "an": 312,
      "gis": 313,
      "mod": 314,
      "26": 315,
      "40": 316,
      "modo": 317,
      "2C": 318,
      "len": 319,
      "code": 320,
      "urlen": 321,
      "coded": 322,
      "urlencoded": 323,
      "17": 324,
      "49": 325,
      "66": 326,
      "car": 327,
      "15": 328,
      "19": 329,
      "2F": 330,
      "3A": 331,
      "3D": 332,
      "ea": 333,
      "pr": 334,
      "as": 335,
      "do": 336,
      "rar": 337,
      "41": 338,
      "43": 339,
      "93": 340,
      "dad": 341,
      "ecio": 342,
      "nomb": 343,
      "precio": 344,
      "nombre": 345,
      "00": 346,
      "86": 347,
      "ni": 348,
      "rito": 349,
      "carrito": 350,
      "33": 351,
      "45": 352,
      "99": 353,
      "D7": 354,
      "am": 355,
      "el": 356,
      "tt": 357,
      "tar": 358,
      "adir": 359,
      "cia": 360,
      "regis": 361,
      "registro": 362,
      "22": 363,
      "3F": 364,
      "gin": 365,
      "oe": 366,
      "++++": 367,
      "3C": 368,
      "47": 369,
      "5D": 370,
      "89": 371,
      "aci": 372,
      "cp": 373,
      "so": 374,
      "ts": 375,
      "login": 376,
      "pass": 377,
      "aciar": 378,
      "passw": 379,
      "11": 380,
      "20": 381,
      "2B": 382,
      "46": 383,
      "48": 384,
      "76": 385,
      "EF": 386,
      "he": 387,
      "pro": 388,
      "ra": 389,
      "....": 390,
      "+%": 391,
      "16": 392,
      "1B": 393,
      "23": 394,
      "4B": 395,
      "88": 396,
      "8A": 397,
      "9C": 398,
      "=*;": 399,
      "DE": 400,
      "Re": 401,
      "bi": 402,
      "dir": 403,
      "id": 404,
      "jp": 405,
      "ls": 406,
      "mie": 407,
      "ne": 408,
      "ros": 409,
      "st": 410,
      "vin": 411,
      "inser": 412,
      "mac": 413,
      "mail": 414,
      "mbros": 415,
      "dow": 416,
      "provin": 417,
      "miembros": 418,
      "03": 419,
      "21": 420,
      "3B": 421,
      "4C": 422,
      "55": 423,
      "6F": 424,
      "84": 425,
      ">%": 426,
      "dos": 427,
      "dni": 428,
      "ed": 429,
      "ep": 430,
      "email": 431,
      "ja": 432,
      "na": 433,
      "pag": 434,
      "rn": 435,
      "rv": 436,
      "se": 437,
      "trar": 438,
      "udad": 439,
      "lidos": 440,
      "indow": 441,
      "ecci": 442,
      "apel": 443,
      "ord": 444,
      "ciudad": 445,
      "ntc": 446,
      "gistrar": 447,
      "password": 448,
      "Registrar": 449,
      "direcci": 450,
      "jpg": 451,
      "insertar": 452,
      "provincia": 453,
      "pagar": 454,
      "apellidos": 455,
      "direccion": 456,
      "09": 457,
      "0A": 458,
      "2D": 459,
      "37": 460,
      "51": 461,
      "7C": 462,
      "=*": 463,
      "AC": 464,
      "AD": 465,
      "E7": 466,
      "F1": 467,
      "ns": 468,
      "sc": 469,
      "ve": 470,
      "859": 471,
      "0C": 472,
      "39": 473,
      "63": 474,
      "8C": 475,
      "8F": 476,
      "8859": 477,
      "BA": 478,
      "DC": 479,
      "ac": 480,
      "cn": 481,
      "ei": 482,
      "em": 483,
      "eu": 484,
      "nd": 485,
      "nti": 486,
      "sa": 487,
      "enes": 488,
      "agenes": 489,
      "imagenes": 490,
      "iso": 491,
      "253": 492,
      "anadir": 493,
      "indows": 494,
      "44": 495,
      "4E": 496,
      "4F": 497,
      "56": 498,
      "57": 499,
      "59": 500,
      "5B": 501,
      "79": 502,
      "BE": 503,
      "E9": 504,
      "F7": 505,
      "be": 506,
      "fi": 507,
      "fir": 508,
      "go": 509,
      "rr": 510,
      "tl": 511
    },
    "merges": [
      [
        "S",
        "E"
      ],
      [
        "SE",
        "P"
      ],
      [
        "S",
        "C"
      ],
      [
        "E",
        "Q"
      ],
      [
        "E",
        "SC"
      ],
      [
        "_",
        "EQ"
      ],
      [
        "ESC",
        "_EQ"
      ],
      [
        "o",
        "n"
      ],
      [
        "e",
        "n"
      ],
      [
        "t",
        "i"
      ],
      [
        "c",
        "a"
      ],
      [
        "e",
        "r"
      ],
      [
        "o",
        "s"
      ],
      [
        "m",
        "l"
      ],
      [
        "l",
        "i"
      ],
      [
        "c",
        "e"
      ],
      [
        "a",
        "g"
      ],
      [
        "en",
        "t"
      ],
      [
        "p",
        "t"
      ],
      [
        "C",
        "on"
      ],
      [
        "A",
        "c"
      ],
      [
        "ce",
        "pt"
      ],
      [
        "c",
        "h"
      ],
      [
        "Ac",
        "cept"
      ],
      [
        "ti",
        "on"
      ],
      [
        "os",
        "t"
      ],
      [
        "=",
        "<"
      ],
      [
        "L",
        "L"
      ],
      [
        "N",
        "U"
      ],
      [
        "ch",
        "e"
      ],
      [
        "NU",
        "LL"
      ],
      [
        "i",
        "n"
      ],
      [
        "t",
        "e"
      ],
      [
        "e",
        "t"
      ],
      [
        "e",
        "c"
      ],
      [
        "x",
        "t"
      ],
      [
        "te",
        "xt"
      ],
      [
        "x",
        "ml"
      ],
      [
        "n",
        "o"
      ],
      [
        "a",
        "r"
      ],
      [
        "H",
        "ost"
      ],
      [
        "a",
        "p"
      ],
      [
        "t",
        "ent"
      ],
      [
        "Con",
        "tent"
      ],
      [
        "l",
        "a"
      ],
      [
        "ag",
        "e"
      ],
      [
        "ca",
        "tion"
      ],
      [
        "p",
        "li"
      ],
      [
        "ap",
        "pli"
      ],
      [
        "appli",
        "cation"
      ],
      [
        "*",
        ";"
      ],
      [
        "u",
        "er"
      ],
      [
        "c",
        "o"
      ],
      [
        "n",
        "g"
      ],
      [
        "H",
        "T"
      ],
      [
        "h",
        "t"
      ],
      [
        "E",
        "T"
      ],
      [
        "G",
        "ET"
      ],
      [
        "ca",
        "che"
      ],
      [
        "8",
        "0"
      ],
      [
        "o",
        "r"
      ],
      [
        "u",
        "t"
      ],
      [
        "a",
        "d"
      ],
      [
        "ht",
        "ml"
      ],
      [
        "ut",
        "f"
      ],
      [
        "o",
        "d"
      ],
      [
        "r",
        "o"
      ],
      [
        "m",
        "a"
      ],
      [
        "i",
        "e"
      ],
      [
        "O",
        "S"
      ],
      [
        "t",
        "a"
      ],
      [
        "P",
        "OS"
      ],
      [
        "POS",
        "T"
      ],
      [
        "t",
        "ro"
      ],
      [
        "i",
        "l"
      ],
      [
        "p",
        "e"
      ],
      [
        "s",
        "er"
      ],
      [
        "t",
        "h"
      ],
      [
        "E",
        "C"
      ],
      [
        "C",
        "a"
      ],
      [
        "l",
        "o"
      ],
      [
        "o",
        "o"
      ],
      [
        "H",
        "e"
      ],
      [
        "p",
        "a"
      ],
      [
        "s",
        "et"
      ],
      [
        "A",
        "g"
      ],
      [
        "D",
        "a"
      ],
      [
        "N",
        "D"
      ],
      [
        "R",
        "I"
      ],
      [
        "c",
        "on"
      ],
      [
        "en",
        "g"
      ],
      [
        "L",
        "a"
      ],
      [
        "k",
        "ie"
      ],
      [
        "n",
        "ec"
      ],
      [
        "r",
        "ag"
      ],
      [
        "=",
        "/"
      ],
      [
        "C",
        "h"
      ],
      [
        "C",
        "oo"
      ],
      [
        "E",
        "ND"
      ],
      [
        "L",
        "eng"
      ],
      [
        "M",
        "et"
      ],
      [
        "P",
        "rag"
      ],
      [
        "Q",
        "uer"
      ],
      [
        "R",
        "EC"
      ],
      [
        "T",
        "P"
      ],
      [
        "T",
        "y"
      ],
      [
        "U",
        "ser"
      ],
      [
        "U",
        "RI"
      ],
      [
        "h",
        "od"
      ],
      [
        "l",
        "e"
      ],
      [
        "u",
        "age"
      ],
      [
        "Con",
        "nec"
      ],
      [
        "ar",
        "set"
      ],
      [
        "ng",
        "uage"
      ],
      [
        "HT",
        "TP"
      ],
      [
        "ad",
        "er"
      ],
      [
        "tro",
        "l"
      ],
      [
        "Ca",
        "che"
      ],
      [
        "He",
        "ader"
      ],
      [
        "Ag",
        "ent"
      ],
      [
        "Da",
        "ta"
      ],
      [
        "con",
        "trol"
      ],
      [
        "La",
        "nguage"
      ],
      [
        "Ch",
        "arset"
      ],
      [
        "Coo",
        "kie"
      ],
      [
        "Leng",
        "th"
      ],
      [
        "Met",
        "hod"
      ],
      [
        "Prag",
        "ma"
      ],
      [
        "Quer",
        "y"
      ],
      [
        "Ty",
        "pe"
      ],
      [
        "Connec",
        "tion"
      ],
      [
        "i",
        "m"
      ],
      [
        "w",
        "w"
      ],
      [
        "o",
        "z"
      ],
      [
        "/",
        "*;"
      ],
      [
        "M",
        "oz"
      ],
      [
        "il",
        "la"
      ],
      [
        "Moz",
        "illa"
      ],
      [
        "+",
        "+"
      ],
      [
        "c",
        "l"
      ],
      [
        "k",
        "o"
      ],
      [
        "G",
        "ec"
      ],
      [
        "d",
        "a"
      ],
      [
        "k",
        "e"
      ],
      [
        "Gec",
        "ko"
      ],
      [
        "l",
        "h"
      ],
      [
        "os",
        "e"
      ],
      [
        "*",
        "/*;"
      ],
      [
        "cl",
        "ose"
      ],
      [
        "co",
        "m"
      ],
      [
        "im",
        "age"
      ],
      [
        "b",
        "le"
      ],
      [
        "u",
        "x"
      ],
      [
        "L",
        "in"
      ],
      [
        "on",
        "q"
      ],
      [
        "ti",
        "ble"
      ],
      [
        "pa",
        "tible"
      ],
      [
        "com",
        "patible"
      ],
      [
        "K",
        "onq"
      ],
      [
        "S",
        "I"
      ],
      [
        "p",
        "la"
      ],
      [
        "uer",
        "or"
      ],
      [
        "Lin",
        "ux"
      ],
      [
        "Konq",
        "ueror"
      ],
      [
        "O",
        "N"
      ],
      [
        "p",
        "ng"
      ],
      [
        "pla",
        "in"
      ],
      [
        ",",
        "*/*;"
      ],
      [
        "I",
        "D"
      ],
      [
        "J",
        "SE"
      ],
      [
        "K",
        "HT"
      ],
      [
        "M",
        "L"
      ],
      [
        "S",
        "SI"
      ],
      [
        "x",
        "html"
      ],
      [
        "en",
        "da"
      ],
      [
        "ti",
        "enda"
      ],
      [
        "ca",
        "lh"
      ],
      [
        "li",
        "ke"
      ],
      [
        "80",
        "80"
      ],
      [
        "lo",
        "calh"
      ],
      [
        "ON",
        "ID"
      ],
      [
        "JSE",
        "SSI"
      ],
      [
        "KHT",
        "ML"
      ],
      [
        "tienda",
        "1"
      ],
      [
        "localh",
        "ost"
      ],
      [
        "JSESSI",
        "ONID"
      ],
      [
        "s",
        "p"
      ],
      [
        "c",
        "i"
      ],
      [
        "j",
        "sp"
      ],
      [
        "d",
        "e"
      ],
      [
        "r",
        "e"
      ],
      [
        "i",
        "s"
      ],
      [
        "p",
        "u"
      ],
      [
        "b",
        "li"
      ],
      [
        "pu",
        "bli"
      ],
      [
        "publi",
        "co"
      ],
      [
        "2",
        "8"
      ],
      [
        "i",
        "r"
      ],
      [
        "ww",
        "w"
      ],
      [
        "2",
        "5"
      ],
      [
        "2",
        "7"
      ],
      [
        "B",
        "1"
      ],
      [
        "i",
        "o"
      ],
      [
        "s",
        "s"
      ],
      [
        "2",
        "9"
      ],
      [
        "m",
        "b"
      ],
      [
        "e",
        "s"
      ],
      [
        "r",
        "i"
      ],
      [
        "n",
        "t"
      ],
      [
        "f",
        "or"
      ],
      [
        "t",
        "o"
      ],
      [
        "8",
        "5"
      ],
      [
        "u",
        "r"
      ],
      [
        ".",
        "."
      ],
      [
        "0",
        "7"
      ],
      [
        "a",
        "l"
      ],
      [
        "1",
        "3"
      ],
      [
        "6",
        "7"
      ],
      [
        "e",
        "e"
      ],
      [
        "for",
        "m"
      ],
      [
        "a",
        "n"
      ],
      [
        "g",
        "is"
      ],
      [
        "m",
        "od"
      ],
      [
        "2",
        "6"
      ],
      [
        "4",
        "0"
      ],
      [
        "mod",
        "o"
      ],
      [
        "2",
        "C"
      ],
      [
        "l",
        "en"
      ],
      [
        "co",
        "de"
      ],
      [
        "ur",
        "len"
      ],
      [
        "code",
        "d"
      ],
      [
        "urlen",
        "coded"
      ],
      [
        "1",
        "7"
      ],
      [
        "4",
        "9"
      ],
      [
        "6",
        "6"
      ],
      [
        "ca",
        "r"
      ],
      [
        "1",
        "5"
      ],
      [
        "1",
        "9"
      ],
      [
        "2",
        "F"
      ],
      [
        "3",
        "A"
      ],
      [
        "3",
        "D"
      ],
      [
        "e",
        "a"
      ],
      [
        "p",
        "r"
      ],
      [
        "a",
        "s"
      ],
      [
        "d",
        "o"
      ],
      [
        "r",
        "ar"
      ],
      [
        "4",
        "1"
      ],
      [
        "4",
        "3"
      ],
      [
        "9",
        "3"
      ],
      [
        "d",
        "ad"
      ],
      [
        "ec",
        "io"
      ],
      [
        "no",
        "mb"
      ],
      [
        "pr",
        "ecio"
      ],
      [
        "nomb",
        "re"
      ],
      [
        "0",
        "0"
      ],
      [
        "8",
        "6"
      ],
      [
        "n",
        "i"
      ],
      [
        "ri",
        "to"
      ],
      [
        "car",
        "rito"
      ],
      [
        "3",
        "3"
      ],
      [
        "4",
        "5"
      ],
      [
        "9",
        "9"
      ],
      [
        "D",
        "7"
      ],
      [
        "a",
        "m"
      ],
      [
        "e",
        "l"
      ],
      [
        "t",
        "t"
      ],
      [
        "t",
        "ar"
      ],
      [
        "ad",
        "ir"
      ],
      [
        "ci",
        "a"
      ],
      [
        "re",
        "gis"
      ],
      [
        "regis",
        "tro"
      ],
      [
        "2",
        "2"
      ],
      [
        "3",
        "F"
      ],
      [
        "g",
        "in"
      ],
      [
        "o",
        "e"
      ],
      [
        "++",
        "++"
      ],
      [
        "3",
        "C"
      ],
      [
        "4",
        "7"
      ],
      [
        "5",
        "D"
      ],
      [
        "8",
        "9"
      ],
      [
        "a",
        "ci"
      ],
      [
        "c",
        "p"
      ],
      [
        "s",
        "o"
      ],
      [
        "t",
        "s"
      ],
      [
        "lo",
        "gin"
      ],
      [
        "pa",
        "ss"
      ],
      [
        "aci",
        "ar"
      ],
      [
        "pass",
        "w"
      ],
      [
        "1",
        "1"
      ],
      [
        "2",
        "0"
      ],
      [
        "2",
        "B"
      ],
      [
        "4",
        "6"
      ],
      [
        "4",
        "8"
      ],
      [
        "7",
        "6"
      ],
      [
        "E",
        "F"
      ],
      [
        "h",
        "e"
      ],
      [
        "p",
        "ro"
      ],
      [
        "r",
        "a"
      ],
      [
        "..",
        ".."
      ],
      [
        "+",
        "%"
      ],
      [
        "1",
        "6"
      ],
      [
        "1",
        "B"
      ],
      [
        "2",
        "3"
      ],
      [
        "4",
        "B"
      ],
      [
        "8",
        "8"
      ],
      [
        "8",
        "A"
      ],
      [
        "9",
        "C"
      ],
      [
        "=",
        "*;"
      ],
      [
        "D",
        "E"
      ],
      [
        "R",
        "e"
      ],
      [
        "b",
        "i"
      ],
      [
        "d",
        "ir"
      ],
      [
        "i",
        "d"
      ],
      [
        "j",
        "p"
      ],
      [
        "l",
        "s"
      ],
      [
        "m",
        "ie"
      ],
      [
        "n",
        "e"
      ],
      [
        "r",
        "os"
      ],
      [
        "s",
        "t"
      ],
      [
        "v",
        "in"
      ],
      [
        "in",
        "ser"
      ],
      [
        "ma",
        "c"
      ],
      [
        "ma",
        "il"
      ],
      [
        "mb",
        "ros"
      ],
      [
        "do",
        "w"
      ],
      [
        "pro",
        "vin"
      ],
      [
        "mie",
        "mbros"
      ],
      [
        "0",
        "3"
      ],
      [
        "2",
        "1"
      ],
      [
        "3",
        "B"
      ],
      [
        "4",
        "C"
      ],
      [
        "5",
        "5"
      ],
      [
        "6",
        "F"
      ],
      [
        "8",
        "4"
      ],
      [
        ">",
        "%"
      ],
      [
        "d",
        "os"
      ],
      [
        "d",
        "ni"
      ],
      [
        "e",
        "d"
      ],
      [
        "e",
        "p"
      ],
      [
        "e",
        "mail"
      ],
      [
        "j",
        "a"
      ],
      [
        "n",
        "a"
      ],
      [
        "p",
        "ag"
      ],
      [
        "r",
        "n"
      ],
      [
        "r",
        "v"
      ],
      [
        "s",
        "e"
      ],
      [
        "t",
        "rar"
      ],
      [
        "u",
        "dad"
      ],
      [
        "li",
        "dos"
      ],
      [
        "in",
        "dow"
      ],
      [
        "ec",
        "ci"
      ],
      [
        "ap",
        "el"
      ],
      [
        "or",
        "d"
      ],
      [
        "ci",
        "udad"
      ],
      [
        "nt",
        "c"
      ],
      [
        "gis",
        "trar"
      ],
      [
        "passw",
        "ord"
      ],
      [
        "Re",
        "gistrar"
      ],
      [
        "dir",
        "ecci"
      ],
      [
        "jp",
        "g"
      ],
      [
        "inser",
        "tar"
      ],
      [
        "provin",
        "cia"
      ],
      [
        "pag",
        "ar"
      ],
      [
        "apel",
        "lidos"
      ],
      [
        "direcci",
        "on"
      ],
      [
        "0",
        "9"
      ],
      [
        "0",
        "A"
      ],
      [
        "2",
        "D"
      ],
      [
        "3",
        "7"
      ],
      [
        "5",
        "1"
      ],
      [
        "7",
        "C"
      ],
      [
        "=",
        "*"
      ],
      [
        "A",
        "C"
      ],
      [
        "A",
        "D"
      ],
      [
        "E",
        "7"
      ],
      [
        "F",
        "1"
      ],
      [
        "n",
        "s"
      ],
      [
        "s",
        "c"
      ],
      [
        "v",
        "e"
      ],
      [
        "85",
        "9"
      ],
      [
        "0",
        "C"
      ],
      [
        "3",
        "9"
      ],
      [
        "6",
        "3"
      ],
      [
        "8",
        "C"
      ],
      [
        "8",
        "F"
      ],
      [
        "8",
        "859"
      ],
      [
        "B",
        "A"
      ],
      [
        "D",
        "C"
      ],
      [
        "a",
        "c"
      ],
      [
        "c",
        "n"
      ],
      [
        "e",
        "i"
      ],
      [
        "e",
        "m"
      ],
      [
        "e",
        "u"
      ],
      [
        "n",
        "d"
      ],
      [
        "n",
        "ti"
      ],
      [
        "s",
        "a"
      ],
      [
        "en",
        "es"
      ],
      [
        "ag",
        "enes"
      ],
      [
        "im",
        "agenes"
      ],
      [
        "is",
        "o"
      ],
      [
        "25",
        "3"
      ],
      [
        "an",
        "adir"
      ],
      [
        "indow",
        "s"
      ],
      [
        "4",
        "4"
      ],
      [
        "4",
        "E"
      ],
      [
        "4",
        "F"
      ],
      [
        "5",
        "6"
      ],
      [
        "5",
        "7"
      ],
      [
        "5",
        "9"
      ],
      [
        "5",
        "B"
      ],
      [
        "7",
        "9"
      ],
      [
        "B",
        "E"
      ],
      [
        "E",
        "9"
      ],
      [
        "F",
        "7"
      ],
      [
        "b",
        "e"
      ],
      [
        "f",
        "i"
      ],
      [
        "f",
        "ir"
      ],
      [
        "g",
        "o"
      ],
      [
        "r",
        "r"
      ],
      [
        "t",
        "l"
      ]
    ]
  }
}