{
  "[PAD]": 0,
  "[UNK]": 1,
  "[CLS]": 2,
  "[SEP]": 3,
  "[MASK]": 4,
  "<END>": 5,
  "<ID_LONG>": 6,
  "<NULL>": 7,
  "<NUM_LONG>": 8,
  "<REC>": 9,
  "<SEP>": 10,
  "=": 11,
  "a": 12,
  "t": 13,
  "e": 14,
  "i": 15,
  "c": 16,
  "n": 17,
  "s": 18,
  "o": 19,
  "l": 20,
  "r": 21,
  "-": 22,
  "u": 23,
  "at": 24,
  "d": 25,
  "ta": 26,
  "it": 27,
  "al": 28,
  "N": 29,
  "ca": 30,
  "p": 31,
  "ti": 32,
  "ati": 33,
  "ed": 34,
  "g": 35,
  "m": 36,
  "te": 37,
  "0": 38,
  "L": 39,
  "O": 40,
  "v": 41,
  "tal": 42,
  "on": 43,
  "atio": 44,
  "ation": 45,
  "tio": 46,
  "tion": 47,
  "io": 48,
  "ion": 49,
  "ita": 50,
  "ital": 51,
  "<": 52,
  ">": 53,
  "ri": 54,
  "G": 55,
  "_": 56,
  "_L": 57,
  "_LO": 58,
  "_LON": 59,
  "_LONG": 60,
  "_LONG>": 61,
  "LO": 62,
  "LON": 63,
  "LONG": 64,
  "LONG>": 65,
  "ON": 66,
  "ONG": 67,
  "ONG>": 68,
  "NG": 69,
  "NG>": 70,
  "G>": 71,
  "iv": 72,
  "w": 73,
  "D": 74,
  "M": 75,
  "ss": 76,
  "I": 77,
  "pi": 78,
  "ap": 79,
  "du": 80,
  "edu": 81,
  "educ": 82,
  "educa": 83,
  "educat": 84,
  "educati": 85,
  "educatio": 86,
  "education": 87,
  "duc": 88,
  "duca": 89,
  "ducat": 90,
  "ducati": 91,
  "ducatio": 92,
  "ducation": 93,
  "uc": 94,
  "uca": 95,
  "ucat": 96,
  "ucati": 97,
  "ucatio": 98,
  "ucation": 99,
  "cat": 100,
  "cati": 101,
  "catio": 102,
  "cation": 103,
  "<I": 104,
  "<ID": 105,
  "<ID_": 106,
  "<ID_L": 107,
  "<ID_LO": 108,
  "<ID_LON": 109,
  "<ID_LONG": 110,
  "ID": 111,
  "ID_": 112,
  "ID_L": 113,
  "ID_LO": 114,
  "ID_LON": 115,
  "ID_LONG": 116,
  "ID_LONG>": 117,
  "D_": 118,
  "D_L": 119,
  "D_LO": 120,
  "D_LON": 121,
  "D_LONG": 122,
  "D_LONG>": 123,
  "cap": 124,
  "capi": 125,
  "capit": 126,
  "capita": 127,
  "capital": 128,
  "api": 129,
  "apit": 130,
  "apita": 131,
  "apital": 132,
  "pit": 133,
  "pita": 134,
  "pital": 135,
  "-c": 136,
  "ar": 137,
  "U": 138,
  "tat": 139,
  "ma": 140,
  "us": 141,
  "-s": 142,
  "ite": 143,
  "S": 144,
  "f": 145,
  "ate": 146,
  "h": 147,
  "se": 148,
  "in": 149,
  "ra": 150,
  "le": 151,
  "ou": 152,
  "n-": 153,
  "mar": 154,
  "or": 155,
  "y": 156,
  "ac": 157,
  "ve": 158,
  "d-": 159,
  "ed-": 160,
  "e-": 161,
  "ge": 162,
  "Ma": 163,
  "co": 164,
  "ce": 165,
  "ll": 166,
  "e-c": 167,
  "e-co": 168,
  "-co": 169,
  "oc": 170,
  "1": 171,
  "la": 172,
  "lo": 173,
  "pa": 174,
  "cl": 175,
  "x": 176,
  "na": 177,
  "ai": 178,
  "ag": 179,
  "age": 180,
  "hi": 181,
  "ale": 182,
  "k": 183,
  "l-": 184,
  "al-": 185,
  "-n": 186,
  "st": 187,
  "as": 188,
  "tiv": 189,
  "tive": 190,
  "ive": 191,
  "er": 192,
  "ativ": 193,
  "ative": 194,
  "up": 195,
  "tive-": 196,
  "ive-": 197,
  "ve-": 198,
  "ex": 199,
  "nt": 200,
  "es": 201,
  "ga": 202,
  "um": 203,
  "tu": 204,
  "cu": 205,
  "os": 206,
  "un": 207,
  "ry": 208,
  "2": 209,
  "Un": 210,
  "wo": 211,
  "wor": 212,
  "work": 213,
  "ork": 214,
  "rk": 215,
  "workc": 216,
  "workcl": 217,
  "workcla": 218,
  "workclas": 219,
  "workclass": 220,
  "orkc": 221,
  "orkcl": 222,
  "orkcla": 223,
  "orkclas": 224,
  "orkclass": 225,
  "rkc": 226,
  "rkcl": 227,
  "rkcla": 228,
  "rkclas": 229,
  "rkclass": 230,
  "kc": 231,
  "kcl": 232,
  "kcla": 233,
  "kclas": 234,
  "kclass": 235,
  "cla": 236,
  "clas": 237,
  "class": 238,
  "las": 239,
  "lass": 240,
  "ass": 241,
  "fn": 242,
  "fnl": 243,
  "fnlw": 244,
  "fnlwg": 245,
  "fnlwgt": 246,
  "nl": 247,
  "nlw": 248,
  "nlwg": 249,
  "nlwgt": 250,
  "lw": 251,
  "lwg": 252,
  "lwgt": 253,
  "wg": 254,
  "wgt": 255,
  "gt": 256,
  ".": 257,
  ".0": 258,
  "education-": 259,
  "education-n": 260,
  "education-nu": 261,
  "education-num": 262,
  "ducation-": 263,
  "ducation-n": 264,
  "ducation-nu": 265,
  "ducation-num": 266,
  "ucation-": 267,
  "ucation-n": 268,
  "ucation-nu": 269,
  "ucation-num": 270,
  "cation-": 271,
  "cation-n": 272,
  "cation-nu": 273,
  "cation-num": 274,
  "ation-": 275,
  "ation-n": 276,
  "ation-nu": 277,
  "ation-num": 278,
  "tion-": 279,
  "tion-n": 280,
  "tion-nu": 281,
  "tion-num": 282,
  "ion-": 283,
  "ion-n": 284,
  "ion-nu": 285,
  "ion-num": 286,
  "on-": 287,
  "on-n": 288,
  "on-nu": 289,
  "on-num": 290,
  "n-n": 291,
  "n-nu": 292,
  "n-num": 293,
  "-nu": 294,
  "-num": 295,
  "nu": 296,
  "num": 297,
  "mari": 298,
  "marit": 299,
  "marita": 300,
  "marital": 301,
  "marital-": 302,
  "marital-s": 303,
  "marital-st": 304,
  "marital-sta": 305,
  "marital-stat": 306,
  "marital-statu": 307,
  "marital-status": 308,
  "ari": 309,
  "arit": 310,
  "arita": 311,
  "arital": 312,
  "arital-": 313,
  "arital-s": 314,
  "arital-st": 315,
  "arital-sta": 316,
  "arital-stat": 317,
  "arital-statu": 318,
  "arital-status": 319,
  "rit": 320,
  "rita": 321,
  "rital": 322,
  "rital-": 323,
  "rital-s": 324,
  "rital-st": 325,
  "rital-sta": 326,
  "rital-stat": 327,
  "rital-statu": 328,
  "rital-status": 329,
  "ital-": 330,
  "ital-s": 331,
  "ital-st": 332,
  "ital-sta": 333,
  "ital-stat": 334,
  "ital-statu": 335,
  "ital-status": 336,
  "tal-": 337,
  "tal-s": 338,
  "tal-st": 339,
  "tal-sta": 340,
  "tal-stat": 341,
  "tal-statu": 342,
  "tal-status": 343,
  "al-s": 344,
  "al-st": 345,
  "al-sta": 346,
  "al-stat": 347,
  "al-statu": 348,
  "al-status": 349,
  "l-s": 350,
  "l-st": 351,
  "l-sta": 352,
  "l-stat": 353,
  "l-statu": 354,
  "l-status": 355,
  "-st": 356,
  "-sta": 357,
  "-stat": 358,
  "-statu": 359,
  "-status": 360,
  "sta": 361,
  "stat": 362,
  "statu": 363,
  "status": 364,
  "tatu": 365,
  "tatus": 366,
  "atu": 367,
  "atus": 368,
  "tus": 369,
  "occ": 370,
  "occu": 371,
  "occup": 372,
  "occupa": 373,
  "occupat": 374,
  "occupati": 375,
  "occupatio": 376,
  "occupation": 377,
  "cc": 378,
  "ccu": 379,
  "ccup": 380,
  "ccupa": 381,
  "ccupat": 382,
  "ccupati": 383,
  "ccupatio": 384,
  "ccupation": 385,
  "cup": 386,
  "cupa": 387,
  "cupat": 388,
  "cupati": 389,
  "cupatio": 390,
  "cupation": 391,
  "upa": 392,
  "upat": 393,
  "upati": 394,
  "upatio": 395,
  "upation": 396,
  "pat": 397,
  "pati": 398,
  "patio": 399,
  "pation": 400,
  "rac": 401,
  "race": 402,
  "ace": 403,
  "sex": 404,
  "capitalg": 405,
  "capitalga": 406,
  "capitalgai": 407,
  "capitalgain": 408,
  "apitalg": 409,
  "apitalga": 410,
  "apitalgai": 411,
  "apitalgain": 412,
  "pitalg": 413,
  "pitalga": 414,
  "pitalgai": 415,
  "pitalgain": 416,
  "italg": 417,
  "italga": 418,
  "italgai": 419,
  "italgain": 420,
  "talg": 421,
  "talga": 422,
  "talgai": 423,
  "talgain": 424,
  "alg": 425,
  "alga": 426,
  "algai": 427,
  "algain": 428,
  "lg": 429,
  "lga": 430,
  "lgai": 431,
  "lgain": 432,
  "gai": 433,
  "gain": 434,
  "ain": 435,
  "capitall": 436,
  "capitallo": 437,
  "capitallos": 438,
  "capitalloss": 439,
  "apitall": 440,
  "apitallo": 441,
  "apitallos": 442,
  "apitalloss": 443,
  "pitall": 444,
  "pitallo": 445,
  "pitallos": 446,
  "pitalloss": 447,
  "itall": 448,
  "itallo": 449,
  "itallos": 450,
  "italloss": 451,
  "tall": 452,
  "tallo": 453,
  "tallos": 454,
  "talloss": 455,
  "all": 456,
  "allo": 457,
  "allos": 458,
  "alloss": 459,
  "llo": 460,
  "llos": 461,
  "lloss": 462,
  "los": 463,
  "loss": 464,
  "oss": 465,
  "nat": 466,
  "nati": 467,
  "nativ": 468,
  "native": 469,
  "native-": 470,
  "native-c": 471,
  "native-co": 472,
  "native-cou": 473,
  "native-coun": 474,
  "native-count": 475,
  "native-countr": 476,
  "native-country": 477,
  "ative-": 478,
  "ative-c": 479,
  "ative-co": 480,
  "ative-cou": 481,
  "ative-coun": 482,
  "ative-count": 483,
  "ative-countr": 484,
  "ative-country": 485,
  "tive-c": 486,
  "tive-co": 487,
  "tive-cou": 488,
  "tive-coun": 489,
  "tive-count": 490,
  "tive-countr": 491,
  "tive-country": 492,
  "ive-c": 493,
  "ive-co": 494,
  "ive-cou": 495,
  "ive-coun": 496,
  "ive-count": 497,
  "ive-countr": 498,
  "ive-country": 499,
  "ve-c": 500,
  "ve-co": 501,
  "ve-cou": 502,
  "ve-coun": 503,
  "ve-count": 504,
  "ve-countr": 505,
  "ve-country": 506,
  "e-cou": 507,
  "e-coun": 508,
  "e-count": 509,
  "e-countr": 510,
  "e-country": 511,
  "-cou": 512,
  "-coun": 513,
  "-count": 514,
  "-countr": 515,
  "-country": 516,
  "cou": 517,
  "coun": 518,
  "count": 519,
  "countr": 520,
  "country": 521,
  "oun": 522,
  "ount": 523,
  "ountr": 524,
  "ountry": 525,
  "unt": 526,
  "untr": 527,
  "untry": 528,
  "ntr": 529,
  "ntry": 530,
  "tr": 531,
  "try": 532,
  "<N": 533,
  "<NU": 534,
  "NU": 535,
  "St": 536,
  "Sta": 537,
  "Stat": 538,
  "State": 539,
  "tate": 540,
  "W": 541,
  "ted": 542,
  "P": 543,
  "ie": 544,
  "arr": 545,
  "arri": 546,
  "arrie": 547,
  "arried": 548,
  "rr": 549,
  "rri": 550,
  "rrie": 551,
  "rried": 552,
  "rie": 553,
  "ried": 554,
  "ied": 555,
  "-S": 556,
  "ni": 557,
  "Uni": 558,
  "Unit": 559,
  "Unite": 560,
  "United": 561,
  "United-": 562,
  "United-S": 563,
  "United-St": 564,
  "United-Sta": 565,
  "United-Stat": 566,
  "United-State": 567,
  "United-States": 568,
  "nit": 569,
  "nite": 570,
  "nited": 571,
  "nited-": 572,
  "nited-S": 573,
  "nited-St": 574,
  "nited-Sta": 575,
  "nited-Stat": 576,
  "nited-State": 577,
  "nited-States": 578,
  "ited": 579,
  "ited-": 580,
  "ited-S": 581,
  "ited-St": 582,
  "ited-Sta": 583,
  "ited-Stat": 584,
  "ited-State": 585,
  "ited-States": 586,
  "ted-": 587,
  "ted-S": 588,
  "ted-St": 589,
  "ted-Sta": 590,
  "ted-Stat": 591,
  "ted-State": 592,
  "ted-States": 593,
  "ed-S": 594,
  "ed-St": 595,
  "ed-Sta": 596,
  "ed-Stat": 597,
  "ed-State": 598,
  "ed-States": 599,
  "d-S": 600,
  "d-St": 601,
  "d-Sta": 602,
  "d-Stat": 603,
  "d-State": 604,
  "d-States": 605,
  "-St": 606,
  "-Sta": 607,
  "-Stat": 608,
  "-State": 609,
  "-States": 610,
  "States": 611,
  "tates": 612,
  "ates": 613,
  "tes": 614,
  "Pr": 615,
  "Wh": 616,
  "Whi": 617,
  "Whit": 618,
  "White": 619,
  "hit": 620,
  "hite": 621,
  "<NUM": 622,
  "<NUM_": 623,
  "<NUM_L": 624,
  "<NUM_LO": 625,
  "<NUM_LON": 626,
  "<NUM_LONG": 627,
  "<NUM_LONG>.": 628,
  "<NUM_LONG>.0": 629,
  "NUM": 630,
  "NUM_": 631,
  "NUM_L": 632,
  "NUM_LO": 633,
  "NUM_LON": 634,
  "NUM_LONG": 635,
  "NUM_LONG>": 636,
  "NUM_LONG>.": 637,
  "NUM_LONG>.0": 638,
  "UM": 639,
  "UM_": 640,
  "UM_L": 641,
  "UM_LO": 642,
  "UM_LON": 643,
  "UM_LONG": 644,
  "UM_LONG>": 645,
  "UM_LONG>.": 646,
  "UM_LONG>.0": 647,
  "M_": 648,
  "M_L": 649,
  "M_LO": 650,
  "M_LON": 651,
  "M_LONG": 652,
  "M_LONG>": 653,
  "M_LONG>.": 654,
  "M_LONG>.0": 655,
  "_LONG>.": 656,
  "_LONG>.0": 657,
  "LONG>.": 658,
  "LONG>.0": 659,
  "ONG>.": 660,
  "ONG>.0": 661,
  "NG>.": 662,
  "NG>.0": 663,
  "G>.": 664,
  "G>.0": 665,
  ">.": 666,
  ">.0": 667,
  "H": 668,
  "an": 669,
  "sp": 670,
  "Pri": 671,
  "Priv": 672,
  "riv": 673,
  "va": 674,
  "Priva": 675,
  "Privat": 676,
  "Private": 677,
  "riva": 678,
  "rivat": 679,
  "rivate": 680,
  "iva": 681,
  "ivat": 682,
  "ivate": 683,
  "vat": 684,
  "vate": 685,
  "Mal": 686,
  "Male": 687,
  "3": 688,
  "-sp": 689,
  "ci": 690,
  "po": 691,
  "spo": 692,
  "t-": 693,
  "-m": 694,
  "nd": 695,
  "and": 696,
  "ous": 697,
  "ouse": 698,
  "use": 699,
  "Mar": 700,
  "Marr": 701,
  "Marri": 702,
  "Marrie": 703,
  "Married": 704,
  "Married-": 705,
  "arried-": 706,
  "rried-": 707,
  "ried-": 708,
  "ied-": 709,
  "-spo": 710,
  "-spou": 711,
  "-spous": 712,
  "-spouse": 713,
  "spou": 714,
  "spous": 715,
  "spouse": 716,
  "pou": 717,
  "pous": 718,
  "pouse": 719,
  "er-": 720,
  "r-": 721,
  "iv-": 722,
  "v-": 723,
  "Married-c": 724,
  "Married-ci": 725,
  "Married-civ": 726,
  "Married-civ-": 727,
  "Married-civ-s": 728,
  "Married-civ-sp": 729,
  "Married-civ-spo": 730,
  "Married-civ-spou": 731,
  "arried-c": 732,
  "arried-ci": 733,
  "arried-civ": 734,
  "arried-civ-": 735,
  "arried-civ-s": 736,
  "arried-civ-sp": 737,
  "arried-civ-spo": 738,
  "arried-civ-spou": 739,
  "arried-civ-spous": 740,
  "rried-c": 741,
  "rried-ci": 742,
  "rried-civ": 743,
  "rried-civ-": 744,
  "rried-civ-s": 745,
  "rried-civ-sp": 746,
  "rried-civ-spo": 747,
  "rried-civ-spou": 748,
  "rried-civ-spous": 749,
  "rried-civ-spouse": 750,
  "ried-c": 751,
  "ried-ci": 752,
  "ried-civ": 753,
  "ried-civ-": 754,
  "ried-civ-s": 755,
  "ried-civ-sp": 756,
  "ried-civ-spo": 757,
  "ried-civ-spou": 758,
  "ried-civ-spous": 759,
  "ried-civ-spouse": 760,
  "ied-c": 761,
  "ied-ci": 762,
  "ied-civ": 763,
  "ied-civ-": 764,
  "ied-civ-s": 765,
  "ied-civ-sp": 766,
  "ied-civ-spo": 767,
  "ied-civ-spou": 768,
  "ied-civ-spous": 769,
  "ied-civ-spouse": 770,
  "ed-c": 771,
  "ed-ci": 772,
  "ed-civ": 773,
  "ed-civ-": 774,
  "ed-civ-s": 775,
  "ed-civ-sp": 776,
  "ed-civ-spo": 777,
  "ed-civ-spou": 778,
  "ed-civ-spous": 779,
  "ed-civ-spouse": 780,
  "d-c": 781,
  "d-ci": 782,
  "d-civ": 783,
  "d-civ-": 784,
  "d-civ-s": 785,
  "d-civ-sp": 786,
  "d-civ-spo": 787,
  "d-civ-spou": 788,
  "d-civ-spous": 789,
  "d-civ-spouse": 790,
  "-ci": 791,
  "-civ": 792,
  "-civ-": 793,
  "-civ-s": 794,
  "-civ-sp": 795,
  "-civ-spo": 796,
  "-civ-spou": 797,
  "-civ-spous": 798,
  "-civ-spouse": 799,
  "civ": 800,
  "civ-": 801,
  "civ-s": 802,
  "civ-sp": 803,
  "civ-spo": 804,
  "civ-spou": 805,
  "civ-spous": 806,
  "civ-spouse": 807,
  "iv-s": 808,
  "iv-sp": 809,
  "iv-spo": 810,
  "iv-spou": 811,
  "iv-spous": 812,
  "iv-spouse": 813,
  "v-s": 814,
  "v-sp": 815,
  "v-spo": 816,
  "v-spou": 817,
  "v-spous": 818,
  "v-spouse": 819,
  "-g": 820,
  "-ma": 821,
  "em": 822,
  "9": 823,
  "marr": 824,
  "marri": 825,
  "marrie": 826,
  "married": 827,
  "ch": 828,
  "b": 829,
  "-i": 830,
  "-in": 831,
  "il": 832,
  "ba": 833,
  "Hu": 834,
  "Hus": 835,
  "Husb": 836,
  "Husba": 837,
  "Husban": 838,
  "Husband": 839,
  "usb": 840,
  "usba": 841,
  "usban": 842,
  "usband": 843,
  "sb": 844,
  "sba": 845,
  "sban": 846,
  "sband": 847,
  "ban": 848,
  "band": 849,
  "F": 850,
  "4": 851,
  "Fe": 852,
  "ot": 853,
  "ot-": 854,
  "ot-i": 855,
  "ot-in": 856,
  "t-i": 857,
  "t-in": 858,
  "ema": 859,
  "emal": 860,
  "mal": 861,
  "ad": 862,
  "Fem": 863,
  "Fema": 864,
  "Femal": 865,
  "Female": 866,
  "emale": 867,
  "male": 868,
  "Ne": 869,
  "Nev": 870,
  "Neve": 871,
  "Never": 872,
  "Never-": 873,
  "ev": 874,
  "eve": 875,
  "ever": 876,
  "ever-": 877,
  "ver": 878,
  "ver-": 879,
  "Never-m": 880,
  "Never-ma": 881,
  "Never-mar": 882,
  "Never-marr": 883,
  "Never-marri": 884,
  "Never-marrie": 885,
  "Never-married": 886,
  "ever-m": 887,
  "ever-ma": 888,
  "ever-mar": 889,
  "ever-marr": 890,
  "ever-marri": 891,
  "ever-marrie": 892,
  "ever-married": 893,
  "ver-m": 894,
  "ver-ma": 895,
  "ver-mar": 896,
  "ver-marr": 897,
  "ver-marri": 898,
  "ver-marrie": 899,
  "ver-married": 900,
  "er-m": 901,
  "er-ma": 902,
  "er-mar": 903,
  "er-marr": 904,
  "er-marri": 905,
  "er-marrie": 906,
  "er-married": 907,
  "r-m": 908,
  "r-ma": 909,
  "r-mar": 910,
  "r-marr": 911,
  "r-marri": 912,
  "r-marrie": 913,
  "r-married": 914,
  "-mar": 915,
  "-marr": 916,
  "-marri": 917,
  "-marrie": 918,
  "-married": 919,
  "HS": 920,
  "HS-": 921,
  "HS-g": 922,
  "HS-gr": 923,
  "HS-gra": 924,
  "HS-grad": 925,
  "S-": 926,
  "S-g": 927,
  "S-gr": 928,
  "S-gra": 929,
  "S-grad": 930,
  "-gr": 931,
  "-gra": 932,
  "-grad": 933,
  "gr": 934,
  "gra": 935,
  "grad": 936,
  "rad": 937,
  "el": 938,
  "he": 939,
  "th": 940,
  "ec": 941,
  "rs": 942,
  "ia": 943,
  "mi": 944,
  "-f": 945,
  "B": 946,
  "10": 947,
  "am": 948,
  "f-": 949,
  "ly": 950,
  "No": 951,
  "Not": 952,
  "Not-": 953,
  "Not-i": 954,
  "Not-in": 955,
  "Not-in-": 956,
  "Not-in-f": 957,
  "Not-in-fa": 958,
  "Not-in-fam": 959,
  "Not-in-fami": 960,
  "Not-in-famil": 961,
  "Not-in-family": 962,
  "ot-in-": 963,
  "ot-in-f": 964,
  "ot-in-fa": 965,
  "ot-in-fam": 966,
  "ot-in-fami": 967,
  "ot-in-famil": 968,
  "ot-in-family": 969,
  "t-in-": 970,
  "t-in-f": 971,
  "t-in-fa": 972,
  "t-in-fam": 973,
  "t-in-fami": 974,
  "t-in-famil": 975,
  "t-in-family": 976,
  "-in-": 977,
  "-in-f": 978,
  "-in-fa": 979,
  "-in-fam": 980,
  "-in-fami": 981,
  "-in-famil": 982,
  "-in-family": 983,
  "in-": 984,
  "in-f": 985,
  "in-fa": 986,
  "in-fam": 987,
  "in-fami": 988,
  "in-famil": 989,
  "in-family": 990,
  "n-f": 991,
  "n-fa": 992,
  "n-fam": 993,
  "n-fami": 994,
  "n-famil": 995,
  "n-family": 996,
  "-fa": 997,
  "-fam": 998,
  "-fami": 999,
  "-famil": 1000,
  "-family": 1001,
  "fa": 1002,
  "fam": 1003,
  "fami": 1004,
  "famil": 1005,
  "family": 1006,
  "ami": 1007,
  "amil": 1008,
  "amily": 1009,
  "mil": 1010,
  "mily": 1011,
  "ily": 1012,
  "ial": 1013,
  "ol": 1014,
  "ic": 1015,
  "eri": 1016,
  "me": 1017,
  "c-": 1018,
  "A": 1019,
  "So": 1020,
  "om": 1021,
  "Som": 1022,
  "Some": 1023,
  "Some-": 1024,
  "Some-c": 1025,
  "Some-co": 1026,
  "Some-col": 1027,
  "Some-coll": 1028,
  "Some-colle": 1029,
  "Some-colleg": 1030,
  "Some-college": 1031,
  "ome": 1032,
  "ome-": 1033,
  "ome-c": 1034,
  "ome-co": 1035,
  "ome-col": 1036,
  "ome-coll": 1037,
  "ome-colle": 1038,
  "ome-colleg": 1039,
  "ome-college": 1040,
  "me-": 1041,
  "me-c": 1042,
  "me-co": 1043,
  "me-col": 1044,
  "me-coll": 1045,
  "me-colle": 1046,
  "me-colleg": 1047,
  "me-college": 1048,
  "e-col": 1049,
  "e-coll": 1050,
  "e-colle": 1051,
  "e-colleg": 1052,
  "e-college": 1053,
  "-col": 1054,
  "-coll": 1055,
  "-colle": 1056,
  "-colleg": 1057,
  "-college": 1058,
  "col": 1059,
  "coll": 1060,
  "colle": 1061,
  "colleg": 1062,
  "college": 1063,
  "oll": 1064,
  "olle": 1065,
  "olleg": 1066,
  "ollege": 1067,
  "lle": 1068,
  "lleg": 1069,
  "llege": 1070,
  "leg": 1071,
  "lege": 1072,
  "eg": 1073,
  "ege": 1074,
  "ach": 1075,
  "chi": 1076,
  "ov": 1077,
  "cal": 1078,
  "vo": 1079,
  "p-": 1080,
  "13": 1081,
  "Ba": 1082,
  "Bac": 1083,
  "Bach": 1084,
  "Bache": 1085,
  "Bachel": 1086,
  "Bachelo": 1087,
  "Bachelor": 1088,
  "Bachelors": 1089,
  "ache": 1090,
  "achel": 1091,
  "achelo": 1092,
  "achelor": 1093,
  "achelors": 1094,
  "che": 1095,
  "chel": 1096,
  "chelo": 1097,
  "chelor": 1098,
  "chelors": 1099,
  "hel": 1100,
  "helo": 1101,
  "helor": 1102,
  "helors": 1103,
  "elo": 1104,
  "elor": 1105,
  "elors": 1106,
  "lor": 1107,
  "lors": 1108,
  "ors": 1109,
  "Pro": 1110,
  "ro": 1111,
  "hil": 1112,
  "ep": 1113,
  "re": 1114,
  "epa": 1115,
  "-r": 1116,
  "-re": 1117,
  "Ow": 1118,
  "Own": 1119,
  "Own-": 1120,
  "Own-c": 1121,
  "Own-ch": 1122,
  "Own-chi": 1123,
  "Own-chil": 1124,
  "Own-child": 1125,
  "wn": 1126,
  "wn-": 1127,
  "wn-c": 1128,
  "wn-ch": 1129,
  "wn-chi": 1130,
  "wn-chil": 1131,
  "wn-child": 1132,
  "n-c": 1133,
  "n-ch": 1134,
  "n-chi": 1135,
  "n-chil": 1136,
  "n-child": 1137,
  "-ch": 1138,
  "-chi": 1139,
  "-chil": 1140,
  "-child": 1141,
  "chil": 1142,
  "child": 1143,
  "hild": 1144,
  "ild": 1145,
  "ld": 1146,
  "-cl": 1147,
  "-cle": 1148,
  "cle": 1149,
  "ler": 1150,
  "vi": 1151,
  "dm": 1152,
  "Se": 1153,
  "Prof": 1154,
  "Prof-": 1155,
  "Prof-s": 1156,
  "rof": 1157,
  "rof-": 1158,
  "rof-s": 1159,
  "of": 1160,
  "of-": 1161,
  "of-s": 1162,
  "f-s": 1163,
  "7": 1164,
  "E": 1165,
  "6": 1166,
  "the": 1167,
  "ther": 1168,
  "her": 1169,
  "Ot": 1170,
  "Oth": 1171,
  "Othe": 1172,
  "Other": 1173,
  "C": 1174,
  "ers": 1175,
  "orc": 1176,
  "orce": 1177,
  "rc": 1178,
  "rce": 1179,
  "go": 1180,
  "Di": 1181,
  "Div": 1182,
  "Divo": 1183,
  "Divor": 1184,
  "Divorc": 1185,
  "Divorce": 1186,
  "Divorced": 1187,
  "ivo": 1188,
  "ivor": 1189,
  "ivorc": 1190,
  "ivorce": 1191,
  "ivorced": 1192,
  "vor": 1193,
  "vorc": 1194,
  "vorce": 1195,
  "vorced": 1196,
  "orced": 1197,
  "rced": 1198,
  "ced": 1199,
  "-go": 1200,
  "-gov": 1201,
  "gov": 1202,
  "<NUL": 1203,
  "<NULL": 1204,
  "NUL": 1205,
  "NULL": 1206,
  "NULL>": 1207,
  "UL": 1208,
  "ULL": 1209,
  "ULL>": 1210,
  "LL": 1211,
  "LL>": 1212,
  "L>": 1213,
  "Other-": 1214,
  "ther-": 1215,
  "her-": 1216,
  "man": 1217,
  "ana": 1218,
  "5": 1219,
  "Cr": 1220,
  "Cra": 1221,
  "Craf": 1222,
  "Craft": 1223,
  "Craft-": 1224,
  "Craft-r": 1225,
  "Craft-re": 1226,
  "Craft-rep": 1227,
  "Craft-repa": 1228,
  "Craft-repai": 1229,
  "Craft-repair": 1230,
  "raf": 1231,
  "raft": 1232,
  "raft-": 1233,
  "raft-r": 1234,
  "raft-re": 1235,
  "raft-rep": 1236,
  "raft-repa": 1237,
  "raft-repai": 1238,
  "raft-repair": 1239,
  "af": 1240,
  "aft": 1241,
  "aft-": 1242,
  "aft-r": 1243,
  "aft-re": 1244,
  "aft-rep": 1245,
  "aft-repa": 1246,
  "aft-repai": 1247,
  "aft-repair": 1248,
  "ft": 1249,
  "ft-": 1250,
  "ft-r": 1251,
  "ft-re": 1252,
  "ft-rep": 1253,
  "ft-repa": 1254,
  "ft-repai": 1255,
  "ft-repair": 1256,
  "t-r": 1257,
  "t-re": 1258,
  "t-rep": 1259,
  "t-repa": 1260,
  "t-repai": 1261,
  "t-repair": 1262,
  "-rep": 1263,
  "-repa": 1264,
  "-repai": 1265,
  "-repair": 1266,
  "rep": 1267,
  "repa": 1268,
  "repai": 1269,
  "repair": 1270,
  "epai": 1271,
  "epair": 1272,
  "pai": 1273,
  "pair": 1274,
  "air": 1275,
  "ir": 1276,
  "8": 1277,
  "-se": 1278,
  "-ser": 1279,
  "-serv": 1280,
  "ser": 1281,
  "serv": 1282,
  "erv": 1283,
  "rv": 1284,
  "Prof-sp": 1285,
  "Prof-spe": 1286,
  "Prof-spec": 1287,
  "Prof-speci": 1288,
  "Prof-specia": 1289,
  "Prof-special": 1290,
  "Prof-specialt": 1291,
  "Prof-specialty": 1292,
  "rof-sp": 1293,
  "rof-spe": 1294,
  "rof-spec": 1295,
  "rof-speci": 1296,
  "rof-specia": 1297,
  "rof-special": 1298,
  "rof-specialt": 1299,
  "rof-specialty": 1300,
  "of-sp": 1301,
  "of-spe": 1302,
  "of-spec": 1303,
  "of-speci": 1304,
  "of-specia": 1305,
  "of-special": 1306,
  "of-specialt": 1307,
  "of-specialty": 1308,
  "f-sp": 1309,
  "f-spe": 1310,
  "f-spec": 1311,
  "f-speci": 1312,
  "f-specia": 1313,
  "f-special": 1314,
  "f-specialt": 1315,
  "f-specialty": 1316,
  "-spe": 1317,
  "-spec": 1318,
  "-speci": 1319,
  "-specia": 1320,
  "-special": 1321,
  "-specialt": 1322,
  "-specialty": 1323,
  "spe": 1324,
  "spec": 1325,
  "speci": 1326,
  "specia": 1327,
  "special": 1328,
  "specialt": 1329,
  "specialty": 1330,
  "pe": 1331,
  "pec": 1332,
  "peci": 1333,
  "pecia": 1334,
  "pecial": 1335,
  "pecialt": 1336,
  "pecialty": 1337,
  "eci": 1338,
  "ecia": 1339,
  "ecial": 1340,
  "ecialt": 1341,
  "ecialty": 1342,
  "cia": 1343,
  "cial": 1344,
  "cialt": 1345,
  "cialty": 1346,
  "ialt": 1347,
  "ialty": 1348,
  "alt": 1349,
  "alty": 1350,
  "lt": 1351,
  "lty": 1352,
  "ty": 1353,
  "Ex": 1354,
  "Exe": 1355,
  "Exec": 1356,
  "Exec-": 1357,
  "Exec-m": 1358,
  "Exec-ma": 1359,
  "Exec-man": 1360,
  "Exec-mana": 1361,
  "Exec-manag": 1362,
  "Exec-manage": 1363,
  "Exec-manager": 1364,
  "Exec-manageri": 1365,
  "Exec-manageria": 1366,
  "Exec-managerial": 1367,
  "xe": 1368,
  "xec": 1369,
  "xec-": 1370,
  "xec-m": 1371,
  "xec-ma": 1372,
  "xec-man": 1373,
  "xec-mana": 1374,
  "xec-manag": 1375,
  "xec-manage": 1376,
  "xec-manager": 1377,
  "xec-manageri": 1378,
  "xec-manageria": 1379,
  "xec-managerial": 1380,
  "ec-": 1381,
  "ec-m": 1382,
  "ec-ma": 1383,
  "ec-man": 1384,
  "ec-mana": 1385,
  "ec-manag": 1386,
  "ec-manage": 1387,
  "ec-manager": 1388,
  "ec-manageri": 1389,
  "ec-manageria": 1390,
  "ec-managerial": 1391,
  "c-m": 1392,
  "c-ma": 1393,
  "c-man": 1394,
  "c-mana": 1395,
  "c-manag": 1396,
  "c-manage": 1397,
  "c-manager": 1398,
  "c-manageri": 1399,
  "c-manageria": 1400,
  "c-managerial": 1401,
  "-man": 1402,
  "-mana": 1403,
  "-manag": 1404,
  "-manage": 1405,
  "-manager": 1406,
  "-manageri": 1407,
  "-manageria": 1408,
  "-managerial": 1409,
  "mana": 1410,
  "manag": 1411,
  "manage": 1412,
  "manager": 1413,
  "manageri": 1414,
  "manageria": 1415,
  "managerial": 1416,
  "anag": 1417,
  "anage": 1418,
  "anager": 1419,
  "anageri": 1420,
  "anageria": 1421,
  "anagerial": 1422,
  "nag": 1423,
  "nage": 1424,
  "nager": 1425,
  "nageri": 1426,
  "nageria": 1427,
  "nagerial": 1428,
  "ager": 1429,
  "ageri": 1430,
  "ageria": 1431,
  "agerial": 1432,
  "ger": 1433,
  "geri": 1434,
  "geria": 1435,
  "gerial": 1436,
  "eria": 1437,
  "erial": 1438,
  "ria": 1439,
  "rial": 1440,
  "ng": 1441,
  "ica": 1442,
  "ing": 1443,
  "nc": 1444,
  "-e": 1445,
  "m-": 1446,
  "Sel": 1447,
  "Self": 1448,
  "Self-": 1449,
  "Self-e": 1450,
  "Self-em": 1451,
  "Self-emp": 1452,
  "Self-emp-": 1453,
  "elf": 1454,
  "elf-": 1455,
  "elf-e": 1456,
  "elf-em": 1457,
  "elf-emp": 1458,
  "elf-emp-": 1459,
  "lf": 1460,
  "lf-": 1461,
  "lf-e": 1462,
  "lf-em": 1463,
  "lf-emp": 1464,
  "lf-emp-": 1465,
  "f-e": 1466,
  "f-em": 1467,
  "f-emp": 1468,
  "f-emp-": 1469,
  "-em": 1470,
  "-emp": 1471,
  "-emp-": 1472,
  "emp": 1473,
  "emp-": 1474,
  "mp": 1475,
  "mp-": 1476,
  "-inc": 1477,
  "inc": 1478,
  "Ad": 1479,
  "Adm": 1480,
  "Adm-": 1481,
  "Adm-c": 1482,
  "Adm-cl": 1483,
  "Adm-cle": 1484,
  "Adm-cler": 1485,
  "Adm-cleri": 1486,
  "Adm-cleric": 1487,
  "Adm-clerica": 1488,
  "Adm-clerical": 1489,
  "dm-": 1490,
  "dm-c": 1491,
  "dm-cl": 1492,
  "dm-cle": 1493,
  "dm-cler": 1494,
  "dm-cleri": 1495,
  "dm-cleric": 1496,
  "dm-clerica": 1497,
  "dm-clerical": 1498,
  "m-c": 1499,
  "m-cl": 1500,
  "m-cle": 1501,
  "m-cler": 1502,
  "m-cleri": 1503,
  "m-cleric": 1504,
  "m-clerica": 1505,
  "m-clerical": 1506,
  "-cler": 1507,
  "-cleri": 1508,
  "-cleric": 1509,
  "-clerica": 1510,
  "-clerical": 1511,
  "cler": 1512,
  "cleri": 1513,
  "cleric": 1514,
  "clerica": 1515,
  "clerical": 1516,
  "leri": 1517,
  "leric": 1518,
  "lerica": 1519,
  "lerical": 1520,
  "eric": 1521,
  "erica": 1522,
  "erical": 1523,
  "ric": 1524,
  "rica": 1525,
  "rical": 1526,
  "ical": 1527,
  "Sa": 1528,
  "Sal": 1529,
  "ns": 1530,
  "nsp": 1531,
  "Sale": 1532,
  "Sales": 1533,
  "ales": 1534,
  "les": 1535,
  "ne": 1536,
  "As": 1537,
  "Unm": 1538,
  "Unma": 1539,
  "Unmar": 1540,
  "Unmarr": 1541,
  "Unmarri": 1542,
  "Unmarrie": 1543,
  "Unmarried": 1544,
  "nm": 1545,
  "nma": 1546,
  "nmar": 1547,
  "nmarr": 1548,
  "nmarri": 1549,
  "nmarrie": 1550,
  "nmarried": 1551,
  "Other-s": 1552,
  "Other-se": 1553,
  "Other-ser": 1554,
  "Other-serv": 1555,
  "Other-servi": 1556,
  "Other-servic": 1557,
  "Other-service": 1558,
  "ther-s": 1559,
  "ther-se": 1560,
  "ther-ser": 1561,
  "ther-serv": 1562,
  "ther-servi": 1563,
  "ther-servic": 1564,
  "ther-service": 1565,
  "her-s": 1566,
  "her-se": 1567,
  "her-ser": 1568,
  "her-serv": 1569,
  "her-servi": 1570,
  "her-servic": 1571,
  "her-service": 1572,
  "er-s": 1573,
  "er-se": 1574,
  "er-ser": 1575,
  "er-serv": 1576,
  "er-servi": 1577,
  "er-servic": 1578,
  "er-service": 1579,
  "r-s": 1580,
  "r-se": 1581,
  "r-ser": 1582,
  "r-serv": 1583,
  "r-servi": 1584,
  "r-servic": 1585,
  "r-service": 1586,
  "-servi": 1587,
  "-servic": 1588,
  "-service": 1589,
  "servi": 1590,
  "servic": 1591,
  "service": 1592,
  "ervi": 1593,
  "ervic": 1594,
  "ervice": 1595,
  "rvi": 1596,
  "rvic": 1597,
  "rvice": 1598,
  "vic": 1599,
  "vice": 1600,
  "ice": 1601,
  "Bl": 1602,
  "Bla": 1603,
  "Blac": 1604,
  "Black": 1605,
  "lac": 1606,
  "lack": 1607,
  "ack": 1608,
  "ck": 1609,
  "hin": 1610,
  "p-i": 1611,
  "p-in": 1612,
  "al-g": 1613,
  "al-go": 1614,
  "al-gov": 1615,
  "l-g": 1616,
  "l-go": 1617,
  "l-gov": 1618,
  "ct": 1619,
  "rt": 1620,
  "11": 1621,
  "T": 1622,
  "ort": 1623,
  "Self-emp-n": 1624,
  "Self-emp-no": 1625,
  "Self-emp-not": 1626,
  "Self-emp-not-": 1627,
  "Self-emp-not-i": 1628,
  "Self-emp-not-in": 1629,
  "Self-emp-not-inc": 1630,
  "elf-emp-n": 1631,
  "elf-emp-no": 1632,
  "elf-emp-not": 1633,
  "elf-emp-not-": 1634,
  "elf-emp-not-i": 1635,
  "elf-emp-not-in": 1636,
  "elf-emp-not-inc": 1637,
  "lf-emp-n": 1638,
  "lf-emp-no": 1639,
  "lf-emp-not": 1640,
  "lf-emp-not-": 1641,
  "lf-emp-not-i": 1642,
  "lf-emp-not-in": 1643,
  "lf-emp-not-inc": 1644,
  "f-emp-n": 1645,
  "f-emp-no": 1646,
  "f-emp-not": 1647,
  "f-emp-not-": 1648,
  "f-emp-not-i": 1649,
  "f-emp-not-in": 1650,
  "f-emp-not-inc": 1651,
  "-emp-n": 1652,
  "-emp-no": 1653,
  "-emp-not": 1654,
  "-emp-not-": 1655,
  "-emp-not-i": 1656,
  "-emp-not-in": 1657,
  "-emp-not-inc": 1658,
  "emp-n": 1659,
  "emp-no": 1660,
  "emp-not": 1661,
  "emp-not-": 1662,
  "emp-not-i": 1663,
  "emp-not-in": 1664,
  "emp-not-inc": 1665,
  "mp-n": 1666,
  "mp-no": 1667,
  "mp-not": 1668,
  "mp-not-": 1669,
  "mp-not-i": 1670,
  "mp-not-in": 1671,
  "mp-not-inc": 1672,
  "p-n": 1673,
  "p-no": 1674,
  "p-not": 1675,
  "p-not-": 1676,
  "p-not-i": 1677,
  "p-not-in": 1678,
  "p-not-inc": 1679,
  "-no": 1680,
  "-not": 1681,
  "-not-": 1682,
  "-not-i": 1683,
  "-not-in": 1684,
  "-not-inc": 1685,
  "no": 1686,
  "not": 1687,
  "not-": 1688,
  "not-i": 1689,
  "not-in": 1690,
  "not-inc": 1691,
  "ot-inc": 1692,
  "t-inc": 1693,
  "por": 1694,
  "port": 1695,
  "Wi": 1696,
  "Ass": 1697,
  "Asso": 1698,
  "Assoc": 1699,
  "Assoc-": 1700,
  "sso": 1701,
  "ssoc": 1702,
  "ssoc-": 1703,
  "so": 1704,
  "soc": 1705,
  "soc-": 1706,
  "oc-": 1707,
  "ine": 1708,
  "Lo": 1709,
  "Loc": 1710,
  "Loca": 1711,
  "Local": 1712,
  "Local-": 1713,
  "Local-g": 1714,
  "Local-go": 1715,
  "Local-gov": 1716,
  "oca": 1717,
  "ocal": 1718,
  "ocal-": 1719,
  "ocal-g": 1720,
  "ocal-go": 1721,
  "ocal-gov": 1722,
  "cal-": 1723,
  "cal-g": 1724,
  "cal-go": 1725,
  "cal-gov": 1726,
  "de": 1727,
  "der": 1728,
  "Mac": 1729,
  "Mach": 1730,
  "Machi": 1731,
  "Machin": 1732,
  "Machine": 1733,
  "Machine-": 1734,
  "Machine-o": 1735,
  "Machine-op": 1736,
  "Machine-op-": 1737,
  "Machine-op-i": 1738,
  "Machine-op-in": 1739,
  "Machine-op-ins": 1740,
  "Machine-op-insp": 1741,
  "Machine-op-inspc": 1742,
  "achi": 1743,
  "achin": 1744,
  "achine": 1745,
  "achine-": 1746,
  "achine-o": 1747,
  "achine-op": 1748,
  "achine-op-": 1749,
  "achine-op-i": 1750,
  "achine-op-in": 1751,
  "achine-op-ins": 1752,
  "achine-op-insp": 1753,
  "achine-op-inspc": 1754,
  "achine-op-inspct": 1755,
  "chin": 1756,
  "chine": 1757,
  "chine-": 1758,
  "chine-o": 1759,
  "chine-op": 1760,
  "chine-op-": 1761,
  "chine-op-i": 1762,
  "chine-op-in": 1763,
  "chine-op-ins": 1764,
  "chine-op-insp": 1765,
  "chine-op-inspc": 1766,
  "chine-op-inspct": 1767,
  "hine": 1768,
  "hine-": 1769,
  "hine-o": 1770,
  "hine-op": 1771,
  "hine-op-": 1772,
  "hine-op-i": 1773,
  "hine-op-in": 1774,
  "hine-op-ins": 1775,
  "hine-op-insp": 1776,
  "hine-op-inspc": 1777,
  "hine-op-inspct": 1778,
  "ine-": 1779,
  "ine-o": 1780,
  "ine-op": 1781,
  "ine-op-": 1782,
  "ine-op-i": 1783,
  "ine-op-in": 1784,
  "ine-op-ins": 1785,
  "ine-op-insp": 1786,
  "ine-op-inspc": 1787,
  "ine-op-inspct": 1788,
  "ne-": 1789,
  "ne-o": 1790,
  "ne-op": 1791,
  "ne-op-": 1792,
  "ne-op-i": 1793,
  "ne-op-in": 1794,
  "ne-op-ins": 1795,
  "ne-op-insp": 1796,
  "ne-op-inspc": 1797,
  "ne-op-inspct": 1798,
  "e-o": 1799,
  "e-op": 1800,
  "e-op-": 1801,
  "e-op-i": 1802,
  "e-op-in": 1803,
  "e-op-ins": 1804,
  "e-op-insp": 1805,
  "e-op-inspc": 1806,
  "e-op-inspct": 1807,
  "-o": 1808,
  "-op": 1809,
  "-op-": 1810,
  "-op-i": 1811,
  "-op-in": 1812,
  "-op-ins": 1813,
  "-op-insp": 1814,
  "-op-inspc": 1815,
  "-op-inspct": 1816,
  "op": 1817,
  "op-": 1818,
  "op-i": 1819,
  "op-in": 1820,
  "op-ins": 1821,
  "op-insp": 1822,
  "op-inspc": 1823,
  "op-inspct": 1824,
  "p-ins": 1825,
  "p-insp": 1826,
  "p-inspc": 1827,
  "p-inspct": 1828,
  "-ins": 1829,
  "-insp": 1830,
  "-inspc": 1831,
  "-inspct": 1832,
  "ins": 1833,
  "insp": 1834,
  "inspc": 1835,
  "inspct": 1836,
  "nspc": 1837,
  "nspct": 1838,
  "spc": 1839,
  "spct": 1840,
  "pc": 1841,
  "pct": 1842,
  "h-": 1843,
  "mo": 1844,
  "14": 1845,
  "Mas": 1846,
  "Mast": 1847,
  "Maste": 1848,
  "Master": 1849,
  "Masters": 1850,
  "ast": 1851,
  "aste": 1852,
  "aster": 1853,
  "asters": 1854,
  "ste": 1855,
  "ster": 1856,
  "sters": 1857,
  "ter": 1858,
  "ters": 1859,
  "ran": 1860,
  "12": 1861,
  "Tr": 1862,
  "Tra": 1863,
  "Tran": 1864,
  "Trans": 1865,
  "Transp": 1866,
  "Transpo": 1867,
  "Transpor": 1868,
  "Transport": 1869,
  "Transport-": 1870,
  "Transport-m": 1871,
  "Transport-mo": 1872,
  "Transport-mov": 1873,
  "Transport-movi": 1874,
  "Transport-movin": 1875,
  "Transport-moving": 1876,
  "rans": 1877,
  "ransp": 1878,
  "ranspo": 1879,
  "ranspor": 1880,
  "ransport": 1881,
  "ransport-": 1882,
  "ransport-m": 1883,
  "ransport-mo": 1884,
  "ransport-mov": 1885,
  "ransport-movi": 1886,
  "ransport-movin": 1887,
  "ransport-moving": 1888,
  "ans": 1889,
  "ansp": 1890,
  "anspo": 1891,
  "anspor": 1892,
  "ansport": 1893,
  "ansport-": 1894,
  "ansport-m": 1895,
  "ansport-mo": 1896,
  "ansport-mov": 1897,
  "ansport-movi": 1898,
  "ansport-movin": 1899,
  "ansport-moving": 1900,
  "nspo": 1901,
  "nspor": 1902,
  "nsport": 1903,
  "nsport-": 1904,
  "nsport-m": 1905,
  "nsport-mo": 1906,
  "nsport-mov": 1907,
  "nsport-movi": 1908,
  "nsport-movin": 1909,
  "nsport-moving": 1910,
  "spor": 1911,
  "sport": 1912,
  "sport-": 1913,
  "sport-m": 1914,
  "sport-mo": 1915,
  "sport-mov": 1916,
  "sport-movi": 1917,
  "sport-movin": 1918,
  "sport-moving": 1919,
  "port-": 1920,
  "port-m": 1921,
  "port-mo": 1922,
  "port-mov": 1923,
  "port-movi": 1924,
  "port-movin": 1925,
  "port-moving": 1926,
  "ort-": 1927,
  "ort-m": 1928,
  "ort-mo": 1929,
  "ort-mov": 1930,
  "ort-movi": 1931,
  "ort-movin": 1932,
  "ort-moving": 1933,
  "rt-": 1934,
  "rt-m": 1935,
  "rt-mo": 1936,
  "rt-mov": 1937,
  "rt-movi": 1938,
  "rt-movin": 1939,
  "rt-moving": 1940,
  "t-m": 1941,
  "t-mo": 1942,
  "t-mov": 1943,
  "t-movi": 1944,
  "t-movin": 1945,
  "t-moving": 1946,
  "-mo": 1947,
  "-mov": 1948,
  "-movi": 1949,
  "-movin": 1950,
  "-moving": 1951,
  "mov": 1952,
  "movi": 1953,
  "movin": 1954,
  "moving": 1955,
  "ovi": 1956,
  "ovin": 1957,
  "oving": 1958,
  "vin": 1959,
  "ving": 1960,
  "Wif": 1961,
  "Wife": 1962,
  "if": 1963,
  "ife": 1964,
  "fe": 1965,
  "-a": 1966,
  "Ha": 1967,
  "rat": 1968,
  "rate": 1969,
  "Assoc-v": 1970,
  "Assoc-vo": 1971,
  "Assoc-voc": 1972,
  "ssoc-v": 1973,
  "ssoc-vo": 1974,
  "ssoc-voc": 1975,
  "soc-v": 1976,
  "soc-vo": 1977,
  "soc-voc": 1978,
  "oc-v": 1979,
  "oc-vo": 1980,
  "oc-voc": 1981,
  "c-v": 1982,
  "c-vo": 1983,
  "c-voc": 1984,
  "-v": 1985,
  "-vo": 1986,
  "-voc": 1987,
  "voc": 1988,
  "an-": 1989,
  "Han": 1990,
  "Hand": 1991,
  "Handl": 1992,
  "Handle": 1993,
  "Handler": 1994,
  "Handlers": 1995,
  "Handlers-": 1996,
  "Handlers-c": 1997,
  "Handlers-cl": 1998,
  "Handlers-cle": 1999,
  "Handlers-clea": 2000,
  "Handlers-clean": 2001,
  "Handlers-cleane": 2002,
  "Handlers-cleaner": 2003,
  "andl": 2004,
  "andle": 2005,
  "andler": 2006,
  "andlers": 2007,
  "andlers-": 2008,
  "andlers-c": 2009,
  "andlers-cl": 2010,
  "andlers-cle": 2011,
  "andlers-clea": 2012,
  "andlers-clean": 2013,
  "andlers-cleane": 2014,
  "andlers-cleaner": 2015,
  "andlers-cleaners": 2016,
  "ndl": 2017,
  "ndle": 2018,
  "ndler": 2019,
  "ndlers": 2020,
  "ndlers-": 2021,
  "ndlers-c": 2022,
  "ndlers-cl": 2023,
  "ndlers-cle": 2024,
  "ndlers-clea": 2025,
  "ndlers-clean": 2026,
  "ndlers-cleane": 2027,
  "ndlers-cleaner": 2028,
  "ndlers-cleaners": 2029,
  "dl": 2030,
  "dle": 2031,
  "dler": 2032,
  "dlers": 2033,
  "dlers-": 2034,
  "dlers-c": 2035,
  "dlers-cl": 2036,
  "dlers-cle": 2037,
  "dlers-clea": 2038,
  "dlers-clean": 2039,
  "dlers-cleane": 2040,
  "dlers-cleaner": 2041,
  "dlers-cleaners": 2042,
  "lers": 2043,
  "lers-": 2044,
  "lers-c": 2045,
  "lers-cl": 2046,
  "lers-cle": 2047,
  "lers-clea": 2048,
  "lers-clean": 2049,
  "lers-cleane": 2050,
  "lers-cleaner": 2051,
  "lers-cleaners": 2052,
  "ers-": 2053,
  "ers-c": 2054,
  "ers-cl": 2055,
  "ers-cle": 2056,
  "ers-clea": 2057,
  "ers-clean": 2058,
  "ers-cleane": 2059,
  "ers-cleaner": 2060,
  "ers-cleaners": 2061,
  "rs-": 2062,
  "rs-c": 2063,
  "rs-cl": 2064,
  "rs-cle": 2065,
  "rs-clea": 2066,
  "rs-clean": 2067,
  "rs-cleane": 2068,
  "rs-cleaner": 2069,
  "rs-cleaners": 2070,
  "s-": 2071,
  "s-c": 2072,
  "s-cl": 2073,
  "s-cle": 2074,
  "s-clea": 2075,
  "s-clean": 2076,
  "s-cleane": 2077,
  "s-cleaner": 2078,
  "s-cleaners": 2079,
  "-clea": 2080,
  "-clean": 2081,
  "-cleane": 2082,
  "-cleaner": 2083,
  "-cleaners": 2084,
  "clea": 2085,
  "clean": 2086,
  "cleane": 2087,
  "cleaner": 2088,
  "cleaners": 2089,
  "lea": 2090,
  "lean": 2091,
  "leane": 2092,
  "leaner": 2093,
  "leaners": 2094,
  "ea": 2095,
  "ean": 2096,
  "eane": 2097,
  "eaner": 2098,
  "eaners": 2099,
  "ane": 2100,
  "aner": 2101,
  "aners": 2102,
  "ner": 2103,
  "ners": 2104,
  "-I": 2105,
  "ian": 2106,
  "ian-": 2107,
  "State-": 2108,
  "State-g": 2109,
  "State-go": 2110,
  "State-gov": 2111,
  "tate-": 2112,
  "tate-g": 2113,
  "tate-go": 2114,
  "tate-gov": 2115,
  "ate-": 2116,
  "ate-g": 2117,
  "ate-go": 2118,
  "ate-gov": 2119,
  "te-": 2120,
  "te-g": 2121,
  "te-go": 2122,
  "te-gov": 2123,
  "e-g": 2124,
  "e-go": 2125,
  "e-gov": 2126,
  "lan": 2127,
  "land": 2128,
  "rm": 2129,
  "11t": 2130,
  "11th": 2131,
  "1t": 2132,
  "1th": 2133,
  "pp": 2134,
  "do": 2135,
  "min": 2136,
  "Self-emp-i": 2137,
  "Self-emp-in": 2138,
  "Self-emp-inc": 2139,
  "elf-emp-i": 2140,
  "elf-emp-in": 2141,
  "elf-emp-inc": 2142,
  "lf-emp-i": 2143,
  "lf-emp-in": 2144,
  "lf-emp-inc": 2145,
  "f-emp-i": 2146,
  "f-emp-in": 2147,
  "f-emp-inc": 2148,
  "-emp-i": 2149,
  "-emp-in": 2150,
  "-emp-inc": 2151,
  "emp-i": 2152,
  "emp-in": 2153,
  "emp-inc": 2154,
  "mp-i": 2155,
  "mp-in": 2156,
  "mp-inc": 2157,
  "p-inc": 2158,
  "ing-": 2159,
  "ng-": 2160,
  "g-": 2161,
  "Fa": 2162,
  "Far": 2163,
  "Farm": 2164,
  "Farmi": 2165,
  "Farmin": 2166,
  "Farming": 2167,
  "Farming-": 2168,
  "Farming-f": 2169,
  "Farming-fi": 2170,
  "Farming-fis": 2171,
  "Farming-fish": 2172,
  "Farming-fishi": 2173,
  "Farming-fishin": 2174,
  "Farming-fishing": 2175,
  "arm": 2176,
  "armi": 2177,
  "armin": 2178,
  "arming": 2179,
  "arming-": 2180,
  "arming-f": 2181,
  "arming-fi": 2182,
  "arming-fis": 2183,
  "arming-fish": 2184,
  "arming-fishi": 2185,
  "arming-fishin": 2186,
  "arming-fishing": 2187,
  "rmi": 2188,
  "rmin": 2189,
  "rming": 2190,
  "rming-": 2191,
  "rming-f": 2192,
  "rming-fi": 2193,
  "rming-fis": 2194,
  "rming-fish": 2195,
  "rming-fishi": 2196,
  "rming-fishin": 2197,
  "rming-fishing": 2198,
  "ming": 2199,
  "ming-": 2200,
  "ming-f": 2201,
  "ming-fi": 2202,
  "ming-fis": 2203,
  "ming-fish": 2204,
  "ming-fishi": 2205,
  "ming-fishin": 2206,
  "ming-fishing": 2207,
  "ing-f": 2208,
  "ing-fi": 2209,
  "ing-fis": 2210,
  "ing-fish": 2211,
  "ing-fishi": 2212,
  "ing-fishin": 2213,
  "ing-fishing": 2214,
  "ng-f": 2215,
  "ng-fi": 2216,
  "ng-fis": 2217,
  "ng-fish": 2218,
  "ng-fishi": 2219,
  "ng-fishin": 2220,
  "ng-fishing": 2221,
  "g-f": 2222,
  "g-fi": 2223,
  "g-fis": 2224,
  "g-fish": 2225,
  "g-fishi": 2226,
  "g-fishin": 2227,
  "g-fishing": 2228,
  "-fi": 2229,
  "-fis": 2230,
  "-fish": 2231,
  "-fishi": 2232,
  "-fishin": 2233,
  "-fishing": 2234,
  "fi": 2235,
  "fis": 2236,
  "fish": 2237,
  "fishi": 2238,
  "fishin": 2239,
  "fishing": 2240,
  "is": 2241,
  "ish": 2242,
  "ishi": 2243,
  "ishin": 2244,
  "ishing": 2245,
  "sh": 2246,
  "shi": 2247,
  "shin": 2248,
  "shing": 2249,
  "hing": 2250,
  "ara": 2251,
  "Assoc-a": 2252,
  "Assoc-ac": 2253,
  "Assoc-acd": 2254,
  "Assoc-acdm": 2255,
  "ssoc-a": 2256,
  "ssoc-ac": 2257,
  "ssoc-acd": 2258,
  "ssoc-acdm": 2259,
  "soc-a": 2260,
  "soc-ac": 2261,
  "soc-acd": 2262,
  "soc-acdm": 2263,
  "oc-a": 2264,
  "oc-ac": 2265,
  "oc-acd": 2266,
  "oc-acdm": 2267,
  "c-a": 2268,
  "c-ac": 2269,
  "c-acd": 2270,
  "c-acdm": 2271,
  "-ac": 2272,
  "-acd": 2273,
  "-acdm": 2274,
  "acd": 2275,
  "acdm": 2276,
  "cd": 2277,
  "cdm": 2278,
  "Sep": 2279,
  "Sepa": 2280,
  "Separ": 2281,
  "Separa": 2282,
  "Separat": 2283,
  "Separate": 2284,
  "Separated": 2285,
  "epar": 2286,
  "epara": 2287,
  "eparat": 2288,
  "eparate": 2289,
  "eparated": 2290,
  "par": 2291,
  "para": 2292,
  "parat": 2293,
  "parate": 2294,
  "parated": 2295,
  "arat": 2296,
  "arate": 2297,
  "arated": 2298,
  "rated": 2299,
  "ated": 2300,
  "sl": 2301,
  "sla": 2302,
  "Wid": 2303,
  "Wido": 2304,
  "Widow": 2305,
  "Widowe": 2306,
  "Widowed": 2307,
  "id": 2308,
  "ido": 2309,
  "idow": 2310,
  "idowe": 2311,
  "idowed": 2312,
  "dow": 2313,
  "dowe": 2314,
  "dowed": 2315,
  "ow": 2316,
  "owe": 2317,
  "owed": 2318,
  "we": 2319,
  "wed": 2320,
  "Asi": 2321,
  "Asia": 2322,
  "Asian": 2323,
  "Asian-": 2324,
  "Asian-P": 2325,
  "Asian-Pa": 2326,
  "Asian-Pac": 2327,
  "Asian-Pac-": 2328,
  "Asian-Pac-I": 2329,
  "Asian-Pac-Is": 2330,
  "Asian-Pac-Isl": 2331,
  "Asian-Pac-Isla": 2332,
  "Asian-Pac-Islan": 2333,
  "Asian-Pac-Island": 2334,
  "si": 2335,
  "sia": 2336,
  "sian": 2337,
  "sian-": 2338,
  "sian-P": 2339,
  "sian-Pa": 2340,
  "sian-Pac": 2341,
  "sian-Pac-": 2342,
  "sian-Pac-I": 2343,
  "sian-Pac-Is": 2344,
  "sian-Pac-Isl": 2345,
  "sian-Pac-Isla": 2346,
  "sian-Pac-Islan": 2347,
  "sian-Pac-Island": 2348,
  "sian-Pac-Islande": 2349,
  "ian-P": 2350,
  "ian-Pa": 2351,
  "ian-Pac": 2352,
  "ian-Pac-": 2353,
  "ian-Pac-I": 2354,
  "ian-Pac-Is": 2355,
  "ian-Pac-Isl": 2356,
  "ian-Pac-Isla": 2357,
  "ian-Pac-Islan": 2358,
  "ian-Pac-Island": 2359,
  "ian-Pac-Islande": 2360,
  "ian-Pac-Islander": 2361,
  "an-P": 2362,
  "an-Pa": 2363,
  "an-Pac": 2364,
  "an-Pac-": 2365,
  "an-Pac-I": 2366,
  "an-Pac-Is": 2367,
  "an-Pac-Isl": 2368,
  "an-Pac-Isla": 2369,
  "an-Pac-Islan": 2370,
  "an-Pac-Island": 2371,
  "an-Pac-Islande": 2372,
  "an-Pac-Islander": 2373,
  "n-P": 2374,
  "n-Pa": 2375,
  "n-Pac": 2376,
  "n-Pac-": 2377,
  "n-Pac-I": 2378,
  "n-Pac-Is": 2379,
  "n-Pac-Isl": 2380,
  "n-Pac-Isla": 2381,
  "n-Pac-Islan": 2382,
  "n-Pac-Island": 2383,
  "n-Pac-Islande": 2384,
  "n-Pac-Islander": 2385,
  "-P": 2386,
  "-Pa": 2387,
  "-Pac": 2388,
  "-Pac-": 2389,
  "-Pac-I": 2390,
  "-Pac-Is": 2391,
  "-Pac-Isl": 2392,
  "-Pac-Isla": 2393,
  "-Pac-Islan": 2394,
  "-Pac-Island": 2395,
  "-Pac-Islande": 2396,
  "-Pac-Islander": 2397,
  "Pa": 2398,
  "Pac": 2399,
  "Pac-": 2400,
  "Pac-I": 2401,
  "Pac-Is": 2402,
  "Pac-Isl": 2403,
  "Pac-Isla": 2404,
  "Pac-Islan": 2405,
  "Pac-Island": 2406,
  "Pac-Islande": 2407,
  "Pac-Islander": 2408,
  "ac-": 2409,
  "ac-I": 2410,
  "ac-Is": 2411,
  "ac-Isl": 2412,
  "ac-Isla": 2413,
  "ac-Islan": 2414,
  "ac-Island": 2415,
  "ac-Islande": 2416,
  "ac-Islander": 2417,
  "c-I": 2418,
  "c-Is": 2419,
  "c-Isl": 2420,
  "c-Isla": 2421,
  "c-Islan": 2422,
  "c-Island": 2423,
  "c-Islande": 2424,
  "c-Islander": 2425,
  "-Is": 2426,
  "-Isl": 2427,
  "-Isla": 2428,
  "-Islan": 2429,
  "-Island": 2430,
  "-Islande": 2431,
  "-Islander": 2432,
  "Is": 2433,
  "Isl": 2434,
  "Isla": 2435,
  "Islan": 2436,
  "Island": 2437,
  "Islande": 2438,
  "Islander": 2439,
  "slan": 2440,
  "sland": 2441,
  "slande": 2442,
  "slander": 2443,
  "lande": 2444,
  "lander": 2445,
  "ande": 2446,
  "ander": 2447,
  "nde": 2448,
  "nder": 2449,
  "rel": 2450,
  "rela": 2451,
  "ela": 2452,
  "Other-r": 2453,
  "Other-re": 2454,
  "Other-rel": 2455,
  "Other-rela": 2456,
  "Other-relat": 2457,
  "Other-relati": 2458,
  "Other-relativ": 2459,
  "Other-relative": 2460,
  "ther-r": 2461,
  "ther-re": 2462,
  "ther-rel": 2463,
  "ther-rela": 2464,
  "ther-relat": 2465,
  "ther-relati": 2466,
  "ther-relativ": 2467,
  "ther-relative": 2468,
  "her-r": 2469,
  "her-re": 2470,
  "her-rel": 2471,
  "her-rela": 2472,
  "her-relat": 2473,
  "her-relati": 2474,
  "her-relativ": 2475,
  "her-relative": 2476,
  "er-r": 2477,
  "er-re": 2478,
  "er-rel": 2479,
  "er-rela": 2480,
  "er-relat": 2481,
  "er-relati": 2482,
  "er-relativ": 2483,
  "er-relative": 2484,
  "r-r": 2485,
  "r-re": 2486,
  "r-rel": 2487,
  "r-rela": 2488,
  "r-relat": 2489,
  "r-relati": 2490,
  "r-relativ": 2491,
  "r-relative": 2492,
  "-rel": 2493,
  "-rela": 2494,
  "-relat": 2495,
  "-relati": 2496,
  "-relativ": 2497,
  "-relative": 2498,
  "relat": 2499,
  "relati": 2500,
  "relativ": 2501,
  "relative": 2502,
  "elat": 2503,
  "elati": 2504,
  "elativ": 2505,
  "elative": 2506,
  "lat": 2507,
  "lati": 2508,
  "lativ": 2509,
  "lative": 2510,
  "Te": 2511,
  "Tec": 2512,
  "Tech": 2513,
  "Tech-": 2514,
  "Tech-s": 2515,
  "Tech-su": 2516,
  "Tech-sup": 2517,
  "Tech-supp": 2518,
  "Tech-suppo": 2519,
  "Tech-suppor": 2520,
  "Tech-support": 2521,
  "ech": 2522,
  "ech-": 2523,
  "ech-s": 2524,
  "ech-su": 2525,
  "ech-sup": 2526,
  "ech-supp": 2527,
  "ech-suppo": 2528,
  "ech-suppor": 2529,
  "ech-support": 2530,
  "ch-": 2531,
  "ch-s": 2532,
  "ch-su": 2533,
  "ch-sup": 2534,
  "ch-supp": 2535,
  "ch-suppo": 2536,
  "ch-suppor": 2537,
  "ch-support": 2538,
  "h-s": 2539,
  "h-su": 2540,
  "h-sup": 2541,
  "h-supp": 2542,
  "h-suppo": 2543,
  "h-suppor": 2544,
  "h-support": 2545,
  "-su": 2546,
  "-sup": 2547,
  "-supp": 2548,
  "-suppo": 2549,
  "-suppor": 2550,
  "-support": 2551,
  "su": 2552,
  "sup": 2553,
  "supp": 2554,
  "suppo": 2555,
  "suppor": 2556,
  "support": 2557,
  "upp": 2558,
  "uppo": 2559,
  "uppor": 2560,
  "upport": 2561,
  "ppo": 2562,
  "ppor": 2563,
  "pport": 2564,
  "th-": 2565,
  "10t": 2566,
  "10th": 2567,
  "0t": 2568,
  "0th": 2569,
  "Fed": 2570,
  "Fede": 2571,
  "Feder": 2572,
  "Federa": 2573,
  "Federal": 2574,
  "Federal-": 2575,
  "Federal-g": 2576,
  "Federal-go": 2577,
  "Federal-gov": 2578,
  "ede": 2579,
  "eder": 2580,
  "edera": 2581,
  "ederal": 2582,
  "ederal-": 2583,
  "ederal-g": 2584,
  "ederal-go": 2585,
  "ederal-gov": 2586,
  "dera": 2587,
  "deral": 2588,
  "deral-": 2589,
  "deral-g": 2590,
  "deral-go": 2591,
  "deral-gov": 2592,
  "era": 2593,
  "eral": 2594,
  "eral-": 2595,
  "eral-g": 2596,
  "eral-go": 2597,
  "eral-gov": 2598,
  "ral": 2599,
  "ral-": 2600,
  "ral-g": 2601,
  "ral-go": 2602,
  "ral-gov": 2603,
  "e-s": 2604,
  "e-se": 2605,
  "e-ser": 2606,
  "e-serv": 2607,
  "ho": 2608,
  "ico": 2609,
  "15": 2610,
  "Prot": 2611,
  "Prote": 2612,
  "Protec": 2613,
  "Protect": 2614,
  "Protecti": 2615,
  "Protectiv": 2616,
  "Protective": 2617,
  "Protective-": 2618,
  "Protective-s": 2619,
  "Protective-se": 2620,
  "Protective-ser": 2621,
  "Protective-serv": 2622,
  "rot": 2623,
  "rote": 2624,
  "rotec": 2625,
  "rotect": 2626,
  "rotecti": 2627,
  "rotectiv": 2628,
  "rotective": 2629,
  "rotective-": 2630,
  "rotective-s": 2631,
  "rotective-se": 2632,
  "rotective-ser": 2633,
  "rotective-serv": 2634,
  "ote": 2635,
  "otec": 2636,
  "otect": 2637,
  "otecti": 2638,
  "otectiv": 2639,
  "otective": 2640,
  "otective-": 2641,
  "otective-s": 2642,
  "otective-se": 2643,
  "otective-ser": 2644,
  "otective-serv": 2645,
  "tec": 2646,
  "tect": 2647,
  "tecti": 2648,
  "tectiv": 2649,
  "tective": 2650,
  "tective-": 2651,
  "tective-s": 2652,
  "tective-se": 2653,
  "tective-ser": 2654,
  "tective-serv": 2655,
  "ect": 2656,
  "ecti": 2657,
  "ectiv": 2658,
  "ective": 2659,
  "ective-": 2660,
  "ective-s": 2661,
  "ective-se": 2662,
  "ective-ser": 2663,
  "ective-serv": 2664,
  "cti": 2665,
  "ctiv": 2666,
  "ctive": 2667,
  "ctive-": 2668,
  "ctive-s": 2669,
  "ctive-se": 2670,
  "ctive-ser": 2671,
  "ctive-serv": 2672,
  "tive-s": 2673,
  "tive-se": 2674,
  "tive-ser": 2675,
  "tive-serv": 2676,
  "ive-s": 2677,
  "ive-se": 2678,
  "ive-ser": 2679,
  "ive-serv": 2680,
  "ve-s": 2681,
  "ve-se": 2682,
  "ve-ser": 2683,
  "ve-serv": 2684,
  "7t": 2685,
  "7th": 2686,
  "7th-": 2687,
  "7th-8": 2688,
  "7th-8t": 2689,
  "7th-8th": 2690,
  "th-8": 2691,
  "th-8t": 2692,
  "th-8th": 2693,
  "h-8": 2694,
  "h-8t": 2695,
  "h-8th": 2696,
  "-8": 2697,
  "-8t": 2698,
  "-8th": 2699,
  "8t": 2700,
  "8th": 2701,
  "Me": 2702,
  "Mex": 2703,
  "Mexi": 2704,
  "Mexic": 2705,
  "Mexico": 2706,
  "exi": 2707,
  "exic": 2708,
  "exico": 2709,
  "xi": 2710,
  "xic": 2711,
  "xico": 2712,
  "sc": 2713,
  "sch": 2714,
  "scho": 2715,
  "schoo": 2716,
  "school": 2717,
  "cho": 2718,
  "choo": 2719,
  "chool": 2720,
  "hoo": 2721,
  "hool": 2722,
  "oo": 2723,
  "ool": 2724,
  "ouse-": 2725,
  "use-": 2726,
  "se-": 2727,
  "6.": 2728,
  "6.0": 2729,
  "5.": 2730,
  "5.0": 2731,
  "3.": 2732,
  "3.0": 2733,
  "1.": 2734,
  "1.0": 2735,
  "8.": 2736,
  "8.0": 2737,
  "2.": 2738,
  "2.0": 2739,
  "16": 2740,
  "Prof-sc": 2741,
  "Prof-sch": 2742,
  "Prof-scho": 2743,
  "Prof-schoo": 2744,
  "Prof-school": 2745,
  "rof-sc": 2746,
  "rof-sch": 2747,
  "rof-scho": 2748,
  "rof-schoo": 2749,
  "rof-school": 2750,
  "of-sc": 2751,
  "of-sch": 2752,
  "of-scho": 2753,
  "of-schoo": 2754,
  "of-school": 2755,
  "f-sc": 2756,
  "f-sch": 2757,
  "f-scho": 2758,
  "f-schoo": 2759,
  "f-school": 2760,
  "-sc": 2761,
  "-sch": 2762,
  "-scho": 2763,
  "-schoo": 2764,
  "-school": 2765,
  "9.": 2766,
  "9.0": 2767,
  "4.": 2768,
  "4.0": 2769,
  "0.": 2770,
  "0.0": 2771,
  "to": 2772,
  "9t": 2773,
  "9th": 2774,
  "7.": 2775,
  "7.0": 2776,
  "Do": 2777,
  "12t": 2778,
  "12th": 2779,
  "2t": 2780,
  "2th": 2781,
  "Married-s": 2782,
  "Married-sp": 2783,
  "Married-spo": 2784,
  "Married-spou": 2785,
  "Married-spous": 2786,
  "Married-spouse": 2787,
  "Married-spouse-": 2788,
  "Married-spouse-a": 2789,
  "arried-s": 2790,
  "arried-sp": 2791,
  "arried-spo": 2792,
  "arried-spou": 2793,
  "arried-spous": 2794,
  "arried-spouse": 2795,
  "arried-spouse-": 2796,
  "arried-spouse-a": 2797,
  "arried-spouse-ab": 2798,
  "rried-s": 2799,
  "rried-sp": 2800,
  "rried-spo": 2801,
  "rried-spou": 2802,
  "rried-spous": 2803,
  "rried-spouse": 2804,
  "rried-spouse-": 2805,
  "rried-spouse-a": 2806,
  "rried-spouse-ab": 2807,
  "rried-spouse-abs": 2808,
  "ried-s": 2809,
  "ried-sp": 2810,
  "ried-spo": 2811,
  "ried-spou": 2812,
  "ried-spous": 2813,
  "ried-spouse": 2814,
  "ried-spouse-": 2815,
  "ried-spouse-a": 2816,
  "ried-spouse-ab": 2817,
  "ried-spouse-abs": 2818,
  "ried-spouse-abse": 2819,
  "ied-s": 2820,
  "ied-sp": 2821,
  "ied-spo": 2822,
  "ied-spou": 2823,
  "ied-spous": 2824,
  "ied-spouse": 2825,
  "ied-spouse-": 2826,
  "ied-spouse-a": 2827,
  "ied-spouse-ab": 2828,
  "ied-spouse-abs": 2829,
  "ied-spouse-abse": 2830,
  "ied-spouse-absen": 2831,
  "ed-s": 2832,
  "ed-sp": 2833,
  "ed-spo": 2834,
  "ed-spou": 2835,
  "ed-spous": 2836,
  "ed-spouse": 2837,
  "ed-spouse-": 2838,
  "ed-spouse-a": 2839,
  "ed-spouse-ab": 2840,
  "ed-spouse-abs": 2841,
  "ed-spouse-abse": 2842,
  "ed-spouse-absen": 2843,
  "ed-spouse-absent": 2844,
  "d-s": 2845,
  "d-sp": 2846,
  "d-spo": 2847,
  "d-spou": 2848,
  "d-spous": 2849,
  "d-spouse": 2850,
  "d-spouse-": 2851,
  "d-spouse-a": 2852,
  "d-spouse-ab": 2853,
  "d-spouse-abs": 2854,
  "d-spouse-abse": 2855,
  "d-spouse-absen": 2856,
  "d-spouse-absent": 2857,
  "-spouse-": 2858,
  "-spouse-a": 2859,
  "-spouse-ab": 2860,
  "-spouse-abs": 2861,
  "-spouse-abse": 2862,
  "-spouse-absen": 2863,
  "-spouse-absent": 2864,
  "spouse-": 2865,
  "spouse-a": 2866,
  "spouse-ab": 2867,
  "spouse-abs": 2868,
  "spouse-abse": 2869,
  "spouse-absen": 2870,
  "spouse-absent": 2871,
  "pouse-": 2872,
  "pouse-a": 2873,
  "pouse-ab": 2874,
  "pouse-abs": 2875,
  "pouse-abse": 2876,
  "pouse-absen": 2877,
  "pouse-absent": 2878,
  "ouse-a": 2879,
  "ouse-ab": 2880,
  "ouse-abs": 2881,
  "ouse-abse": 2882,
  "ouse-absen": 2883,
  "ouse-absent": 2884,
  "use-a": 2885,
  "use-ab": 2886,
  "use-abs": 2887,
  "use-abse": 2888,
  "use-absen": 2889,
  "use-absent": 2890,
  "se-a": 2891,
  "se-ab": 2892,
  "se-abs": 2893,
  "se-abse": 2894,
  "se-absen": 2895,
  "se-absent": 2896,
  "e-a": 2897,
  "e-ab": 2898,
  "e-abs": 2899,
  "e-abse": 2900,
  "e-absen": 2901,
  "e-absent": 2902,
  "-ab": 2903,
  "-abs": 2904,
  "-abse": 2905,
  "-absen": 2906,
  "-absent": 2907,
  "ab": 2908,
  "abs": 2909,
  "abse": 2910,
  "absen": 2911,
  "absent": 2912,
  "bs": 2913,
  "bse": 2914,
  "bsen": 2915,
  "bsent": 2916,
  "sen": 2917,
  "sent": 2918,
  "en": 2919,
  "ent": 2920,
  "di": 2921,
  "dia": 2922,
  "In": 2923,
  "Ind": 2924,
  "Indi": 2925,
  "India": 2926,
  "ndi": 2927,
  "ndia": 2928,
  "Doc": 2929,
  "Doct": 2930,
  "Docto": 2931,
  "Doctor": 2932,
  "Doctora": 2933,
  "Doctorat": 2934,
  "Doctorate": 2935,
  "oct": 2936,
  "octo": 2937,
  "octor": 2938,
  "octora": 2939,
  "octorat": 2940,
  "octorate": 2941,
  "cto": 2942,
  "ctor": 2943,
  "ctora": 2944,
  "ctorat": 2945,
  "ctorate": 2946,
  "tor": 2947,
  "tora": 2948,
  "torat": 2949,
  "torate": 2950,
  "ora": 2951,
  "orat": 2952,
  "orate": 2953,
  "34": 2954,
  "33": 2955,
  "5t": 2956,
  "5th": 2957,
  "5th-": 2958,
  "5th-6": 2959,
  "5th-6t": 2960,
  "5th-6th": 2961,
  "th-6": 2962,
  "th-6t": 2963,
  "th-6th": 2964,
  "h-6": 2965,
  "h-6t": 2966,
  "h-6th": 2967,
  "-6": 2968,
  "-6t": 2969,
  "-6th": 2970,
  "6t": 2971,
  "6th": 2972,
  "93": 2973,
  "98": 2974,
  "Am": 2975,
  "Ame": 2976,
  "Amer": 2977,
  "Amer-": 2978,
  "Amer-I": 2979,
  "Amer-In": 2980,
  "Amer-Ind": 2981,
  "Amer-Indi": 2982,
  "Amer-India": 2983,
  "Amer-Indian": 2984,
  "Amer-Indian-": 2985,
  "Amer-Indian-E": 2986,
  "Amer-Indian-Es": 2987,
  "Amer-Indian-Esk": 2988,
  "Amer-Indian-Eski": 2989,
  "mer": 2990,
  "mer-": 2991,
  "mer-I": 2992,
  "mer-In": 2993,
  "mer-Ind": 2994,
  "mer-Indi": 2995,
  "mer-India": 2996,
  "mer-Indian": 2997,
  "mer-Indian-": 2998,
  "mer-Indian-E": 2999,
  "mer-Indian-Es": 3000,
  "mer-Indian-Esk": 3001,
  "mer-Indian-Eski": 3002,
  "mer-Indian-Eskim": 3003,
  "er-I": 3004,
  "er-In": 3005,
  "er-Ind": 3006,
  "er-Indi": 3007,
  "er-India": 3008,
  "er-Indian": 3009,
  "er-Indian-": 3010,
  "er-Indian-E": 3011,
  "er-Indian-Es": 3012,
  "er-Indian-Esk": 3013,
  "er-Indian-Eski": 3014,
  "er-Indian-Eskim": 3015,
  "er-Indian-Eskimo": 3016,
  "r-I": 3017,
  "r-In": 3018,
  "r-Ind": 3019,
  "r-Indi": 3020,
  "r-India": 3021,
  "r-Indian": 3022,
  "r-Indian-": 3023,
  "r-Indian-E": 3024,
  "r-Indian-Es": 3025,
  "r-Indian-Esk": 3026,
  "r-Indian-Eski": 3027,
  "r-Indian-Eskim": 3028,
  "r-Indian-Eskimo": 3029,
  "-In": 3030,
  "-Ind": 3031,
  "-Indi": 3032,
  "-India": 3033,
  "-Indian": 3034,
  "-Indian-": 3035,
  "-Indian-E": 3036,
  "-Indian-Es": 3037,
  "-Indian-Esk": 3038,
  "-Indian-Eski": 3039,
  "-Indian-Eskim": 3040,
  "-Indian-Eskimo": 3041,
  "Indian": 3042,
  "Indian-": 3043,
  "Indian-E": 3044,
  "Indian-Es": 3045,
  "Indian-Esk": 3046,
  "Indian-Eski": 3047,
  "Indian-Eskim": 3048,
  "Indian-Eskimo": 3049,
  "ndian": 3050,
  "ndian-": 3051,
  "ndian-E": 3052,
  "ndian-Es": 3053,
  "ndian-Esk": 3054,
  "ndian-Eski": 3055,
  "ndian-Eskim": 3056,
  "ndian-Eskimo": 3057,
  "dian": 3058,
  "dian-": 3059,
  "dian-E": 3060,
  "dian-Es": 3061,
  "dian-Esk": 3062,
  "dian-Eski": 3063,
  "dian-Eskim": 3064,
  "dian-Eskimo": 3065,
  "ian-E": 3066,
  "ian-Es": 3067,
  "ian-Esk": 3068,
  "ian-Eski": 3069,
  "ian-Eskim": 3070,
  "ian-Eskimo": 3071,
  "an-E": 3072,
  "an-Es": 3073,
  "an-Esk": 3074,
  "an-Eski": 3075,
  "an-Eskim": 3076,
  "an-Eskimo": 3077,
  "n-E": 3078,
  "n-Es": 3079,
  "n-Esk": 3080,
  "n-Eski": 3081,
  "n-Eskim": 3082,
  "n-Eskimo": 3083,
  "-E": 3084,
  "-Es": 3085,
  "-Esk": 3086,
  "-Eski": 3087,
  "-Eskim": 3088,
  "-Eskimo": 3089,
  "Es": 3090,
  "Esk": 3091,
  "Eski": 3092,
  "Eskim": 3093,
  "Eskimo": 3094,
  "sk": 3095,
  "ski": 3096,
  "skim": 3097,
  "skimo": 3098,
  "ki": 3099,
  "kim": 3100,
  "kimo": 3101,
  "im": 3102,
  "imo": 3103,
  "31": 3104,
  "37": 3105,
  "32": 3106,
  "96": 3107,
  "99": 3108,
  "30": 3109,
  "72": 3110,
  "29": 3111,
  "35": 3112,
  "li": 3113,
  "41": 3114,
  "87": 3115,
  "66": 3116,
  "48": 3117,
  "24": 3118,
  "83": 3119,
  "78": 3120,
  "89": 3121,
  "39": 3122,
  "54": 3123,
  "43": 3124,
  "40": 3125,
  "27": 3126,
  "82": 3127,
  "46": 3128,
  "85": 3129,
  "94": 3130,
  "44": 3131,
  "97": 3132,
  "64": 3133,
  "53": 3134,
  "26": 3135,
  "91": 3136,
  "77": 3137,
  "61": 3138,
  "88": 3139,
  "42": 3140,
  "95": 3141,
  "56": 3142,
  "76": 3143,
  "90": 3144,
  "79": 3145,
  "63": 3146,
  "38": 3147,
  "45": 3148,
  "84": 3149,
  "22": 3150,
  "49": 3151,
  "70": 3152,
  "06": 3153,
  "60": 3154,
  "62": 3155,
  "50": 3156,
  "21": 3157,
  "68": 3158,
  "36": 3159,
  "86": 3160,
  "67": 3161,
  "65": 3162,
  "74": 3163,
  "52": 3164,
  "92": 3165,
  "-R": 3166,
  "R": 3167,
  "75": 3168,
  "55": 3169,
  "80": 3170,
  "73": 3171,
  "81": 3172,
  "28": 3173,
  "Ph": 3174,
  "Phi": 3175,
  "Phil": 3176,
  "Phili": 3177,
  "Philip": 3178,
  "Philipp": 3179,
  "Philippi": 3180,
  "Philippin": 3181,
  "Philippine": 3182,
  "Philippines": 3183,
  "hili": 3184,
  "hilip": 3185,
  "hilipp": 3186,
  "hilippi": 3187,
  "hilippin": 3188,
  "hilippine": 3189,
  "hilippines": 3190,
  "ili": 3191,
  "ilip": 3192,
  "ilipp": 3193,
  "ilippi": 3194,
  "ilippin": 3195,
  "ilippine": 3196,
  "ilippines": 3197,
  "lip": 3198,
  "lipp": 3199,
  "lippi": 3200,
  "lippin": 3201,
  "lippine": 3202,
  "lippines": 3203,
  "ip": 3204,
  "ipp": 3205,
  "ippi": 3206,
  "ippin": 3207,
  "ippine": 3208,
  "ippines": 3209,
  "ppi": 3210,
  "ppin": 3211,
  "ppine": 3212,
  "ppines": 3213,
  "pin": 3214,
  "pine": 3215,
  "pines": 3216,
  "ines": 3217,
  "nes": 3218,
  "58": 3219,
  "23": 3220,
  "51": 3221,
  "59": 3222,
  "47": 3223,
  "69": 3224,
  "hou": 3225,
  "19": 3226,
  "57": 3227,
  "18": 3228,
  "20": 3229,
  "25": 3230,
  "02": 3231,
  "1s": 3232,
  "1st": 3233,
  "1st-": 3234,
  "1st-4": 3235,
  "1st-4t": 3236,
  "1st-4th": 3237,
  "st-": 3238,
  "st-4": 3239,
  "st-4t": 3240,
  "st-4th": 3241,
  "t-4": 3242,
  "t-4t": 3243,
  "t-4th": 3244,
  "-4": 3245,
  "-4t": 3246,
  "-4th": 3247,
  "4t": 3248,
  "4th": 3249,
  "Priv-": 3250,
  "Priv-h": 3251,
  "Priv-ho": 3252,
  "Priv-hou": 3253,
  "Priv-hous": 3254,
  "Priv-house": 3255,
  "Priv-house-": 3256,
  "Priv-house-s": 3257,
  "Priv-house-se": 3258,
  "Priv-house-ser": 3259,
  "Priv-house-serv": 3260,
  "riv-": 3261,
  "riv-h": 3262,
  "riv-ho": 3263,
  "riv-hou": 3264,
  "riv-hous": 3265,
  "riv-house": 3266,
  "riv-house-": 3267,
  "riv-house-s": 3268,
  "riv-house-se": 3269,
  "riv-house-ser": 3270,
  "riv-house-serv": 3271,
  "iv-h": 3272,
  "iv-ho": 3273,
  "iv-hou": 3274,
  "iv-hous": 3275,
  "iv-house": 3276,
  "iv-house-": 3277,
  "iv-house-s": 3278,
  "iv-house-se": 3279,
  "iv-house-ser": 3280,
  "iv-house-serv": 3281,
  "v-h": 3282,
  "v-ho": 3283,
  "v-hou": 3284,
  "v-hous": 3285,
  "v-house": 3286,
  "v-house-": 3287,
  "v-house-s": 3288,
  "v-house-se": 3289,
  "v-house-ser": 3290,
  "v-house-serv": 3291,
  "-h": 3292,
  "-ho": 3293,
  "-hou": 3294,
  "-hous": 3295,
  "-house": 3296,
  "-house-": 3297,
  "-house-s": 3298,
  "-house-se": 3299,
  "-house-ser": 3300,
  "-house-serv": 3301,
  "hous": 3302,
  "house": 3303,
  "house-": 3304,
  "house-s": 3305,
  "house-se": 3306,
  "house-ser": 3307,
  "house-serv": 3308,
  "ouse-s": 3309,
  "ouse-se": 3310,
  "ouse-ser": 3311,
  "ouse-serv": 3312,
  "use-s": 3313,
  "use-se": 3314,
  "use-ser": 3315,
  "use-serv": 3316,
  "se-s": 3317,
  "se-se": 3318,
  "se-ser": 3319,
  "se-serv": 3320,
  "08": 3321,
  "ub": 3322,
  "71": 3323,
  "07": 3324,
  "00": 3325,
  "01": 3326,
  "09": 3327,
  "Ge": 3328,
  "Ger": 3329,
  "Germ": 3330,
  "Germa": 3331,
  "German": 3332,
  "Germany": 3333,
  "erm": 3334,
  "erma": 3335,
  "erman": 3336,
  "ermany": 3337,
  "rma": 3338,
  "rman": 3339,
  "rmany": 3340,
  "many": 3341,
  "any": 3342,
  "ny": 3343,
  "05": 3344,
  "04": 3345,
  "Pu": 3346,
  "Pue": 3347,
  "Puer": 3348,
  "Puert": 3349,
  "Puerto": 3350,
  "Puerto-": 3351,
  "Puerto-R": 3352,
  "Puerto-Ri": 3353,
  "Puerto-Ric": 3354,
  "Puerto-Rico": 3355,
  "ue": 3356,
  "uer": 3357,
  "uert": 3358,
  "uerto": 3359,
  "uerto-": 3360,
  "uerto-R": 3361,
  "uerto-Ri": 3362,
  "uerto-Ric": 3363,
  "uerto-Rico": 3364,
  "ert": 3365,
  "erto": 3366,
  "erto-": 3367,
  "erto-R": 3368,
  "erto-Ri": 3369,
  "erto-Ric": 3370,
  "erto-Rico": 3371,
  "rto": 3372,
  "rto-": 3373,
  "rto-R": 3374,
  "rto-Ri": 3375,
  "rto-Ric": 3376,
  "rto-Rico": 3377,
  "to-": 3378,
  "to-R": 3379,
  "to-Ri": 3380,
  "to-Ric": 3381,
  "to-Rico": 3382,
  "o-": 3383,
  "o-R": 3384,
  "o-Ri": 3385,
  "o-Ric": 3386,
  "o-Rico": 3387,
  "-Ri": 3388,
  "-Ric": 3389,
  "-Rico": 3390,
  "Ri": 3391,
  "Ric": 3392,
  "Rico": 3393,
  "03": 3394,
  "nad": 3395,
  "nada": 3396,
  "ada": 3397,
  "da": 3398,
  "ua": 3399,
  "Ca": 3400,
  "J": 3401,
  "Ja": 3402,
  "ado": 3403,
  "ador": 3404,
  "dor": 3405,
  "ut": 3406,
  "Can": 3407,
  "Cana": 3408,
  "Canad": 3409,
  "Canada": 3410,
  "anad": 3411,
  "anada": 3412,
  "17": 3413,
  "out": 3414,
  "Po": 3415,
  "El": 3416,
  "El-": 3417,
  "El-S": 3418,
  "El-Sa": 3419,
  "El-Sal": 3420,
  "El-Salv": 3421,
  "El-Salva": 3422,
  "El-Salvad": 3423,
  "El-Salvado": 3424,
  "El-Salvador": 3425,
  "l-S": 3426,
  "l-Sa": 3427,
  "l-Sal": 3428,
  "l-Salv": 3429,
  "l-Salva": 3430,
  "l-Salvad": 3431,
  "l-Salvado": 3432,
  "l-Salvador": 3433,
  "-Sa": 3434,
  "-Sal": 3435,
  "-Salv": 3436,
  "-Salva": 3437,
  "-Salvad": 3438,
  "-Salvado": 3439,
  "-Salvador": 3440,
  "Salv": 3441,
  "Salva": 3442,
  "Salvad": 3443,
  "Salvado": 3444,
  "Salvador": 3445,
  "alv": 3446,
  "alva": 3447,
  "alvad": 3448,
  "alvado": 3449,
  "alvador": 3450,
  "lv": 3451,
  "lva": 3452,
  "lvad": 3453,
  "lvado": 3454,
  "lvador": 3455,
  "vad": 3456,
  "vado": 3457,
  "vador": 3458,
  "En": 3459,
  "Eng": 3460,
  "Engl": 3461,
  "Engla": 3462,
  "Englan": 3463,
  "England": 3464,
  "ngl": 3465,
  "ngla": 3466,
  "nglan": 3467,
  "ngland": 3468,
  "gl": 3469,
  "gla": 3470,
  "glan": 3471,
  "gland": 3472,
  "Cu": 3473,
  "Cub": 3474,
  "Cuba": 3475,
  "uba": 3476,
  "ina": 3477,
  "Sou": 3478,
  "Sout": 3479,
  "South": 3480,
  "outh": 3481,
  "uth": 3482,
  "78.": 3483,
  "78.0": 3484,
  "61.": 3485,
  "61.0": 3486,
  "Gu": 3487,
  "Gua": 3488,
  "19.": 3489,
  "19.0": 3490,
  "83.": 3491,
  "83.0": 3492,
  "21.": 3493,
  "21.0": 3494,
  "93.": 3495,
  "93.0": 3496,
  "Ch": 3497,
  "Chi": 3498,
  "Chin": 3499,
  "China": 3500,
  "hina": 3501,
  "46.": 3502,
  "46.0": 3503,
  "45.": 3504,
  "45.0": 3505,
  "40.": 3506,
  "40.0": 3507,
  "It": 3508,
  "Ita": 3509,
  "Ital": 3510,
  "Italy": 3511,
  "taly": 3512,
  "aly": 3513,
  "48.": 3514,
  "48.0": 3515,
  "87.": 3516,
  "87.0": 3517,
  "Dom": 3518,
  "Domi": 3519,
  "Domin": 3520,
  "Domini": 3521,
  "Dominic": 3522,
  "Dominica": 3523,
  "Dominican": 3524,
  "Dominican-": 3525,
  "Dominican-R": 3526,
  "Dominican-Re": 3527,
  "Dominican-Rep": 3528,
  "Dominican-Repu": 3529,
  "Dominican-Repub": 3530,
  "Dominican-Republ": 3531,
  "omi": 3532,
  "omin": 3533,
  "omini": 3534,
  "ominic": 3535,
  "ominica": 3536,
  "ominican": 3537,
  "ominican-": 3538,
  "ominican-R": 3539,
  "ominican-Re": 3540,
  "ominican-Rep": 3541,
  "ominican-Repu": 3542,
  "ominican-Repub": 3543,
  "ominican-Republ": 3544,
  "ominican-Republi": 3545,
  "mini": 3546,
  "minic": 3547,
  "minica": 3548,
  "minican": 3549,
  "minican-": 3550,
  "minican-R": 3551,
  "minican-Re": 3552,
  "minican-Rep": 3553,
  "minican-Repu": 3554,
  "minican-Repub": 3555,
  "minican-Republ": 3556,
  "minican-Republi": 3557,
  "minican-Republic": 3558,
  "ini": 3559,
  "inic": 3560,
  "inica": 3561,
  "inican": 3562,
  "inican-": 3563,
  "inican-R": 3564,
  "inican-Re": 3565,
  "inican-Rep": 3566,
  "inican-Repu": 3567,
  "inican-Repub": 3568,
  "inican-Republ": 3569,
  "inican-Republi": 3570,
  "inican-Republic": 3571,
  "nic": 3572,
  "nica": 3573,
  "nican": 3574,
  "nican-": 3575,
  "nican-R": 3576,
  "nican-Re": 3577,
  "nican-Rep": 3578,
  "nican-Repu": 3579,
  "nican-Repub": 3580,
  "nican-Republ": 3581,
  "nican-Republi": 3582,
  "nican-Republic": 3583,
  "ican": 3584,
  "ican-": 3585,
  "ican-R": 3586,
  "ican-Re": 3587,
  "ican-Rep": 3588,
  "ican-Repu": 3589,
  "ican-Repub": 3590,
  "ican-Republ": 3591,
  "ican-Republi": 3592,
  "ican-Republic": 3593,
  "can": 3594,
  "can-": 3595,
  "can-R": 3596,
  "can-Re": 3597,
  "can-Rep": 3598,
  "can-Repu": 3599,
  "can-Repub": 3600,
  "can-Republ": 3601,
  "can-Republi": 3602,
  "can-Republic": 3603,
  "an-R": 3604,
  "an-Re": 3605,
  "an-Rep": 3606,
  "an-Repu": 3607,
  "an-Repub": 3608,
  "an-Republ": 3609,
  "an-Republi": 3610,
  "an-Republic": 3611,
  "n-R": 3612,
  "n-Re": 3613,
  "n-Rep": 3614,
  "n-Repu": 3615,
  "n-Repub": 3616,
  "n-Republ": 3617,
  "n-Republi": 3618,
  "n-Republic": 3619,
  "-Re": 3620,
  "-Rep": 3621,
  "-Repu": 3622,
  "-Repub": 3623,
  "-Republ": 3624,
  "-Republi": 3625,
  "-Republic": 3626,
  "Re": 3627,
  "Rep": 3628,
  "Repu": 3629,
  "Repub": 3630,
  "Republ": 3631,
  "Republi": 3632,
  "Republic": 3633,
  "epu": 3634,
  "epub": 3635,
  "epubl": 3636,
  "epubli": 3637,
  "epublic": 3638,
  "pu": 3639,
  "pub": 3640,
  "publ": 3641,
  "publi": 3642,
  "public": 3643,
  "ubl": 3644,
  "ubli": 3645,
  "ublic": 3646,
  "bl": 3647,
  "bli": 3648,
  "blic": 3649,
  "lic": 3650,
  "06.": 3651,
  "06.0": 3652,
  "85.": 3653,
  "85.0": 3654,
  "66.": 3655,
  "66.0": 3656,
  "et": 3657,
  "V": 3658,
  "Guat": 3659,
  "Guate": 3660,
  "Guatem": 3661,
  "Guatema": 3662,
  "Guatemal": 3663,
  "Guatemala": 3664,
  "uat": 3665,
  "uate": 3666,
  "uatem": 3667,
  "uatema": 3668,
  "uatemal": 3669,
  "uatemala": 3670,
  "atem": 3671,
  "atema": 3672,
  "atemal": 3673,
  "atemala": 3674,
  "tem": 3675,
  "tema": 3676,
  "temal": 3677,
  "temala": 3678,
  "emala": 3679,
  "mala": 3680,
  "ala": 3681,
  "72.": 3682,
  "72.0": 3683,
  "35.": 3684,
  "35.0": 3685,
  "11.": 3686,
  "11.0": 3687,
  "43.": 3688,
  "43.0": 3689,
  "65.": 3690,
  "65.0": 3691,
  "90.": 3692,
  "90.0": 3693,
  "55.": 3694,
  "55.0": 3695,
  "51.": 3696,
  "51.0": 3697,
  "09.": 3698,
  "09.0": 3699,
  "44.": 3700,
  "44.0": 3701,
  "mb": 3702,
  "37.": 3703,
  "37.0": 3704,
  "02.": 3705,
  "02.0": 3706,
  "Jap": 3707,
  "Japa": 3708,
  "Japan": 3709,
  "apa": 3710,
  "apan": 3711,
  "pan": 3712,
  "69.": 3713,
  "69.0": 3714,
  "98.": 3715,
  "98.0": 3716,
  "33.": 3717,
  "33.0": 3718,
  "64.": 3719,
  "64.0": 3720,
  "10.": 3721,
  "10.0": 3722,
  "24.": 3723,
  "24.0": 3724,
  "08.": 3725,
  "08.0": 3726,
  "Hai": 3727,
  "Hait": 3728,
  "Haiti": 3729,
  "ait": 3730,
  "aiti": 3731,
  "iti": 3732,
  "32.": 3733,
  "32.0": 3734,
  "16.": 3735,
  "16.0": 3736,
  "67.": 3737,
  "67.0": 3738,
  "18.": 3739,
  "18.0": 3740,
  "56.": 3741,
  "56.0": 3742,
  "Jam": 3743,
  "Jama": 3744,
  "Jamai": 3745,
  "Jamaic": 3746,
  "Jamaica": 3747,
  "ama": 3748,
  "amai": 3749,
  "amaic": 3750,
  "amaica": 3751,
  "mai": 3752,
  "maic": 3753,
  "maica": 3754,
  "aic": 3755,
  "aica": 3756,
  "41.": 3757,
  "41.0": 3758,
  "Vi": 3759,
  "Vie": 3760,
  "Viet": 3761,
  "Vietn": 3762,
  "Vietna": 3763,
  "Vietnam": 3764,
  "iet": 3765,
  "ietn": 3766,
  "ietna": 3767,
  "ietnam": 3768,
  "etn": 3769,
  "etna": 3770,
  "etnam": 3771,
  "tn": 3772,
  "tna": 3773,
  "tnam": 3774,
  "nam": 3775,
  "63.": 3776,
  "63.0": 3777,
  "62.": 3778,
  "62.0": 3779,
  "34.": 3780,
  "34.0": 3781,
  "28.": 3782,
  "28.0": 3783,
  "991": 3784,
  "95.": 3785,
  "95.0": 3786,
  "23.": 3787,
  "23.0": 3788,
  "39.": 3789,
  "39.0": 3790,
  "ug": 3791,
  "31.": 3792,
  "31.0": 3793,
  "74.": 3794,
  "74.0": 3795,
  "86.": 3796,
  "86.0": 3797,
  "30.": 3798,
  "30.0": 3799,
  "26.": 3800,
  "26.0": 3801,
  "42.": 3802,
  "42.0": 3803,
  "82.": 3804,
  "82.0": 3805,
  "20.": 3806,
  "20.0": 3807,
  "Ir": 3808,
  "Co": 3809,
  "Col": 3810,
  "Colu": 3811,
  "Colum": 3812,
  "Columb": 3813,
  "Columbi": 3814,
  "Columbia": 3815,
  "olu": 3816,
  "olum": 3817,
  "olumb": 3818,
  "olumbi": 3819,
  "olumbia": 3820,
  "lu": 3821,
  "lum": 3822,
  "lumb": 3823,
  "lumbi": 3824,
  "lumbia": 3825,
  "umb": 3826,
  "umbi": 3827,
  "umbia": 3828,
  "mbi": 3829,
  "mbia": 3830,
  "bi": 3831,
  "bia": 3832,
  "97.": 3833,
  "97.0": 3834,
  "Pre": 3835,
  "Pres": 3836,
  "Presc": 3837,
  "Presch": 3838,
  "Prescho": 3839,
  "Preschoo": 3840,
  "Preschool": 3841,
  "res": 3842,
  "resc": 3843,
  "resch": 3844,
  "rescho": 3845,
  "reschoo": 3846,
  "reschool": 3847,
  "esc": 3848,
  "esch": 3849,
  "escho": 3850,
  "eschoo": 3851,
  "eschool": 3852,
  "92.": 3853,
  "92.0": 3854,
  "54.": 3855,
  "54.0": 3856,
  "22.": 3857,
  "22.0": 3858,
  "76.": 3859,
  "76.0": 3860,
  "Por": 3861,
  "Port": 3862,
  "Portu": 3863,
  "Portug": 3864,
  "Portuga": 3865,
  "Portugal": 3866,
  "ortu": 3867,
  "ortug": 3868,
  "ortuga": 3869,
  "ortugal": 3870,
  "rtu": 3871,
  "rtug": 3872,
  "rtuga": 3873,
  "rtugal": 3874,
  "tug": 3875,
  "tuga": 3876,
  "tugal": 3877,
  "uga": 3878,
  "ugal": 3879,
  "gal": 3880,
  "96.": 3881,
  "96.0": 3882,
  "ola": 3883,
  "olan": 3884,
  "oland": 3885,
  "15.": 3886,
  "15.0": 3887,
  "60.": 3888,
  "60.0": 3889,
  "81.": 3890,
  "81.0": 3891,
  "73.": 3892,
  "73.0": 3893,
  "12.": 3894,
  "12.0": 3895,
  "Pol": 3896,
  "Pola": 3897,
  "Polan": 3898,
  "Poland": 3899,
  "59.": 3900,
  "59.0": 3901,
  "89.": 3902,
  "89.0": 3903,
  "13.": 3904,
  "13.0": 3905,
  "99.": 3906,
  "99.0": 3907,
  "50.": 3908,
  "50.0": 3909,
  "53.": 3910,
  "53.0": 3911,
  "75.": 3912,
  "75.0": 3913,
  "29.": 3914,
  "29.0": 3915,
  "07.": 3916,
  "07.0": 3917,
  "343": 3918,
  "333": 3919,
  "88.": 3920,
  "88.0": 3921,
  "49.": 3922,
  "49.0": 3923,
  "80.": 3924,
  "80.0": 3925,
  "68.": 3926,
  "68.0": 3927,
  "94.": 3928,
  "94.0": 3929,
  "04.": 3930,
  "04.0": 3931,
  "Ta": 3932,
  "Tai": 3933,
  "Taiw": 3934,
  "Taiwa": 3935,
  "Taiwan": 3936,
  "aiw": 3937,
  "aiwa": 3938,
  "aiwan": 3939,
  "iw": 3940,
  "iwa": 3941,
  "iwan": 3942,
  "wa": 3943,
  "wan": 3944,
  "05.": 3945,
  "05.0": 3946,
  "91.": 3947,
  "91.0": 3948,
  "793": 3949,
  "648": 3950,
  "57.": 3951,
  "57.0": 3952,
  "84.": 3953,
  "84.0": 3954,
  "331": 3955,
  "38.": 3956,
  "38.0": 3957,
  "932": 3958,
  "25.": 3959,
  "25.0": 3960,
  "01.": 3961,
  "01.0": 3962,
  "14.": 3963,
  "14.0": 3964,
  "341": 3965,
  "52.": 3966,
  "52.0": 3967,
  "778": 3968,
  "79.": 3969,
  "79.0": 3970,
  "306": 3971,
  "70.": 3972,
  "70.0": 3973,
  "Ho": 3974,
  "393": 3975,
  "411": 3976,
  "340": 3977,
  "Hon": 3978,
  "330": 3979,
  "03.": 3980,
  "03.0": 3981,
  "77.": 3982,
  "77.0": 3983,
  "270": 3984,
  "00.": 3985,
  "00.0": 3986,
  "542": 3987,
  "966": 3988,
  "278": 3989,
  "36.": 3990,
  "36.0": 3991,
  "245": 3992,
  "58.": 3993,
  "58.0": 3994,
  "71.": 3995,
  "71.0": 3996,
  "795": 3997,
  "298": 3998,
  "444": 3999,
  "487": 4000,
  "834": 4001,
  "406": 4002,
  "666": 4003,
  "964": 4004,
  "539": 4005,
  "240": 4006,
  "310": 4007,
  "Gr": 4008,
  "Gre": 4009,
  "Gree": 4010,
  "Greec": 4011,
  "Greece": 4012,
  "ree": 4013,
  "reec": 4014,
  "reece": 4015,
  "ee": 4016,
  "eec": 4017,
  "eece": 4018,
  "ece": 4019,
  "Pe": 4020,
  "Per": 4021,
  "Peru": 4022,
  "eru": 4023,
  "ru": 4024,
  "344": 4025,
  "777": 4026,
  "885": 4027,
  "27.": 4028,
  "27.0": 4029,
  "621": 4030,
  "987": 4031,
  "47.": 4032,
  "47.0": 4033,
  "861": 4034,
  "606": 4035,
  "429": 4036,
  "437": 4037,
  "360": 4038,
  "624": 4039,
  "723": 4040,
  "342": 4041,
  "504": 4042,
  "563": 4043,
  "322": 4044,
  "373": 4045,
  "379": 4046,
  "262": 4047,
  "872": 4048,
  "307": 4049,
  "146": 4050,
  "355": 4051,
  "996": 4052,
  "312": 4053,
  "427": 4054,
  "Ira": 4055,
  "Iran": 4056,
  "308": 4057,
  "224": 4058,
  "295": 4059,
  "918": 4060,
  "Fr": 4061,
  "Fra": 4062,
  "Fran": 4063,
  "Franc": 4064,
  "France": 4065,
  "ranc": 4066,
  "rance": 4067,
  "anc": 4068,
  "ance": 4069,
  "nce": 4070,
  "316": 4071,
  "962": 4072,
  "989": 4073,
  "218": 4074,
  "726": 4075,
  "812": 4076,
  "914": 4077,
  "741": 4078,
  "356": 4079,
  "290": 4080,
  "546": 4081,
  "392": 4082,
  "958": 4083,
  "586": 4084,
  "721": 4085,
  "702": 4086,
  "919": 4087,
  "944": 4088,
  "319": 4089,
  "846": 4090,
  "896": 4091,
  "859": 4092,
  "339": 4093,
  "706": 4094,
  "599": 4095
}