{
  "version": "1.0",
  "truncation": null,
  "padding": null,
  "added_tokens": [
    {
      "id": 0,
      "content": "[PAD]",
      "single_word": false,
      "lstrip": false,
      "rstrip": false,
      "normalized": false,
      "special": true
    },
    {
      "id": 1,
      "content": "[UNK]",
      "single_word": false,
      "lstrip": false,
      "rstrip": false,
      "normalized": false,
      "special": true
    },
    {
      "id": 2,
      "content": "[CLS]",
      "single_word": false,
      "lstrip": false,
      "rstrip": false,
      "normalized": false,
      "special": true
    },
    {
      "id": 3,
      "content": "[SEP]",
      "single_word": false,
      "lstrip": false,
      "rstrip": false,
      "normalized": false,
      "special": true
    },
    {
      "id": 4,
      "content": "[MASK]",
      "single_word": false,
      "lstrip": false,
      "rstrip": false,
      "normalized": false,
      "special": true
    }
  ],
  "normalizer": {
    "type": "NFKC"
  },
  "pre_tokenizer": {
    "type": "Whitespace"
  },
  "post_processor": null,
  "decoder": null,
  "model": {
    "type": "Unigram",
    "unk_id": null,
    "vocab": [
      [
        "[PAD]",
        0.0
      ],
      [
        "[UNK]",
        0.0
      ],
      [
        "[CLS]",
        0.0
      ],
      [
        "[SEP]",
        0.0
      ],
      [
        "[MASK]",
        0.0
      ],
      [
        "<",
        -2.5836784590383406
      ],
      [
        ">",
        -2.5865480188988386
      ],
      [
        "=",
        -3.230366286005287
      ],
      [
        "SEP",
        -3.288308883109451
      ],
      [
        "-",
        -3.2955448970504655
      ],
      [
        "E",
        -3.3646439341307612
      ],
      [
        "/",
        -3.4815328856603607
      ],
      [
        ".",
        -3.5533746663320738
      ],
      [
        "SC_",
        -3.6467091616723657
      ],
      [
        "EQ",
        -3.6473818529206543
      ],
      [
        "0",
        -3.9090435876625165
      ],
      [
        ";",
        -4.0347112213829455
      ],
      [
        "5",
        -4.077181586476943
      ],
      [
        ",",
        -4.125514260595445
      ],
      [
        "A",
        -4.214689697276732
      ],
      [
        "L",
        -4.238180982813288
      ],
      [
        "C",
        -4.239788938204374
      ],
      [
        "8",
        -4.36858393618501
      ],
      [
        "q",
        -4.37951786088666
      ],
      [
        "1",
        -4.477026212705734
      ],
      [
        "&",
        -4.75725526178835
      ],
      [
        "T",
        -4.778978502476695
      ],
      [
        "3",
        -4.784566285474355
      ],
      [
        "%",
        -4.882349503965832
      ],
      [
        "ccept",
        -4.894086644962723
      ],
      [
        "NUL",
        -4.953815077351107
      ],
      [
        "e",
        -5.0566496815553705
      ],
      [
        "H",
        -5.093224819221739
      ],
      [
        "9",
        -5.162904750351139
      ],
      [
        "text",
        -5.188658279687749
      ],
      [
        "xml",
        -5.208378003834568
      ],
      [
        "r",
        -5.263248589152704
      ],
      [
        "n",
        -5.281170893819294
      ],
      [
        "+",
        -5.291988759529284
      ],
      [
        "ontent",
        -5.30289105677185
      ],
      [
        "Host",
        -5.303117812861171
      ],
      [
        "no",
        -5.3917277504234455
      ],
      [
        "x",
        -5.412880712474786
      ],
      [
        "application",
        -5.428525728295902
      ],
      [
        "P",
        -5.438527201249055
      ],
      [
        "GE",
        -5.466018675235972
      ],
      [
        "(",
        -5.475936083398649
      ],
      [
        ")",
        -5.478375580644105
      ],
      [
        "cache",
        -5.4956014026344455
      ],
      [
        "o",
        -5.51363647925279
      ],
      [
        "html",
        -5.599456693557318
      ],
      [
        "U",
        -5.6007500697384565
      ],
      [
        "utf",
        -5.613931876837071
      ],
      [
        "M",
        -5.629288436029373
      ],
      [
        "S",
        -5.698197438727023
      ],
      [
        "G",
        -5.76610654167882
      ],
      [
        "OST",
        -5.785624649476425
      ],
      [
        "*",
        -5.804656767726289
      ],
      [
        "2",
        -5.845568502518079
      ],
      [
        "ol",
        -5.881892468721176
      ],
      [
        "age",
        -5.957207206630361
      ],
      [
        "K",
        -5.959191620450548
      ],
      [
        "ion",
        -5.976412147778026
      ],
      [
        "4",
        -5.978036731312809
      ],
      [
        "ND",
        -5.980214465832919
      ],
      [
        "set",
        -5.984316664419898
      ],
      [
        "RI",
        -5.987467081274364
      ],
      [
        "ype",
        -5.992438362565117
      ],
      [
        "ache",
        -5.993828555133955
      ],
      [
        "ookie",
        -5.994759545241802
      ],
      [
        "gth",
        -5.9951638218842955
      ],
      [
        "Pr",
        -5.995462937633691
      ],
      [
        "gent",
        -5.995661428686134
      ],
      [
        "Char",
        -5.995982081462396
      ],
      [
        "angu",
        -5.996036402106549
      ],
      [
        "eader",
        -5.996078147562805
      ],
      [
        "Connect",
        -5.9961256120307915
      ],
      [
        "agma",
        -5.9961314884823
      ],
      [
        "Data",
        -5.996142993221271
      ],
      [
        "contr",
        -5.996175793200431
      ],
      [
        "Query",
        -5.996225601343786
      ],
      [
        "ethod",
        -5.996225693654324
      ],
      [
        "User",
        -5.9963093604212165
      ],
      [
        "TTP",
        -5.996398999124997
      ],
      [
        "REC",
        -5.996491493834544
      ],
      [
        "Len",
        -6.009975545976312
      ],
      [
        "7",
        -6.025420281665838
      ],
      [
        "en",
        -6.0365740937614305
      ],
      [
        "6",
        -6.037824890929002
      ],
      [
        ":",
        -6.04273061480823
      ],
      [
        "image",
        -6.101198349007769
      ],
      [
        "illa",
        -6.130316005179019
      ],
      [
        "a",
        -6.1312504777794725
      ],
      [
        "Moz",
        -6.150889477281483
      ],
      [
        "ecko",
        -6.188759943133803
      ],
      [
        "s",
        -6.196716850362328
      ],
      [
        "clos",
        -6.199261513672168
      ],
      [
        "compa",
        -6.275507698187699
      ],
      [
        "tible",
        -6.27556863731408
      ],
      [
        "*/*",
        -6.27836191157208
      ],
      [
        "png",
        -6.288638285717367
      ],
      [
        "inux",
        -6.298910243737774
      ],
      [
        "like",
        -6.30182821772574
      ],
      [
        "quero",
        -6.303938739344396
      ],
      [
        "t",
        -6.304043478524436
      ],
      [
        "Kon",
        -6.3043823047457614
      ],
      [
        "plai",
        -6.306757837320896
      ],
      [
        "loca",
        -6.317906402684688
      ],
      [
        "lhost",
        -6.317968782011961
      ],
      [
        "NID",
        -6.318521808401782
      ],
      [
        "SIO",
        -6.318522056127399
      ],
      [
        "JSE",
        -6.318573107688769
      ],
      [
        "HTM",
        -6.318623382318954
      ],
      [
        "8080",
        -6.32416212073896
      ],
      [
        "D",
        -6.3322263127706275
      ],
      [
        "tienda",
        -6.350065883073114
      ],
      [
        "c",
        -6.428181989374531
      ],
      [
        "i",
        -6.538357643839429
      ],
      [
        "jsp",
        -6.553189213792502
      ],
      [
        "l",
        -6.572264634583496
      ],
      [
        "p",
        -6.590240625284093
      ],
      [
        "g",
        -6.645393152497789
      ],
      [
        "d",
        -6.70867582174065
      ],
      [
        "N",
        -6.73808229154699
      ],
      [
        "h",
        -6.741510769225064
      ],
      [
        "www",
        -6.806452389309827
      ],
      [
        "R",
        -6.830673417833877
      ],
      [
        "B",
        -6.839642026449912
      ],
      [
        "I",
        -6.864174825601506
      ],
      [
        "public",
        -6.888741711272775
      ],
      [
        "F",
        -6.932830910178847
      ],
      [
        "27",
        -6.983895588696022
      ],
      [
        "2F",
        -7.0503449817892445
      ],
      [
        "m",
        -7.050555357747758
      ],
      [
        "u",
        -7.06329275181257
      ],
      [
        "B1",
        -7.065811588340683
      ],
      [
        "Y",
        -7.069222030885777
      ],
      [
        "W",
        -7.070502382342639
      ],
      [
        "nc",
        -7.095769765232996
      ],
      [
        "X",
        -7.1041847981541455
      ],
      [
        "J",
        -7.1099065199889075
      ],
      [
        "Z",
        -7.117745437184421
      ],
      [
        "V",
        -7.151629164869606
      ],
      [
        "Q",
        -7.163379496156644
      ],
      [
        "b",
        -7.168410246469218
      ],
      [
        "O",
        -7.175804280445439
      ],
      [
        "k",
        -7.178354143227068
      ],
      [
        "form",
        -7.182899203666912
      ],
      [
        "y",
        -7.1983833381291955
      ],
      [
        "29",
        -7.201718963816791
      ],
      [
        "_",
        -7.202022512223772
      ],
      [
        "v",
        -7.210403349019339
      ],
      [
        "f",
        -7.222608502039126
      ],
      [
        "w",
        -7.25170558299029
      ],
      [
        "j",
        -7.265407313806897
      ],
      [
        "28",
        -7.270972625448742
      ],
      [
        "z",
        -7.311761990163113
      ],
      [
        "oded",
        -7.336790448195989
      ],
      [
        "urle",
        -7.337323072131866
      ],
      [
        "@",
        -7.388361253030444
      ],
      [
        "40",
        -7.483625879269955
      ],
      [
        "modo",
        -7.489934104686904
      ],
      [
        "2C",
        -7.524541309322126
      ],
      [
        "3D",
        -7.578216351086299
      ],
      [
        "id",
        -7.691567052326054
      ],
      [
        "22",
        -7.708004824743769
      ],
      [
        "an",
        -7.738226428614098
      ],
      [
        "nombre",
        -7.7383204841086215
      ],
      [
        "al",
        -7.743912175309351
      ],
      [
        "registro",
        -7.760543524582266
      ],
      [
        "login",
        -7.763786147986496
      ],
      [
        "es",
        -7.77452593745552
      ],
      [
        "'",
        -7.821339036095498
      ],
      [
        "mie",
        -7.84199629832584
      ],
      [
        "cp",
        -7.845697956880963
      ],
      [
        "mbros",
        -7.881706917011114
      ],
      [
        "de",
        -7.88710895012669
      ],
      [
        "or",
        -7.895571798832012
      ],
      [
        "nes",
        -8.00877672004853
      ],
      [
        "3B",
        -8.027774106319434
      ],
      [
        "on",
        -8.100127264182479
      ],
      [
        "3A",
        -8.119028698938234
      ],
      [
        "rv",
        -8.126667059768817
      ],
      [
        "dni",
        -8.130976780985787
      ],
      [
        "ntc",
        -8.137275348194292
      ],
      [
        "3C",
        -8.15011840354557
      ],
      [
        "email",
        -8.156719272787775
      ],
      [
        "password",
        -8.15895636166824
      ],
      [
        "provincia",
        -8.160696627471335
      ],
      [
        "apellidos",
        -8.160696627471658
      ],
      [
        "direccion",
        -8.160696627546546
      ],
      [
        "ciudad",
        -8.160720921111213
      ],
      [
        "mac",
        -8.16275336260852
      ],
      [
        "Registrar",
        -8.168565520406663
      ],
      [
        "precio",
        -8.179599181977377
      ],
      [
        "iso",
        -8.186862489403818
      ],
      [
        "carrito",
        -8.189408864144145
      ],
      [
        "2B",
        -8.215301229721414
      ],
      [
        "os",
        -8.224182960257194
      ],
      [
        "26",
        -8.24071982608164
      ],
      [
        "tica",
        -8.24238259589043
      ],
      [
        "=*/*",
        -8.247553001164231
      ],
      [
        "+++",
        -8.249555512812233
      ],
      [
        "++++",
        -8.258325690249793
      ],
      [
        "st",
        -8.263621020989603
      ],
      [
        "ntrar",
        -8.266740931034239
      ],
      [
        "it",
        -8.287712614295017
      ],
      [
        "in",
        -8.289736967702503
      ],
      [
        "5D",
        -8.291512535392165
      ],
      [
        "++",
        -8.300687379839474
      ],
      [
        "ia",
        -8.302150492277338
      ],
      [
        "se",
        -8.30336881321928
      ],
      [
        "3F",
        -8.305763224477454
      ],
      [
        "gif",
        -8.318964298835049
      ],
      [
        "ee",
        -8.324932739239731
      ],
      [
        "he",
        -8.368652989493032
      ],
      [
        "as",
        -8.39018357613919
      ],
      [
        "live",
        -8.39109595757003
      ],
      [
        "ciar",
        -8.401359644954436
      ],
      [
        "el",
        -8.405110722587484
      ],
      [
        "keep",
        -8.405727288486347
      ],
      [
        "et",
        -8.41541609600671
      ],
      [
        "te",
        -8.427828776926534
      ],
      [
        "ae",
        -8.428825508555212
      ],
      [
        "21",
        -8.429287523647846
      ],
      [
        "7C",
        -8.438076325188575
      ],
      [
        "va",
        -8.44328065157108
      ],
      [
        "ta",
        -8.444378093601767
      ],
      [
        "ts",
        -8.444918101630918
      ],
      [
        "window",
        -8.454232768850499
      ],
      [
        "sa",
        -8.460242502911179
      ],
      [
        "tt",
        -8.462333658593732
      ],
      [
        "ai",
        -8.464941274396669
      ],
      [
        "ie",
        -8.465772953113161
      ],
      [
        "ea",
        -8.469341321306032
      ],
      [
        "la",
        -8.476802503633447
      ],
      [
        "8859",
        -8.48182736138517
      ],
      [
        "ot",
        -8.482913281207999
      ],
      [
        "ei",
        -8.487839415096467
      ],
      [
        ">'",
        -8.500067090085263
      ],
      [
        "na",
        -8.506991419303919
      ],
      [
        "is",
        -8.516522302819023
      ],
      [
        "re",
        -8.520867604913636
      ],
      [
        "eh",
        -8.529578094555754
      ],
      [
        "th",
        -8.535755847578324
      ],
      [
        "er",
        -8.536665549269927
      ],
      [
        "ar",
        -8.554151900773082
      ],
      [
        "Win",
        -8.555261392383322
      ],
      [
        "aa",
        -8.558630953537044
      ],
      [
        "ii",
        -8.575764164370028
      ],
      [
        "39",
        -8.577274629876811
      ],
      [
        "le",
        -8.58555408080478
      ],
      [
        "B2",
        -8.590949025766518
      ],
      [
        "sh",
        -8.594541115804052
      ],
      [
        "at",
        -8.604363256140614
      ],
      [
        "io",
        -8.605331258883336
      ],
      [
        "ne",
        -8.612289392812558
      ],
      [
        "ce",
        -8.615921457152815
      ],
      [
        "ss",
        -8.625188792841188
      ],
      [
        "si",
        -8.638455879349213
      ],
      [
        "to",
        -8.639802071078055
      ],
      [
        "ti",
        -8.645757725389714
      ],
      [
        "ns",
        -8.650211250242752
      ],
      [
        "ht",
        -8.652179845764056
      ],
      [
        "ue",
        -8.65646095214464
      ],
      [
        "oa",
        -8.657094961675956
      ],
      [
        "ro",
        -8.66503894041162
      ],
      [
        "ed",
        -8.666771186937709
      ],
      [
        "ni",
        -8.67603186564751
      ],
      [
        "so",
        -8.689107232011905
      ],
      [
        "ha",
        -8.6938985950931
      ],
      [
        "me",
        -8.694775954438217
      ],
      [
        "+++++",
        -8.695632515902986
      ],
      [
        "max",
        -8.696197081829812
      ],
      [
        "tr",
        -8.696672568155122
      ],
      [
        "24",
        -8.701626483718025
      ],
      [
        "46",
        -8.711660584484871
      ],
      [
        "ri",
        -8.716607585965022
      ],
      [
        "jpg",
        -8.719942288150861
      ],
      [
        "ao",
        -8.723711223131634
      ],
      [
        "if",
        -8.72605052172327
      ],
      [
        "47",
        -8.731071904650328
      ],
      [
        "ra",
        -8.739804775964828
      ],
      [
        "rt",
        -8.75074317220093
      ],
      [
        "sn",
        -8.751874935232053
      ],
      [
        "da",
        -8.756376469211773
      ],
      [
        "ho",
        -8.757768349663372
      ],
      [
        "nt",
        -8.759269257002122
      ],
      [
        "ch",
        -8.760950736625176
      ],
      [
        "34",
        -8.760990694652865
      ],
      [
        "em",
        -8.7641876684116
      ],
      [
        "ad",
        -8.766292987845905
      ],
      [
        "ah",
        -8.776780256531708
      ],
      [
        "ec",
        -8.782894022260738
      ],
      [
        "do",
        -8.78587075510465
      ],
      [
        "be",
        -8.787709201127186
      ],
      [
        "64",
        -8.788747105098786
      ],
      [
        "72",
        -8.793350482118655
      ],
      [
        "5B",
        -8.798903832392423
      ],
      [
        "67",
        -8.800327910230996
      ],
      [
        "62",
        -8.804821231504746
      ],
      [
        "adir",
        -8.809246766628833
      ],
      [
        "ir",
        -8.81520025597344
      ],
      [
        "eu",
        -8.81538828754637
      ],
      [
        "ditar",
        -8.815965968046001
      ],
      [
        "42",
        -8.815975598496788
      ],
      [
        "94",
        -8.817083419336857
      ],
      [
        "lo",
        -8.818595662895916
      ],
      [
        "ls",
        -8.824528276175968
      ],
      [
        "77",
        -8.830783229277447
      ],
      [
        "cantidad",
        -8.834651821837543
      ],
      [
        "74",
        -8.839590453829153
      ],
      [
        "44",
        -8.841353122184891
      ],
      [
        "hi",
        -8.841949893764275
      ],
      [
        "+&",
        -8.842605980142896
      ],
      [
        "ma",
        -8.843209515631006
      ],
      [
        "oi",
        -8.844686055583999
      ],
      [
        "pwd",
        -8.848139170893019
      ],
      [
        "25",
        -8.855357396945337
      ],
      [
        "tl",
        -8.85737684359476
      ],
      [
        "auten",
        -8.857999593110922
      ],
      [
        "eg",
        -8.858515282499495
      ],
      [
        "..%",
        -8.858810111748824
      ],
      [
        "audi",
        -8.860081146494036
      ],
      [
        "43",
        -8.860390528930798
      ],
      [
        "dt",
        -8.860680376693484
      ],
      [
        "il",
        -8.865529531321975
      ],
      [
        "2D",
        -8.870694112124589
      ],
      [
        "td",
        -8.875036145435324
      ],
      [
        "ih",
        -8.876059577390894
      ],
      [
        "F1adi",
        -8.876187857724116
      ],
      [
        "us",
        -8.879493218717986
      ],
      [
        "remember",
        -8.88727246205
      ],
      [
        "video",
        -8.889978459621709
      ],
      [
        "paga",
        -8.891166073397907
      ],
      [
        "lt",
        -8.895786957188161
      ],
      [
        "li",
        -8.909214464807057
      ],
      [
        "lobal",
        -8.910991161823752
      ],
      [
        "76",
        -8.91225371771078
      ],
      [
        "BD",
        -8.912509811730473
      ],
      [
        "69",
        -8.913440880563119
      ],
      [
        "nh",
        -8.930271780564933
      ],
      [
        "rs",
        -8.931298913717221
      ],
      [
        "hs",
        -8.931484796331628
      ],
      [
        "insertar",
        -8.939062982999127
      ],
      [
        "6D",
        -8.940607028692671
      ],
      [
        "di",
        -8.9498756867569
      ],
      [
        "DF",
        -8.954381104102769
      ],
      [
        "Va",
        -8.955263863189778
      ],
      [
        "co",
        -8.955930565709172
      ],
      [
        "script",
        -8.957285967024426
      ],
      [
        "mo",
        -8.958142313770532
      ],
      [
        "DD",
        -8.959097540813662
      ],
      [
        "ca",
        -8.95984449260557
      ],
      [
        "Entrar",
        -8.972232236435731
      ],
      [
        "FD",
        -8.97382276248771
      ],
      [
        "od",
        -8.975169156491058
      ],
      [
        "4D",
        -8.975713503682869
      ],
      [
        "7D",
        -8.985466595232717
      ],
      [
        "49",
        -8.991070812558167
      ],
      [
        "ac",
        -8.992690935238247
      ],
      [
        "79",
        -8.99833040329397
      ],
      [
        "68",
        -8.999987342591261
      ],
      [
        "hn",
        -9.000394623019691
      ],
      [
        "http",
        -9.000791453630251
      ],
      [
        "97",
        -9.005449845578678
      ],
      [
        "nd",
        -9.006881657526193
      ],
      [
        "oh",
        -9.009189433259234
      ],
      [
        "D4",
        -9.012571582947679
      ],
      [
        "FF",
        -9.013911147148459
      ],
      [
        "sr",
        -9.016040389205358
      ],
      [
        "17",
        -9.023549662475304
      ],
      [
        "am",
        -9.023978834595596
      ],
      [
        "F3",
        -9.024631129600486
      ],
      [
        "ui",
        -9.028237106327754
      ],
      [
        "D7",
        -9.029462632971196
      ],
      [
        "caracteris",
        -9.041798406377797
      ],
      [
        "BF",
        -9.04800872409617
      ],
      [
        "FA",
        -9.050978075733827
      ],
      [
        "hr",
        -9.051576927248618
      ],
      [
        "96",
        -9.05290595202918
      ],
      [
        "36",
        -9.054221307400258
      ],
      [
        "ey",
        -9.06747590586125
      ],
      [
        "66",
        -9.069441792533002
      ],
      [
        "ua",
        -9.078842223096268
      ],
      [
        "71",
        -9.08135147004149
      ],
      [
        "mt",
        -9.081702152652188
      ],
      [
        "DB",
        -9.085413546504501
      ],
      [
        "9D",
        -9.090836275172233
      ],
      [
        "ut",
        -9.091315979532954
      ],
      [
        "sl",
        -9.100301333060807
      ],
      [
        "errorMsg",
        -9.106932649430824
      ],
      [
        "pe",
        -9.107739339364052
      ],
      [
        "4F",
        -9.1092573218279
      ],
      [
        "com",
        -9.113371996335054
      ],
      [
        "ds",
        -9.118598037837033
      ],
      [
        "ge",
        -9.119056915008537
      ],
      [
        "ic",
        -9.128446642146713
      ],
      [
        "BB",
        -9.133426719856939
      ],
      [
        "dows",
        -9.135261511228592
      ],
      [
        "ba",
        -9.139129505690043
      ],
      [
        "tu",
        -9.139376490729404
      ],
      [
        "im",
        -9.140528563244375
      ],
      [
        "F7",
        -9.140803556914634
      ],
      [
        "4B",
        -9.145614674564168
      ],
      [
        "F9",
        -9.147055148520739
      ],
      [
        "6B",
        -9.148136952039923
      ],
      [
        "D6",
        -9.152639004524493
      ],
      [
        "7B",
        -9.153101068812003
      ],
      [
        "73",
        -9.154512658949088
      ],
      [
        "sd",
        -9.154761365837881
      ],
      [
        "rh",
        -9.16545397174081
      ],
      [
        "eb",
        -9.169737526672154
      ],
      [
        "ef",
        -9.171828650908097
      ],
      [
        "au",
        -9.17231378794347
      ],
      [
        "F6",
        -9.174328062706538
      ],
      [
        "B7",
        -9.178608654685533
      ],
      [
        "tosh",
        -9.179089378291827
      ],
      [
        "6F",
        -9.179177925411967
      ],
      [
        "om",
        -9.183098623326435
      ],
      [
        "B6",
        -9.18398470404307
      ],
      [
        "37",
        -9.187971538769487
      ],
      [
        "63",
        -9.19060983077323
      ],
      [
        "tc",
        -9.196843662751256
      ],
      [
        "tm",
        -9.19817647290585
      ],
      [
        "78",
        -9.200240249647699
      ],
      [
        "ye",
        -9.203806063455431
      ],
      [
        "ew",
        -9.206713800265133
      ],
      [
        "ct",
        -9.20754912775782
      ],
      [
        "we",
        -9.208227797447424
      ],
      [
        "92",
        -9.216858627520686
      ],
      [
        "dencial",
        -9.21961108057269
      ],
      [
        "hh",
        -9.220330979605206
      ],
      [
        "F1",
        -9.224287806771597
      ],
      [
        "incorrectas",
        -9.225908193305361
      ],
      [
        "Cre",
        -9.226233435094434
      ],
      [
        "ci",
        -9.227702110737733
      ],
      [
        "270",
        -9.232231677025194
      ],
      [
        "D9",
        -9.238305087451216
      ],
      [
        "rm",
        -9.240594544928125
      ],
      [
        "fe",
        -9.241625227771644
      ],
      [
        "41",
        -9.242821187702758
      ],
      [
        "min",
        -9.243782348961679
      ],
      [
        "tw",
        -9.244303862707213
      ],
      [
        "23",
        -9.250263072147423
      ],
      [
        "ga",
        -9.251055794125621
      ],
      [
        "8F",
        -9.252272971100885
      ],
      [
        "mi",
        -9.25746254721546
      ],
      [
        "56",
        -9.260686190371388
      ],
      [
        "7F",
        -9.261372687036127
      ],
      [
        "ur",
        -9.261628040950676
      ],
      [
        "su",
        -9.262131076175901
      ],
      [
        "B9",
        -9.26341802375871
      ],
      [
        "AF",
        -9.264013699009471
      ],
      [
        "B4",
        -9.265711323716843
      ],
      [
        "84",
        -9.267871494043321
      ],
      [
        "ul",
        -9.271378504104703
      ],
      [
        "9F",
        -9.27536930616548
      ],
      [
        "sc",
        -9.279856077731022
      ],
      [
        "75",
        -9.280307129368989
      ],
      [
        "ay",
        -9.283068740014254
      ],
      [
        "rd",
        -9.283675287218935
      ],
      [
        "fr",
        -9.288095042326365
      ],
      [
        "ps",
        -9.290455046380341
      ],
      [
        "FB",
        -9.29232796739665
      ],
      [
        "oc",
        -9.294284207946617
      ],
      [
        "dr",
        -9.299121382099433
      ],
      [
        "only",
        -9.302163643979046
      ],
      [
        "87",
        -9.306491925535237
      ],
      [
        "dn",
        -9.309697113757355
      ],
      [
        "61",
        -9.312931609133585
      ],
      [
        "F4",
        -9.313998833022511
      ],
      [
        "://",
        -9.315850530247204
      ],
      [
        "BA",
        -9.326246590662674
      ],
      [
        "ab",
        -9.327446904920857
      ],
      [
        "ru",
        -9.336718574572771
      ],
      [
        "FC",
        -9.341074426634913
      ],
      [
        "hl",
        -9.343484524159917
      ],
      [
        "un",
        -9.347862222542263
      ],
      [
        "1B",
        -9.354987288939
      ],
      [
        "sm",
        -9.358337502900792
      ],
      [
        "B3",
        -9.360640956936656
      ],
      [
        "ou",
        -9.36167381923687
      ],
      [
        "store",
        -9.362532130968505
      ],
      [
        "D2",
        -9.362779687258517
      ],
      [
        "ig",
        -9.363689428665918
      ],
      [
        "pa",
        -9.36406713836746
      ],
      [
        "rl",
        -9.370571314459372
      ],
      [
        "ms",
        -9.375141425858315
      ],
      [
        "fres",
        -9.377729198600184
      ],
      [
        "X11",
        -9.38121526122411
      ],
      [
        "F3n",
        -9.382938112804817
      ],
      [
        "and",
        -9.386333982039229
      ],
      [
        "9B",
        -9.390237346492583
      ],
      [
        "iu",
        -9.391761181452873
      ],
      [
        "Machi",
        -9.393461060941155
      ],
      [
        "B8",
        -9.40318668669318
      ],
      [
        "bo",
        -9.404379855500814
      ],
      [
        "child",
        -9.406746365630205
      ],
      [
        "bin",
        -9.410685010190054
      ],
      [
        "cmd",
        -9.413286308845764
      ],
      [
        "por",
        -9.416077874363861
      ],
      [
        "ap",
        -9.421549735309313
      ],
      [
        "stal",
        -9.426060569905712
      ],
      [
        "uo",
        -9.429856960133478
      ],
      [
        "euc",
        -9.436471541639257
      ],
      [
        "go",
        -9.436475923007464
      ],
      [
        "100",
        -9.43999116831059
      ],
      [
        "ez",
        -9.443566182502583
      ],
      [
        "trans",
        -9.443914224671708
      ],
      [
        "BC",
        -9.444938255720956
      ],
      [
        "nu",
        -9.445276713301903
      ],
      [
        "ya",
        -9.449113692186229
      ],
      [
        "F2",
        -9.45162019711756
      ],
      [
        "tg",
        -9.451989699564177
      ],
      [
        "ty",
        -9.452738691299801
      ],
      [
        "cs",
        -9.454759562395495
      ],
      [
        "fa",
        -9.461504190253164
      ],
      [
        "lh",
        -9.468730922579288
      ],
      [
        "ft",
        -9.472640037266633
      ],
      [
        "tp",
        -9.473438801080913
      ],
      [
        "dh",
        -9.473709788077436
      ],
      [
        "ag",
        -9.473952590353548
      ],
      [
        "af",
        -9.47539898398189
      ],
      [
        "tf",
        -9.47586367809891
      ],
      [
        "php",
        -9.476687204988522
      ],
      [
        "2e",
        -9.477012704078497
      ],
      [
        "wa",
        -9.481066061473182
      ],
      [
        "logo",
        -9.485781136346372
      ],
      [
        "nm",
        -9.490367739567581
      ],
      [
        "12",
        -9.490399136482596
      ],
      [
        "ll",
        -9.493026608302008
      ],
      [
        "ld",
        -9.499201794820141
      ],
      [
        "65",
        -9.510795049012524
      ],
      [
        "fo",
        -9.512295150894138
      ],
      [
        "mn",
        -9.514489011812312
      ],
      [
        "De",
        -9.51755571015406
      ],
      [
        "wt",
        -9.517597272699053
      ],
      [
        "bt",
        -9.518571517129597
      ],
      [
        "8B",
        -9.518738260553917
      ],
      [
        "pi",
        -9.519873455893514
      ],
      [
        "pl",
        -9.520185187116482
      ],
      [
        "za",
        -9.528178695489391
      ],
      [
        "asar",
        -9.542423928400268
      ],
      [
        "OS",
        -9.542728448971346
      ],
      [
        "open",
        -9.54374648523305
      ],
      [
        "dd",
        -9.545353213326651
      ],
      [
        "ng",
        -9.54681277991358
      ],
      [
        "hd",
        -9.54717296436224
      ],
      [
        "86",
        -9.552506083848236
      ],
      [
        "sy",
        -9.554040914363238
      ],
      [
        "tb",
        -9.55625804295676
      ],
      [
        "CF",
        -9.557332225904442
      ],
      [
        "hu",
        -9.568188916934268
      ],
      [
        "48",
        -9.574711397429555
      ],
      [
        "|",
        -9.57996939502979
      ],
      [
        "ini",
        -9.580149435742166
      ],
      [
        "ve",
        -9.582934574871189
      ],
      [
        "caja",
        -9.583698872111478
      ],
      [
        "bi",
        -9.584000125176184
      ],
      [
        "]",
        -9.58719616345013
      ],
      [
        "js",
        -9.589725435941908
      ],
      [
        "yt",
        -9.589802442403343
      ],
      [
        "Calle",
        -9.592760884960086
      ],
      [
        "nf",
        -9.593440169920026
      ],
      [
        "ib",
        -9.597414818463445
      ],
      [
        "ev",
        -9.597868940684936
      ],
      [
        "pt",
        -9.60303797683081
      ],
      [
        "ob",
        -9.604349497320776
      ],
      [
        "index",
        -9.60550848418611
      ],
      [
        "PUT",
        -9.605654034865399
      ],
      [
        "net",
        -9.60591560004605
      ],
      [
        "off",
        -9.611715757033092
      ],
      [
        "gt",
        -9.61802398849638
      ],
      [
        "wi",
        -9.619094240069415
      ],
      [
        "14",
        -9.619695412418931
      ],
      [
        "sp",
        -9.620236687372564
      ],
      [
        "css",
        -9.626342774592164
      ],
      [
        "F8",
        -9.626663458074585
      ],
      [
        "ow",
        -9.62791572181864
      ],
      [
        "aw",
        -9.628876756593526
      ],
      [
        "kr",
        -9.629000095049857
      ],
      [
        "je",
        -9.64453570133848
      ],
      [
        "exec",
        -9.646519323489127
      ],
      [
        "gi",
        -9.650992539436675
      ],
      [
        "mr",
        -9.65334207739051
      ],
      [
        "fi",
        -9.654447343263744
      ],
      [
        "uz",
        -9.655679877999127
      ],
      [
        "ny",
        -9.658186615205176
      ],
      [
        "ing",
        -9.661032283117311
      ],
      [
        "mh",
        -9.662867869199353
      ],
      [
        "5F",
        -9.663604470695187
      ],
      [
        "0F",
        -9.668945534907527
      ],
      [
        "uh",
        -9.678736667679122
      ],
      [
        "lu",
        -9.67926076005075
      ],
      [
        "of",
        -9.684817499642214
      ],
      [
        "hm",
        -9.685634638545347
      ],
      [
        "du",
        -9.68843152908694
      ],
      [
        "Mac",
        -9.689520613684143
      ],
      [
        "org",
        -9.691701478487232
      ],
      [
        "mu",
        -9.700477075494142
      ],
      [
        "yo",
        -9.70923407800291
      ],
      [
        "ip",
        -9.71102608126242
      ],
      [
        "cookie",
        -9.711258580030998
      ],
      [
        "ja",
        -9.715942576606338
      ],
      [
        "ys",
        -9.71742217096324
      ],
      [
        "Confirmar",
        -9.720857039383045
      ],
      [
        "ws",
        -9.72411694974005
      ],
      [
        "iw",
        -9.724516845566281
      ],
      [
        "oy",
        -9.726800764127537
      ],
      [
        "B0",
        -9.736133242921555
      ],
      [
        "iy",
        -9.73644391688002
      ],
      [
        "hc",
        -9.74028161175728
      ],
      [
        "Ib",
        -9.740384962954753
      ],
      [
        "2574",
        -9.742334972383478
      ],
      [
        "sw",
        -9.742787131933836
      ],
      [
        "gb",
        -9.751185504175922
      ],
      [
        "gr",
        -9.752043801752787
      ],
      [
        "gu",
        -9.752762197857244
      ],
      [
        "jp",
        -9.754814682673294
      ],
      [
        "cu",
        -9.755791544377434
      ],
      [
        "dm",
        -9.756775628153415
      ],
      [
        "NT",
        -9.760860032270987
      ],
      [
        "386",
        -9.763991278924937
      ],
      [
        "uk",
        -9.773976355256888
      ],
      [
        "og",
        -9.778369595283273
      ],
      [
        "sg",
        -9.779882730860134
      ],
      [
        "dl",
        -9.783188575183637
      ],
      [
        "cgi",
        -9.784060724642757
      ],
      [
        "az",
        -9.786208929720477
      ],
      [
        "bs",
        -9.788054747895577
      ],
      [
        "asp",
        -9.79023644752134
      ],
      [
        "passwd",
        -9.791919585798274
      ],
      [
        "by",
        -9.792615074814064
      ],
      [
        "nw",
        -9.793139135602498
      ],
      [
        "winnt",
        -9.79618343127622
      ],
      [
        "ud",
        -9.797272317383644
      ],
      [
        "fn",
        -9.799558138743496
      ],
      [
        "cl",
        -9.80350542639816
      ],
      [
        "rf",
        -9.806804608650594
      ],
      [
        "um",
        -9.81228556437496
      ],
      [
        "ke",
        -9.813728057817782
      ],
      [
        "586",
        -9.813746182814715
      ],
      [
        "tmp",
        -9.814831660951096
      ],
      [
        "ej",
        -9.815648968522073
      ],
      [
        "\\\\",
        -9.816375142322997
      ],
      [
        "dc",
        -9.817419090756868
      ],
      [
        "2563",
        -9.819828852593147
      ],
      [
        "Rioja",
        -9.821049947549817
      ],
      [
        "ry",
        -9.821411440528344
      ],
      [
        "rg",
        -9.82617903444988
      ],
      [
        "br",
        -9.827666037051323
      ],
      [
        "wo",
        -9.832637171260235
      ],
      [
        "lm",
        -9.833406629864719
      ],
      [
        "sb",
        -9.836414136701544
      ],
      [
        "pn",
        -9.836737032395227
      ],
      [
        "exe",
        -9.837930606932947
      ],
      [
        "fs",
        -9.840592427192016
      ],
      [
        "vi",
        -9.844773188999067
      ],
      [
        "~",
        -9.84657296098451
      ],
      [
        "gs",
        -9.846836964533965
      ],
      [
        "yn",
        -9.846869480492089
      ],
      [
        "rb",
        -9.849651526430902
      ],
      [
        "cz",
        -9.84999560325986
      ],
      [
        "object",
        -9.85128464567731
      ],
      [
        "tz",
        -9.856892812050349
      ],
      [
        "nb",
        -9.857721836903973
      ],
      [
        "av",
        -9.86188256196641
      ],
      [
        "yi",
        -9.863039238153412
      ],
      [
        "sf",
        -9.867699561571811
      ],
      [
        "jo",
        -9.869403872026151
      ],
      [
        "ph",
        -9.872455158230014
      ],
      [
        "document",
        -9.876947625711658
      ],
      [
        "AB",
        -9.878147186630496
      ],
      [
        "db",
        -9.879132228457472
      ],
      [
        "ek",
        -9.889570622809153
      ],
      [
        "uc",
        -9.905151859495055
      ],
      [
        "style",
        -9.907173282122839
      ],
      [
        "lert",
        -9.912563535735703
      ],
      [
        "wn",
        -9.912912448336147
      ],
      [
        "ml",
        -9.914373987113754
      ],
      [
        "bu",
        -9.919160858987748
      ],
      [
        "bl",
        -9.924570933831115
      ],
      [
        "[",
        -9.927301331450266
      ],
      [
        "253",
        -9.92940681250441
      ],
      [
        "select",
        -9.93498294564691
      ],
      [
        "hy",
        -9.941359030222536
      ],
      [
        "2312",
        -9.942915423665877
      ],
      [
        "ka",
        -9.944090295222253
      ],
      [
        "Vino",
        -9.944856957697251
      ],
      [
        "253A",
        -9.944863088820851
      ],
      [
        "jpe",
        -9.948628452503414
      ],
      [
        "mail",
        -9.949771875921861
      ],
      [
        "256F",
        -9.951016417580167
      ],
      [
        "Jam",
        -9.95305592781796
      ],
      [
        "Manchego",
        -9.955727002136243
      ],
      [
        "Ques",
        -9.955848478264603
      ],
      [
        "wh",
        -9.958788544242557
      ],
      [
        "iz",
        -9.960300931596889
      ],
      [
        "system",
        -9.961777224411989
      ],
      [
        "gh",
        -9.964150002678593
      ],
      [
        "hz",
        -9.96541935331168
      ],
      [
        "from",
        -9.966951724688514
      ],
      [
        "iv",
        -9.96917734111361
      ],
      [
        "era",
        -9.971587638005508
      ],
      [
        "rw",
        -9.97593602424859
      ],
      [
        "all",
        -9.978892232780382
      ],
      [
        "252",
        -9.981718805803334
      ],
      [
        "del",
        -9.99443189429802
      ],
      [
        "BS",
        -9.996382174620026
      ],
      [
        "position",
        -9.996518877710802
      ],
      [
        "aj",
        -9.999678883364446
      ],
      [
        "location",
        -10.004248835757515
      ],
      [
        "E9rico",
        -10.006813876580463
      ],
      [
        "asf",
        -10.006824689133735
      ],
      [
        "mc",
        -10.008769986537105
      ],
      [
        "dy",
        -10.011677336087814
      ],
      [
        "cd",
        -10.01185918918377
      ],
      [
        "bn",
        -10.012510437279598
      ],
      [
        "wr",
        -10.015787194299147
      ],
      [
        "hb",
        -10.018706907438613
      ],
      [
        "tk",
        -10.019740926653197
      ],
      [
        "wp",
        -10.020627088904668
      ],
      [
        "log",
        -10.022226444476043
      ],
      [
        "count",
        -10.029130973085817
      ],
      [
        "fl",
        -10.034414827416256
      ],
      [
        "2569",
        -10.03563305215951
      ],
      [
        "mm",
        -10.039871450392592
      ],
      [
        "ina",
        -10.043720722111761
      ],
      [
        "jt",
        -10.0439503742689
      ],
      [
        "2565",
        -10.047462419430627
      ],
      [
        "md",
        -10.053650655614414
      ],
      [
        "yr",
        -10.053690943305385
      ],
      [
        "253D",
        -10.053740258193429
      ],
      [
        "lb",
        -10.065217236831371
      ],
      [
        "ell",
        -10.066276209072164
      ],
      [
        "hf",
        -10.06657809504598
      ],
      [
        "ov",
        -10.06709574389464
      ],
      [
        "eO",
        -10.067108720407422
      ],
      [
        "ze",
        -10.067339502172459
      ],
      [
        "tj",
        -10.069185236807119
      ],
      [
        "cat",
        -10.06935315294053
      ],
      [
        "ly",
        -10.07125926056581
      ],
      [
        "oz",
        -10.07208438170667
      ],
      [
        "936",
        -10.072452807979104
      ],
      [
        "ug",
        -10.079859247320353
      ],
      [
        "tv",
        -10.080438597835524
      ],
      [
        "hw",
        -10.08081554308691
      ],
      [
        "hp",
        -10.083759493456153
      ],
      [
        "950",
        -10.088158148175548
      ],
      [
        "kt",
        -10.089141946591024
      ],
      [
        "autoexec",
        -10.090194949675068
      ],
      [
        "Fchild",
        -10.090425042234699
      ],
      [
        "250",
        -10.09492366922251
      ],
      [
        "wide",
        -10.096894160068992
      ],
      [
        "htm",
        -10.097856504447368
      ],
      [
        "replace",
        -10.099231111338765
      ],
      [
        "var",
        -10.100806272036827
      ],
      [
        "tar",
        -10.103204401107348
      ],
      [
        "ak",
        -10.107420045894077
      ],
      [
        "koi",
        -10.10872755970145
      ],
      [
        "?",
        -10.114475284222092
      ],
      [
        "yl",
        -10.116746583596619
      ],
      [
        "grou",
        -10.118597572940045
      ],
      [
        "mp",
        -10.118658795687917
      ],
      [
        "yh",
        -10.129576952405895
      ],
      [
        "hg",
        -10.130806158254112
      ],
      [
        "lf",
        -10.134030554418406
      ],
      [
        "ub",
        -10.134884528657732
      ],
      [
        "ko",
        -10.136461180812015
      ],
      [
        "wl",
        -10.14071860732434
      ],
      [
        "eee",
        -10.14489734369926
      ],
      [
        "3A0",
        -10.14743460010217
      ],
      [
        "257",
        -10.150575017246107
      ],
      [
        "bh",
        -10.157561591424695
      ],
      [
        "fh",
        -10.157994391381452
      ],
      [
        "zo",
        -10.158789821478498
      ],
      [
        "t6",
        -10.162570117987856
      ],
      [
        "2022",
        -10.162861968639273
      ],
      [
        "yu",
        -10.164006568583247
      ],
      [
        "uu",
        -10.165316538486817
      ],
      [
        "node",
        -10.165908173546782
      ],
      [
        "7a",
        -10.169241130019085
      ],
      [
        "vo",
        -10.17020262374832
      ],
      [
        "ki",
        -10.172257100721959
      ],
      [
        "pd",
        -10.174301334617432
      ],
      [
        "$",
        -10.17461994022606
      ],
      [
        "chinese",
        -10.174627530911145
      ],
      [
        "wav",
        -10.175488656176888
      ],
      [
        "B2A",
        -10.177914599147922
      ],
      [
        "vt",
        -10.18564650340503
      ],
      [
        "mb",
        -10.188475726768296
      ],
      [
        "name",
        -10.189537283364542
      ],
      [
        "4u",
        -10.191666768336916
      ],
      [
        "Bposition",
        -10.193561752585197
      ],
      [
        "4t",
        -10.193941593186015
      ],
      [
        "df",
        -10.19444293709112
      ],
      [
        "arabi",
        -10.194522612361315
      ],
      [
        "sam",
        -10.195042378497845
      ],
      [
        "admin",
        -10.195696341994267
      ],
      [
        "Open",
        -10.197802335065287
      ],
      [
        "lg",
        -10.201692169922868
      ],
      [
        "up",
        -10.20181834322923
      ],
      [
        "ogo",
        -10.203754646994295
      ],
      [
        "932",
        -10.206752304535538
      ],
      [
        "2529",
        -10.207628372261611
      ],
      [
        "OR",
        -10.211611124256269
      ],
      [
        "eoe",
        -10.213700043770391
      ],
      [
        "etc",
        -10.21447615910176
      ],
      [
        "time",
        -10.217948107032656
      ],
      [
        "div",
        -10.21818470833
      ],
      [
        "where",
        -10.218191971608768
      ],
      [
        "ierra",
        -10.21983326739538
      ],
      [
        "gl",
        -10.229680228693269
      ],
      [
        "Ra",
        -10.22982739872575
      ],
      [
        "aros",
        -10.230154880279397
      ],
      [
        "quic",
        -10.233699242336465
      ],
      [
        "t4",
        -10.235312390833958
      ],
      [
        "sj",
        -10.235496535161708
      ],
      [
        "union",
        -10.24368758721424
      ],
      [
        "254",
        -10.244863791499277
      ],
      [
        "img",
        -10.248613333874058
      ],
      [
        "nz",
        -10.249412466796269
      ],
      [
        "Set",
        -10.249417097967914
      ],
      [
        "874",
        -10.256481667809998
      ],
      [
        "include",
        -10.261032108248386
      ],
      [
        "any",
        -10.26360635029646
      ],
      [
        "ste",
        -10.26693886883686
      ],
      [
        "dw",
        -10.270396312775361
      ],
      [
        "lw",
        -10.270677164373854
      ],
      [
        "i7",
        -10.27128567739291
      ],
      [
        "titulo",
        -10.274016976124988
      ],
      [
        "sk",
        -10.274264855156755
      ],
      [
        "xt",
        -10.275480727292573
      ],
      [
        "menu",
        -10.276335947852134
      ],
      [
        "zara",
        -10.278844288455156
      ],
      [
        "ck",
        -10.281298644801787
      ],
      [
        "gov",
        -10.281346436093852
      ],
      [
        "250A",
        -10.284225571903388
      ],
      [
        "echo",
        -10.287849662842387
      ],
      [
        "t7",
        -10.288033904330078
      ],
      [
        "sz",
        -10.288606423152974
      ],
      [
        "xp_",
        -10.28879218637197
      ],
      [
        "uy",
        -10.289653223928864
      ],
      [
        "basi",
        -10.289882669410499
      ],
      [
        "221",
        -10.29519278367846
      ],
      [
        "dg",
        -10.298276773131636
      ],
      [
        "cme",
        -10.301681541186403
      ],
      [
        "wd",
        -10.302043814432434
      ],
      [
        "ftp",
        -10.30227503105213
      ],
      [
        "fd",
        -10.303877202859177
      ],
      [
        "3D1",
        -10.305286776741733
      ],
      [
        "3A15",
        -10.306093211172938
      ],
      [
        "process",
        -10.306986684023125
      ],
      [
        "a6",
        -10.308718556659635
      ],
      [
        "pu",
        -10.309276951168066
      ],
      [
        "instruction",
        -10.310717990509389
      ],
      [
        "a7",
        -10.311472501259427
      ],
      [
        "pm",
        -10.311917224172657
      ],
      [
        "mpe",
        -10.31448861438863
      ],
      [
        "6a",
        -10.316207845970766
      ],
      [
        "eea",
        -10.316261040736123
      ],
      [
        "itfor",
        -10.318390085203234
      ],
      [
        "yd",
        -10.319000788071062
      ],
      [
        "stdin",
        -10.322447412662797
      ],
      [
        "nk",
        -10.328933068288338
      ],
      [
        "lib",
        -10.328936581367763
      ],
      [
        "gd",
        -10.329762103802471
      ],
      [
        "body",
        -10.329943670273046
      ],
      [
        "boot",
        -10.330338388736784
      ],
      [
        "ij",
        -10.334204223097867
      ],
      [
        "ik",
        -10.33534523357832
      ],
      [
        "amper",
        -10.337376691349395
      ],
      [
        "biz",
        -10.33848292725545
      ],
      [
        "ks",
        -10.342409744223183
      ],
      [
        "shutdown",
        -10.348817790702306
      ],
      [
        "sali",
        -10.350426906269117
      ],
      [
        "ok",
        -10.35045609710667
      ],
      [
        "ada",
        -10.351501363799613
      ],
      [
        "2522",
        -10.352883049519058
      ],
      [
        "estil",
        -10.35657810946776
      ],
      [
        "bc",
        -10.357233936147775
      ],
      [
        "bd",
        -10.359608532978134
      ],
      [
        "nuestra",
        -10.360536828073652
      ],
      [
        "zt",
        -10.36085798109638
      ],
      [
        "252F",
        -10.363237952397538
      ],
      [
        "rj",
        -10.364812179419706
      ],
      [
        "eet",
        -10.36800561672905
      ],
      [
        "htacces",
        -10.372394510974711
      ],
      [
        "connect",
        -10.372394552775438
      ],
      [
        "home",
        -10.37369939994224
      ],
      [
        "castr",
        -10.37432662530365
      ],
      [
        "drop",
        -10.374679802424208
      ],
      [
        "credito",
        -10.37637857340479
      ],
      [
        "fotos",
        -10.376429129830758
      ],
      [
        "cb",
        -10.376474314953189
      ],
      [
        "cy",
        -10.376587566130041
      ],
      [
        "man",
        -10.377042456787812
      ],
      [
        "154",
        -10.37783937519561
      ],
      [
        "253E",
        -10.377849941396512
      ],
      [
        "had",
        -10.378415858579555
      ],
      [
        "157",
        -10.380984700816708
      ],
      [
        "206",
        -10.382457031920516
      ],
      [
        "htpass",
        -10.384005254595717
      ],
      [
        "access_log",
        -10.38439461886259
      ],
      [
        "telnet",
        -10.38445710278307
      ],
      [
        "aR",
        -10.384616209366596
      ],
      [
        "nph",
        -10.388268741656107
      ],
      [
        "tur",
        -10.388882608691837
      ],
      [
        "tR",
        -10.392493416840946
      ],
      [
        "elay",
        -10.392995024580237
      ],
      [
        "ete",
        -10.395339303249816
      ],
      [
        "opt",
        -10.395723126342105
      ],
      [
        "i6",
        -10.396409880665004
      ],
      [
        "insert",
        -10.396518724492777
      ],
      [
        "path",
        -10.397129645494116
      ],
      [
        "link",
        -10.397492779187921
      ],
      [
        "hk",
        -10.397523008871445
      ],
      [
        "dir",
        -10.397804202409262
      ],
      [
        "248",
        -10.402622628338646
      ],
      [
        "i4",
        -10.40301006934126
      ],
      [
        "ero",
        -10.403225090182199
      ],
      [
        "4i",
        -10.406266684410845
      ],
      [
        "Bwa",
        -10.40838295482265
      ],
      [
        "my",
        -10.408964098544333
      ],
      [
        "sta",
        -10.409908463429037
      ],
      [
        "2BT",
        -10.410784203436044
      ],
      [
        "sv",
        -10.413363917676339
      ],
      [
        "189",
        -10.413762531662838
      ],
      [
        "iI",
        -10.413796096149184
      ],
      [
        "107",
        -10.4145193617871
      ],
      [
        "Or",
        -10.415827850195676
      ],
      [
        "6t",
        -10.416244121735147
      ],
      [
        "dp",
        -10.41897528017805
      ],
      [
        "nv",
        -10.42049896815621
      ],
      [
        "oj",
        -10.421958641186645
      ],
      [
        "s6",
        -10.423372045999514
      ],
      [
        "231",
        -10.424328503523965
      ],
      [
        "copy",
        -10.425913993644027
      ],
      [
        "input",
        -10.426528629820588
      ],
      [
        "user",
        -10.426776643678457
      ],
      [
        "4a",
        -10.429337879302416
      ],
      [
        "productos",
        -10.429669776978109
      ],
      [
        "between",
        -10.429669819450009
      ],
      [
        "ara",
        -10.429857169380366
      ],
      [
        "rz",
        -10.429982041749334
      ],
      [
        "7t",
        -10.430422121659685
      ],
      [
        "meta",
        -10.430971514810452
      ],
      [
        "wget",
        -10.432127800968264
      ],
      [
        "sock_stream",
        -10.433889186257872
      ],
      [
        "186",
        -10.43799650942914
      ],
      [
        "err",
        -10.438045478412667
      ],
      [
        "yc",
        -10.438462905826462
      ],
      [
        "xterm",
        -10.438644547001708
      ],
      [
        "bgsound",
        -10.442381794131283
      ],
      [
        "vbscript",
        -10.442398565028903
      ],
      [
        "nbul",
        -10.44259127918782
      ],
      [
        "java",
        -10.442936862312358
      ],
      [
        "dk",
        -10.44323158311974
      ],
      [
        "Is",
        -10.443660617506676
      ],
      [
        "Ba",
        -10.444591725378142
      ],
      [
        "i2",
        -10.4447171264678
      ],
      [
        "fu",
        -10.444717928287936
      ],
      [
        "null",
        -10.445664460489994
      ],
      [
        "mocha",
        -10.44681484539397
      ],
      [
        "usr",
        -10.447220454431555
      ],
      [
        "aO",
        -10.450779782001383
      ],
      [
        "174",
        -10.450952706160255
      ],
      [
        "netcat",
        -10.45111138209044
      ],
      [
        "IN",
        -10.452202165406554
      ],
      [
        "209",
        -10.453419930898336
      ],
      [
        "uw",
        -10.454812021270628
      ],
      [
        "uf",
        -10.45491327854235
      ],
      [
        "244",
        -10.457303890545585
      ],
      [
        "192",
        -10.458429252595856
      ],
      [
        "103",
        -10.458943450725425
      ],
      [
        "iff",
        -10.460173299215713
      ],
      [
        "eta",
        -10.460952516181564
      ],
      [
        "eval",
        -10.464848546374721
      ],
      [
        "183",
        -10.469304362345207
      ],
      [
        "zi",
        -10.471168881359075
      ],
      [
        "wu",
        -10.471490187492435
      ],
      [
        "Ri",
        -10.472574018320156
      ],
      [
        "iframe",
        -10.472689431376876
      ],
      [
        "MSI",
        -10.473131414833613
      ],
      [
        "253F",
        -10.473372904066
      ],
      [
        "2i",
        -10.474308715945185
      ],
      [
        "ter",
        -10.475209391421272
      ],
      [
        "247",
        -10.475500445083547
      ],
      [
        "243",
        -10.475538117384517
      ],
      [
        "mw",
        -10.475757984645966
      ],
      [
        "zs",
        -10.476171266955841
      ],
      [
        "delete",
        -10.47723807997424
      ],
      [
        "cm",
        -10.477336460090589
      ],
      [
        "rk",
        -10.478903532866504
      ],
      [
        "nsf",
        -10.480920778423435
      ],
      [
        "lv",
        -10.482373356304034
      ],
      [
        "jn",
        -10.48377500644186
      ],
      [
        "cw",
        -10.484778109085834
      ],
      [
        "tet",
        -10.485672437347738
      ],
      [
        "242",
        -10.485988313400807
      ],
      [
        "2s",
        -10.486586069415079
      ],
      [
        "2561",
        -10.488309812163138
      ],
      [
        "ji",
        -10.488895669876673
      ],
      [
        "167",
        -10.48922707710587
      ],
      [
        "zn",
        -10.492049856502849
      ],
      [
        "aee",
        -10.492089363902148
      ],
      [
        "136",
        -10.492830803628165
      ],
      [
        "ana",
        -10.493885295841888
      ],
      [
        "arr",
        -10.49443887144249
      ],
      [
        "238",
        -10.49448690725471
      ],
      [
        "passthru",
        -10.494911677124598
      ],
      [
        "tO",
        -10.496431826865614
      ],
      [
        "mf",
        -10.496588997692207
      ],
      [
        "ff",
        -10.500595389812595
      ],
      [
        "133",
        -10.501264842296465
      ],
      [
        "IPT",
        -10.501524592731913
      ],
      [
        "mg",
        -10.50558722542841
      ],
      [
        "wm",
        -10.506219391796979
      ],
      [
        "246",
        -10.507148805224727
      ],
      [
        "6s",
        -10.511543163348463
      ],
      [
        "169",
        -10.51252107103136
      ],
      [
        "tte",
        -10.51477477578462
      ],
      [
        "199",
        -10.516337462506225
      ],
      [
        "ym",
        -10.517642858144832
      ],
      [
        "cf",
        -10.517774727100225
      ],
      [
        "130",
        -10.51901625130806
      ],
      [
        "159",
        -10.52031125511454
      ],
      [
        "4s",
        -10.522360924154075
      ],
      [
        "108",
        -10.522537516176593
      ],
      [
        "seo",
        -10.522922812361283
      ],
      [
        "106",
        -10.523156583519622
      ],
      [
        "201",
        -10.523469368404875
      ],
      [
        "tes",
        -10.525322154924073
      ],
      [
        "having",
        -10.526880317131944
      ],
      [
        "nj",
        -10.528320755616623
      ],
      [
        "bm",
        -10.529426683510795
      ],
      [
        "tee",
        -10.531401807274385
      ],
      [
        "255",
        -10.533752840712115
      ],
      [
        "vs",
        -10.533994746507288
      ],
      [
        "FROM",
        -10.536202735522322
      ],
      [
        "109",
        -10.536632898165035
      ],
      [
        "nO",
        -10.537289703360202
      ],
      [
        "kn",
        -10.541149467020595
      ],
      [
        "eae",
        -10.542630289600513
      ],
      [
        "wf",
        -10.543318239709802
      ],
      [
        "sun",
        -10.544746830608577
      ],
      [
        "update",
        -10.545832789523985
      ],
      [
        "a4",
        -10.546289905993245
      ],
      [
        "204",
        -10.547002998429754
      ],
      [
        "sca",
        -10.54730910026094
      ],
      [
        "188",
        -10.547683043563858
      ],
      [
        "233",
        -10.548030960639725
      ],
      [
        "ere",
        -10.548142444758641
      ],
      [
        "185",
        -10.549342981759391
      ],
      [
        "196",
        -10.55144685030497
      ],
      [
        "191",
        -10.551453702833385
      ],
      [
        "s7",
        -10.551536311312166
      ],
      [
        "nto",
        -10.553978390444462
      ],
      [
        "348",
        -10.554757977556022
      ],
      [
        "les",
        -10.555435718334216
      ],
      [
        "San",
        -10.556321530778412
      ],
      [
        "res",
        -10.557212946561705
      ],
      [
        "235",
        -10.560817057041689
      ],
      [
        "Ni",
        -10.56144561822005
      ],
      [
        "tor",
        -10.562378221074574
      ],
      [
        "oee",
        -10.562562758445385
      ],
      [
        "230",
        -10.564271000560804
      ],
      [
        "104",
        -10.564737523959803
      ],
      [
        "lk",
        -10.565687082043395
      ],
      [
        "152",
        -10.566629055272873
      ],
      [
        "236",
        -10.567025823803732
      ],
      [
        "249",
        -10.567116689526284
      ],
      [
        "s2",
        -10.567651158314689
      ],
      [
        "178",
        -10.573776053575562
      ],
      [
        "197",
        -10.574807444982836
      ],
      [
        "237",
        -10.576641337421643
      ],
      [
        "184",
        -10.576659640938985
      ],
      [
        "py",
        -10.576763737452488
      ],
      [
        "cfm",
        -10.57730614919332
      ],
      [
        "239",
        -10.579889596097885
      ],
      [
        "187",
        -10.580332379087025
      ],
      [
        "s4",
        -10.58061433118815
      ],
      [
        "7i",
        -10.580912776566388
      ],
      [
        "car",
        -10.581797764043003
      ],
      [
        "gg",
        -10.582095266581906
      ],
      [
        "dz",
        -10.582127141961589
      ],
      [
        "101",
        -10.582269519380754
      ],
      [
        "mar",
        -10.584659079757676
      ],
      [
        "ers",
        -10.587295996525965
      ],
      [
        "jh",
        -10.588603249227262
      ],
      [
        "155",
        -10.588983572622492
      ],
      [
        "ees",
        -10.589538416355614
      ],
      [
        "168",
        -10.59014520846819
      ],
      [
        "sN",
        -10.590324174795793
      ],
      [
        "see",
        -10.59123579037346
      ],
      [
        "vn",
        -10.591729268814692
      ],
      [
        "iN",
        -10.592139924053225
      ],
      [
        "234",
        -10.594423325710348
      ],
      [
        "lz",
        -10.595286237170711
      ],
      [
        "116",
        -10.597192677429254
      ],
      [
        "219",
        -10.598830488339443
      ],
      [
        "nte",
        -10.599778552188717
      ],
      [
        "fc",
        -10.600151903693863
      ],
      [
        "139",
        -10.600509599909614
      ],
      [
        "258",
        -10.601222152414415
      ],
      [
        "der",
        -10.601446295872893
      ],
      [
        "sO",
        -10.603968431265777
      ],
      [
        "163",
        -10.605689062397808
      ],
      [
        "208",
        -10.606066974739157
      ],
      [
        "245",
        -10.607263738236732
      ],
      [
        "idA",
        -10.607548672462244
      ],
      [
        "iee",
        -10.609367082906036
      ],
      [
        "170",
        -10.612383249787253
      ],
      [
        "251",
        -10.612556052802354
      ],
      [
        "182",
        -10.612757823187659
      ],
      [
        "ju",
        -10.613844466622613
      ],
      [
        "oO",
        -10.615729362546048
      ],
      [
        "gm",
        -10.61999066410575
      ],
      [
        "137",
        -10.620372208819276
      ],
      [
        "ast",
        -10.621468476765285
      ],
      [
        "ote",
        -10.624142869974754
      ],
      [
        "357",
        -10.624444376271942
      ],
      [
        "250D",
        -10.624722031973757
      ],
      [
        "150",
        -10.62538901194285
      ],
      [
        "Anode",
        -10.625482218201828
      ],
      [
        "ert",
        -10.625554513258805
      ],
      [
        "uj",
        -10.626542132958544
      ],
      [
        "205",
        -10.62767728377129
      ],
      [
        "232",
        -10.627771104342944
      ],
      [
        "Ot",
        -10.62846648661572
      ],
      [
        "110",
        -10.629092738968442
      ],
      [
        "dll",
        -10.631011960483393
      ],
      [
        "sR",
        -10.631116247969114
      ],
      [
        "cia",
        -10.631348547930916
      ],
      [
        "zr",
        -10.632456678143832
      ],
      [
        "132",
        -10.635035974571085
      ],
      [
        "2Fetc",
        -10.635933190109737
      ],
      [
        "134",
        -10.637658127240234
      ],
      [
        "105",
        -10.638426662642509
      ],
      [
        "services",
        -10.639741172035503
      ],
      [
        "175",
        -10.639908943880553
      ],
      [
        "156",
        -10.640138529143112
      ],
      [
        "iO",
        -10.640281691401693
      ],
      [
        "151",
        -10.642239887093439
      ],
      [
        "eeo",
        -10.642476175915238
      ],
      [
        "iR",
        -10.644369636339546
      ],
      [
        "165",
        -10.644546558962354
      ],
      [
        "171",
        -10.644804163402771
      ],
      [
        "rcp",
        -10.648172551962602
      ],
      [
        "111",
        -10.648789315922974
      ],
      [
        "200",
        -10.649642272226254
      ],
      [
        "135",
        -10.651239382905095
      ],
      [
        "226",
        -10.651427976949456
      ],
      [
        "179",
        -10.651532373106722
      ],
      [
        "Oa",
        -10.65189820889307
      ],
      [
        "asm",
        -10.654642304023486
      ],
      [
        "Os",
        -10.654953741034802
      ],
      [
        "202",
        -10.656354331958063
      ],
      [
        "190",
        -10.659353845541746
      ],
      [
        "146",
        -10.660978969881604
      ],
      [
        "119",
        -10.661057259211852
      ],
      [
        "wc",
        -10.661071700008822
      ],
      [
        "ela",
        -10.661490731432067
      ],
      [
        "207",
        -10.661624590891186
      ],
      [
        "bw",
        -10.662969460603481
      ],
      [
        "6i",
        -10.665048361889191
      ],
      [
        "181",
        -10.665751898991052
      ],
      [
        "118",
        -10.667429557111037
      ],
      [
        "162",
        -10.669534302571273
      ],
      [
        "ucs",
        -10.670589501575254
      ],
      [
        "ida",
        -10.671502739593356
      ],
      [
        "h6",
        -10.672046564126553
      ],
      [
        "tra",
        -10.672151461406884
      ],
      [
        "ine",
        -10.672641171114847
      ],
      [
        "176",
        -10.674650680398845
      ],
      [
        "2f",
        -10.678213158923132
      ],
      [
        "zu",
        -10.678475560435743
      ],
      [
        "131",
        -10.678523249663616
      ],
      [
        "vh",
        -10.678629445651158
      ],
      [
        "kh",
        -10.680533514648966
      ],
      [
        "uel",
        -10.681767053580867
      ],
      [
        "bb",
        -10.682774758842974
      ],
      [
        "153",
        -10.683163953373796
      ],
      [
        "yw",
        -10.68426786896465
      ],
      [
        "148",
        -10.686513750011489
      ],
      [
        "138",
        -10.686612242923221
      ],
      [
        "https",
        -10.687857832408287
      ],
      [
        "perl",
        -10.689670302073598
      ],
      [
        "203",
        -10.690190651450276
      ],
      [
        "158",
        -10.693677783516526
      ],
      [
        "2FN",
        -10.694770215418075
      ],
      [
        "27http",
        -10.698271878542421
      ],
      [
        "paros",
        -10.700814053435835
      ],
      [
        "164",
        -10.702163739186808
      ],
      [
        "241",
        -10.702870560030213
      ],
      [
        "tea",
        -10.703719510505266
      ],
      [
        "194",
        -10.705721494004203
      ],
      [
        "oet",
        -10.70634773572882
      ],
      [
        "bat",
        -10.709109151559582
      ],
      [
        "177",
        -10.709159340497013
      ],
      [
        "198",
        -10.709503847833687
      ],
      [
        "ria",
        -10.709506406855553
      ],
      [
        "353",
        -10.711167232775146
      ],
      [
        "160",
        -10.711600165243244
      ],
      [
        "166",
        -10.714655222587574
      ],
      [
        "2527",
        -10.71543348213611
      ],
      [
        "ner",
        -10.715818063132414
      ],
      [
        "2573",
        -10.716814638028833
      ],
      [
        "143",
        -10.717976163420953
      ],
      [
        "7s",
        -10.718963446485677
      ],
      [
        "Ns",
        -10.719229395225899
      ],
      [
        "459",
        -10.725854131497144
      ],
      [
        "5601",
        -10.726162557717746
      ],
      [
        "1987",
        -10.727050359207698
      ],
      [
        "114",
        -10.728513803926685
      ],
      [
        "aris",
        -10.728859895429473
      ],
      [
        "837",
        -10.729396534713493
      ],
      [
        "147",
        -10.731343290745723
      ],
      [
        "259",
        -10.73241991528882
      ],
      [
        "ber",
        -10.732696103457508
      ],
      [
        "180",
        -10.732728582198177
      ],
      [
        "bf",
        -10.733349094817214
      ],
      [
        "rtf",
        -10.736473381735115
      ],
      [
        "Ol",
        -10.737618522886585
      ],
      [
        "ver",
        -10.738305993889059
      ],
      [
        "nne",
        -10.738632444726768
      ],
      [
        "reek",
        -10.740424625299035
      ],
      [
        "vd",
        -10.741345631987674
      ],
      [
        "144",
        -10.741502478172292
      ],
      [
        "bp",
        -10.742111359192997
      ],
      [
        "msp",
        -10.743035947645115
      ],
      [
        "tre",
        -10.743182797761992
      ],
      [
        "sI",
        -10.74382665363725
      ],
      [
        "h4",
        -10.74596293518223
      ],
      [
        "1254",
        -10.747602316319123
      ],
      [
        "pw",
        -10.749266502579008
      ],
      [
        "256E",
        -10.750951769820265
      ],
      [
        "Bdocument",
        -10.75100532335755
      ],
      [
        "gw",
        -10.751404147185461
      ],
      [
        "ual",
        -10.751709073141342
      ],
      [
        "604",
        -10.751714335461998
      ],
      [
        "265",
        -10.75200881772436
      ],
      [
        "sto",
        -10.753313024969668
      ],
      [
        "yg",
        -10.754209488596533
      ],
      [
        "dO",
        -10.75422680113029
      ],
      [
        "fw",
        -10.755629826851214
      ],
      [
        "ate",
        -10.756392839950426
      ],
      [
        "ret",
        -10.758266857466886
      ],
      [
        "807",
        -10.758498726966081
      ],
      [
        "mk",
        -10.759775986032135
      ],
      [
        "edo",
        -10.76008557164358
      ],
      [
        "fp",
        -10.760629413594856
      ],
      [
        "art",
        -10.76133748472623
      ],
      [
        "roman",
        -10.761434481558288
      ],
      [
        "123",
        -10.76163514417967
      ],
      [
        "3FB",
        -10.762294884075558
      ],
      [
        "ment",
        -10.76230612398545
      ],
      [
        "ww",
        -10.762470713767406
      ],
      [
        "2528",
        -10.762709515677141
      ],
      [
        "253C",
        -10.763068043595949
      ],
      [
        "dI",
        -10.765101218197824
      ],
      [
        "eat",
        -10.76676980402282
      ],
      [
        "trad",
        -10.768619947400982
      ],
      [
        "ser",
        -10.768674136179778
      ],
      [
        "yy",
        -10.7693874445971
      ],
      [
        "2570",
        -10.769551916391162
      ],
      [
        "7h",
        -10.76967549044336
      ],
      [
        "scii",
        -10.770092922394593
      ],
      [
        "wb",
        -10.770181503607226
      ],
      [
        "gy",
        -10.770891588147492
      ],
      [
        "fm",
        -10.771272767370855
      ],
      [
        "hv",
        -10.771506487899703
      ],
      [
        "fy",
        -10.772172159873964
      ],
      [
        "172",
        -10.772459110429544
      ],
      [
        "Vi",
        -10.772631049563339
      ],
      [
        "ite",
        -10.772742564050374
      ],
      [
        "are",
        -10.773933328277561
      ],
      [
        "ard",
        -10.77538216776407
      ],
      [
        "120",
        -10.777172918830367
      ],
      [
        "illo",
        -10.777733782445818
      ],
      [
        "214",
        -10.778205649741645
      ],
      [
        "ks_c",
        -10.778855277304038
      ],
      [
        "173",
        -10.779224424922672
      ],
      [
        "74727",
        -10.779532815442058
      ],
      [
        "1255",
        -10.77988138423298
      ],
      [
        "ien",
        -10.781291535130649
      ],
      [
        "toe",
        -10.781497117730751
      ],
      [
        "lI",
        -10.781774187470525
      ],
      [
        "216",
        -10.78217584091627
      ],
      [
        "Ih",
        -10.782268520571552
      ],
      [
        "pg",
        -10.78311817556802
      ],
      [
        "des",
        -10.783524247810455
      ],
      [
        "ett",
        -10.785311409906967
      ],
      [
        "217",
        -10.787267381556411
      ],
      [
        "3342",
        -10.787527567175651
      ],
      [
        "1257",
        -10.788013102032723
      ],
      [
        "240",
        -10.788720775127931
      ],
      [
        "ita",
        -10.788758002559264
      ],
      [
        "nta",
        -10.789234495051147
      ],
      [
        "955",
        -10.789634091508772
      ],
      [
        "1252",
        -10.790048943506822
      ],
      [
        "ira",
        -10.790130962126074
      ],
      [
        "msf",
        -10.790454843440655
      ],
      [
        "161",
        -10.790716344287176
      ],
      [
        "252E",
        -10.791268316157794
      ],
      [
        "iet",
        -10.7924280430286
      ],
      [
        "eei",
        -10.792528142477384
      ],
      [
        "ora",
        -10.79465773093712
      ],
      [
        "let",
        -10.796230040930006
      ],
      [
        "359",
        -10.79650623334109
      ],
      [
        "640110",
        -10.796932692654
      ],
      [
        "10412",
        -10.797244672009455
      ],
      [
        "kish",
        -10.7973029779548
      ],
      [
        "ern",
        -10.797349946331037
      ],
      [
        "607",
        -10.798318459035244
      ],
      [
        "904",
        -10.798845195349049
      ],
      [
        "lj",
        -10.799606624637127
      ],
      [
        "ata",
        -10.800264448386981
      ],
      [
        "tne",
        -10.800645911765738
      ],
      [
        "145",
        -10.801313333851834
      ],
      [
        "gf",
        -10.802002894303005
      ],
      [
        "ipt",
        -10.802970171420844
      ],
      [
        "263",
        -10.803132536227722
      ],
      [
        "10646",
        -10.803416592745018
      ],
      [
        "nee",
        -10.804985582771618
      ],
      [
        "454",
        -10.805338091488725
      ],
      [
        "icel",
        -10.805957208313188
      ],
      [
        "337",
        -10.807379097486038
      ],
      [
        "swf",
        -10.808895089208594
      ],
      [
        "bg",
        -10.809236382813317
      ],
      [
        "korea",
        -10.80925598012686
      ],
      [
        "hj",
        -10.812537640608404
      ],
      [
        "4h",
        -10.812858977715885
      ],
      [
        "312",
        -10.81358408512297
      ],
      [
        "mdb",
        -10.814439257237154
      ],
      [
        "7l",
        -10.815025238445418
      ],
      [
        "simp",
        -10.815713141426347
      ],
      [
        "213",
        -10.81661245071596
      ],
      [
        "llic",
        -10.81769848510486
      ],
      [
        "193",
        -10.818015481180678
      ],
      [
        "d6",
        -10.818225275912257
      ],
      [
        "102",
        -10.818915797633089
      ],
      [
        "486",
        -10.819958374268907
      ],
      [
        "WHERE",
        -10.82154291685573
      ],
      [
        "int",
        -10.822256797411079
      ],
      [
        "cha",
        -10.823686878372284
      ],
      [
        "358",
        -10.825245767548807
      ],
      [
        "unO",
        -10.82575153154303
      ],
      [
        "389",
        -10.8257515946604
      ],
      [
        "ent",
        -10.826082908092458
      ],
      [
        "tie",
        -10.826906163870676
      ],
      [
        "956",
        -10.827595102199375
      ],
      [
        "ele",
        -10.828264885868371
      ],
      [
        "vl",
        -10.829394081573152
      ],
      [
        "Ii",
        -10.831694672446144
      ],
      [
        "zl",
        -10.83188025596953
      ],
      [
        "686",
        -10.831906337375436
      ],
      [
        "ran",
        -10.832012858034929
      ],
      [
        "488",
        -10.832295276590637
      ],
      [
        "1250",
        -10.832710254983393
      ],
      [
        "984",
        -10.8342725654718
      ],
      [
        "F1a",
        -10.834452306144465
      ],
      [
        "117",
        -10.835513159207625
      ],
      [
        "ant",
        -10.837975896527968
      ],
      [
        "126",
        -10.838213197911685
      ],
      [
        "nie",
        -10.838991258219295
      ],
      [
        "cv",
        -10.839522342466935
      ],
      [
        "fb",
        -10.840002753070344
      ],
      [
        "cyri",
        -10.840704121496083
      ],
      [
        "andic",
        -10.840899216147111
      ],
      [
        "40c",
        -10.841935587889987
      ],
      [
        "kl",
        -10.842958570368449
      ],
      [
        "457",
        -10.843432234222641
      ],
      [
        "113",
        -10.843523295809609
      ],
      [
        "rea",
        -10.84505411786305
      ],
      [
        "rre",
        -10.846287376092816
      ],
      [
        "ras",
        -10.846939694265568
      ],
      [
        "m6",
        -10.846981917471485
      ],
      [
        "vc",
        -10.84707915630741
      ],
      [
        "yb",
        -10.847834032850331
      ],
      [
        "her",
        -10.848049864406399
      ],
      [
        "987",
        -10.849053633180347
      ],
      [
        "tin",
        -10.849145955775844
      ],
      [
        "wg",
        -10.849371400197168
      ],
      [
        "d7",
        -10.851859836987938
      ],
      [
        "isir",
        -10.851991795443709
      ],
      [
        "yp",
        -10.85300819433525
      ],
      [
        "brew",
        -10.853550458105
      ],
      [
        "ier",
        -10.8543229302254
      ],
      [
        "906",
        -10.855354883229083
      ],
      [
        "112",
        -10.857092747155946
      ],
      [
        "zc",
        -10.859759729878942
      ],
      [
        "ku",
        -10.8597937668388
      ],
      [
        "big",
        -10.85981431841472
      ],
      [
        "1251",
        -10.860202363283516
      ],
      [
        "sea",
        -10.86029855778753
      ],
      [
        "zm",
        -10.861040151376315
      ],
      [
        "836",
        -10.86226883059552
      ],
      [
        "437",
        -10.864557896047803
      ],
      [
        "307",
        -10.864843555199727
      ],
      [
        "1258",
        -10.864922944282101
      ],
      [
        "939",
        -10.86634247193072
      ],
      [
        "115",
        -10.867133255552826
      ],
      [
        "yf",
        -10.867274393433094
      ],
      [
        "zh",
        -10.867418979742617
      ],
      [
        "ehe",
        -10.867630457379267
      ],
      [
        "264",
        -10.867948392088074
      ],
      [
        "wy",
        -10.868327047596695
      ],
      [
        "aet",
        -10.868946074346319
      ],
      [
        "385",
        -10.868976513950507
      ],
      [
        "ito",
        -10.869236101621286
      ],
      [
        "694",
        -10.869296766543545
      ],
      [
        "asa",
        -10.870866538402879
      ],
      [
        "309",
        -10.871459848647444
      ],
      [
        "tos",
        -10.872070520783279
      ],
      [
        "954",
        -10.872704628382104
      ],
      [
        "iea",
        -10.87435654484706
      ],
      [
        "306",
        -10.874359407447567
      ],
      [
        "tei",
        -10.874599033917246
      ],
      [
        "149",
        -10.875126026697107
      ],
      [
        "804",
        -10.875460957677724
      ],
      [
        "754",
        -10.876778707797044
      ],
      [
        "vu",
        -10.880430174201521
      ],
      [
        "124",
        -10.881560848112816
      ],
      [
        "kc",
        -10.882631664186746
      ],
      [
        "eoa",
        -10.883438245129923
      ],
      [
        "soe",
        -10.883696670942648
      ],
      [
        "uI",
        -10.883739629499281
      ],
      [
        "ise",
        -10.883835821004414
      ],
      [
        "857",
        -10.883873746803417
      ],
      [
        "706",
        -10.889364941162853
      ],
      [
        "Mar",
        -10.890160471826324
      ],
      [
        "hI",
        -10.891344867407534
      ],
      [
        "709",
        -10.89145220660278
      ],
      [
        "806",
        -10.89153132335724
      ],
      [
        "lass",
        -10.891538202395516
      ],
      [
        "484",
        -10.892366487789023
      ],
      [
        "aoe",
        -10.892935874497901
      ],
      [
        "141",
        -10.894221860011267
      ],
      [
        "388",
        -10.895085506012315
      ],
      [
        "453",
        -10.895691137417739
      ],
      [
        "774",
        -10.895916214520591
      ],
      [
        "eli",
        -10.896377328320582
      ],
      [
        "jis",
        -10.896677261255727
      ],
      [
        "zd",
        -10.897660222345849
      ],
      [
        "354",
        -10.900884039503524
      ],
      [
        "ente",
        -10.903027534686316
      ],
      [
        "ree",
        -10.903269609585221
      ],
      [
        "759",
        -10.904001604792999
      ],
      [
        "eie",
        -10.905829171996334
      ],
      [
        "pb",
        -10.906152530367066
      ],
      [
        "451",
        -10.907234555915664
      ],
      [
        "pf",
        -10.907706524919046
      ],
      [
        "ati",
        -10.908672722467887
      ],
      [
        "608",
        -10.909327950149397
      ],
      [
        "dj",
        -10.910444238033042
      ],
      [
        "ico",
        -10.911021925620753
      ],
      [
        "450",
        -10.911572033092833
      ],
      [
        "057",
        -10.911606665921532
      ],
      [
        "374",
        -10.911790977590409
      ],
      [
        "6h",
        -10.912313756588809
      ],
      [
        "736",
        -10.912768175339286
      ],
      [
        "lO",
        -10.913318108928912
      ],
      [
        "dN",
        -10.914497946915013
      ],
      [
        "304",
        -10.915314449845479
      ],
      [
        "Nd",
        -10.915754569194684
      ],
      [
        "556",
        -10.91595809229954
      ],
      [
        "456",
        -10.916538033982668
      ],
      [
        "system3",
        -10.917593885741343
      ],
      [
        "mz",
        -10.919068909558142
      ],
      [
        "Id",
        -10.919268167280448
      ],
      [
        "mj",
        -10.921463941102736
      ],
      [
        "hO",
        -10.922783403350225
      ],
      [
        "266",
        -10.925141414448364
      ],
      [
        "vm",
        -10.925238724577287
      ],
      [
        "SELECT",
        -10.926557027136715
      ],
      [
        "japa",
        -10.92692659328864
      ],
      [
        "amples",
        -10.926983888795768
      ],
      [
        "636",
        -10.92831174934544
      ],
      [
        "3include",
        -10.930903587477871
      ],
      [
        "557",
        -10.93099950306998
      ],
      [
        "ky",
        -10.932227352866075
      ],
      [
        "eoo",
        -10.932526394024881
      ],
      [
        "584",
        -10.932767229752258
      ],
      [
        "fg",
        -10.933381909951827
      ],
      [
        "oea",
        -10.933430533548739
      ],
      [
        "ooe",
        -10.933696393035387
      ],
      [
        "iel",
        -10.934485909430451
      ],
      [
        "689",
        -10.934583918026988
      ],
      [
        "eri",
        -10.935068000661182
      ],
      [
        "937",
        -10.935831579447044
      ],
      [
        "989",
        -10.935925729376565
      ],
      [
        "uv",
        -10.93672607894993
      ],
      [
        "ton",
        -10.937447532757714
      ],
      [
        "aeo",
        -10.940769123909298
      ],
      [
        "rio",
        -10.941649027422887
      ],
      [
        "ioe",
        -10.942354118444552
      ],
      [
        "m2",
        -10.943839942336204
      ],
      [
        "404",
        -10.943980975797475
      ],
      [
        "teo",
        -10.943997792906417
      ],
      [
        "hR",
        -10.945281328400224
      ],
      [
        "789",
        -10.945544823180924
      ],
      [
        "jd",
        -10.94818774694973
      ],
      [
        "m4",
        -10.95022247575071
      ],
      [
        "hift",
        -10.950315628774321
      ],
      [
        "4m",
        -10.950395769763045
      ],
      [
        "377",
        -10.950792544961779
      ],
      [
        "653",
        -10.952242739455736
      ],
      [
        "7u",
        -10.953247800845414
      ],
      [
        "tat",
        -10.954188107670095
      ],
      [
        "Oh",
        -10.955034313204052
      ],
      [
        "082",
        -10.955955864348935
      ],
      [
        "957",
        -10.957714280455686
      ],
      [
        "2572",
        -10.958036746469574
      ],
      [
        "339",
        -10.958388285996156
      ],
      [
        "142",
        -10.958695961719263
      ],
      [
        "OW",
        -10.958953375220315
      ],
      [
        "224",
        -10.95997295870413
      ],
      [
        "609",
        -10.960590371719938
      ],
      [
        "zip",
        -10.960733895004127
      ],
      [
        "jm",
        -10.96076950513513
      ],
      [
        "297",
        -10.960798020833156
      ],
      [
        "mI",
        -10.961535956005564
      ],
      [
        "eeh",
        -10.96290132395182
      ],
      [
        "aes",
        -10.963733217716667
      ],
      [
        "mas",
        -10.963858913232578
      ],
      [
        "post",
        -10.964628021699347
      ],
      [
        "ont",
        -10.964697101680219
      ],
      [
        "Rh",
        -10.964835008653843
      ],
      [
        "ort",
        -10.966339469536763
      ],
      [
        "roe",
        -10.966563409042532
      ],
      [
        "654",
        -10.966644735612308
      ],
      [
        "787",
        -10.96671566709551
      ],
      [
        "ado",
        -10.967203222111308
      ],
      [
        "559",
        -10.967321367241492
      ],
      [
        "ler",
        -10.96792717394834
      ],
      [
        "2Fscript",
        -10.968298400290728
      ],
      [
        "704",
        -10.969997959710954
      ],
      [
        "896",
        -10.970579789963171
      ],
      [
        "753",
        -10.971679618699994
      ],
      [
        "988",
        -10.972145086243092
      ],
      [
        "658",
        -10.97264360009698
      ],
      [
        "907",
        -10.974180150484845
      ],
      [
        "Uni",
        -10.974353490001771
      ],
      [
        "677",
        -10.974789031843837
      ],
      [
        "782",
        -10.976076059456076
      ],
      [
        "3FD",
        -10.976275149489854
      ],
      [
        "sti",
        -10.976297863995468
      ],
      [
        "mN",
        -10.977161193485387
      ],
      [
        "rte",
        -10.977349690432565
      ],
      [
        "496",
        -10.977891907285667
      ],
      [
        "436",
        -10.977984216222964
      ],
      [
        "731",
        -10.979138365635574
      ],
      [
        "886",
        -10.980367537185064
      ],
      [
        "794",
        -10.980800428718128
      ],
      [
        "679",
        -10.98244492358817
      ],
      [
        "tae",
        -10.982811316559332
      ],
      [
        "dv",
        -10.984594899198722
      ],
      [
        "256D",
        -10.985175831195015
      ],
      [
        "659",
        -10.985271616588905
      ],
      [
        "iei",
        -10.98578469979238
      ],
      [
        "387",
        -10.985837198965871
      ],
      [
        "195",
        -10.986893279010907
      ],
      [
        "url",
        -10.986956093054932
      ],
      [
        "EDa",
        -10.988798471012487
      ],
      [
        "3FF",
        -10.989291479928289
      ],
      [
        "697",
        -10.98966909097994
      ],
      [
        "mR",
        -10.989782453945235
      ],
      [
        "603",
        -10.990181593729314
      ],
      [
        "458",
        -10.99142043592664
      ],
      [
        "uN",
        -10.991434313785984
      ],
      [
        "455",
        -10.991730421807702
      ],
      [
        "614",
        -10.992127921523934
      ],
      [
        "cj",
        -10.992128704841054
      ],
      [
        "fI",
        -10.992415140078515
      ],
      [
        "222",
        -10.994239478579768
      ],
      [
        "757",
        -10.99485544651999
      ],
      [
        "469",
        -10.998716873725728
      ],
      [
        "737",
        -10.999045781667288
      ],
      [
        "606",
        -10.99937183465477
      ],
      [
        "Oi",
        -10.999644262657284
      ],
      [
        "786",
        -11.00011080503052
      ],
      [
        "407",
        -11.000630855018702
      ],
      [
        "lin",
        -11.001627035314613
      ],
      [
        "262",
        -11.001915701827492
      ],
      [
        "RO",
        -11.002092989125945
      ],
      [
        "687",
        -11.002710005312961
      ],
      [
        "649",
        -11.003020925032168
      ],
      [
        "src",
        -11.003942679981385
      ],
      [
        "jl",
        -11.004189181473237
      ],
      [
        "909",
        -11.004628803745849
      ],
      [
        "ica",
        -11.006066087713242
      ],
      [
        "032",
        -11.008253661166625
      ],
      [
        "aei",
        -11.008434860331743
      ],
      [
        "346",
        -11.008529567253536
      ],
      [
        "333",
        -11.009002751706026
      ],
      [
        "703",
        -11.009269441691083
      ],
      [
        "rra",
        -11.009331246294533
      ],
      [
        "cio",
        -11.00967555007659
      ],
      [
        "lee",
        -11.010121326606956
      ],
      [
        "osa",
        -11.011382089885734
      ],
      [
        "256B",
        -11.01160698125744
      ],
      [
        "985",
        -11.011950522870176
      ],
      [
        "neo",
        -11.01299210532325
      ],
      [
        "7832",
        -11.013336375847848
      ],
      [
        "ami",
        -11.013426335660803
      ],
      [
        "km",
        -11.01457400450887
      ],
      [
        "256C",
        -11.014644441336769
      ],
      [
        "tel",
        -11.01555477788572
      ],
      [
        "eti",
        -11.016132969176105
      ],
      [
        "Od",
        -11.017531632590954
      ],
      [
        "tas",
        -11.017944309217258
      ],
      [
        "601",
        -11.018272051627601
      ],
      [
        "Ru",
        -11.018375972377916
      ],
      [
        "605",
        -11.019564102806743
      ],
      [
        "mv",
        -11.020147299935322
      ],
      [
        "tto",
        -11.02305488795596
      ],
      [
        "bar",
        -11.023595169487315
      ],
      [
        "384",
        -11.024004517174102
      ],
      [
        "uer",
        -11.02506444518617
      ],
      [
        "504",
        -11.026571821274095
      ],
      [
        "per",
        -11.029375205937193
      ],
      [
        "kd",
        -11.031673283329095
      ],
      [
        "497",
        -11.032004013910743
      ],
      [
        "464",
        -11.032163125561574
      ],
      [
        "wz",
        -11.032378909655051
      ],
      [
        "2787",
        -11.032955433839653
      ],
      [
        "Bu",
        -11.033321616333145
      ],
      [
        "383",
        -11.033985198938892
      ],
      [
        "356",
        -11.035279733157708
      ],
      [
        "854",
        -11.036832315951388
      ],
      [
        "832",
        -11.037077880231456
      ],
      [
        "eed",
        -11.0376616966875
      ],
      [
        "3Ea",
        -11.037706129777913
      ],
      [
        "434",
        -11.038147308233377
      ],
      [
        "nda",
        -11.038662227142943
      ],
      [
        "oei",
        -11.039928934335348
      ],
      [
        "719",
        -11.04215709931332
      ],
      [
        "447",
        -11.042705383414907
      ],
      [
        "494",
        -11.042709905154117
      ],
      [
        "999",
        -11.043380448295983
      ],
      [
        "pro",
        -11.043521038560971
      ],
      [
        "isa",
        -11.04436330076885
      ],
      [
        "959",
        -11.04539988271928
      ],
      [
        "los",
        -11.046916376756835
      ],
      [
        "382",
        -11.047380544139378
      ],
      [
        "jw",
        -11.04743516129949
      ],
      [
        "784",
        -11.047555873440873
      ],
      [
        "ari",
        -11.047581517130267
      ],
      [
        "639",
        -11.048223414571936
      ],
      [
        "489",
        -11.049576481862392
      ],
      [
        "mO",
        -11.051061582839576
      ],
      [
        "lia",
        -11.05385075890441
      ],
      [
        "708",
        -11.053969815013762
      ],
      [
        "702",
        -11.05501816102375
      ],
      [
        "1253",
        -11.056027591619891
      ],
      [
        "mer",
        -11.056493267857762
      ],
      [
        "tti",
        -11.057535334922333
      ],
      [
        "ist",
        -11.059288462363195
      ],
      [
        "ttt",
        -11.061270317312207
      ],
      [
        "859",
        -11.061377819943623
      ],
      [
        "yv",
        -11.062424448910305
      ],
      [
        "967",
        -11.063370708322374
      ],
      [
        "483",
        -11.065524347378886
      ],
      [
        "352",
        -11.065536315546645
      ],
      [
        "397",
        -11.066718407782986
      ],
      [
        "633",
        -11.069779330021039
      ],
      [
        "439",
        -11.072973179456849
      ],
      [
        "fk",
        -11.075428243104568
      ],
      [
        "Burgo",
        -11.075540692033865
      ],
      [
        "481",
        -11.078025491658721
      ],
      [
        "996",
        -11.078862070042248
      ],
      [
        "las",
        -11.078916295985941
      ],
      [
        "212",
        -11.079549499736835
      ],
      [
        "6909",
        -11.079600226213728
      ],
      [
        "son",
        -11.07960499777194
      ],
      [
        "507",
        -11.081171552060175
      ],
      [
        "rri",
        -11.083858309586676
      ],
      [
        "eoi",
        -11.08510855292178
      ],
      [
        "991",
        -11.086852923758656
      ],
      [
        "vy",
        -11.087620287743892
      ],
      [
        "tro",
        -11.088133194767263
      ],
      [
        "tts",
        -11.088838452153968
      ],
      [
        "nea",
        -11.089188811538822
      ],
      [
        "919",
        -11.091184075928204
      ],
      [
        "ila",
        -11.091274368405433
      ],
      [
        "virt",
        -11.09241722205779
      ],
      [
        "bz",
        -11.093875479019744
      ],
      [
        "997",
        -11.097938265642622
      ],
      [
        "952",
        -11.098286358191906
      ],
      [
        "414",
        -11.098385643233652
      ],
      [
        "att",
        -11.102698170019003
      ],
      [
        "797",
        -11.102809939102418
      ],
      [
        "tnr",
        -11.10564499079064
      ],
      [
        "Sala",
        -11.105695468590262
      ],
      [
        "302",
        -11.10602624914696
      ],
      [
        "734",
        -11.106276403431655
      ],
      [
        "tta",
        -11.106300425106891
      ],
      [
        "739",
        -11.108588870813067
      ],
      [
        "446",
        -11.108644890474046
      ],
      [
        "tnt",
        -11.111420969617207
      ],
      [
        "uO",
        -11.113757104967064
      ],
      [
        "619",
        -11.114310459081377
      ],
      [
        "934",
        -11.114464708154088
      ],
      [
        "sch",
        -11.114564652839832
      ],
      [
        "ias",
        -11.115249726389894
      ],
      [
        "982",
        -11.11694463867469
      ],
      [
        "699",
        -11.121392831421124
      ],
      [
        "aea",
        -11.122734436187129
      ],
      [
        "bob",
        -11.12325309908425
      ],
      [
        "oeo",
        -11.124549017069048
      ],
      [
        "bk",
        -11.126587632581568
      ],
      [
        "3exec",
        -11.129187178354314
      ],
      [
        "963",
        -11.130557723639875
      ],
      [
        "684",
        -11.132843581115466
      ],
      [
        "yk",
        -11.13434593406417
      ],
      [
        "EXEC",
        -11.134369734183057
      ],
      [
        "fO",
        -11.134441171282742
      ],
      [
        "482",
        -11.134930262764883
      ],
      [
        "769",
        -11.135659944072975
      ],
      [
        "764",
        -11.136890414759854
      ],
      [
        "979",
        -11.1371465473825
      ],
      [
        "sei",
        -11.138435492204753
      ],
      [
        "419",
        -11.139105714163332
      ],
      [
        "316",
        -11.139303490342364
      ],
      [
        "657",
        -11.139438327947564
      ],
      [
        "ato",
        -11.139876385119939
      ],
      [
        "ies",
        -11.140850571384608
      ],
      [
        "teh",
        -11.141022086306094
      ],
      [
        "767",
        -11.14139275014557
      ],
      [
        "03063",
        -11.142227159002202
      ],
      [
        "63290",
        -11.142445362986525
      ],
      [
        "412",
        -11.145011206008814
      ],
      [
        "899",
        -11.146437733013382
      ],
      [
        "802",
        -11.146770639547164
      ],
      [
        "ios",
        -11.147710261293792
      ],
      [
        "637",
        -11.147843841520842
      ],
      [
        "zz",
        -11.150243222601805
      ],
      [
        "zb",
        -11.15299297680935
      ],
      [
        "644",
        -11.153234570454487
      ],
      [
        "vw",
        -11.153578338814004
      ],
      [
        "799",
        -11.15501635707563
      ],
      [
        "jb",
        -11.156259128638375
      ],
      [
        "manca",
        -11.15987892033959
      ],
      [
        "chi",
        -11.16248555854708
      ],
      [
        "319",
        -11.16249584358168
      ],
      [
        "993",
        -11.162927616052997
      ],
      [
        "pre",
        -11.166921069476789
      ],
      [
        "89730",
        -11.168077252161265
      ],
      [
        "aga",
        -11.168735340268189
      ],
      [
        "itt",
        -11.170533974484446
      ],
      [
        "zy",
        -11.172596568815
      ],
      [
        "714",
        -11.173904492009054
      ],
      [
        "477",
        -11.175211841743199
      ],
      [
        "arcelona",
        -11.17688164553432
      ],
      [
        "717",
        -11.17783449233559
      ],
      [
        "tnn",
        -11.178533953470977
      ],
      [
        "vf",
        -11.181974014549905
      ],
      [
        "267",
        -11.182162248369465
      ],
      [
        "yj",
        -11.183032617357313
      ],
      [
        "612",
        -11.184866625884126
      ],
      [
        "86136",
        -11.185054364007318
      ],
      [
        "602",
        -11.187522087056438
      ],
      [
        "746",
        -11.188839693469598
      ],
      [
        "wj",
        -11.190810196335995
      ],
      [
        "666",
        -11.191223276532131
      ],
      [
        "tia",
        -11.191653000760427
      ],
      [
        "tis",
        -11.193186650075358
      ],
      [
        "756",
        -11.194369959356322
      ],
      [
        "416",
        -11.195552460155461
      ],
      [
        "732",
        -11.196080048076817
      ],
      [
        "wk",
        -11.198053161708886
      ],
      [
        "792",
        -11.199759930001697
      ],
      [
        "747",
        -11.199871203472803
      ],
      [
        "bj",
        -11.204212406307452
      ],
      [
        "647",
        -11.206823183875414
      ],
      [
        "iro",
        -11.207023360645028
      ],
      [
        "669",
        -11.207096319912367
      ],
      [
        "646",
        -11.208382543986328
      ],
      [
        "986",
        -11.20839406673101
      ],
      [
        "fj",
        -11.210610953626475
      ],
      [
        "701",
        -11.211074254482387
      ],
      [
        "38D",
        -11.212062651015252
      ],
      [
        "332",
        -11.212762191373507
      ],
      [
        "tit",
        -11.213165543305706
      ],
      [
        "752",
        -11.218733916802288
      ],
      [
        "467",
        -11.226820322533626
      ],
      [
        "998",
        -11.226879314907826
      ],
      [
        "933",
        -11.2280461643225
      ],
      [
        "iti",
        -11.22841205982934
      ],
      [
        "yz",
        -11.23160825686777
      ],
      [
        "bri",
        -11.23261859767954
      ],
      [
        "dia",
        -11.234143387530905
      ],
      [
        "444",
        -11.236190581827948
      ],
      [
        "716",
        -11.236755763209214
      ],
      [
        "992",
        -11.237629255335946
      ],
      [
        "3CSCR",
        -11.240934557645677
      ],
      [
        "back",
        -11.24144985165696
      ],
      [
        "ella",
        -11.244219535856377
      ],
      [
        "2567",
        -11.249972523000384
      ],
      [
        "DCB",
        -11.25454944238788
      ],
      [
        "toa",
        -11.254788919910858
      ],
      [
        "aba",
        -11.256389820414942
      ],
      [
        "796",
        -11.257117408774436
      ],
      [
        "452",
        -11.263716433794123
      ],
      [
        "667",
        -11.26426161883309
      ],
      [
        "gra",
        -11.264506366805264
      ],
      [
        "cas",
        -11.265448760186068
      ],
      [
        "lea",
        -11.265685960703184
      ],
      [
        "916",
        -11.265970815930684
      ],
      [
        "sat",
        -11.268195722334909
      ],
      [
        "BCD",
        -11.268288357695436
      ],
      [
        "fz",
        -11.270175676549663
      ],
      [
        "2568",
        -11.271079888799605
      ],
      [
        "file",
        -11.271128911348963
      ],
      [
        "8AD",
        -11.271245261909268
      ],
      [
        "432",
        -11.272628186824418
      ],
      [
        "Bar",
        -11.273632574989705
      ],
      [
        "jy",
        -11.27718072577919
      ],
      [
        "sess",
        -11.278975247980249
      ],
      [
        "776",
        -11.280277177130376
      ],
      [
        "tns",
        -11.280901418469004
      ],
      [
        "2564",
        -11.28706372443062
      ],
      [
        "fv",
        -11.287253739080002
      ],
      [
        "jf",
        -11.288378270193302
      ],
      [
        "487",
        -11.291827781843388
      ],
      [
        "656",
        -11.292771897010375
      ],
      [
        "ura",
        -11.293463753071979
      ],
      [
        "912",
        -11.2937352369454
      ],
      [
        "spa",
        -11.294563967815623
      ],
      [
        "dra",
        -11.297014890594598
      ],
      [
        "tri",
        -11.300314298586786
      ],
      [
        "ill",
        -11.304402945645663
      ],
      [
        "652",
        -11.307118453525788
      ],
      [
        "vila",
        -11.307253450975889
      ],
      [
        "616",
        -11.31088982677661
      ],
      [
        "arm",
        -11.312506836598669
      ],
      [
        "roxy",
        -11.312983309107667
      ],
      [
        "777",
        -11.313505554531094
      ],
      [
        "DAA",
        -11.316969223000761
      ],
      [
        "AAD",
        -11.318227231020515
      ],
      [
        "2Fscr",
        -11.323225701057101
      ],
      [
        "252B",
        -11.323401723738538
      ],
      [
        "914",
        -11.323851487500347
      ],
      [
        "417",
        -11.324829978648758
      ],
      [
        "76235",
        -11.33083231690113
      ],
      [
        "57652",
        -11.340778710535151
      ],
      [
        "../..%",
        -11.34102382597449
      ],
      [
        "55672",
        -11.34108272804605
      ],
      [
        "uet",
        -11.347913714187532
      ],
      [
        "D9D",
        -11.353643803668074
      ],
      [
        "trt",
        -11.353792460054944
      ],
      [
        "692",
        -11.356930719807636
      ],
      [
        "tni",
        -11.359272874952172
      ],
      [
        "BCB",
        -11.362949918373417
      ],
      [
        "Ber",
        -11.364261165977172
      ],
      [
        "F0B",
        -11.368437337010489
      ],
      [
        "B7B",
        -11.369359897445705
      ],
      [
        "Santa",
        -11.369805696401588
      ],
      [
        "avi",
        -11.370079268714873
      ],
      [
        "Sant",
        -11.380311161697659
      ],
      [
        "ley",
        -11.383054991261263
      ],
      [
        "744",
        -11.389905004538548
      ],
      [
        "WINNT",
        -11.394347143675038
      ],
      [
        "634",
        -11.3949679892511
      ],
      [
        "web",
        -11.397493463236149
      ],
      [
        "F7D",
        -11.399797783550724
      ],
      [
        "D57",
        -11.400759170622468
      ],
      [
        "example",
        -11.404956080608049
      ],
      [
        "D59",
        -11.406231702444442
      ],
      [
        "Giron",
        -11.406277274863061
      ],
      [
        "6B4",
        -11.407956740446723
      ],
      [
        "D07",
        -11.411056100539746
      ],
      [
        "9AD",
        -11.412163434675751
      ],
      [
        "ooo",
        -11.41358912706251
      ],
      [
        "F1D",
        -11.417511531804344
      ],
      [
        "mat",
        -11.420850220701471
      ],
      [
        "6AD",
        -11.42188762360233
      ],
      [
        "51F",
        -11.424595915096118
      ],
      [
        "11F",
        -11.425256139565215
      ],
      [
        "BED",
        -11.42596386595753
      ],
      [
        "D1D",
        -11.426194394779804
      ],
      [
        "6CB",
        -11.427043543113072
      ],
      [
        "rnr",
        -11.4287223665132
      ],
      [
        "D8B",
        -11.428750295194062
      ],
      [
        "eruel",
        -11.432859842943511
      ],
      [
        "DCD",
        -11.436512682971397
      ],
      [
        "ure",
        -11.437618032546858
      ],
      [
        "D04",
        -11.437903662047042
      ],
      [
        "ador",
        -11.440030827463374
      ],
      [
        "DAD",
        -11.4444764287328
      ],
      [
        "BFF",
        -11.449017603919195
      ],
      [
        "253CSCR",
        -11.451554728029949
      ],
      [
        "F58",
        -11.45246292380358
      ],
      [
        "B0B",
        -11.4532452995849
      ],
      [
        "6CD",
        -11.4553705894459
      ],
      [
        "B5F",
        -11.455808883214864
      ],
      [
        "D89",
        -11.457626837892324
      ],
      [
        "DC9",
        -11.460367015725874
      ],
      [
        "BAD",
        -11.462742722747752
      ],
      [
        "aragoza",
        -11.46308126590019
      ],
      [
        "41F",
        -11.467862819820802
      ],
      [
        "4C7",
        -11.469577542322531
      ],
      [
        "6A9",
        -11.47307304159552
      ],
      [
        "B4F",
        -11.47412761526157
      ],
      [
        "Mont",
        -11.474710319049473
      ],
      [
        "FCD",
        -11.475424235054652
      ],
      [
        "BEF",
        -11.47627150935121
      ],
      [
        "7A4",
        -11.476715670524683
      ],
      [
        "F0D",
        -11.477778028525126
      ],
      [
        "DA4",
        -11.478227432067818
      ],
      [
        "6A7",
        -11.482520016086939
      ],
      [
        "F7F",
        -11.48408590409033
      ],
      [
        "arra",
        -11.484292878238097
      ],
      [
        "D5F",
        -11.484461476191516
      ],
      [
        "DAB",
        -11.486105665043539
      ],
      [
        "FBD",
        -11.487720980070227
      ],
      [
        "F0F",
        -11.492005769474163
      ],
      [
        "B7F",
        -11.496498342579383
      ],
      [
        "31D",
        -11.499144479787397
      ],
      [
        "UNION",
        -11.49922884648539
      ],
      [
        "91F",
        -11.501666193222404
      ],
      [
        "70D",
        -11.505652261232331
      ],
      [
        "DC6",
        -11.50856285877083
      ],
      [
        "2AD",
        -11.509117953865815
      ],
      [
        "27br",
        -11.510222235675542
      ],
      [
        "alencia",
        -11.510788951860565
      ],
      [
        "display",
        -11.511574525717332
      ],
      [
        "7AD",
        -11.512229014992442
      ],
      [
        "BCF",
        -11.514722006984872
      ],
      [
        "81F",
        -11.516440253879752
      ],
      [
        "ares",
        -11.519240088935566
      ],
      [
        "BFB",
        -11.519522544702973
      ],
      [
        "7A6",
        -11.532290013789599
      ],
      [
        "D54",
        -11.536236908367776
      ],
      [
        "D9B",
        -11.536362471848262
      ],
      [
        "6A4",
        -11.537595699927977
      ],
      [
        "98D",
        -11.537932662476686
      ],
      [
        "6C7",
        -11.538995818090534
      ],
      [
        "DA9",
        -11.545036581673715
      ],
      [
        "Old",
        -11.545977153162069
      ],
      [
        "7AB",
        -11.546039371259676
      ],
      [
        "F1F",
        -11.547987417195243
      ],
      [
        "////////////////",
        -11.549553265761066
      ],
      [
        "Valencia",
        -11.550372902388716
      ],
      [
        "Torre",
        -11.550597626726246
      ],
      [
        "F5F",
        -11.551845695820456
      ],
      [
        "F87",
        -11.556836981980329
      ],
      [
        "B52",
        -11.559349960286237
      ],
      [
        "B4B",
        -11.561312946160132
      ],
      [
        "B57",
        -11.562756000089426
      ],
      [
        "tnl",
        -11.563640397443006
      ],
      [
        "iana",
        -11.564426920689172
      ],
      [
        "F4F",
        -11.565710175481808
      ],
      [
        "F54",
        -11.570491441044268
      ],
      [
        "F86",
        -11.571345860306256
      ],
      [
        "F4B",
        -11.573528960742077
      ],
      [
        "F5B",
        -11.578981486434436
      ],
      [
        "60D",
        -11.579215336598299
      ],
      [
        "BBB",
        -11.583501513113676
      ],
      [
        "DEB",
        -11.583652823110597
      ],
      [
        "D32",
        -11.584885065688486
      ],
      [
        "B54",
        -11.588253332173128
      ],
      [
        "4CD",
        -11.588626189951025
      ],
      [
        "Madrid",
        -11.589031735017329
      ],
      [
        "6AB",
        -11.592311918277304
      ],
      [
        "F07",
        -11.593216003424256
      ],
      [
        "DC7",
        -11.596086590564445
      ],
      [
        "B9B",
        -11.604272650220274
      ],
      [
        "FAF",
        -11.605589574451113
      ],
      [
        "9CB",
        -11.606347542485548
      ],
      [
        "eros",
        -11.608420782494484
      ],
      [
        "BEB",
        -11.608911419012632
      ],
      [
        "DA7",
        -11.610592164011532
      ],
      [
        "4C6",
        -11.61480329028605
      ],
      [
        "Guadalajara",
        -11.616243650468721
      ],
      [
        "FE7",
        -11.616517755413623
      ],
      [
        "Name",
        -11.616770058354177
      ],
      [
        "6C6",
        -11.62411112065394
      ],
      [
        "BE6",
        -11.628636424815976
      ],
      [
        "2EB",
        -11.629948489552781
      ],
      [
        "FBF",
        -11.630887577586831
      ],
      [
        "Camp",
        -11.633012150286003
      ],
      [
        "DBB",
        -11.64209847912138
      ],
      [
        "2A6",
        -11.64217998839517
      ],
      [
        "DA6",
        -11.643451271664542
      ],
      [
        "bert",
        -11.647846958785351
      ],
      [
        "F52",
        -11.650270605632784
      ],
      [
        "FCF",
        -11.655043113378873
      ],
      [
        "F06",
        -11.66420810112214
      ],
      [
        "F8B",
        -11.674494315311208
      ],
      [
        "F1B",
        -11.680249296460836
      ],
      [
        "D52",
        -11.683529396328474
      ],
      [
        "aria",
        -11.687203676896837
      ],
      [
        "D0B",
        -11.68926496310913
      ],
      [
        "guer",
        -11.693505565009108
      ],
      [
        "BAB",
        -11.702507056781318
      ],
      [
        "Navarr",
        -11.702662285772611
      ],
      [
        "Soria",
        -11.702704205114589
      ],
      [
        "ceres",
        -11.703368975450973
      ],
      [
        "DEF",
        -11.70374754504847
      ],
      [
        "ovia",
        -11.705083184018596
      ],
      [
        "mont",
        -11.741080862659443
      ],
      [
        "FEB",
        -11.783647983649804
      ],
      [
        "Tarragon",
        -11.797183617926837
      ],
      [
        "ubi",
        -11.805621836033556
      ],
      [
        "hacker",
        -11.848041488223968
      ],
      [
        "Vallad",
        -11.848242385627172
      ],
      [
        "28cn",
        -11.848921977927345
      ],
      [
        ">\\\\\\",
        -11.90162592022579
      ],
      [
        "USER",
        -11.901692138820273
      ],
      [
        "getfi",
        -11.921794026094837
      ],
      [
        "eRoo",
        -11.925794233211597
      ],
      [
        "u002",
        -11.960524529558203
      ],
      [
        "DELETE",
        -11.977850114465616
      ],
      [
        "/../../../",
        -11.999893402518143
      ],
      [
        "\\\\.\\.\\\\/\\.\\\\.\\/",
        -12.039089962307138
      ],
      [
        "database",
        -12.039089969124948
      ],
      [
        "archivo",
        -12.039089996491986
      ],
      [
        "..\\\\..\\\\..\\\\",
        -12.085080070241148
      ],
      [
        "secret",
        -12.104337820390452
      ],
      [
        "Alicant",
        -12.127055685627466
      ],
      [
        "Cantabri",
        -12.150311066623585
      ],
      [
        "Granad",
        -12.174334564546026
      ],
      [
        "TABLE",
        -12.249212686231541
      ],
      [
        "_vti_",
        -12.275467602509586
      ],
      [
        "customer_",
        -12.330272385025207
      ],
      [
        "iudad",
        -12.357239120781703
      ],
      [
        "Inetpub",
        -12.358843815132886
      ],
      [
        "Castell",
        -12.358849448130867
      ],
      [
        "40hiper",
        -12.549883353091195
      ],
      [
        "Traves",
        -12.549883737520899
      ],
      [
        "40ajuntament",
        -12.58559705078586
      ],
      [
        "#",
        -12.62263408782289
      ],
      [
        "..\\\\..\\\\..\\\\..\\\\",
        -12.657569310486306
      ],
      [
        "Francis",
        -12.6610956407041
      ],
      [
        "............",
        -12.701095626284529
      ],
      [
        "rofessional",
        -12.831702617068057
      ],
      [
        "\\",
        -13.096312417609367
      ],
      [
        "40sanchez",
        -13.15882481083241
      ],
      [
        "40automoviles",
        -13.225491477475632
      ],
      [
        "40intercambio",
        -13.457176459160777
      ],
      [
        "40velazquezlarra",
        -13.75919666118449
      ],
      [
        "`",
        -14.193720470757366
      ],
      [
        "}",
        -14.393620470757368
      ],
      [
        "!",
        -14.393720470757367
      ],
      [
        "{",
        -14.393720470757367
      ]
    ],
    "byte_fallback": false
  }
}