{
  "[PAD]": 0,
  "[UNK]": 1,
  "[CLS]": 2,
  "[SEP]": 3,
  "[MASK]": 4,
  "<END>": 5,
  "<ID_LONG>": 6,
  "<NULL>": 7,
  "<NUM_LONG>": 8,
  "<REC>": 9,
  "<SEP>": 10,
  "=": 11,
  "a": 12,
  "t": 13,
  "e": 14,
  "i": 15,
  "c": 16,
  "n": 17,
  "s": 18,
  "o": 19,
  "l": 20,
  "r": 21,
  "-": 22,
  "u": 23,
  "at": 24,
  "d": 25,
  "ta": 26,
  "it": 27,
  "al": 28,
  "N": 29,
  "ca": 30,
  "p": 31,
  "ti": 32,
  "ati": 33,
  "ed": 34,
  "g": 35,
  "m": 36,
  "te": 37,
  "0": 38,
  "L": 39,
  "O": 40,
  "v": 41,
  "tal": 42,
  "on": 43,
  "atio": 44,
  "ation": 45,
  "tio": 46,
  "tion": 47,
  "io": 48,
  "ion": 49,
  "ita": 50,
  "ital": 51,
  "<": 52,
  ">": 53,
  "ri": 54,
  "G": 55,
  "_": 56,
  "_L": 57,
  "_LO": 58,
  "_LON": 59,
  "_LONG": 60,
  "_LONG>": 61,
  "LO": 62,
  "LON": 63,
  "LONG": 64,
  "LONG>": 65,
  "ON": 66,
  "ONG": 67,
  "ONG>": 68,
  "NG": 69,
  "NG>": 70,
  "G>": 71,
  "iv": 72,
  "w": 73,
  "D": 74,
  "M": 75,
  "ss": 76,
  "I": 77,
  "pi": 78,
  "ap": 79,
  "du": 80,
  "edu": 81,
  "educ": 82,
  "educa": 83,
  "educat": 84,
  "educati": 85,
  "educatio": 86,
  "education": 87,
  "duc": 88,
  "duca": 89,
  "ducat": 90,
  "ducati": 91,
  "ducatio": 92,
  "ducation": 93,
  "uc": 94,
  "uca": 95,
  "ucat": 96,
  "ucati": 97,
  "ucatio": 98,
  "ucation": 99,
  "cat": 100,
  "cati": 101,
  "catio": 102,
  "cation": 103,
  "<I": 104,
  "<ID": 105,
  "<ID_": 106,
  "<ID_L": 107,
  "<ID_LO": 108,
  "<ID_LON": 109,
  "<ID_LONG": 110,
  "ID": 111,
  "ID_": 112,
  "ID_L": 113,
  "ID_LO": 114,
  "ID_LON": 115,
  "ID_LONG": 116,
  "ID_LONG>": 117,
  "D_": 118,
  "D_L": 119,
  "D_LO": 120,
  "D_LON": 121,
  "D_LONG": 122,
  "D_LONG>": 123,
  "cap": 124,
  "capi": 125,
  "capit": 126,
  "capita": 127,
  "capital": 128,
  "api": 129,
  "apit": 130,
  "apita": 131,
  "apital": 132,
  "pit": 133,
  "pita": 134,
  "pital": 135,
  "-c": 136,
  "ar": 137,
  "U": 138,
  "tat": 139,
  "ma": 140,
  "us": 141,
  "-s": 142,
  "ite": 143,
  "S": 144,
  "f": 145,
  "ate": 146,
  "h": 147,
  "se": 148,
  "in": 149,
  "ra": 150,
  "le": 151,
  "ou": 152,
  "n-": 153,
  "mar": 154,
  "or": 155,
  "y": 156,
  "ac": 157,
  "ve": 158,
  "d-": 159,
  "ed-": 160,
  "e-": 161,
  "ge": 162,
  "Ma": 163,
  "co": 164,
  "ce": 165,
  "ll": 166,
  "e-c": 167,
  "e-co": 168,
  "-co": 169,
  "oc": 170,
  "1": 171,
  "la": 172,
  "lo": 173,
  "pa": 174,
  "cl": 175,
  "x": 176,
  "na": 177,
  "ai": 178,
  "ag": 179,
  "age": 180,
  "hi": 181,
  "ale": 182,
  "k": 183,
  "l-": 184,
  "al-": 185,
  "-n": 186,
  "st": 187,
  "as": 188,
  "tiv": 189,
  "tive": 190,
  "ive": 191,
  "er": 192,
  "ativ": 193,
  "ative": 194,
  "up": 195,
  "tive-": 196,
  "ive-": 197,
  "ve-": 198,
  "ex": 199,
  "nt": 200,
  "es": 201,
  "ga": 202,
  "um": 203,
  "tu": 204,
  "cu": 205,
  "os": 206,
  "un": 207,
  "ry": 208,
  "2": 209,
  "Un": 210,
  "wo": 211,
  "wor": 212,
  "work": 213,
  "ork": 214,
  "rk": 215,
  "workc": 216,
  "workcl": 217,
  "workcla": 218,
  "workclas": 219,
  "workclass": 220,
  "orkc": 221,
  "orkcl": 222,
  "orkcla": 223,
  "orkclas": 224,
  "orkclass": 225,
  "rkc": 226,
  "rkcl": 227,
  "rkcla": 228,
  "rkclas": 229,
  "rkclass": 230,
  "kc": 231,
  "kcl": 232,
  "kcla": 233,
  "kclas": 234,
  "kclass": 235,
  "cla": 236,
  "clas": 237,
  "class": 238,
  "las": 239,
  "lass": 240,
  "ass": 241,
  "fn": 242,
  "fnl": 243,
  "fnlw": 244,
  "fnlwg": 245,
  "fnlwgt": 246,
  "nl": 247,
  "nlw": 248,
  "nlwg": 249,
  "nlwgt": 250,
  "lw": 251,
  "lwg": 252,
  "lwgt": 253,
  "wg": 254,
  "wgt": 255,
  "gt": 256,
  ".": 257,
  ".0": 258,
  "education-": 259,
  "education-n": 260,
  "education-nu": 261,
  "education-num": 262,
  "ducation-": 263,
  "ducation-n": 264,
  "ducation-nu": 265,
  "ducation-num": 266,
  "ucation-": 267,
  "ucation-n": 268,
  "ucation-nu": 269,
  "ucation-num": 270,
  "cation-": 271,
  "cation-n": 272,
  "cation-nu": 273,
  "cation-num": 274,
  "ation-": 275,
  "ation-n": 276,
  "ation-nu": 277,
  "ation-num": 278,
  "tion-": 279,
  "tion-n": 280,
  "tion-nu": 281,
  "tion-num": 282,
  "ion-": 283,
  "ion-n": 284,
  "ion-nu": 285,
  "ion-num": 286,
  "on-": 287,
  "on-n": 288,
  "on-nu": 289,
  "on-num": 290,
  "n-n": 291,
  "n-nu": 292,
  "n-num": 293,
  "-nu": 294,
  "-num": 295,
  "nu": 296,
  "num": 297,
  "mari": 298,
  "marit": 299,
  "marita": 300,
  "marital": 301,
  "marital-": 302,
  "marital-s": 303,
  "marital-st": 304,
  "marital-sta": 305,
  "marital-stat": 306,
  "marital-statu": 307,
  "marital-status": 308,
  "ari": 309,
  "arit": 310,
  "arita": 311,
  "arital": 312,
  "arital-": 313,
  "arital-s": 314,
  "arital-st": 315,
  "arital-sta": 316,
  "arital-stat": 317,
  "arital-statu": 318,
  "arital-status": 319,
  "rit": 320,
  "rita": 321,
  "rital": 322,
  "rital-": 323,
  "rital-s": 324,
  "rital-st": 325,
  "rital-sta": 326,
  "rital-stat": 327,
  "rital-statu": 328,
  "rital-status": 329,
  "ital-": 330,
  "ital-s": 331,
  "ital-st": 332,
  "ital-sta": 333,
  "ital-stat": 334,
  "ital-statu": 335,
  "ital-status": 336,
  "tal-": 337,
  "tal-s": 338,
  "tal-st": 339,
  "tal-sta": 340,
  "tal-stat": 341,
  "tal-statu": 342,
  "tal-status": 343,
  "al-s": 344,
  "al-st": 345,
  "al-sta": 346,
  "al-stat": 347,
  "al-statu": 348,
  "al-status": 349,
  "l-s": 350,
  "l-st": 351,
  "l-sta": 352,
  "l-stat": 353,
  "l-statu": 354,
  "l-status": 355,
  "-st": 356,
  "-sta": 357,
  "-stat": 358,
  "-statu": 359,
  "-status": 360,
  "sta": 361,
  "stat": 362,
  "statu": 363,
  "status": 364,
  "tatu": 365,
  "tatus": 366,
  "atu": 367,
  "atus": 368,
  "tus": 369,
  "occ": 370,
  "occu": 371,
  "occup": 372,
  "occupa": 373,
  "occupat": 374,
  "occupati": 375,
  "occupatio": 376,
  "occupation": 377,
  "cc": 378,
  "ccu": 379,
  "ccup": 380,
  "ccupa": 381,
  "ccupat": 382,
  "ccupati": 383,
  "ccupatio": 384,
  "ccupation": 385,
  "cup": 386,
  "cupa": 387,
  "cupat": 388,
  "cupati": 389,
  "cupatio": 390,
  "cupation": 391,
  "upa": 392,
  "upat": 393,
  "upati": 394,
  "upatio": 395,
  "upation": 396,
  "pat": 397,
  "pati": 398,
  "patio": 399,
  "pation": 400,
  "rac": 401,
  "race": 402,
  "ace": 403,
  "sex": 404,
  "capitalg": 405,
  "capitalga": 406,
  "capitalgai": 407,
  "capitalgain": 408,
  "apitalg": 409,
  "apitalga": 410,
  "apitalgai": 411,
  "apitalgain": 412,
  "pitalg": 413,
  "pitalga": 414,
  "pitalgai": 415,
  "pitalgain": 416,
  "italg": 417,
  "italga": 418,
  "italgai": 419,
  "italgain": 420,
  "talg": 421,
  "talga": 422,
  "talgai": 423,
  "talgain": 424,
  "alg": 425,
  "alga": 426,
  "algai": 427,
  "algain": 428,
  "lg": 429,
  "lga": 430,
  "lgai": 431,
  "lgain": 432,
  "gai": 433,
  "gain": 434,
  "ain": 435,
  "capitall": 436,
  "capitallo": 437,
  "capitallos": 438,
  "capitalloss": 439,
  "apitall": 440,
  "apitallo": 441,
  "apitallos": 442,
  "apitalloss": 443,
  "pitall": 444,
  "pitallo": 445,
  "pitallos": 446,
  "pitalloss": 447,
  "itall": 448,
  "itallo": 449,
  "itallos": 450,
  "italloss": 451,
  "tall": 452,
  "tallo": 453,
  "tallos": 454,
  "talloss": 455,
  "all": 456,
  "allo": 457,
  "allos": 458,
  "alloss": 459,
  "llo": 460,
  "llos": 461,
  "lloss": 462,
  "los": 463,
  "loss": 464,
  "oss": 465,
  "nat": 466,
  "nati": 467,
  "nativ": 468,
  "native": 469,
  "native-": 470,
  "native-c": 471,
  "native-co": 472,
  "native-cou": 473,
  "native-coun": 474,
  "native-count": 475,
  "native-countr": 476,
  "native-country": 477,
  "ative-": 478,
  "ative-c": 479,
  "ative-co": 480,
  "ative-cou": 481,
  "ative-coun": 482,
  "ative-count": 483,
  "ative-countr": 484,
  "ative-country": 485,
  "tive-c": 486,
  "tive-co": 487,
  "tive-cou": 488,
  "tive-coun": 489,
  "tive-count": 490,
  "tive-countr": 491,
  "tive-country": 492,
  "ive-c": 493,
  "ive-co": 494,
  "ive-cou": 495,
  "ive-coun": 496,
  "ive-count": 497,
  "ive-countr": 498,
  "ive-country": 499,
  "ve-c": 500,
  "ve-co": 501,
  "ve-cou": 502,
  "ve-coun": 503,
  "ve-count": 504,
  "ve-countr": 505,
  "ve-country": 506,
  "e-cou": 507,
  "e-coun": 508,
  "e-count": 509,
  "e-countr": 510,
  "e-country": 511,
  "-cou": 512,
  "-coun": 513,
  "-count": 514,
  "-countr": 515,
  "-country": 516,
  "cou": 517,
  "coun": 518,
  "count": 519,
  "countr": 520,
  "country": 521,
  "oun": 522,
  "ount": 523,
  "ountr": 524,
  "ountry": 525,
  "unt": 526,
  "untr": 527,
  "untry": 528,
  "ntr": 529,
  "ntry": 530,
  "tr": 531,
  "try": 532,
  "<N": 533,
  "<NU": 534,
  "NU": 535,
  "St": 536,
  "Sta": 537,
  "Stat": 538,
  "State": 539,
  "tate": 540,
  "W": 541,
  "ted": 542,
  "P": 543,
  "ie": 544,
  "arr": 545,
  "arri": 546,
  "arrie": 547,
  "arried": 548,
  "rr": 549,
  "rri": 550,
  "rrie": 551,
  "rried": 552,
  "rie": 553,
  "ried": 554,
  "ied": 555,
  "-S": 556,
  "ni": 557,
  "Uni": 558,
  "Unit": 559,
  "Unite": 560,
  "United": 561,
  "United-": 562,
  "United-S": 563,
  "United-St": 564,
  "United-Sta": 565,
  "United-Stat": 566,
  "United-State": 567,
  "United-States": 568,
  "nit": 569,
  "nite": 570,
  "nited": 571,
  "nited-": 572,
  "nited-S": 573,
  "nited-St": 574,
  "nited-Sta": 575,
  "nited-Stat": 576,
  "nited-State": 577,
  "nited-States": 578,
  "ited": 579,
  "ited-": 580,
  "ited-S": 581,
  "ited-St": 582,
  "ited-Sta": 583,
  "ited-Stat": 584,
  "ited-State": 585,
  "ited-States": 586,
  "ted-": 587,
  "ted-S": 588,
  "ted-St": 589,
  "ted-Sta": 590,
  "ted-Stat": 591,
  "ted-State": 592,
  "ted-States": 593,
  "ed-S": 594,
  "ed-St": 595,
  "ed-Sta": 596,
  "ed-Stat": 597,
  "ed-State": 598,
  "ed-States": 599,
  "d-S": 600,
  "d-St": 601,
  "d-Sta": 602,
  "d-Stat": 603,
  "d-State": 604,
  "d-States": 605,
  "-St": 606,
  "-Sta": 607,
  "-Stat": 608,
  "-State": 609,
  "-States": 610,
  "States": 611,
  "tates": 612,
  "ates": 613,
  "tes": 614,
  "Pr": 615,
  "Wh": 616,
  "Whi": 617,
  "Whit": 618,
  "White": 619,
  "hit": 620,
  "hite": 621,
  "<NUM": 622,
  "<NUM_": 623,
  "<NUM_L": 624,
  "<NUM_LO": 625,
  "<NUM_LON": 626,
  "<NUM_LONG": 627,
  "<NUM_LONG>.": 628,
  "<NUM_LONG>.0": 629,
  "NUM": 630,
  "NUM_": 631,
  "NUM_L": 632,
  "NUM_LO": 633,
  "NUM_LON": 634,
  "NUM_LONG": 635,
  "NUM_LONG>": 636,
  "NUM_LONG>.": 637,
  "NUM_LONG>.0": 638,
  "UM": 639,
  "UM_": 640,
  "UM_L": 641,
  "UM_LO": 642,
  "UM_LON": 643,
  "UM_LONG": 644,
  "UM_LONG>": 645,
  "UM_LONG>.": 646,
  "UM_LONG>.0": 647,
  "M_": 648,
  "M_L": 649,
  "M_LO": 650,
  "M_LON": 651,
  "M_LONG": 652,
  "M_LONG>": 653,
  "M_LONG>.": 654,
  "M_LONG>.0": 655,
  "_LONG>.": 656,
  "_LONG>.0": 657,
  "LONG>.": 658,
  "LONG>.0": 659,
  "ONG>.": 660,
  "ONG>.0": 661,
  "NG>.": 662,
  "NG>.0": 663,
  "G>.": 664,
  "G>.0": 665,
  ">.": 666,
  ">.0": 667,
  "H": 668,
  "an": 669,
  "sp": 670,
  "Pri": 671,
  "Priv": 672,
  "riv": 673,
  "va": 674,
  "Priva": 675,
  "Privat": 676,
  "Private": 677,
  "riva": 678,
  "rivat": 679,
  "rivate": 680,
  "iva": 681,
  "ivat": 682,
  "ivate": 683,
  "vat": 684,
  "vate": 685,
  "Mal": 686,
  "Male": 687,
  "3": 688,
  "-sp": 689,
  "ci": 690,
  "po": 691,
  "spo": 692,
  "t-": 693,
  "-m": 694,
  "nd": 695,
  "and": 696,
  "ous": 697,
  "ouse": 698,
  "use": 699,
  "Mar": 700,
  "Marr": 701,
  "Marri": 702,
  "Marrie": 703,
  "Married": 704,
  "Married-": 705,
  "arried-": 706,
  "rried-": 707,
  "ried-": 708,
  "ied-": 709,
  "-spo": 710,
  "-spou": 711,
  "-spous": 712,
  "-spouse": 713,
  "spou": 714,
  "spous": 715,
  "spouse": 716,
  "pou": 717,
  "pous": 718,
  "pouse": 719,
  "er-": 720,
  "r-": 721,
  "iv-": 722,
  "v-": 723,
  "Married-c": 724,
  "Married-ci": 725,
  "Married-civ": 726,
  "Married-civ-": 727,
  "Married-civ-s": 728,
  "Married-civ-sp": 729,
  "Married-civ-spo": 730,
  "Married-civ-spou": 731,
  "arried-c": 732,
  "arried-ci": 733,
  "arried-civ": 734,
  "arried-civ-": 735,
  "arried-civ-s": 736,
  "arried-civ-sp": 737,
  "arried-civ-spo": 738,
  "arried-civ-spou": 739,
  "arried-civ-spous": 740,
  "rried-c": 741,
  "rried-ci": 742,
  "rried-civ": 743,
  "rried-civ-": 744,
  "rried-civ-s": 745,
  "rried-civ-sp": 746,
  "rried-civ-spo": 747,
  "rried-civ-spou": 748,
  "rried-civ-spous": 749,
  "rried-civ-spouse": 750,
  "ried-c": 751,
  "ried-ci": 752,
  "ried-civ": 753,
  "ried-civ-": 754,
  "ried-civ-s": 755,
  "ried-civ-sp": 756,
  "ried-civ-spo": 757,
  "ried-civ-spou": 758,
  "ried-civ-spous": 759,
  "ried-civ-spouse": 760,
  "ied-c": 761,
  "ied-ci": 762,
  "ied-civ": 763,
  "ied-civ-": 764,
  "ied-civ-s": 765,
  "ied-civ-sp": 766,
  "ied-civ-spo": 767,
  "ied-civ-spou": 768,
  "ied-civ-spous": 769,
  "ied-civ-spouse": 770,
  "ed-c": 771,
  "ed-ci": 772,
  "ed-civ": 773,
  "ed-civ-": 774,
  "ed-civ-s": 775,
  "ed-civ-sp": 776,
  "ed-civ-spo": 777,
  "ed-civ-spou": 778,
  "ed-civ-spous": 779,
  "ed-civ-spouse": 780,
  "d-c": 781,
  "d-ci": 782,
  "d-civ": 783,
  "d-civ-": 784,
  "d-civ-s": 785,
  "d-civ-sp": 786,
  "d-civ-spo": 787,
  "d-civ-spou": 788,
  "d-civ-spous": 789,
  "d-civ-spouse": 790,
  "-ci": 791,
  "-civ": 792,
  "-civ-": 793,
  "-civ-s": 794,
  "-civ-sp": 795,
  "-civ-spo": 796,
  "-civ-spou": 797,
  "-civ-spous": 798,
  "-civ-spouse": 799,
  "civ": 800,
  "civ-": 801,
  "civ-s": 802,
  "civ-sp": 803,
  "civ-spo": 804,
  "civ-spou": 805,
  "civ-spous": 806,
  "civ-spouse": 807,
  "iv-s": 808,
  "iv-sp": 809,
  "iv-spo": 810,
  "iv-spou": 811,
  "iv-spous": 812,
  "iv-spouse": 813,
  "v-s": 814,
  "v-sp": 815,
  "v-spo": 816,
  "v-spou": 817,
  "v-spous": 818,
  "v-spouse": 819,
  "-g": 820,
  "-ma": 821,
  "em": 822,
  "9": 823,
  "marr": 824,
  "marri": 825,
  "marrie": 826,
  "married": 827,
  "ch": 828,
  "b": 829,
  "-i": 830,
  "-in": 831,
  "il": 832,
  "ba": 833,
  "Hu": 834,
  "Hus": 835,
  "Husb": 836,
  "Husba": 837,
  "Husban": 838,
  "Husband": 839,
  "usb": 840,
  "usba": 841,
  "usban": 842,
  "usband": 843,
  "sb": 844,
  "sba": 845,
  "sban": 846,
  "sband": 847,
  "ban": 848,
  "band": 849,
  "F": 850,
  "4": 851,
  "Fe": 852,
  "ot": 853,
  "ot-": 854,
  "ot-i": 855,
  "ot-in": 856,
  "t-i": 857,
  "t-in": 858,
  "ema": 859,
  "emal": 860,
  "mal": 861,
  "ad": 862,
  "Fem": 863,
  "Fema": 864,
  "Femal": 865,
  "Female": 866,
  "emale": 867,
  "male": 868,
  "Ne": 869,
  "Nev": 870,
  "Neve": 871,
  "Never": 872,
  "Never-": 873,
  "ev": 874,
  "eve": 875,
  "ever": 876,
  "ever-": 877,
  "ver": 878,
  "ver-": 879,
  "Never-m": 880,
  "Never-ma": 881,
  "Never-mar": 882,
  "Never-marr": 883,
  "Never-marri": 884,
  "Never-marrie": 885,
  "Never-married": 886,
  "ever-m": 887,
  "ever-ma": 888,
  "ever-mar": 889,
  "ever-marr": 890,
  "ever-marri": 891,
  "ever-marrie": 892,
  "ever-married": 893,
  "ver-m": 894,
  "ver-ma": 895,
  "ver-mar": 896,
  "ver-marr": 897,
  "ver-marri": 898,
  "ver-marrie": 899,
  "ver-married": 900,
  "er-m": 901,
  "er-ma": 902,
  "er-mar": 903,
  "er-marr": 904,
  "er-marri": 905,
  "er-marrie": 906,
  "er-married": 907,
  "r-m": 908,
  "r-ma": 909,
  "r-mar": 910,
  "r-marr": 911,
  "r-marri": 912,
  "r-marrie": 913,
  "r-married": 914,
  "-mar": 915,
  "-marr": 916,
  "-marri": 917,
  "-marrie": 918,
  "-married": 919,
  "HS": 920,
  "HS-": 921,
  "HS-g": 922,
  "HS-gr": 923,
  "HS-gra": 924,
  "HS-grad": 925,
  "S-": 926,
  "S-g": 927,
  "S-gr": 928,
  "S-gra": 929,
  "S-grad": 930,
  "-gr": 931,
  "-gra": 932,
  "-grad": 933,
  "gr": 934,
  "gra": 935,
  "grad": 936,
  "rad": 937,
  "el": 938,
  "he": 939,
  "th": 940,
  "ec": 941,
  "rs": 942,
  "ia": 943,
  "mi": 944,
  "-f": 945,
  "B": 946,
  "10": 947,
  "am": 948,
  "f-": 949,
  "ly": 950,
  "No": 951,
  "Not": 952,
  "Not-": 953,
  "Not-i": 954,
  "Not-in": 955,
  "Not-in-": 956,
  "Not-in-f": 957,
  "Not-in-fa": 958,
  "Not-in-fam": 959,
  "Not-in-fami": 960,
  "Not-in-famil": 961,
  "Not-in-family": 962,
  "ot-in-": 963,
  "ot-in-f": 964,
  "ot-in-fa": 965,
  "ot-in-fam": 966,
  "ot-in-fami": 967,
  "ot-in-famil": 968,
  "ot-in-family": 969,
  "t-in-": 970,
  "t-in-f": 971,
  "t-in-fa": 972,
  "t-in-fam": 973,
  "t-in-fami": 974,
  "t-in-famil": 975,
  "t-in-family": 976,
  "-in-": 977,
  "-in-f": 978,
  "-in-fa": 979,
  "-in-fam": 980,
  "-in-fami": 981,
  "-in-famil": 982,
  "-in-family": 983,
  "in-": 984,
  "in-f": 985,
  "in-fa": 986,
  "in-fam": 987,
  "in-fami": 988,
  "in-famil": 989,
  "in-family": 990,
  "n-f": 991,
  "n-fa": 992,
  "n-fam": 993,
  "n-fami": 994,
  "n-famil": 995,
  "n-family": 996,
  "-fa": 997,
  "-fam": 998,
  "-fami": 999,
  "-famil": 1000,
  "-family": 1001,
  "fa": 1002,
  "fam": 1003,
  "fami": 1004,
  "famil": 1005,
  "family": 1006,
  "ami": 1007,
  "amil": 1008,
  "amily": 1009,
  "mil": 1010,
  "mily": 1011,
  "ily": 1012,
  "ial": 1013,
  "ol": 1014,
  "ic": 1015,
  "eri": 1016,
  "me": 1017,
  "c-": 1018,
  "A": 1019,
  "So": 1020,
  "om": 1021,
  "Som": 1022,
  "Some": 1023
}