{
  "version": "1.0",
  "truncation": null,
  "padding": null,
  "added_tokens": [
    {
      "id": 0,
      "content": "[PAD]",
      "single_word": false,
      "lstrip": false,
      "rstrip": false,
      "normalized": false,
      "special": true
    },
    {
      "id": 1,
      "content": "[UNK]",
      "single_word": false,
      "lstrip": false,
      "rstrip": false,
      "normalized": false,
      "special": true
    },
    {
      "id": 2,
      "content": "[CLS]",
      "single_word": false,
      "lstrip": false,
      "rstrip": false,
      "normalized": false,
      "special": true
    },
    {
      "id": 3,
      "content": "[SEP]",
      "single_word": false,
      "lstrip": false,
      "rstrip": false,
      "normalized": false,
      "special": true
    },
    {
      "id": 4,
      "content": "[MASK]",
      "single_word": false,
      "lstrip": false,
      "rstrip": false,
      "normalized": false,
      "special": true
    }
  ],
  "normalizer": {
    "type": "NFKC"
  },
  "pre_tokenizer": {
    "type": "Whitespace"
  },
  "post_processor": null,
  "decoder": null,
  "model": {
    "type": "WordPiece",
    "unk_token": "[UNK]",
    "continuing_subword_prefix": "##",
    "max_input_chars_per_word": 100,
    "vocab": {
      "[PAD]": 0,
      "[UNK]": 1,
      "[CLS]": 2,
      "[SEP]": 3,
      "[MASK]": 4,
      "0": 5,
      "1": 6,
      "2": 7,
      "3": 8,
      "4": 9,
      "5": 10,
      "6": 11,
      "7": 12,
      "8": 13,
      "9": 14,
      "<": 15,
      "=": 16,
      ">": 17,
      "A": 18,
      "B": 19,
      "C": 20,
      "D": 21,
      "E": 22,
      "F": 23,
      "G": 24,
      "H": 25,
      "I": 26,
      "J": 27,
      "K": 28,
      "L": 29,
      "M": 30,
      "N": 31,
      "O": 32,
      "P": 33,
      "Q": 34,
      "R": 35,
      "S": 36,
      "T": 37,
      "U": 38,
      "V": 39,
      "W": 40,
      "X": 41,
      "Y": 42,
      "Z": 43,
      "_": 44,
      "a": 45,
      "b": 46,
      "c": 47,
      "d": 48,
      "e": 49,
      "f": 50,
      "g": 51,
      "h": 52,
      "i": 53,
      "j": 54,
      "k": 55,
      "l": 56,
      "m": 57,
      "n": 58,
      "o": 59,
      "p": 60,
      "q": 61,
      "r": 62,
      "s": 63,
      "t": 64,
      "u": 65,
      "v": 66,
      "w": 67,
      "x": 68,
      "y": 69,
      "z": 70,
      "##r": 71,
      "##h": 72,
      "##G": 73,
      "##O": 74,
      "##Q": 75,
      "##6": 76,
      "##V": 77,
      "##u": 78,
      "##L": 79,
      "##t": 80,
      "##P": 81,
      "##y": 82,
      "##W": 83,
      "##8": 84,
      "##p": 85,
      "##D": 86,
      "##z": 87,
      "##9": 88,
      "##q": 89,
      "##b": 90,
      "##4": 91,
      "##2": 92,
      "##C": 93,
      "##x": 94,
      "##5": 95,
      "##J": 96,
      "##A": 97,
      "##E": 98,
      "##H": 99,
      "##0": 100,
      "##N": 101,
      "##d": 102,
      "##m": 103,
      "##s": 104,
      "##S": 105,
      "##v": 106,
      "##U": 107,
      "##3": 108,
      "##R": 109,
      "##a": 110,
      "##I": 111,
      "##T": 112,
      "##7": 113,
      "##Y": 114,
      "##f": 115,
      "##K": 116,
      "##F": 117,
      "##l": 118,
      "##c": 119,
      "##g": 120,
      "##w": 121,
      "##k": 122,
      "##B": 123,
      "##o": 124,
      "##1": 125,
      "##n": 126,
      "##M": 127,
      "##Z": 128,
      "##j": 129,
      "##X": 130,
      "##i": 131,
      "##e": 132,
      "##_": 133,
      "##EP": 134,
      "SEP": 135,
      "k1": 136,
      "##gn": 137,
      "##EC": 138,
      "##ND": 139,
      "##si": 140,
      "##al": 141,
      "k5": 142,
      "k2": 143,
      "k4": 144,
      "k6": 145,
      "k9": 146,
      "k8": 147,
      "k3": 148,
      "k0": 149,
      "k7": 150,
      "k16": 151,
      "k12": 152,
      "REC": 153,
      "k14": 154,
      "k13": 155,
      "k17": 156,
      "END": 157,
      "k_": 158,
      "k18": 159,
      "k19": 160,
      "k15": 161,
      "k11": 162,
      "##gnal": 163,
      "##signal": 164,
      "k_signal": 165,
      "S1": 166,
      "##Hn": 167,
      "##77": 168,
      "##1z": 169,
      "##Pc": 170,
      "##bZ": 171,
      "##5R": 172,
      "##YC": 173,
      "##SC": 174,
      "##dG": 175,
      "##mW": 176,
      "##rU": 177,
      "##82": 178,
      "##Np": 179,
      "##6l": 180,
      "##E2": 181,
      "##7i": 182,
      "##aR": 183,
      "##hQ": 184,
      "##XU": 185,
      "##vR": 186,
      "##13": 187,
      "##Ny": 188,
      "##94": 189,
      "##hR": 190,
      "##LW": 191,
      "##53": 192,
      "##Aw": 193,
      "##uf": 194,
      "##gV": 195,
      "##xk": 196,
      "##6q": 197,
      "##di": 198,
      "##dQ": 199,
      "##El": 200,
      "##ae": 201,
      "##oc": 202,
      "##8D": 203,
      "##EM": 204,
      "##zK": 205,
      "##sB": 206,
      "##N2": 207,
      "##dK": 208,
      "##bi": 209,
      "##Nt": 210,
      "##uT": 211,
      "##xJ": 212,
      "##Hf": 213,
      "##Fw": 214,
      "##ut": 215,
      "##9i": 216,
      "##AT": 217,
      "##Nk": 218,
      "##0e": 219,
      "##IV": 220,
      "##7O": 221,
      "##64": 222,
      "##5U": 223,
      "##mO": 224,
      "##sq": 225,
      "##oD": 226,
      "##5q": 227,
      "##5f": 228,
      "##dC": 229,
      "##my": 230,
      "##YL": 231,
      "##gJ": 232,
      "##ue": 233,
      "##E3": 234,
      "##ID": 235,
      "##S3": 236,
      "##At": 237,
      "##0n": 238,
      "##YV": 239,
      "##5B": 240,
      "##dw": 241,
      "##aV": 242,
      "##8M": 243,
      "##o3": 244,
      "##uk": 245,
      "##xC": 246,
      "##vv": 247,
      "##ow": 248,
      "##jT": 249,
      "##bW": 250,
      "##dD": 251,
      "##Gi": 252,
      "##ze": 253,
      "##9V": 254,
      "##xO": 255,
      "##5Z": 256,
      "##r4": 257,
      "##hC": 258,
      "##de": 259,
      "##Pw": 260,
      "##0Z": 261,
      "##hf": 262,
      "##uq": 263,
      "##be": 264,
      "##xV": 265,
      "##ay": 266,
      "##1U": 267,
      "##jD": 268,
      "##rk": 269,
      "##63": 270,
      "##8c": 271,
      "##Hc": 272,
      "##mf": 273,
      "##SD": 274,
      "##6Q": 275,
      "##xT": 276,
      "##xw": 277,
      "##A2": 278,
      "##Nn": 279,
      "##7K": 280,
      "##F2": 281,
      "##Hi": 282,
      "##FC": 283,
      "##oR": 284,
      "##rK": 285,
      "##LZ": 286,
      "##9R": 287,
      "##Nq": 288,
      "##sW": 289,
      "##xK": 290,
      "##EJ": 291,
      "##YQ": 292,
      "##oq": 293,
      "##oZ": 294,
      "##bT": 295,
      "##EO": 296,
      "##NU": 297,
      "##IZ": 298,
      "##Ff": 299,
      "##gR": 300,
      "##j2": 301,
      "##pV": 302,
      "##5k": 303,
      "##02": 304,
      "##0w": 305,
      "##mV": 306,
      "##aq": 307,
      "##Iy": 308,
      "##7k": 309,
      "##g4": 310,
      "##EZ": 311,
      "##H4": 312,
      "##dX": 313,
      "##Ik": 314,
      "##rW": 315,
      "##8Z": 316,
      "##9J": 317,
      "##s4": 318,
      "##7q": 319,
      "##ge": 320,
      "##hV": 321,
      "##Ey": 322,
      "##0W": 323,
      "##mw": 324,
      "##1C": 325,
      "##rc": 326,
      "##6w": 327,
      "##xf": 328,
      "##NW": 329,
      "##mB": 330,
      "##vk": 331,
      "##gQ": 332,
      "##6G": 333,
      "##u3": 334,
      "##AO": 335,
      "##AU": 336,
      "##dT": 337,
      "##sf": 338,
      "##Se": 339,
      "##IU": 340,
      "##oC": 341,
      "##je": 342,
      "##6c": 343,
      "##bD": 344,
      "##Aq": 345,
      "##8J": 346,
      "##AR": 347,
      "##dq": 348,
      "##gU": 349,
      "##oK": 350,
      "##uc": 351,
      "##Pk": 352,
      "##9y": 353,
      "##sX": 354,
      "##FJ": 355,
      "##FK": 356,
      "##jR": 357,
      "##rq": 358,
      "##pU": 359,
      "##bk": 360,
      "##Hq": 361,
      "##mC": 362,
      "##YM": 363,
      "##pB": 364,
      "##bV": 365,
      "##xU": 366,
      "##5M": 367,
      "##NK": 368,
      "##dk": 369,
      "##YW": 370,
      "##oV": 371,
      "##bt": 372,
      "##5i": 373,
      "##A4": 374,
      "##mn": 375,
      "##sG": 376,
      "##oU": 377,
      "##1w": 378,
      "##uV": 379,
      "##Pt": 380,
      "##zT": 381,
      "##5w": 382,
      "##dO": 383,
      "##st": 384,
      "##a3": 385,
      "##af": 386,
      "##FT": 387,
      "##ot": 388,
      "##1l": 389,
      "##jO": 390,
      "##8f": 391,
      "##zl": 392,
      "##9t": 393,
      "##92": 394,
      "##bQ": 395,
      "##Nf": 396,
      "##sU": 397,
      "##1q": 398,
      "##1e": 399,
      "##6f": 400,
      "##pK": 401,
      "##bc": 402,
      "##aQ": 403,
      "##Ye": 404,
      "##FD": 405,
      "##5Q": 406,
      "##EK": 407,
      "##NQ": 408,
      "##mt": 409,
      "##Sn": 410,
      "##vw": 411,
      "##aK": 412,
      "##Iw": 413,
      "##uC": 414,
      "##8k": 415,
      "##9M": 416,
      "##An": 417,
      "##ER": 418,
      "##mZ": 419,
      "##vO": 420,
      "##jn": 421,
      "##hO": 422,
      "##6Z": 423,
      "##AJ": 424,
      "##Ac": 425,
      "##m2": 426,
      "##at": 427,
      "##gi": 428,
      "##re": 429,
      "##xG": 430,
      "##xW": 431,
      "##AZ": 432,
      "##0y": 433,
      "##Nl": 434,
      "##sw": 435,
      "##sM": 436,
      "##Sf": 437,
      "##1B": 438,
      "##rw": 439,
      "##Lf": 440,
      "##8y": 441,
      "##b2": 442,
      "##bK": 443,
      "##xR": 444,
      "##AC": 445,
      "##HZ": 446,
      "##0C": 447,
      "##sR": 448,
      "##IQ": 449,
      "##FB": 450,
      "##1M": 451,
      "##jt": 452,
      "##uU": 453,
      "##bR": 454,
      "##dy": 455,
      "##ml": 456,
      "##mc": 457,
      "##s2": 458,
      "##YU": 459,
      "##gy": 460,
      "##gB": 461,
      "##1Q": 462,
      "##0q": 463,
      "##dl": 464,
      "##It": 465,
      "##YZ": 466,
      "##F4": 467,
      "##g2": 468,
      "##gK": 469,
      "##oW": 470,
      "##uy": 471,
      "##pt": 472,
      "##bO": 473,
      "##xM": 474,
      "##0O": 475,
      "##0R": 476,
      "##Sl": 477,
      "##vB": 478,
      "##I4": 479,
      "##Fq": 480,
      "##jy": 481,
      "##h2": 482,
      "##hM": 483,
      "##py": 484,
      "##pi": 485,
      "##xX": 486,
      "##0i": 487,
      "##NO": 488,
      "##aT": 489,
      "##Il": 490,
      "##Y4": 491,
      "##gT": 492,
      "##6D": 493,
      "##LU": 494,
      "##Pn": 495,
      "##93": 496,
      "##5W": 497,
      "##NT": 498,
      "##mD": 499,
      "##vZ": 500,
      "##7n": 501,
      "##ry": 502,
      "##8n": 503,
      "##zn": 504,
      "##5K": 505,
      "##EG": 506,
      "##E4": 507,
      "##Ee": 508,
      "##HT": 509,
      "##04": 510,
      "##N3": 511,
      "##sK": 512,
      "##vf": 513,
      "##Yw": 514,
      "##gC": 515,
      "##jX": 516,
      "##hB": 517,
      "##Ef": 518,
      "##He": 519,
      "##0M": 520,
      "##NR": 521,
      "##NB": 522,
      "##dJ": 523,
      "##dM": 524,
      "##sk": 525,
      "##SM": 526,
      "##rR": 527,
      "##LV": 528,
      "##Pf": 529,
      "##9e": 530,
      "##bw": 531,
      "##xt": 532,
      "##0T": 533,
      "##vi": 534,
      "##7U": 535,
      "##FR": 536,
      "##gf": 537,
      "##1O": 538,
      "##1D": 539,
      "##hk": 540,
      "##Lk": 541,
      "##84": 542,
      "##zw": 543,
      "##Ai": 544,
      "##HQ": 545,
      "##HD": 546,
      "##Ie": 547,
      "##of": 548,
      "##uw": 549,
      "##9k": 550,
      "##9n": 551,
      "##HO": 552,
      "##HC": 553,
      "##0l": 554,
      "##NJ": 555,
      "##d3": 556,
      "##FG": 557,
      "##g3": 558,
      "##jB": 559,
      "##rl": 560,
      "##hK": 561,
      "##6M": 562,
      "##5c": 563,
      "##0f": 564,
      "##S2": 565,
      "##Ic": 566,
      "##gD": 567,
      "##1K": 568,
      "##uB": 569,
      "##LB": 570,
      "##8W": 571,
      "##9c": 572,
      "##xQ": 573,
      "##5T": 574,
      "##EQ": 575,
      "##0k": 576,
      "##mG": 577,
      "##mT": 578,
      "##se": 579,
      "##72": 580,
      "##ri": 581,
      "##62": 582,
      "##8q": 583,
      "##9B": 584,
      "##b4": 585,
      "##bC": 586,
      "##x2": 587,
      "##ET": 588,
      "##o4": 589,
      "##1c": 590,
      "##h3": 591,
      "##pR": 592,
      "##5V": 593,
      "##52": 594,
      "##Eq": 595,
      "##HJ": 596,
      "##HR": 597,
      "##7T": 598,
      "##FQ": 599,
      "##Fi": 600,
      "##r3": 601,
      "##hn": 602,
      "##Ae": 603,
      "##Ew": 604,
      "##NM": 605,
      "##sO": 606,
      "##SJ": 607,
      "##aO": 608,
      "##ai": 609,
      "##Yy": 610,
      "##Yl": 611,
      "##12": 612,
      "##j3": 613,
      "##rn": 614,
      "##rX": 615,
      "##6k": 616,
      "##bq": 617,
      "##bM": 618,
      "##xl": 619,
      "##5C": 620,
      "##0c": 621,
      "##0B": 622,
      "##d2": 623,
      "##Sq": 624,
      "##a2": 625,
      "##Fk": 626,
      "##gk": 627,
      "##rO": 628,
      "##rQ": 629,
      "##hX": 630,
      "##8O": 631,
      "##zG": 632,
      "##zW": 633,
      "##9Q": 634,
      "##bU": 635,
      "##Ay": 636,
      "##Ec": 637,
      "##IG": 638,
      "##In": 639,
      "##YO": 640,
      "##FW": 641,
      "##o2": 642,
      "##oM": 643,
      "##6W": 644,
      "##bG": 645,
      "##xD": 646,
      "##xn": 647,
      "##EV": 648,
      "##I3": 649,
      "##IM": 650,
      "##rD": 651,
      "##rB": 652,
      "##L3": 653,
      "##xB": 654,
      "##sT": 655,
      "##vD": 656,
      "##aC": 657,
      "##IB": 658,
      "##Ii": 659,
      "##7W": 660,
      "##gG": 661,
      "##jV": 662,
      "##6O": 663,
      "##6t": 664,
      "##6e": 665,
      "##P2": 666,
      "##8G": 667,
      "##zV": 668,
      "##zU": 669,
      "##bf": 670,
      "##xq": 671,
      "##Hk": 672,
      "##vl": 673,
      "##gO": 674,
      "##gZ": 675,
      "##jl": 676,
      "##hU": 677,
      "##6i": 678,
      "##8Q": 679,
      "##zR": 680,
      "##zf": 681,
      "##5e": 682,
      "##0t": 683,
      "##mK": 684,
      "##SK": 685,
      "##an": 686,
      "##7t": 687,
      "##YD": 688,
      "##jc": 689,
      "##jw": 690,
      "##hi": 691,
      "##P4": 692,
      "##8T": 693,
      "##p4": 694,
      "##5D": 695,
      "##dV": 696,
      "##dR": 697,
      "##sQ": 698,
      "##6J": 699,
      "##Pq": 700,
      "##xc": 701,
      "##AM": 702,
      "##dc": 703,
      "##on": 704,
      "##rG": 705,
      "##LK": 706,
      "##Ni": 707,
      "##dt": 708,
      "##mM": 709,
      "##7e": 710,
      "##YK": 711,
      "##rT": 712,
      "##LO": 713,
      "##8C": 714,
      "##sc": 715,
      "##vQ": 716,
      "##If": 717,
      "##gc": 718,
      "##1J": 719,
      "##he": 720,
      "##uQ": 721,
      "##pM": 722,
      "##zX": 723,
      "##AD": 724,
      "##7l": 725,
      "##Yc": 726,
      "##oy": 727,
      "##uD": 728,
      "##9D": 729,
      "##Ek": 730,
      "##S4": 731,
      "##Iq": 732,
      "##YJ": 733,
      "##Y3": 734,
      "##YR": 735,
      "##gt": 736,
      "##gw": 737,
      "##1W": 738,
      "##rC": 739,
      "##hc": 740,
      "##Lt": 741,
      "##Pl": 742,
      "##xi": 743,
      "##mq": 744,
      "##sD": 745,
      "##SW": 746,
      "##ST": 747,
      "##Fc": 748,
      "##1k": 749,
      "##jQ": 750,
      "##6C": 751,
      "##8R": 752,
      "##8i": 753,
      "##xe": 754,
      "##AQ": 755,
      "##Ht": 756,
      "##aU": 757,
      "##gW": 758,
      "##oJ": 759,
      "##1y": 760,
      "##6B": 761,
      "##u4": 762,
      "##uM": 763,
      "##PO": 764,
      "##Py": 765,
      "##zk": 766,
      "##zB": 767,
      "##bJ": 768,
      "##bn": 769,
      "##Ak": 770,
      "##0U": 771,
      "##NV": 772,
      "##s3": 773,
      "##aD": 774,
      "##Yf": 775,
      "##YB": 776,
      "##1G": 777,
      "##hJ": 778,
      "##6U": 779,
      "##ul": 780,
      "##mX": 781,
      "##vX": 782,
      "##IK": 783,
      "##7w": 784,
      "##oe": 785,
      "##1Z": 786,
      "##9U": 787,
      "##A3": 788,
      "##mQ": 789,
      "##mJ": 790,
      "##74": 791,
      "##jJ": 792,
      "##jU": 793,
      "##rJ": 794,
      "##hw": 795,
      "##6T": 796,
      "##PT": 797,
      "##Pi": 798,
      "##p3": 799,
      "##zM": 800,
      "##9X": 801,
      "##HG": 802,
      "##NZ": 803,
      "##aM": 804,
      "##7c": 805,
      "##oX": 806,
      "##jk": 807,
      "##rf": 808,
      "##uW": 809,
      "##b3": 810,
      "##x3": 811,
      "##dW": 812,
      "##m4": 813,
      "##ak": 814,
      "##j4": 815,
      "##ji": 816,
      "##PV": 817,
      "##8V": 818,
      "##5G": 819,
      "##EW": 820,
      "##ac": 821,
      "##7C": 822,
      "##7f": 823,
      "##1n": 824,
      "##uR": 825,
      "##pT": 826,
      "##me": 827,
      "##aW": 828,
      "##jf": 829,
      "##PW": 830,
      "##PJ": 831,
      "##ED": 832,
      "##sC": 833,
      "##SV": 834,
      "##Sy": 835,
      "##vt": 836,
      "##vy": 837,
      "##7V": 838,
      "##14": 839,
      "##hW": 840,
      "##ui": 841,
      "##LR": 842,
      "##LM": 843,
      "##HW": 844,
      "##SU": 845,
      "##vq": 846,
      "##7G": 847,
      "##oB": 848,
      "##6K": 849,
      "##mi": 850,
      "##St": 851,
      "##vC": 852,
      "##hG": 853,
      "##Lc": 854,
      "##PX": 855,
      "##d4": 856,
      "##dB": 857,
      "##SG": 858,
      "##vc": 859,
      "##aw": 860,
      "##Y2": 861,
      "##FV": 862,
      "##gl": 863,
      "##oQ": 864,
      "##8l": 865,
      "##9C": 866,
      "##7J": 867,
      "##Yn": 868,
      "##Yi": 869,
      "##FZ": 870,
      "##jC": 871,
      "##8w": 872,
      "##9O": 873,
      "##9Z": 874,
      "##AK": 875,
      "##HU": 876,
      "##HB": 877,
      "##dZ": 878,
      "##SB": 879,
      "##Yk": 880,
      "##gM": 881,
      "##hy": 882,
      "##uJ": 883,
      "##un": 884,
      "##PD": 885,
      "##z2": 886,
      "##9f": 887,
      "##54": 888,
      "##Hl": 889,
      "##sZ": 890,
      "##7y": 891,
      "##Yt": 892,
      "##Fy": 893,
      "##PK": 894,
      "##pe": 895,
      "##9W": 896,
      "##bB": 897,
      "##H3": 898,
      "##df": 899,
      "##Ft": 900,
      "##F3": 901,
      "##oG": 902,
      "##1R": 903,
      "##1i": 904,
      "##8K": 905,
      "##8B": 906,
      "##pn": 907,
      "##zq": 908,
      "##5X": 909,
      "##oi": 910,
      "##1f": 911,
      "##uZ": 912,
      "##PG": 913,
      "##xy": 914,
      "##Hy": 915,
      "##03": 916,
      "##Ne": 917,
      "##vW": 918,
      "##gX": 919,
      "##6y": 920,
      "##uO": 921,
      "##0Q": 922,
      "##vM": 923,
      "##IW": 924,
      "##oT": 925,
      "##LQ": 926,
      "##PZ": 927,
      "##8t": 928,
      "##AV": 929,
      "##H2": 930,
      "##0K": 931,
      "##SZ": 932,
      "##IT": 933,
      "##L4": 934,
      "##LJ": 935,
      "##pq": 936,
      "##5O": 937,
      "##5l": 938,
      "##Af": 939,
      "##HK": 940,
      "##mk": 941,
      "##Le": 942,
      "##pk": 943,
      "##vU": 944,
      "##aJ": 945,
      "##7M": 946,
      "##rM": 947,
      "##hT": 948,
      "##z3": 949,
      "##Al": 950,
      "##EU": 951,
      "##En": 952,
      "##mU": 953,
      "##Sk": 954,
      "##IR": 955,
      "##7R": 956,
      "##7B": 957,
      "##7Z": 958,
      "##YT": 959,
      "##FO": 960,
      "##ok": 961,
      "##hl": 962,
      "##pO": 963,
      "##pJ": 964,
      "##9K": 965,
      "##Hw": 966,
      "##0V": 967,
      "##NX": 968,
      "##v3": 969,
      "##vK": 970,
      "##73": 971,
      "##jM": 972,
      "##Lq": 973,
      "##Li": 974,
      "##9q": 975,
      "##a4": 976,
      "##I2": 977,
      "##AG": 978,
      "##AB": 979,
      "##0D": 980,
      "##7D": 981,
      "##YX": 982,
      "##LD": 983,
      "##PR": 984,
      "##v4": 985,
      "##Fn": 986,
      "##r2": 987,
      "##h4": 988,
      "##L2": 989,
      "##p2": 990,
      "##u2": 991,
      "##8X": 992,
      "##pQ": 993,
      "##pW": 994,
      "##9w": 995,
      "##jW": 996,
      "##5t": 997,
      "##vV": 998,
      "##hq": 999,
      "##Ll": 1000,
      "##LX": 1001,
      "##pD": 1002,
      "##zt": 1003,
      "##9G": 1004,
      "##by": 1005,
      "##Lw": 1006,
      "##Ln": 1007,
      "##EX": 1008,
      "##N4": 1009,
      "##Nw": 1010,
      "##SR": 1011,
      "##gq": 1012,
      "##xZ": 1013,
      "##SX": 1014,
      "##vT": 1015,
      "##IO": 1016,
      "##1t": 1017,
      "##AX": 1018,
      "##Et": 1019,
      "##SQ": 1020,
      "##Fe": 1021,
      "##jq": 1022,
      "##pf": 1023,
      "##z4": 1024,
      "##hZ": 1025,
      "##83": 1026,
      "##5y": 1027,
      "##5n": 1028,
      "##AW": 1029,
      "##dn": 1030,
      "##ol": 1031,
      "##jG": 1032,
      "##rV": 1033,
      "##pc": 1034,
      "##vG": 1035,
      "##IX": 1036,
      "##zC": 1037,
      "##zJ": 1038,
      "##NC": 1039,
      "##aB": 1040,
      "##Fl": 1041,
      "##jK": 1042,
      "##6n": 1043,
      "##uX": 1044,
      "##m3": 1045,
      "##IC": 1046,
      "##9l": 1047,
      "##bl": 1048,
      "##HX": 1049,
      "##0X": 1050,
      "##Nc": 1051,
      "##sn": 1052,
      "##vJ": 1053,
      "##jZ": 1054,
      "##0G": 1055,
      "##aZ": 1056,
      "##IJ": 1057,
      "##YG": 1058,
      "##6X": 1059,
      "##PC": 1060,
      "##pl": 1061,
      "##Ei": 1062,
      "##uG": 1063,
      "##P3": 1064,
      "##uK": 1065,
      "##PM": 1066,
      "##x4": 1067,
      "##mR": 1068,
      "##sV": 1069,
      "##Yq": 1070,
      "##8e": 1071,
      "##pX": 1072,
      "##HM": 1073,
      "##Sc": 1074,
      "##PB": 1075,
      "##8U": 1076,
      "##FM": 1077,
      "##7Q": 1078,
      "##FU": 1079,
      "##ht": 1080,
      "##PQ": 1081,
      "##sy": 1082,
      "##zZ": 1083,
      "##9T": 1084,
      "##vn": 1085,
      "##FX": 1086,
      "##SO": 1087,
      "##ve": 1088,
      "##7X": 1089,
      "##1X": 1090,
      "##hD": 1091,
      "##zD": 1092,
      "##aG": 1093,
      "##aX": 1094,
      "##6R": 1095,
      "##bX": 1096,
      "##oO": 1097,
      "##zc": 1098,
      "##dU": 1099,
      "##zi": 1100,
      "##HV": 1101,
      "##pG": 1102,
      "##6V": 1103,
      "##EB": 1104,
      "##v2": 1105,
      "##Pe": 1106,
      "##pw": 1107,
      "##Ly": 1108,
      "##5J": 1109,
      "##sl": 1110,
      "##PU": 1111,
      "##rZ": 1112,
      "##LG": 1113,
      "##Sw": 1114,
      "##0J": 1115,
      "##sJ": 1116,
      "##1V": 1117,
      "##pZ": 1118,
      "##zQ": 1119,
      "##1T": 1120,
      "##LT": 1121,
      "##LC": 1122,
      "##Si": 1123,
      "##rt": 1124,
      "##pC": 1125,
      "##zy": 1126,
      "##NG": 1127,
      "##zO": 1128,
      "##Yh": 1129,
      "##oa": 1130,
      "##9A": 1131,
      "##Ih": 1132,
      "##dE": 1133,
      "##am": 1134,
      "##8s": 1135,
      "##Ng": 1136,
      "##66": 1137,
      "##89": 1138,
      "##0z": 1139,
      "##Ir": 1140,
      "##Ns": 1141,
      "##I6": 1142,
      "##jS": 1143,
      "##Lh": 1144,
      "##bz": 1145,
      "##bS": 1146,
      "##mm": 1147,
      "##eC": 1148,
      "##Lu": 1149,
      "##cq": 1150,
      "##gh": 1151,
      "##5p": 1152,
      "##AH": 1153,
      "##jo": 1154,
      "##Yz": 1155,
      "##8H": 1156,
      "##YP": 1157,
      "##gP": 1158,
      "##d6": 1159,
      "##sr": 1160,
      "##Fu": 1161,
      "##xu": 1162,
      "##1p": 1163,
      "##t3": 1164,
      "##aP": 1165,
      "##Fp": 1166,
      "##Ol": 1167,
      "##9u": 1168,
      "##4Z": 1169,
      "##5S": 1170,
      "##1m": 1171,
      "##TU": 1172,
      "##FS": 1173,
      "##DB": 1174,
      "##bu": 1175,
      "##Eu": 1176,
      "##FP": 1177,
      "##AA": 1178,
      "##Yu": 1179,
      "##Fh": 1180,
      "##2k": 1181,
      "##5h": 1182,
      "##NP": 1183,
      "##sH": 1184,
      "##oo": 1185,
      "##57": 1186,
      "##xj": 1187,
      "##07": 1188,
      "##Nv": 1189,
      "##8L": 1190,
      "##5j": 1191,
      "##1S": 1192,
      "##nl": 1193,
      "##ef": 1194,
      "##bp": 1195,
      "##5L": 1196,
      "##8z": 1197,
      "##2K": 1198,
      "##9g": 1199,
      "##4c": 1200,
      "##N6": 1201,
      "##dr": 1202,
      "##Iu": 1203,
      "##bP": 1204,
      "##AS": 1205,
      "##Ij": 1206,
      "##FL": 1207,
      "##1r": 1208,
      "##ew": 1209,
      "##8m": 1210,
      "##5u": 1211,
      "##NH": 1212,
      "##3l": 1213,
      "##RO": 1214,
      "##BC": 1215,
      "##BM": 1216,
      "##Wf": 1217,
      "##9h": 1218,
      "##xz": 1219,
      "##RD": 1220,
      "##nU": 1221,
      "##bE": 1222,
      "##xa": 1223,
      "##YH": 1224,
      "##nJ": 1225,
      "##0h": 1226,
      "##or": 1227,
      "##8j": 1228,
      "##9P": 1229,
      "##9p": 1230,
      "##xr": 1231,
      "##Fm": 1232,
      "##xm": 1233,
      "##5r": 1234,
      "##0P": 1235,
      "##F6": 1236,
      "##kD": 1237,
      "##4w": 1238,
      "##xg": 1239,
      "##sP": 1240,
      "##Kw": 1241,
      "##5z": 1242,
      "##0a": 1243,
      "##NL": 1244,
      "##dm": 1245,
      "##TG": 1246,
      "##Wl": 1247,
      "##8S": 1248,
      "##Nh": 1249,
      "##Ig": 1250,
      "##Fz": 1251,
      "##bH": 1252,
      "##b7": 1253,
      "##vr": 1254,
      "##tM": 1255,
      "##Az": 1256,
      "##0u": 1257,
      "##IP": 1258,
      "##Ia": 1259,
      "##YE": 1260,
      "##Fg": 1261,
      "##oz": 1262,
      "##1u": 1263,
      "##96": 1264,
      "##3G": 1265,
      "##Iz": 1266,
      "##TM": 1267,
      "##OO": 1268,
      "##dP": 1269,
      "##dS": 1270,
      "##vH": 1271,
      "##TC": 1272,
      "##cf": 1273,
      "##tQ": 1274,
      "##tf": 1275,
      "##9H": 1276,
      "##bh": 1277,
      "##va": 1278,
      "##Tq": 1279,
      "##Fa": 1280,
      "##oh": 1281,
      "##oH": 1282,
      "##1P": 1283,
      "##ZC": 1284,
      "##VR": 1285,
      "##dH": 1286,
      "##d7": 1287,
      "##vS": 1288,
      "##1j": 1289,
      "##tq": 1290,
      "##bg": 1291,
      "##NS": 1292,
      "##vm": 1293,
      "##Ip": 1294,
      "##YS": 1295,
      "##1H": 1296,
      "##XC": 1297,
      "##ba": 1298,
      "##4C": 1299,
      "##2U": 1300,
      "##xh": 1301,
      "##AL": 1302,
      "##Fs": 1303,
      "##1h": 1304,
      "##ii": 1305,
      "##2y": 1306,
      "##2q": 1307,
      "##vh": 1308,
      "##Ya": 1309,
      "##cG": 1310,
      "##cU": 1311,
      "##16": 1312,
      "##WM": 1313,
      "##Dl": 1314,
      "##9m": 1315,
      "##x7": 1316,
      "##Y7": 1317,
      "##tw": 1318,
      "##WJ": 1319,
      "##5g": 1320,
      "##Xw": 1321,
      "##WK": 1322,
      "##5H": 1323,
      "##5a": 1324,
      "##Am": 1325,
      "##oE": 1326,
      "##17": 1327,
      "##bs": 1328,
      "##Ap": 1329,
      "##0H": 1330,
      "##N7": 1331,
      "##VJ": 1332,
      "##86": 1333,
      "##DQ": 1334,
      "##xP": 1335,
      "##dh": 1336,
      "##vu": 1337,
      "##BK": 1338,
      "##8p": 1339,
      "##Ah": 1340,
      "##0L": 1341,
      "##Nz": 1342,
      "##vp": 1343,
      "##cK": 1344,
      "##1s": 1345,
      "##5s": 1346,
      "##da": 1347,
      "##cJ": 1348,
      "##dL": 1349,
      "##dp": 1350,
      "##IL": 1351,
      "##Yj": 1352,
      "##FH": 1353,
      "##kM": 1354,
      "##Bf": 1355,
      "##BZ": 1356,
      "##o6": 1357,
      "##o7": 1358,
      "##1g": 1359,
      "##XZ": 1360,
      "##tC": 1361,
      "##9S": 1362,
      "##Ar": 1363,
      "##0g": 1364,
      "##Nr": 1365,
      "##dg": 1366,
      "##cQ": 1367,
      "##kC": 1368,
      "##kU": 1369,
      "##om": 1370,
      "##nq": 1371,
      "##el": 1372,
      "##OM": 1373,
      "##8P": 1374,
      "##4l": 1375,
      "##5E": 1376,
      "##Nm": 1377,
      "##dz": 1378,
      "##cl": 1379,
      "##oP": 1380,
      "##nR": 1381,
      "##X3": 1382,
      "##Xl": 1383,
      "##Xi": 1384,
      "##9E": 1385,
      "##nZ": 1386,
      "##VU": 1387,
      "##8E": 1388,
      "##2w": 1389,
      "##xp": 1390,
      "##xH": 1391,
      "##cC": 1392,
      "##yf": 1393,
      "##bL": 1394,
      "##4Q": 1395,
      "##Nj": 1396,
      "##Im": 1397,
      "##BJ": 1398,
      "##tJ": 1399,
      "##WC": 1400,
      "##DJ": 1401,
      "##2Q": 1402,
      "##56": 1403,
      "##vP": 1404,
      "##XK": 1405,
      "##eR": 1406,
      "##2J": 1407,
      "##0r": 1408,
      "##06": 1409,
      "##0S": 1410,
      "##TO": 1411,
      "##Fj": 1412,
      "##Bl": 1413,
      "##yl": 1414,
      "##bm": 1415,
      "##IE": 1416,
      "##nC": 1417,
      "##nM": 1418,
      "##5P": 1419,
      "##ds": 1420,
      "##vs": 1421,
      "##IS": 1422,
      "##Ys": 1423,
      "##Gw": 1424,
      "##yQ": 1425,
      "##AP": 1426,
      "##Aj": 1427,
      "##Nu": 1428,
      "##br": 1429,
      "##bj": 1430,
      "##3K": 1431,
      "##9j": 1432,
      "##b6": 1433,
      "##Tl": 1434,
      "##oj": 1435,
      "##yw": 1436,
      "##WR": 1437,
      "##TQ": 1438,
      "##Yp": 1439,
      "##FE": 1440,
      "##eQ": 1441,
      "##WQ": 1442,
      "##du": 1443,
      "##v6": 1444,
      "##vj": 1445,
      "##Tf": 1446,
      "##Ym": 1447,
      "##ki": 1448,
      "##1a": 1449,
      "##VC": 1450,
      "##tl": 1451,
      "##Au": 1452,
      "##Aa": 1453,
      "##v7": 1454,
      "##kl": 1455,
      "##oS": 1456,
      "##8h": 1457,
      "##4U": 1458,
      "##vz": 1459,
      "##3f": 1460,
      "##nK": 1461,
      "##kw": 1462,
      "##VM": 1463,
      "##tK": 1464,
      "##WZ": 1465,
      "##A7": 1466,
      "##xL": 1467,
      "##5m": 1468,
      "##Na": 1469,
      "##ou": 1470,
      "##eG": 1471,
      "##eM": 1472,
      "##Vl": 1473,
      "##yC": 1474,
      "##DC": 1475,
      "##4J": 1476,
      "##2C": 1477,
      "##3U": 1478,
      "##eJ": 1479,
      "##Vq": 1480,
      "##VK": 1481,
      "##Ag": 1482,
      "##3Z": 1483,
      "##4K": 1484,
      "##2f": 1485,
      "##oL": 1486,
      "##og": 1487,
      "##iM": 1488,
      "##yJ": 1489,
      "##op": 1490,
      "##Ow": 1491,
      "##Vf": 1492,
      "##yZ": 1493,
      "##8u": 1494,
      "##9s": 1495,
      "##xs": 1496,
      "##vL": 1497,
      "##87": 1498,
      "##0m": 1499,
      "##vE": 1500,
      "##IH": 1501,
      "##iq": 1502,
      "##Y6": 1503,
      "##OC": 1504,
      "##2l": 1505,
      "##Bq": 1506,
      "##os": 1507,
      "##Oq": 1508,
      "##Wq": 1509,
      "##WU": 1510,
      "##4R": 1511,
      "##vg": 1512,
      "##3J": 1513,
      "##cR": 1514,
      "##BQ": 1515,
      "##eq": 1516,
      "##OK": 1517,
      "##DM": 1518,
      "##xS": 1519,
      "##TZ": 1520,
      "##nQ": 1521,
      "##97": 1522,
      "##Yg": 1523,
      "##cM": 1524,
      "##iJ": 1525,
      "##GJ": 1526,
      "##Xf": 1527,
      "##8g": 1528,
      "##0j": 1529,
      "##cw": 1530,
      "##eU": 1531,
      "##tZ": 1532,
      "##xE": 1533,
      "##NE": 1534,
      "##Is": 1535,
      "##yU": 1536,
      "##8r": 1537,
      "##Tw": 1538,
      "##kZ": 1539,
      "##eK": 1540,
      "##DK": 1541,
      "##9L": 1542,
      "##3q": 1543,
      "##nf": 1544,
      "##9r": 1545,
      "##9z": 1546,
      "##0p": 1547,
      "##dj": 1548,
      "##Fr": 1549,
      "##XM": 1550,
      "##yq": 1551,
      "##yM": 1552,
      "##A6": 1553,
      "##Xq": 1554,
      "##1L": 1555,
      "##Bw": 1556,
      "##8a": 1557,
      "##VZ": 1558,
      "##TR": 1559,
      "##XJ": 1560,
      "##As": 1561,
      "##1E": 1562,
      "##eZ": 1563,
      "##DG": 1564,
      "##kJ": 1565,
      "##VQ": 1566,
      "##DU": 1567,
      "##Di": 1568,
      "##kf": 1569,
      "##Ww": 1570,
      "##Dq": 1571,
      "##0E": 1572,
      "##9a": 1573,
      "##I7": 1574,
      "##TJ": 1575,
      "##TK": 1576,
      "##F7": 1577,
      "##BU": 1578,
      "##XQ": 1579,
      "##VG": 1580,
      "##ti": 1581,
      "##WG": 1582,
      "##Yr": 1583,
      "##4q": 1584,
      "##4f": 1585,
      "##4M": 1586,
      "##2G": 1587,
      "##2M": 1588,
      "##kq": 1589,
      "##nw": 1590,
      "##OG": 1591,
      "##OZ": 1592,
      "##tR": 1593,
      "##kG": 1594,
      "##OQ": 1595,
      "##kR": 1596,
      "##kQ": 1597,
      "##BR": 1598,
      "##il": 1599,
      "##tG": 1600,
      "##2R": 1601,
      "##BG": 1602,
      "##nG": 1603,
      "##Vw": 1604,
      "##DR": 1605,
      "##4G": 1606,
      "##tU": 1607,
      "##AE": 1608,
      "##OJ": 1609,
      "##yR": 1610,
      "##0s": 1611,
      "##3R": 1612,
      "##XG": 1613,
      "##x6": 1614,
      "##iZ": 1615,
      "##XR": 1616,
      "##Df": 1617,
      "##DZ": 1618,
      "##cZ": 1619,
      "##kK": 1620,
      "##iw": 1621,
      "##yK": 1622,
      "##3C": 1623,
      "##OU": 1624,
      "##Of": 1625,
      "##iG": 1626,
      "##iK": 1627,
      "##pz": 1628,
      "##3M": 1629,
      "##3Q": 1630,
      "##TW": 1631,
      "##iU": 1632,
      "##LP": 1633,
      "##yG": 1634,
      "##AF": 1635,
      "##ec": 1636,
      "##aS": 1637,
      "##1Y": 1638,
      "##iQ": 1639,
      "##if": 1640,
      "##3w": 1641,
      "##jP": 1642,
      "##Hg": 1643,
      "##iR": 1644,
      "##OR": 1645,
      "##6h": 1646,
      "##VW": 1647,
      "##Dw": 1648,
      "##z7": 1649,
      "##nc": 1650,
      "##iC": 1651,
      "##2Z": 1652,
      "##05": 1653,
      "##1d": 1654,
      "##6u": 1655,
      "##Vc": 1656,
      "##42": 1657,
      "##xF": 1658,
      "##Xy": 1659,
      "##pp": 1660,
      "##Eh": 1661,
      "##Hu": 1662,
      "##Hm": 1663,
      "##BW": 1664,
      "##ru": 1665,
      "##kc": 1666,
      "##rz": 1667,
      "##43": 1668,
      "##dI": 1669,
      "##rs": 1670,
      "##FI": 1671,
      "##V2": 1672,
      "##yc": 1673,
      "##9b": 1674,
      "##Sa": 1675,
      "##jE": 1676,
      "##Tc": 1677,
      "##rL": 1678,
      "##Ve": 1679,
      "##tW": 1680,
      "##85": 1681,
      "##TB": 1682,
      "##Tn": 1683,
      "##XW": 1684,
      "##SS": 1685,
      "##ja": 1686,
      "##rg": 1687,
      "##4O": 1688,
      "##vo": 1689,
      "##7P": 1690,
      "##dY": 1691,
      "##7L": 1692,
      "##k2": 1693,
      "##kn": 1694,
      "##tn": 1695,
      "##qM": 1696,
      "##0o": 1697,
      "##7u": 1698,
      "##t2": 1699,
      "##Hp": 1700,
      "##01": 1701,
      "##UM": 1702,
      "##jg": 1703,
      "##rm": 1704,
      "##6m": 1705,
      "##bb": 1706,
      "##4W": 1707,
      "##Eg": 1708,
      "##eW": 1709,
      "##e3": 1710,
      "##zs": 1711,
      "##VD": 1712,
      "##N5": 1713,
      "##7g": 1714,
      "##Kl": 1715,
      "##Vy": 1716,
      "##e2": 1717,
      "##Em": 1718,
      "##HS": 1719,
      "##XO": 1720,
      "##hL": 1721,
      "##xd": 1722,
      "##eB": 1723,
      "##6P": 1724,
      "##Vn": 1725,
      "##N1": 1726,
      "##rP": 1727,
      "##NY": 1728,
      "##NF": 1729,
      "##Dy": 1730,
      "##Ha": 1731,
      "##OW": 1732,
      "##VB": 1733,
      "##zP": 1734,
      "##bY": 1735,
      "##k3": 1736,
      "##jL": 1737,
      "##88": 1738,
      "##pP": 1739,
      "##HP": 1740,
      "##7h": 1741,
      "##Xn": 1742,
      "##zg": 1743,
      "##fl": 1744,
      "##EL": 1745,
      "##ES": 1746,
      "##0Y": 1747,
      "##TT": 1748,
      "##tc": 1749,
      "##E6": 1750,
      "##vI": 1751,
      "##eO": 1752,
      "##b1": 1753,
      "##Hh": 1754,
      "##A1": 1755,
      "##vF": 1756,
      "##zL": 1757,
      "##Zl": 1758,
      "##ZM": 1759,
      "##ty": 1760,
      "##9Y": 1761,
      "##bF": 1762,
      "##Hs": 1763,
      "##RR": 1764,
      "##kO": 1765,
      "##j6": 1766,
      "##zu": 1767,
      "##zp": 1768,
      "##4B": 1769,
      "##x5": 1770,
      "##d5": 1771,
      "##7s": 1772,
      "##Ql": 1773,
      "##xI": 1774,
      "##xo": 1775,
      "##ag": 1776,
      "##js": 1777,
      "##Vi": 1778,
      "##rh": 1779,
      "##qf": 1780,
      "##4y": 1781,
      "##4D": 1782,
      "##A5": 1783,
      "##Su": 1784,
      "##wM": 1785,
      "##rp": 1786,
      "##b5": 1787,
      "##HL": 1788,
      "##Sm": 1789,
      "##jm": 1790,
      "##VO": 1791,
      "##9o": 1792,
      "##bo": 1793,
      "##JC": 1794,
      "##N8": 1795,
      "##d1": 1796,
      "##ey": 1797,
      "##6s": 1798,
      "##bI": 1799,
      "##JQ": 1800,
      "##No": 1801,
      "##ju": 1802,
      "##X2": 1803,
      "##Xc": 1804,
      "##v8": 1805,
      "##GM": 1806,
      "##x8": 1807,
      "##AI": 1808,
      "##33": 1809,
      "##4i": 1810,
      "##NI": 1811,
      "##do": 1812,
      "##BB": 1813,
      "##jh": 1814,
      "##9I": 1815,
      "##Ul": 1816,
      "##KC": 1817,
      "##Dn": 1818,
      "##Jf": 1819,
      "##0I": 1820,
      "##UR": 1821,
      "##KM": 1822,
      "##QQ": 1823,
      "##dF": 1824,
      "##ah": 1825,
      "##Tt": 1826,
      "##gu": 1827,
      "##zm": 1828,
      "##22": 1829,
      "##Ao": 1830,
      "##as": 1831,
      "##gm": 1832,
      "##6L": 1833,
      "##ap": 1834,
      "##XX": 1835,
      "##A8": 1836,
      "##SP": 1837,
      "##au": 1838,
      "##7m": 1839,
      "##zh": 1840,
      "##95": 1841,
      "##qQ": 1842,
      "##vY": 1843,
      "##Uf": 1844,
      "##GG": 1845,
      "##Dc": 1846,
      "##4n": 1847,
      "##15": 1848,
      "##eT": 1849,
      "##Uw": 1850,
      "##kB": 1851,
      "##qC": 1852,
      "##qZ": 1853,
      "##JM": 1854,
      "##0F": 1855,
      "##UZ": 1856,
      "##pu": 1857,
      "##a6": 1858,
      "##Rl": 1859,
      "##kW": 1860,
      "##XB": 1861,
      "##D3": 1862,
      "##bd": 1863,
      "##V3": 1864,
      "##D2": 1865,
      "##1I": 1866,
      "##QM": 1867,
      "##08": 1868,
      "##rE": 1869,
      "##vA": 1870,
      "##Kf": 1871,
      "##ky": 1872,
      "##rH": 1873,
      "##98": 1874,
      "##4e": 1875,
      "##xY": 1876,
      "##UG": 1877,
      "##iW": 1878,
      "##te": 1879,
      "##v5": 1880,
      "##76": 1881,
      "##tT": 1882,
      "##r6": 1883,
      "##tO": 1884,
      "##ps": 1885,
      "##zE": 1886,
      "##UJ": 1887,
      "##Qf": 1888,
      "##tB": 1889,
      "##N0": 1890,
      "##Sh": 1891,
      "##cB": 1892,
      "##xA": 1893,
      "##nW": 1894,
      "##UC": 1895,
      "##RM": 1896,
      "##7E": 1897,
      "##pm": 1898,
      "##9F": 1899,
      "##qw": 1900,
      "##b8": 1901,
      "##ke": 1902,
      "##pg": 1903,
      "##ny": 1904,
      "##jH": 1905,
      "##DO": 1906,
      "##DW": 1907,
      "##NA": 1908,
      "##sm": 1909,
      "##UQ": 1910,
      "##T3": 1911,
      "##pL": 1912,
      "##Jl": 1913,
      "##sh": 1914,
      "##Rw": 1915,
      "##ql": 1916,
      "##Gl": 1917,
      "##uu": 1918,
      "##SL": 1919,
      "##v1": 1920,
      "##Ty": 1921,
      "##Y8": 1922,
      "##ra": 1923,
      "##x1": 1924,
      "##KQ": 1925,
      "##PP": 1926,
      "##9d": 1927,
      "##vd": 1928,
      "##RC": 1929,
      "##iy": 1930,
      "##r7": 1931,
      "##Kq": 1932,
      "##cO": 1933,
      "##ee": 1934,
      "##xb": 1935,
      "##fM": 1936,
      "##kV": 1937,
      "##T2": 1938,
      "##wC": 1939,
      "##z6": 1940,
      "##Nb": 1941,
      "##KZ": 1942,
      "##ph": 1943,
      "##cW": 1944,
      "##rS": 1945,
      "##GQ": 1946,
      "##nn": 1947,
      "##GZ": 1948,
      "##N9": 1949,
      "##wZ": 1950,
      "##GC": 1951,
      "##Ad": 1952,
      "##BO": 1953,
      "##zS": 1954,
      "##x0": 1955,
      "##Nd": 1956,
      "##Rf": 1957,
      "##FF": 1958,
      "##o5": 1959,
      "##tX": 1960,
      "##IY": 1961,
      "##wJ": 1962,
      "##b0": 1963,
      "##3W": 1964,
      "##RQ": 1965,
      "##aH": 1966,
      "##B2": 1967,
      "##zH": 1968,
      "##v0": 1969,
      "##Bi": 1970,
      "##j7": 1971,
      "##Pm": 1972,
      "##sg": 1973,
      "##1F": 1974,
      "##De": 1975,
      "##3i": 1976,
      "##lM": 1977,
      "##hm": 1978,
      "##qq": 1979,
      "##5o": 1980,
      "##32": 1981,
      "##n2": 1982,
      "##LL": 1983,
      "##90": 1984,
      "##EE": 1985,
      "##II": 1986,
      "##jp": 1987,
      "##DT": 1988,
      "##DX": 1989,
      "##44": 1990,
      "##xx": 1991,
      "##By": 1992,
      "##RZ": 1993,
      "##cy": 1994,
      "##6g": 1995,
      "##5F": 1996,
      "##vb": 1997,
      "##RK": 1998,
      "##Yo": 1999,
      "##ni": 2000,
      "##Lg": 2001,
      "##su": 2002,
      "##1o": 2003,
      "##IF": 2004,
      "##HH": 2005,
      "##sL": 2006,
      "##JZ": 2007,
      "##c2": 2008,
      "##A9": 2009,
      "##SE": 2010,
      "##v9": 2011,
      "##18": 2012,
      "##hh": 2013,
      "##5Y": 2014,
      "##RU": 2015,
      "##wl": 2016,
      "##B3": 2017,
      "##QC": 2018,
      "##A0": 2019,
      "##TX": 2020,
      "##7a": 2021,
      "##Gf": 2022,
      "##Lm": 2023,
      "##Pu": 2024,
      "##S6": 2025,
      "##Sg": 2026,
      "##vx": 2027,
      "##KK": 2028,
      "##Bn": 2029,
      "##Oi": 2030,
      "##tk": 2031,
      "##yy": 2032,
      "##n3": 2033,
      "##rr": 2034,
      "##JJ": 2035,
      "##0d": 2036,
      "##7p": 2037,
      "##hu": 2038,
      "##4V": 2039,
      "##Cl": 2040,
      "##NN": 2041,
      "##MM": 2042,
      "##Dk": 2043,
      "##za": 2044,
      "##ce": 2045,
      "##ww": 2046,
      "##O3": 2047
    }
  }
}