{
  "version": "1.0",
  "truncation": null,
  "padding": null,
  "added_tokens": [
    {
      "id": 0,
      "content": "[PAD]",
      "single_word": false,
      "lstrip": false,
      "rstrip": false,
      "normalized": false,
      "special": true
    },
    {
      "id": 1,
      "content": "[UNK]",
      "single_word": false,
      "lstrip": false,
      "rstrip": false,
      "normalized": false,
      "special": true
    },
    {
      "id": 2,
      "content": "[CLS]",
      "single_word": false,
      "lstrip": false,
      "rstrip": false,
      "normalized": false,
      "special": true
    },
    {
      "id": 3,
      "content": "[SEP]",
      "single_word": false,
      "lstrip": false,
      "rstrip": false,
      "normalized": false,
      "special": true
    },
    {
      "id": 4,
      "content": "[MASK]",
      "single_word": false,
      "lstrip": false,
      "rstrip": false,
      "normalized": false,
      "special": true
    }
  ],
  "normalizer": {
    "type": "NFKC"
  },
  "pre_tokenizer": {
    "type": "Whitespace"
  },
  "post_processor": null,
  "decoder": null,
  "model": {
    "type": "WordPiece",
    "unk_token": "[UNK]",
    "continuing_subword_prefix": "##",
    "max_input_chars_per_word": 100,
    "vocab": {
      "[PAD]": 0,
      "[UNK]": 1,
      "[CLS]": 2,
      "[SEP]": 3,
      "[MASK]": 4,
      "0": 5,
      "1": 6,
      "2": 7,
      "3": 8,
      "4": 9,
      "5": 10,
      "6": 11,
      "7": 12,
      "8": 13,
      "9": 14,
      "<": 15,
      "=": 16,
      ">": 17,
      "A": 18,
      "B": 19,
      "C": 20,
      "D": 21,
      "E": 22,
      "F": 23,
      "G": 24,
      "H": 25,
      "I": 26,
      "J": 27,
      "K": 28,
      "L": 29,
      "M": 30,
      "N": 31,
      "O": 32,
      "P": 33,
      "Q": 34,
      "R": 35,
      "S": 36,
      "T": 37,
      "U": 38,
      "V": 39,
      "W": 40,
      "X": 41,
      "Y": 42,
      "Z": 43,
      "_": 44,
      "a": 45,
      "b": 46,
      "c": 47,
      "d": 48,
      "e": 49,
      "f": 50,
      "g": 51,
      "h": 52,
      "i": 53,
      "j": 54,
      "k": 55,
      "l": 56,
      "m": 57,
      "n": 58,
      "o": 59,
      "p": 60,
      "q": 61,
      "r": 62,
      "s": 63,
      "t": 64,
      "u": 65,
      "v": 66,
      "w": 67,
      "x": 68,
      "y": 69,
      "z": 70,
      "##G": 71,
      "##i": 72,
      "##h": 73,
      "##3": 74,
      "##6": 75,
      "##b": 76,
      "##U": 77,
      "##k": 78,
      "##8": 79,
      "##C": 80,
      "##E": 81,
      "##L": 82,
      "##v": 83,
      "##N": 84,
      "##P": 85,
      "##S": 86,
      "##n": 87,
      "##Y": 88,
      "##V": 89,
      "##j": 90,
      "##4": 91,
      "##z": 92,
      "##9": 93,
      "##t": 94,
      "##l": 95,
      "##W": 96,
      "##Q": 97,
      "##0": 98,
      "##r": 99,
      "##X": 100,
      "##y": 101,
      "##I": 102,
      "##O": 103,
      "##A": 104,
      "##Z": 105,
      "##K": 106,
      "##s": 107,
      "##u": 108,
      "##d": 109,
      "##B": 110,
      "##p": 111,
      "##7": 112,
      "##x": 113,
      "##q": 114,
      "##H": 115,
      "##m": 116,
      "##M": 117,
      "##1": 118,
      "##R": 119,
      "##D": 120,
      "##e": 121,
      "##J": 122,
      "##2": 123,
      "##c": 124,
      "##F": 125,
      "##5": 126,
      "##f": 127,
      "##a": 128,
      "##g": 129,
      "##T": 130,
      "##o": 131,
      "##w": 132,
      "##_": 133,
      "##EP": 134,
      "SEP": 135,
      "k1": 136,
      "##na": 137,
      "##EC": 138,
      "##ND": 139,
      "##si": 140,
      "k5": 141,
      "k2": 142,
      "k4": 143,
      "k6": 144,
      "k9": 145,
      "k8": 146,
      "k3": 147,
      "k0": 148,
      "##sig": 149,
      "k7": 150,
      "##nal": 151,
      "k16": 152,
      "k12": 153,
      "REC": 154,
      "k13": 155,
      "k14": 156,
      "k17": 157,
      "END": 158,
      "k_": 159,
      "k18": 160,
      "k19": 161,
      "k11": 162,
      "k15": 163,
      "##signal": 164,
      "k_signal": 165,
      "S1": 166,
      "##77": 167,
      "##1z": 168,
      "##bZ": 169,
      "##Pc": 170,
      "##5R": 171,
      "##YC": 172,
      "##Hn": 173,
      "##SC": 174,
      "##dG": 175,
      "##mW": 176,
      "##82": 177,
      "##Np": 178,
      "##rU": 179,
      "##6l": 180,
      "##E2": 181,
      "##7i": 182,
      "##oa": 183,
      "##hQ": 184,
      "##XU": 185,
      "##vR": 186,
      "##13": 187,
      "##Ny": 188,
      "##94": 189,
      "##hR": 190,
      "##LW": 191,
      "##Aw": 192,
      "##53": 193,
      "##uf": 194,
      "##gV": 195,
      "##xk": 196,
      "##xa": 197,
      "##6q": 198,
      "##di": 199,
      "##dQ": 200,
      "##El": 201,
      "##oc": 202,
      "##8D": 203,
      "##EM": 204,
      "##zK": 205,
      "##sB": 206,
      "##N2": 207,
      "##dK": 208,
      "##bi": 209,
      "##Nt": 210,
      "##Sa": 211,
      "##uT": 212,
      "##xJ": 213,
      "##Hf": 214,
      "##eT": 215,
      "##Fw": 216,
      "##eR": 217,
      "##ew": 218,
      "##Nk": 219,
      "##9i": 220,
      "##AT": 221,
      "##ut": 222,
      "##IV": 223,
      "##7O": 224,
      "##64": 225,
      "##sq": 226,
      "##mO": 227,
      "##5U": 228,
      "##oD": 229,
      "##YL": 230,
      "##dC": 231,
      "##my": 232,
      "##5q": 233,
      "##5f": 234,
      "##gJ": 235,
      "##E3": 236,
      "##ID": 237,
      "##e4": 238,
      "##S3": 239,
      "##YV": 240,
      "##At": 241,
      "##ec": 242,
      "##dw": 243,
      "##5B": 244,
      "##8M": 245,
      "##m0": 246,
      "##o3": 247,
      "##vv": 248,
      "##jT": 249,
      "##uk": 250,
      "##xC": 251,
      "##ow": 252,
      "##bW": 253,
      "##dD": 254,
      "##Gi": 255,
      "##9V": 256,
      "##xO": 257,
      "##5Z": 258,
      "##hC": 259,
      "##r4": 260,
      "##Pw": 261,
      "##hf": 262,
      "##jD": 263,
      "##uq": 264,
      "##xV": 265,
      "##1U": 266,
      "##63": 267,
      "##8c": 268,
      "##SD": 269,
      "##Ya": 270,
      "##rk": 271,
      "##Hc": 272,
      "##mf": 273,
      "##6Q": 274,
      "##A2": 275,
      "##7K": 276,
      "##xT": 277,
      "##xw": 278,
      "##F2": 279,
      "##Hi": 280,
      "##FC": 281,
      "##oR": 282,
      "##LZ": 283,
      "##Nq": 284,
      "##9R": 285,
      "##rK": 286,
      "##sW": 287,
      "##EJ": 288,
      "##YQ": 289,
      "##xK": 290,
      "##oZ": 291,
      "##oq": 292,
      "##bT": 293,
      "##EO": 294,
      "##NU": 295,
      "##IZ": 296,
      "##sz": 297,
      "##Ff": 298,
      "##Fa": 299,
      "##oz": 300,
      "##j2": 301,
      "##gR": 302,
      "##pV": 303,
      "##5k": 304,
      "##Iy": 305,
      "##7k": 306,
      "##mV": 307,
      "##g4": 308,
      "##EZ": 309,
      "##Ik": 310,
      "##dX": 311,
      "##H4": 312,
      "##8Z": 313,
      "##9J": 314,
      "##rW": 315,
      "##s4": 316,
      "##7q": 317,
      "##hV": 318,
      "##Ey": 319,
      "##mw": 320,
      "##1C": 321,
      "##6w": 322,
      "##vk": 323,
      "##NW": 324,
      "##rc": 325,
      "##xf": 326,
      "##mB": 327,
      "##gQ": 328,
      "##6G": 329,
      "##IU": 330,
      "##AU": 331,
      "##AO": 332,
      "##sf": 333,
      "##u3": 334,
      "##dT": 335,
      "##oC": 336,
      "##6c": 337,
      "##bD": 338,
      "##Aq": 339,
      "##et": 340,
      "##8J": 341,
      "##0Z": 342,
      "##AR": 343,
      "##dq": 344,
      "##gU": 345,
      "##oK": 346,
      "##Nn": 347,
      "##Pk": 348,
      "##jR": 349,
      "##9y": 350,
      "##sX": 351,
      "##uc": 352,
      "##ef": 353,
      "##FK": 354,
      "##FJ": 355,
      "##bk": 356,
      "##YM": 357,
      "##rq": 358,
      "##pU": 359,
      "##Hq": 360,
      "##mC": 361,
      "##bV": 362,
      "##va": 363,
      "##NK": 364,
      "##YW": 365,
      "##dk": 366,
      "##pB": 367,
      "##xU": 368,
      "##5M": 369,
      "##oV": 370,
      "##bt": 371,
      "##A4": 372,
      "##sG": 373,
      "##1w": 374,
      "##5i": 375,
      "##oU": 376,
      "##Pt": 377,
      "##jO": 378,
      "##st": 379,
      "##uV": 380,
      "##dO": 381,
      "##1l": 382,
      "##FT": 383,
      "##5w": 384,
      "##ot": 385,
      "##bQ": 386,
      "##8f": 387,
      "##Nf": 388,
      "##9t": 389,
      "##92": 390,
      "##sU": 391,
      "##1q": 392,
      "##6f": 393,
      "##bc": 394,
      "##Yz": 395,
      "##pK": 396,
      "##FD": 397,
      "##EK": 398,
      "##vw": 399,
      "##NQ": 400,
      "##Na": 401,
      "##Iw": 402,
      "##mt": 403,
      "##5Q": 404,
      "##8k": 405,
      "##ER": 406,
      "##vO": 407,
      "##9M": 408,
      "##02": 409,
      "##uC": 410,
      "##mZ": 411,
      "##hO": 412,
      "##6Z": 413,
      "##AJ": 414,
      "##Ac": 415,
      "##m2": 416,
      "##eD": 417,
      "##gi": 418,
      "##Nl": 419,
      "##Sf": 420,
      "##AZ": 421,
      "##sM": 422,
      "##sw": 423,
      "##xG": 424,
      "##xW": 425,
      "##1B": 426,
      "##bK": 427,
      "##b2": 428,
      "##8y": 429,
      "##Lf": 430,
      "##jt": 431,
      "##0a": 432,
      "##rw": 433,
      "##IQ": 434,
      "##AC": 435,
      "##sR": 436,
      "##xR": 437,
      "##HZ": 438,
      "##1M": 439,
      "##eC": 440,
      "##el": 441,
      "##eQ": 442,
      "##FB": 443,
      "##bR": 444,
      "##YU": 445,
      "##s2": 446,
      "##uU": 447,
      "##dy": 448,
      "##ml": 449,
      "##mc": 450,
      "##1Q": 451,
      "##ez": 452,
      "##gy": 453,
      "##gB": 454,
      "##YZ": 455,
      "##0w": 456,
      "##It": 457,
      "##sa": 458,
      "##dl": 459,
      "##F4": 460,
      "##oW": 461,
      "##bO": 462,
      "##vB": 463,
      "##Sl": 464,
      "##jy": 465,
      "##I4": 466,
      "##uy": 467,
      "##pt": 468,
      "##xM": 469,
      "##Fq": 470,
      "##gK": 471,
      "##g2": 472,
      "##hM": 473,
      "##h2": 474,
      "##NO": 475,
      "##Y4": 476,
      "##Il": 477,
      "##pi": 478,
      "##py": 479,
      "##xX": 480,
      "##Ha": 481,
      "##gT": 482,
      "##6D": 483,
      "##LU": 484,
      "##vZ": 485,
      "##NT": 486,
      "##93": 487,
      "##mz": 488,
      "##mD": 489,
      "##eK": 490,
      "##5W": 491,
      "##ba": 492,
      "##EG": 493,
      "##E4": 494,
      "##vf": 495,
      "##N3": 496,
      "##Yw": 497,
      "##jX": 498,
      "##0n": 499,
      "##ry": 500,
      "##sK": 501,
      "##HT": 502,
      "##eO": 503,
      "##5K": 504,
      "##hB": 505,
      "##Ef": 506,
      "##NB": 507,
      "##NR": 508,
      "##SM": 509,
      "##sk": 510,
      "##dM": 511,
      "##dJ": 512,
      "##pz": 513,
      "##gC": 514,
      "##bw": 515,
      "##LV": 516,
      "##vi": 517,
      "##Pf": 518,
      "##rR": 519,
      "##7U": 520,
      "##xt": 521,
      "##mn": 522,
      "##1O": 523,
      "##1D": 524,
      "##FR": 525,
      "##gz": 526,
      "##gf": 527,
      "##hk": 528,
      "##84": 529,
      "##Lk": 530,
      "##Ai": 531,
      "##HQ": 532,
      "##HD": 533,
      "##5z": 534,
      "##of": 535,
      "##NJ": 536,
      "##jB": 537,
      "##9k": 538,
      "##uw": 539,
      "##d3": 540,
      "##HC": 541,
      "##HO": 542,
      "##FG": 543,
      "##gn": 544,
      "##hK": 545,
      "##6M": 546,
      "##S2": 547,
      "##rl": 548,
      "##Ic": 549,
      "##1K": 550,
      "##eB": 551,
      "##5c": 552,
      "##g3": 553,
      "##gD": 554,
      "##8W": 555,
      "##EQ": 556,
      "##LB": 557,
      "##9c": 558,
      "##0W": 559,
      "##An": 560,
      "##uB": 561,
      "##72": 562,
      "##xQ": 563,
      "##mG": 564,
      "##mT": 565,
      "##5T": 566,
      "##62": 567,
      "##bC": 568,
      "##b4": 569,
      "##8q": 570,
      "##ET": 571,
      "##9B": 572,
      "##ri": 573,
      "##x2": 574,
      "##1c": 575,
      "##eW": 576,
      "##ga": 577,
      "##o4": 578,
      "##h3": 579,
      "##Eq": 580,
      "##pR": 581,
      "##7T": 582,
      "##HR": 583,
      "##HJ": 584,
      "##eM": 585,
      "##Fi": 586,
      "##FQ": 587,
      "##5V": 588,
      "##52": 589,
      "##ha": 590,
      "##Ew": 591,
      "##NM": 592,
      "##SJ": 593,
      "##Yl": 594,
      "##Yy": 595,
      "##j3": 596,
      "##r3": 597,
      "##sO": 598,
      "##7n": 599,
      "##12": 600,
      "##eZ": 601,
      "##6k": 602,
      "##bq": 603,
      "##bM": 604,
      "##Sq": 605,
      "##ja": 606,
      "##rX": 607,
      "##d2": 608,
      "##xl": 609,
      "##Fk": 610,
      "##5C": 611,
      "##gk": 612,
      "##hX": 613,
      "##bU": 614,
      "##8O": 615,
      "##Ec": 616,
      "##Sn": 617,
      "##YO": 618,
      "##9Q": 619,
      "##rQ": 620,
      "##rO": 621,
      "##IG": 622,
      "##Ay": 623,
      "##FW": 624,
      "##oM": 625,
      "##o2": 626,
      "##6W": 627,
      "##bG": 628,
      "##bz": 629,
      "##EV": 630,
      "##Pn": 631,
      "##0R": 632,
      "##I3": 633,
      "##IM": 634,
      "##xD": 635,
      "##L3": 636,
      "##vD": 637,
      "##jV": 638,
      "##rB": 639,
      "##rD": 640,
      "##Ii": 641,
      "##IB": 642,
      "##Ia": 643,
      "##sT": 644,
      "##7W": 645,
      "##xB": 646,
      "##5a": 647,
      "##6t": 648,
      "##6O": 649,
      "##bf": 650,
      "##8G": 651,
      "##vl": 652,
      "##P2": 653,
      "##jl": 654,
      "##0O": 655,
      "##xq": 656,
      "##Hk": 657,
      "##eG": 658,
      "##e3": 659,
      "##gG": 660,
      "##gO": 661,
      "##gZ": 662,
      "##hU": 663,
      "##6i": 664,
      "##8Q": 665,
      "##SK": 666,
      "##YD": 667,
      "##jc": 668,
      "##jw": 669,
      "##0q": 670,
      "##0f": 671,
      "##7t": 672,
      "##mK": 673,
      "##eX": 674,
      "##hi": 675,
      "##8T": 676,
      "##P4": 677,
      "##jn": 678,
      "##0C": 679,
      "##sQ": 680,
      "##dV": 681,
      "##dR": 682,
      "##p4": 683,
      "##5D": 684,
      "##6J": 685,
      "##Pq": 686,
      "##0M": 687,
      "##AM": 688,
      "##dc": 689,
      "##xc": 690,
      "##8n": 691,
      "##LK": 692,
      "##Ni": 693,
      "##YK": 694,
      "##9a": 695,
      "##04": 696,
      "##0y": 697,
      "##rG": 698,
      "##dt": 699,
      "##mM": 700,
      "##8C": 701,
      "##8a": 702,
      "##LO": 703,
      "##vQ": 704,
      "##rT": 705,
      "##If": 706,
      "##sc": 707,
      "##ma": 708,
      "##1J": 709,
      "##ey": 710,
      "##Fz": 711,
      "##gc": 712,
      "##La": 713,
      "##Yc": 714,
      "##AD": 715,
      "##uQ": 716,
      "##pM": 717,
      "##7l": 718,
      "##oy": 719,
      "##Ek": 720,
      "##S4": 721,
      "##Y3": 722,
      "##YR": 723,
      "##YJ": 724,
      "##9n": 725,
      "##9D": 726,
      "##0T": 727,
      "##Iq": 728,
      "##uD": 729,
      "##1W": 730,
      "##eV": 731,
      "##gt": 732,
      "##hc": 733,
      "##Lt": 734,
      "##Pl": 735,
      "##SW": 736,
      "##ST": 737,
      "##jQ": 738,
      "##0i": 739,
      "##rC": 740,
      "##Aa": 741,
      "##sD": 742,
      "##xi": 743,
      "##mq": 744,
      "##1k": 745,
      "##Fc": 746,
      "##gw": 747,
      "##6C": 748,
      "##8i": 749,
      "##8R": 750,
      "##0k": 751,
      "##rz": 752,
      "##AQ": 753,
      "##ua": 754,
      "##Ht": 755,
      "##1y": 756,
      "##gW": 757,
      "##oJ": 758,
      "##6B": 759,
      "##bJ": 760,
      "##NV": 761,
      "##Py": 762,
      "##PO": 763,
      "##YB": 764,
      "##Yf": 765,
      "##0l": 766,
      "##Ak": 767,
      "##s3": 768,
      "##u4": 769,
      "##uM": 770,
      "##1G": 771,
      "##hn": 772,
      "##hJ": 773,
      "##6U": 774,
      "##vX": 775,
      "##IK": 776,
      "##ul": 777,
      "##7w": 778,
      "##mX": 779,
      "##1Z": 780,
      "##jU": 781,
      "##jJ": 782,
      "##9U": 783,
      "##0c": 784,
      "##A3": 785,
      "##74": 786,
      "##mQ": 787,
      "##mJ": 788,
      "##hw": 789,
      "##6T": 790,
      "##NZ": 791,
      "##Pi": 792,
      "##PT": 793,
      "##jk": 794,
      "##9X": 795,
      "##rJ": 796,
      "##da": 797,
      "##p3": 798,
      "##7c": 799,
      "##HG": 800,
      "##oX": 801,
      "##b3": 802,
      "##Nz": 803,
      "##ji": 804,
      "##j4": 805,
      "##rf": 806,
      "##uW": 807,
      "##dW": 808,
      "##7a": 809,
      "##x3": 810,
      "##m4": 811,
      "##8V": 812,
      "##EW": 813,
      "##PV": 814,
      "##0B": 815,
      "##rn": 816,
      "##7C": 817,
      "##7f": 818,
      "##xn": 819,
      "##5G": 820,
      "##6a": 821,
      "##jf": 822,
      "##uR": 823,
      "##pT": 824,
      "##on": 825,
      "##ED": 826,
      "##vt": 827,
      "##vy": 828,
      "##PW": 829,
      "##PJ": 830,
      "##SV": 831,
      "##Sy": 832,
      "##sC": 833,
      "##7V": 834,
      "##14": 835,
      "##hW": 836,
      "##LM": 837,
      "##LR": 838,
      "##vq": 839,
      "##SU": 840,
      "##ui": 841,
      "##7G": 842,
      "##HW": 843,
      "##eU": 844,
      "##e2": 845,
      "##ea": 846,
      "##oB": 847,
      "##6K": 848,
      "##vC": 849,
      "##St": 850,
      "##In": 851,
      "##xz": 852,
      "##mi": 853,
      "##hG": 854,
      "##Lc": 855,
      "##vc": 856,
      "##PX": 857,
      "##Pa": 858,
      "##SG": 859,
      "##Y2": 860,
      "##0z": 861,
      "##d4": 862,
      "##dB": 863,
      "##FV": 864,
      "##gl": 865,
      "##oQ": 866,
      "##8l": 867,
      "##Yi": 868,
      "##jC": 869,
      "##9C": 870,
      "##0t": 871,
      "##7J": 872,
      "##FZ": 873,
      "##8w": 874,
      "##SB": 875,
      "##Yk": 876,
      "##9O": 877,
      "##9Z": 878,
      "##AK": 879,
      "##dZ": 880,
      "##HU": 881,
      "##HB": 882,
      "##eJ": 883,
      "##gM": 884,
      "##hy": 885,
      "##PD": 886,
      "##Yt": 887,
      "##9f": 888,
      "##sZ": 889,
      "##uJ": 890,
      "##7y": 891,
      "##Hl": 892,
      "##Fy": 893,
      "##54": 894,
      "##hz": 895,
      "##bB": 896,
      "##PK": 897,
      "##9W": 898,
      "##0U": 899,
      "##uz": 900,
      "##dz": 901,
      "##df": 902,
      "##H3": 903,
      "##1i": 904,
      "##1R": 905,
      "##F3": 906,
      "##Ft": 907,
      "##oG": 908,
      "##8K": 909,
      "##8B": 910,
      "##Ea": 911,
      "##1f": 912,
      "##5X": 913,
      "##oi": 914,
      "##vW": 915,
      "##PG": 916,
      "##uZ": 917,
      "##xy": 918,
      "##Hz": 919,
      "##Hy": 920,
      "##gX": 921,
      "##6y": 922,
      "##vM": 923,
      "##IW": 924,
      "##uO": 925,
      "##oT": 926,
      "##8t": 927,
      "##LQ": 928,
      "##PZ": 929,
      "##SZ": 930,
      "##IT": 931,
      "##AV": 932,
      "##H2": 933,
      "##L4": 934,
      "##LJ": 935,
      "##Af": 936,
      "##pq": 937,
      "##HK": 938,
      "##mk": 939,
      "##5l": 940,
      "##5O": 941,
      "##vU": 942,
      "##9z": 943,
      "##pk": 944,
      "##7M": 945,
      "##hT": 946,
      "##8z": 947,
      "##EU": 948,
      "##Pz": 949,
      "##Sk": 950,
      "##YT": 951,
      "##rM": 952,
      "##IR": 953,
      "##Al": 954,
      "##7Z": 955,
      "##7B": 956,
      "##7R": 957,
      "##mU": 958,
      "##FO": 959,
      "##ok": 960,
      "##hl": 961,
      "##bn": 962,
      "##v3": 963,
      "##vK": 964,
      "##NX": 965,
      "##jM": 966,
      "##9K": 967,
      "##pO": 968,
      "##pJ": 969,
      "##73": 970,
      "##Hw": 971,
      "##Li": 972,
      "##Lq": 973,
      "##9q": 974,
      "##I2": 975,
      "##6z": 976,
      "##YX": 977,
      "##AG": 978,
      "##AB": 979,
      "##7D": 980,
      "##LD": 981,
      "##v4": 982,
      "##PR": 983,
      "##h4": 984,
      "##L2": 985,
      "##03": 986,
      "##r2": 987,
      "##p2": 988,
      "##8X": 989,
      "##jW": 990,
      "##9w": 991,
      "##u2": 992,
      "##pW": 993,
      "##pQ": 994,
      "##pa": 995,
      "##1n": 996,
      "##vV": 997,
      "##1a": 998,
      "##5t": 999,
      "##hq": 1000,
      "##by": 1001,
      "##Ll": 1002,
      "##LX": 1003,
      "##Yn": 1004,
      "##9G": 1005,
      "##pD": 1006,
      "##EX": 1007,
      "##Lw": 1008,
      "##N4": 1009,
      "##Nw": 1010,
      "##SR": 1011,
      "##ek": 1012,
      "##vT": 1013,
      "##SX": 1014,
      "##IO": 1015,
      "##Az": 1016,
      "##un": 1017,
      "##pn": 1018,
      "##xZ": 1019,
      "##1t": 1020,
      "##gq": 1021,
      "##Et": 1022,
      "##SQ": 1023,
      "##jq": 1024,
      "##0V": 1025,
      "##AX": 1026,
      "##0K": 1027,
      "##pf": 1028,
      "##hZ": 1029,
      "##83": 1030,
      "##jG": 1031,
      "##AW": 1032,
      "##5y": 1033,
      "##ol": 1034,
      "##En": 1035,
      "##vG": 1036,
      "##rV": 1037,
      "##IX": 1038,
      "##pc": 1039,
      "##ei": 1040,
      "##NC": 1041,
      "##jK": 1042,
      "##ra": 1043,
      "##Fn": 1044,
      "##Fl": 1045,
      "##IC": 1046,
      "##uX": 1047,
      "##m3": 1048,
      "##bl": 1049,
      "##vJ": 1050,
      "##Nc": 1051,
      "##jZ": 1052,
      "##9l": 1053,
      "##0Q": 1054,
      "##HX": 1055,
      "##YG": 1056,
      "##IJ": 1057,
      "##6X": 1058,
      "##Ei": 1059,
      "##PC": 1060,
      "##0D": 1061,
      "##pl": 1062,
      "##P3": 1063,
      "##Sz": 1064,
      "##uG": 1065,
      "##PM": 1066,
      "##Yq": 1067,
      "##sV": 1068,
      "##uK": 1069,
      "##x4": 1070,
      "##mR": 1071,
      "##Sc": 1072,
      "##Iz": 1073,
      "##pX": 1074,
      "##HM": 1075,
      "##8U": 1076,
      "##PB": 1077,
      "##FM": 1078,
      "##Ln": 1079,
      "##7Q": 1080,
      "##FU": 1081,
      "##ht": 1082,
      "##PQ": 1083,
      "##sy": 1084,
      "##9T": 1085,
      "##FX": 1086,
      "##SO": 1087,
      "##7X": 1088,
      "##1X": 1089,
      "##hD": 1090,
      "##sn": 1091,
      "##en": 1092,
      "##6R": 1093,
      "##bX": 1094,
      "##5n": 1095,
      "##oO": 1096,
      "##6n": 1097,
      "##dU": 1098,
      "##dn": 1099,
      "##Lz": 1100,
      "##eq": 1101,
      "##0X": 1102,
      "##HV": 1103,
      "##jz": 1104,
      "##pG": 1105,
      "##6V": 1106,
      "##Ez": 1107,
      "##0G": 1108,
      "##EB": 1109,
      "##v2": 1110,
      "##pw": 1111,
      "##7z": 1112,
      "##Ly": 1113,
      "##sl": 1114,
      "##5J": 1115,
      "##vz": 1116,
      "##PU": 1117,
      "##LG": 1118,
      "##Sw": 1119,
      "##rZ": 1120,
      "##sJ": 1121,
      "##1V": 1122,
      "##pZ": 1123,
      "##vn": 1124,
      "##1T": 1125,
      "##LT": 1126,
      "##LC": 1127,
      "##Si": 1128,
      "##0J": 1129,
      "##rt": 1130,
      "##pC": 1131,
      "##NG": 1132,
      "##cq": 1133,
      "##Yh": 1134,
      "##Ol": 1135,
      "##t3": 1136,
      "##Ih": 1137,
      "##dE": 1138,
      "##9A": 1139,
      "##2a": 1140,
      "##BC": 1141,
      "##d6": 1142,
      "##2k": 1143,
      "##sr": 1144,
      "##TU": 1145,
      "##89": 1146,
      "##Ir": 1147,
      "##BM": 1148,
      "##nl": 1149,
      "##I6": 1150,
      "##ZC": 1151,
      "##de": 1152,
      "##nU": 1153,
      "##4w": 1154,
      "##RD": 1155,
      "##2K": 1156,
      "##3l": 1157,
      "##N1": 1158,
      "##sH": 1159,
      "##Ga": 1160,
      "##4C": 1161,
      "##m8": 1162,
      "##TC": 1163,
      "##kD": 1164,
      "##4c": 1165,
      "##nJ": 1166,
      "##xu": 1167,
      "##BK": 1168,
      "##mS": 1169,
      "##oh": 1170,
      "##Lu": 1171,
      "##Ng": 1172,
      "##Fp": 1173,
      "##ii": 1174,
      "##66": 1175,
      "##AH": 1176,
      "##RO": 1177,
      "##Gw": 1178,
      "##Lh": 1179,
      "##Wl": 1180,
      "##eg": 1181,
      "##fa": 1182,
      "##TM": 1183,
      "##bu": 1184,
      "##XC": 1185,
      "##YP": 1186,
      "##tM": 1187,
      "##Qa": 1188,
      "##Ij": 1189,
      "##tq": 1190,
      "##2U": 1191,
      "##5j": 1192,
      "##Tq": 1193,
      "##A1": 1194,
      "##8H": 1195,
      "##4Z": 1196,
      "##tz": 1197,
      "##xj": 1198,
      "##cU": 1199,
      "##Gy": 1200,
      "##9u": 1201,
      "##tf": 1202,
      "##WK": 1203,
      "##sP": 1204,
      "##cK": 1205,
      "##FP": 1206,
      "##bE": 1207,
      "##01": 1208,
      "##OM": 1209,
      "##5h": 1210,
      "##5p": 1211,
      "##bS": 1212,
      "##Yu": 1213,
      "##ta": 1214,
      "##Xl": 1215,
      "##eu": 1216,
      "##3D": 1217,
      "##kM": 1218,
      "##ka": 1219,
      "##VR": 1220,
      "##eS": 1221,
      "##2q": 1222,
      "##gh": 1223,
      "##4z": 1224,
      "##Fu": 1225,
      "##or": 1226,
      "##NP": 1227,
      "##gP": 1228,
      "##tw": 1229,
      "##mu": 1230,
      "##cJ": 1231,
      "##QD": 1232,
      "##2y": 1233,
      "##QW": 1234,
      "##GD": 1235,
      "##L0": 1236,
      "##dr": 1237,
      "##57": 1238,
      "##Y8": 1239,
      "##BZ": 1240,
      "##m1": 1241,
      "##2w": 1242,
      "##5S": 1243,
      "##Ns": 1244,
      "##QO": 1245,
      "##Xi": 1246,
      "##cl": 1247,
      "##51": 1248,
      "##L1": 1249,
      "##N6": 1250,
      "##VD": 1251,
      "##Fh": 1252,
      "##TO": 1253,
      "##3K": 1254,
      "##kU": 1255,
      "##4a": 1256,
      "##AS": 1257,
      "##cC": 1258,
      "##FS": 1259,
      "##5r": 1260,
      "##oj": 1261,
      "##nZ": 1262,
      "##BJ": 1263,
      "##ej": 1264,
      "##o0": 1265,
      "##GJ": 1266,
      "##bP": 1267,
      "##Eu": 1268,
      "##Fg": 1269,
      "##fD": 1270,
      "##ki": 1271,
      "##vS": 1272,
      "##zl": 1273,
      "##tC": 1274,
      "##tl": 1275,
      "##Xw": 1276,
      "##d1": 1277,
      "##bp": 1278,
      "##nD": 1279,
      "##WC": 1280,
      "##XZ": 1281,
      "##Iu": 1282,
      "##eh": 1283,
      "##5u": 1284,
      "##nC": 1285,
      "##nR": 1286,
      "##Va": 1287,
      "##xr": 1288,
      "##mj": 1289,
      "##mH": 1290,
      "##oH": 1291,
      "##kw": 1292,
      "##v9": 1293,
      "##nM": 1294,
      "##VJ": 1295,
      "##WJ": 1296,
      "##Bq": 1297,
      "##2J": 1298,
      "##Fj": 1299,
      "##oS": 1300,
      "##LA": 1301,
      "##vr": 1302,
      "##Nj": 1303,
      "##nq": 1304,
      "##VU": 1305,
      "##QJ": 1306,
      "##Ig": 1307,
      "##Bl": 1308,
      "##F6": 1309,
      "##kC": 1310,
      "##Y9": 1311,
      "##vh": 1312,
      "##Nh": 1313,
      "##XK": 1314,
      "##bh": 1315,
      "##LP": 1316,
      "##v1": 1317,
      "##zq": 1318,
      "##zw": 1319,
      "##tK": 1320,
      "##X3": 1321,
      "##dP": 1322,
      "##Ba": 1323,
      "##fl": 1324,
      "##o6": 1325,
      "##o7": 1326,
      "##b1": 1327,
      "##L6": 1328,
      "##vu": 1329,
      "##nK": 1330,
      "##Yj": 1331,
      "##4l": 1332,
      "##IP": 1333,
      "##NH": 1334,
      "##YE": 1335,
      "##Vy": 1336,
      "##4K": 1337,
      "##NS": 1338,
      "##YH": 1339,
      "##VK": 1340,
      "##Qi": 1341,
      "##Ap": 1342,
      "##er": 1343,
      "##59": 1344,
      "##8j": 1345,
      "##8s": 1346,
      "##vH": 1347,
      "##Vl": 1348,
      "##QR": 1349,
      "##eE": 1350,
      "##2D": 1351,
      "##Tl": 1352,
      "##2C": 1353,
      "##cy": 1354,
      "##Y1": 1355,
      "##VO": 1356,
      "##tJ": 1357,
      "##Bi": 1358,
      "##x7": 1359,
      "##m6": 1360,
      "##YS": 1361,
      "##WM": 1362,
      "##Xy": 1363,
      "##BD": 1364,
      "##mr": 1365,
      "##fi": 1366,
      "##bj": 1367,
      "##bg": 1368,
      "##QK": 1369,
      "##XO": 1370,
      "##dS": 1371,
      "##mP": 1372,
      "##Y7": 1373,
      "##VC": 1374,
      "##Qy": 1375,
      "##Ar": 1376,
      "##m9": 1377,
      "##fO": 1378,
      "##3U": 1379,
      "##81": 1380,
      "##LH": 1381,
      "##vP": 1382,
      "##4U": 1383,
      "##I1": 1384,
      "##Aj": 1385,
      "##dH": 1386,
      "##dg": 1387,
      "##By": 1388,
      "##fM": 1389,
      "##oE": 1390,
      "##L9": 1391,
      "##4O": 1392,
      "##WR": 1393,
      "##Ip": 1394,
      "##Ah": 1395,
      "##d7": 1396,
      "##xp": 1397,
      "##xg": 1398,
      "##ep": 1399,
      "##cO": 1400,
      "##VM": 1401,
      "##zM": 1402,
      "##WD": 1403,
      "##GM": 1404,
      "##bH": 1405,
      "##BU": 1406,
      "##fJ": 1407,
      "##GO": 1408,
      "##b7": 1409,
      "##vj": 1410,
      "##Wy": 1411,
      "##IS": 1412,
      "##sS": 1413,
      "##d0": 1414,
      "##e9": 1415,
      "##e0": 1416,
      "##ou": 1417,
      "##Ql": 1418,
      "##Bw": 1419,
      "##mE": 1420,
      "##5H": 1421,
      "##b9": 1422,
      "##kl": 1423,
      "##vp": 1424,
      "##QU": 1425,
      "##xh": 1426,
      "##2l": 1427,
      "##fw": 1428,
      "##TD": 1429,
      "##Gq": 1430,
      "##WO": 1431,
      "##QC": 1432,
      "##QZ": 1433,
      "##s9": 1434,
      "##sp": 1435,
      "##dh": 1436,
      "##mp": 1437,
      "##eH": 1438,
      "##5g": 1439,
      "##4i": 1440,
      "##zJ": 1441,
      "##za": 1442,
      "##XD": 1443,
      "##sh": 1444,
      "##xH": 1445,
      "##oP": 1446,
      "##og": 1447,
      "##3J": 1448,
      "##Vq": 1449,
      "##zC": 1450,
      "##ti": 1451,
      "##WZ": 1452,
      "##QM": 1453,
      "##8S": 1454,
      "##N0": 1455,
      "##N7": 1456,
      "##Vi": 1457,
      "##BO": 1458,
      "##cw": 1459,
      "##Gl": 1460,
      "##3a": 1461,
      "##Lg": 1462,
      "##Nr": 1463,
      "##ni": 1464,
      "##4J": 1465,
      "##AP": 1466,
      "##A9": 1467,
      "##x0": 1468,
      "##e7": 1469,
      "##fR": 1470,
      "##op": 1471,
      "##kO": 1472,
      "##4M": 1473,
      "##4R": 1474,
      "##Xa": 1475,
      "##5P": 1476,
      "##GK": 1477,
      "##4D": 1478,
      "##A0": 1479,
      "##e1": 1480,
      "##cM": 1481,
      "##FH": 1482,
      "##Ta": 1483,
      "##3Z": 1484,
      "##ny": 1485,
      "##cR": 1486,
      "##TJ": 1487,
      "##v6": 1488,
      "##4y": 1489,
      "##tZ": 1490,
      "##WU": 1491,
      "##Qq": 1492,
      "##m7": 1493,
      "##5E": 1494,
      "##TK": 1495,
      "##br": 1496,
      "##N9": 1497,
      "##XM": 1498,
      "##XJ": 1499,
      "##IE": 1500,
      "##3q": 1501,
      "##L7": 1502,
      "##4q": 1503,
      "##FE": 1504,
      "##kZ": 1505,
      "##v7": 1506,
      "##mg": 1507,
      "##F0": 1508,
      "##Xq": 1509,
      "##dp": 1510,
      "##Tw": 1511,
      "##3i": 1512,
      "##b0": 1513,
      "##8p": 1514,
      "##Lj": 1515,
      "##zU": 1516,
      "##Wq": 1517,
      "##du": 1518,
      "##F9": 1519,
      "##fy": 1520,
      "##Lr": 1521,
      "##Lp": 1522,
      "##ty": 1523,
      "##I9": 1524,
      "##xP": 1525,
      "##fq": 1526,
      "##TZ": 1527,
      "##TR": 1528,
      "##LE": 1529,
      "##GZ": 1530,
      "##Yp": 1531,
      "##VZ": 1532,
      "##Wi": 1533,
      "##b6": 1534,
      "##kJ": 1535,
      "##v0": 1536,
      "##Nu": 1537,
      "##Y0": 1538,
      "##sj": 1539,
      "##o9": 1540,
      "##dj": 1541,
      "##F1": 1542,
      "##fK": 1543,
      "##tR": 1544,
      "##s7": 1545,
      "##50": 1546,
      "##vE": 1547,
      "##Wa": 1548,
      "##x1": 1549,
      "##2R": 1550,
      "##2M": 1551,
      "##kK": 1552,
      "##zR": 1553,
      "##Ag": 1554,
      "##eP": 1555,
      "##Ty": 1556,
      "##A7": 1557,
      "##ca": 1558,
      "##56": 1559,
      "##8P": 1560,
      "##zi": 1561,
      "##3R": 1562,
      "##Y6": 1563,
      "##tU": 1564,
      "##GU": 1565,
      "##GC": 1566,
      "##Yg": 1567,
      "##Ww": 1568,
      "##mh": 1569,
      "##fZ": 1570,
      "##8E": 1571,
      "##NE": 1572,
      "##XR": 1573,
      "##s6": 1574,
      "##8h": 1575,
      "##80": 1576,
      "##3y": 1577,
      "##ky": 1578,
      "##Au": 1579,
      "##s0": 1580,
      "##BR": 1581,
      "##2O": 1582,
      "##kR": 1583,
      "##2i": 1584,
      "##GR": 1585,
      "##3C": 1586,
      "##kq": 1587,
      "##nw": 1588,
      "##IH": 1589,
      "##A6": 1590,
      "##Vw": 1591,
      "##xE": 1592,
      "##fU": 1593,
      "##87": 1594,
      "##vg": 1595,
      "##sE": 1596,
      "##Fr": 1597,
      "##86": 1598,
      "##LS": 1599,
      "##tD": 1600,
      "##I0": 1601,
      "##xS": 1602,
      "##ci": 1603,
      "##nO": 1604,
      "##F7": 1605,
      "##Ti": 1606,
      "##e6": 1607,
      "##zZ": 1608,
      "##3O": 1609,
      "##8r": 1610,
      "##zy": 1611,
      "##zD": 1612,
      "##sg": 1613,
      "##d9": 1614,
      "##I7": 1615,
      "##8u": 1616,
      "##su": 1617,
      "##s1": 1618,
      "##o1": 1619,
      "##Qw": 1620,
      "##cZ": 1621,
      "##fC": 1622,
      "##8g": 1623,
      "##Yr": 1624,
      "##AE": 1625,
      "##cD": 1626,
      "##3M": 1627,
      "##x6": 1628,
      "##tO": 1629,
      "##2Z": 1630,
      "##3w": 1631,
      "##AF": 1632,
      "##mI": 1633,
      "##BW": 1634,
      "##zO": 1635,
      "##BT": 1636,
      "##mo": 1637,
      "##cG": 1638,
      "##dI": 1639,
      "##x9": 1640,
      "##be": 1641,
      "##Ne": 1642,
      "##42": 1643,
      "##Ca": 1644,
      "##cf": 1645,
      "##wM": 1646,
      "##43": 1647,
      "##Cq": 1648,
      "##vo": 1649,
      "##t2": 1650,
      "##Ua": 1651,
      "##jS": 1652,
      "##zV": 1653,
      "##OO": 1654,
      "##B2": 1655,
      "##xF": 1656,
      "##Gk": 1657,
      "##db": 1658,
      "##wi": 1659,
      "##GX": 1660,
      "##Dl": 1661,
      "##85": 1662,
      "##NF": 1663,
      "##QT": 1664,
      "##ru": 1665,
      "##Kl": 1666,
      "##tW": 1667,
      "##ya": 1668,
      "##Za": 1669,
      "##Hg": 1670,
      "##6h": 1671,
      "##UM": 1672,
      "##nk": 1673,
      "##N5": 1674,
      "##tQ": 1675,
      "##wO": 1676,
      "##wJ": 1677,
      "##nz": 1678,
      "##Vc": 1679,
      "##Ye": 1680,
      "##oo": 1681,
      "##G3": 1682,
      "##vI": 1683,
      "##Yx": 1684,
      "##V2": 1685,
      "##1p": 1686,
      "##UJ": 1687,
      "##tk": 1688,
      "##ss": 1689,
      "##jE": 1690,
      "##jP": 1691,
      "##Ae": 1692,
      "##iJ": 1693,
      "##6u": 1694,
      "##bb": 1695,
      "##NL": 1696,
      "##0P": 1697,
      "##17": 1698,
      "##FI": 1699,
      "##Gz": 1700,
      "##tX": 1701,
      "##Bf": 1702,
      "##md": 1703,
      "##TW": 1704,
      "##9g": 1705,
      "##uu": 1706,
      "##pp": 1707,
      "##wq": 1708,
      "##LI": 1709,
      "##v8": 1710,
      "##9h": 1711,
      "##yl": 1712,
      "##nc": 1713,
      "##1S": 1714,
      "##VW": 1715,
      "##Kq": 1716,
      "##HH": 1717,
      "##UD": 1718,
      "##CD": 1719,
      "##zW": 1720,
      "##Q3": 1721,
      "##yJ": 1722,
      "##vF": 1723,
      "##Yo": 1724,
      "##07": 1725,
      "##Ul": 1726,
      "##vs": 1727,
      "##UZ": 1728,
      "##9P": 1729,
      "##rP": 1730,
      "##TT": 1731,
      "##UR": 1732,
      "##No": 1733,
      "##zX": 1734,
      "##A5": 1735,
      "##HS": 1736,
      "##CR": 1737,
      "##KM": 1738,
      "##B3": 1739,
      "##mm": 1740,
      "##fk": 1741,
      "##Cl": 1742,
      "##Eh": 1743,
      "##ve": 1744,
      "##AL": 1745,
      "##iq": 1746,
      "##nW": 1747,
      "##Ka": 1748,
      "##GW": 1749,
      "##b5": 1750,
      "##nX": 1751,
      "##4W": 1752,
      "##0h": 1753,
      "##d5": 1754,
      "##NI": 1755,
      "##tT": 1756,
      "##N8": 1757,
      "##nT": 1758,
      "##Ys": 1759,
      "##wZ": 1760,
      "##il": 1761,
      "##Uy": 1762,
      "##vx": 1763,
      "##SS": 1764,
      "##BV": 1765,
      "##Hp": 1766,
      "##FL": 1767,
      "##wa": 1768,
      "##iM": 1769,
      "##Eg": 1770,
      "##r7": 1771,
      "##ms": 1772,
      "##1u": 1773,
      "##G2": 1774,
      "##tc": 1775,
      "##Qf": 1776,
      "##BX": 1777,
      "##Hu": 1778,
      "##RR": 1779,
      "##Fs": 1780,
      "##GT": 1781,
      "##jg": 1782,
      "##Qk": 1783,
      "##Qz": 1784,
      "##Qc": 1785,
      "##rg": 1786,
      "##II": 1787,
      "##Bk": 1788,
      "##mx": 1789,
      "##n2": 1790,
      "##j6": 1791,
      "##me": 1792,
      "##Fb": 1793,
      "##wl": 1794,
      "##vL": 1795,
      "##nV": 1796,
      "##AA": 1797,
      "##Uq": 1798,
      "##ES": 1799,
      "##Nb": 1800,
      "##06": 1801,
      "##09": 1802,
      "##0u": 1803,
      "##GV": 1804,
      "##nf": 1805,
      "##0S": 1806,
      "##Zq": 1807,
      "##Ky": 1808,
      "##ds": 1809,
      "##xs": 1810,
      "##E6": 1811,
      "##rp": 1812,
      "##Zl": 1813,
      "##1g": 1814,
      "##RM": 1815,
      "##DM": 1816,
      "##88": 1817,
      "##Y5": 1818,
      "##XW": 1819,
      "##Hh": 1820,
      "##DJ": 1821,
      "##9p": 1822,
      "##Xk": 1823,
      "##16": 1824,
      "##1P": 1825,
      "##wC": 1826,
      "##YI": 1827,
      "##ZJ": 1828,
      "##1h": 1829,
      "##4T": 1830,
      "##0g": 1831,
      "##rh": 1832,
      "##Bc": 1833,
      "##n3": 1834,
      "##Yb": 1835,
      "##j7": 1836,
      "##Ao": 1837,
      "##mL": 1838,
      "##Rq": 1839,
      "##Fx": 1840,
      "##rH": 1841,
      "##ZM": 1842,
      "##Ra": 1843,
      "##4k": 1844,
      "##A8": 1845,
      "##iy": 1846,
      "##Q2": 1847,
      "##fV": 1848,
      "##do": 1849,
      "##Gc": 1850,
      "##E7": 1851,
      "##v5": 1852,
      "##rS": 1853,
      "##ex": 1854,
      "##96": 1855,
      "##QV": 1856,
      "##Rl": 1857,
      "##Ry": 1858,
      "##es": 1859,
      "##8x": 1860,
      "##KO": 1861,
      "##HP": 1862,
      "##3k": 1863,
      "##dx": 1864,
      "##f2": 1865,
      "##iO": 1866,
      "##zk": 1867,
      "##zT": 1868,
      "##Ja": 1869,
      "##UO": 1870,
      "##jh": 1871,
      "##Da": 1872,
      "##F5": 1873,
      "##bs": 1874,
      "##8L": 1875,
      "##ju": 1876,
      "##jp": 1877,
      "##r6": 1878,
      "##bI": 1879,
      "##4V": 1880,
      "##QX": 1881,
      "##AI": 1882,
      "##qM": 1883,
      "##wy": 1884,
      "##fW": 1885,
      "##tV": 1886,
      "##qa": 1887,
      "##cV": 1888,
      "##Lx": 1889,
      "##7g": 1890,
      "##bo": 1891,
      "##PP": 1892,
      "##YN": 1893,
      "##9S": 1894,
      "##DO": 1895,
      "##eI": 1896,
      "##Jy": 1897,
      "##3T": 1898,
      "##vm": 1899,
      "##KC": 1900,
      "##JM": 1901,
      "##Fo": 1902,
      "##vA": 1903,
      "##0p": 1904,
      "##7P": 1905,
      "##e5": 1906,
      "##4B": 1907,
      "##iZ": 1908,
      "##tG": 1909,
      "##cT": 1910,
      "##7h": 1911,
      "##RK": 1912,
      "##Jl": 1913,
      "##fX": 1914,
      "##bd": 1915,
      "##22": 1916,
      "##7p": 1917,
      "##3G": 1918,
      "##bL": 1919,
      "##zf": 1920,
      "##7u": 1921,
      "##iD": 1922,
      "##3W": 1923,
      "##UC": 1924,
      "##9E": 1925,
      "##As": 1926,
      "##ZO": 1927,
      "##3c": 1928,
      "##nB": 1929,
      "##4X": 1930,
      "##Zy": 1931,
      "##5s": 1932,
      "##rE": 1933,
      "##ZD": 1934,
      "##ia": 1935,
      "##YA": 1936,
      "##11": 1937,
      "##iK": 1938,
      "##9j": 1939,
      "##z2": 1940,
      "##Qn": 1941,
      "##xo": 1942,
      "##H6": 1943,
      "##8o": 1944,
      "##CO": 1945,
      "##Lo": 1946,
      "##76": 1947,
      "##wD": 1948,
      "##vd": 1949,
      "##Nx": 1950,
      "##Su": 1951,
      "##zG": 1952,
      "##Ml": 1953,
      "##eo": 1954,
      "##QB": 1955,
      "##qy": 1956,
      "##m5": 1957,
      "##kc": 1958,
      "##Pg": 1959,
      "##4f": 1960,
      "##3X": 1961,
      "##8I": 1962,
      "##3f": 1963,
      "##32": 1964,
      "##Cy": 1965,
      "##rr": 1966,
      "##wR": 1967,
      "##Pu": 1968,
      "##YF": 1969,
      "##4G": 1970,
      "##XX": 1971,
      "##dF": 1972,
      "##gp": 1973,
      "##kW": 1974,
      "##Sh": 1975,
      "##mA": 1976,
      "##1j": 1977,
      "##dL": 1978,
      "##3V": 1979,
      "##EH": 1980,
      "##vb": 1981,
      "##nG": 1982,
      "##MO": 1983,
      "##1H": 1984,
      "##cW": 1985,
      "##0H": 1986,
      "##05": 1987,
      "##yy": 1988,
      "##BB": 1989,
      "##JK": 1990,
      "##9r": 1991,
      "##7j": 1992,
      "##NN": 1993,
      "##9H": 1994,
      "##JC": 1995,
      "##c2": 1996,
      "##wK": 1997,
      "##hp": 1998,
      "##Uk": 1999,
      "##QQ": 2000,
      "##qq": 2001,
      "##fT": 2002,
      "##Ax": 2003,
      "##so": 2004,
      "##JD": 2005,
      "##gu": 2006,
      "##nn": 2007,
      "##ZR": 2008,
      "##sI": 2009,
      "##dY": 2010,
      "##ee": 2011,
      "##Sp": 2012,
      "##zB": 2013,
      "##JO": 2014,
      "##bF": 2015,
      "##L5": 2016,
      "##MM": 2017,
      "##Ui": 2018,
      "##Ph": 2019,
      "##0j": 2020,
      "##0o": 2021,
      "##mF": 2022,
      "##cB": 2023,
      "##k2": 2024,
      "##ZK": 2025,
      "##ww": 2026,
      "##bx": 2027,
      "##vN": 2028,
      "##WV": 2029,
      "##Q4": 2030,
      "##s5": 2031,
      "##qO": 2032,
      "##6P": 2033,
      "##Ej": 2034,
      "##vY": 2035,
      "##zn": 2036,
      "##dA": 2037,
      "##1r": 2038,
      "##U2": 2039,
      "##Ep": 2040,
      "##tn": 2041,
      "##QG": 2042,
      "##My": 2043,
      "##cX": 2044,
      "##0r": 2045,
      "##x5": 2046,
      "##UK": 2047
    }
  }
}