{
  "[PAD]": 0,
  "[UNK]": 1,
  "[CLS]": 2,
  "[SEP]": 3,
  "[MASK]": 4,
  "<(8wr>": 5,
  "</SCRIPT>": 6,
  "</b>": 7,
  "</form>": 8,
  "</script>": 9,
  "</select>": 10,
  "</style>": 11,
  "</xml>": 12,
  "<87;L>": 13,
  "<END>": 14,
  "<ESC_EQ>": 15,
  "<ID_LONG>": 16,
  "<NULL>": 17,
  "<NUM_LONG>": 18,
  "<REC>": 19,
  "<SCRIPT>": 20,
  "<SEP>": 21,
  "<script>": 22,
  "=": 23,
  "e": 24,
  "t": 25,
  "o": 26,
  "a": 27,
  "E": 28,
  "n": 29,
  "c": 30,
  "C": 31,
  ">": 32,
  "<": 33,
  "i": 34,
  "_": 35,
  "l": 36,
  "S": 37,
  "-": 38,
  "r": 39,
  "L": 40,
  "Q": 41,
  "/": 42,
  "p": 43,
  ".": 44,
  "ES": 45,
  "s": 46,
  "<E": 47,
  "<ES": 48,
  "<ESC": 49,
  "<ESC_": 50,
  "<ESC_E": 51,
  "<ESC_EQ": 52,
  "ESC": 53,
  "ESC_": 54,
  "ESC_E": 55,
  "ESC_EQ": 56,
  "ESC_EQ>": 57,
  "SC": 58,
  "SC_": 59,
  "SC_E": 60,
  "SC_EQ": 61,
  "SC_EQ>": 62,
  "C_": 63,
  "C_E": 64,
  "C_EQ": 65,
  "C_EQ>": 66,
  "_E": 67,
  "_EQ": 68,
  "_EQ>": 69,
  "EQ": 70,
  "EQ>": 71,
  "Q>": 72,
  "h": 73,
  "m": 74,
  "N": 75,
  "g": 76,
  "on": 77,
  "0": 78,
  "u": 79,
  "T": 80,
  "d": 81,
  ";": 82,
  "G": 83,
  "nt": 84,
  "O": 85,
  "x": 86,
  "U": 87,
  "5": 88,
  "en": 89,
  "I": 90,
  "8": 91,
  "D": 92,
  ",": 93,
  "1": 94,
  "q": 95,
  "H": 96,
  "t-": 97,
  "A": 98,
  "ON": 99,
  "te": 100,
  "%": 101,
  "+": 102,
  "&": 103,
  "M": 104,
  "er": 105,
  "NG": 106,
  "_L": 107,
  "_LO": 108,
  "_LON": 109,
  "_LONG": 110,
  "_LONG>": 111,
  "LO": 112,
  "LON": 113,
  "LONG": 114,
  "LONG>": 115,
  "ONG": 116,
  "ONG>": 117,
  "NG>": 118,
  "G>": 119,
  "2": 120,
  "ti": 121,
  "Co": 122,
  "0.": 123,
  "ID": 124,
  "<ESC_EQ>0": 125,
  "ESC_EQ>0": 126,
  "SC_EQ>0": 127,
  "C_EQ>0": 128,
  "_EQ>0": 129,
  "EQ>0": 130,
  "Q>0": 131,
  ">0": 132,
  "ca": 133,
  ";q": 134,
  ";q<": 135,
  ";q<E": 136,
  ";q<ES": 137,
  ";q<ESC": 138,
  ";q<ESC_": 139,
  ";q<ESC_E": 140,
  ";q<ESC_EQ": 141,
  ";q<ESC_EQ>": 142,
  ";q<ESC_EQ>0": 143,
  ";q<ESC_EQ>0.": 144,
  "q<": 145,
  "q<E": 146,
  "q<ES": 147,
  "q<ESC": 148,
  "q<ESC_": 149,
  "q<ESC_E": 150,
  "q<ESC_EQ": 151,
  "q<ESC_EQ>": 152,
  "q<ESC_EQ>0": 153,
  "q<ESC_EQ>0.": 154,
  "<ESC_EQ>0.": 155,
  "ESC_EQ>0.": 156,
  "SC_EQ>0.": 157,
  "C_EQ>0.": 158,
  "_EQ>0.": 159,
  "EQ>0.": 160,
  "Q>0.": 161,
  ">0.": 162,
  "os": 163,
  "3": 164,
  "<N": 165,
  "<NU": 166,
  "NU": 167,
  "b": 168,
  "P": 169,
  "at": 170,
  "y": 171,
  "st": 172,
  "k": 173,
  "<I": 174,
  "<ID": 175,
  "<ID_": 176,
  "<ID_L": 177,
  "<ID_LO": 178,
  "<ID_LON": 179,
  "<ID_LONG": 180,
  "ID_": 181,
  "ID_L": 182,
  "ID_LO": 183,
  "ID_LON": 184,
  "ID_LONG": 185,
  "ID_LONG>": 186,
  "D_": 187,
  "D_L": 188,
  "D_LO": 189,
  "D_LON": 190,
  "D_LONG": 191,
  "D_LONG>": 192,
  "ent": 193,
  "ep": 194,
  "ce": 195,
  "ml": 196,
  ".5": 197,
  "cc": 198,
  "pt": 199,
  "se": 200,
  "cep": 201,
  "<NUL": 202,
  "<NULL": 203,
  "NUL": 204,
  "NULL": 205,
  "NULL>": 206,
  "UL": 207,
  "ULL": 208,
  "ULL>": 209,
  "LL": 210,
  "LL>": 211,
  "L>": 212,
  "Con": 213,
  "Ac": 214,
  "Acc": 215,
  "Acce": 216,
  "Accep": 217,
  "Accept": 218,
  "cce": 219,
  "ccep": 220,
  "ccept": 221,
  "cept": 222,
  "ept": 223,
  "ont": 224,
  "io": 225,
  "ac": 226,
  "ag": 227,
  "ge": 228,
  "li": 229,
  "w": 230,
  "><": 231,
  "f": 232,
  "ch": 233,
  "ion": 234,
  "9": 235,
  "in": 236,
  "ng": 237,
  "ost": 238,
  "*": 239,
  "he": 240,
  "et": 241,
  "ach": 242,
  "-c": 243,
  "tio": 244,
  "tion": 245,
  "ma": 246,
  "ache": 247,
  "che": 248,
  "co": 249,
  "ec": 250,
  "ro": 251,
  "ic": 252,
  "th": 253,
  "ex": 254,
  "ati": 255,
  "pl": 256,
  "ten": 257,
  "%2": 258,
  "nte": 259,
  "tent": 260,
  "ar": 261,
  "t/": 262,
  "/x": 263,
  "ra": 264,
  "T-": 265,
  "Ho": 266,
  "Hos": 267,
  "Host": 268,
  "xt": 269,
  "Accept-": 270,
  "ccept-": 271,
  "cept-": 272,
  "ept-": 273,
  "pt-": 274,
  "t-L": 275,
  "-L": 276,
  "Cont": 277,
  "Conte": 278,
  "Conten": 279,
  "Content": 280,
  "Content-": 281,
  "onte": 282,
  "onten": 283,
  "ontent": 284,
  "ontent-": 285,
  "nten": 286,
  "ntent": 287,
  "ntent-": 288,
  "tent-": 289,
  "ent-": 290,
  "nt-": 291,
  "4": 292,
  "tex": 293,
  "text": 294,
  "ext": 295,
  "text/": 296,
  "ext/": 297,
  "xt/": 298,
  "xm": 299,
  "7": 300,
  "ie": 301,
  "xml": 302,
  "lic": 303,
  "age": 304,
  "no": 305,
  "GE": 306,
  "GET": 307,
  "ET": 308,
  "xml,": 309,
  "ml,": 310,
  "l,": 311,
  "0.5": 312,
  "tr": 313,
  ";q<ESC_EQ>0.5": 314,
  "q<ESC_EQ>0.5": 315,
  "<ESC_EQ>0.5": 316,
  "ESC_EQ>0.5": 317,
  "SC_EQ>0.5": 318,
  "C_EQ>0.5": 319,
  "_EQ>0.5": 320,
  "EQ>0.5": 321,
  "Q>0.5": 322,
  ">0.5": 323,
  "ue": 324,
  "ho": 325,
  "la": 326,
  "o-": 327,
  "uer": 328,
  "lo": 329,
  "<ESC_EQ><": 330,
  "ESC_EQ><": 331,
  "SC_EQ><": 332,
  "C_EQ><": 333,
  "_EQ><": 334,
  "EQ><": 335,
  "Q><": 336,
  "z": 337,
  "ap": 338,
  "HT": 339,
  "ne": 340,
  "ica": 341,
  "/p": 342,
  "6": 343,
  "od": 344,
  "de": 345,
  "an": 346,
  ")": 347,
  "++": 348,
  "R": 349,
  "ta": 350,
  "(": 351,
  "lica": 352,
  "5.": 353,
  "n/": 354,
  ".8": 355,
  "-8": 356,
  "3.": 357,
  "app": 358,
  "appl": 359,
  "appli": 360,
  "applic": 361,
  "applica": 362,
  "applicat": 363,
  "applicati": 364,
  "applicatio": 365,
  "application": 366,
  "application/": 367,
  "pp": 368,
  "ppl": 369,
  "ppli": 370,
  "pplic": 371,
  "pplica": 372,
  "pplicat": 373,
  "pplicati": 374,
  "pplicatio": 375,
  "pplication": 376,
  "pplication/": 377,
  "pli": 378,
  "plic": 379,
  "plica": 380,
  "plicat": 381,
  "plicati": 382,
  "plicatio": 383,
  "plication": 384,
  "plication/": 385,
  "licat": 386,
  "licati": 387,
  "licatio": 388,
  "lication": 389,
  "lication/": 390,
  "icat": 391,
  "icati": 392,
  "icatio": 393,
  "ication": 394,
  "ication/": 395,
  "cat": 396,
  "cati": 397,
  "catio": 398,
  "cation": 399,
  "cation/": 400,
  "atio": 401,
  "ation": 402,
  "ation/": 403,
  "tion/": 404,
  "ion/": 405,
  "on/": 406,
  "ht": 407,
  "no-": 408,
  "-ca": 409,
  "-cac": 410,
  "-cach": 411,
  "-cache": 412,
  "cac": 413,
  "cach": 414,
  "cache": 415,
  "or": 416,
  "j": 417,
  "*;": 418,
  "*;q": 419,
  "*;q<": 420,
  "*;q<E": 421,
  "*;q<ES": 422,
  "*;q<ESC": 423,
  "*;q<ESC_": 424,
  "*;q<ESC_E": 425,
  "*;q<ESC_EQ": 426,
  "*;q<ESC_EQ>": 427,
  "*;q<ESC_EQ>0": 428,
  "*;q<ESC_EQ>0.": 429,
  "K": 430,
  "v": 431,
  "ad": 432,
  "ut": 433,
  "no-c": 434,
  "no-ca": 435,
  "no-cac": 436,
  "no-cach": 437,
  "no-cache": 438,
  "o-c": 439,
  "o-ca": 440,
  "o-cac": 441,
  "o-cach": 442,
  "o-cache": 443,
  "le": 444,
  "application/x": 445,
  "pplication/x": 446,
  "plication/x": 447,
  "lication/x": 448,
  "ication/x": 449,
  "cation/x": 450,
  "ation/x": 451,
  "tion/x": 452,
  "ion/x": 453,
  "on/x": 454,
  "n/x": 455,
  "tm": 456,
  "ll": 457,
  "pe": 458,
  "al": 459,
  "tf": 460,
  "1.": 461,
  ".1": 462,
  "80": 463,
  "8,": 464,
  "f-": 465,
  ".0": 466,
  "/3": 467,
  "OS": 468,
  "/xm": 469,
  "/xml": 470,
  "htm": 471,
  "il": 472,
  "/3.": 473,
  "ea": 474,
  "ct": 475,
  "/xml,": 476,
  "html": 477,
  "tml": 478,
  "utf": 479,
  "utf-": 480,
  "utf-8": 481,
  "tf-": 482,
  "tf-8": 483,
  "f-8": 484,
  "ntr": 485,
  "tro": 486,
  "ol": 487,
  "3.5": 488,
  "nn": 489,
  "ect": 490,
  "/xml,a": 491,
  "/xml,ap": 492,
  "/xml,app": 493,
  "/xml,appl": 494,
  "/xml,appli": 495,
  "/xml,applic": 496,
  "/xml,applica": 497,
  "/xml,applicat": 498,
  "/xml,applicati": 499,
  "/xml,applicatio": 500,
  "/xml,application": 501,
  "xml,a": 502,
  "xml,ap": 503,
  "xml,app": 504,
  "xml,appl": 505,
  "xml,appli": 506,
  "xml,applic": 507,
  "xml,applica": 508,
  "xml,applicat": 509,
  "xml,applicati": 510,
  "xml,applicatio": 511,
  "xml,application": 512,
  "xml,application/": 513,
  "ml,a": 514,
  "ml,ap": 515,
  "ml,app": 516,
  "ml,appl": 517,
  "ml,appli": 518,
  "ml,applic": 519,
  "ml,applica": 520,
  "ml,applicat": 521,
  "ml,applicati": 522,
  "ml,applicatio": 523,
  "ml,application": 524,
  "ml,application/": 525,
  "ml,application/x": 526,
  "l,a": 527,
  "l,ap": 528,
  "l,app": 529,
  "l,appl": 530,
  "l,appli": 531,
  "l,applic": 532,
  "l,applica": 533,
  "l,applicat": 534,
  "l,applicati": 535,
  "l,applicatio": 536,
  "l,application": 537,
  "l,application/": 538,
  "l,application/x": 539,
  ",a": 540,
  ",ap": 541,
  ",app": 542,
  ",appl": 543,
  ",appli": 544,
  ",applic": 545,
  ",applica": 546,
  ",applicat": 547,
  ",applicati": 548,
  ",applicatio": 549,
  ",application": 550,
  ",application/": 551,
  ",application/x": 552,
  ",t": 553,
  ",te": 554,
  ",tex": 555,
  ",text": 556,
  ",text/": 557,
  "*;q<ESC_EQ>0.5": 558,
  "oo": 559,
  "/3.5": 560,
  "ha": 561,
  "gen": 562,
  "PO": 563,
  "POS": 564,
  "POST": 565,
  "OST": 566,
  "ST": 567,
  "/1": 568,
  "/1.": 569,
  "Ca": 570,
  "<ID_LONG><": 571,
  "<ID_LONG><E": 572,
  "<ID_LONG><ES": 573,
  "<ID_LONG><ESC": 574,
  "<ID_LONG><ESC_": 575,
  "<ID_LONG><ESC_E": 576,
  "<ID_LONG><ESC_EQ": 577,
  "ID_LONG><": 578,
  "ID_LONG><E": 579,
  "ID_LONG><ES": 580,
  "ID_LONG><ESC": 581,
  "ID_LONG><ESC_": 582,
  "ID_LONG><ESC_E": 583,
  "ID_LONG><ESC_EQ": 584,
  "ID_LONG><ESC_EQ>": 585,
  "D_LONG><": 586,
  "D_LONG><E": 587,
  "D_LONG><ES": 588,
  "D_LONG><ESC": 589,
  "D_LONG><ESC_": 590,
  "D_LONG><ESC_E": 591,
  "D_LONG><ESC_EQ": 592,
  "D_LONG><ESC_EQ>": 593,
  "_LONG><": 594,
  "_LONG><E": 595,
  "_LONG><ES": 596,
  "_LONG><ESC": 597,
  "_LONG><ESC_": 598,
  "_LONG><ESC_E": 599,
  "_LONG><ESC_EQ": 600,
  "_LONG><ESC_EQ>": 601,
  "LONG><": 602,
  "LONG><E": 603,
  "LONG><ES": 604,
  "LONG><ESC": 605,
  "LONG><ESC_": 606,
  "LONG><ESC_E": 607,
  "LONG><ESC_EQ": 608,
  "LONG><ESC_EQ>": 609,
  "ONG><": 610,
  "ONG><E": 611,
  "ONG><ES": 612,
  "ONG><ESC": 613,
  "ONG><ESC_": 614,
  "ONG><ESC_E": 615,
  "ONG><ESC_EQ": 616,
  "ONG><ESC_EQ>": 617,
  "NG><": 618,
  "NG><E": 619,
  "NG><ES": 620,
  "NG><ESC": 621,
  "NG><ESC_": 622,
  "NG><ESC_E": 623,
  "NG><ESC_EQ": 624,
  "NG><ESC_EQ>": 625,
  "G><": 626,
  "G><E": 627,
  "G><ES": 628,
  "G><ESC": 629,
  "G><ESC_": 630,
  "G><ESC_E": 631,
  "G><ESC_EQ": 632,
  "G><ESC_EQ>": 633,
  "><E": 634,
  "><ES": 635,
  "><ESC": 636,
  "><ESC_": 637,
  "><ESC_E": 638,
  "><ESC_EQ": 639,
  "><ESC_EQ>": 640,
  "ser": 641,
  "gt": 642,
  "set": 643,
  "La": 644,
  "gu": 645,
  "e-": 646,
  "<ESC_EQ><I": 647,
  "<ESC_EQ><ID": 648,
  "<ESC_EQ><ID_": 649,
  "<ESC_EQ><ID_L": 650,
  "<ESC_EQ><ID_LO": 651,
  "<ESC_EQ><ID_LON": 652,
  "<ESC_EQ><ID_LONG": 653,
  "ESC_EQ><I": 654,
  "ESC_EQ><ID": 655,
  "ESC_EQ><ID_": 656,
  "ESC_EQ><ID_L": 657,
  "ESC_EQ><ID_LO": 658,
  "ESC_EQ><ID_LON": 659,
  "ESC_EQ><ID_LONG": 660,
  "ESC_EQ><ID_LONG>": 661,
  "SC_EQ><I": 662,
  "SC_EQ><ID": 663,
  "SC_EQ><ID_": 664,
  "SC_EQ><ID_L": 665,
  "SC_EQ><ID_LO": 666,
  "SC_EQ><ID_LON": 667,
  "SC_EQ><ID_LONG": 668,
  "SC_EQ><ID_LONG>": 669,
  "C_EQ><I": 670,
  "C_EQ><ID": 671,
  "C_EQ><ID_": 672,
  "C_EQ><ID_L": 673,
  "C_EQ><ID_LO": 674,
  "C_EQ><ID_LON": 675,
  "C_EQ><ID_LONG": 676,
  "C_EQ><ID_LONG>": 677,
  "_EQ><I": 678,
  "_EQ><ID": 679,
  "_EQ><ID_": 680,
  "_EQ><ID_L": 681,
  "_EQ><ID_LO": 682,
  "_EQ><ID_LON": 683,
  "_EQ><ID_LONG": 684,
  "_EQ><ID_LONG>": 685,
  "EQ><I": 686,
  "EQ><ID": 687,
  "EQ><ID_": 688,
  "EQ><ID_L": 689,
  "EQ><ID_LO": 690,
  "EQ><ID_LON": 691,
  "EQ><ID_LONG": 692,
  "EQ><ID_LONG>": 693,
  "Q><I": 694,
  "Q><ID": 695,
  "Q><ID_": 696,
  "Q><ID_L": 697,
  "Q><ID_LO": 698,
  "Q><ID_LON": 699,
  "Q><ID_LONG": 700,
  "Q><ID_LONG>": 701,
  "><I": 702,
  "><ID": 703,
  "><ID_": 704,
  "><ID_L": 705,
  "><ID_LO": 706,
  "><ID_LON": 707,
  "><ID_LONG": 708,
  "><ID_LONG>": 709,
  "yp": 710,
  "har": 711,
  "rs": 712,
  "con": 713,
  "ype": 714,
  "ry": 715,
  "tho": 716,
  "-H": 717,
  "nne": 718,
  "Ch": 719,
  "ngu": 720,
  "ua": 721,
  "-co": 722,
  "trol": 723,
  "rol": 724,
  "ook": 725,
  "ooki": 726,
  "ookie": 727,
  "ok": 728,
  "oki": 729,
  "okie": 730,
  "ki": 731,
  "kie": 732,
  "gm": 733,
  "r-": 734,
  "pa": 735,
  "bl": 736,
  "Le": 737,
  "eng": 738,
  "ata": 739,
  "Qu": 740,
  "Me": 741,
  "Met": 742,
  "Meth": 743,
  "Metho": 744,
  "Method": 745,
  "eth": 746,
  "etho": 747,
  "ethod": 748,
  "thod": 749,
  "hod": 750,
  "UR": 751,
  "URI": 752,
  "RI": 753,
  "Host-": 754,
  "Host-H": 755,
  "Host-He": 756,
  "Host-Hea": 757,
  "Host-Head": 758,
  "Host-Heade": 759,
  "Host-Header": 760,
  "ost-": 761,
  "ost-H": 762,
  "ost-He": 763,
  "ost-Hea": 764,
  "ost-Head": 765,
  "ost-Heade": 766,
  "ost-Header": 767,
  "st-": 768,
  "st-H": 769,
  "st-He": 770,
  "st-Hea": 771,
  "st-Head": 772,
  "st-Heade": 773,
  "st-Header": 774,
  "t-H": 775,
  "t-He": 776,
  "t-Hea": 777,
  "t-Head": 778,
  "t-Heade": 779,
  "t-Header": 780,
  "-He": 781,
  "-Hea": 782,
  "-Head": 783,
  "-Heade": 784,
  "-Header": 785,
  "He": 786,
  "Hea": 787,
  "Head": 788,
  "Heade": 789,
  "Header": 790,
  "ead": 791,
  "eade": 792,
  "eader": 793,
  "ade": 794,
  "ader": 795,
  "der": 796,
  "HTT": 797,
  "HTTP": 798,
  "HTTP/": 799,
  "HTTP/1": 800,
  "HTTP/1.": 801,
  "TT": 802,
  "TTP": 803,
  "TTP/": 804,
  "TTP/1": 805,
  "TTP/1.": 806,
  "TP": 807,
  "TP/": 808,
  "TP/1": 809,
  "TP/1.": 810,
  "P/": 811,
  "P/1": 812,
  "P/1.": 813,
  "Conn": 814,
  "Conne": 815,
  "Connec": 816,
  "Connect": 817,
  "Connecti": 818,
  "Connectio": 819,
  "Connection": 820,
  "onn": 821,
  "onne": 822,
  "onnec": 823,
  "onnect": 824,
  "onnecti": 825,
  "onnectio": 826,
  "onnection": 827,
  "nnec": 828,
  "nnect": 829,
  "nnecti": 830,
  "nnectio": 831,
  "nnection": 832,
  "nec": 833,
  "nect": 834,
  "necti": 835,
  "nectio": 836,
  "nection": 837,
  "ecti": 838,
  "ectio": 839,
  "ection": 840,
  "cti": 841,
  "ctio": 842,
  "ction": 843,
  "Accept-C": 844,
  "Accept-Ch": 845,
  "Accept-Cha": 846,
  "Accept-Char": 847,
  "Accept-Chars": 848,
  "Accept-Charse": 849,
  "Accept-Charset": 850,
  "ccept-C": 851,
  "ccept-Ch": 852,
  "ccept-Cha": 853,
  "ccept-Char": 854,
  "ccept-Chars": 855,
  "ccept-Charse": 856,
  "ccept-Charset": 857,
  "cept-C": 858,
  "cept-Ch": 859,
  "cept-Cha": 860,
  "cept-Char": 861,
  "cept-Chars": 862,
  "cept-Charse": 863,
  "cept-Charset": 864,
  "ept-C": 865,
  "ept-Ch": 866,
  "ept-Cha": 867,
  "ept-Char": 868,
  "ept-Chars": 869,
  "ept-Charse": 870,
  "ept-Charset": 871,
  "pt-C": 872,
  "pt-Ch": 873,
  "pt-Cha": 874,
  "pt-Char": 875,
  "pt-Chars": 876,
  "pt-Charse": 877,
  "pt-Charset": 878,
  "t-C": 879,
  "t-Ch": 880,
  "t-Cha": 881,
  "t-Char": 882,
  "t-Chars": 883,
  "t-Charse": 884,
  "t-Charset": 885,
  "-C": 886,
  "-Ch": 887,
  "-Cha": 888,
  "-Char": 889,
  "-Chars": 890,
  "-Charse": 891,
  "-Charset": 892,
  "Cha": 893,
  "Char": 894,
  "Chars": 895,
  "Charse": 896,
  "Charset": 897,
  "hars": 898,
  "harse": 899,
  "harset": 900,
  "ars": 901,
  "arse": 902,
  "arset": 903,
  "rse": 904,
  "rset": 905,
  "Accept-L": 906,
  "Accept-La": 907,
  "Accept-Lan": 908,
  "Accept-Lang": 909,
  "Accept-Langu": 910,
  "Accept-Langua": 911,
  "Accept-Languag": 912,
  "Accept-Language": 913,
  "ccept-L": 914,
  "ccept-La": 915,
  "ccept-Lan": 916,
  "ccept-Lang": 917,
  "ccept-Langu": 918,
  "ccept-Langua": 919,
  "ccept-Languag": 920,
  "ccept-Language": 921,
  "cept-L": 922,
  "cept-La": 923,
  "cept-Lan": 924,
  "cept-Lang": 925,
  "cept-Langu": 926,
  "cept-Langua": 927,
  "cept-Languag": 928,
  "cept-Language": 929,
  "ept-L": 930,
  "ept-La": 931,
  "ept-Lan": 932,
  "ept-Lang": 933,
  "ept-Langu": 934,
  "ept-Langua": 935,
  "ept-Languag": 936,
  "ept-Language": 937,
  "pt-L": 938,
  "pt-La": 939,
  "pt-Lan": 940,
  "pt-Lang": 941,
  "pt-Langu": 942,
  "pt-Langua": 943,
  "pt-Languag": 944,
  "pt-Language": 945,
  "t-La": 946,
  "t-Lan": 947,
  "t-Lang": 948,
  "t-Langu": 949,
  "t-Langua": 950,
  "t-Languag": 951,
  "t-Language": 952,
  "-La": 953,
  "-Lan": 954,
  "-Lang": 955,
  "-Langu": 956,
  "-Langua": 957,
  "-Languag": 958,
  "-Language": 959,
  "Lan": 960,
  "Lang": 961,
  "Langu": 962,
  "Langua": 963,
  "Languag": 964,
  "Language": 965,
  "ang": 966,
  "angu": 967,
  "angua": 968,
  "anguag": 969,
  "anguage": 970,
  "ngua": 971,
  "nguag": 972,
  "nguage": 973,
  "gua": 974,
  "guag": 975,
  "guage": 976,
  "uag": 977,
  "uage": 978,
  "Cac": 979,
  "Cach": 980,
  "Cache": 981,
  "Cache-": 982,
  "Cache-c": 983,
  "Cache-co": 984,
  "Cache-con": 985,
  "Cache-cont": 986,
  "Cache-contr": 987,
  "Cache-contro": 988,
  "Cache-control": 989,
  "ache-": 990,
  "ache-c": 991,
  "ache-co": 992,
  "ache-con": 993,
  "ache-cont": 994,
  "ache-contr": 995,
  "ache-contro": 996,
  "ache-control": 997,
  "che-": 998,
  "che-c": 999,
  "che-co": 1000,
  "che-con": 1001,
  "che-cont": 1002,
  "che-contr": 1003,
  "che-contro": 1004,
  "che-control": 1005,
  "he-": 1006,
  "he-c": 1007,
  "he-co": 1008,
  "he-con": 1009,
  "he-cont": 1010,
  "he-contr": 1011,
  "he-contro": 1012,
  "he-control": 1013,
  "e-c": 1014,
  "e-co": 1015,
  "e-con": 1016,
  "e-cont": 1017,
  "e-contr": 1018,
  "e-contro": 1019,
  "e-control": 1020,
  "-con": 1021,
  "-cont": 1022,
  "-contr": 1023,
  "-contro": 1024,
  "-control": 1025,
  "cont": 1026,
  "contr": 1027,
  "contro": 1028,
  "control": 1029,
  "ontr": 1030,
  "ontro": 1031,
  "ontrol": 1032,
  "ntro": 1033,
  "ntrol": 1034,
  "Coo": 1035,
  "Cook": 1036,
  "Cooki": 1037,
  "Cookie": 1038,
  "Pr": 1039,
  "Pra": 1040,
  "Prag": 1041,
  "Pragm": 1042,
  "Pragma": 1043,
  "rag": 1044,
  "ragm": 1045,
  "ragma": 1046,
  "agm": 1047,
  "agma": 1048,
  "gma": 1049,
  "Us": 1050,
  "Use": 1051,
  "User": 1052,
  "User-": 1053,
  "User-A": 1054,
  "User-Ag": 1055,
  "User-Age": 1056,
  "User-Agen": 1057,
  "User-Agent": 1058,
  "ser-": 1059,
  "ser-A": 1060,
  "ser-Ag": 1061,
  "ser-Age": 1062,
  "ser-Agen": 1063,
  "ser-Agent": 1064,
  "er-": 1065,
  "er-A": 1066,
  "er-Ag": 1067,
  "er-Age": 1068,
  "er-Agen": 1069,
  "er-Agent": 1070,
  "r-A": 1071,
  "r-Ag": 1072,
  "r-Age": 1073,
  "r-Agen": 1074,
  "r-Agent": 1075,
  "-A": 1076,
  "-Ag": 1077,
  "-Age": 1078,
  "-Agen": 1079,
  "-Agent": 1080,
  "Ag": 1081,
  "Age": 1082,
  "Agen": 1083,
  "Agent": 1084,
  "gent": 1085,
  "Content-L": 1086,
  "Content-Le": 1087,
  "Content-Len": 1088,
  "Content-Leng": 1089,
  "Content-Lengt": 1090,
  "Content-Length": 1091,
  "ontent-L": 1092,
  "ontent-Le": 1093,
  "ontent-Len": 1094,
  "ontent-Leng": 1095,
  "ontent-Lengt": 1096,
  "ontent-Length": 1097,
  "ntent-L": 1098,
  "ntent-Le": 1099,
  "ntent-Len": 1100,
  "ntent-Leng": 1101,
  "ntent-Lengt": 1102,
  "ntent-Length": 1103,
  "tent-L": 1104,
  "tent-Le": 1105,
  "tent-Len": 1106,
  "tent-Leng": 1107,
  "tent-Lengt": 1108,
  "tent-Length": 1109,
  "ent-L": 1110,
  "ent-Le": 1111,
  "ent-Len": 1112,
  "ent-Leng": 1113,
  "ent-Lengt": 1114,
  "ent-Length": 1115,
  "nt-L": 1116,
  "nt-Le": 1117,
  "nt-Len": 1118,
  "nt-Leng": 1119,
  "nt-Lengt": 1120,
  "nt-Length": 1121,
  "t-Le": 1122,
  "t-Len": 1123,
  "t-Leng": 1124,
  "t-Lengt": 1125,
  "t-Length": 1126,
  "-Le": 1127,
  "-Len": 1128,
  "-Leng": 1129,
  "-Lengt": 1130,
  "-Length": 1131,
  "Len": 1132,
  "Leng": 1133,
  "Lengt": 1134,
  "Length": 1135,
  "engt": 1136,
  "ength": 1137,
  "ngt": 1138,
  "ngth": 1139,
  "gth": 1140,
  "Content-T": 1141,
  "Content-Ty": 1142,
  "Content-Typ": 1143,
  "Content-Type": 1144,
  "ontent-T": 1145,
  "ontent-Ty": 1146,
  "ontent-Typ": 1147,
  "ontent-Type": 1148,
  "ntent-T": 1149,
  "ntent-Ty": 1150,
  "ntent-Typ": 1151,
  "ntent-Type": 1152,
  "tent-T": 1153,
  "tent-Ty": 1154,
  "tent-Typ": 1155,
  "tent-Type": 1156,
  "ent-T": 1157,
  "ent-Ty": 1158,
  "ent-Typ": 1159,
  "ent-Type": 1160,
  "nt-T": 1161,
  "nt-Ty": 1162,
  "nt-Typ": 1163,
  "nt-Type": 1164,
  "t-T": 1165,
  "t-Ty": 1166,
  "t-Typ": 1167,
  "t-Type": 1168,
  "-T": 1169,
  "-Ty": 1170,
  "-Typ": 1171,
  "-Type": 1172,
  "Ty": 1173,
  "Typ": 1174,
  "Type": 1175,
  "POST-": 1176,
  "POST-D": 1177,
  "POST-Da": 1178,
  "POST-Dat": 1179,
  "POST-Data": 1180,
  "OST-": 1181,
  "OST-D": 1182,
  "OST-Da": 1183,
  "OST-Dat": 1184,
  "OST-Data": 1185,
  "ST-": 1186,
  "ST-D": 1187,
  "ST-Da": 1188,
  "ST-Dat": 1189,
  "ST-Data": 1190,
  "T-D": 1191,
  "T-Da": 1192,
  "T-Dat": 1193,
  "T-Data": 1194,
  "-D": 1195,
  "-Da": 1196,
  "-Dat": 1197,
  "-Data": 1198,
  "Da": 1199,
  "Dat": 1200,
  "Data": 1201,
  "GET-": 1202,
  "GET-Q": 1203,
  "GET-Qu": 1204,
  "GET-Que": 1205,
  "GET-Quer": 1206,
  "GET-Query": 1207,
  "ET-": 1208,
  "ET-Q": 1209,
  "ET-Qu": 1210,
  "ET-Que": 1211,
  "ET-Quer": 1212,
  "ET-Query": 1213,
  "T-Q": 1214,
  "T-Qu": 1215,
  "T-Que": 1216,
  "T-Quer": 1217,
  "T-Query": 1218,
  "-Q": 1219,
  "-Qu": 1220,
  "-Que": 1221,
  "-Quer": 1222,
  "-Query": 1223,
  "Que": 1224,
  "Quer": 1225,
  "Query": 1226,
  "uery": 1227,
  "ery": 1228,
  ":": 1229,
  "ai": 1230,
  "oz": 1231,
  "a/": 1232,
  "im": 1233,
  "/*": 1234,
  "Mo": 1235,
  "om": 1236,
  "nd": 1237,
  "zi": 1238,
  "ill": 1239,
  "re": 1240,
  "B": 1241,
  "/<": 1242,
  "%5": 1243,
  "da": 1244,
  "1.1": 1245,
  "Moz": 1246,
  "Mozi": 1247,
  "Mozil": 1248,
  "Mozill": 1249,
  "Mozilla": 1250,
  "Mozilla/": 1251,
  "ozi": 1252,
  "ozil": 1253,
  "ozill": 1254,
  "ozilla": 1255,
  "ozilla/": 1256,
  "zil": 1257,
  "zill": 1258,
  "zilla": 1259,
  "zilla/": 1260,
  "illa": 1261,
  "illa/": 1262,
  "lla": 1263,
  "lla/": 1264,
  "la/": 1265,
  "ck": 1266,
  "ko": 1267,
  "gi": 1268,
  "+++": 1269,
  "HTTP/1.1": 1270,
  "TTP/1.1": 1271,
  "TP/1.1": 1272,
  "P/1.1": 1273,
  "/1.1": 1274,
  ".9": 1275,
  "ima": 1276,
  "e;": 1277,
  "eck": 1278,
  "imag": 1279,
  "image": 1280,
  "mag": 1281,
  "mage": 1282,
  "mp": 1283,
  "ib": 1284,
  "Ge": 1285,
  "Gec": 1286,
  "Geck": 1287,
  "Gecko": 1288,
  "ecko": 1289,
  "cko": 1290,
  "F": 1291,
  "UM": 1292,
  "ww": 1293,
  "ke": 1294,
  "do": 1295,
  "<NUM": 1296,
  "<NUM_": 1297,
  "<NUM_L": 1298,
  "<NUM_LO": 1299,
  "<NUM_LON": 1300,
  "<NUM_LONG": 1301,
  "NUM": 1302,
  "NUM_": 1303,
  "NUM_L": 1304,
  "NUM_LO": 1305,
  "NUM_LON": 1306,
  "NUM_LONG": 1307,
  "NUM_LONG>": 1308,
  "UM_": 1309,
  "UM_L": 1310,
  "UM_LO": 1311,
  "UM_LON": 1312,
  "UM_LONG": 1313,
  "UM_LONG>": 1314,
  "M_": 1315,
  "M_L": 1316,
  "M_LO": 1317,
  "M_LON": 1318,
  "M_LONG": 1319,
  "M_LONG>": 1320,
  "%3": 1321,
  ";q<ESC_EQ>0.9": 1322,
  "q<ESC_EQ>0.9": 1323,
  "<ESC_EQ>0.9": 1324,
  "ESC_EQ>0.9": 1325,
  "SC_EQ>0.9": 1326,
  "C_EQ>0.9": 1327,
  "_EQ>0.9": 1328,
  "EQ>0.9": 1329,
  "Q>0.9": 1330,
  ">0.9": 1331,
  "0.9": 1332,
  "/5": 1333,
  "pat": 1334,
  "_LONG>&": 1335,
  "LONG>&": 1336,
  "ONG>&": 1337,
  "NG>&": 1338,
  "G>&": 1339,
  ">&": 1340,
  "cl": 1341,
  "l+": 1342,
  ";q<ESC_EQ>0.8": 1343,
  "q<ESC_EQ>0.8": 1344,
  "<ESC_EQ>0.8": 1345,
  "ESC_EQ>0.8": 1346,
  "SC_EQ>0.8": 1347,
  "C_EQ>0.8": 1348,
  "_EQ>0.8": 1349,
  "EQ>0.8": 1350,
  "Q>0.8": 1351,
  ">0.8": 1352,
  "0.8": 1353,
  "*/": 1354,
  "*/*": 1355,
  "8;": 1356,
  "/5.": 1357,
  "ibl": 1358,
  "r/": 1359,
  "5;": 1360,
  "nu": 1361,
  "is": 1362,
  "/<I": 1363,
  "/<ID": 1364,
  "/<ID_": 1365,
  "/<ID_L": 1366,
  "/<ID_LO": 1367,
  "/<ID_LON": 1368,
  "/<ID_LONG": 1369,
  "/<ID_LONG>": 1370,
  "o/": 1371,
  "&<": 1372,
  "&<I": 1373,
  "&<ID": 1374,
  "&<ID_": 1375,
  "&<ID_L": 1376,
  "&<ID_LO": 1377,
  "&<ID_LON": 1378,
  "&<ID_LONG": 1379,
  "&<ID_LONG>": 1380,
  "oc": 1381,
  ":8": 1382,
  "clo": 1383,
  "clos": 1384,
  "close": 1385,
  "los": 1386,
  "lose": 1387,
  "ose": 1388,
  "e/": 1389,
  "/*;": 1390,
  "/*;q": 1391,
  "/*;q<": 1392,
  "/*;q<E": 1393,
  "/*;q<ES": 1394,
  "/*;q<ESC": 1395,
  "/*;q<ESC_": 1396,
  "/*;q<ESC_E": 1397,
  "/*;q<ESC_EQ": 1398,
  "/*;q<ESC_EQ>": 1399,
  "/*;q<ESC_EQ>0": 1400,
  "/*;q<ESC_EQ>0.": 1401,
  "J": 1402,
  "SI": 1403,
  "(c": 1404,
  "(co": 1405,
  "(com": 1406,
  "(comp": 1407,
  "(compa": 1408,
  "(compat": 1409,
  "(compati": 1410,
  "(compatib": 1411,
  "(compatibl": 1412,
  "(compatible": 1413,
  "(compatible;": 1414,
  "com": 1415,
  "comp": 1416,
  "compa": 1417,
  "compat": 1418,
  "compati": 1419,
  "compatib": 1420,
  "compatibl": 1421,
  "compatible": 1422,
  "compatible;": 1423,
  "omp": 1424,
  "ompa": 1425,
  "ompat": 1426,
  "ompati": 1427,
  "ompatib": 1428,
  "ompatibl": 1429,
  "ompatible": 1430,
  "ompatible;": 1431,
  "mpa": 1432,
  "mpat": 1433,
  "mpati": 1434,
  "mpatib": 1435,
  "mpatibl": 1436,
  "mpatible": 1437,
  "mpatible;": 1438,
  "pati": 1439,
  "patib": 1440,
  "patibl": 1441,
  "patible": 1442,
  "patible;": 1443,
  "atib": 1444,
  "atibl": 1445,
  "atible": 1446,
  "atible;": 1447,
  "tib": 1448,
  "tibl": 1449,
  "tible": 1450,
  "tible;": 1451,
  "ible": 1452,
  "ible;": 1453,
  "ble": 1454,
  "ble;": 1455,
  "le;": 1456,
  "nq": 1457,
  "qu": 1458,
  "ror": 1459,
  ".5;": 1460,
  "5.8": 1461,
  "es": 1462,
  "&<ID_LONG><": 1463,
  "&<ID_LONG><E": 1464,
  "&<ID_LONG><ES": 1465,
  "&<ID_LONG><ESC": 1466,
  "&<ID_LONG><ESC_": 1467,
  "&<ID_LONG><ESC_E": 1468,
  "%5C": 1469,
  "5C": 1470,
  "/t": 1471,
  "lh": 1472,
  ":80": 1473,
  "08": 1474,
  "text/x": 1475,
  "text/xm": 1476,
  "text/xml": 1477,
  "ext/x": 1478,
  "ext/xm": 1479,
  "ext/xml": 1480,
  "xt/x": 1481,
  "xt/xm": 1482,
  "xt/xml": 1483,
  "t/x": 1484,
  "t/xm": 1485,
  "t/xml": 1486,
  ";q<ESC_EQ>0.9,": 1487,
  "q<ESC_EQ>0.9,": 1488,
  "<ESC_EQ>0.9,": 1489,
  "ESC_EQ>0.9,": 1490,
  "SC_EQ>0.9,": 1491,
  "C_EQ>0.9,": 1492,
  "_EQ>0.9,": 1493,
  "EQ>0.9,": 1494,
  "Q>0.9,": 1495,
  ">0.9,": 1496,
  "0.9,": 1497,
  ".9,": 1498,
  "9,": 1499,
  ";q<ESC_EQ>0.8,": 1500,
  "q<ESC_EQ>0.8,": 1501,
  "<ESC_EQ>0.8,": 1502,
  "ESC_EQ>0.8,": 1503,
  "SC_EQ>0.8,": 1504,
  "C_EQ>0.8,": 1505,
  "_EQ>0.8,": 1506,
  "EQ>0.8,": 1507,
  "Q>0.8,": 1508,
  ">0.8,": 1509,
  "0.8,": 1510,
  ".8,": 1511,
  "pn": 1512,
  "Mozilla/5": 1513,
  "Mozilla/5.": 1514,
  "ozilla/5": 1515,
  "ozilla/5.": 1516,
  "zilla/5": 1517,
  "zilla/5.": 1518,
  "illa/5": 1519,
  "illa/5.": 1520,
  "lla/5": 1521,
  "lla/5.": 1522,
  "la/5": 1523,
  "la/5.": 1524,
  "a/5": 1525,
  "a/5.": 1526,
  "808": 1527,
  "text/xml,": 1528,
  "ext/xml,": 1529,
  "xt/xml,": 1530,
  "t/xml,": 1531,
  "+x": 1532,
  "/h": 1533,
  "ml;": 1534,
  "ml;q": 1535,
  "ml;q<": 1536,
  "ml;q<E": 1537,
  "ml;q<ES": 1538,
  "ml;q<ESC": 1539,
  "ml;q<ESC_": 1540,
  "ml;q<ESC_E": 1541,
  "ml;q<ESC_EQ": 1542,
  "ml;q<ESC_EQ>": 1543,
  "ml;q<ESC_EQ>0": 1544,
  "ml;q<ESC_EQ>0.": 1545,
  "l;": 1546,
  "l;q": 1547,
  "l;q<": 1548,
  "l;q<E": 1549,
  "l;q<ES": 1550,
  "l;q<ESC": 1551,
  "l;q<ESC_": 1552,
  "l;q<ESC_E": 1553,
  "l;q<ESC_EQ": 1554,
  "l;q<ESC_EQ>": 1555,
  "l;q<ESC_EQ>0": 1556,
  "l;q<ESC_EQ>0.": 1557,
  "text/p": 1558,
  "text/pl": 1559,
  "text/pla": 1560,
  "text/plai": 1561,
  "text/plain": 1562,
  "text/plain;": 1563,
  "text/plain;q": 1564,
  "text/plain;q<": 1565,
  "text/plain;q<E": 1566,
  "text/plain;q<ES": 1567,
  "text/plain;q<ESC": 1568,
  "ext/p": 1569,
  "ext/pl": 1570,
  "ext/pla": 1571,
  "ext/plai": 1572,
  "ext/plain": 1573,
  "ext/plain;": 1574,
  "ext/plain;q": 1575,
  "ext/plain;q<": 1576,
  "ext/plain;q<E": 1577,
  "ext/plain;q<ES": 1578,
  "ext/plain;q<ESC": 1579,
  "ext/plain;q<ESC_": 1580,
  "xt/p": 1581,
  "xt/pl": 1582,
  "xt/pla": 1583,
  "xt/plai": 1584,
  "xt/plain": 1585,
  "xt/plain;": 1586,
  "xt/plain;q": 1587,
  "xt/plain;q<": 1588,
  "xt/plain;q<E": 1589,
  "xt/plain;q<ES": 1590,
  "xt/plain;q<ESC": 1591,
  "xt/plain;q<ESC_": 1592,
  "xt/plain;q<ESC_E": 1593,
  "t/p": 1594,
  "t/pl": 1595,
  "t/pla": 1596,
  "t/plai": 1597,
  "t/plain": 1598,
  "t/plain;": 1599,
  "t/plain;q": 1600,
  "t/plain;q<": 1601,
  "t/plain;q<E": 1602,
  "t/plain;q<ES": 1603,
  "t/plain;q<ESC": 1604,
  "t/plain;q<ESC_": 1605,
  "t/plain;q<ESC_E": 1606,
  "t/plain;q<ESC_EQ": 1607,
  "/pl": 1608,
  "/pla": 1609,
  "/plai": 1610,
  "/plain": 1611,
  "/plain;": 1612,
  "/plain;q": 1613,
  "/plain;q<": 1614,
  "/plain;q<E": 1615,
  "/plain;q<ES": 1616,
  "/plain;q<ESC": 1617,
  "/plain;q<ESC_": 1618,
  "/plain;q<ESC_E": 1619,
  "/plain;q<ESC_EQ": 1620,
  "/plain;q<ESC_EQ>": 1621,
  "pla": 1622,
  "plai": 1623,
  "plain": 1624,
  "plain;": 1625,
  "plain;q": 1626,
  "plain;q<": 1627,
  "plain;q<E": 1628,
  "plain;q<ES": 1629,
  "plain;q<ESC": 1630,
  "plain;q<ESC_": 1631,
  "plain;q<ESC_E": 1632,
  "plain;q<ESC_EQ": 1633,
  "plain;q<ESC_EQ>": 1634,
  "plain;q<ESC_EQ>0": 1635,
  "lai": 1636,
  "lain": 1637,
  "lain;": 1638,
  "lain;q": 1639,
  "lain;q<": 1640,
  "lain;q<E": 1641,
  "lain;q<ES": 1642,
  "lain;q<ESC": 1643,
  "lain;q<ESC_": 1644,
  "lain;q<ESC_E": 1645,
  "lain;q<ESC_EQ": 1646,
  "lain;q<ESC_EQ>": 1647,
  "lain;q<ESC_EQ>0": 1648,
  "lain;q<ESC_EQ>0.": 1649,
  "ain": 1650,
  "ain;": 1651,
  "ain;q": 1652,
  "ain;q<": 1653,
  "ain;q<E": 1654,
  "ain;q<ES": 1655,
  "ain;q<ESC": 1656,
  "ain;q<ESC_": 1657,
  "ain;q<ESC_E": 1658,
  "ain;q<ESC_EQ": 1659,
  "ain;q<ESC_EQ>": 1660,
  "ain;q<ESC_EQ>0": 1661,
  "ain;q<ESC_EQ>0.": 1662,
  "in;": 1663,
  "in;q": 1664,
  "in;q<": 1665,
  "in;q<E": 1666,
  "in;q<ES": 1667,
  "in;q<ESC": 1668,
  "in;q<ESC_": 1669,
  "in;q<ESC_E": 1670,
  "in;q<ESC_EQ": 1671,
  "in;q<ESC_EQ>": 1672,
  "in;q<ESC_EQ>0": 1673,
  "in;q<ESC_EQ>0.": 1674,
  "n;": 1675,
  "n;q": 1676,
  "n;q<": 1677,
  "n;q<E": 1678,
  "n;q<ES": 1679,
  "n;q<ESC": 1680,
  "n;q<ESC_": 1681,
  "n;q<ESC_E": 1682,
  "n;q<ESC_EQ": 1683,
  "n;q<ESC_EQ>": 1684,
  "n;q<ESC_EQ>0": 1685,
  "n;q<ESC_EQ>0.": 1686,
  "image/": 1687,
  "mage/": 1688,
  "age/": 1689,
  "ge/": 1690,
  "*/*;": 1691,
  "*/*;q": 1692,
  "*/*;q<": 1693,
  "*/*;q<E": 1694,
  "*/*;q<ES": 1695,
  "*/*;q<ESC": 1696,
  "*/*;q<ESC_": 1697,
  "*/*;q<ESC_E": 1698,
  "*/*;q<ESC_EQ": 1699,
  "*/*;q<ESC_EQ>": 1700,
  "*/*;q<ESC_EQ>0": 1701,
  "*/*;q<ESC_EQ>0.": 1702,
  "utf-8,": 1703,
  "tf-8,": 1704,
  "f-8,": 1705,
  "-8,": 1706,
  "5,": 1707,
  "SE": 1708,
  "SS": 1709,
  "SSI": 1710,
  "IO": 1711,
  "D<": 1712,
  "D<E": 1713,
  "D<ES": 1714,
  "D<ESC": 1715,
  "D<ESC_": 1716,
  "D<ESC_E": 1717,
  "D<ESC_EQ": 1718,
  "D<ESC_EQ>": 1719,
  "Mozilla/5.0": 1720,
  "ozilla/5.0": 1721,
  "zilla/5.0": 1722,
  "illa/5.0": 1723,
  "lla/5.0": 1724,
  "la/5.0": 1725,
  "a/5.0": 1726,
  "/5.0": 1727,
  "5.0": 1728,
  "Ko": 1729,
  "Kon": 1730,
  "Konq": 1731,
  "Konqu": 1732,
  "Konque": 1733,
  "Konquer": 1734,
  "Konquero": 1735,
  "Konqueror": 1736,
  "Konqueror/": 1737,
  "onq": 1738,
  "onqu": 1739,
  "onque": 1740,
  "onquer": 1741,
  "onquero": 1742,
  "onqueror": 1743,
  "onqueror/": 1744,
  "nqu": 1745,
  "nque": 1746,
  "nquer": 1747,
  "nquero": 1748,
  "nqueror": 1749,
  "nqueror/": 1750,
  "que": 1751,
  "quer": 1752,
  "quero": 1753,
  "queror": 1754,
  "queror/": 1755,
  "uero": 1756,
  "ueror": 1757,
  "ueror/": 1758,
  "ero": 1759,
  "eror": 1760,
  "eror/": 1761,
  "ror/": 1762,
  "or/": 1763,
  "3.5;": 1764,
  "Li": 1765,
  "Lin": 1766,
  "Linu": 1767,
  "Linux": 1768,
  "inu": 1769,
  "inux": 1770,
  "nux": 1771,
  "ux": 1772,
  "L/": 1773,
  ".5.": 1774,
  ".5.8": 1775,
  "ik": 1776,
  "o)": 1777,
  "'": 1778,
  "ien": 1779,
  "nda": 1780,
  "1/": 1781,
  "loc": 1782,
  "loca": 1783,
  "local": 1784,
  "localh": 1785,
  "localho": 1786,
  "localhos": 1787,
  "localhost": 1788,
  "localhost:": 1789,
  "localhost:8": 1790,
  "localhost:80": 1791,
  "localhost:808": 1792,
  "localhost:8080": 1793,
  "oca": 1794,
  "ocal": 1795,
  "ocalh": 1796,
  "ocalho": 1797,
  "ocalhos": 1798,
  "ocalhost": 1799,
  "ocalhost:": 1800,
  "ocalhost:8": 1801,
  "ocalhost:80": 1802,
  "ocalhost:808": 1803,
  "ocalhost:8080": 1804,
  "cal": 1805,
  "calh": 1806,
  "calho": 1807,
  "calhos": 1808,
  "calhost": 1809,
  "calhost:": 1810,
  "calhost:8": 1811,
  "calhost:80": 1812,
  "calhost:808": 1813,
  "calhost:8080": 1814,
  "alh": 1815,
  "alho": 1816,
  "alhos": 1817,
  "alhost": 1818,
  "alhost:": 1819,
  "alhost:8": 1820,
  "alhost:80": 1821,
  "alhost:808": 1822,
  "alhost:8080": 1823,
  "lho": 1824,
  "lhos": 1825,
  "lhost": 1826,
  "lhost:": 1827,
  "lhost:8": 1828,
  "lhost:80": 1829,
  "lhost:808": 1830,
  "lhost:8080": 1831,
  "hos": 1832,
  "host": 1833,
  "host:": 1834,
  "host:8": 1835,
  "host:80": 1836,
  "host:808": 1837,
  "host:8080": 1838,
  "ost:": 1839,
  "ost:8": 1840,
  "ost:80": 1841,
  "ost:808": 1842,
  "ost:8080": 1843,
  "st:": 1844,
  "st:8": 1845,
  "st:80": 1846,
  "st:808": 1847,
  "st:8080": 1848,
  "t:": 1849,
  "t:8": 1850,
  "t:80": 1851,
  "t:808": 1852,
  "t:8080": 1853,
  ":808": 1854,
  ":8080": 1855,
  "8080": 1856,
  "080": 1857,
  "text/xml,a": 1858,
  "text/xml,ap": 1859,
  "text/xml,app": 1860,
  "text/xml,appl": 1861,
  "text/xml,appli": 1862,
  "text/xml,applic": 1863,
  "text/xml,applica": 1864,
  "ext/xml,a": 1865,
  "ext/xml,ap": 1866,
  "ext/xml,app": 1867,
  "ext/xml,appl": 1868,
  "ext/xml,appli": 1869,
  "ext/xml,applic": 1870,
  "ext/xml,applica": 1871,
  "ext/xml,applicat": 1872,
  "xt/xml,a": 1873,
  "xt/xml,ap": 1874,
  "xt/xml,app": 1875,
  "xt/xml,appl": 1876,
  "xt/xml,appli": 1877,
  "xt/xml,applic": 1878,
  "xt/xml,applica": 1879,
  "xt/xml,applicat": 1880,
  "xt/xml,applicati": 1881,
  "t/xml,a": 1882,
  "t/xml,ap": 1883,
  "t/xml,app": 1884,
  "t/xml,appl": 1885,
  "t/xml,appli": 1886,
  "t/xml,applic": 1887,
  "t/xml,applica": 1888,
  "t/xml,applicat": 1889,
  "t/xml,applicati": 1890,
  "t/xml,applicatio": 1891,
  "l,application/xm": 1892,
  ",application/xm": 1893,
  ",application/xml": 1894,
  "application/xm": 1895,
  "application/xml": 1896,
  "application/xml,": 1897,
  "pplication/xm": 1898,
  "pplication/xml": 1899,
  "pplication/xml,": 1900,
  "pplication/xml,a": 1901,
  "plication/xm": 1902,
  "plication/xml": 1903,
  "plication/xml,": 1904,
  "plication/xml,a": 1905,
  "plication/xml,ap": 1906,
  "lication/xm": 1907,
  "lication/xml": 1908,
  "lication/xml,": 1909,
  "lication/xml,a": 1910,
  "lication/xml,ap": 1911,
  "lication/xml,app": 1912,
  "ication/xm": 1913,
  "ication/xml": 1914,
  "ication/xml,": 1915,
  "ication/xml,a": 1916,
  "ication/xml,ap": 1917,
  "ication/xml,app": 1918,
  "ication/xml,appl": 1919,
  "cation/xm": 1920,
  "cation/xml": 1921,
  "cation/xml,": 1922,
  "cation/xml,a": 1923,
  "cation/xml,ap": 1924,
  "cation/xml,app": 1925,
  "cation/xml,appl": 1926,
  "cation/xml,appli": 1927,
  "ation/xm": 1928,
  "ation/xml": 1929,
  "ation/xml,": 1930,
  "ation/xml,a": 1931,
  "ation/xml,ap": 1932,
  "ation/xml,app": 1933,
  "ation/xml,appl": 1934,
  "ation/xml,appli": 1935,
  "ation/xml,applic": 1936,
  "tion/xm": 1937,
  "tion/xml": 1938,
  "tion/xml,": 1939,
  "tion/xml,a": 1940,
  "tion/xml,ap": 1941,
  "tion/xml,app": 1942,
  "tion/xml,appl": 1943,
  "tion/xml,appli": 1944,
  "tion/xml,applic": 1945,
  "tion/xml,applica": 1946,
  "ion/xm": 1947,
  "ion/xml": 1948,
  "ion/xml,": 1949,
  "ion/xml,a": 1950,
  "ion/xml,ap": 1951,
  "ion/xml,app": 1952,
  "ion/xml,appl": 1953,
  "ion/xml,appli": 1954,
  "ion/xml,applic": 1955,
  "ion/xml,applica": 1956,
  "ion/xml,applicat": 1957,
  "on/xm": 1958,
  "on/xml": 1959,
  "on/xml,": 1960,
  "on/xml,a": 1961,
  "on/xml,ap": 1962,
  "on/xml,app": 1963,
  "on/xml,appl": 1964,
  "on/xml,appli": 1965,
  "on/xml,applic": 1966,
  "on/xml,applica": 1967,
  "on/xml,applicat": 1968,
  "on/xml,applicati": 1969,
  "n/xm": 1970,
  "n/xml": 1971,
  "n/xml,": 1972,
  "n/xml,a": 1973,
  "n/xml,ap": 1974,
  "n/xml,app": 1975,
  "n/xml,appl": 1976,
  "n/xml,appli": 1977,
  "n/xml,applic": 1978,
  "n/xml,applica": 1979,
  "n/xml,applicat": 1980,
  "n/xml,applicati": 1981,
  "n/xml,applicatio": 1982,
  "l,application/xh": 1983,
  ",application/xh": 1984,
  ",application/xht": 1985,
  "application/xh": 1986,
  "application/xht": 1987,
  "application/xhtm": 1988,
  "pplication/xh": 1989,
  "pplication/xht": 1990,
  "pplication/xhtm": 1991,
  "pplication/xhtml": 1992,
  "plication/xh": 1993,
  "plication/xht": 1994,
  "plication/xhtm": 1995,
  "plication/xhtml": 1996,
  "plication/xhtml+": 1997,
  "lication/xh": 1998,
  "lication/xht": 1999,
  "lication/xhtm": 2000,
  "lication/xhtml": 2001,
  "lication/xhtml+": 2002,
  "lication/xhtml+x": 2003,
  "ication/xh": 2004,
  "ication/xht": 2005,
  "ication/xhtm": 2006,
  "ication/xhtml": 2007,
  "ication/xhtml+": 2008,
  "ication/xhtml+x": 2009,
  "ication/xhtml+xm": 2010,
  "cation/xh": 2011,
  "cation/xht": 2012,
  "cation/xhtm": 2013,
  "cation/xhtml": 2014,
  "cation/xhtml+": 2015,
  "cation/xhtml+x": 2016,
  "cation/xhtml+xm": 2017,
  "cation/xhtml+xml": 2018,
  "ation/xh": 2019,
  "ation/xht": 2020,
  "ation/xhtm": 2021,
  "ation/xhtml": 2022,
  "ation/xhtml+": 2023,
  "ation/xhtml+x": 2024,
  "ation/xhtml+xm": 2025,
  "ation/xhtml+xml": 2026,
  "ation/xhtml+xml,": 2027,
  "tion/xh": 2028,
  "tion/xht": 2029,
  "tion/xhtm": 2030,
  "tion/xhtml": 2031,
  "tion/xhtml+": 2032,
  "tion/xhtml+x": 2033,
  "tion/xhtml+xm": 2034,
  "tion/xhtml+xml": 2035,
  "tion/xhtml+xml,": 2036,
  "tion/xhtml+xml,t": 2037,
  "ion/xh": 2038,
  "ion/xht": 2039,
  "ion/xhtm": 2040,
  "ion/xhtml": 2041,
  "ion/xhtml+": 2042,
  "ion/xhtml+x": 2043,
  "ion/xhtml+xm": 2044,
  "ion/xhtml+xml": 2045,
  "ion/xhtml+xml,": 2046,
  "ion/xhtml+xml,t": 2047
}