{
  "version": "1.0",
  "truncation": null,
  "padding": null,
  "added_tokens": [
    {
      "id": 0,
      "content": "[PAD]",
      "single_word": false,
      "lstrip": false,
      "rstrip": false,
      "normalized": false,
      "special": true
    },
    {
      "id": 1,
      "content": "[UNK]",
      "single_word": false,
      "lstrip": false,
      "rstrip": false,
      "normalized": false,
      "special": true
    },
    {
      "id": 2,
      "content": "[CLS]",
      "single_word": false,
      "lstrip": false,
      "rstrip": false,
      "normalized": false,
      "special": true
    },
    {
      "id": 3,
      "content": "[SEP]",
      "single_word": false,
      "lstrip": false,
      "rstrip": false,
      "normalized": false,
      "special": true
    },
    {
      "id": 4,
      "content": "[MASK]",
      "single_word": false,
      "lstrip": false,
      "rstrip": false,
      "normalized": false,
      "special": true
    }
  ],
  "normalizer": {
    "type": "NFKC"
  },
  "pre_tokenizer": {
    "type": "Whitespace"
  },
  "post_processor": null,
  "decoder": null,
  "model": {
    "type": "BPE",
    "dropout": null,
    "unk_token": "[UNK]",
    "continuing_subword_prefix": null,
    "end_of_word_suffix": null,
    "fuse_unk": false,
    "byte_fallback": false,
    "ignore_merges": false,
    "vocab": {
      "[PAD]": 0,
      "[UNK]": 1,
      "[CLS]": 2,
      "[SEP]": 3,
      "[MASK]": 4,
      "!": 5,
      "#": 6,
      "$": 7,
      "%": 8,
      "&": 9,
      "'": 10,
      "(": 11,
      ")": 12,
      "*": 13,
      "+": 14,
      ",": 15,
      "-": 16,
      ".": 17,
      "/": 18,
      "0": 19,
      "1": 20,
      "2": 21,
      "3": 22,
      "4": 23,
      "5": 24,
      "6": 25,
      "7": 26,
      "8": 27,
      "9": 28,
      ":": 29,
      ";": 30,
      "<": 31,
      "=": 32,
      ">": 33,
      "?": 34,
      "@": 35,
      "A": 36,
      "B": 37,
      "C": 38,
      "D": 39,
      "E": 40,
      "F": 41,
      "G": 42,
      "H": 43,
      "I": 44,
      "J": 45,
      "K": 46,
      "L": 47,
      "M": 48,
      "N": 49,
      "O": 50,
      "P": 51,
      "Q": 52,
      "R": 53,
      "S": 54,
      "T": 55,
      "U": 56,
      "V": 57,
      "W": 58,
      "X": 59,
      "Y": 60,
      "Z": 61,
      "[": 62,
      "\\": 63,
      "]": 64,
      "_": 65,
      "`": 66,
      "a": 67,
      "b": 68,
      "c": 69,
      "d": 70,
      "e": 71,
      "f": 72,
      "g": 73,
      "h": 74,
      "i": 75,
      "j": 76,
      "k": 77,
      "l": 78,
      "m": 79,
      "n": 80,
      "o": 81,
      "p": 82,
      "q": 83,
      "r": 84,
      "s": 85,
      "t": 86,
      "u": 87,
      "v": 88,
      "w": 89,
      "x": 90,
      "y": 91,
      "z": 92,
      "{": 93,
      "|": 94,
      "}": 95,
      "~": 96,
      "SE": 97,
      "SEP": 98,
      "SC": 99,
      "_E": 100,
      "ESC": 101,
      "_EQ": 102,
      "ESC_EQ": 103,
      "on": 104,
      "en": 105,
      "ti": 106,
      "ca": 107,
      "er": 108,
      "os": 109,
      "ml": 110,
      "li": 111,
      "ce": 112,
      "ent": 113,
      "pt": 114,
      "ag": 115,
      "cce": 116,
      "Con": 117,
      "ccept": 118,
      "Accept": 119,
      "ch": 120,
      "LL": 121,
      "NU": 122,
      "=<": 123,
      "NULL": 124,
      "tion": 125,
      "ost": 126,
      "che": 127,
      "te": 128,
      "in": 129,
      "et": 130,
      "ec": 131,
      "xt": 132,
      "text": 133,
      "xml": 134,
      "tent": 135,
      "Host": 136,
      "Content": 137,
      "no": 138,
      "ar": 139,
      "ap": 140,
      "la": 141,
      "age": 142,
      "ng": 143,
      "cation": 144,
      "ET": 145,
      "pli": 146,
      "plication": 147,
      "application": 148,
      "GET": 149,
      "uer": 150,
      "HT": 151,
      "*;": 152,
      "ht": 153,
      "co": 154,
      "80": 155,
      "cache": 156,
      "ut": 157,
      "tr": 158,
      "or": 159,
      "ad": 160,
      "html": 161,
      "utf": 162,
      "ma": 163,
      "ie": 164,
      "od": 165,
      "ta": 166,
      "OS": 167,
      "POS": 168,
      "POST": 169,
      "tro": 170,
      "il": 171,
      "th": 172,
      "oo": 173,
      "lo": 174,
      "pe": 175,
      "EC": 176,
      "ser": 177,
      "Ca": 178,
      "le": 179,
      "La": 180,
      "kie": 181,
      "Da": 182,
      "con": 183,
      "set": 184,
      "He": 185,
      "nec": 186,
      "ND": 187,
      "RI": 188,
      "Ag": 189,
      "Ch": 190,
      "eth": 191,
      "Pr": 192,
      "eng": 193,
      "Ty": 194,
      "TP": 195,
      "=/": 196,
      "ader": 197,
      "ngu": 198,
      "uery": 199,
      "Connec": 200,
      "Coo": 201,
      "Data": 202,
      "Type": 203,
      "trol": 204,
      "Char": 205,
      "Query": 206,
      "URI": 207,
      "agma": 208,
      "REC": 209,
      "User": 210,
      "control": 211,
      "Cache": 212,
      "ethod": 213,
      "END": 214,
      "Leng": 215,
      "Method": 216,
      "HTTP": 217,
      "Langu": 218,
      "Header": 219,
      "Agent": 220,
      "Pragma": 221,
      "Connection": 222,
      "Cookie": 223,
      "Charset": 224,
      "Length": 225,
      "Language": 226,
      "pa": 227,
      "im": 228,
      "++": 229,
      "ww": 230,
      "oz": 231,
      "illa": 232,
      "ke": 233,
      "ko": 234,
      "/*;": 235,
      "cl": 236,
      "Moz": 237,
      "Mozilla": 238,
      "ose": 239,
      "da": 240,
      "Gec": 241,
      "Gecko": 242,
      "close": 243,
      "com": 244,
      "*/*;": 245,
      "image": 246,
      "lh": 247,
      "ble": 248,
      "pla": 249,
      "compa": 250,
      "tible": 251,
      "compatible": 252,
      "ux": 253,
      "png": 254,
      "SI": 255,
      "Lin": 256,
      "Linux": 257,
      "quer": 258,
      "like": 259,
      "Kon": 260,
      "queror": 261,
      "Konqueror": 262,
      "ON": 263,
      "plain": 264,
      "ID": 265,
      "ML": 266,
      "lhost": 267,
      "loca": 268,
      "localhost": 269,
      "SES": 270,
      "KHT": 271,
      ",*/*;": 272,
      "JSES": 273,
      "xhtml": 274,
      "SION": 275,
      "KHTML": 276,
      "JSESSION": 277,
      "JSESSIONID": 278,
      "8080": 279,
      "re": 280,
      "tien": 281,
      "da1": 282,
      "tienda1": 283,
      "25": 284,
      "is": 285,
      "sp": 286,
      "de": 287,
      "jsp": 288,
      "ci": 289,
      "27": 290,
      "www": 291,
      "ub": 292,
      "2F": 293,
      "es": 294,
      "pub": 295,
      "lico": 296,
      "publico": 297,
      "mb": 298,
      "ir": 299,
      "29": 300,
      "B1": 301,
      "an": 302,
      "ur": 303,
      "40": 304,
      "ss": 305,
      "28": 306,
      "it": 307,
      "for": 308,
      "io": 309,
      "form": 310,
      "pr": 311,
      "al": 312,
      "gis": 313,
      "ee": 314,
      "3D": 315,
      "22": 316,
      "len": 317,
      "85": 318,
      "do": 319,
      "el": 320,
      "ded": 321,
      "lenco": 322,
      "urlenco": 323,
      "urlencoded": 324,
      "as": 325,
      "nt": 326,
      "11": 327,
      "2C": 328,
      "3A": 329,
      "23": 330,
      "log": 331,
      "odo": 332,
      "car": 333,
      "10": 334,
      "modo": 335,
      "20": 336,
      "15": 337,
      "ni": 338,
      "26": 339,
      "=*": 340,
      "ud": 341,
      "24": 342,
      "17": 343,
      "19": 344,
      "id": 345,
      "13": 346,
      "me": 347,
      "86": 348,
      "if": 349,
      "st": 350,
      "5C": 351,
      "16": 352,
      "3C": 353,
      "87": 354,
      "+%": 355,
      "46": 356,
      "++++": 357,
      "3E": 358,
      "47": 359,
      "mbre": 360,
      "90": 361,
      "nombre": 362,
      "ri": 363,
      "37": 364,
      "regis": 365,
      "registro": 366,
      "ea": 367,
      "cia": 368,
      "login": 369,
      "45": 370,
      "trar": 371,
      "cp": 372,
      "30": 373,
      "3B": 374,
      "pass": 375,
      "39": 376,
      "ov": 377,
      "36": 378,
      ">%": 379,
      "3F": 380,
      "89": 381,
      "ws": 382,
      "ros": 383,
      "49": 384,
      "2B": 385,
      "oe": 386,
      "mie": 387,
      "35": 388,
      "ae": 389,
      "/*": 390,
      "mbros": 391,
      "miembros": 392,
      "=*;": 393,
      "sh": 394,
      "256": 395,
      "ne": 396,
      "at": 397,
      "ro": 398,
      "Re": 399,
      "passw": 400,
      "..": 401,
      "indo": 402,
      "56": 403,
      "ed": 404,
      "mail": 405,
      "ep": 406,
      "18": 407,
      "ac": 408,
      "50": 409,
      "14": 410,
      "76": 411,
      "dir": 412,
      "ve": 413,
      "se": 414,
      "70": 415,
      "ra": 416,
      "rv": 417,
      "sa": 418,
      "5D": 419,
      "7C": 420,
      "tp": 421,
      "ia": 422,
      "F1": 423,
      "enes": 424,
      "34": 425,
      "ord": 426,
      "lid": 427,
      "cion": 428,
      "indows": 429,
      "agenes": 430,
      "imagenes": 431,
      "na": 432,
      "E9": 433,
      "ito": 434,
      "tt": 435,
      "adir": 436,
      "iso": 437,
      "udad": 438,
      "dni": 439,
      "ntc": 440,
      "mac": 441,
      "eccion": 442,
      "password": 443,
      "email": 444,
      "incia": 445,
      "ecio": 446,
      "apel": 447,
      "prov": 448,
      "ciudad": 449,
      "direccion": 450,
      "lidos": 451,
      "apellidos": 452,
      "provincia": 453,
      "precio": 454,
      "Regis": 455,
      "Registrar": 456,
      "79": 457,
      "38": 458,
      "59": 459,
      "carr": 460,
      "so": 461,
      "5B": 462,
      "carrito": 463,
      "he": 464,
      "rar": 465,
      "sc": 466,
      "ali": 467,
      "21": 468,
      "ot": 469,
      "74": 470,
      "60": 471,
      "ED": 472,
      "gif": 473,
      "entrar": 474,
      ">'": 475,
      "rr": 476,
      "ic": 477,
      "84": 478,
      "keep": 479,
      "alive": 480,
      "66": 481,
      "859": 482,
      "vi": 483,
      "am": 484,
      "E0": 485,
      "2A": 486,
      "2D": 487,
      "un": 488,
      "75": 489,
      "uc": 490,
      "99": 491,
      "ns": 492,
      "eo": 493,
      "to": 494,
      "88": 495,
      "EB": 496,
      "8859": 497,
      "44": 498,
      "EF": 499,
      "aci": 500,
      "jp": 501,
      "ue": 502,
      "EA": 503,
      "sr": 504,
      "ja": 505,
      "aciar": 506,
      "E6": 507,
      "55": 508,
      "00": 509,
      "77": 510,
      "tn": 511,
      "wd": 512,
      "En": 513,
      "sg": 514,
      "FA": 515,
      "ho": 516,
      "FC": 517,
      "ha": 518,
      "ts": 519,
      "ript": 520,
      "http": 521,
      "+&": 522,
      "96": 523,
      "ex": 524,
      "um": 525,
      "FD": 526,
      "BA": 527,
      "48": 528,
      "aa": 529,
      "nn": 530,
      "33": 531,
      "=*/*;": 532,
      "BC": 533,
      "125": 534,
      "ei": 535,
      "1C": 536,
      "max": 537,
      "1A": 538,
      "BD": 539,
      "tar": 540,
      "aut": 541,
      "windows": 542,
      "ul": 543,
      "=*/*": 544,
      "1D": 545,
      "eh": 546,
      "//": 547,
      "F0": 548,
      "si": 549,
      "B0": 550,
      "8D": 551,
      "sn": 552,
      "md": 553,
      "8A": 554,
      "4C": 555,
      "7A": 556,
      "7D": 557,
      "ph": 558,
      "cas": 559,
      "ter": 560,
      "F6": 561,
      "4A": 562,
      "tos": 563,
      "B6": 564,
      "can": 565,
      "--": 566,
      "4D": 567,
      "8C": 568,
      "inser": 569,
      "rt": 570,
      "F9": 571,
      "ol": 572,
      "F3": 573,
      "..%": 574,
      "jpg": 575,
      "ao": 576,
      "12": 577,
      "deo": 578,
      "69": 579,
      "tid": 580,
      "script": 581,
      "ih": 582,
      "les": 583,
      "ly": 584,
      "57": 585,
      "B9": 586,
      "tm": 587,
      "us": 588,
      "5A": 589,
      "min": 590,
      "enti": 591,
      "ff": 592,
      "anadir": 593,
      "aud": 594,
      "pwd": 595,
      "red": 596,
      "ob": 597,
      "video": 598,
      "cantid": 599,
      "cantidad": 600,
      "09": 601,
      "sy": 602,
      "7E": 603,
      "nd": 604,
      "nr": 605,
      "agar": 606,
      "mber": 607,
      "F1adir": 608,
      "wa": 609,
      "err": 610,
      "autenti": 611,
      "autenticar": 612,
      "bal": 613,
      "itar": 614,
      "2E": 615,
      "audio": 616,
      "58": 617,
      "78": 618,
      "pagar": 619,
      "oa": 620,
      "member": 621,
      "remember": 622,
      "++++%": 623,
      "editar": 624,
      "be": 625,
      "tu": 626,
      "06": 627,
      "we": 628,
      "++%": 629,
      "ii": 630,
      "Entrar": 631,
      "54": 632,
      "+++%": 633,
      "td": 634,
      "nh": 635,
      "insertar": 636,
      "73": 637,
      "go": 638,
      "chin": 639,
      "+++": 640,
      "glo": 641,
      "gi": 642,
      "mo": 643,
      "ild": 644,
      "hr": 645,
      "global": 646,
      "Ma": 647,
      "0A": 648,
      "ab": 649,
      "ln": 650,
      "isti": 651,
      "ore": 652,
      "carac": 653,
      "teristi": 654,
      "caracteristi": 655,
      "caracteristicas": 656,
      "child": 657,
      "ah": 658,
      "encia": 659,
      "op": 660,
      "\\\\": 661,
      "ai": 662,
      "83": 663,
      "AD": 664,
      "CD": 665,
      "FF": 666,
      "sd": 667,
      "43": 668,
      "up": 669,
      "41": 670,
      "cn": 671,
      "BB": 672,
      "ll": 673,
      "Windows": 674,
      "ig": 675,
      "tas": 676,
      "+++++": 677,
      "0D": 678,
      "CA": 679,
      "2e": 680,
      "sta": 681,
      "orM": 682,
      "hn": 683,
      "errorM": 684,
      "errorMsg": 685,
      "ls": 686,
      "65": 687,
      "B2": 688,
      "98": 689,
      "67": 690,
      "rn": 691,
      "E1": 692,
      "di": 693,
      "vaciar": 694,
      "tosh": 695,
      "32": 696,
      "oh": 697,
      "270": 698,
      "au": 699,
      "eg": 700,
      "ste": 701,
      "em": 702,
      "fr": 703,
      "CC": 704,
      "EE": 705,
      "FB": 706,
      "lt": 707,
      "oi": 708,
      "31": 709,
      "ba": 710,
      "AA": 711,
      "ans": 712,
      "og": 713,
      "hs": 714,
      "ues": 715,
      "DD": 716,
      "inco": 717,
      "95": 718,
      "rs": 719,
      "ms": 720,
      "68": 721,
      "rrec": 722,
      "Cred": 723,
      "E7": 724,
      "mar": 725,
      "enciales": 726,
      "incorrec": 727,
      "Credenciales": 728,
      "wh": 729,
      "incorrectas": 730,
      "fre": 731,
      "wi": 732,
      "Vaciar": 733,
      "ect": 734,
      "peg": 735,
      "64": 736,
      "fe": 737,
      "ru": 738,
      "ye": 739,
      "://": 740,
      "81": 741,
      "E5": 742,
      "71": 743,
      "bi": 744,
      "tl": 745,
      "hi": 746,
      "osi": 747,
      "ing": 748,
      "ui": 749,
      "only": 750,
      "cached": 751,
      "Win": 752,
      "nc": 753,
      "bin": 754,
      "mt": 755,
      "E4": 756,
      "fresh": 757,
      "E8": 758,
      "05": 759,
      "97": 760,
      "NT": 761,
      "chintosh": 762,
      "Machintosh": 763,
      "6D": 764,
      "trans": 765,
      "/*,": 766,
      "transform": 767,
      "--%": 768,
      "ge": 769,
      "wn": 770,
      "ua": 771,
      "94": 772,
      "9D": 773,
      "6A": 774,
      "store": 775,
      "mi": 776,
      "ty": 777,
      "X11": 778,
      "men": 779,
      "9A": 780,
      "tw": 781,
      "BF": 782,
      "doc": 783,
      "osition": 784,
      "stale": 785,
      "ds": 786,
      "C0": 787,
      "eb": 788,
      "rh": 789,
      "F3n": 790,
      ".%": 791,
      "rm": 792,
      "str": 793,
      "dt": 794,
      "position": 795,
      "va": 796,
      "B5": 797,
      "net": 798,
      "om": 799,
      "72": 800,
      "ument": 801,
      "euc": 802,
      "DA": 803,
      "4F": 804,
      "De": 805,
      "UT": 806,
      "6C": 807,
      "hh": 808,
      "document": 809,
      "100": 810,
      "ld": 811,
      "i8": 812,
      "i5": 813,
      "por": 814,
      "tf": 815,
      "rd": 816,
      "1F": 817,
      "mn": 818,
      "eu": 819,
      "*%": 820,
      "ey": 821,
      "9C": 822,
      "per": 823,
      "qu": 824,
      "tb": 825,
      "lle": 826,
      "B7": 827,
      "php": 828,
      "cmd": 829,
      "kr": 830,
      "Pas": 831,
      "8F": 832,
      "logo": 833,
      "i3": 834,
      "lr": 835,
      "yr": 836,
      "63": 837,
      "01": 838,
      "ef": 839,
      "fir": 840,
      "uh": 841,
      "ay": 842,
      "dn": 843,
      "tc": 844,
      "93": 845,
      "07": 846,
      "oc": 847,
      "ps": 848,
      "61": 849,
      "53": 850,
      "coo": 851,
      "dr": 852,
      "04": 853,
      "91": 854,
      "uo": 855,
      "BE": 856,
      "PP": 857,
      "AC": 858,
      "PUT": 859,
      "08": 860,
      "sw": 861,
      "ert": 862,
      "51": 863,
      "2Fchild": 864,
      "Confir": 865,
      "Confirmar": 866,
      "ino": 867,
      "F7": 868,
      "ew": 869,
      "of": 870,
      "dex": 871,
      "ev": 872,
      "Calle": 873,
      "off": 874,
      "tg": 875,
      "ip": 876,
      "2563": 877,
      "DC": 878,
      "css": 879,
      "cookie": 880,
      "F5": 881,
      "Pasar": 882,
      "42": 883,
      "js": 884,
      "Al": 885,
      "caja": 886,
      "Mac": 887,
      "mr": 888,
      "nl": 889,
      "av": 890,
      "mh": 891,
      "mp": 892,
      "dh": 893,
      "sl": 894,
      "etc": 895,
      "by": 896,
      "bo": 897,
      "cz": 898,
      "0C": 899,
      "82": 900,
      "index": 901,
      "win": 902,
      "org": 903,
      "8E": 904,
      "exec": 905,
      "ib": 906,
      "Ib": 907,
      "../": 908,
      "4B": 909,
      "open": 910,
      "ek": 911,
      "4E": 912,
      "syste": 913,
      "Rio": 914,
      "gb": 915,
      "ya": 916,
      "za": 917,
      "8B": 918,
      "A0": 919,
      "ga": 920,
      "node": 921,
      "PPC": 922,
      "cs": 923,
      "cgi": 924,
      "jpeg": 925,
      "62": 926,
      "wg": 927,
      "xec": 928,
      "oy": 929,
      "2574": 930,
      "man": 931,
      "ct": 932,
      "and": 933,
      "uk": 934,
      "FE": 935,
      "cf": 936,
      "py": 937,
      "exe": 938,
      "af": 939,
      "acce": 940,
      "cr": 941,
      "aros": 942,
      "system": 943,
      "ck": 944,
      "ug": 945,
      "ini": 946,
      "hd": 947,
      "hl": 948,
      "Rioja": 949,
      "1E": 950,
      "Ar": 951,
      "nb": 952,
      "nf": 953,
      "0a": 954,
      "1B": 955,
      "pl": 956,
      "pen": 957,
      "sm": 958,
      "ny": 959,
      "A9": 960,
      "ks": 961,
      "pro": 962,
      "cat": 963,
      "wt": 964,
      "Man": 965,
      "eta": 966,
      "ude": 967,
      "5F": 968,
      "BS": 969,
      "passwd": 970,
      "A6": 971,
      "su": 972,
      "nk": 973,
      "ere": 974,
      "03": 975,
      "RO": 976,
      "unt": 977,
      "52": 978,
      "sb": 979,
      "oot": 980,
      "sf": 981,
      "dd": 982,
      "ou": 983,
      "je": 984,
      "7B": 985,
      "F8": 986,
      "iv": 987,
      "Ee": 988,
      "San": 989,
      "br": 990,
      "xp": 991,
      "nm": 992,
      "Vino": 993,
      "253A": 994,
      "2312": 995,
      "nu": 996,
      "C6": 997,
      "bas": 998,
      "rl": 999,
      "+++++%": 1000,
      "D0": 1001,
      "5E": 1002,
      "D6": 1003,
      "bg": 1004,
      "iy": 1005,
      "ft": 1006,
      "D9": 1007,
      "xe": 1008,
      "F4": 1009,
      "wp": 1010,
      "C9": 1011,
      "bt": 1012,
      "yle": 1013,
      "alert": 1014,
      "iu": 1015,
      "obj": 1016,
      "wo": 1017,
      "ez": 1018,
      "vb": 1019,
      "incl": 1020,
      ">+": 1021,
      "DE": 1022,
      "CF": 1023,
      "AB": 1024,
      "asp": 1025,
      "fa": 1026,
      "jo": 1027,
      "fo": 1028,
      "zar": 1029,
      "location": 1030,
      "winnt": 1031,
      "asf": 1032,
      "eE": 1033,
      "fro": 1034,
      "nw": 1035,
      "ona": 1036,
      "yo": 1037,
      "256F": 1038,
      "92": 1039,
      "gr": 1040,
      "hz": 1041,
      "e6": 1042,
      "mc": 1043,
      "sel": 1044,
      "Ques": 1045,
      "chego": 1046,
      "Manchego": 1047,
      "rc": 1048,
      "ada": 1049,
      "e7": 1050,
      "PT": 1051,
      "los": 1052,
      "7F": 1053,
      "B8": 1054,
      "e8": 1055,
      "Jam": 1056,
      "lu": 1057,
      "Na": 1058,
      "0d": 1059,
      "fi": 1060,
      "count": 1061,
      "E9ri": 1062,
      "include": 1063,
      "B4": 1064,
      "IN": 1065,
      "gt": 1066,
      "253D": 1067,
      "var": 1068,
      "tra": 1069,
      "bn": 1070,
      "style": 1071,
      "wide": 1072,
      "Sa": 1073,
      "e9": 1074,
      "2022": 1075,
      "era": 1076,
      "htm": 1077,
      "place": 1078,
      "110": 1079,
      "eq": 1080,
      "E3": 1081,
      "fn": 1082,
      "wr": 1083,
      "AF": 1084,
      "cu": 1085,
      "indow": 1086,
      "e4": 1087,
      "po": 1088,
      "Queso": 1089,
      "A5": 1090,
      "e1": 1091,
      "3A0": 1092,
      "9x": 1093,
      "gn": 1094,
      "Es": 1095,
      "gro": 1096,
      "hm": 1097,
      "2565": 1098,
      "iz": 1099,
      "2569": 1100,
      "tmp": 1101,
      "e5": 1102,
      "hy": 1103,
      "tz": 1104,
      "E9rico": 1105,
      "az": 1106,
      "ono": 1107,
      "106": 1108,
      "e0": 1109,
      "bh": 1110,
      "rf": 1111,
      "oexec": 1112,
      "ick": 1113,
      "und": 1114,
      "DB": 1115,
      "Open": 1116,
      "erra": 1117,
      "arab": 1118,
      "name": 1119,
      "BSD": 1120,
      "mu": 1121,
      "pn": 1122,
      "object": 1123,
      "D5": 1124,
      "ER": 1125,
      "gs": 1126,
      "yn": 1127,
      "i586": 1128,
      "ys": 1129,
      "del": 1130,
      "5Bposition": 1131,
      "bs": 1132,
      "dm": 1133,
      "hc": 1134,
      "window": 1135,
      "e3": 1136,
      "ow": 1137,
      "yt": 1138,
      "koi8": 1139,
      "arabic": 1140,
      "A7": 1141,
      "pi": 1142,
      "9E": 1143,
      "replace": 1144,
      "9B": 1145,
      "4u": 1146,
      "CB": 1147,
      "mx": 1148,
      "Er": 1149,
      "ej": 1150,
      "C5": 1151,
      "hf": 1152,
      "arr": 1153,
      "aw": 1154,
      "lc": 1155,
      "e2": 1156,
      "t5": 1157,
      "252F": 1158,
      "9F": 1159,
      "2529": 1160,
      "i0": 1161,
      "OR": 1162,
      "cess": 1163,
      "6F": 1164,
      "AE": 1165,
      "eT": 1166,
      "////": 1167,
      "t3": 1168,
      "cd": 1169,
      "from": 1170,
      "fot": 1171,
      "iw": 1172,
      "6E": 1173,
      "DF": 1174,
      "din": 1175,
      "gov": 1176,
      "hg": 1177,
      "hu": 1178,
      "t0": 1179,
      "i386": 1180,
      "tq": 1181,
      "lay": 1182,
      "idA": 1183,
      "Val": 1184,
      "struc": 1185,
      "-/": 1186,
      "2f": 1187,
      "ak": 1188,
      "t4": 1189,
      "time": 1190,
      "tiff": 1191,
      "dl": 1192,
      "tv": 1193,
      "uf": 1194,
      "instruc": 1195,
      "t6": 1196,
      "253E": 1197,
      "basic": 1198,
      "cessing": 1199,
      "instruction": 1200,
      "()": 1201,
      "dy": 1202,
      "136": 1203,
      "C1": 1204,
      "D7": 1205,
      "aj": 1206,
      "np": 1207,
      "t1": 1208,
      "quick": 1209,
      "A4": 1210,
      "tE": 1211,
      "quicktime": 1212,
      "C7": 1213,
      "iq": 1214,
      "tT": 1215,
      "admin": 1216,
      "date": 1217,
      "i1": 1218,
      "lb": 1219,
      "mpeg": 1220,
      "shtml": 1221,
      "A8": 1222,
      "Set": 1223,
      "bul": 1224,
      "D8": 1225,
      "253C": 1226,
      "936": 1227,
      "ix": 1228,
      "uni": 1229,
      "wl": 1230,
      "t9": 1231,
      "2522": 1232,
      "Tam": 1233,
      "had": 1234,
      "connec": 1235,
      "250A": 1236,
      "02": 1237,
      "CE": 1238,
      "t7": 1239,
      "ese": 1240,
      "biz": 1241,
      "0E": 1242,
      "du": 1243,
      "i4": 1244,
      "erm": 1245,
      "wav": 1246,
      "fotos": 1247,
      "gh": 1248,
      "ka": 1249,
      "oduc": 1250,
      "B2A": 1251,
      "fs": 1252,
      "ry": 1253,
      "t8": 1254,
      "lir": 1255,
      "processing": 1256,
      "Ri": 1257,
      "mm": 1258,
      "rp": 1259,
      "3A15": 1260,
      "tx": 1261,
      "hb": 1262,
      "produc": 1263,
      "Paros": 1264,
      "cmen": 1265,
      "vo": 1266,
      "wait": 1267,
      "productos": 1268,
      "To": 1269,
      "WH": 1270,
      "cript": 1271,
      "delay": 1272,
      "any": 1273,
      "itos": 1274,
      "3Bwait": 1275,
      "3Bwaitfor": 1276,
      "B3": 1277,
      "ody": 1278,
      "xp_": 1279,
      "cmenbul": 1280,
      "my": 1281,
      "tierra": 1282,
      "auz": 1283,
      "2a": 1284,
      "nq": 1285,
      "rI": 1286,
      "ss_": 1287,
      "iE": 1288,
      "n3": 1289,
      "6a": 1290,
      "nues": 1291,
      "4e": 1292,
      "titu": 1293,
      "htacce": 1294,
      "2BTam": 1295,
      "zarauz": 1296,
      "select": 1297,
      "ss_log": 1298,
      "2BTamper": 1299,
      "7e": 1300,
      "@/": 1301,
      "cred": 1302,
      "hw": 1303,
      "rg": 1304,
      "castro": 1305,
      "D4": 1306,
      "nz": 1307,
      "235": 1308,
      "hav": 1309,
      "ogono": 1310,
      "creditos": 1311,
      "bet": 1312,
      "sk": 1313,
      "sz": 1314,
      "tratierra": 1315,
      "nuestratierra": 1316,
      "C8": 1317,
      "qe": 1318,
      "cha": 1319,
      "titulo": 1320,
      "tk": 1321,
      "cho": 1322,
      "img": 1323,
      "WinNT": 1324,
      "950": 1325,
      "utdo": 1326,
      "6B": 1327,
      "A3": 1328,
      "rw": 1329,
      "1a": 1330,
      "cm": 1331,
      "fd": 1332,
      "t_": 1333,
      "ara": 1334,
      "strea": 1335,
      "ROM": 1336,
      "0F": 1337,
      "bd": 1338,
      "i7": 1339,
      "ces": 1340,
      "./": 1341,
      "9e": 1342,
      "gu": 1343,
      "t2": 1344,
      "esti": 1345,
      "menum": 1346,
      "../../": 1347,
      "_strea": 1348,
      "lm": 1349,
      "ECT": 1350,
      "B1A": 1351,
      "Ea": 1352,
      "sj": 1353,
      "teln": 1354,
      "inp": 1355,
      "tS": 1356,
      "passth": 1357,
      "4a": 1358,
      "6e": 1359,
      "Eo": 1360,
      "uy": 1361,
      "MSI": 1362,
      "i9": 1363,
      "tj": 1364,
      "user": 1365,
      "htpass": 1366,
      "all": 1367,
      "..\\\\": 1368,
      "El": 1369,
      "path": 1370,
      "_c": 1371,
      "ik": 1372,
      "ween": 1373,
      "0r": 1374,
      "2s": 1375,
      "FROM": 1376,
      "C4": 1377,
      "Tr": 1378,
      "estilos": 1379,
      "fh": 1380,
      "3D1": 1381,
      "update": 1382,
      "vbscript": 1383,
      "usr": 1384,
      "salir": 1385,
      "0B": 1386,
      "Or": 1387,
      "eN": 1388,
      "n5": 1389,
      "8a": 1390,
      "hp": 1391,
      "874": 1392,
      "Win98": 1393,
      "3e": 1394,
      "xa": 1395,
      "zo": 1396,
      "cb": 1397,
      "copy": 1398,
      "telnet": 1399,
      "MSIE": 1400,
      "Le": 1401,
      "fl": 1402,
      "s7": 1403,
      "290": 1404,
      "5c": 1405,
      "bre": 1406,
      "i6": 1407,
      "n7": 1408,
      "306": 1409,
      "ish": 1410,
      "205": 1411,
      "where": 1412,
      "1o": 1413,
      "334": 1414,
      "tI": 1415,
      "1e": 1416,
      "9a": 1417,
      "lw": 1418,
      "ero": 1419,
      "servi": 1420,
      "253F": 1421,
      "250ASet": 1422,
      "0e": 1423,
      "2o": 1424,
      "s5": 1425,
      "ora": 1426,
      "1r": 1427,
      "2r": 1428,
      "Gu": 1429,
      "gre": 1430,
      "mg": 1431,
      "vas": 1432,
      "yh": 1433,
      "wget": 1434,
      "8s": 1435,
      "ana": 1436,
      "7a": 1437,
      "8e": 1438,
      "Ro": 1439,
      "n4": 1440,
      "tur": 1441,
      "3a": 1442,
      "n9": 1443,
      "250": 1444,
      "iri": 1445,
      "nsf": 1446,
      "ull": 1447,
      "div": 1448,
      "having": 1449,
      "5e": 1450,
      "iT": 1451,
      "lete": 1452,
      "3o": 1453,
      "df": 1454,
      "rad": 1455,
      "tA": 1456,
      "234": 1457,
      "215": 1458,
      "Mar": 1459,
      "bu": 1460,
      "n0": 1461,
      "ifra": 1462,
      "9090": 1463,
      "nO": 1464,
      "yl": 1465,
      "boot": 1466,
      "nT": 1467,
      "pd": 1468,
      "ck_strea": 1469,
      "group": 1470,
      "4r": 1471,
      "n8": 1472,
      "3Anode": 1473,
      "shutdo": 1474,
      "D3": 1475,
      "sx": 1476,
      "tN": 1477,
      "stdin": 1478,
      "sock_strea": 1479,
      "dro": 1480,
      "sT": 1481,
      "sv": 1482,
      "7o": 1483,
      "i2": 1484,
      "nE": 1485,
      "s0": 1486,
      "s6": 1487,
      "union": 1488,
      "2561": 1489,
      "5o": 1490,
      "cc": 1491,
      "eS": 1492,
      "s8": 1493,
      "2Fetc": 1494,
      "input": 1495,
      "ment": 1496,
      "nph": 1497,
      "876": 1498,
      "0o": 1499,
      "486": 1500,
      "qa": 1501,
      "s3": 1502,
      "ze": 1503,
      "lib": 1504,
      "errorMsgA": 1505,
      "5a": 1506,
      "db": 1507,
      "n6": 1508,
      "NI": 1509,
      "tR": 1510,
      "....": 1511,
      "bri": 1512,
      "jr": 1513,
      "xy": 1514,
      "221": 1515,
      "autoexec": 1516,
      "..\\\\..\\\\": 1517,
      "Bar": 1518,
      "h9": 1519,
      "217": 1520,
      "7r": 1521,
      "dc": 1522,
      "fil": 1523,
      "sE": 1524,
      "sq": 1525,
      "tO": 1526,
      "xr": 1527,
      "yi": 1528,
      "hE": 1529,
      "SEL": 1530,
      "27http": 1531,
      "3r": 1532,
      "bl": 1533,
      "h5": 1534,
      "sun": 1535,
      "xterm": 1536,
      "8r": 1537,
      "mw": 1538,
      "2528": 1539,
      "home": 1540,
      "9o": 1541,
      "D1": 1542,
      "s1": 1543,
      "s2": 1544,
      "uu": 1545,
      "::": 1546,
      "dw": 1547,
      "hq": 1548,
      "iI": 1549,
      "iS": 1550,
      "130": 1551,
      "6o": 1552,
      "Gr": 1553,
      "240": 1554,
      "dg": 1555,
      "ij": 1556,
      "ice": 1557,
      "lv": 1558,
      "mf": 1559,
      "nS": 1560,
      "nx": 1561,
      "cfm": 1562,
      "ERE": 1563,
      "passthru": 1564,
      "hk": 1565,
      "897": 1566,
      "WHERE": 1567,
      "Ra": 1568,
      "eA": 1569,
      "eI": 1570,
      "h8": 1571,
      "iA": 1572,
      "2FN": 1573,
      "9r": 1574,
      "Ta": 1575,
      "cg": 1576,
      "delete": 1577,
      "-<": 1578,
      "127": 1579,
      "576": 1580,
      "body": 1581,
      "n1": 1582,
      "ena": 1583,
      "5r": 1584,
      "C3": 1585,
      "nA": 1586,
      "zr": 1587,
      "ina": 1588,
      "180": 1589,
      "140": 1590,
      "219": 1591,
      "932": 1592,
      "bj": 1593,
      "cy": 1594,
      "nN": 1595,
      "qo": 1596,
      "SCRI": 1597,
      "link": 1598,
      "167": 1599,
      "between": 1600,
      "SCRIPT": 1601,
      "Pa": 1602,
      "hv": 1603,
      "lf": 1604,
      "SELECT": 1605,
      "nv": 1606,
      "ox": 1607,
      "2527": 1608,
      "eee": 1609,
      "sound": 1610,
      "Sun": 1611,
      "javas": 1612,
      "mdb": 1613,
      "o7": 1614,
      "s9": 1615,
      "129": 1616,
      "h0": 1617,
      "2Fpasswd": 1618,
      "ack": 1619,
      "210": 1620,
      "dll": 1621,
      "jis": 1622,
      "lp": 1623,
      "illi": 1624,
      "cii": 1625,
      "aq": 1626,
      "bar": 1627,
      "dp": 1628,
      "eR": 1629,
      "o1": 1630,
      "139": 1631,
      "h3": 1632,
      "iO": 1633,
      "ok": 1634,
      "uel": 1635,
      "yd": 1636,
      "3747": 1637,
      "145": 1638,
      "a3": 1639,
      "tes": 1640,
      "land": 1641,
      "greek": 1642,
      "iframe": 1643,
      "hT": 1644,
      "l3": 1645,
      "qr": 1646,
      "tH": 1647,
      "226": 1648,
      "116": 1649,
      "1987": 1650,
      "sun4u": 1651,
      "SunOS": 1652,
      "a4": 1653,
      "ber": 1654,
      "eH": 1655,
      "h4": 1656,
      "hS": 1657,
      "oE": 1658,
      "oT": 1659,
      "255": 1660,
      "LI": 1661,
      "bc": 1662,
      "n2": 1663,
      "post": 1664,
      "yu": 1665,
      "143": 1666,
      "javascript": 1667,
      "146": 1668,
      "Sol": 1669,
      "a5": 1670,
      "ax": 1671,
      "msp": 1672,
      "s4": 1673,
      "2570": 1674,
      "231": 1675,
      "159": 1676,
      "2640": 1677,
      "160": 1678,
      "shutdown": 1679,
      "Cla": 1680,
      "iN": 1681,
      "oO": 1682,
      "tor": 1683,
      "185": 1684,
      "Ad": 1685,
      "gd": 1686,
      "ida": 1687,
      "o3": 1688,
      "o8": 1689,
      "250D": 1690,
      "220": 1691,
      "239": 1692,
      "206": 1693,
      "227": 1694,
      "big": 1695,
      "c1": 1696,
      "jn": 1697,
      "m6": 1698,
      "mz": 1699,
      "sI": 1700,
      "sR": 1701,
      "tee": 1702,
      "249": 1703,
      "190": 1704,
      "1255": 1705,
      "postscript": 1706,
      "9l": 1707,
      "A1": 1708,
      "gl": 1709,
      "h6": 1710,
      "mer": 1711,
      "las": 1712,
      "2573": 1713,
      "ucs": 1714,
      "access_log": 1715,
      ")(": 1716,
      "186": 1717,
      "Av": 1718,
      "In": 1719,
      "oS": 1720,
      "wm": 1721,
      "lin": 1722,
      "cel": 1723,
      "119": 1724,
      "228": 1725,
      "Ne": 1726,
      "a2": 1727,
      "bat": 1728,
      "h1": 1729,
      "h7": 1730,
      "o0": 1731,
      "oq": 1732,
      "aris": 1733,
      "118": 1734,
      "230": 1735,
      "236": 1736,
      "1041": 1737,
      "3342": 1738,
      "mspx": 1739,
      "Ed": 1740,
      "a7": 1741,
      "hO": 1742,
      "sS": 1743,
      "intosh": 1744,
      "ascii": 1745,
      "247": 1746,
      "169": 1747,
      "swf": 1748,
      "/.": 1749,
      "126": 1750,
      "_56": 1751,
      "a8": 1752,
      "a9": 1753,
      "dx": 1754,
      "m0": 1755,
      "paros": 1756,
      "rb": 1757,
      "tL": 1758,
      "yy": 1759,
      "252E": 1760,
      "isiri": 1761,
      "156": 1762,
      "179": 1763,
      "macintosh": 1764,
      "10646": 1765,
      "213": 1766,
      "o5": 1767,
      "o6": 1768,
      "rz": 1769,
      "imp": 1770,
      "248": 1771,
      "shif": 1772,
      "567": 1773,
      "ks_c": 1774,
      "2B1": 1775,
      "><": 1776,
      "Te": 1777,
      "c4": 1778,
      "fu": 1779,
      "jap": 1780,
      "256E": 1781,
      "t_jis": 1782,
      "_5601": 1783,
      "shift_jis": 1784,
      "ks_c_5601": 1785,
      "147": 1786,
      "Ae": 1787,
      "E2": 1788,
      "Pl": 1789,
      "lk": 1790,
      "1252": 1791,
      "big5": 1792,
      "Si": 1793,
      "dz": 1794,
      "hN": 1795,
      "kish": 1796,
      "nI": 1797,
      "nR": 1798,
      "wf": 1799,
      "1258": 1800,
      "11025": 1801,
      "turkish": 1802,
      "gf": 1803,
      "hj": 1804,
      "kore": 1805,
      "lz": 1806,
      "nj": 1807,
      "lan": 1808,
      "anese": 1809,
      "rtf": 1810,
      "msf": 1811,
      "253D1041": 1812,
      "374727": 1813,
      "264011025": 1814,
      "253D1041264011025": 1815,
      "253D1041264011025374727": 1816,
      "229": 1817,
      "EX": 1818,
      "cq": 1819,
      "cyr": 1820,
      "dis": 1821,
      "eses": 1822,
      "196": 1823,
      "sam": 1824,
      "1250": 1825,
      "brew": 1826,
      "korean": 1827,
      "bm": 1828,
      "sO": 1829,
      "tD": 1830,
      "uj": 1831,
      "244": 1832,
      "2Bdocument": 1833,
      "hebrew": 1834,
      "1254": 1835,
      "AND": 1836,
      "Cor": 1837,
      "Se": 1838,
      "a6": 1839,
      "bf": 1840,
      "o4": 1841,
      "sN": 1842,
      "135": 1843,
      "roman": 1844,
      "japanese": 1845,
      "189": 1846,
      "Ie": 1847,
      "pc": 1848,
      "u8": 1849,
      "yg": 1850,
      "ets": 1851,
      "ell": 1852,
      "150": 1853,
      "175": 1854,
      "168": 1855,
      "a1": 1856,
      "h2": 1857,
      "l9": 1858,
      "pm": 1859,
      "vr": 1860,
      "157": 1861,
      "246": 1862,
      "Et": 1863,
      "hx": 1864,
      "uw": 1865,
      "115": 1866,
      "245": 1867,
      "170": 1868,
      "165": 1869,
      "bgsound": 1870,
      "Solaris": 1871,
      "149": 1872,
      "Ti": 1873,
      "eset": 1874,
      "gos": 1875,
      "kn": 1876,
      "o2": 1877,
      "254": 1878,
      "eO": 1879,
      "iH": 1880,
      "lI": 1881,
      "tU": 1882,
      "uz": 1883,
      "tin": 1884,
      "253": 1885,
      "197": 1886,
      "199": 1887,
      "objectCla": 1888,
      "objectClass": 1889,
      "aT": 1890,
      "zip": 1891,
      "ers": 1892,
      "23include": 1893,
      "166": 1894,
      "3FA": 1895,
      "184": 1896,
      "*)": 1897,
      "-&": 1898,
      "lq": 1899,
      "pf": 1900,
      "nix": 1901,
      "illic": 1902,
      "cyrillic": 1903,
      "6r": 1904,
      "a0": 1905,
      "bb": 1906,
      "gc": 1907,
      "ji": 1908,
      "l1": 1909,
      "oN": 1910,
      "107": 1911,
      "155": 1912,
      "183": 1913,
      "148": 1914,
      "1251": 1915,
      "9d": 1916,
      "c0": 1917,
      "eL": 1918,
      "gy": 1919,
      "uq": 1920,
      "vn": 1921,
      "asmx": 1922,
      "system32": 1923,
      "2n": 1924,
      "211": 1925,
      "OL": 1926,
      "d0": 1927,
      "ftp": 1928,
      "ki": 1929,
      "see": 1930,
      "adr": 1931,
      "209": 1932,
      "138": 1933,
      "chineset": 1934,
      "chinesetrad": 1935,
      "d4": 1936,
      "oj": 1937,
      "ses": 1938,
      "tte": 1939,
      "176": 1940,
      "195": 1941,
      "chineses": 1942,
      "chinesesimp": 1943,
      "128": 1944,
      "124": 1945,
      "187": 1946,
      "225": 1947,
      "AR": 1948,
      "u3": 1949,
      "uv": 1950,
      "wz": 1951,
      "yf": 1952,
      "services": 1953,
      "sock_stream": 1954,
      "An": 1955,
      "EDa": 1956,
      "KE": 1957,
      "d1": 1958,
      "ite": 1959,
      "meta": 1960,
      "yc": 1961,
      "122": 1962,
      "dj": 1963,
      "lN": 1964,
      "m8": 1965,
      "sH": 1966,
      "u7": 1967,
      "uen": 1968,
      "val": 1969,
      "3Atext": 1970,
      "208": 1971,
      "177": 1972,
      "137": 1973,
      "gb2312": 1974,
      "5s": 1975,
      "@<": 1976,
      "Nt": 1977,
      "d8": 1978,
      "hA": 1979,
      "l8": 1980,
      "u9": 1981,
      "ari": 1982,
      "117": 1983,
      "173": 1984,
      "144": 1985,
      "php4": 1986,
      "////////": 1987,
      "Is": 1988,
      "Rr": 1989,
      "d9": 1990,
      "ete": 1991,
      "mk": 1992,
      "o9": 1993,
      "2Fscript": 1994,
      "163": 1995,
      "450": 1996,
      "1257": 1997,
      "aE": 1998,
      "d7": 1999,
      "l2": 2000,
      "lj": 2001,
      "vt": 2002,
      "wc": 2003,
      "zn": 2004,
      "238": 2005,
      "109": 2006,
      "200": 2007,
      "265": 2008,
      "iceland": 2009,
      "icelandic": 2010,
      "Oe": 2011,
      "m1": 2012,
      "m9": 2013,
      "u5": 2014,
      "res": 2015,
      "--&": 2016,
      "eval": 2017,
      "aspx": 2018,
      "4n": 2019,
      "Nr": 2020,
      "dq": 2021,
      "lg": 2022,
      "u6": 2023,
      "wy": 2024,
      "114": 2025,
      "207": 2026,
      "188": 2027,
      "1253": 2028,
      "drop": 2029,
      "3t": 2030,
      "aS": 2031,
      "dS": 2032,
      "l6": 2033,
      "m7": 2034,
      "105": 2035,
      "280": 2036,
      "dE": 2037,
      "lT": 2038,
      "mI": 2039,
      "ene": 2040,
      "103": 2041,
      "204": 2042,
      "1n": 2043,
      "1t": 2044,
      "SS": 2045,
      "Unix": 2046,
      "get": 2047
    },
    "merges": [
      [
        "S",
        "E"
      ],
      [
        "SE",
        "P"
      ],
      [
        "S",
        "C"
      ],
      [
        "_",
        "E"
      ],
      [
        "E",
        "SC"
      ],
      [
        "_E",
        "Q"
      ],
      [
        "ESC",
        "_EQ"
      ],
      [
        "o",
        "n"
      ],
      [
        "e",
        "n"
      ],
      [
        "t",
        "i"
      ],
      [
        "c",
        "a"
      ],
      [
        "e",
        "r"
      ],
      [
        "o",
        "s"
      ],
      [
        "m",
        "l"
      ],
      [
        "l",
        "i"
      ],
      [
        "c",
        "e"
      ],
      [
        "en",
        "t"
      ],
      [
        "p",
        "t"
      ],
      [
        "a",
        "g"
      ],
      [
        "c",
        "ce"
      ],
      [
        "C",
        "on"
      ],
      [
        "cce",
        "pt"
      ],
      [
        "A",
        "ccept"
      ],
      [
        "c",
        "h"
      ],
      [
        "L",
        "L"
      ],
      [
        "N",
        "U"
      ],
      [
        "=",
        "<"
      ],
      [
        "NU",
        "LL"
      ],
      [
        "ti",
        "on"
      ],
      [
        "os",
        "t"
      ],
      [
        "ch",
        "e"
      ],
      [
        "t",
        "e"
      ],
      [
        "i",
        "n"
      ],
      [
        "e",
        "t"
      ],
      [
        "e",
        "c"
      ],
      [
        "x",
        "t"
      ],
      [
        "te",
        "xt"
      ],
      [
        "x",
        "ml"
      ],
      [
        "t",
        "ent"
      ],
      [
        "H",
        "ost"
      ],
      [
        "Con",
        "tent"
      ],
      [
        "n",
        "o"
      ],
      [
        "a",
        "r"
      ],
      [
        "a",
        "p"
      ],
      [
        "l",
        "a"
      ],
      [
        "ag",
        "e"
      ],
      [
        "n",
        "g"
      ],
      [
        "ca",
        "tion"
      ],
      [
        "E",
        "T"
      ],
      [
        "p",
        "li"
      ],
      [
        "pli",
        "cation"
      ],
      [
        "ap",
        "plication"
      ],
      [
        "G",
        "ET"
      ],
      [
        "u",
        "er"
      ],
      [
        "H",
        "T"
      ],
      [
        "*",
        ";"
      ],
      [
        "h",
        "t"
      ],
      [
        "c",
        "o"
      ],
      [
        "8",
        "0"
      ],
      [
        "ca",
        "che"
      ],
      [
        "u",
        "t"
      ],
      [
        "t",
        "r"
      ],
      [
        "o",
        "r"
      ],
      [
        "a",
        "d"
      ],
      [
        "ht",
        "ml"
      ],
      [
        "ut",
        "f"
      ],
      [
        "m",
        "a"
      ],
      [
        "i",
        "e"
      ],
      [
        "o",
        "d"
      ],
      [
        "t",
        "a"
      ],
      [
        "O",
        "S"
      ],
      [
        "P",
        "OS"
      ],
      [
        "POS",
        "T"
      ],
      [
        "tr",
        "o"
      ],
      [
        "i",
        "l"
      ],
      [
        "t",
        "h"
      ],
      [
        "o",
        "o"
      ],
      [
        "l",
        "o"
      ],
      [
        "p",
        "e"
      ],
      [
        "E",
        "C"
      ],
      [
        "s",
        "er"
      ],
      [
        "C",
        "a"
      ],
      [
        "l",
        "e"
      ],
      [
        "L",
        "a"
      ],
      [
        "k",
        "ie"
      ],
      [
        "D",
        "a"
      ],
      [
        "c",
        "on"
      ],
      [
        "s",
        "et"
      ],
      [
        "H",
        "e"
      ],
      [
        "n",
        "ec"
      ],
      [
        "N",
        "D"
      ],
      [
        "R",
        "I"
      ],
      [
        "A",
        "g"
      ],
      [
        "C",
        "h"
      ],
      [
        "et",
        "h"
      ],
      [
        "P",
        "r"
      ],
      [
        "en",
        "g"
      ],
      [
        "T",
        "y"
      ],
      [
        "T",
        "P"
      ],
      [
        "=",
        "/"
      ],
      [
        "ad",
        "er"
      ],
      [
        "ng",
        "u"
      ],
      [
        "uer",
        "y"
      ],
      [
        "Con",
        "nec"
      ],
      [
        "C",
        "oo"
      ],
      [
        "Da",
        "ta"
      ],
      [
        "Ty",
        "pe"
      ],
      [
        "tro",
        "l"
      ],
      [
        "Ch",
        "ar"
      ],
      [
        "Q",
        "uery"
      ],
      [
        "U",
        "RI"
      ],
      [
        "ag",
        "ma"
      ],
      [
        "R",
        "EC"
      ],
      [
        "U",
        "ser"
      ],
      [
        "con",
        "trol"
      ],
      [
        "Ca",
        "che"
      ],
      [
        "eth",
        "od"
      ],
      [
        "E",
        "ND"
      ],
      [
        "L",
        "eng"
      ],
      [
        "M",
        "ethod"
      ],
      [
        "HT",
        "TP"
      ],
      [
        "La",
        "ngu"
      ],
      [
        "He",
        "ader"
      ],
      [
        "Ag",
        "ent"
      ],
      [
        "Pr",
        "agma"
      ],
      [
        "Connec",
        "tion"
      ],
      [
        "Coo",
        "kie"
      ],
      [
        "Char",
        "set"
      ],
      [
        "Leng",
        "th"
      ],
      [
        "Langu",
        "age"
      ],
      [
        "p",
        "a"
      ],
      [
        "i",
        "m"
      ],
      [
        "+",
        "+"
      ],
      [
        "w",
        "w"
      ],
      [
        "o",
        "z"
      ],
      [
        "il",
        "la"
      ],
      [
        "k",
        "e"
      ],
      [
        "k",
        "o"
      ],
      [
        "/",
        "*;"
      ],
      [
        "c",
        "l"
      ],
      [
        "M",
        "oz"
      ],
      [
        "Moz",
        "illa"
      ],
      [
        "os",
        "e"
      ],
      [
        "d",
        "a"
      ],
      [
        "G",
        "ec"
      ],
      [
        "Gec",
        "ko"
      ],
      [
        "cl",
        "ose"
      ],
      [
        "co",
        "m"
      ],
      [
        "*",
        "/*;"
      ],
      [
        "im",
        "age"
      ],
      [
        "l",
        "h"
      ],
      [
        "b",
        "le"
      ],
      [
        "p",
        "la"
      ],
      [
        "com",
        "pa"
      ],
      [
        "ti",
        "ble"
      ],
      [
        "compa",
        "tible"
      ],
      [
        "u",
        "x"
      ],
      [
        "p",
        "ng"
      ],
      [
        "S",
        "I"
      ],
      [
        "L",
        "in"
      ],
      [
        "Lin",
        "ux"
      ],
      [
        "q",
        "uer"
      ],
      [
        "li",
        "ke"
      ],
      [
        "K",
        "on"
      ],
      [
        "quer",
        "or"
      ],
      [
        "Kon",
        "queror"
      ],
      [
        "O",
        "N"
      ],
      [
        "pla",
        "in"
      ],
      [
        "I",
        "D"
      ],
      [
        "M",
        "L"
      ],
      [
        "lh",
        "ost"
      ],
      [
        "lo",
        "ca"
      ],
      [
        "loca",
        "lhost"
      ],
      [
        "SE",
        "S"
      ],
      [
        "K",
        "HT"
      ],
      [
        ",",
        "*/*;"
      ],
      [
        "J",
        "SES"
      ],
      [
        "x",
        "html"
      ],
      [
        "SI",
        "ON"
      ],
      [
        "KHT",
        "ML"
      ],
      [
        "JSES",
        "SION"
      ],
      [
        "JSESSION",
        "ID"
      ],
      [
        "80",
        "80"
      ],
      [
        "r",
        "e"
      ],
      [
        "ti",
        "en"
      ],
      [
        "da",
        "1"
      ],
      [
        "tien",
        "da1"
      ],
      [
        "2",
        "5"
      ],
      [
        "i",
        "s"
      ],
      [
        "s",
        "p"
      ],
      [
        "d",
        "e"
      ],
      [
        "j",
        "sp"
      ],
      [
        "c",
        "i"
      ],
      [
        "2",
        "7"
      ],
      [
        "ww",
        "w"
      ],
      [
        "u",
        "b"
      ],
      [
        "2",
        "F"
      ],
      [
        "e",
        "s"
      ],
      [
        "p",
        "ub"
      ],
      [
        "li",
        "co"
      ],
      [
        "pub",
        "lico"
      ],
      [
        "m",
        "b"
      ],
      [
        "i",
        "r"
      ],
      [
        "2",
        "9"
      ],
      [
        "B",
        "1"
      ],
      [
        "a",
        "n"
      ],
      [
        "u",
        "r"
      ],
      [
        "4",
        "0"
      ],
      [
        "s",
        "s"
      ],
      [
        "2",
        "8"
      ],
      [
        "i",
        "t"
      ],
      [
        "f",
        "or"
      ],
      [
        "i",
        "o"
      ],
      [
        "for",
        "m"
      ],
      [
        "p",
        "r"
      ],
      [
        "a",
        "l"
      ],
      [
        "g",
        "is"
      ],
      [
        "e",
        "e"
      ],
      [
        "3",
        "D"
      ],
      [
        "2",
        "2"
      ],
      [
        "l",
        "en"
      ],
      [
        "8",
        "5"
      ],
      [
        "d",
        "o"
      ],
      [
        "e",
        "l"
      ],
      [
        "de",
        "d"
      ],
      [
        "len",
        "co"
      ],
      [
        "ur",
        "lenco"
      ],
      [
        "urlenco",
        "ded"
      ],
      [
        "a",
        "s"
      ],
      [
        "n",
        "t"
      ],
      [
        "1",
        "1"
      ],
      [
        "2",
        "C"
      ],
      [
        "3",
        "A"
      ],
      [
        "2",
        "3"
      ],
      [
        "lo",
        "g"
      ],
      [
        "od",
        "o"
      ],
      [
        "ca",
        "r"
      ],
      [
        "1",
        "0"
      ],
      [
        "m",
        "odo"
      ],
      [
        "2",
        "0"
      ],
      [
        "1",
        "5"
      ],
      [
        "n",
        "i"
      ],
      [
        "2",
        "6"
      ],
      [
        "=",
        "*"
      ],
      [
        "u",
        "d"
      ],
      [
        "2",
        "4"
      ],
      [
        "1",
        "7"
      ],
      [
        "1",
        "9"
      ],
      [
        "i",
        "d"
      ],
      [
        "1",
        "3"
      ],
      [
        "m",
        "e"
      ],
      [
        "8",
        "6"
      ],
      [
        "i",
        "f"
      ],
      [
        "s",
        "t"
      ],
      [
        "5",
        "C"
      ],
      [
        "1",
        "6"
      ],
      [
        "3",
        "C"
      ],
      [
        "8",
        "7"
      ],
      [
        "+",
        "%"
      ],
      [
        "4",
        "6"
      ],
      [
        "++",
        "++"
      ],
      [
        "3",
        "E"
      ],
      [
        "4",
        "7"
      ],
      [
        "mb",
        "re"
      ],
      [
        "9",
        "0"
      ],
      [
        "no",
        "mbre"
      ],
      [
        "r",
        "i"
      ],
      [
        "3",
        "7"
      ],
      [
        "re",
        "gis"
      ],
      [
        "regis",
        "tro"
      ],
      [
        "e",
        "a"
      ],
      [
        "ci",
        "a"
      ],
      [
        "log",
        "in"
      ],
      [
        "4",
        "5"
      ],
      [
        "tr",
        "ar"
      ],
      [
        "c",
        "p"
      ],
      [
        "3",
        "0"
      ],
      [
        "3",
        "B"
      ],
      [
        "pa",
        "ss"
      ],
      [
        "3",
        "9"
      ],
      [
        "o",
        "v"
      ],
      [
        "3",
        "6"
      ],
      [
        ">",
        "%"
      ],
      [
        "3",
        "F"
      ],
      [
        "8",
        "9"
      ],
      [
        "w",
        "s"
      ],
      [
        "r",
        "os"
      ],
      [
        "4",
        "9"
      ],
      [
        "2",
        "B"
      ],
      [
        "o",
        "e"
      ],
      [
        "m",
        "ie"
      ],
      [
        "3",
        "5"
      ],
      [
        "a",
        "e"
      ],
      [
        "/",
        "*"
      ],
      [
        "mb",
        "ros"
      ],
      [
        "mie",
        "mbros"
      ],
      [
        "=",
        "*;"
      ],
      [
        "s",
        "h"
      ],
      [
        "25",
        "6"
      ],
      [
        "n",
        "e"
      ],
      [
        "a",
        "t"
      ],
      [
        "r",
        "o"
      ],
      [
        "R",
        "e"
      ],
      [
        "pass",
        "w"
      ],
      [
        ".",
        "."
      ],
      [
        "in",
        "do"
      ],
      [
        "5",
        "6"
      ],
      [
        "e",
        "d"
      ],
      [
        "ma",
        "il"
      ],
      [
        "e",
        "p"
      ],
      [
        "1",
        "8"
      ],
      [
        "a",
        "c"
      ],
      [
        "5",
        "0"
      ],
      [
        "1",
        "4"
      ],
      [
        "7",
        "6"
      ],
      [
        "d",
        "ir"
      ],
      [
        "v",
        "e"
      ],
      [
        "s",
        "e"
      ],
      [
        "7",
        "0"
      ],
      [
        "r",
        "a"
      ],
      [
        "r",
        "v"
      ],
      [
        "s",
        "a"
      ],
      [
        "5",
        "D"
      ],
      [
        "7",
        "C"
      ],
      [
        "t",
        "p"
      ],
      [
        "i",
        "a"
      ],
      [
        "F",
        "1"
      ],
      [
        "en",
        "es"
      ],
      [
        "3",
        "4"
      ],
      [
        "or",
        "d"
      ],
      [
        "li",
        "d"
      ],
      [
        "ci",
        "on"
      ],
      [
        "indo",
        "ws"
      ],
      [
        "ag",
        "enes"
      ],
      [
        "im",
        "agenes"
      ],
      [
        "n",
        "a"
      ],
      [
        "E",
        "9"
      ],
      [
        "it",
        "o"
      ],
      [
        "t",
        "t"
      ],
      [
        "ad",
        "ir"
      ],
      [
        "is",
        "o"
      ],
      [
        "ud",
        "ad"
      ],
      [
        "d",
        "ni"
      ],
      [
        "nt",
        "c"
      ],
      [
        "ma",
        "c"
      ],
      [
        "ec",
        "cion"
      ],
      [
        "passw",
        "ord"
      ],
      [
        "e",
        "mail"
      ],
      [
        "in",
        "cia"
      ],
      [
        "ec",
        "io"
      ],
      [
        "ap",
        "el"
      ],
      [
        "pr",
        "ov"
      ],
      [
        "ci",
        "udad"
      ],
      [
        "dir",
        "eccion"
      ],
      [
        "lid",
        "os"
      ],
      [
        "apel",
        "lidos"
      ],
      [
        "prov",
        "incia"
      ],
      [
        "pr",
        "ecio"
      ],
      [
        "Re",
        "gis"
      ],
      [
        "Regis",
        "trar"
      ],
      [
        "7",
        "9"
      ],
      [
        "3",
        "8"
      ],
      [
        "5",
        "9"
      ],
      [
        "car",
        "r"
      ],
      [
        "s",
        "o"
      ],
      [
        "5",
        "B"
      ],
      [
        "carr",
        "ito"
      ],
      [
        "h",
        "e"
      ],
      [
        "r",
        "ar"
      ],
      [
        "s",
        "c"
      ],
      [
        "a",
        "li"
      ],
      [
        "2",
        "1"
      ],
      [
        "o",
        "t"
      ],
      [
        "7",
        "4"
      ],
      [
        "6",
        "0"
      ],
      [
        "E",
        "D"
      ],
      [
        "g",
        "if"
      ],
      [
        "ent",
        "rar"
      ],
      [
        ">",
        "'"
      ],
      [
        "r",
        "r"
      ],
      [
        "i",
        "c"
      ],
      [
        "8",
        "4"
      ],
      [
        "ke",
        "ep"
      ],
      [
        "ali",
        "ve"
      ],
      [
        "6",
        "6"
      ],
      [
        "85",
        "9"
      ],
      [
        "v",
        "i"
      ],
      [
        "a",
        "m"
      ],
      [
        "E",
        "0"
      ],
      [
        "2",
        "A"
      ],
      [
        "2",
        "D"
      ],
      [
        "u",
        "n"
      ],
      [
        "7",
        "5"
      ],
      [
        "u",
        "c"
      ],
      [
        "9",
        "9"
      ],
      [
        "n",
        "s"
      ],
      [
        "e",
        "o"
      ],
      [
        "t",
        "o"
      ],
      [
        "8",
        "8"
      ],
      [
        "E",
        "B"
      ],
      [
        "8",
        "859"
      ],
      [
        "4",
        "4"
      ],
      [
        "E",
        "F"
      ],
      [
        "a",
        "ci"
      ],
      [
        "j",
        "p"
      ],
      [
        "u",
        "e"
      ],
      [
        "E",
        "A"
      ],
      [
        "s",
        "r"
      ],
      [
        "j",
        "a"
      ],
      [
        "aci",
        "ar"
      ],
      [
        "E",
        "6"
      ],
      [
        "5",
        "5"
      ],
      [
        "0",
        "0"
      ],
      [
        "7",
        "7"
      ],
      [
        "t",
        "n"
      ],
      [
        "w",
        "d"
      ],
      [
        "E",
        "n"
      ],
      [
        "s",
        "g"
      ],
      [
        "F",
        "A"
      ],
      [
        "h",
        "o"
      ],
      [
        "F",
        "C"
      ],
      [
        "h",
        "a"
      ],
      [
        "t",
        "s"
      ],
      [
        "ri",
        "pt"
      ],
      [
        "ht",
        "tp"
      ],
      [
        "+",
        "&"
      ],
      [
        "9",
        "6"
      ],
      [
        "e",
        "x"
      ],
      [
        "u",
        "m"
      ],
      [
        "F",
        "D"
      ],
      [
        "B",
        "A"
      ],
      [
        "4",
        "8"
      ],
      [
        "a",
        "a"
      ],
      [
        "n",
        "n"
      ],
      [
        "3",
        "3"
      ],
      [
        "=",
        "*/*;"
      ],
      [
        "B",
        "C"
      ],
      [
        "1",
        "25"
      ],
      [
        "e",
        "i"
      ],
      [
        "1",
        "C"
      ],
      [
        "ma",
        "x"
      ],
      [
        "1",
        "A"
      ],
      [
        "B",
        "D"
      ],
      [
        "t",
        "ar"
      ],
      [
        "a",
        "ut"
      ],
      [
        "w",
        "indows"
      ],
      [
        "u",
        "l"
      ],
      [
        "=*",
        "/*"
      ],
      [
        "1",
        "D"
      ],
      [
        "e",
        "h"
      ],
      [
        "/",
        "/"
      ],
      [
        "F",
        "0"
      ],
      [
        "s",
        "i"
      ],
      [
        "B",
        "0"
      ],
      [
        "8",
        "D"
      ],
      [
        "s",
        "n"
      ],
      [
        "m",
        "d"
      ],
      [
        "8",
        "A"
      ],
      [
        "4",
        "C"
      ],
      [
        "7",
        "A"
      ],
      [
        "7",
        "D"
      ],
      [
        "p",
        "h"
      ],
      [
        "ca",
        "s"
      ],
      [
        "t",
        "er"
      ],
      [
        "F",
        "6"
      ],
      [
        "4",
        "A"
      ],
      [
        "t",
        "os"
      ],
      [
        "B",
        "6"
      ],
      [
        "ca",
        "n"
      ],
      [
        "-",
        "-"
      ],
      [
        "4",
        "D"
      ],
      [
        "8",
        "C"
      ],
      [
        "in",
        "ser"
      ],
      [
        "r",
        "t"
      ],
      [
        "F",
        "9"
      ],
      [
        "o",
        "l"
      ],
      [
        "F",
        "3"
      ],
      [
        "..",
        "%"
      ],
      [
        "jp",
        "g"
      ],
      [
        "a",
        "o"
      ],
      [
        "1",
        "2"
      ],
      [
        "de",
        "o"
      ],
      [
        "6",
        "9"
      ],
      [
        "ti",
        "d"
      ],
      [
        "sc",
        "ript"
      ],
      [
        "i",
        "h"
      ],
      [
        "le",
        "s"
      ],
      [
        "l",
        "y"
      ],
      [
        "5",
        "7"
      ],
      [
        "B",
        "9"
      ],
      [
        "t",
        "m"
      ],
      [
        "u",
        "s"
      ],
      [
        "5",
        "A"
      ],
      [
        "m",
        "in"
      ],
      [
        "en",
        "ti"
      ],
      [
        "f",
        "f"
      ],
      [
        "an",
        "adir"
      ],
      [
        "a",
        "ud"
      ],
      [
        "p",
        "wd"
      ],
      [
        "re",
        "d"
      ],
      [
        "o",
        "b"
      ],
      [
        "vi",
        "deo"
      ],
      [
        "can",
        "tid"
      ],
      [
        "cantid",
        "ad"
      ],
      [
        "0",
        "9"
      ],
      [
        "s",
        "y"
      ],
      [
        "7",
        "E"
      ],
      [
        "n",
        "d"
      ],
      [
        "n",
        "r"
      ],
      [
        "ag",
        "ar"
      ],
      [
        "mb",
        "er"
      ],
      [
        "F1",
        "adir"
      ],
      [
        "w",
        "a"
      ],
      [
        "er",
        "r"
      ],
      [
        "aut",
        "enti"
      ],
      [
        "autenti",
        "car"
      ],
      [
        "b",
        "al"
      ],
      [
        "it",
        "ar"
      ],
      [
        "2",
        "E"
      ],
      [
        "aud",
        "io"
      ],
      [
        "5",
        "8"
      ],
      [
        "7",
        "8"
      ],
      [
        "p",
        "agar"
      ],
      [
        "o",
        "a"
      ],
      [
        "me",
        "mber"
      ],
      [
        "re",
        "member"
      ],
      [
        "++++",
        "%"
      ],
      [
        "ed",
        "itar"
      ],
      [
        "b",
        "e"
      ],
      [
        "t",
        "u"
      ],
      [
        "0",
        "6"
      ],
      [
        "w",
        "e"
      ],
      [
        "++",
        "%"
      ],
      [
        "i",
        "i"
      ],
      [
        "En",
        "trar"
      ],
      [
        "5",
        "4"
      ],
      [
        "++",
        "+%"
      ],
      [
        "t",
        "d"
      ],
      [
        "n",
        "h"
      ],
      [
        "inser",
        "tar"
      ],
      [
        "7",
        "3"
      ],
      [
        "g",
        "o"
      ],
      [
        "ch",
        "in"
      ],
      [
        "++",
        "+"
      ],
      [
        "g",
        "lo"
      ],
      [
        "g",
        "i"
      ],
      [
        "m",
        "o"
      ],
      [
        "il",
        "d"
      ],
      [
        "h",
        "r"
      ],
      [
        "glo",
        "bal"
      ],
      [
        "M",
        "a"
      ],
      [
        "0",
        "A"
      ],
      [
        "a",
        "b"
      ],
      [
        "l",
        "n"
      ],
      [
        "is",
        "ti"
      ],
      [
        "or",
        "e"
      ],
      [
        "car",
        "ac"
      ],
      [
        "ter",
        "isti"
      ],
      [
        "carac",
        "teristi"
      ],
      [
        "caracteristi",
        "cas"
      ],
      [
        "ch",
        "ild"
      ],
      [
        "a",
        "h"
      ],
      [
        "en",
        "cia"
      ],
      [
        "o",
        "p"
      ],
      [
        "\\",
        "\\"
      ],
      [
        "a",
        "i"
      ],
      [
        "8",
        "3"
      ],
      [
        "A",
        "D"
      ],
      [
        "C",
        "D"
      ],
      [
        "F",
        "F"
      ],
      [
        "s",
        "d"
      ],
      [
        "4",
        "3"
      ],
      [
        "u",
        "p"
      ],
      [
        "4",
        "1"
      ],
      [
        "c",
        "n"
      ],
      [
        "B",
        "B"
      ],
      [
        "l",
        "l"
      ],
      [
        "W",
        "indows"
      ],
      [
        "i",
        "g"
      ],
      [
        "ta",
        "s"
      ],
      [
        "++++",
        "+"
      ],
      [
        "0",
        "D"
      ],
      [
        "C",
        "A"
      ],
      [
        "2",
        "e"
      ],
      [
        "s",
        "ta"
      ],
      [
        "or",
        "M"
      ],
      [
        "h",
        "n"
      ],
      [
        "err",
        "orM"
      ],
      [
        "errorM",
        "sg"
      ],
      [
        "l",
        "s"
      ],
      [
        "6",
        "5"
      ],
      [
        "B",
        "2"
      ],
      [
        "9",
        "8"
      ],
      [
        "6",
        "7"
      ],
      [
        "r",
        "n"
      ],
      [
        "E",
        "1"
      ],
      [
        "d",
        "i"
      ],
      [
        "v",
        "aciar"
      ],
      [
        "tos",
        "h"
      ],
      [
        "3",
        "2"
      ],
      [
        "o",
        "h"
      ],
      [
        "27",
        "0"
      ],
      [
        "a",
        "u"
      ],
      [
        "e",
        "g"
      ],
      [
        "s",
        "te"
      ],
      [
        "e",
        "m"
      ],
      [
        "f",
        "r"
      ],
      [
        "C",
        "C"
      ],
      [
        "E",
        "E"
      ],
      [
        "F",
        "B"
      ],
      [
        "l",
        "t"
      ],
      [
        "o",
        "i"
      ],
      [
        "3",
        "1"
      ],
      [
        "b",
        "a"
      ],
      [
        "A",
        "A"
      ],
      [
        "an",
        "s"
      ],
      [
        "o",
        "g"
      ],
      [
        "h",
        "s"
      ],
      [
        "u",
        "es"
      ],
      [
        "D",
        "D"
      ],
      [
        "in",
        "co"
      ],
      [
        "9",
        "5"
      ],
      [
        "r",
        "s"
      ],
      [
        "m",
        "s"
      ],
      [
        "6",
        "8"
      ],
      [
        "rr",
        "ec"
      ],
      [
        "C",
        "red"
      ],
      [
        "E",
        "7"
      ],
      [
        "m",
        "ar"
      ],
      [
        "encia",
        "les"
      ],
      [
        "inco",
        "rrec"
      ],
      [
        "Cred",
        "enciales"
      ],
      [
        "w",
        "h"
      ],
      [
        "incorrec",
        "tas"
      ],
      [
        "f",
        "re"
      ],
      [
        "w",
        "i"
      ],
      [
        "V",
        "aciar"
      ],
      [
        "ec",
        "t"
      ],
      [
        "pe",
        "g"
      ],
      [
        "6",
        "4"
      ],
      [
        "f",
        "e"
      ],
      [
        "r",
        "u"
      ],
      [
        "y",
        "e"
      ],
      [
        ":",
        "//"
      ],
      [
        "8",
        "1"
      ],
      [
        "E",
        "5"
      ],
      [
        "7",
        "1"
      ],
      [
        "b",
        "i"
      ],
      [
        "t",
        "l"
      ],
      [
        "h",
        "i"
      ],
      [
        "os",
        "i"
      ],
      [
        "in",
        "g"
      ],
      [
        "u",
        "i"
      ],
      [
        "on",
        "ly"
      ],
      [
        "cache",
        "d"
      ],
      [
        "W",
        "in"
      ],
      [
        "n",
        "c"
      ],
      [
        "b",
        "in"
      ],
      [
        "m",
        "t"
      ],
      [
        "E",
        "4"
      ],
      [
        "fre",
        "sh"
      ],
      [
        "E",
        "8"
      ],
      [
        "0",
        "5"
      ],
      [
        "9",
        "7"
      ],
      [
        "N",
        "T"
      ],
      [
        "chin",
        "tosh"
      ],
      [
        "Ma",
        "chintosh"
      ],
      [
        "6",
        "D"
      ],
      [
        "tr",
        "ans"
      ],
      [
        "/*",
        ","
      ],
      [
        "trans",
        "form"
      ],
      [
        "--",
        "%"
      ],
      [
        "g",
        "e"
      ],
      [
        "w",
        "n"
      ],
      [
        "u",
        "a"
      ],
      [
        "9",
        "4"
      ],
      [
        "9",
        "D"
      ],
      [
        "6",
        "A"
      ],
      [
        "st",
        "ore"
      ],
      [
        "m",
        "i"
      ],
      [
        "t",
        "y"
      ],
      [
        "X",
        "11"
      ],
      [
        "m",
        "en"
      ],
      [
        "9",
        "A"
      ],
      [
        "t",
        "w"
      ],
      [
        "B",
        "F"
      ],
      [
        "do",
        "c"
      ],
      [
        "osi",
        "tion"
      ],
      [
        "sta",
        "le"
      ],
      [
        "d",
        "s"
      ],
      [
        "C",
        "0"
      ],
      [
        "e",
        "b"
      ],
      [
        "r",
        "h"
      ],
      [
        "F3",
        "n"
      ],
      [
        ".",
        "%"
      ],
      [
        "r",
        "m"
      ],
      [
        "s",
        "tr"
      ],
      [
        "d",
        "t"
      ],
      [
        "p",
        "osition"
      ],
      [
        "v",
        "a"
      ],
      [
        "B",
        "5"
      ],
      [
        "n",
        "et"
      ],
      [
        "o",
        "m"
      ],
      [
        "7",
        "2"
      ],
      [
        "um",
        "ent"
      ],
      [
        "e",
        "uc"
      ],
      [
        "D",
        "A"
      ],
      [
        "4",
        "F"
      ],
      [
        "D",
        "e"
      ],
      [
        "U",
        "T"
      ],
      [
        "6",
        "C"
      ],
      [
        "h",
        "h"
      ],
      [
        "doc",
        "ument"
      ],
      [
        "10",
        "0"
      ],
      [
        "l",
        "d"
      ],
      [
        "i",
        "8"
      ],
      [
        "i",
        "5"
      ],
      [
        "p",
        "or"
      ],
      [
        "t",
        "f"
      ],
      [
        "r",
        "d"
      ],
      [
        "1",
        "F"
      ],
      [
        "m",
        "n"
      ],
      [
        "e",
        "u"
      ],
      [
        "*",
        "%"
      ],
      [
        "e",
        "y"
      ],
      [
        "9",
        "C"
      ],
      [
        "p",
        "er"
      ],
      [
        "q",
        "u"
      ],
      [
        "t",
        "b"
      ],
      [
        "l",
        "le"
      ],
      [
        "B",
        "7"
      ],
      [
        "ph",
        "p"
      ],
      [
        "c",
        "md"
      ],
      [
        "k",
        "r"
      ],
      [
        "P",
        "as"
      ],
      [
        "8",
        "F"
      ],
      [
        "log",
        "o"
      ],
      [
        "i",
        "3"
      ],
      [
        "l",
        "r"
      ],
      [
        "y",
        "r"
      ],
      [
        "6",
        "3"
      ],
      [
        "0",
        "1"
      ],
      [
        "e",
        "f"
      ],
      [
        "f",
        "ir"
      ],
      [
        "u",
        "h"
      ],
      [
        "a",
        "y"
      ],
      [
        "d",
        "n"
      ],
      [
        "t",
        "c"
      ],
      [
        "9",
        "3"
      ],
      [
        "0",
        "7"
      ],
      [
        "o",
        "c"
      ],
      [
        "p",
        "s"
      ],
      [
        "6",
        "1"
      ],
      [
        "5",
        "3"
      ],
      [
        "co",
        "o"
      ],
      [
        "d",
        "r"
      ],
      [
        "0",
        "4"
      ],
      [
        "9",
        "1"
      ],
      [
        "u",
        "o"
      ],
      [
        "B",
        "E"
      ],
      [
        "P",
        "P"
      ],
      [
        "A",
        "C"
      ],
      [
        "P",
        "UT"
      ],
      [
        "0",
        "8"
      ],
      [
        "s",
        "w"
      ],
      [
        "er",
        "t"
      ],
      [
        "5",
        "1"
      ],
      [
        "2F",
        "child"
      ],
      [
        "Con",
        "fir"
      ],
      [
        "Confir",
        "mar"
      ],
      [
        "in",
        "o"
      ],
      [
        "F",
        "7"
      ],
      [
        "e",
        "w"
      ],
      [
        "o",
        "f"
      ],
      [
        "de",
        "x"
      ],
      [
        "e",
        "v"
      ],
      [
        "Ca",
        "lle"
      ],
      [
        "o",
        "ff"
      ],
      [
        "t",
        "g"
      ],
      [
        "i",
        "p"
      ],
      [
        "256",
        "3"
      ],
      [
        "D",
        "C"
      ],
      [
        "c",
        "ss"
      ],
      [
        "coo",
        "kie"
      ],
      [
        "F",
        "5"
      ],
      [
        "Pas",
        "ar"
      ],
      [
        "4",
        "2"
      ],
      [
        "j",
        "s"
      ],
      [
        "A",
        "l"
      ],
      [
        "ca",
        "ja"
      ],
      [
        "M",
        "ac"
      ],
      [
        "m",
        "r"
      ],
      [
        "n",
        "l"
      ],
      [
        "a",
        "v"
      ],
      [
        "m",
        "h"
      ],
      [
        "m",
        "p"
      ],
      [
        "d",
        "h"
      ],
      [
        "s",
        "l"
      ],
      [
        "et",
        "c"
      ],
      [
        "b",
        "y"
      ],
      [
        "b",
        "o"
      ],
      [
        "c",
        "z"
      ],
      [
        "0",
        "C"
      ],
      [
        "8",
        "2"
      ],
      [
        "in",
        "dex"
      ],
      [
        "w",
        "in"
      ],
      [
        "or",
        "g"
      ],
      [
        "8",
        "E"
      ],
      [
        "ex",
        "ec"
      ],
      [
        "i",
        "b"
      ],
      [
        "I",
        "b"
      ],
      [
        "..",
        "/"
      ],
      [
        "4",
        "B"
      ],
      [
        "op",
        "en"
      ],
      [
        "e",
        "k"
      ],
      [
        "4",
        "E"
      ],
      [
        "sy",
        "ste"
      ],
      [
        "R",
        "io"
      ],
      [
        "g",
        "b"
      ],
      [
        "y",
        "a"
      ],
      [
        "z",
        "a"
      ],
      [
        "8",
        "B"
      ],
      [
        "A",
        "0"
      ],
      [
        "g",
        "a"
      ],
      [
        "no",
        "de"
      ],
      [
        "PP",
        "C"
      ],
      [
        "c",
        "s"
      ],
      [
        "c",
        "gi"
      ],
      [
        "j",
        "peg"
      ],
      [
        "6",
        "2"
      ],
      [
        "w",
        "g"
      ],
      [
        "x",
        "ec"
      ],
      [
        "o",
        "y"
      ],
      [
        "25",
        "74"
      ],
      [
        "ma",
        "n"
      ],
      [
        "c",
        "t"
      ],
      [
        "an",
        "d"
      ],
      [
        "u",
        "k"
      ],
      [
        "F",
        "E"
      ],
      [
        "c",
        "f"
      ],
      [
        "p",
        "y"
      ],
      [
        "ex",
        "e"
      ],
      [
        "a",
        "f"
      ],
      [
        "a",
        "cce"
      ],
      [
        "c",
        "r"
      ],
      [
        "ar",
        "os"
      ],
      [
        "syste",
        "m"
      ],
      [
        "c",
        "k"
      ],
      [
        "u",
        "g"
      ],
      [
        "in",
        "i"
      ],
      [
        "h",
        "d"
      ],
      [
        "h",
        "l"
      ],
      [
        "Rio",
        "ja"
      ],
      [
        "1",
        "E"
      ],
      [
        "A",
        "r"
      ],
      [
        "n",
        "b"
      ],
      [
        "n",
        "f"
      ],
      [
        "0",
        "a"
      ],
      [
        "1",
        "B"
      ],
      [
        "p",
        "l"
      ],
      [
        "p",
        "en"
      ],
      [
        "s",
        "m"
      ],
      [
        "n",
        "y"
      ],
      [
        "A",
        "9"
      ],
      [
        "k",
        "s"
      ],
      [
        "pr",
        "o"
      ],
      [
        "ca",
        "t"
      ],
      [
        "w",
        "t"
      ],
      [
        "M",
        "an"
      ],
      [
        "et",
        "a"
      ],
      [
        "u",
        "de"
      ],
      [
        "5",
        "F"
      ],
      [
        "B",
        "S"
      ],
      [
        "passw",
        "d"
      ],
      [
        "A",
        "6"
      ],
      [
        "s",
        "u"
      ],
      [
        "n",
        "k"
      ],
      [
        "er",
        "e"
      ],
      [
        "0",
        "3"
      ],
      [
        "R",
        "O"
      ],
      [
        "u",
        "nt"
      ],
      [
        "5",
        "2"
      ],
      [
        "s",
        "b"
      ],
      [
        "oo",
        "t"
      ],
      [
        "s",
        "f"
      ],
      [
        "d",
        "d"
      ],
      [
        "o",
        "u"
      ],
      [
        "j",
        "e"
      ],
      [
        "7",
        "B"
      ],
      [
        "F",
        "8"
      ],
      [
        "i",
        "v"
      ],
      [
        "E",
        "e"
      ],
      [
        "S",
        "an"
      ],
      [
        "b",
        "r"
      ],
      [
        "x",
        "p"
      ],
      [
        "n",
        "m"
      ],
      [
        "V",
        "ino"
      ],
      [
        "25",
        "3A"
      ],
      [
        "23",
        "12"
      ],
      [
        "n",
        "u"
      ],
      [
        "C",
        "6"
      ],
      [
        "b",
        "as"
      ],
      [
        "r",
        "l"
      ],
      [
        "++++",
        "+%"
      ],
      [
        "D",
        "0"
      ],
      [
        "5",
        "E"
      ],
      [
        "D",
        "6"
      ],
      [
        "b",
        "g"
      ],
      [
        "i",
        "y"
      ],
      [
        "f",
        "t"
      ],
      [
        "D",
        "9"
      ],
      [
        "x",
        "e"
      ],
      [
        "F",
        "4"
      ],
      [
        "w",
        "p"
      ],
      [
        "C",
        "9"
      ],
      [
        "b",
        "t"
      ],
      [
        "y",
        "le"
      ],
      [
        "al",
        "ert"
      ],
      [
        "i",
        "u"
      ],
      [
        "ob",
        "j"
      ],
      [
        "w",
        "o"
      ],
      [
        "e",
        "z"
      ],
      [
        "v",
        "b"
      ],
      [
        "in",
        "cl"
      ],
      [
        ">",
        "+"
      ],
      [
        "D",
        "E"
      ],
      [
        "C",
        "F"
      ],
      [
        "A",
        "B"
      ],
      [
        "a",
        "sp"
      ],
      [
        "f",
        "a"
      ],
      [
        "j",
        "o"
      ],
      [
        "f",
        "o"
      ],
      [
        "z",
        "ar"
      ],
      [
        "lo",
        "cation"
      ],
      [
        "win",
        "nt"
      ],
      [
        "as",
        "f"
      ],
      [
        "e",
        "E"
      ],
      [
        "f",
        "ro"
      ],
      [
        "n",
        "w"
      ],
      [
        "on",
        "a"
      ],
      [
        "y",
        "o"
      ],
      [
        "256",
        "F"
      ],
      [
        "9",
        "2"
      ],
      [
        "g",
        "r"
      ],
      [
        "h",
        "z"
      ],
      [
        "e",
        "6"
      ],
      [
        "m",
        "c"
      ],
      [
        "s",
        "el"
      ],
      [
        "Q",
        "ues"
      ],
      [
        "che",
        "go"
      ],
      [
        "Man",
        "chego"
      ],
      [
        "r",
        "c"
      ],
      [
        "ad",
        "a"
      ],
      [
        "e",
        "7"
      ],
      [
        "P",
        "T"
      ],
      [
        "l",
        "os"
      ],
      [
        "7",
        "F"
      ],
      [
        "B",
        "8"
      ],
      [
        "e",
        "8"
      ],
      [
        "J",
        "am"
      ],
      [
        "l",
        "u"
      ],
      [
        "N",
        "a"
      ],
      [
        "0",
        "d"
      ],
      [
        "f",
        "i"
      ],
      [
        "co",
        "unt"
      ],
      [
        "E9",
        "ri"
      ],
      [
        "incl",
        "ude"
      ],
      [
        "B",
        "4"
      ],
      [
        "I",
        "N"
      ],
      [
        "g",
        "t"
      ],
      [
        "25",
        "3D"
      ],
      [
        "v",
        "ar"
      ],
      [
        "tr",
        "a"
      ],
      [
        "b",
        "n"
      ],
      [
        "st",
        "yle"
      ],
      [
        "wi",
        "de"
      ],
      [
        "S",
        "a"
      ],
      [
        "e",
        "9"
      ],
      [
        "20",
        "22"
      ],
      [
        "er",
        "a"
      ],
      [
        "ht",
        "m"
      ],
      [
        "pla",
        "ce"
      ],
      [
        "11",
        "0"
      ],
      [
        "e",
        "q"
      ],
      [
        "E",
        "3"
      ],
      [
        "f",
        "n"
      ],
      [
        "w",
        "r"
      ],
      [
        "A",
        "F"
      ],
      [
        "c",
        "u"
      ],
      [
        "indo",
        "w"
      ],
      [
        "e",
        "4"
      ],
      [
        "p",
        "o"
      ],
      [
        "Ques",
        "o"
      ],
      [
        "A",
        "5"
      ],
      [
        "e",
        "1"
      ],
      [
        "3A",
        "0"
      ],
      [
        "9",
        "x"
      ],
      [
        "g",
        "n"
      ],
      [
        "E",
        "s"
      ],
      [
        "g",
        "ro"
      ],
      [
        "h",
        "m"
      ],
      [
        "256",
        "5"
      ],
      [
        "i",
        "z"
      ],
      [
        "256",
        "9"
      ],
      [
        "tm",
        "p"
      ],
      [
        "e",
        "5"
      ],
      [
        "h",
        "y"
      ],
      [
        "t",
        "z"
      ],
      [
        "E9ri",
        "co"
      ],
      [
        "a",
        "z"
      ],
      [
        "on",
        "o"
      ],
      [
        "10",
        "6"
      ],
      [
        "e",
        "0"
      ],
      [
        "b",
        "h"
      ],
      [
        "r",
        "f"
      ],
      [
        "oe",
        "xec"
      ],
      [
        "ic",
        "k"
      ],
      [
        "un",
        "d"
      ],
      [
        "D",
        "B"
      ],
      [
        "O",
        "pen"
      ],
      [
        "er",
        "ra"
      ],
      [
        "ar",
        "ab"
      ],
      [
        "na",
        "me"
      ],
      [
        "BS",
        "D"
      ],
      [
        "m",
        "u"
      ],
      [
        "p",
        "n"
      ],
      [
        "obj",
        "ect"
      ],
      [
        "D",
        "5"
      ],
      [
        "E",
        "R"
      ],
      [
        "g",
        "s"
      ],
      [
        "y",
        "n"
      ],
      [
        "i5",
        "86"
      ],
      [
        "y",
        "s"
      ],
      [
        "de",
        "l"
      ],
      [
        "5B",
        "position"
      ],
      [
        "b",
        "s"
      ],
      [
        "d",
        "m"
      ],
      [
        "h",
        "c"
      ],
      [
        "w",
        "indow"
      ],
      [
        "e",
        "3"
      ],
      [
        "o",
        "w"
      ],
      [
        "y",
        "t"
      ],
      [
        "ko",
        "i8"
      ],
      [
        "arab",
        "ic"
      ],
      [
        "A",
        "7"
      ],
      [
        "p",
        "i"
      ],
      [
        "9",
        "E"
      ],
      [
        "re",
        "place"
      ],
      [
        "9",
        "B"
      ],
      [
        "4",
        "u"
      ],
      [
        "C",
        "B"
      ],
      [
        "m",
        "x"
      ],
      [
        "E",
        "r"
      ],
      [
        "e",
        "j"
      ],
      [
        "C",
        "5"
      ],
      [
        "h",
        "f"
      ],
      [
        "ar",
        "r"
      ],
      [
        "a",
        "w"
      ],
      [
        "l",
        "c"
      ],
      [
        "e",
        "2"
      ],
      [
        "t",
        "5"
      ],
      [
        "25",
        "2F"
      ],
      [
        "9",
        "F"
      ],
      [
        "25",
        "29"
      ],
      [
        "i",
        "0"
      ],
      [
        "O",
        "R"
      ],
      [
        "ce",
        "ss"
      ],
      [
        "6",
        "F"
      ],
      [
        "A",
        "E"
      ],
      [
        "e",
        "T"
      ],
      [
        "//",
        "//"
      ],
      [
        "t",
        "3"
      ],
      [
        "c",
        "d"
      ],
      [
        "fro",
        "m"
      ],
      [
        "f",
        "ot"
      ],
      [
        "i",
        "w"
      ],
      [
        "6",
        "E"
      ],
      [
        "D",
        "F"
      ],
      [
        "d",
        "in"
      ],
      [
        "g",
        "ov"
      ],
      [
        "h",
        "g"
      ],
      [
        "h",
        "u"
      ],
      [
        "t",
        "0"
      ],
      [
        "i3",
        "86"
      ],
      [
        "t",
        "q"
      ],
      [
        "la",
        "y"
      ],
      [
        "id",
        "A"
      ],
      [
        "V",
        "al"
      ],
      [
        "str",
        "uc"
      ],
      [
        "-",
        "/"
      ],
      [
        "2",
        "f"
      ],
      [
        "a",
        "k"
      ],
      [
        "t",
        "4"
      ],
      [
        "ti",
        "me"
      ],
      [
        "ti",
        "ff"
      ],
      [
        "d",
        "l"
      ],
      [
        "t",
        "v"
      ],
      [
        "u",
        "f"
      ],
      [
        "in",
        "struc"
      ],
      [
        "t",
        "6"
      ],
      [
        "25",
        "3E"
      ],
      [
        "bas",
        "ic"
      ],
      [
        "cess",
        "ing"
      ],
      [
        "instruc",
        "tion"
      ],
      [
        "(",
        ")"
      ],
      [
        "d",
        "y"
      ],
      [
        "13",
        "6"
      ],
      [
        "C",
        "1"
      ],
      [
        "D",
        "7"
      ],
      [
        "a",
        "j"
      ],
      [
        "n",
        "p"
      ],
      [
        "t",
        "1"
      ],
      [
        "qu",
        "ick"
      ],
      [
        "A",
        "4"
      ],
      [
        "t",
        "E"
      ],
      [
        "quick",
        "time"
      ],
      [
        "C",
        "7"
      ],
      [
        "i",
        "q"
      ],
      [
        "t",
        "T"
      ],
      [
        "ad",
        "min"
      ],
      [
        "da",
        "te"
      ],
      [
        "i",
        "1"
      ],
      [
        "l",
        "b"
      ],
      [
        "m",
        "peg"
      ],
      [
        "s",
        "html"
      ],
      [
        "A",
        "8"
      ],
      [
        "S",
        "et"
      ],
      [
        "b",
        "ul"
      ],
      [
        "D",
        "8"
      ],
      [
        "25",
        "3C"
      ],
      [
        "9",
        "36"
      ],
      [
        "i",
        "x"
      ],
      [
        "u",
        "ni"
      ],
      [
        "w",
        "l"
      ],
      [
        "t",
        "9"
      ],
      [
        "25",
        "22"
      ],
      [
        "T",
        "am"
      ],
      [
        "h",
        "ad"
      ],
      [
        "con",
        "nec"
      ],
      [
        "25",
        "0A"
      ],
      [
        "0",
        "2"
      ],
      [
        "C",
        "E"
      ],
      [
        "t",
        "7"
      ],
      [
        "es",
        "e"
      ],
      [
        "bi",
        "z"
      ],
      [
        "0",
        "E"
      ],
      [
        "d",
        "u"
      ],
      [
        "i",
        "4"
      ],
      [
        "er",
        "m"
      ],
      [
        "wa",
        "v"
      ],
      [
        "fot",
        "os"
      ],
      [
        "g",
        "h"
      ],
      [
        "k",
        "a"
      ],
      [
        "od",
        "uc"
      ],
      [
        "B",
        "2A"
      ],
      [
        "f",
        "s"
      ],
      [
        "r",
        "y"
      ],
      [
        "t",
        "8"
      ],
      [
        "li",
        "r"
      ],
      [
        "pro",
        "cessing"
      ],
      [
        "R",
        "i"
      ],
      [
        "m",
        "m"
      ],
      [
        "r",
        "p"
      ],
      [
        "3A",
        "15"
      ],
      [
        "t",
        "x"
      ],
      [
        "h",
        "b"
      ],
      [
        "pr",
        "oduc"
      ],
      [
        "P",
        "aros"
      ],
      [
        "c",
        "men"
      ],
      [
        "v",
        "o"
      ],
      [
        "wa",
        "it"
      ],
      [
        "produc",
        "tos"
      ],
      [
        "T",
        "o"
      ],
      [
        "W",
        "H"
      ],
      [
        "c",
        "ript"
      ],
      [
        "de",
        "lay"
      ],
      [
        "an",
        "y"
      ],
      [
        "it",
        "os"
      ],
      [
        "3B",
        "wait"
      ],
      [
        "3Bwait",
        "for"
      ],
      [
        "B",
        "3"
      ],
      [
        "od",
        "y"
      ],
      [
        "xp",
        "_"
      ],
      [
        "cmen",
        "bul"
      ],
      [
        "m",
        "y"
      ],
      [
        "ti",
        "erra"
      ],
      [
        "au",
        "z"
      ],
      [
        "2",
        "a"
      ],
      [
        "n",
        "q"
      ],
      [
        "r",
        "I"
      ],
      [
        "ss",
        "_"
      ],
      [
        "i",
        "E"
      ],
      [
        "n",
        "3"
      ],
      [
        "6",
        "a"
      ],
      [
        "n",
        "ues"
      ],
      [
        "4",
        "e"
      ],
      [
        "ti",
        "tu"
      ],
      [
        "ht",
        "acce"
      ],
      [
        "2B",
        "Tam"
      ],
      [
        "zar",
        "auz"
      ],
      [
        "sel",
        "ect"
      ],
      [
        "ss_",
        "log"
      ],
      [
        "2BTam",
        "per"
      ],
      [
        "7",
        "e"
      ],
      [
        "@",
        "/"
      ],
      [
        "c",
        "red"
      ],
      [
        "h",
        "w"
      ],
      [
        "r",
        "g"
      ],
      [
        "cas",
        "tro"
      ],
      [
        "D",
        "4"
      ],
      [
        "n",
        "z"
      ],
      [
        "23",
        "5"
      ],
      [
        "ha",
        "v"
      ],
      [
        "og",
        "ono"
      ],
      [
        "cred",
        "itos"
      ],
      [
        "b",
        "et"
      ],
      [
        "s",
        "k"
      ],
      [
        "s",
        "z"
      ],
      [
        "tra",
        "tierra"
      ],
      [
        "nues",
        "tratierra"
      ],
      [
        "C",
        "8"
      ],
      [
        "q",
        "e"
      ],
      [
        "ch",
        "a"
      ],
      [
        "titu",
        "lo"
      ],
      [
        "t",
        "k"
      ],
      [
        "ch",
        "o"
      ],
      [
        "im",
        "g"
      ],
      [
        "Win",
        "NT"
      ],
      [
        "9",
        "50"
      ],
      [
        "ut",
        "do"
      ],
      [
        "6",
        "B"
      ],
      [
        "A",
        "3"
      ],
      [
        "r",
        "w"
      ],
      [
        "1",
        "a"
      ],
      [
        "c",
        "m"
      ],
      [
        "f",
        "d"
      ],
      [
        "t",
        "_"
      ],
      [
        "ar",
        "a"
      ],
      [
        "str",
        "ea"
      ],
      [
        "RO",
        "M"
      ],
      [
        "0",
        "F"
      ],
      [
        "b",
        "d"
      ],
      [
        "i",
        "7"
      ],
      [
        "ce",
        "s"
      ],
      [
        ".",
        "/"
      ],
      [
        "9",
        "e"
      ],
      [
        "g",
        "u"
      ],
      [
        "t",
        "2"
      ],
      [
        "es",
        "ti"
      ],
      [
        "men",
        "um"
      ],
      [
        "../",
        "../"
      ],
      [
        "_",
        "strea"
      ],
      [
        "l",
        "m"
      ],
      [
        "EC",
        "T"
      ],
      [
        "B1",
        "A"
      ],
      [
        "E",
        "a"
      ],
      [
        "s",
        "j"
      ],
      [
        "te",
        "ln"
      ],
      [
        "in",
        "p"
      ],
      [
        "t",
        "S"
      ],
      [
        "pass",
        "th"
      ],
      [
        "4",
        "a"
      ],
      [
        "6",
        "e"
      ],
      [
        "E",
        "o"
      ],
      [
        "u",
        "y"
      ],
      [
        "M",
        "SI"
      ],
      [
        "i",
        "9"
      ],
      [
        "t",
        "j"
      ],
      [
        "u",
        "ser"
      ],
      [
        "ht",
        "pass"
      ],
      [
        "al",
        "l"
      ],
      [
        "..",
        "\\\\"
      ],
      [
        "E",
        "l"
      ],
      [
        "pa",
        "th"
      ],
      [
        "_",
        "c"
      ],
      [
        "i",
        "k"
      ],
      [
        "we",
        "en"
      ],
      [
        "0",
        "r"
      ],
      [
        "2",
        "s"
      ],
      [
        "F",
        "ROM"
      ],
      [
        "C",
        "4"
      ],
      [
        "T",
        "r"
      ],
      [
        "esti",
        "los"
      ],
      [
        "f",
        "h"
      ],
      [
        "3D",
        "1"
      ],
      [
        "up",
        "date"
      ],
      [
        "vb",
        "script"
      ],
      [
        "u",
        "sr"
      ],
      [
        "sa",
        "lir"
      ],
      [
        "0",
        "B"
      ],
      [
        "O",
        "r"
      ],
      [
        "e",
        "N"
      ],
      [
        "n",
        "5"
      ],
      [
        "8",
        "a"
      ],
      [
        "h",
        "p"
      ],
      [
        "87",
        "4"
      ],
      [
        "Win",
        "98"
      ],
      [
        "3",
        "e"
      ],
      [
        "x",
        "a"
      ],
      [
        "z",
        "o"
      ],
      [
        "c",
        "b"
      ],
      [
        "co",
        "py"
      ],
      [
        "teln",
        "et"
      ],
      [
        "MSI",
        "E"
      ],
      [
        "L",
        "e"
      ],
      [
        "f",
        "l"
      ],
      [
        "s",
        "7"
      ],
      [
        "29",
        "0"
      ],
      [
        "5",
        "c"
      ],
      [
        "b",
        "re"
      ],
      [
        "i",
        "6"
      ],
      [
        "n",
        "7"
      ],
      [
        "30",
        "6"
      ],
      [
        "is",
        "h"
      ],
      [
        "20",
        "5"
      ],
      [
        "wh",
        "ere"
      ],
      [
        "1",
        "o"
      ],
      [
        "3",
        "34"
      ],
      [
        "t",
        "I"
      ],
      [
        "1",
        "e"
      ],
      [
        "9",
        "a"
      ],
      [
        "l",
        "w"
      ],
      [
        "er",
        "o"
      ],
      [
        "ser",
        "vi"
      ],
      [
        "25",
        "3F"
      ],
      [
        "250A",
        "Set"
      ],
      [
        "0",
        "e"
      ],
      [
        "2",
        "o"
      ],
      [
        "s",
        "5"
      ],
      [
        "or",
        "a"
      ],
      [
        "1",
        "r"
      ],
      [
        "2",
        "r"
      ],
      [
        "G",
        "u"
      ],
      [
        "g",
        "re"
      ],
      [
        "m",
        "g"
      ],
      [
        "v",
        "as"
      ],
      [
        "y",
        "h"
      ],
      [
        "wg",
        "et"
      ],
      [
        "8",
        "s"
      ],
      [
        "an",
        "a"
      ],
      [
        "7",
        "a"
      ],
      [
        "8",
        "e"
      ],
      [
        "R",
        "o"
      ],
      [
        "n",
        "4"
      ],
      [
        "t",
        "ur"
      ],
      [
        "3",
        "a"
      ],
      [
        "n",
        "9"
      ],
      [
        "25",
        "0"
      ],
      [
        "ir",
        "i"
      ],
      [
        "ns",
        "f"
      ],
      [
        "ul",
        "l"
      ],
      [
        "di",
        "v"
      ],
      [
        "hav",
        "ing"
      ],
      [
        "5",
        "e"
      ],
      [
        "i",
        "T"
      ],
      [
        "le",
        "te"
      ],
      [
        "3",
        "o"
      ],
      [
        "d",
        "f"
      ],
      [
        "r",
        "ad"
      ],
      [
        "t",
        "A"
      ],
      [
        "23",
        "4"
      ],
      [
        "2",
        "15"
      ],
      [
        "M",
        "ar"
      ],
      [
        "b",
        "u"
      ],
      [
        "n",
        "0"
      ],
      [
        "if",
        "ra"
      ],
      [
        "90",
        "90"
      ],
      [
        "n",
        "O"
      ],
      [
        "y",
        "l"
      ],
      [
        "b",
        "oot"
      ],
      [
        "n",
        "T"
      ],
      [
        "p",
        "d"
      ],
      [
        "ck",
        "_strea"
      ],
      [
        "gro",
        "up"
      ],
      [
        "4",
        "r"
      ],
      [
        "n",
        "8"
      ],
      [
        "3A",
        "node"
      ],
      [
        "sh",
        "utdo"
      ],
      [
        "D",
        "3"
      ],
      [
        "s",
        "x"
      ],
      [
        "t",
        "N"
      ],
      [
        "st",
        "din"
      ],
      [
        "so",
        "ck_strea"
      ],
      [
        "d",
        "ro"
      ],
      [
        "s",
        "T"
      ],
      [
        "s",
        "v"
      ],
      [
        "7",
        "o"
      ],
      [
        "i",
        "2"
      ],
      [
        "n",
        "E"
      ],
      [
        "s",
        "0"
      ],
      [
        "s",
        "6"
      ],
      [
        "uni",
        "on"
      ],
      [
        "256",
        "1"
      ],
      [
        "5",
        "o"
      ],
      [
        "c",
        "c"
      ],
      [
        "e",
        "S"
      ],
      [
        "s",
        "8"
      ],
      [
        "2F",
        "etc"
      ],
      [
        "inp",
        "ut"
      ],
      [
        "m",
        "ent"
      ],
      [
        "n",
        "ph"
      ],
      [
        "87",
        "6"
      ],
      [
        "0",
        "o"
      ],
      [
        "4",
        "86"
      ],
      [
        "q",
        "a"
      ],
      [
        "s",
        "3"
      ],
      [
        "z",
        "e"
      ],
      [
        "li",
        "b"
      ],
      [
        "errorMsg",
        "A"
      ],
      [
        "5",
        "a"
      ],
      [
        "d",
        "b"
      ],
      [
        "n",
        "6"
      ],
      [
        "N",
        "I"
      ],
      [
        "t",
        "R"
      ],
      [
        "..",
        ".."
      ],
      [
        "b",
        "ri"
      ],
      [
        "j",
        "r"
      ],
      [
        "x",
        "y"
      ],
      [
        "22",
        "1"
      ],
      [
        "aut",
        "oexec"
      ],
      [
        "..\\\\",
        "..\\\\"
      ],
      [
        "B",
        "ar"
      ],
      [
        "h",
        "9"
      ],
      [
        "2",
        "17"
      ],
      [
        "7",
        "r"
      ],
      [
        "d",
        "c"
      ],
      [
        "f",
        "il"
      ],
      [
        "s",
        "E"
      ],
      [
        "s",
        "q"
      ],
      [
        "t",
        "O"
      ],
      [
        "x",
        "r"
      ],
      [
        "y",
        "i"
      ],
      [
        "h",
        "E"
      ],
      [
        "SE",
        "L"
      ],
      [
        "27",
        "http"
      ],
      [
        "3",
        "r"
      ],
      [
        "b",
        "l"
      ],
      [
        "h",
        "5"
      ],
      [
        "s",
        "un"
      ],
      [
        "xt",
        "erm"
      ],
      [
        "8",
        "r"
      ],
      [
        "m",
        "w"
      ],
      [
        "25",
        "28"
      ],
      [
        "ho",
        "me"
      ],
      [
        "9",
        "o"
      ],
      [
        "D",
        "1"
      ],
      [
        "s",
        "1"
      ],
      [
        "s",
        "2"
      ],
      [
        "u",
        "u"
      ],
      [
        ":",
        ":"
      ],
      [
        "d",
        "w"
      ],
      [
        "h",
        "q"
      ],
      [
        "i",
        "I"
      ],
      [
        "i",
        "S"
      ],
      [
        "13",
        "0"
      ],
      [
        "6",
        "o"
      ],
      [
        "G",
        "r"
      ],
      [
        "2",
        "40"
      ],
      [
        "d",
        "g"
      ],
      [
        "i",
        "j"
      ],
      [
        "i",
        "ce"
      ],
      [
        "l",
        "v"
      ],
      [
        "m",
        "f"
      ],
      [
        "n",
        "S"
      ],
      [
        "n",
        "x"
      ],
      [
        "cf",
        "m"
      ],
      [
        "ER",
        "E"
      ],
      [
        "passth",
        "ru"
      ],
      [
        "h",
        "k"
      ],
      [
        "89",
        "7"
      ],
      [
        "WH",
        "ERE"
      ],
      [
        "R",
        "a"
      ],
      [
        "e",
        "A"
      ],
      [
        "e",
        "I"
      ],
      [
        "h",
        "8"
      ],
      [
        "i",
        "A"
      ],
      [
        "2F",
        "N"
      ],
      [
        "9",
        "r"
      ],
      [
        "T",
        "a"
      ],
      [
        "c",
        "g"
      ],
      [
        "de",
        "lete"
      ],
      [
        "-",
        "<"
      ],
      [
        "1",
        "27"
      ],
      [
        "5",
        "76"
      ],
      [
        "b",
        "ody"
      ],
      [
        "n",
        "1"
      ],
      [
        "en",
        "a"
      ],
      [
        "5",
        "r"
      ],
      [
        "C",
        "3"
      ],
      [
        "n",
        "A"
      ],
      [
        "z",
        "r"
      ],
      [
        "in",
        "a"
      ],
      [
        "1",
        "80"
      ],
      [
        "1",
        "40"
      ],
      [
        "2",
        "19"
      ],
      [
        "9",
        "32"
      ],
      [
        "b",
        "j"
      ],
      [
        "c",
        "y"
      ],
      [
        "n",
        "N"
      ],
      [
        "q",
        "o"
      ],
      [
        "SC",
        "RI"
      ],
      [
        "li",
        "nk"
      ],
      [
        "16",
        "7"
      ],
      [
        "bet",
        "ween"
      ],
      [
        "SCRI",
        "PT"
      ],
      [
        "P",
        "a"
      ],
      [
        "h",
        "v"
      ],
      [
        "l",
        "f"
      ],
      [
        "SEL",
        "ECT"
      ],
      [
        "n",
        "v"
      ],
      [
        "o",
        "x"
      ],
      [
        "25",
        "27"
      ],
      [
        "ee",
        "e"
      ],
      [
        "so",
        "und"
      ],
      [
        "S",
        "un"
      ],
      [
        "ja",
        "vas"
      ],
      [
        "md",
        "b"
      ],
      [
        "o",
        "7"
      ],
      [
        "s",
        "9"
      ],
      [
        "1",
        "29"
      ],
      [
        "h",
        "0"
      ],
      [
        "2F",
        "passwd"
      ],
      [
        "ac",
        "k"
      ],
      [
        "2",
        "10"
      ],
      [
        "d",
        "ll"
      ],
      [
        "j",
        "is"
      ],
      [
        "l",
        "p"
      ],
      [
        "il",
        "li"
      ],
      [
        "ci",
        "i"
      ],
      [
        "a",
        "q"
      ],
      [
        "b",
        "ar"
      ],
      [
        "d",
        "p"
      ],
      [
        "e",
        "R"
      ],
      [
        "o",
        "1"
      ],
      [
        "13",
        "9"
      ],
      [
        "h",
        "3"
      ],
      [
        "i",
        "O"
      ],
      [
        "o",
        "k"
      ],
      [
        "u",
        "el"
      ],
      [
        "y",
        "d"
      ],
      [
        "37",
        "47"
      ],
      [
        "1",
        "45"
      ],
      [
        "a",
        "3"
      ],
      [
        "te",
        "s"
      ],
      [
        "la",
        "nd"
      ],
      [
        "gre",
        "ek"
      ],
      [
        "ifra",
        "me"
      ],
      [
        "h",
        "T"
      ],
      [
        "l",
        "3"
      ],
      [
        "q",
        "r"
      ],
      [
        "t",
        "H"
      ],
      [
        "22",
        "6"
      ],
      [
        "11",
        "6"
      ],
      [
        "19",
        "87"
      ],
      [
        "sun",
        "4u"
      ],
      [
        "Sun",
        "OS"
      ],
      [
        "a",
        "4"
      ],
      [
        "b",
        "er"
      ],
      [
        "e",
        "H"
      ],
      [
        "h",
        "4"
      ],
      [
        "h",
        "S"
      ],
      [
        "o",
        "E"
      ],
      [
        "o",
        "T"
      ],
      [
        "25",
        "5"
      ],
      [
        "L",
        "I"
      ],
      [
        "b",
        "c"
      ],
      [
        "n",
        "2"
      ],
      [
        "p",
        "ost"
      ],
      [
        "y",
        "u"
      ],
      [
        "14",
        "3"
      ],
      [
        "javas",
        "cript"
      ],
      [
        "1",
        "46"
      ],
      [
        "S",
        "ol"
      ],
      [
        "a",
        "5"
      ],
      [
        "a",
        "x"
      ],
      [
        "m",
        "sp"
      ],
      [
        "s",
        "4"
      ],
      [
        "25",
        "70"
      ],
      [
        "23",
        "1"
      ],
      [
        "15",
        "9"
      ],
      [
        "26",
        "40"
      ],
      [
        "16",
        "0"
      ],
      [
        "shutdo",
        "wn"
      ],
      [
        "C",
        "la"
      ],
      [
        "i",
        "N"
      ],
      [
        "o",
        "O"
      ],
      [
        "t",
        "or"
      ],
      [
        "1",
        "85"
      ],
      [
        "A",
        "d"
      ],
      [
        "g",
        "d"
      ],
      [
        "i",
        "da"
      ],
      [
        "o",
        "3"
      ],
      [
        "o",
        "8"
      ],
      [
        "25",
        "0D"
      ],
      [
        "22",
        "0"
      ],
      [
        "23",
        "9"
      ],
      [
        "20",
        "6"
      ],
      [
        "2",
        "27"
      ],
      [
        "b",
        "ig"
      ],
      [
        "c",
        "1"
      ],
      [
        "j",
        "n"
      ],
      [
        "m",
        "6"
      ],
      [
        "m",
        "z"
      ],
      [
        "s",
        "I"
      ],
      [
        "s",
        "R"
      ],
      [
        "te",
        "e"
      ],
      [
        "24",
        "9"
      ],
      [
        "19",
        "0"
      ],
      [
        "125",
        "5"
      ],
      [
        "post",
        "script"
      ],
      [
        "9",
        "l"
      ],
      [
        "A",
        "1"
      ],
      [
        "g",
        "l"
      ],
      [
        "h",
        "6"
      ],
      [
        "m",
        "er"
      ],
      [
        "la",
        "s"
      ],
      [
        "25",
        "73"
      ],
      [
        "uc",
        "s"
      ],
      [
        "acce",
        "ss_log"
      ],
      [
        ")",
        "("
      ],
      [
        "1",
        "86"
      ],
      [
        "A",
        "v"
      ],
      [
        "I",
        "n"
      ],
      [
        "o",
        "S"
      ],
      [
        "w",
        "m"
      ],
      [
        "li",
        "n"
      ],
      [
        "ce",
        "l"
      ],
      [
        "11",
        "9"
      ],
      [
        "2",
        "28"
      ],
      [
        "N",
        "e"
      ],
      [
        "a",
        "2"
      ],
      [
        "b",
        "at"
      ],
      [
        "h",
        "1"
      ],
      [
        "h",
        "7"
      ],
      [
        "o",
        "0"
      ],
      [
        "o",
        "q"
      ],
      [
        "ar",
        "is"
      ],
      [
        "11",
        "8"
      ],
      [
        "23",
        "0"
      ],
      [
        "23",
        "6"
      ],
      [
        "10",
        "41"
      ],
      [
        "334",
        "2"
      ],
      [
        "msp",
        "x"
      ],
      [
        "E",
        "d"
      ],
      [
        "a",
        "7"
      ],
      [
        "h",
        "O"
      ],
      [
        "s",
        "S"
      ],
      [
        "in",
        "tosh"
      ],
      [
        "as",
        "cii"
      ],
      [
        "24",
        "7"
      ],
      [
        "16",
        "9"
      ],
      [
        "sw",
        "f"
      ],
      [
        "/",
        "."
      ],
      [
        "1",
        "26"
      ],
      [
        "_",
        "56"
      ],
      [
        "a",
        "8"
      ],
      [
        "a",
        "9"
      ],
      [
        "d",
        "x"
      ],
      [
        "m",
        "0"
      ],
      [
        "p",
        "aros"
      ],
      [
        "r",
        "b"
      ],
      [
        "t",
        "L"
      ],
      [
        "y",
        "y"
      ],
      [
        "25",
        "2E"
      ],
      [
        "is",
        "iri"
      ],
      [
        "15",
        "6"
      ],
      [
        "17",
        "9"
      ],
      [
        "mac",
        "intosh"
      ],
      [
        "106",
        "46"
      ],
      [
        "2",
        "13"
      ],
      [
        "o",
        "5"
      ],
      [
        "o",
        "6"
      ],
      [
        "r",
        "z"
      ],
      [
        "im",
        "p"
      ],
      [
        "24",
        "8"
      ],
      [
        "sh",
        "if"
      ],
      [
        "56",
        "7"
      ],
      [
        "ks",
        "_c"
      ],
      [
        "2",
        "B1"
      ],
      [
        ">",
        "<"
      ],
      [
        "T",
        "e"
      ],
      [
        "c",
        "4"
      ],
      [
        "f",
        "u"
      ],
      [
        "j",
        "ap"
      ],
      [
        "256",
        "E"
      ],
      [
        "t_",
        "jis"
      ],
      [
        "_56",
        "01"
      ],
      [
        "shif",
        "t_jis"
      ],
      [
        "ks_c",
        "_5601"
      ],
      [
        "1",
        "47"
      ],
      [
        "A",
        "e"
      ],
      [
        "E",
        "2"
      ],
      [
        "P",
        "l"
      ],
      [
        "l",
        "k"
      ],
      [
        "125",
        "2"
      ],
      [
        "big",
        "5"
      ],
      [
        "S",
        "i"
      ],
      [
        "d",
        "z"
      ],
      [
        "h",
        "N"
      ],
      [
        "k",
        "ish"
      ],
      [
        "n",
        "I"
      ],
      [
        "n",
        "R"
      ],
      [
        "w",
        "f"
      ],
      [
        "125",
        "8"
      ],
      [
        "110",
        "25"
      ],
      [
        "tur",
        "kish"
      ],
      [
        "g",
        "f"
      ],
      [
        "h",
        "j"
      ],
      [
        "k",
        "ore"
      ],
      [
        "l",
        "z"
      ],
      [
        "n",
        "j"
      ],
      [
        "la",
        "n"
      ],
      [
        "an",
        "ese"
      ],
      [
        "rt",
        "f"
      ],
      [
        "ms",
        "f"
      ],
      [
        "253D",
        "1041"
      ],
      [
        "3747",
        "27"
      ],
      [
        "2640",
        "11025"
      ],
      [
        "253D1041",
        "264011025"
      ],
      [
        "253D1041264011025",
        "374727"
      ],
      [
        "2",
        "29"
      ],
      [
        "E",
        "X"
      ],
      [
        "c",
        "q"
      ],
      [
        "c",
        "yr"
      ],
      [
        "d",
        "is"
      ],
      [
        "es",
        "es"
      ],
      [
        "19",
        "6"
      ],
      [
        "sa",
        "m"
      ],
      [
        "125",
        "0"
      ],
      [
        "bre",
        "w"
      ],
      [
        "kore",
        "an"
      ],
      [
        "b",
        "m"
      ],
      [
        "s",
        "O"
      ],
      [
        "t",
        "D"
      ],
      [
        "u",
        "j"
      ],
      [
        "24",
        "4"
      ],
      [
        "2B",
        "document"
      ],
      [
        "he",
        "brew"
      ],
      [
        "125",
        "4"
      ],
      [
        "A",
        "ND"
      ],
      [
        "C",
        "or"
      ],
      [
        "S",
        "e"
      ],
      [
        "a",
        "6"
      ],
      [
        "b",
        "f"
      ],
      [
        "o",
        "4"
      ],
      [
        "s",
        "N"
      ],
      [
        "13",
        "5"
      ],
      [
        "ro",
        "man"
      ],
      [
        "jap",
        "anese"
      ],
      [
        "1",
        "89"
      ],
      [
        "I",
        "e"
      ],
      [
        "p",
        "c"
      ],
      [
        "u",
        "8"
      ],
      [
        "y",
        "g"
      ],
      [
        "et",
        "s"
      ],
      [
        "el",
        "l"
      ],
      [
        "15",
        "0"
      ],
      [
        "17",
        "5"
      ],
      [
        "16",
        "8"
      ],
      [
        "a",
        "1"
      ],
      [
        "h",
        "2"
      ],
      [
        "l",
        "9"
      ],
      [
        "p",
        "m"
      ],
      [
        "v",
        "r"
      ],
      [
        "15",
        "7"
      ],
      [
        "24",
        "6"
      ],
      [
        "E",
        "t"
      ],
      [
        "h",
        "x"
      ],
      [
        "u",
        "w"
      ],
      [
        "11",
        "5"
      ],
      [
        "24",
        "5"
      ],
      [
        "17",
        "0"
      ],
      [
        "16",
        "5"
      ],
      [
        "bg",
        "sound"
      ],
      [
        "Sol",
        "aris"
      ],
      [
        "1",
        "49"
      ],
      [
        "T",
        "i"
      ],
      [
        "e",
        "set"
      ],
      [
        "g",
        "os"
      ],
      [
        "k",
        "n"
      ],
      [
        "o",
        "2"
      ],
      [
        "25",
        "4"
      ],
      [
        "e",
        "O"
      ],
      [
        "i",
        "H"
      ],
      [
        "l",
        "I"
      ],
      [
        "t",
        "U"
      ],
      [
        "u",
        "z"
      ],
      [
        "ti",
        "n"
      ],
      [
        "25",
        "3"
      ],
      [
        "19",
        "7"
      ],
      [
        "19",
        "9"
      ],
      [
        "object",
        "Cla"
      ],
      [
        "objectCla",
        "ss"
      ],
      [
        "a",
        "T"
      ],
      [
        "z",
        "ip"
      ],
      [
        "er",
        "s"
      ],
      [
        "23",
        "include"
      ],
      [
        "16",
        "6"
      ],
      [
        "3F",
        "A"
      ],
      [
        "18",
        "4"
      ],
      [
        "*",
        ")"
      ],
      [
        "-",
        "&"
      ],
      [
        "l",
        "q"
      ],
      [
        "p",
        "f"
      ],
      [
        "ni",
        "x"
      ],
      [
        "illi",
        "c"
      ],
      [
        "cyr",
        "illic"
      ],
      [
        "6",
        "r"
      ],
      [
        "a",
        "0"
      ],
      [
        "b",
        "b"
      ],
      [
        "g",
        "c"
      ],
      [
        "j",
        "i"
      ],
      [
        "l",
        "1"
      ],
      [
        "o",
        "N"
      ],
      [
        "10",
        "7"
      ],
      [
        "15",
        "5"
      ],
      [
        "18",
        "3"
      ],
      [
        "14",
        "8"
      ],
      [
        "125",
        "1"
      ],
      [
        "9",
        "d"
      ],
      [
        "c",
        "0"
      ],
      [
        "e",
        "L"
      ],
      [
        "g",
        "y"
      ],
      [
        "u",
        "q"
      ],
      [
        "v",
        "n"
      ],
      [
        "as",
        "mx"
      ],
      [
        "system",
        "32"
      ],
      [
        "2",
        "n"
      ],
      [
        "2",
        "11"
      ],
      [
        "O",
        "L"
      ],
      [
        "d",
        "0"
      ],
      [
        "f",
        "tp"
      ],
      [
        "k",
        "i"
      ],
      [
        "s",
        "ee"
      ],
      [
        "ad",
        "r"
      ],
      [
        "20",
        "9"
      ],
      [
        "13",
        "8"
      ],
      [
        "chin",
        "eset"
      ],
      [
        "chineset",
        "rad"
      ],
      [
        "d",
        "4"
      ],
      [
        "o",
        "j"
      ],
      [
        "s",
        "es"
      ],
      [
        "t",
        "te"
      ],
      [
        "17",
        "6"
      ],
      [
        "19",
        "5"
      ],
      [
        "chin",
        "eses"
      ],
      [
        "chineses",
        "imp"
      ],
      [
        "1",
        "28"
      ],
      [
        "1",
        "24"
      ],
      [
        "1",
        "87"
      ],
      [
        "2",
        "25"
      ],
      [
        "A",
        "R"
      ],
      [
        "u",
        "3"
      ],
      [
        "u",
        "v"
      ],
      [
        "w",
        "z"
      ],
      [
        "y",
        "f"
      ],
      [
        "servi",
        "ces"
      ],
      [
        "sock_strea",
        "m"
      ],
      [
        "A",
        "n"
      ],
      [
        "E",
        "Da"
      ],
      [
        "K",
        "E"
      ],
      [
        "d",
        "1"
      ],
      [
        "i",
        "te"
      ],
      [
        "m",
        "eta"
      ],
      [
        "y",
        "c"
      ],
      [
        "1",
        "22"
      ],
      [
        "d",
        "j"
      ],
      [
        "l",
        "N"
      ],
      [
        "m",
        "8"
      ],
      [
        "s",
        "H"
      ],
      [
        "u",
        "7"
      ],
      [
        "u",
        "en"
      ],
      [
        "v",
        "al"
      ],
      [
        "3A",
        "text"
      ],
      [
        "20",
        "8"
      ],
      [
        "17",
        "7"
      ],
      [
        "13",
        "7"
      ],
      [
        "gb",
        "2312"
      ],
      [
        "5",
        "s"
      ],
      [
        "@",
        "<"
      ],
      [
        "N",
        "t"
      ],
      [
        "d",
        "8"
      ],
      [
        "h",
        "A"
      ],
      [
        "l",
        "8"
      ],
      [
        "u",
        "9"
      ],
      [
        "ar",
        "i"
      ],
      [
        "11",
        "7"
      ],
      [
        "17",
        "3"
      ],
      [
        "14",
        "4"
      ],
      [
        "php",
        "4"
      ],
      [
        "////",
        "////"
      ],
      [
        "I",
        "s"
      ],
      [
        "R",
        "r"
      ],
      [
        "d",
        "9"
      ],
      [
        "e",
        "te"
      ],
      [
        "m",
        "k"
      ],
      [
        "o",
        "9"
      ],
      [
        "2F",
        "script"
      ],
      [
        "16",
        "3"
      ],
      [
        "45",
        "0"
      ],
      [
        "125",
        "7"
      ],
      [
        "a",
        "E"
      ],
      [
        "d",
        "7"
      ],
      [
        "l",
        "2"
      ],
      [
        "l",
        "j"
      ],
      [
        "v",
        "t"
      ],
      [
        "w",
        "c"
      ],
      [
        "z",
        "n"
      ],
      [
        "23",
        "8"
      ],
      [
        "10",
        "9"
      ],
      [
        "20",
        "0"
      ],
      [
        "26",
        "5"
      ],
      [
        "ice",
        "land"
      ],
      [
        "iceland",
        "ic"
      ],
      [
        "O",
        "e"
      ],
      [
        "m",
        "1"
      ],
      [
        "m",
        "9"
      ],
      [
        "u",
        "5"
      ],
      [
        "re",
        "s"
      ],
      [
        "--",
        "&"
      ],
      [
        "ev",
        "al"
      ],
      [
        "asp",
        "x"
      ],
      [
        "4",
        "n"
      ],
      [
        "N",
        "r"
      ],
      [
        "d",
        "q"
      ],
      [
        "l",
        "g"
      ],
      [
        "u",
        "6"
      ],
      [
        "w",
        "y"
      ],
      [
        "11",
        "4"
      ],
      [
        "20",
        "7"
      ],
      [
        "18",
        "8"
      ],
      [
        "125",
        "3"
      ],
      [
        "dro",
        "p"
      ],
      [
        "3",
        "t"
      ],
      [
        "a",
        "S"
      ],
      [
        "d",
        "S"
      ],
      [
        "l",
        "6"
      ],
      [
        "m",
        "7"
      ],
      [
        "10",
        "5"
      ],
      [
        "2",
        "80"
      ],
      [
        "d",
        "E"
      ],
      [
        "l",
        "T"
      ],
      [
        "m",
        "I"
      ],
      [
        "en",
        "e"
      ],
      [
        "10",
        "3"
      ],
      [
        "20",
        "4"
      ],
      [
        "1",
        "n"
      ],
      [
        "1",
        "t"
      ],
      [
        "S",
        "S"
      ],
      [
        "U",
        "nix"
      ],
      [
        "g",
        "et"
      ]
    ]
  }
}