{
  "version": "1.0",
  "truncation": null,
  "padding": null,
  "added_tokens": [
    {
      "id": 0,
      "content": "[PAD]",
      "single_word": false,
      "lstrip": false,
      "rstrip": false,
      "normalized": false,
      "special": true
    },
    {
      "id": 1,
      "content": "[UNK]",
      "single_word": false,
      "lstrip": false,
      "rstrip": false,
      "normalized": false,
      "special": true
    },
    {
      "id": 2,
      "content": "[CLS]",
      "single_word": false,
      "lstrip": false,
      "rstrip": false,
      "normalized": false,
      "special": true
    },
    {
      "id": 3,
      "content": "[SEP]",
      "single_word": false,
      "lstrip": false,
      "rstrip": false,
      "normalized": false,
      "special": true
    },
    {
      "id": 4,
      "content": "[MASK]",
      "single_word": false,
      "lstrip": false,
      "rstrip": false,
      "normalized": false,
      "special": true
    }
  ],
  "normalizer": {
    "type": "NFKC"
  },
  "pre_tokenizer": {
    "type": "Whitespace"
  },
  "post_processor": null,
  "decoder": null,
  "model": {
    "type": "WordPiece",
    "unk_token": "[UNK]",
    "continuing_subword_prefix": "##",
    "max_input_chars_per_word": 100,
    "vocab": {
      "[PAD]": 0,
      "[UNK]": 1,
      "[CLS]": 2,
      "[SEP]": 3,
      "[MASK]": 4,
      "$": 5,
      "%": 6,
      "&": 7,
      "'": 8,
      "(": 9,
      ")": 10,
      "*": 11,
      "+": 12,
      ",": 13,
      "-": 14,
      ".": 15,
      "/": 16,
      "0": 17,
      "1": 18,
      "2": 19,
      "3": 20,
      "4": 21,
      "5": 22,
      "6": 23,
      "7": 24,
      "8": 25,
      "9": 26,
      ":": 27,
      ";": 28,
      "<": 29,
      "=": 30,
      ">": 31,
      "?": 32,
      "@": 33,
      "A": 34,
      "B": 35,
      "C": 36,
      "D": 37,
      "E": 38,
      "F": 39,
      "G": 40,
      "H": 41,
      "I": 42,
      "J": 43,
      "K": 44,
      "L": 45,
      "M": 46,
      "N": 47,
      "O": 48,
      "P": 49,
      "Q": 50,
      "R": 51,
      "S": 52,
      "T": 53,
      "U": 54,
      "V": 55,
      "W": 56,
      "X": 57,
      "Y": 58,
      "Z": 59,
      "[": 60,
      "\\": 61,
      "]": 62,
      "_": 63,
      "a": 64,
      "b": 65,
      "c": 66,
      "d": 67,
      "e": 68,
      "f": 69,
      "g": 70,
      "h": 71,
      "i": 72,
      "j": 73,
      "k": 74,
      "l": 75,
      "m": 76,
      "n": 77,
      "o": 78,
      "p": 79,
      "q": 80,
      "r": 81,
      "s": 82,
      "t": 83,
      "u": 84,
      "v": 85,
      "w": 86,
      "x": 87,
      "y": 88,
      "z": 89,
      "|": 90,
      "~": 91,
      "##D": 92,
      "##a": 93,
      "##Q": 94,
      "##e": 95,
      "##n": 96,
      "##t": 97,
      "##i": 98,
      "##1": 99,
      "##T": 100,
      "##7": 101,
      "##S": 102,
      "##j": 103,
      "##c": 104,
      "##3": 105,
      "##w": 106,
      "##d": 107,
      "##0": 108,
      "##5": 109,
      "##p": 110,
      "##l": 111,
      "##o": 112,
      "##u": 113,
      "##r": 114,
      "##s": 115,
      "##y": 116,
      "##8": 117,
      "##9": 118,
      "##6": 119,
      "##g": 120,
      "##+": 121,
      "##%": 122,
      "##2": 123,
      "##E": 124,
      "##m": 125,
      "##h": 126,
      "##f": 127,
      "##b": 128,
      "##x": 129,
      "##*": 130,
      "##B": 131,
      "##R": 132,
      "##z": 133,
      "##4": 134,
      "##P": 135,
      "##J": 136,
      "##k": 137,
      "##/": 138,
      "##v": 139,
      "##N": 140,
      "##M": 141,
      "##_": 142,
      "##G": 143,
      "##H": 144,
      "##O": 145,
      "##;": 146,
      "##C": 147,
      "##W": 148,
      "##X": 149,
      "##I": 150,
      "##V": 151,
      "##K": 152,
      "##Z": 153,
      "##A": 154,
      "##.": 155,
      "##F": 156,
      "##L": 157,
      "##q": 158,
      "##-": 159,
      "##'": 160,
      "##Y": 161,
      "##U": 162,
      "##)": 163,
      "##|": 164,
      "##:": 165,
      "##@": 166,
      "##(": 167,
      "##,": 168,
      "##&": 169,
      "##~": 170,
      "##<": 171,
      "##\\": 172,
      "##>": 173,
      "##[": 174,
      "SE": 175,
      "SEP": 176,
      "##SC": 177,
      "ESC": 178,
      "##EQ": 179,
      "##_EQ": 180,
      "ESC_EQ": 181,
      "##on": 182,
      "##en": 183,
      "##er": 184,
      "##ti": 185,
      "##os": 186,
      "##ml": 187,
      "##ep": 188,
      "##cc": 189,
      "##ac": 190,
      "##ag": 191,
      "Con": 192,
      "##ent": 193,
      "##ept": 194,
      "##ccept": 195,
      "Accept": 196,
      "##tion": 197,
      "##he": 198,
      "##ost": 199,
      "=<": 200,
      "NU": 201,
      "##ca": 202,
      "##LL": 203,
      "NULL": 204,
      "##ache": 205,
      "##li": 206,
      "##in": 207,
      "##et": 208,
      "##ex": 209,
      "##ext": 210,
      "text": 211,
      "xml": 212,
      "##ar": 213,
      "##ec": 214,
      "Host": 215,
      "##tent": 216,
      "Content": 217,
      "no": 218,
      "ap": 219,
      "##la": 220,
      "##age": 221,
      "##cation": 222,
      "##pli": 223,
      "appli": 224,
      "application": 225,
      "##od": 226,
      "##uer": 227,
      "##ng": 228,
      "##ET": 229,
      "GET": 230,
      "cache": 231,
      "##ad": 232,
      "##or": 233,
      "##tf": 234,
      "##tml": 235,
      "utf": 236,
      "##tr": 237,
      "##ie": 238,
      "##ST": 239,
      "PO": 240,
      "##ta": 241,
      "POST": 242,
      "##ma": 243,
      "##tro": 244,
      "##il": 245,
      "##ser": 246,
      "##EC": 247,
      "##pe": 248,
      "##th": 249,
      "##oo": 250,
      "##set": 251,
      "##*;": 252,
      "##RI": 253,
      "##ND": 254,
      "##eng": 255,
      "Ag": 256,
      "Da": 257,
      "##ead": 258,
      "##nec": 259,
      "##rag": 260,
      "##har": 261,
      "##kie": 262,
      "##ookie": 263,
      "=/": 264,
      "Cache": 265,
      "Char": 266,
      "Cookie": 267,
      "END": 268,
      "HT": 269,
      "Head": 270,
      "La": 271,
      "Leng": 272,
      "Met": 273,
      "Prag": 274,
      "Quer": 275,
      "REC": 276,
      "Ty": 277,
      "User": 278,
      "URI": 279,
      "con": 280,
      "##TP": 281,
      "##uage": 282,
      "##hod": 283,
      "Connec": 284,
      "##nguage": 285,
      "##trol": 286,
      "Agent": 287,
      "Data": 288,
      "Charset": 289,
      "HTTP": 290,
      "Header": 291,
      "Language": 292,
      "Length": 293,
      "Method": 294,
      "Pragma": 295,
      "Query": 296,
      "Type": 297,
      "control": 298,
      "Connection": 299,
      "##le": 300,
      "im": 301,
      "##om": 302,
      "lo": 303,
      "##oz": 304,
      "Moz": 305,
      "##illa": 306,
      "Mozilla": 307,
      "en": 308,
      "##*/": 309,
      "##ko": 310,
      "Gec": 311,
      "##pa": 312,
      "Gecko": 313,
      "##80": 314,
      "80": 315,
      "cl": 316,
      "##da": 317,
      "##ose": 318,
      "##lh": 319,
      "##*/*;": 320,
      "close": 321,
      "com": 322,
      "image": 323,
      "html": 324,
      "ti": 325,
      "##ux": 326,
      "##ble": 327,
      "Lin": 328,
      "##ik": 329,
      "##onq": 330,
      "##tible": 331,
      "##patible": 332,
      "compatible": 333,
      "Konq": 334,
      "##SE": 335,
      "##SI": 336,
      "##ueror": 337,
      "Linux": 338,
      "Konqueror": 339,
      "pla": 340,
      "png": 341,
      "##html": 342,
      "##ON": 343,
      "plain": 344,
      "*;": 345,
      ",*/*;": 346,
      "JSE": 347,
      "KH": 348,
      "lik": 349,
      "xhtml": 350,
      "##TM": 351,
      "##SSI": 352,
      "##ID": 353,
      "##enda": 354,
      "##calh": 355,
      "localh": 356,
      "8080": 357,
      "tienda": 358,
      "##ONID": 359,
      "JSESSI": 360,
      "KHTM": 361,
      "like": 362,
      "localhost": 363,
      "tienda1": 364,
      "JSESSIONID": 365,
      "KHTML": 366,
      "##sp": 367,
      "jsp": 368,
      "##co": 369,
      "pu": 370,
      "##bli": 371,
      "publi": 372,
      "publico": 373,
      "##++": 374,
      "##ir": 375,
      "##ww": 376,
      "www": 377,
      "##es": 378,
      "##io": 379,
      "##as": 380,
      "##is": 381,
      "##mb": 382,
      "##ed": 383,
      "##53": 384,
      "##ri": 385,
      "B1": 386,
      "27": 387,
      "##to": 388,
      "pr": 389,
      "##eg": 390,
      "##mbr": 391,
      "##enc": 392,
      "##..": 393,
      "##orm": 394,
      "##el": 395,
      "##lenc": 396,
      "##egis": 397,
      "##an": 398,
      "##85": 399,
      "mod": 400,
      "ur": 401,
      "modo": 402,
      "form": 403,
      "##ee": 404,
      "##oded": 405,
      "##lencoded": 406,
      "urlencoded": 407,
      "in": 408,
      "##13": 409,
      "##67": 410,
      "+++": 411,
      "##07": 412,
      "28": 413,
      "29": 414,
      "##al": 415,
      "##trar": 416,
      "##tt": 417,
      "##ia": 418,
      "##do": 419,
      "##64": 420,
      "##28": 421,
      "car": 422,
      "##17": 423,
      "##dad": 424,
      "##ra": 425,
      "##ss": 426,
      "##99": 427,
      "##44": 428,
      "##ecio": 429,
      "nombr": 430,
      "precio": 431,
      "nombre": 432,
      "##ea": 433,
      "##ni": 434,
      "##te": 435,
      "##00": 436,
      "##so": 437,
      "##66": 438,
      "##rito": 439,
      "carrito": 440,
      "2C": 441,
      "2F": 442,
      "regis": 443,
      "##D7": 444,
      "##nt": 445,
      "##15": 446,
      "##ov": 447,
      "##adir": 448,
      "registro": 449,
      "##am": 450,
      "##tar": 451,
      "##93": 452,
      "##94": 453,
      "##gin": 454,
      "##ass": 455,
      "25": 456,
      "cp": 457,
      "##tc": 458,
      "##iar": 459,
      "##1B": 460,
      "##de": 461,
      "##63": 462,
      "##20": 463,
      "##29": 464,
      "##aciar": 465,
      "login": 466,
      "40": 467,
      "pass": 468,
      "##iu": 469,
      "##19": 470,
      "##14": 471,
      "##03": 472,
      "##oe": 473,
      "##86": 474,
      "##23": 475,
      "##26": 476,
      "##....": 477,
      "passw": 478,
      "3D": 479,
      "=*;": 480,
      "dir": 481,
      "jp": 482,
      "mac": 483,
      "mie": 484,
      "##D4": 485,
      "##8C": 486,
      "##8A": 487,
      "##97": 488,
      "##EF": 489,
      "prov": 490,
      "##mbros": 491,
      "##dow": 492,
      "miembros": 493,
      "provin": 494,
      "++": 495,
      ">%": 496,
      "Regis": 497,
      "an": 498,
      "al": 499,
      "ciu": 500,
      "dni": 501,
      "ema": 502,
      "ntc": 503,
      "pag": 504,
      "##DE": 505,
      "##DA": 506,
      "##ecc": 507,
      "##ion": 508,
      "##11": 509,
      "##ja": 510,
      "##cia": 511
    }
  }
}