{
  "version": "1.0",
  "truncation": null,
  "padding": null,
  "added_tokens": [
    {
      "id": 0,
      "content": "[PAD]",
      "single_word": false,
      "lstrip": false,
      "rstrip": false,
      "normalized": false,
      "special": true
    },
    {
      "id": 1,
      "content": "[UNK]",
      "single_word": false,
      "lstrip": false,
      "rstrip": false,
      "normalized": false,
      "special": true
    },
    {
      "id": 2,
      "content": "[CLS]",
      "single_word": false,
      "lstrip": false,
      "rstrip": false,
      "normalized": false,
      "special": true
    },
    {
      "id": 3,
      "content": "[SEP]",
      "single_word": false,
      "lstrip": false,
      "rstrip": false,
      "normalized": false,
      "special": true
    },
    {
      "id": 4,
      "content": "[MASK]",
      "single_word": false,
      "lstrip": false,
      "rstrip": false,
      "normalized": false,
      "special": true
    }
  ],
  "normalizer": {
    "type": "NFKC"
  },
  "pre_tokenizer": {
    "type": "Whitespace"
  },
  "post_processor": null,
  "decoder": null,
  "model": {
    "type": "WordPiece",
    "unk_token": "[UNK]",
    "continuing_subword_prefix": "##",
    "max_input_chars_per_word": 100,
    "vocab": {
      "[PAD]": 0,
      "[UNK]": 1,
      "[CLS]": 2,
      "[SEP]": 3,
      "[MASK]": 4,
      "0": 5,
      "1": 6,
      "2": 7,
      "3": 8,
      "4": 9,
      "5": 10,
      "6": 11,
      "7": 12,
      "8": 13,
      "9": 14,
      "<": 15,
      "=": 16,
      ">": 17,
      "A": 18,
      "B": 19,
      "C": 20,
      "D": 21,
      "E": 22,
      "F": 23,
      "G": 24,
      "H": 25,
      "I": 26,
      "J": 27,
      "K": 28,
      "L": 29,
      "M": 30,
      "N": 31,
      "O": 32,
      "P": 33,
      "Q": 34,
      "R": 35,
      "S": 36,
      "T": 37,
      "U": 38,
      "V": 39,
      "W": 40,
      "X": 41,
      "Y": 42,
      "Z": 43,
      "_": 44,
      "a": 45,
      "b": 46,
      "c": 47,
      "d": 48,
      "e": 49,
      "f": 50,
      "g": 51,
      "h": 52,
      "i": 53,
      "j": 54,
      "k": 55,
      "l": 56,
      "m": 57,
      "n": 58,
      "o": 59,
      "p": 60,
      "q": 61,
      "r": 62,
      "s": 63,
      "t": 64,
      "u": 65,
      "v": 66,
      "w": 67,
      "x": 68,
      "y": 69,
      "z": 70,
      "##X": 71,
      "##M": 72,
      "##3": 73,
      "##l": 74,
      "##T": 75,
      "##U": 76,
      "##m": 77,
      "##B": 78,
      "##o": 79,
      "##a": 80,
      "##g": 81,
      "##f": 82,
      "##9": 83,
      "##H": 84,
      "##Q": 85,
      "##I": 86,
      "##A": 87,
      "##E": 88,
      "##C": 89,
      "##K": 90,
      "##O": 91,
      "##D": 92,
      "##k": 93,
      "##N": 94,
      "##u": 95,
      "##J": 96,
      "##Z": 97,
      "##W": 98,
      "##e": 99,
      "##p": 100,
      "##x": 101,
      "##b": 102,
      "##8": 103,
      "##V": 104,
      "##R": 105,
      "##i": 106,
      "##0": 107,
      "##7": 108,
      "##t": 109,
      "##F": 110,
      "##L": 111,
      "##c": 112,
      "##S": 113,
      "##Y": 114,
      "##G": 115,
      "##q": 116,
      "##y": 117,
      "##s": 118,
      "##5": 119,
      "##n": 120,
      "##P": 121,
      "##j": 122,
      "##w": 123,
      "##r": 124,
      "##6": 125,
      "##z": 126,
      "##d": 127,
      "##1": 128,
      "##4": 129,
      "##v": 130,
      "##h": 131,
      "##2": 132,
      "##_": 133,
      "##EP": 134,
      "SEP": 135,
      "k1": 136,
      "##gn": 137,
      "##EC": 138,
      "##ND": 139,
      "##al": 140,
      "##si": 141,
      "k5": 142,
      "k2": 143,
      "k4": 144,
      "k9": 145,
      "k6": 146,
      "k8": 147,
      "k3": 148,
      "k0": 149,
      "k7": 150,
      "k16": 151,
      "k12": 152,
      "REC": 153,
      "k13": 154,
      "k17": 155,
      "k14": 156,
      "END": 157,
      "k_": 158,
      "k19": 159,
      "k18": 160,
      "k15": 161,
      "k11": 162,
      "##gnal": 163,
      "##signal": 164,
      "k_signal": 165,
      "S1": 166,
      "##Hn": 167,
      "##77": 168,
      "##1z": 169,
      "##bZ": 170,
      "##Pc": 171,
      "##5R": 172,
      "##YC": 173,
      "##SC": 174,
      "##mW": 175,
      "##dG": 176,
      "##Np": 177,
      "##82": 178,
      "##rU": 179,
      "##E2": 180,
      "##7i": 181,
      "##6l": 182,
      "##aR": 183,
      "##hQ": 184,
      "##XU": 185,
      "##vR": 186,
      "##13": 187,
      "##Ny": 188,
      "##94": 189,
      "##Aw": 190,
      "##LW": 191,
      "##53": 192,
      "##hR": 193,
      "##gV": 194,
      "##uf": 195,
      "##xk": 196,
      "##6q": 197,
      "##di": 198,
      "##dQ": 199,
      "##oc": 200,
      "##ae": 201,
      "##El": 202,
      "##EM": 203,
      "##8D": 204,
      "##sB": 205,
      "##zK": 206,
      "##N2": 207,
      "##dK": 208,
      "##Nt": 209,
      "##bi": 210,
      "##uT": 211,
      "##xJ": 212,
      "##Hf": 213,
      "##Fw": 214,
      "##9i": 215,
      "##AT": 216,
      "##Nk": 217,
      "##ut": 218,
      "##IV": 219,
      "##0e": 220,
      "##7O": 221,
      "##mO": 222,
      "##oD": 223,
      "##sq": 224,
      "##5U": 225,
      "##64": 226,
      "##my": 227,
      "##gJ": 228,
      "##YL": 229,
      "##5f": 230,
      "##5q": 231,
      "##dC": 232,
      "##ID": 233,
      "##E3": 234,
      "##ue": 235,
      "##S3": 236,
      "##At": 237,
      "##0n": 238,
      "##YV": 239,
      "##aV": 240,
      "##5B": 241,
      "##dw": 242,
      "##8M": 243,
      "##o3": 244,
      "##ow": 245,
      "##uk": 246,
      "##xC": 247,
      "##jT": 248,
      "##vv": 249,
      "##bW": 250,
      "##dD": 251,
      "##9V": 252,
      "##xO": 253,
      "##Gi": 254,
      "##5Z": 255,
      "##ze": 256,
      "##r4": 257,
      "##de": 258,
      "##hC": 259,
      "##0Z": 260,
      "##Pw": 261,
      "##ay": 262,
      "##uq": 263,
      "##xV": 264,
      "##be": 265,
      "##jD": 266,
      "##1U": 267,
      "##hf": 268,
      "##mf": 269,
      "##Hc": 270,
      "##8c": 271,
      "##SD": 272,
      "##rk": 273,
      "##63": 274,
      "##A2": 275,
      "##Nn": 276,
      "##xT": 277,
      "##xw": 278,
      "##7K": 279,
      "##F2": 280,
      "##6Q": 281,
      "##oR": 282,
      "##Hi": 283,
      "##FC": 284,
      "##9R": 285,
      "##Nq": 286,
      "##LZ": 287,
      "##sW": 288,
      "##rK": 289,
      "##oZ": 290,
      "##oq": 291,
      "##EJ": 292,
      "##xK": 293,
      "##YQ": 294,
      "##IZ": 295,
      "##EO": 296,
      "##NU": 297,
      "##bT": 298,
      "##Ff": 299,
      "##gR": 300,
      "##j2": 301,
      "##pV": 302,
      "##0w": 303,
      "##02": 304,
      "##5k": 305,
      "##mV": 306,
      "##aq": 307,
      "##g4": 308,
      "##Iy": 309,
      "##7k": 310,
      "##H4": 311,
      "##Ik": 312,
      "##EZ": 313,
      "##dX": 314,
      "##ge": 315,
      "##9J": 316,
      "##8Z": 317,
      "##7q": 318,
      "##s4": 319,
      "##rW": 320,
      "##mw": 321,
      "##Ey": 322,
      "##0W": 323,
      "##1C": 324,
      "##hV": 325,
      "##mB": 326,
      "##gQ": 327,
      "##NW": 328,
      "##xf": 329,
      "##rc": 330,
      "##6w": 331,
      "##vk": 332,
      "##oC": 333,
      "##IU": 334,
      "##AU": 335,
      "##AO": 336,
      "##u3": 337,
      "##Se": 338,
      "##sf": 339,
      "##je": 340,
      "##6G": 341,
      "##dT": 342,
      "##Aq": 343,
      "##bD": 344,
      "##6c": 345,
      "##oK": 346,
      "##gU": 347,
      "##AR": 348,
      "##8J": 349,
      "##dq": 350,
      "##9y": 351,
      "##uc": 352,
      "##FK": 353,
      "##FJ": 354,
      "##sX": 355,
      "##Pk": 356,
      "##jR": 357,
      "##mC": 358,
      "##Hq": 359,
      "##pU": 360,
      "##bk": 361,
      "##YM": 362,
      "##rq": 363,
      "##oV": 364,
      "##NK": 365,
      "##pB": 366,
      "##xU": 367,
      "##bV": 368,
      "##YW": 369,
      "##5M": 370,
      "##dk": 371,
      "##mn": 372,
      "##oU": 373,
      "##A4": 374,
      "##bt": 375,
      "##sG": 376,
      "##5i": 377,
      "##1w": 378,
      "##ot": 379,
      "##a3": 380,
      "##af": 381,
      "##uV": 382,
      "##FT": 383,
      "##st": 384,
      "##5w": 385,
      "##Pt": 386,
      "##jO": 387,
      "##zT": 388,
      "##dO": 389,
      "##1l": 390,
      "##9t": 391,
      "##92": 392,
      "##Nf": 393,
      "##bQ": 394,
      "##8f": 395,
      "##sU": 396,
      "##zl": 397,
      "##1e": 398,
      "##1q": 399,
      "##aQ": 400,
      "##pK": 401,
      "##bc": 402,
      "##FD": 403,
      "##Ye": 404,
      "##6f": 405,
      "##mt": 406,
      "##aK": 407,
      "##Iw": 408,
      "##EK": 409,
      "##NQ": 410,
      "##Sn": 411,
      "##5Q": 412,
      "##vw": 413,
      "##mZ": 414,
      "##9M": 415,
      "##An": 416,
      "##ER": 417,
      "##uC": 418,
      "##8k": 419,
      "##jn": 420,
      "##vO": 421,
      "##m2": 422,
      "##at": 423,
      "##gi": 424,
      "##AJ": 425,
      "##Ac": 426,
      "##6Z": 427,
      "##hO": 428,
      "##AZ": 429,
      "##Nl": 430,
      "##xW": 431,
      "##xG": 432,
      "##0y": 433,
      "##Sf": 434,
      "##sM": 435,
      "##sw": 436,
      "##re": 437,
      "##1B": 438,
      "##HZ": 439,
      "##IQ": 440,
      "##AC": 441,
      "##xR": 442,
      "##bK": 443,
      "##b2": 444,
      "##8y": 445,
      "##0C": 446,
      "##FB": 447,
      "##Lf": 448,
      "##sR": 449,
      "##jt": 450,
      "##rw": 451,
      "##1M": 452,
      "##ml": 453,
      "##mc": 454,
      "##gB": 455,
      "##gy": 456,
      "##uU": 457,
      "##bR": 458,
      "##YU": 459,
      "##s2": 460,
      "##dy": 461,
      "##1Q": 462,
      "##oW": 463,
      "##gK": 464,
      "##g2": 465,
      "##It": 466,
      "##0q": 467,
      "##F4": 468,
      "##YZ": 469,
      "##dl": 470,
      "##I4": 471,
      "##uy": 472,
      "##pt": 473,
      "##xM": 474,
      "##bO": 475,
      "##0O": 476,
      "##0R": 477,
      "##Fq": 478,
      "##Sl": 479,
      "##jy": 480,
      "##vB": 481,
      "##aT": 482,
      "##gT": 483,
      "##Il": 484,
      "##NO": 485,
      "##pi": 486,
      "##py": 487,
      "##xX": 488,
      "##0i": 489,
      "##Y4": 490,
      "##hM": 491,
      "##h2": 492,
      "##mD": 493,
      "##93": 494,
      "##NT": 495,
      "##7n": 496,
      "##LU": 497,
      "##5W": 498,
      "##Pn": 499,
      "##6D": 500,
      "##vZ": 501,
      "##gC": 502,
      "##HT": 503,
      "##Ee": 504,
      "##EG": 505,
      "##E4": 506,
      "##N3": 507,
      "##8n": 508,
      "##04": 509,
      "##Yw": 510,
      "##sK": 511,
      "##5K": 512,
      "##jX": 513,
      "##ry": 514,
      "##zn": 515,
      "##vf": 516,
      "##He": 517,
      "##Ef": 518,
      "##NB": 519,
      "##NR": 520,
      "##0M": 521,
      "##SM": 522,
      "##sk": 523,
      "##dM": 524,
      "##dJ": 525,
      "##hB": 526,
      "##gf": 527,
      "##9e": 528,
      "##xt": 529,
      "##bw": 530,
      "##0T": 531,
      "##7U": 532,
      "##FR": 533,
      "##LV": 534,
      "##Pf": 535,
      "##rR": 536,
      "##1O": 537,
      "##1D": 538,
      "##vi": 539,
      "##of": 540,
      "##HQ": 541,
      "##HD": 542,
      "##Ie": 543,
      "##Ai": 544,
      "##84": 545,
      "##Lk": 546,
      "##zw": 547,
      "##hk": 548,
      "##g3": 549,
      "##9k": 550,
      "##9n": 551,
      "##HC": 552,
      "##HO": 553,
      "##NJ": 554,
      "##uw": 555,
      "##0l": 556,
      "##FG": 557,
      "##jB": 558,
      "##d3": 559,
      "##gD": 560,
      "##Ic": 561,
      "##0f": 562,
      "##S2": 563,
      "##5c": 564,
      "##rl": 565,
      "##6M": 566,
      "##1K": 567,
      "##hK": 568,
      "##mT": 569,
      "##mG": 570,
      "##9c": 571,
      "##EQ": 572,
      "##uB": 573,
      "##xQ": 574,
      "##8W": 575,
      "##0k": 576,
      "##72": 577,
      "##LB": 578,
      "##se": 579,
      "##5T": 580,
      "##o4": 581,
      "##9B": 582,
      "##ET": 583,
      "##x2": 584,
      "##bC": 585,
      "##b4": 586,
      "##8q": 587,
      "##ri": 588,
      "##62": 589,
      "##1c": 590,
      "##HJ": 591,
      "##HR": 592,
      "##Eq": 593,
      "##pR": 594,
      "##7T": 595,
      "##FQ": 596,
      "##Fi": 597,
      "##5V": 598,
      "##52": 599,
      "##h3": 600,
      "##aO": 601,
      "##ai": 602,
      "##Ae": 603,
      "##Ew": 604,
      "##NM": 605,
      "##SJ": 606,
      "##Yl": 607,
      "##Yy": 608,
      "##sO": 609,
      "##j3": 610,
      "##r3": 611,
      "##12": 612,
      "##hn": 613,
      "##a2": 614,
      "##gk": 615,
      "##xl": 616,
      "##bM": 617,
      "##bq": 618,
      "##0B": 619,
      "##0c": 620,
      "##Fk": 621,
      "##Sq": 622,
      "##5C": 623,
      "##rX": 624,
      "##rn": 625,
      "##6k": 626,
      "##d2": 627,
      "##oM": 628,
      "##o2": 629,
      "##9Q": 630,
      "##IG": 631,
      "##In": 632,
      "##Ay": 633,
      "##Ec": 634,
      "##bU": 635,
      "##8O": 636,
      "##FW": 637,
      "##YO": 638,
      "##rQ": 639,
      "##rO": 640,
      "##zW": 641,
      "##zG": 642,
      "##hX": 643,
      "##IM": 644,
      "##I3": 645,
      "##EV": 646,
      "##xD": 647,
      "##xn": 648,
      "##bG": 649,
      "##6W": 650,
      "##aC": 651,
      "##gG": 652,
      "##IB": 653,
      "##Ii": 654,
      "##xB": 655,
      "##7W": 656,
      "##L3": 657,
      "##sT": 658,
      "##jV": 659,
      "##rB": 660,
      "##rD": 661,
      "##vD": 662,
      "##gO": 663,
      "##gZ": 664,
      "##Hk": 665,
      "##xq": 666,
      "##bf": 667,
      "##8G": 668,
      "##P2": 669,
      "##jl": 670,
      "##6O": 671,
      "##6e": 672,
      "##6t": 673,
      "##zU": 674,
      "##zV": 675,
      "##vl": 676,
      "##mK": 677,
      "##an": 678,
      "##8Q": 679,
      "##0t": 680,
      "##7t": 681,
      "##SK": 682,
      "##YD": 683,
      "##5e": 684,
      "##jc": 685,
      "##jw": 686,
      "##6i": 687,
      "##zf": 688,
      "##zR": 689,
      "##hU": 690,
      "##p4": 691,
      "##8T": 692,
      "##sQ": 693,
      "##5D": 694,
      "##P4": 695,
      "##dV": 696,
      "##dR": 697,
      "##hi": 698,
      "##on": 699,
      "##AM": 700,
      "##xc": 701,
      "##Pq": 702,
      "##6J": 703,
      "##dc": 704,
      "##mM": 705,
      "##Ni": 706,
      "##7e": 707,
      "##LK": 708,
      "##YK": 709,
      "##rG": 710,
      "##dt": 711,
      "##gc": 712,
      "##If": 713,
      "##8C": 714,
      "##LO": 715,
      "##sc": 716,
      "##rT": 717,
      "##1J": 718,
      "##vQ": 719,
      "##oy": 720,
      "##AD": 721,
      "##uQ": 722,
      "##pM": 723,
      "##7l": 724,
      "##Yc": 725,
      "##zX": 726,
      "##he": 727,
      "##gt": 728,
      "##gw": 729,
      "##9D": 730,
      "##Iq": 731,
      "##Ek": 732,
      "##uD": 733,
      "##S4": 734,
      "##Y3": 735,
      "##YJ": 736,
      "##YR": 737,
      "##1W": 738,
      "##mq": 739,
      "##xi": 740,
      "##Fc": 741,
      "##Lt": 742,
      "##ST": 743,
      "##SW": 744,
      "##sD": 745,
      "##Pl": 746,
      "##jQ": 747,
      "##rC": 748,
      "##1k": 749,
      "##hc": 750,
      "##oJ": 751,
      "##aU": 752,
      "##gW": 753,
      "##Ht": 754,
      "##AQ": 755,
      "##xe": 756,
      "##8R": 757,
      "##8i": 758,
      "##6C": 759,
      "##1y": 760,
      "##aD": 761,
      "##Ak": 762,
      "##NV": 763,
      "##uM": 764,
      "##u4": 765,
      "##bJ": 766,
      "##bn": 767,
      "##0U": 768,
      "##YB": 769,
      "##Yf": 770,
      "##s3": 771,
      "##PO": 772,
      "##Py": 773,
      "##6B": 774,
      "##zB": 775,
      "##zk": 776,
      "##1G": 777,
      "##mX": 778,
      "##oe": 779,
      "##IK": 780,
      "##ul": 781,
      "##7w": 782,
      "##6U": 783,
      "##1Z": 784,
      "##vX": 785,
      "##hJ": 786,
      "##mQ": 787,
      "##mJ": 788,
      "##9U": 789,
      "##A3": 790,
      "##74": 791,
      "##jU": 792,
      "##jJ": 793,
      "##oX": 794,
      "##aM": 795,
      "##9X": 796,
      "##HG": 797,
      "##NZ": 798,
      "##p3": 799,
      "##7c": 800,
      "##PT": 801,
      "##Pi": 802,
      "##jk": 803,
      "##rJ": 804,
      "##6T": 805,
      "##zM": 806,
      "##hw": 807,
      "##m4": 808,
      "##ak": 809,
      "##uW": 810,
      "##x3": 811,
      "##b3": 812,
      "##ji": 813,
      "##j4": 814,
      "##rf": 815,
      "##dW": 816,
      "##ac": 817,
      "##EW": 818,
      "##8V": 819,
      "##7f": 820,
      "##7C": 821,
      "##5G": 822,
      "##PV": 823,
      "##1n": 824,
      "##me": 825,
      "##aW": 826,
      "##uR": 827,
      "##pT": 828,
      "##jf": 829,
      "##ED": 830,
      "##7V": 831,
      "##SV": 832,
      "##Sy": 833,
      "##sC": 834,
      "##PJ": 835,
      "##PW": 836,
      "##14": 837,
      "##vt": 838,
      "##vy": 839,
      "##oB": 840,
      "##HW": 841,
      "##ui": 842,
      "##7G": 843,
      "##LM": 844,
      "##LR": 845,
      "##SU": 846,
      "##vq": 847,
      "##hW": 848,
      "##mi": 849,
      "##St": 850,
      "##6K": 851,
      "##vC": 852,
      "##oQ": 853,
      "##aw": 854,
      "##gl": 855,
      "##FV": 856,
      "##Lc": 857,
      "##SG": 858,
      "##Y2": 859,
      "##PX": 860,
      "##dB": 861,
      "##d4": 862,
      "##vc": 863,
      "##hG": 864,
      "##9C": 865,
      "##8l": 866,
      "##7J": 867,
      "##FZ": 868,
      "##Yi": 869,
      "##Yn": 870,
      "##jC": 871,
      "##gM": 872,
      "##9O": 873,
      "##9Z": 874,
      "##HU": 875,
      "##HB": 876,
      "##AK": 877,
      "##8w": 878,
      "##SB": 879,
      "##Yk": 880,
      "##dZ": 881,
      "##9f": 882,
      "##Hl": 883,
      "##uJ": 884,
      "##un": 885,
      "##7y": 886,
      "##Fy": 887,
      "##Yt": 888,
      "##sZ": 889,
      "##54": 890,
      "##PD": 891,
      "##z2": 892,
      "##hy": 893,
      "##oG": 894,
      "##9W": 895,
      "##H3": 896,
      "##pe": 897,
      "##bB": 898,
      "##F3": 899,
      "##Ft": 900,
      "##PK": 901,
      "##df": 902,
      "##1R": 903,
      "##1i": 904,
      "##oi": 905,
      "##pn": 906,
      "##8B": 907,
      "##8K": 908,
      "##5X": 909,
      "##zq": 910,
      "##1f": 911,
      "##gX": 912,
      "##Hy": 913,
      "##Ne": 914,
      "##uZ": 915,
      "##xy": 916,
      "##03": 917,
      "##PG": 918,
      "##vW": 919,
      "##oT": 920,
      "##IW": 921,
      "##uO": 922,
      "##0Q": 923,
      "##6y": 924,
      "##vM": 925,
      "##H2": 926,
      "##IT": 927,
      "##AV": 928,
      "##8t": 929,
      "##0K": 930,
      "##LQ": 931,
      "##SZ": 932,
      "##PZ": 933,
      "##mk": 934,
      "##HK": 935,
      "##Af": 936,
      "##pq": 937,
      "##LJ": 938,
      "##L4": 939,
      "##5l": 940,
      "##5O": 941,
      "##aJ": 942,
      "##pk": 943,
      "##7M": 944,
      "##Le": 945,
      "##vU": 946,
      "##mU": 947,
      "##ok": 948,
      "##IR": 949,
      "##Al": 950,
      "##EU": 951,
      "##En": 952,
      "##7B": 953,
      "##7Z": 954,
      "##7R": 955,
      "##FO": 956,
      "##Sk": 957,
      "##YT": 958,
      "##rM": 959,
      "##z3": 960,
      "##hT": 961,
      "##9K": 962,
      "##Hw": 963,
      "##NX": 964,
      "##pO": 965,
      "##pJ": 966,
      "##0V": 967,
      "##73": 968,
      "##jM": 969,
      "##v3": 970,
      "##vK": 971,
      "##hl": 972,
      "##a4": 973,
      "##9q": 974,
      "##I2": 975,
      "##Li": 976,
      "##Lq": 977,
      "##AB": 978,
      "##AG": 979,
      "##0D": 980,
      "##7D": 981,
      "##YX": 982,
      "##Fn": 983,
      "##LD": 984,
      "##PR": 985,
      "##v4": 986,
      "##p2": 987,
      "##L2": 988,
      "##r2": 989,
      "##h4": 990,
      "##9w": 991,
      "##u2": 992,
      "##pQ": 993,
      "##pW": 994,
      "##8X": 995,
      "##jW": 996,
      "##5t": 997,
      "##vV": 998,
      "##9G": 999,
      "##pD": 1000,
      "##by": 1001,
      "##LX": 1002,
      "##Ll": 1003,
      "##zt": 1004,
      "##hq": 1005,
      "##gq": 1006,
      "##EX": 1007,
      "##Nw": 1008,
      "##N4": 1009,
      "##Ln": 1010,
      "##Lw": 1011,
      "##SR": 1012,
      "##IO": 1013,
      "##xZ": 1014,
      "##SX": 1015,
      "##1t": 1016,
      "##vT": 1017,
      "##AX": 1018,
      "##Et": 1019,
      "##Fe": 1020,
      "##SQ": 1021,
      "##jq": 1022,
      "##pf": 1023,
      "##z4": 1024,
      "##ol": 1025,
      "##AW": 1026,
      "##83": 1027,
      "##5y": 1028,
      "##5n": 1029,
      "##jG": 1030,
      "##dn": 1031,
      "##hZ": 1032,
      "##IX": 1033,
      "##pc": 1034,
      "##rV": 1035,
      "##vG": 1036,
      "##aB": 1037,
      "##NC": 1038,
      "##Fl": 1039,
      "##jK": 1040,
      "##zC": 1041,
      "##zJ": 1042,
      "##m3": 1043,
      "##IC": 1044,
      "##uX": 1045,
      "##6n": 1046,
      "##9l": 1047,
      "##HX": 1048,
      "##Nc": 1049,
      "##bl": 1050,
      "##0X": 1051,
      "##sn": 1052,
      "##jZ": 1053,
      "##vJ": 1054,
      "##aZ": 1055,
      "##IJ": 1056,
      "##0G": 1057,
      "##YG": 1058,
      "##Ei": 1059,
      "##pl": 1060,
      "##PC": 1061,
      "##6X": 1062,
      "##uG": 1063,
      "##P3": 1064,
      "##mR": 1065,
      "##uK": 1066,
      "##x4": 1067,
      "##Yq": 1068,
      "##sV": 1069,
      "##PM": 1070,
      "##HM": 1071,
      "##pX": 1072,
      "##8e": 1073,
      "##Sc": 1074,
      "##8U": 1075,
      "##FM": 1076,
      "##PB": 1077,
      "##7Q": 1078,
      "##FU": 1079,
      "##sy": 1080,
      "##PQ": 1081,
      "##ht": 1082,
      "##9T": 1083,
      "##FX": 1084,
      "##zZ": 1085,
      "##vn": 1086,
      "##7X": 1087,
      "##SO": 1088,
      "##1X": 1089,
      "##ve": 1090,
      "##aX": 1091,
      "##aG": 1092,
      "##zD": 1093,
      "##hD": 1094,
      "##oO": 1095,
      "##bX": 1096,
      "##6R": 1097,
      "##zc": 1098,
      "##dU": 1099,
      "##HV": 1100,
      "##zi": 1101,
      "##pG": 1102,
      "##6V": 1103,
      "##EB": 1104,
      "##v2": 1105,
      "##pw": 1106,
      "##Pe": 1107,
      "##Ly": 1108,
      "##sl": 1109,
      "##5J": 1110,
      "##PU": 1111,
      "##LG": 1112,
      "##Sw": 1113,
      "##rZ": 1114,
      "##0J": 1115,
      "##sJ": 1116,
      "##1V": 1117,
      "##pZ": 1118,
      "##zQ": 1119,
      "##1T": 1120,
      "##LT": 1121,
      "##LC": 1122,
      "##Si": 1123,
      "##rt": 1124,
      "##pC": 1125,
      "##zy": 1126,
      "##NG": 1127,
      "##zO": 1128,
      "##Yh": 1129,
      "##oa": 1130,
      "##9A": 1131,
      "##Ih": 1132,
      "##dE": 1133,
      "##am": 1134,
      "##8s": 1135,
      "##Ng": 1136,
      "##89": 1137,
      "##66": 1138,
      "##Ir": 1139,
      "##0z": 1140,
      "##Ns": 1141,
      "##I6": 1142,
      "##jS": 1143,
      "##Lh": 1144,
      "##mm": 1145,
      "##eC": 1146,
      "##bS": 1147,
      "##bz": 1148,
      "##gh": 1149,
      "##Lu": 1150,
      "##cq": 1151,
      "##AH": 1152,
      "##5p": 1153,
      "##jo": 1154,
      "##Yz": 1155,
      "##8H": 1156,
      "##YP": 1157,
      "##gP": 1158,
      "##Fu": 1159,
      "##sr": 1160,
      "##d6": 1161,
      "##xu": 1162,
      "##1p": 1163,
      "##aP": 1164,
      "##t3": 1165,
      "##Fp": 1166,
      "##9u": 1167,
      "##Ol": 1168,
      "##4Z": 1169,
      "##5S": 1170,
      "##1m": 1171,
      "##TU": 1172,
      "##FS": 1173,
      "##DB": 1174,
      "##Eu": 1175,
      "##bu": 1176,
      "##FP": 1177,
      "##AA": 1178,
      "##Fh": 1179,
      "##Yu": 1180,
      "##oo": 1181,
      "##NP": 1182,
      "##7s": 1183,
      "##5h": 1184,
      "##2k": 1185,
      "##Nv": 1186,
      "##xj": 1187,
      "##8L": 1188,
      "##7h": 1189,
      "##ef": 1190,
      "##5j": 1191,
      "##nl": 1192,
      "##1S": 1193,
      "##bp": 1194,
      "##bs": 1195,
      "##5L": 1196,
      "##8z": 1197,
      "##2K": 1198,
      "##9g": 1199,
      "##Iu": 1200,
      "##N6": 1201,
      "##Fs": 1202,
      "##c4": 1203,
      "##dr": 1204,
      "##Ij": 1205,
      "##AS": 1206,
      "##ew": 1207,
      "##bP": 1208,
      "##FL": 1209,
      "##1r": 1210,
      "##3l": 1211,
      "##BM": 1212,
      "##BC": 1213,
      "##HS": 1214,
      "##8m": 1215,
      "##RO": 1216,
      "##5u": 1217,
      "##9h": 1218,
      "##Wf": 1219,
      "##xz": 1220,
      "##RD": 1221,
      "##nU": 1222,
      "##xa": 1223,
      "##bE": 1224,
      "##7L": 1225,
      "##nJ": 1226,
      "##or": 1227,
      "##0h": 1228,
      "##9p": 1229,
      "##9P": 1230,
      "##xr": 1231,
      "##8j": 1232,
      "##Fm": 1233,
      "##kD": 1234,
      "##xm": 1235,
      "##0P": 1236,
      "##F6": 1237,
      "##5r": 1238,
      "##Kw": 1239,
      "##xg": 1240,
      "##TG": 1241,
      "##NL": 1242,
      "##0a": 1243,
      "##cf": 1244,
      "##5z": 1245,
      "##dm": 1246,
      "##Wl": 1247,
      "##8S": 1248,
      "##7g": 1249,
      "##Ig": 1250,
      "##Nh": 1251,
      "##Fz": 1252,
      "##cU": 1253,
      "##cG": 1254,
      "##1s": 1255,
      "##Ha": 1256,
      "##7p": 1257,
      "##vr": 1258,
      "##oz": 1259,
      "##Hp": 1260,
      "##Ia": 1261,
      "##IP": 1262,
      "##Az": 1263,
      "##0u": 1264,
      "##tM": 1265,
      "##Fg": 1266,
      "##YE": 1267,
      "##5s": 1268,
      "##1u": 1269,
      "##3G": 1270,
      "##TM": 1271,
      "##96": 1272,
      "##Iz": 1273,
      "##TC": 1274,
      "##OO": 1275,
      "##cV": 1276,
      "##dS": 1277,
      "##dP": 1278,
      "##Tq": 1279,
      "##oh": 1280,
      "##ZC": 1281,
      "##bh": 1282,
      "##tf": 1283,
      "##tQ": 1284,
      "##Fa": 1285,
      "##1P": 1286,
      "##va": 1287,
      "##7P": 1288,
      "##Ys": 1289,
      "##1j": 1290,
      "##vS": 1291,
      "##XC": 1292,
      "##Ip": 1293,
      "##NS": 1294,
      "##bg": 1295,
      "##tq": 1296,
      "##YS": 1297,
      "##vm": 1298,
      "##Hu": 1299,
      "##AL": 1300,
      "##xh": 1301,
      "##ba": 1302,
      "##ii": 1303,
      "##cJ": 1304,
      "##1h": 1305,
      "##vs": 1306,
      "##2U": 1307,
      "##cQ": 1308,
      "##4w": 1309,
      "##2q": 1310,
      "##2y": 1311,
      "##cK": 1312,
      "##Ya": 1313,
      "##16": 1314,
      "##vh": 1315,
      "##9m": 1316,
      "##Dl": 1317,
      "##WM": 1318,
      "##cl": 1319,
      "##cC": 1320,
      "##Xw": 1321,
      "##Hm": 1322,
      "##WJ": 1323,
      "##7j": 1324,
      "##tw": 1325,
      "##5g": 1326,
      "##oE": 1327,
      "##Hg": 1328,
      "##Hr": 1329,
      "##Am": 1330,
      "##WK": 1331,
      "##cB": 1332,
      "##5a": 1333,
      "##Ap": 1334,
      "##RU": 1335,
      "##ds": 1336,
      "##DQ": 1337,
      "##xP": 1338,
      "##86": 1339,
      "##dh": 1340,
      "##vu": 1341,
      "##Ah": 1342,
      "##Nz": 1343,
      "##8p": 1344,
      "##0L": 1345,
      "##vp": 1346,
      "##Hh": 1347,
      "##WV": 1348,
      "##7u": 1349,
      "##da": 1350,
      "##XZ": 1351,
      "##o6": 1352,
      "##IL": 1353,
      "##kM": 1354,
      "##Yj": 1355,
      "##dp": 1356,
      "##dL": 1357,
      "##1g": 1358,
      "##om": 1359,
      "##9S": 1360,
      "##Ar": 1361,
      "##kU": 1362,
      "##kC": 1363,
      "##Nr": 1364,
      "##el": 1365,
      "##0g": 1366,
      "##tC": 1367,
      "##nq": 1368,
      "##dg": 1369,
      "##X3": 1370,
      "##Xl": 1371,
      "##Xi": 1372,
      "##TO": 1373,
      "##oP": 1374,
      "##9s": 1375,
      "##Nm": 1376,
      "##8P": 1377,
      "##Rl": 1378,
      "##5E": 1379,
      "##dz": 1380,
      "##9E": 1381,
      "##76": 1382,
      "##nZ": 1383,
      "##xp": 1384,
      "##8E": 1385,
      "##2w": 1386,
      "##Im": 1387,
      "##Nj": 1388,
      "##e4": 1389,
      "##bL": 1390,
      "##Ri": 1391,
      "##yf": 1392,
      "##XK": 1393,
      "##DJ": 1394,
      "##WC": 1395,
      "##xs": 1396,
      "##tJ": 1397,
      "##56": 1398,
      "##vP": 1399,
      "##2Q": 1400,
      "##Bf": 1401,
      "##Hz": 1402,
      "##OM": 1403,
      "##0S": 1404,
      "##0r": 1405,
      "##06": 1406,
      "##Fj": 1407,
      "##2J": 1408,
      "##BK": 1409,
      "##BV": 1410,
      "##IE": 1411,
      "##bm": 1412,
      "##RQ": 1413,
      "##Rw": 1414,
      "##7a": 1415,
      "##7z": 1416,
      "##yl": 1417,
      "##nM": 1418,
      "##nC": 1419,
      "##BZ": 1420,
      "##HL": 1421,
      "##IS": 1422,
      "##RM": 1423,
      "##5P": 1424,
      "##AP": 1425,
      "##Aj": 1426,
      "##Nu": 1427,
      "##Gw": 1428,
      "##yQ": 1429,
      "##3K": 1430,
      "##BJ": 1431,
      "##Hs": 1432,
      "##bj": 1433,
      "##br": 1434,
      "##4C": 1435,
      "##Tl": 1436,
      "##Bl": 1437,
      "##oj": 1438,
      "##9j": 1439,
      "##b6": 1440,
      "##7m": 1441,
      "##TQ": 1442,
      "##eQ": 1443,
      "##Rq": 1444,
      "##FE": 1445,
      "##Yp": 1446,
      "##yw": 1447,
      "##Tf": 1448,
      "##os": 1449,
      "##Is": 1450,
      "##ki": 1451,
      "##WQ": 1452,
      "##Rf": 1453,
      "##Ym": 1454,
      "##du": 1455,
      "##1a": 1456,
      "##vj": 1457,
      "##v6": 1458,
      "##oS": 1459,
      "##Aa": 1460,
      "##Au": 1461,
      "##kl": 1462,
      "##RV": 1463,
      "##tl": 1464,
      "##3f": 1465,
      "##8h": 1466,
      "##7E": 1467,
      "##nK": 1468,
      "##vz": 1469,
      "##2V": 1470,
      "##kw": 1471,
      "##WZ": 1472,
      "##eV": 1473,
      "##tK": 1474,
      "##ou": 1475,
      "##Na": 1476,
      "##eM": 1477,
      "##eG": 1478,
      "##xL": 1479,
      "##5m": 1480,
      "##3U": 1481,
      "##DC": 1482,
      "##eJ": 1483,
      "##cw": 1484,
      "##yC": 1485,
      "##4Q": 1486,
      "##2C": 1487,
      "##3Z": 1488,
      "##Ag": 1489,
      "##kV": 1490,
      "##og": 1491,
      "##oL": 1492,
      "##7S": 1493,
      "##2f": 1494,
      "##op": 1495,
      "##cM": 1496,
      "##yJ": 1497,
      "##4l": 1498,
      "##As": 1499,
      "##Ow": 1500,
      "##8u": 1501,
      "##yZ": 1502,
      "##vL": 1503,
      "##HP": 1504,
      "##0m": 1505,
      "##vE": 1506,
      "##XV": 1507,
      "##Hj": 1508,
      "##OV": 1509,
      "##DV": 1510,
      "##Di": 1511,
      "##Y6": 1512,
      "##OC": 1513,
      "##2l": 1514,
      "##3J": 1515,
      "##Oq": 1516,
      "##WU": 1517,
      "##Wq": 1518,
      "##eq": 1519,
      "##vg": 1520,
      "##TZ": 1521,
      "##Bi": 1522,
      "##OK": 1523,
      "##DM": 1524,
      "##xS": 1525,
      "##7r": 1526,
      "##nQ": 1527,
      "##Yg": 1528,
      "##Xf": 1529,
      "##RJ": 1530,
      "##tV": 1531,
      "##eU": 1532,
      "##8g": 1533,
      "##0j": 1534,
      "##ti": 1535,
      "##NE": 1536,
      "##xE": 1537,
      "##tZ": 1538,
      "##GJ": 1539,
      "##nV": 1540,
      "##4U": 1541,
      "##Tw": 1542,
      "##kZ": 1543,
      "##Wi": 1544,
      "##eK": 1545,
      "##8r": 1546,
      "##yU": 1547,
      "##3q": 1548,
      "##TV": 1549,
      "##Bq": 1550,
      "##9L": 1551,
      "##DK": 1552,
      "##nf": 1553,
      "##XM": 1554,
      "##9r": 1555,
      "##9z": 1556,
      "##0p": 1557,
      "##Fr": 1558,
      "##ni": 1559,
      "##dj": 1560,
      "##Xq": 1561,
      "##A6": 1562,
      "##yM": 1563,
      "##yq": 1564,
      "##BQ": 1565,
      "##1L": 1566,
      "##3i": 1567,
      "##RK": 1568,
      "##8a": 1569,
      "##4K": 1570,
      "##XJ": 1571,
      "##0s": 1572,
      "##eZ": 1573,
      "##GV": 1574,
      "##1E": 1575,
      "##kJ": 1576,
      "##DU": 1577,
      "##kf": 1578,
      "##4J": 1579,
      "##Dq": 1580,
      "##Ww": 1581,
      "##0E": 1582,
      "##ci": 1583,
      "##GQ": 1584,
      "##Bw": 1585,
      "##9a": 1586,
      "##RC": 1587,
      "##XQ": 1588,
      "##TK": 1589,
      "##TJ": 1590,
      "##4V": 1591,
      "##Yr": 1592,
      "##kq": 1593,
      "##nw": 1594,
      "##2M": 1595,
      "##3V": 1596,
      "##OZ": 1597,
      "##4i": 1598,
      "##OQ": 1599,
      "##H6": 1600,
      "##kQ": 1601,
      "##Oi": 1602,
      "##GM": 1603,
      "##AE": 1604,
      "##tU": 1605,
      "##2i": 1606,
      "##OJ": 1607,
      "##4M": 1608,
      "##BU": 1609,
      "##x6": 1610,
      "##ei": 1611,
      "##cZ": 1612,
      "##4q": 1613,
      "##RZ": 1614,
      "##Df": 1615,
      "##tG": 1616,
      "##yi": 1617,
      "##DZ": 1618,
      "##kK": 1619,
      "##AF": 1620,
      "##yV": 1621,
      "##4f": 1622,
      "##WG": 1623,
      "##yK": 1624,
      "##3C": 1625,
      "##XG": 1626,
      "##OU": 1627,
      "##Of": 1628,
      "##DG": 1629,
      "##3M": 1630,
      "##nG": 1631,
      "##1Y": 1632,
      "##2G": 1633,
      "##kG": 1634,
      "##OG": 1635,
      "##Ti": 1636,
      "##3Q": 1637,
      "##BG": 1638,
      "##05": 1639,
      "##7x": 1640,
      "##HE": 1641,
      "##1d": 1642,
      "##RG": 1643,
      "##4G": 1644,
      "##3w": 1645,
      "##9b": 1646,
      "##TW": 1647,
      "##85": 1648,
      "##H5": 1649,
      "##FI": 1650,
      "##dI": 1651,
      "##vo": 1652,
      "##Dw": 1653,
      "##2Z": 1654,
      "##15": 1655,
      "##pz": 1656,
      "##N5": 1657,
      "##bY": 1658,
      "##07": 1659,
      "##0o": 1660,
      "##rs": 1661,
      "##Xy": 1662,
      "##xF": 1663,
      "##dY": 1664,
      "##NY": 1665,
      "##LP": 1666,
      "##8b": 1667,
      "##jP": 1668,
      "##6h": 1669,
      "##01": 1670,
      "##8x": 1671,
      "##aS": 1672,
      "##cO": 1673,
      "##42": 1674,
      "##vH": 1675,
      "##UM": 1676,
      "##CV": 1677,
      "##qM": 1678,
      "##jE": 1679,
      "##zs": 1680,
      "##Tn": 1681,
      "##BW": 1682,
      "##N1": 1683,
      "##b5": 1684,
      "##9o": 1685,
      "##9Y": 1686,
      "##kn": 1687,
      "##NF": 1688,
      "##Ry": 1689,
      "##cy": 1690,
      "##vI": 1691,
      "##lV": 1692,
      "##eW": 1693,
      "##R3": 1694,
      "##6u": 1695,
      "##A1": 1696,
      "##0x": 1697,
      "##vF": 1698,
      "##Eh": 1699,
      "##dH": 1700,
      "##A5": 1701,
      "##k2": 1702,
      "##JQ": 1703,
      "##b1": 1704,
      "##eO": 1705,
      "##e2": 1706,
      "##pp": 1707,
      "##bF": 1708,
      "##0Y": 1709,
      "##rg": 1710,
      "##d5": 1711,
      "##Dy": 1712,
      "##NH": 1713,
      "##43": 1714,
      "##XW": 1715,
      "##TB": 1716,
      "##75": 1717,
      "##Tt": 1718,
      "##ZM": 1719,
      "##eB": 1720,
      "##bo": 1721,
      "##cn": 1722,
      "##No": 1723,
      "##7o": 1724,
      "##rL": 1725,
      "##fl": 1726,
      "##KV": 1727,
      "##ru": 1728,
      "##d1": 1729,
      "##vx": 1730,
      "##I5": 1731,
      "##Kl": 1732,
      "##e3": 1733,
      "##et": 1734,
      "##ct": 1735,
      "##N8": 1736,
      "##rz": 1737,
      "##XX": 1738,
      "##Ul": 1739,
      "##IF": 1740,
      "##ES": 1741,
      "##OW": 1742,
      "##ey": 1743,
      "##0H": 1744,
      "##ja": 1745,
      "##do": 1746,
      "##gm": 1747,
      "##dF": 1748,
      "##IY": 1749,
      "##ZV": 1750,
      "##7F": 1751,
      "##qQ": 1752,
      "##rm": 1753,
      "##fV": 1754,
      "##Dn": 1755,
      "##Zl": 1756,
      "##RB": 1757,
      "##0F": 1758,
      "##fM": 1759,
      "##wM": 1760,
      "##vY": 1761,
      "##Xn": 1762,
      "##KM": 1763,
      "##k3": 1764,
      "##8o": 1765,
      "##cW": 1766,
      "##sP": 1767,
      "##gu": 1768,
      "##Ao": 1769,
      "##A9": 1770,
      "##Zi": 1771,
      "##bH": 1772,
      "##hL": 1773,
      "##Cq": 1774,
      "##pP": 1775,
      "##Sa": 1776,
      "##j6": 1777,
      "##fi": 1778,
      "##EL": 1779,
      "##Ez": 1780,
      "##Ki": 1781,
      "##09": 1782,
      "##ty": 1783,
      "##Em": 1784,
      "##D3": 1785,
      "##4O": 1786,
      "##4y": 1787,
      "##kO": 1788,
      "##SS": 1789,
      "##dx": 1790,
      "##TT": 1791,
      "##UJ": 1792,
      "##Eg": 1793,
      "##cX": 1794,
      "##rP": 1795,
      "##HY": 1796,
      "##tW": 1797,
      "##jL": 1798,
      "##Qi": 1799,
      "##Kq": 1800,
      "##Ji": 1801,
      "##8F": 1802,
      "##0I": 1803,
      "##sz": 1804,
      "##6m": 1805,
      "##QV": 1806,
      "##b7": 1807,
      "##2n": 1808,
      "##bI": 1809,
      "##Su": 1810,
      "##6P": 1811,
      "##bd": 1812,
      "##8Y": 1813,
      "##81": 1814,
      "##8v": 1815,
      "##4W": 1816,
      "##UV": 1817,
      "##gp": 1818,
      "##eT": 1819,
      "##tn": 1820,
      "##Cl": 1821,
      "##en": 1822,
      "##R2": 1823,
      "##wJ": 1824,
      "##ra": 1825,
      "##hP": 1826,
      "##XO": 1827,
      "##By": 1828,
      "##NI": 1829,
      "##Sm": 1830,
      "##ju": 1831,
      "##Ho": 1832,
      "##Nx": 1833,
      "##c2": 1834,
      "##6z": 1835,
      "##gz": 1836,
      "##Ql": 1837,
      "##AI": 1838,
      "##N9": 1839,
      "##Zq": 1840,
      "##js": 1841,
      "##N7": 1842,
      "##Ui": 1843,
      "##ps": 1844,
      "##Rn": 1845,
      "##GG": 1846,
      "##jm": 1847,
      "##hh": 1848,
      "##Uw": 1849,
      "##fw": 1850,
      "##RW": 1851,
      "##6L": 1852,
      "##ga": 1853,
      "##x5": 1854,
      "##v1": 1855,
      "##BO": 1856,
      "##gs": 1857,
      "##D2": 1858,
      "##xo": 1859,
      "##Rk": 1860,
      "##6s": 1861,
      "##v9": 1862,
      "##B3": 1863,
      "##Bn": 1864,
      "##QM": 1865,
      "##JM": 1866,
      "##v5": 1867,
      "##JC": 1868,
      "##pm": 1869,
      "##b9": 1870,
      "##t2": 1871,
      "##4n": 1872,
      "##KC": 1873,
      "##pu": 1874,
      "##vA": 1875,
      "##T3": 1876,
      "##RX": 1877,
      "##SP": 1878,
      "##Kf": 1879,
      "##79": 1880,
      "##c3": 1881,
      "##kW": 1882,
      "##as": 1883,
      "##71": 1884,
      "##Lz": 1885,
      "##Uq": 1886,
      "##lq": 1887,
      "##Hx": 1888,
      "##NA": 1889,
      "##hu": 1890,
      "##Ty": 1891,
      "##UZ": 1892,
      "##li": 1893,
      "##II": 1894,
      "##KQ": 1895,
      "##ky": 1896,
      "##hm": 1897,
      "##eX": 1898,
      "##Rt": 1899,
      "##wi": 1900,
      "##6a": 1901,
      "##4c": 1902,
      "##B2": 1903,
      "##Es": 1904,
      "##Nb": 1905,
      "##rp": 1906,
      "##Uf": 1907,
      "##DO": 1908,
      "##Gq": 1909,
      "##UQ": 1910,
      "##UC": 1911,
      "##DW": 1912,
      "##0A": 1913,
      "##d7": 1914,
      "##lM": 1915,
      "##Jf": 1916,
      "##ec": 1917,
      "##Lm": 1918,
      "##wV": 1919,
      "##zP": 1920,
      "##HI": 1921,
      "##DX": 1922,
      "##ZQ": 1923,
      "##Wn": 1924,
      "##88": 1925,
      "##jg": 1926,
      "##T2": 1927,
      "##H1": 1928,
      "##4B": 1929,
      "##uu": 1930,
      "##bx": 1931,
      "##wq": 1932,
      "##rh": 1933,
      "##v7": 1934,
      "##22": 1935,
      "##33": 1936,
      "##H9": 1937,
      "##Wy": 1938,
      "##pa": 1939,
      "##FF": 1940,
      "##La": 1941,
      "##5Y": 1942,
      "##UG": 1943,
      "##N0": 1944,
      "##zm": 1945,
      "##db": 1946,
      "##dA": 1947,
      "##Dk": 1948,
      "##JV": 1949,
      "##8A": 1950,
      "##59": 1951,
      "##rE": 1952,
      "##zu": 1953,
      "##eR": 1954,
      "##tX": 1955,
      "##sm": 1956,
      "##6j": 1957,
      "##TX": 1958,
      "##I1": 1959,
      "##BB": 1960,
      "##fq": 1961,
      "##Jl": 1962,
      "##xY": 1963,
      "##87": 1964,
      "##PP": 1965,
      "##O3": 1966,
      "##d9": 1967,
      "##I9": 1968,
      "##KG": 1969,
      "##tk": 1970,
      "##wC": 1971,
      "##11": 1972,
      "##wQ": 1973,
      "##rS": 1974,
      "##gS": 1975,
      "##R4": 1976,
      "##Zf": 1977,
      "##Ls": 1978,
      "##yy": 1979,
      "##6S": 1980,
      "##HF": 1981,
      "##JG": 1982,
      "##iM": 1983,
      "##5F": 1984,
      "##8I": 1985,
      "##hs": 1986,
      "##HA": 1987,
      "##NN": 1988,
      "##b0": 1989,
      "##ha": 1990,
      "##Pm": 1991,
      "##jp": 1992,
      "##tO": 1993,
      "##Yo": 1994,
      "##44": 1995,
      "##gL": 1996,
      "##Kn": 1997,
      "##ee": 1998,
      "##80": 1999,
      "##ww": 2000,
      "##iV": 2001,
      "##ck": 2002,
      "##yG": 2003,
      "##5o": 2004,
      "##zp": 2005,
      "##E6": 2006,
      "##DT": 2007,
      "##bb": 2008,
      "##qq": 2009,
      "##au": 2010,
      "##Io": 2011,
      "##BT": 2012,
      "##QQ": 2013,
      "##RT": 2014,
      "##d0": 2015,
      "##v0": 2016,
      "##3n": 2017,
      "##Lp": 2018,
      "##Y9": 2019,
      "##ap": 2020,
      "##ff": 2021,
      "##KZ": 2022,
      "##x1": 2023,
      "##4X": 2024,
      "##iq": 2025,
      "##cT": 2026,
      "##wZ": 2027,
      "##hp": 2028,
      "##MM": 2029,
      "##xI": 2030,
      "##Gl": 2031,
      "##r6": 2032,
      "##dN": 2033,
      "##RR": 2034,
      "##jz": 2035,
      "##BD": 2036,
      "##CC": 2037,
      "##xA": 2038,
      "##cc": 2039,
      "##wl": 2040,
      "##Jn": 2041,
      "##1o": 2042,
      "##gg": 2043,
      "##On": 2044,
      "##x7": 2045,
      "##jh": 2046,
      "##zE": 2047
    }
  }
}