{
  "version": "1.0",
  "truncation": null,
  "padding": null,
  "added_tokens": [
    {
      "id": 0,
      "content": "[PAD]",
      "single_word": false,
      "lstrip": false,
      "rstrip": false,
      "normalized": false,
      "special": true
    },
    {
      "id": 1,
      "content": "[UNK]",
      "single_word": false,
      "lstrip": false,
      "rstrip": false,
      "normalized": false,
      "special": true
    },
    {
      "id": 2,
      "content": "[CLS]",
      "single_word": false,
      "lstrip": false,
      "rstrip": false,
      "normalized": false,
      "special": true
    },
    {
      "id": 3,
      "content": "[SEP]",
      "single_word": false,
      "lstrip": false,
      "rstrip": false,
      "normalized": false,
      "special": true
    },
    {
      "id": 4,
      "content": "[MASK]",
      "single_word": false,
      "lstrip": false,
      "rstrip": false,
      "normalized": false,
      "special": true
    }
  ],
  "normalizer": {
    "type": "NFKC"
  },
  "pre_tokenizer": {
    "type": "Whitespace"
  },
  "post_processor": null,
  "decoder": null,
  "model": {
    "type": "WordPiece",
    "unk_token": "[UNK]",
    "continuing_subword_prefix": "##",
    "max_input_chars_per_word": 100,
    "vocab": {
      "[PAD]": 0,
      "[UNK]": 1,
      "[CLS]": 2,
      "[SEP]": 3,
      "[MASK]": 4,
      "0": 5,
      "1": 6,
      "2": 7,
      "3": 8,
      "4": 9,
      "5": 10,
      "6": 11,
      "7": 12,
      "8": 13,
      "9": 14,
      "<": 15,
      "=": 16,
      ">": 17,
      "A": 18,
      "B": 19,
      "C": 20,
      "D": 21,
      "E": 22,
      "F": 23,
      "G": 24,
      "H": 25,
      "I": 26,
      "J": 27,
      "K": 28,
      "L": 29,
      "M": 30,
      "N": 31,
      "O": 32,
      "P": 33,
      "Q": 34,
      "R": 35,
      "S": 36,
      "T": 37,
      "U": 38,
      "V": 39,
      "W": 40,
      "X": 41,
      "Y": 42,
      "Z": 43,
      "_": 44,
      "a": 45,
      "b": 46,
      "c": 47,
      "d": 48,
      "e": 49,
      "f": 50,
      "g": 51,
      "h": 52,
      "i": 53,
      "j": 54,
      "k": 55,
      "l": 56,
      "m": 57,
      "n": 58,
      "o": 59,
      "p": 60,
      "q": 61,
      "r": 62,
      "s": 63,
      "t": 64,
      "u": 65,
      "v": 66,
      "w": 67,
      "x": 68,
      "y": 69,
      "z": 70,
      "##9": 71,
      "##V": 72,
      "##Y": 73,
      "##M": 74,
      "##j": 75,
      "##v": 76,
      "##R": 77,
      "##D": 78,
      "##n": 79,
      "##L": 80,
      "##N": 81,
      "##T": 82,
      "##c": 83,
      "##1": 84,
      "##Z": 85,
      "##8": 86,
      "##t": 87,
      "##K": 88,
      "##r": 89,
      "##A": 90,
      "##E": 91,
      "##P": 92,
      "##3": 93,
      "##z": 94,
      "##U": 95,
      "##m": 96,
      "##y": 97,
      "##G": 98,
      "##a": 99,
      "##F": 100,
      "##u": 101,
      "##X": 102,
      "##O": 103,
      "##6": 104,
      "##l": 105,
      "##S": 106,
      "##0": 107,
      "##q": 108,
      "##k": 109,
      "##4": 110,
      "##p": 111,
      "##f": 112,
      "##h": 113,
      "##5": 114,
      "##s": 115,
      "##e": 116,
      "##I": 117,
      "##i": 118,
      "##2": 119,
      "##g": 120,
      "##B": 121,
      "##J": 122,
      "##w": 123,
      "##H": 124,
      "##Q": 125,
      "##b": 126,
      "##d": 127,
      "##W": 128,
      "##7": 129,
      "##C": 130,
      "##o": 131,
      "##x": 132,
      "##_": 133,
      "##EP": 134,
      "SEP": 135,
      "k1": 136,
      "##na": 137,
      "##EC": 138,
      "##ND": 139,
      "##si": 140,
      "k5": 141,
      "k2": 142,
      "k4": 143,
      "k9": 144,
      "k6": 145,
      "k8": 146,
      "k3": 147,
      "k0": 148,
      "##sig": 149,
      "k7": 150,
      "##nal": 151,
      "k16": 152,
      "k12": 153,
      "REC": 154,
      "k13": 155,
      "k14": 156,
      "k17": 157,
      "END": 158,
      "k_": 159,
      "k19": 160,
      "k11": 161,
      "k18": 162,
      "k15": 163,
      "##signal": 164,
      "k_signal": 165,
      "S1": 166,
      "##77": 167,
      "##1z": 168,
      "##Pc": 169,
      "##bZ": 170,
      "##5R": 171,
      "##YC": 172,
      "##Hn": 173,
      "##SC": 174,
      "##mW": 175,
      "##dG": 176,
      "##Np": 177,
      "##82": 178,
      "##rU": 179,
      "##E2": 180,
      "##6l": 181,
      "##7i": 182,
      "##oa": 183,
      "##hQ": 184,
      "##XU": 185,
      "##vR": 186,
      "##13": 187,
      "##Ny": 188,
      "##94": 189,
      "##LW": 190,
      "##Aw": 191,
      "##hR": 192,
      "##53": 193,
      "##uf": 194,
      "##gV": 195,
      "##xk": 196,
      "##xa": 197,
      "##6q": 198,
      "##di": 199,
      "##dQ": 200,
      "##El": 201,
      "##oc": 202,
      "##8D": 203,
      "##EM": 204,
      "##zK": 205,
      "##sB": 206,
      "##N2": 207,
      "##dK": 208,
      "##Nt": 209,
      "##Sa": 210,
      "##bi": 211,
      "##uT": 212,
      "##xJ": 213,
      "##Fw": 214,
      "##eT": 215,
      "##Hf": 216,
      "##eR": 217,
      "##ew": 218,
      "##9i": 219,
      "##Nk": 220,
      "##AT": 221,
      "##ut": 222,
      "##IV": 223,
      "##7O": 224,
      "##mO": 225,
      "##64": 226,
      "##5U": 227,
      "##sq": 228,
      "##oD": 229,
      "##YL": 230,
      "##my": 231,
      "##5q": 232,
      "##5f": 233,
      "##gJ": 234,
      "##dC": 235,
      "##E3": 236,
      "##e4": 237,
      "##ID": 238,
      "##S3": 239,
      "##YV": 240,
      "##At": 241,
      "##ec": 242,
      "##5B": 243,
      "##dw": 244,
      "##8M": 245,
      "##m0": 246,
      "##o3": 247,
      "##jT": 248,
      "##vv": 249,
      "##uk": 250,
      "##ow": 251,
      "##xC": 252,
      "##bW": 253,
      "##dD": 254,
      "##9V": 255,
      "##Gi": 256,
      "##5Z": 257,
      "##xO": 258,
      "##r4": 259,
      "##hC": 260,
      "##Pw": 261,
      "##jD": 262,
      "##1U": 263,
      "##uq": 264,
      "##hf": 265,
      "##xV": 266,
      "##Ya": 267,
      "##8c": 268,
      "##rk": 269,
      "##mf": 270,
      "##63": 271,
      "##SD": 272,
      "##Hc": 273,
      "##A2": 274,
      "##F2": 275,
      "##6Q": 276,
      "##7K": 277,
      "##xT": 278,
      "##xw": 279,
      "##FC": 280,
      "##Hi": 281,
      "##oR": 282,
      "##9R": 283,
      "##LZ": 284,
      "##Nq": 285,
      "##rK": 286,
      "##sW": 287,
      "##YQ": 288,
      "##EJ": 289,
      "##oZ": 290,
      "##oq": 291,
      "##xK": 292,
      "##NU": 293,
      "##EO": 294,
      "##Fa": 295,
      "##Ff": 296,
      "##sz": 297,
      "##IZ": 298,
      "##bT": 299,
      "##oz": 300,
      "##j2": 301,
      "##gR": 302,
      "##pV": 303,
      "##5k": 304,
      "##mV": 305,
      "##Iy": 306,
      "##g4": 307,
      "##7k": 308,
      "##EZ": 309,
      "##Ik": 310,
      "##H4": 311,
      "##dX": 312,
      "##9J": 313,
      "##8Z": 314,
      "##rW": 315,
      "##s4": 316,
      "##7q": 317,
      "##1C": 318,
      "##Ey": 319,
      "##mw": 320,
      "##hV": 321,
      "##vk": 322,
      "##NW": 323,
      "##rc": 324,
      "##mB": 325,
      "##6w": 326,
      "##gQ": 327,
      "##xf": 328,
      "##AU": 329,
      "##AO": 330,
      "##u3": 331,
      "##6G": 332,
      "##sf": 333,
      "##IU": 334,
      "##dT": 335,
      "##oC": 336,
      "##Aq": 337,
      "##6c": 338,
      "##et": 339,
      "##bD": 340,
      "##8J": 341,
      "##AR": 342,
      "##0Z": 343,
      "##gU": 344,
      "##dq": 345,
      "##oK": 346,
      "##9y": 347,
      "##jR": 348,
      "##Nn": 349,
      "##Pk": 350,
      "##FK": 351,
      "##FJ": 352,
      "##uc": 353,
      "##sX": 354,
      "##ef": 355,
      "##YM": 356,
      "##rq": 357,
      "##mC": 358,
      "##pU": 359,
      "##Hq": 360,
      "##bk": 361,
      "##YW": 362,
      "##va": 363,
      "##NK": 364,
      "##pB": 365,
      "##5M": 366,
      "##bV": 367,
      "##dk": 368,
      "##oV": 369,
      "##xU": 370,
      "##1w": 371,
      "##A4": 372,
      "##5i": 373,
      "##sG": 374,
      "##bt": 375,
      "##oU": 376,
      "##jO": 377,
      "##1l": 378,
      "##Pt": 379,
      "##FT": 380,
      "##uV": 381,
      "##5w": 382,
      "##st": 383,
      "##dO": 384,
      "##ot": 385,
      "##9t": 386,
      "##92": 387,
      "##Nf": 388,
      "##1q": 389,
      "##8f": 390,
      "##sU": 391,
      "##bQ": 392,
      "##Yz": 393,
      "##FD": 394,
      "##6f": 395,
      "##pK": 396,
      "##bc": 397,
      "##vw": 398,
      "##Na": 399,
      "##NQ": 400,
      "##EK": 401,
      "##mt": 402,
      "##5Q": 403,
      "##Iw": 404,
      "##9M": 405,
      "##vO": 406,
      "##8k": 407,
      "##ER": 408,
      "##mZ": 409,
      "##uC": 410,
      "##02": 411,
      "##Ac": 412,
      "##AJ": 413,
      "##m2": 414,
      "##6Z": 415,
      "##hO": 416,
      "##eD": 417,
      "##gi": 418,
      "##Nl": 419,
      "##1B": 420,
      "##AZ": 421,
      "##Sf": 422,
      "##sM": 423,
      "##sw": 424,
      "##xG": 425,
      "##xW": 426,
      "##jt": 427,
      "##Lf": 428,
      "##1M": 429,
      "##8y": 430,
      "##rw": 431,
      "##AC": 432,
      "##FB": 433,
      "##0a": 434,
      "##sR": 435,
      "##el": 436,
      "##eQ": 437,
      "##eC": 438,
      "##IQ": 439,
      "##HZ": 440,
      "##bK": 441,
      "##b2": 442,
      "##xR": 443,
      "##YU": 444,
      "##1Q": 445,
      "##mc": 446,
      "##ml": 447,
      "##uU": 448,
      "##s2": 449,
      "##ez": 450,
      "##gy": 451,
      "##gB": 452,
      "##bR": 453,
      "##dy": 454,
      "##YZ": 455,
      "##F4": 456,
      "##0w": 457,
      "##sa": 458,
      "##It": 459,
      "##dl": 460,
      "##oW": 461,
      "##jy": 462,
      "##vB": 463,
      "##Fq": 464,
      "##uy": 465,
      "##Sl": 466,
      "##pt": 467,
      "##I4": 468,
      "##gK": 469,
      "##g2": 470,
      "##bO": 471,
      "##xM": 472,
      "##Y4": 473,
      "##NO": 474,
      "##py": 475,
      "##pi": 476,
      "##hM": 477,
      "##h2": 478,
      "##Il": 479,
      "##gT": 480,
      "##Ha": 481,
      "##xX": 482,
      "##93": 483,
      "##vZ": 484,
      "##LU": 485,
      "##NT": 486,
      "##mD": 487,
      "##mz": 488,
      "##6D": 489,
      "##5W": 490,
      "##eK": 491,
      "##Yw": 492,
      "##jX": 493,
      "##vf": 494,
      "##N3": 495,
      "##ry": 496,
      "##EG": 497,
      "##E4": 498,
      "##0n": 499,
      "##5K": 500,
      "##sK": 501,
      "##eO": 502,
      "##HT": 503,
      "##ba": 504,
      "##NR": 505,
      "##NB": 506,
      "##Ef": 507,
      "##SM": 508,
      "##pz": 509,
      "##hB": 510,
      "##sk": 511,
      "##gC": 512,
      "##dM": 513,
      "##dJ": 514,
      "##vi": 515,
      "##LV": 516,
      "##1D": 517,
      "##1O": 518,
      "##rR": 519,
      "##Pf": 520,
      "##mn": 521,
      "##FR": 522,
      "##gz": 523,
      "##gf": 524,
      "##bw": 525,
      "##7U": 526,
      "##xt": 527,
      "##Lk": 528,
      "##84": 529,
      "##Ai": 530,
      "##hk": 531,
      "##5z": 532,
      "##HD": 533,
      "##HQ": 534,
      "##of": 535,
      "##9k": 536,
      "##jB": 537,
      "##NJ": 538,
      "##FG": 539,
      "##uw": 540,
      "##gn": 541,
      "##HO": 542,
      "##HC": 543,
      "##d3": 544,
      "##1K": 545,
      "##rl": 546,
      "##6M": 547,
      "##S2": 548,
      "##hK": 549,
      "##5c": 550,
      "##eB": 551,
      "##Ic": 552,
      "##gD": 553,
      "##g3": 554,
      "##9c": 555,
      "##LB": 556,
      "##8W": 557,
      "##An": 558,
      "##EQ": 559,
      "##mT": 560,
      "##mG": 561,
      "##uB": 562,
      "##0W": 563,
      "##5T": 564,
      "##72": 565,
      "##xQ": 566,
      "##9B": 567,
      "##1c": 568,
      "##8q": 569,
      "##ri": 570,
      "##ET": 571,
      "##62": 572,
      "##eW": 573,
      "##ga": 574,
      "##b4": 575,
      "##bC": 576,
      "##o4": 577,
      "##x2": 578,
      "##Eq": 579,
      "##Fi": 580,
      "##FQ": 581,
      "##pR": 582,
      "##h3": 583,
      "##5V": 584,
      "##52": 585,
      "##eM": 586,
      "##HR": 587,
      "##HJ": 588,
      "##7T": 589,
      "##Yy": 590,
      "##Yl": 591,
      "##j3": 592,
      "##NM": 593,
      "##12": 594,
      "##r3": 595,
      "##Ew": 596,
      "##SJ": 597,
      "##ha": 598,
      "##sO": 599,
      "##eZ": 600,
      "##7n": 601,
      "##ja": 602,
      "##rX": 603,
      "##Fk": 604,
      "##6k": 605,
      "##Sq": 606,
      "##5C": 607,
      "##gk": 608,
      "##bM": 609,
      "##bq": 610,
      "##d2": 611,
      "##xl": 612,
      "##9Q": 613,
      "##YO": 614,
      "##8O": 615,
      "##rO": 616,
      "##rQ": 617,
      "##Ay": 618,
      "##Ec": 619,
      "##FW": 620,
      "##Sn": 621,
      "##hX": 622,
      "##IG": 623,
      "##bU": 624,
      "##oM": 625,
      "##o2": 626,
      "##EV": 627,
      "##Pn": 628,
      "##6W": 629,
      "##0R": 630,
      "##IM": 631,
      "##I3": 632,
      "##bz": 633,
      "##bG": 634,
      "##xD": 635,
      "##jV": 636,
      "##vD": 637,
      "##L3": 638,
      "##rD": 639,
      "##rB": 640,
      "##5a": 641,
      "##sT": 642,
      "##Ia": 643,
      "##Ii": 644,
      "##IB": 645,
      "##7W": 646,
      "##xB": 647,
      "##jl": 648,
      "##vl": 649,
      "##8G": 650,
      "##P2": 651,
      "##6t": 652,
      "##6O": 653,
      "##0O": 654,
      "##e3": 655,
      "##eG": 656,
      "##gZ": 657,
      "##gG": 658,
      "##gO": 659,
      "##Hk": 660,
      "##bf": 661,
      "##xq": 662,
      "##YD": 663,
      "##jc": 664,
      "##jw": 665,
      "##8Q": 666,
      "##mK": 667,
      "##6i": 668,
      "##SK": 669,
      "##0q": 670,
      "##0f": 671,
      "##hU": 672,
      "##eX": 673,
      "##7t": 674,
      "##jn": 675,
      "##8T": 676,
      "##P4": 677,
      "##0C": 678,
      "##p4": 679,
      "##hi": 680,
      "##5D": 681,
      "##sQ": 682,
      "##dV": 683,
      "##dR": 684,
      "##AM": 685,
      "##Pq": 686,
      "##6J": 687,
      "##0M": 688,
      "##dc": 689,
      "##xc": 690,
      "##9a": 691,
      "##YK": 692,
      "##LK": 693,
      "##Ni": 694,
      "##8n": 695,
      "##rG": 696,
      "##mM": 697,
      "##0y": 698,
      "##04": 699,
      "##dt": 700,
      "##vQ": 701,
      "##LO": 702,
      "##1J": 703,
      "##8a": 704,
      "##8C": 705,
      "##rT": 706,
      "##ma": 707,
      "##Fz": 708,
      "##sc": 709,
      "##ey": 710,
      "##If": 711,
      "##gc": 712,
      "##Yc": 713,
      "##La": 714,
      "##AD": 715,
      "##uQ": 716,
      "##pM": 717,
      "##7l": 718,
      "##oy": 719,
      "##9D": 720,
      "##9n": 721,
      "##YR": 722,
      "##Y3": 723,
      "##YJ": 724,
      "##1W": 725,
      "##Ek": 726,
      "##uD": 727,
      "##S4": 728,
      "##0T": 729,
      "##eV": 730,
      "##Iq": 731,
      "##gt": 732,
      "##jQ": 733,
      "##Lt": 734,
      "##1k": 735,
      "##rC": 736,
      "##Aa": 737,
      "##Pl": 738,
      "##mq": 739,
      "##Fc": 740,
      "##ST": 741,
      "##SW": 742,
      "##0i": 743,
      "##hc": 744,
      "##sD": 745,
      "##gw": 746,
      "##xi": 747,
      "##1y": 748,
      "##8R": 749,
      "##8i": 750,
      "##rz": 751,
      "##AQ": 752,
      "##ua": 753,
      "##6C": 754,
      "##0k": 755,
      "##gW": 756,
      "##Ht": 757,
      "##oJ": 758,
      "##Yf": 759,
      "##YB": 760,
      "##NV": 761,
      "##1G": 762,
      "##Ak": 763,
      "##Py": 764,
      "##PO": 765,
      "##uM": 766,
      "##u4": 767,
      "##6B": 768,
      "##0l": 769,
      "##s3": 770,
      "##bJ": 771,
      "##vX": 772,
      "##1Z": 773,
      "##mX": 774,
      "##ul": 775,
      "##6U": 776,
      "##hn": 777,
      "##hJ": 778,
      "##IK": 779,
      "##7w": 780,
      "##9U": 781,
      "##jU": 782,
      "##jJ": 783,
      "##A3": 784,
      "##mJ": 785,
      "##mQ": 786,
      "##0c": 787,
      "##74": 788,
      "##9X": 789,
      "##jk": 790,
      "##NZ": 791,
      "##rJ": 792,
      "##PT": 793,
      "##Pi": 794,
      "##6T": 795,
      "##p3": 796,
      "##hw": 797,
      "##HG": 798,
      "##da": 799,
      "##7c": 800,
      "##oX": 801,
      "##j4": 802,
      "##ji": 803,
      "##Nz": 804,
      "##rf": 805,
      "##m4": 806,
      "##uW": 807,
      "##b3": 808,
      "##dW": 809,
      "##7a": 810,
      "##x3": 811,
      "##8V": 812,
      "##rn": 813,
      "##EW": 814,
      "##PV": 815,
      "##0B": 816,
      "##5G": 817,
      "##7f": 818,
      "##7C": 819,
      "##xn": 820,
      "##jf": 821,
      "##uR": 822,
      "##6a": 823,
      "##pT": 824,
      "##on": 825,
      "##vt": 826,
      "##vy": 827,
      "##14": 828,
      "##ED": 829,
      "##PJ": 830,
      "##PW": 831,
      "##SV": 832,
      "##Sy": 833,
      "##sC": 834,
      "##7V": 835,
      "##vq": 836,
      "##LM": 837,
      "##LR": 838,
      "##ui": 839,
      "##SU": 840,
      "##hW": 841,
      "##eU": 842,
      "##ea": 843,
      "##e2": 844,
      "##HW": 845,
      "##7G": 846,
      "##oB": 847,
      "##vC": 848,
      "##mi": 849,
      "##6K": 850,
      "##St": 851,
      "##In": 852,
      "##xz": 853,
      "##Y2": 854,
      "##vc": 855,
      "##Lc": 856,
      "##Pa": 857,
      "##PX": 858,
      "##FV": 859,
      "##SG": 860,
      "##0z": 861,
      "##hG": 862,
      "##gl": 863,
      "##d4": 864,
      "##dB": 865,
      "##oQ": 866,
      "##9C": 867,
      "##Yi": 868,
      "##jC": 869,
      "##8l": 870,
      "##FZ": 871,
      "##0t": 872,
      "##7J": 873,
      "##9Z": 874,
      "##9O": 875,
      "##Yk": 876,
      "##8w": 877,
      "##AK": 878,
      "##SB": 879,
      "##eJ": 880,
      "##gM": 881,
      "##HU": 882,
      "##HB": 883,
      "##dZ": 884,
      "##9f": 885,
      "##Yt": 886,
      "##PD": 887,
      "##Fy": 888,
      "##uJ": 889,
      "##hy": 890,
      "##54": 891,
      "##sZ": 892,
      "##Hl": 893,
      "##7y": 894,
      "##9W": 895,
      "##1R": 896,
      "##1i": 897,
      "##PK": 898,
      "##Ft": 899,
      "##F3": 900,
      "##uz": 901,
      "##0U": 902,
      "##hz": 903,
      "##H3": 904,
      "##bB": 905,
      "##dz": 906,
      "##df": 907,
      "##oG": 908,
      "##1f": 909,
      "##8K": 910,
      "##8B": 911,
      "##Ea": 912,
      "##5X": 913,
      "##oi": 914,
      "##vW": 915,
      "##PG": 916,
      "##uZ": 917,
      "##gX": 918,
      "##Hz": 919,
      "##Hy": 920,
      "##xy": 921,
      "##vM": 922,
      "##uO": 923,
      "##6y": 924,
      "##IW": 925,
      "##oT": 926,
      "##LQ": 927,
      "##8t": 928,
      "##AV": 929,
      "##PZ": 930,
      "##SZ": 931,
      "##IT": 932,
      "##H2": 933,
      "##L4": 934,
      "##LJ": 935,
      "##Af": 936,
      "##mk": 937,
      "##pq": 938,
      "##5O": 939,
      "##5l": 940,
      "##HK": 941,
      "##9z": 942,
      "##vU": 943,
      "##pk": 944,
      "##7M": 945,
      "##YT": 946,
      "##8z": 947,
      "##rM": 948,
      "##Al": 949,
      "##EU": 950,
      "##Pz": 951,
      "##mU": 952,
      "##FO": 953,
      "##Sk": 954,
      "##hT": 955,
      "##IR": 956,
      "##7R": 957,
      "##7Z": 958,
      "##7B": 959,
      "##ok": 960,
      "##9K": 961,
      "##jM": 962,
      "##vK": 963,
      "##v3": 964,
      "##NX": 965,
      "##pO": 966,
      "##pJ": 967,
      "##hl": 968,
      "##Hw": 969,
      "##bn": 970,
      "##73": 971,
      "##9q": 972,
      "##Lq": 973,
      "##Li": 974,
      "##I2": 975,
      "##YX": 976,
      "##AG": 977,
      "##AB": 978,
      "##6z": 979,
      "##7D": 980,
      "##v4": 981,
      "##LD": 982,
      "##PR": 983,
      "##L2": 984,
      "##r2": 985,
      "##03": 986,
      "##p2": 987,
      "##h4": 988,
      "##9w": 989,
      "##jW": 990,
      "##1n": 991,
      "##8X": 992,
      "##u2": 993,
      "##pa": 994,
      "##pQ": 995,
      "##pW": 996,
      "##vV": 997,
      "##1a": 998,
      "##5t": 999,
      "##9G": 1000,
      "##Yn": 1001,
      "##LX": 1002,
      "##Ll": 1003,
      "##pD": 1004,
      "##hq": 1005,
      "##by": 1006,
      "##Lw": 1007,
      "##N4": 1008,
      "##Nw": 1009,
      "##EX": 1010,
      "##SR": 1011,
      "##ek": 1012,
      "##vT": 1013,
      "##1t": 1014,
      "##Az": 1015,
      "##un": 1016,
      "##SX": 1017,
      "##pn": 1018,
      "##IO": 1019,
      "##gq": 1020,
      "##xZ": 1021,
      "##jq": 1022,
      "##AX": 1023,
      "##Et": 1024,
      "##SQ": 1025,
      "##0V": 1026,
      "##0K": 1027,
      "##pf": 1028,
      "##jG": 1029,
      "##83": 1030,
      "##AW": 1031,
      "##hZ": 1032,
      "##5y": 1033,
      "##ol": 1034,
      "##vG": 1035,
      "##rV": 1036,
      "##En": 1037,
      "##pc": 1038,
      "##ei": 1039,
      "##IX": 1040,
      "##jK": 1041,
      "##NC": 1042,
      "##ra": 1043,
      "##Fn": 1044,
      "##Fl": 1045,
      "##m3": 1046,
      "##uX": 1047,
      "##IC": 1048,
      "##9l": 1049,
      "##jZ": 1050,
      "##vJ": 1051,
      "##Nc": 1052,
      "##0Q": 1053,
      "##HX": 1054,
      "##bl": 1055,
      "##YG": 1056,
      "##IJ": 1057,
      "##Ei": 1058,
      "##PC": 1059,
      "##6X": 1060,
      "##0D": 1061,
      "##pl": 1062,
      "##P3": 1063,
      "##uG": 1064,
      "##Sz": 1065,
      "##Yq": 1066,
      "##PM": 1067,
      "##mR": 1068,
      "##uK": 1069,
      "##sV": 1070,
      "##x4": 1071,
      "##Sc": 1072,
      "##pX": 1073,
      "##Iz": 1074,
      "##HM": 1075,
      "##8U": 1076,
      "##PB": 1077,
      "##FM": 1078,
      "##Ln": 1079,
      "##FU": 1080,
      "##7Q": 1081,
      "##PQ": 1082,
      "##ht": 1083,
      "##sy": 1084,
      "##9T": 1085,
      "##FX": 1086,
      "##1X": 1087,
      "##SO": 1088,
      "##7X": 1089,
      "##hD": 1090,
      "##sn": 1091,
      "##en": 1092,
      "##6R": 1093,
      "##5n": 1094,
      "##bX": 1095,
      "##oO": 1096,
      "##6n": 1097,
      "##dn": 1098,
      "##dU": 1099,
      "##Lz": 1100,
      "##eq": 1101,
      "##0X": 1102,
      "##HV": 1103,
      "##jz": 1104,
      "##pG": 1105,
      "##Ez": 1106,
      "##6V": 1107,
      "##0G": 1108,
      "##v2": 1109,
      "##EB": 1110,
      "##pw": 1111,
      "##7z": 1112,
      "##Ly": 1113,
      "##5J": 1114,
      "##sl": 1115,
      "##vz": 1116,
      "##PU": 1117,
      "##LG": 1118,
      "##rZ": 1119,
      "##Sw": 1120,
      "##sJ": 1121,
      "##1V": 1122,
      "##pZ": 1123,
      "##vn": 1124,
      "##1T": 1125,
      "##LT": 1126,
      "##LC": 1127,
      "##Si": 1128,
      "##rt": 1129,
      "##0J": 1130,
      "##pC": 1131,
      "##NG": 1132,
      "##cq": 1133,
      "##Yh": 1134,
      "##Ol": 1135,
      "##t3": 1136,
      "##Ih": 1137,
      "##dE": 1138,
      "##9A": 1139,
      "##2a": 1140,
      "##BC": 1141,
      "##d6": 1142,
      "##2k": 1143,
      "##sr": 1144,
      "##TU": 1145,
      "##89": 1146,
      "##Ir": 1147,
      "##BM": 1148,
      "##nl": 1149,
      "##ZC": 1150,
      "##eg": 1151,
      "##I6": 1152,
      "##RD": 1153,
      "##nU": 1154,
      "##4w": 1155,
      "##2K": 1156,
      "##N1": 1157,
      "##3l": 1158,
      "##sH": 1159,
      "##Ga": 1160,
      "##4C": 1161,
      "##TC": 1162,
      "##m8": 1163,
      "##kD": 1164,
      "##4c": 1165,
      "##nJ": 1166,
      "##xu": 1167,
      "##mS": 1168,
      "##BK": 1169,
      "##oh": 1170,
      "##Lu": 1171,
      "##Ng": 1172,
      "##Fp": 1173,
      "##RO": 1174,
      "##AH": 1175,
      "##66": 1176,
      "##eu": 1177,
      "##ii": 1178,
      "##Lh": 1179,
      "##Gw": 1180,
      "##fa": 1181,
      "##eS": 1182,
      "##QW": 1183,
      "##TM": 1184,
      "##ZW": 1185,
      "##XC": 1186,
      "##bu": 1187,
      "##YP": 1188,
      "##tM": 1189,
      "##Ij": 1190,
      "##Qa": 1191,
      "##Tq": 1192,
      "##tq": 1193,
      "##5j": 1194,
      "##2U": 1195,
      "##A1": 1196,
      "##cU": 1197,
      "##8H": 1198,
      "##tz": 1199,
      "##xj": 1200,
      "##9u": 1201,
      "##cK": 1202,
      "##tf": 1203,
      "##Gy": 1204,
      "##FP": 1205,
      "##sP": 1206,
      "##OM": 1207,
      "##01": 1208,
      "##5p": 1209,
      "##5h": 1210,
      "##bE": 1211,
      "##Yu": 1212,
      "##ta": 1213,
      "##Xl": 1214,
      "##bS": 1215,
      "##VR": 1216,
      "##3D": 1217,
      "##kM": 1218,
      "##ka": 1219,
      "##2q": 1220,
      "##gh": 1221,
      "##Fu": 1222,
      "##4z": 1223,
      "##or": 1224,
      "##VW": 1225,
      "##NP": 1226,
      "##TW": 1227,
      "##cJ": 1228,
      "##ZM": 1229,
      "##tw": 1230,
      "##mu": 1231,
      "##ev": 1232,
      "##eh": 1233,
      "##2y": 1234,
      "##gP": 1235,
      "##QD": 1236,
      "##OW": 1237,
      "##ej": 1238,
      "##L0": 1239,
      "##GD": 1240,
      "##57": 1241,
      "##eE": 1242,
      "##dr": 1243,
      "##Y8": 1244,
      "##m1": 1245,
      "##5S": 1246,
      "##2w": 1247,
      "##BW": 1248,
      "##Ns": 1249,
      "##cl": 1250,
      "##Xi": 1251,
      "##51": 1252,
      "##VD": 1253,
      "##L1": 1254,
      "##N6": 1255,
      "##GW": 1256,
      "##Fh": 1257,
      "##cC": 1258,
      "##AS": 1259,
      "##3K": 1260,
      "##FS": 1261,
      "##kU": 1262,
      "##4a": 1263,
      "##5r": 1264,
      "##oj": 1265,
      "##nW": 1266,
      "##BJ": 1267,
      "##o0": 1268,
      "##GJ": 1269,
      "##Fg": 1270,
      "##OC": 1271,
      "##fD": 1272,
      "##bP": 1273,
      "##tl": 1274,
      "##tC": 1275,
      "##zl": 1276,
      "##zW": 1277,
      "##Xw": 1278,
      "##ki": 1279,
      "##d1": 1280,
      "##nD": 1281,
      "##OK": 1282,
      "##5u": 1283,
      "##Iu": 1284,
      "##bp": 1285,
      "##Va": 1286,
      "##nR": 1287,
      "##nC": 1288,
      "##tW": 1289,
      "##mj": 1290,
      "##mH": 1291,
      "##oH": 1292,
      "##xr": 1293,
      "##VJ": 1294,
      "##YE": 1295,
      "##nM": 1296,
      "##ZK": 1297,
      "##Fj": 1298,
      "##kw": 1299,
      "##2J": 1300,
      "##Bq": 1301,
      "##oS": 1302,
      "##VU": 1303,
      "##nq": 1304,
      "##LA": 1305,
      "##Nj": 1306,
      "##F6": 1307,
      "##Ig": 1308,
      "##Bl": 1309,
      "##QJ": 1310,
      "##9h": 1311,
      "##Za": 1312,
      "##kC": 1313,
      "##er": 1314,
      "##Nh": 1315,
      "##XK": 1316,
      "##vS": 1317,
      "##LP": 1318,
      "##tK": 1319,
      "##zq": 1320,
      "##zw": 1321,
      "##X3": 1322,
      "##fl": 1323,
      "##Ba": 1324,
      "##bh": 1325,
      "##dP": 1326,
      "##o6": 1327,
      "##o7": 1328,
      "##Yj": 1329,
      "##nK": 1330,
      "##L6": 1331,
      "##XW": 1332,
      "##4l": 1333,
      "##IP": 1334,
      "##b1": 1335,
      "##9P": 1336,
      "##9g": 1337,
      "##Vy": 1338,
      "##NH": 1339,
      "##4K": 1340,
      "##VK": 1341,
      "##YH": 1342,
      "##NS": 1343,
      "##Ap": 1344,
      "##Qi": 1345,
      "##Vl": 1346,
      "##Tl": 1347,
      "##8j": 1348,
      "##8s": 1349,
      "##Ow": 1350,
      "##e0": 1351,
      "##2D": 1352,
      "##QR": 1353,
      "##cy": 1354,
      "##2C": 1355,
      "##9H": 1356,
      "##Y1": 1357,
      "##vh": 1358,
      "##Zl": 1359,
      "##Zq": 1360,
      "##tJ": 1361,
      "##m6": 1362,
      "##ep": 1363,
      "##Bi": 1364,
      "##x7": 1365,
      "##YS": 1366,
      "##Eu": 1367,
      "##mr": 1368,
      "##Xy": 1369,
      "##fi": 1370,
      "##eH": 1371,
      "##BD": 1372,
      "##9p": 1373,
      "##mP": 1374,
      "##QK": 1375,
      "##bj": 1376,
      "##bg": 1377,
      "##dS": 1378,
      "##VC": 1379,
      "##Y7": 1380,
      "##v1": 1381,
      "##vr": 1382,
      "##Ar": 1383,
      "##4W": 1384,
      "##Qy": 1385,
      "##LH": 1386,
      "##81": 1387,
      "##Aj": 1388,
      "##3U": 1389,
      "##4U": 1390,
      "##fM": 1391,
      "##I1": 1392,
      "##By": 1393,
      "##dg": 1394,
      "##dH": 1395,
      "##oE": 1396,
      "##ZD": 1397,
      "##vH": 1398,
      "##Ah": 1399,
      "##es": 1400,
      "##Ip": 1401,
      "##d7": 1402,
      "##xp": 1403,
      "##xg": 1404,
      "##96": 1405,
      "##VM": 1406,
      "##vu": 1407,
      "##zM": 1408,
      "##GM": 1409,
      "##fJ": 1410,
      "##2W": 1411,
      "##BU": 1412,
      "##bH": 1413,
      "##9j": 1414,
      "##5s": 1415,
      "##IS": 1416,
      "##b7": 1417,
      "##d0": 1418,
      "##ou": 1419,
      "##mE": 1420,
      "##5H": 1421,
      "##Bw": 1422,
      "##Ql": 1423,
      "##TD": 1424,
      "##kl": 1425,
      "##fw": 1426,
      "##e1": 1427,
      "##2l": 1428,
      "##QU": 1429,
      "##xh": 1430,
      "##vj": 1431,
      "##mp": 1432,
      "##Gq": 1433,
      "##5g": 1434,
      "##e7": 1435,
      "##QC": 1436,
      "##dh": 1437,
      "##9E": 1438,
      "##za": 1439,
      "##zJ": 1440,
      "##XD": 1441,
      "##4i": 1442,
      "##oP": 1443,
      "##og": 1444,
      "##xH": 1445,
      "##Vq": 1446,
      "##Ra": 1447,
      "##ti": 1448,
      "##3J": 1449,
      "##zC": 1450,
      "##Oq": 1451,
      "##QM": 1452,
      "##Vi": 1453,
      "##vP": 1454,
      "##N0": 1455,
      "##N7": 1456,
      "##cw": 1457,
      "##8S": 1458,
      "##Rw": 1459,
      "##ni": 1460,
      "##Lg": 1461,
      "##Nr": 1462,
      "##AP": 1463,
      "##3a": 1464,
      "##Gl": 1465,
      "##OJ": 1466,
      "##4J": 1467,
      "##op": 1468,
      "##x0": 1469,
      "##RK": 1470,
      "##Zi": 1471,
      "##Zw": 1472,
      "##ms": 1473,
      "##Fs": 1474,
      "##Xa": 1475,
      "##4M": 1476,
      "##5P": 1477,
      "##RM": 1478,
      "##Ta": 1479,
      "##cM": 1480,
      "##A0": 1481,
      "##GK": 1482,
      "##FH": 1483,
      "##OD": 1484,
      "##4D": 1485,
      "##os": 1486,
      "##ny": 1487,
      "##TJ": 1488,
      "##cW": 1489,
      "##bs": 1490,
      "##9S": 1491,
      "##TK": 1492,
      "##m7": 1493,
      "##4y": 1494,
      "##5E": 1495,
      "##Qq": 1496,
      "##Zy": 1497,
      "##XM": 1498,
      "##XJ": 1499,
      "##kW": 1500,
      "##IE": 1501,
      "##br": 1502,
      "##Ri": 1503,
      "##L7": 1504,
      "##3q": 1505,
      "##FE": 1506,
      "##4q": 1507,
      "##fW": 1508,
      "##90": 1509,
      "##Ry": 1510,
      "##mg": 1511,
      "##F0": 1512,
      "##Rl": 1513,
      "##Rq": 1514,
      "##Tw": 1515,
      "##Xq": 1516,
      "##Oa": 1517,
      "##Oi": 1518,
      "##dp": 1519,
      "##vp": 1520,
      "##RU": 1521,
      "##Lj": 1522,
      "##8p": 1523,
      "##3i": 1524,
      "##zU": 1525,
      "##fy": 1526,
      "##b0": 1527,
      "##du": 1528,
      "##v6": 1529,
      "##Lr": 1530,
      "##Lp": 1531,
      "##ty": 1532,
      "##fq": 1533,
      "##ds": 1534,
      "##xP": 1535,
      "##Ys": 1536,
      "##LE": 1537,
      "##Yp": 1538,
      "##vs": 1539,
      "##eP": 1540,
      "##Y0": 1541,
      "##Nu": 1542,
      "##kJ": 1543,
      "##b6": 1544,
      "##F1": 1545,
      "##fK": 1546,
      "##dj": 1547,
      "##50": 1548,
      "##ZJ": 1549,
      "##3W": 1550,
      "##x1": 1551,
      "##2M": 1552,
      "##Ty": 1553,
      "##ZU": 1554,
      "##Ag": 1555,
      "##kK": 1556,
      "##vE": 1557,
      "##v7": 1558,
      "##ca": 1559,
      "##A7": 1560,
      "##56": 1561,
      "##xs": 1562,
      "##9r": 1563,
      "##8P": 1564,
      "##zi": 1565,
      "##Y6": 1566,
      "##tU": 1567,
      "##Oy": 1568,
      "##Yg": 1569,
      "##v0": 1570,
      "##RJ": 1571,
      "##mh": 1572,
      "##GU": 1573,
      "##GC": 1574,
      "##NE": 1575,
      "##8E": 1576,
      "##9s": 1577,
      "##80": 1578,
      "##8h": 1579,
      "##Au": 1580,
      "##3y": 1581,
      "##ky": 1582,
      "##e6": 1583,
      "##RC": 1584,
      "##2i": 1585,
      "##nw": 1586,
      "##A6": 1587,
      "##3C": 1588,
      "##kq": 1589,
      "##Is": 1590,
      "##IH": 1591,
      "##OU": 1592,
      "##97": 1593,
      "##Vw": 1594,
      "##fU": 1595,
      "##xE": 1596,
      "##87": 1597,
      "##Fr": 1598,
      "##LS": 1599,
      "##86": 1600,
      "##tD": 1601,
      "##Ls": 1602,
      "##ci": 1603,
      "##I0": 1604,
      "##xS": 1605,
      "##Ti": 1606,
      "##F7": 1607,
      "##RW": 1608,
      "##8r": 1609,
      "##zD": 1610,
      "##zy": 1611,
      "##I7": 1612,
      "##8u": 1613,
      "##o1": 1614,
      "##fC": 1615,
      "##Qw": 1616,
      "##vg": 1617,
      "##91": 1618,
      "##8g": 1619,
      "##Yr": 1620,
      "##cD": 1621,
      "##AE": 1622,
      "##3M": 1623,
      "##x6": 1624,
      "##As": 1625,
      "##43": 1626,
      "##cG": 1627,
      "##BT": 1628,
      "##QO": 1629,
      "##4Z": 1630,
      "##cB": 1631,
      "##AF": 1632,
      "##XO": 1633,
      "##nZ": 1634,
      "##cf": 1635,
      "##3w": 1636,
      "##nz": 1637,
      "##mI": 1638,
      "##TO": 1639,
      "##XZ": 1640,
      "##42": 1641,
      "##TG": 1642,
      "##de": 1643,
      "##9b": 1644,
      "##V2": 1645,
      "##t2": 1646,
      "##fO": 1647,
      "##cO": 1648,
      "##zG": 1649,
      "##dI": 1650,
      "##k3": 1651,
      "##VO": 1652,
      "##nB": 1653,
      "##mo": 1654,
      "##4O": 1655,
      "##Q3": 1656,
      "##ex": 1657,
      "##FI": 1658,
      "##uu": 1659,
      "##TT": 1660,
      "##db": 1661,
      "##Vc": 1662,
      "##fk": 1663,
      "##85": 1664,
      "##Xk": 1665,
      "##tk": 1666,
      "##nk": 1667,
      "##tQ": 1668,
      "##Fb": 1669,
      "##B2": 1670,
      "##Ca": 1671,
      "##Y9": 1672,
      "##Yx": 1673,
      "##vo": 1674,
      "##R3": 1675,
      "##N5": 1676,
      "##ya": 1677,
      "##6h": 1678,
      "##jS": 1679,
      "##Rk": 1680,
      "##tG": 1681,
      "##FL": 1682,
      "##u1": 1683,
      "##pp": 1684,
      "##Cq": 1685,
      "##BO": 1686,
      "##nG": 1687,
      "##NL": 1688,
      "##A9": 1689,
      "##BZ": 1690,
      "##Qz": 1691,
      "##No": 1692,
      "##Ye": 1693,
      "##XG": 1694,
      "##wM": 1695,
      "##jP": 1696,
      "##0P": 1697,
      "##4G": 1698,
      "##Dl": 1699,
      "##QG": 1700,
      "##Nb": 1701,
      "##tZ": 1702,
      "##jE": 1703,
      "##Ne": 1704,
      "##1p": 1705,
      "##Hg": 1706,
      "##QT": 1707,
      "##QZ": 1708,
      "##CW": 1709,
      "##UM": 1710,
      "##II": 1711,
      "##wi": 1712,
      "##Yb": 1713,
      "##Yo": 1714,
      "##1S": 1715,
      "##md": 1716,
      "##mx": 1717,
      "##v8": 1718,
      "##Lx": 1719,
      "##3G": 1720,
      "##Fx": 1721,
      "##4B": 1722,
      "##f2": 1723,
      "##Vk": 1724,
      "##nc": 1725,
      "##fB": 1726,
      "##VZ": 1727,
      "##sh": 1728,
      "##vx": 1729,
      "##R2": 1730,
      "##n2": 1731,
      "##tc": 1732,
      "##tX": 1733,
      "##HH": 1734,
      "##Qk": 1735,
      "##Vz": 1736,
      "##j6": 1737,
      "##AA": 1738,
      "##UJ": 1739,
      "##Qc": 1740,
      "##Wl": 1741,
      "##76": 1742,
      "##nT": 1743,
      "##SS": 1744,
      "##iJ": 1745,
      "##9o": 1746,
      "##LI": 1747,
      "##ru": 1748,
      "##Ua": 1749,
      "##VG": 1750,
      "##nO": 1751,
      "##F5": 1752,
      "##4T": 1753,
      "##WK": 1754,
      "##7g": 1755,
      "##DJ": 1756,
      "##N8": 1757,
      "##Eh": 1758,
      "##0h": 1759,
      "##d5": 1760,
      "##vI": 1761,
      "##Rz": 1762,
      "##sp": 1763,
      "##bb": 1764,
      "##VB": 1765,
      "##Ul": 1766,
      "##wq": 1767,
      "##jg": 1768,
      "##n3": 1769,
      "##NI": 1770,
      "##E6": 1771,
      "##mm": 1772,
      "##yl": 1773,
      "##FA": 1774,
      "##Q2": 1775,
      "##Y5": 1776,
      "##Kl": 1777,
      "##rP": 1778,
      "##ES": 1779,
      "##Fo": 1780,
      "##nX": 1781,
      "##8x": 1782,
      "##tT": 1783,
      "##06": 1784,
      "##WJ": 1785,
      "##Di": 1786,
      "##e5": 1787,
      "##eI": 1788,
      "##Hp": 1789,
      "##7P": 1790,
      "##YA": 1791,
      "##YI": 1792,
      "##L9": 1793,
      "##fG": 1794,
      "##sS": 1795,
      "##wJ": 1796,
      "##do": 1797,
      "##Cl": 1798,
      "##1u": 1799,
      "##HS": 1800,
      "##QB": 1801,
      "##tR": 1802,
      "##yJ": 1803,
      "##0S": 1804,
      "##7h": 1805,
      "##V3": 1806,
      "##tB": 1807,
      "##fZ": 1808,
      "##sg": 1809,
      "##wa": 1810,
      "##rr": 1811,
      "##Eg": 1812,
      "##4R": 1813,
      "##Ml": 1814,
      "##1h": 1815,
      "##zT": 1816,
      "##qa": 1817,
      "##kO": 1818,
      "##f3": 1819,
      "##e9": 1820,
      "##c2": 1821,
      "##mA": 1822,
      "##XX": 1823,
      "##VT": 1824,
      "##16": 1825,
      "##rg": 1826,
      "##0u": 1827,
      "##dx": 1828,
      "##7p": 1829,
      "##v9": 1830,
      "##cT": 1831,
      "##8b": 1832,
      "##rp": 1833,
      "##dA": 1834,
      "##7u": 1835,
      "##DM": 1836,
      "##Ka": 1837,
      "##zZ": 1838,
      "##0g": 1839,
      "##WC": 1840,
      "##oo": 1841,
      "##Kq": 1842,
      "##Hh": 1843,
      "##YN": 1844,
      "##kG": 1845,
      "##eo": 1846,
      "##vA": 1847,
      "##RB": 1848,
      "##wl": 1849,
      "##wC": 1850,
      "##Hu": 1851,
      "##jh": 1852,
      "##1P": 1853,
      "##1g": 1854,
      "##fT": 1855,
      "##fX": 1856,
      "##iq": 1857,
      "##Lb": 1858,
      "##Uy": 1859,
      "##mb": 1860,
      "##eA": 1861,
      "##88": 1862,
      "##tO": 1863,
      "##22": 1864,
      "##HP": 1865,
      "##WM": 1866,
      "##RG": 1867,
      "##KM": 1868,
      "##rh": 1869,
      "##3Z": 1870,
      "##UD": 1871,
      "##07": 1872,
      "##4k": 1873,
      "##v5": 1874,
      "##vb": 1875,
      "##F9": 1876,
      "##jp": 1877,
      "##NA": 1878,
      "##rS": 1879,
      "##zX": 1880,
      "##Uq": 1881,
      "##il": 1882,
      "##RZ": 1883,
      "##Da": 1884,
      "##N9": 1885,
      "##L5": 1886,
      "##Lo": 1887,
      "##OO": 1888,
      "##8A": 1889,
      "##m9": 1890,
      "##iM": 1891,
      "##vF": 1892,
      "##6u": 1893,
      "##Vn": 1894,
      "##RT": 1895,
      "##NF": 1896,
      "##Ky": 1897,
      "##rH": 1898,
      "##fz": 1899,
      "##BG": 1900,
      "##wW": 1901,
      "##kc": 1902,
      "##m5": 1903,
      "##eb": 1904,
      "##7s": 1905,
      "##CD": 1906,
      "##ju": 1907,
      "##0p": 1908,
      "##wy": 1909,
      "##ZT": 1910,
      "##PP": 1911,
      "##3T": 1912,
      "##OG": 1913,
      "##I5": 1914,
      "##iy": 1915,
      "##Ja": 1916,
      "##8o": 1917,
      "##X2": 1918,
      "##r6": 1919,
      "##7j": 1920,
      "##Nx": 1921,
      "##mL": 1922,
      "##qM": 1923,
      "##fc": 1924,
      "##B3": 1925,
      "##KC": 1926,
      "##zk": 1927,
      "##Qn": 1928,
      "##7E": 1929,
      "##Yd": 1930,
      "##33": 1931,
      "##z2": 1932,
      "##7S": 1933,
      "##rs": 1934,
      "##fR": 1935,
      "##UW": 1936,
      "##fV": 1937,
      "##Jy": 1938,
      "##b5": 1939,
      "##ve": 1940,
      "##ZZ": 1941,
      "##rE": 1942,
      "##uS": 1943,
      "##qy": 1944,
      "##8L": 1945,
      "##4X": 1946,
      "##QX": 1947,
      "##1j": 1948,
      "##gp": 1949,
      "##vm": 1950,
      "##1s": 1951,
      "##JM": 1952,
      "##Dq": 1953,
      "##KW": 1954,
      "##RX": 1955,
      "##z3": 1956,
      "##zB": 1957,
      "##UC": 1958,
      "##2G": 1959,
      "##Jl": 1960,
      "##Ld": 1961,
      "##6P": 1962,
      "##xA": 1963,
      "##xo": 1964,
      "##zO": 1965,
      "##Ui": 1966,
      "##05": 1967,
      "##9I": 1968,
      "##1H": 1969,
      "##tn": 1970,
      "##ed": 1971,
      "##x5": 1972,
      "##js": 1973,
      "##vd": 1974,
      "##0H": 1975,
      "##oA": 1976,
      "##xb": 1977,
      "##yy": 1978,
      "##hp": 1979,
      "##Q4": 1980,
      "##8I": 1981,
      "##Ki": 1982,
      "##FF": 1983,
      "##kZ": 1984,
      "##ww": 1985,
      "##GG": 1986,
      "##ee": 1987,
      "##MM": 1988,
      "##Rc": 1989,
      "##jH": 1990,
      "##11": 1991,
      "##sE": 1992,
      "##su": 1993,
      "##BB": 1994,
      "##k2": 1995,
      "##Wa": 1996,
      "##xI": 1997,
      "##vL": 1998,
      "##nn": 1999,
      "##NN": 2000,
      "##Pg": 2001,
      "##OZ": 2002,
      "##Cy": 2003,
      "##DD": 2004,
      "##6S": 2005,
      "##tV": 2006,
      "##EH": 2007,
      "##32": 2008,
      "##XT": 2009,
      "##hg": 2010,
      "##QQ": 2011,
      "##bI": 2012,
      "##cc": 2013,
      "##r1": 2014,
      "##Pu": 2015,
      "##xd": 2016,
      "##RR": 2017,
      "##Nd": 2018,
      "##0j": 2019,
      "##Ji": 2020,
      "##Wy": 2021,
      "##JC": 2022,
      "##o5": 2023,
      "##YF": 2024,
      "##My": 2025,
      "##6g": 2026,
      "##0r": 2027,
      "##qC": 2028,
      "##71": 2029,
      "##Yv": 2030,
      "##8m": 2031,
      "##KK": 2032,
      "##zV": 2033,
      "##QV": 2034,
      "##ss": 2035,
      "##Dy": 2036,
      "##Ph": 2037,
      "##4V": 2038,
      "##fn": 2039,
      "##Lm": 2040,
      "##kT": 2041,
      "##JK": 2042,
      "##bo": 2043,
      "##UU": 2044,
      "##Su": 2045,
      "##Ep": 2046,
      "##em": 2047
    }
  }
}