{
  "[PAD]": 0,
  "[UNK]": 1,
  "[CLS]": 2,
  "[SEP]": 3,
  "[MASK]": 4,
  "<END>": 5,
  "<ESC_EQ>": 6,
  "<REC>": 7,
  "<SEP>": 8,
  "=": 9,
  "e": 10,
  "n": 11,
  "t": 12,
  "s": 13,
  "i": 14,
  "o": 15,
  "r": 16,
  "a": 17,
  "_": 18,
  "p": 19,
  "m": 20,
  "d": 21,
  "l": 22,
  "c": 23,
  "u": 24,
  "g": 25,
  "in": 26,
  "en": 27,
  "st": 28,
  "h": 29,
  "nt": 30,
  "re": 31,
  "ing": 32,
  "ng": 33,
  "it": 34,
  "y": 35,
  "ent": 36,
  "er": 37,
  "on": 38,
  "0": 39,
  "de": 40,
  "ed": 41,
  "at": 42,
  "us": 43,
  "sta": 44,
  "ta": 45,
  "1": 46,
  "<": 47,
  "me": 48,
  "ti": 49,
  "tu": 50,
  "men": 51,
  "ment": 52,
  "es": 53,
  "_s": 54,
  "t_": 55,
  "di": 56,
  "si": 57,
  "al": 58,
  "k": 59,
  "ne": 60,
  "he": 61,
  "cr": 62,
  "no": 63,
  "le": 64,
  "w": 65,
  "cre": 66,
  "cred": 67,
  "credi": 68,
  "credit": 69,
  "red": 70,
  "redi": 71,
  "redit": 72,
  "edi": 73,
  "edit": 74,
  "dit": 75,
  "one": 76,
  "stat": 77,
  "tat": 78,
  "or": 79,
  "pe": 80,
  "_st": 81,
  "_sta": 82,
  "_stat": 83,
  "_statu": 84,
  "_status": 85,
  "statu": 86,
  "status": 87,
  "tatu": 88,
  "tatus": 89,
  "atu": 90,
  "atus": 91,
  "tus": 92,
  "_p": 93,
  "is": 94,
  "ist": 95,
  "2": 96,
  "sin": 97,
  "pa": 98,
  "E": 99,
  "ur": 100,
  "ns": 101,
  "ma": 102,
  "ep": 103,
  "non": 104,
  "4": 105,
  "ot": 106,
  "oth": 107,
  "othe": 108,
  "other": 109,
  "th": 110,
  "the": 111,
  "ther": 112,
  "her": 113,
  "none": 114,
  "ki": 115,
  "nc": 116,
  "nce": 117,
  "ce": 118,
  "f": 119,
  "den": 120,
  "per": 121,
  "rt": 122,
  "ar": 123,
  "pl": 124,
  "ou": 125,
  "ow": 126,
  "own": 127,
  "wn": 128,
  "ts": 129,
  "ing_": 130,
  "ng_": 131,
  "g_": 132,
  "credit_": 133,
  "redit_": 134,
  "edit_": 135,
  "dit_": 136,
  "it_": 137,
  "ym": 138,
  "yme": 139,
  "ymen": 140,
  "yment": 141,
  "ment_": 142,
  "ent_": 143,
  "nt_": 144,
  "_c": 145,
  "other_": 146,
  "other_p": 147,
  "other_pa": 148,
  "ther_": 149,
  "ther_p": 150,
  "ther_pa": 151,
  "her_": 152,
  "her_p": 153,
  "her_pa": 154,
  "er_": 155,
  "er_p": 156,
  "er_pa": 157,
  "r_": 158,
  "r_p": 159,
  "r_pa": 160,
  "_pa": 161,
  "ag": 162,
  "gn": 163,
  "ho": 164,
  "n_": 165,
  "ll": 166,
  "id": 167,
  "v": 168,
  "/": 169,
  "sti": 170,
  "ex": 171,
  "exi": 172,
  "exis": 173,
  "exist": 174,
  "existi": 175,
  "existin": 176,
  "existing": 177,
  "x": 178,
  "xi": 179,
  "xis": 180,
  "xist": 181,
  "xisti": 182,
  "xistin": 183,
  "xisting": 184,
  "isti": 185,
  "istin": 186,
  "isting": 187,
  "stin": 188,
  "sting": 189,
  "tin": 190,
  "ting": 191,
  ">": 192,
  "ra": 193,
  "sing": 194,
  "em": 195,
  "ye": 196,
  "an": 197,
  "00": 198,
  "io": 199,
  "ch": 200,
  "che": 201,
  "chec": 202,
  "check": 203,
  "checki": 204,
  "checkin": 205,
  "checking": 206,
  "hec": 207,
  "heck": 208,
  "hecki": 209,
  "heckin": 210,
  "hecking": 211,
  "ec": 212,
  "eck": 213,
  "ecki": 214,
  "eckin": 215,
  "ecking": 216,
  "ck": 217,
  "cki": 218,
  "ckin": 219,
  "cking": 220,
  "kin": 221,
  "king": 222,
  "3": 223,
  "yes": 224,
  "un": 225,
  "dep": 226,
  "<E": 227,
  "<ES": 228,
  "<ESC": 229,
  "<ESC_": 230,
  "<ESC_E": 231,
  "<ESC_EQ": 232,
  "ES": 233,
  "ESC": 234,
  "ESC_": 235,
  "ESC_E": 236,
  "ESC_EQ": 237,
  "ESC_EQ>": 238,
  "S": 239,
  "SC": 240,
  "SC_": 241,
  "SC_E": 242,
  "SC_EQ": 243,
  "SC_EQ>": 244,
  "C": 245,
  "C_": 246,
  "C_E": 247,
  "C_EQ": 248,
  "C_EQ>": 249,
  "_E": 250,
  "_EQ": 251,
  "_EQ>": 252,
  "EQ": 253,
  "EQ>": 254,
  "Q": 255,
  "Q>": 256,
  "se": 257,
  "vi": 258,
  "te": 259,
  "res": 260,
  "b": 261,
  "pr": 262,
  "el": 263,
  "ura": 264,
  "emp": 265,
  "mp": 266,
  "ins": 267,
  "resi": 268,
  "resid": 269,
  "reside": 270,
  "residen": 271,
  "esi": 272,
  "esid": 273,
  "eside": 274,
  "esiden": 275,
  "sid": 276,
  "side": 277,
  "siden": 278,
  "ide": 279,
  "iden": 280,
  "dent": 281,
  "sa": 282,
  "sav": 283,
  "savi": 284,
  "savin": 285,
  "saving": 286,
  "savings": 287,
  "av": 288,
  "avi": 289,
  "avin": 290,
  "aving": 291,
  "avings": 292,
  "vin": 293,
  "ving": 294,
  "vings": 295,
  "ings": 296,
  "ngs": 297,
  "gs": 298,
  "ni": 299,
  "nit": 300,
  "nitu": 301,
  "itu": 302,
  "pro": 303,
  "prop": 304,
  "prope": 305,
  "proper": 306,
  "propert": 307,
  "property": 308,
  "ro": 309,
  "rop": 310,
  "rope": 311,
  "roper": 312,
  "ropert": 313,
  "roperty": 314,
  "op": 315,
  "ope": 316,
  "oper": 317,
  "opert": 318,
  "operty": 319,
  "pert": 320,
  "perty": 321,
  "ert": 322,
  "erty": 323,
  "rty": 324,
  "ty": 325,
  "hi": 326,
  "ig": 327,
  "fo": 328,
  "for": 329,
  "usi": 330,
  "usin": 331,
  "to": 332,
  "tor": 333,
  "ay": 334,
  "la": 335,
  "ous": 336,
  "all": 337,
  "ca": 338,
  "empl": 339,
  "emplo": 340,
  "employ": 341,
  "mpl": 342,
  "mplo": 343,
  "mploy": 344,
  "plo": 345,
  "ploy": 346,
  "lo": 347,
  "loy": 348,
  "oy": 349,
  "du": 350,
  "ati": 351,
  "atio": 352,
  "ation": 353,
  "tio": 354,
  "tion": 355,
  "ion": 356,
  "sto": 357,
  "stor": 358,
  "ore": 359,
  "co": 360,
  "credits": 361,
  "redits": 362,
  "edits": 363,
  "dits": 364,
  "its": 365,
  "rs": 366,
  "om": 367,
  "checking_": 368,
  "checking_s": 369,
  "checking_st": 370,
  "checking_sta": 371,
  "checking_stat": 372,
  "checking_statu": 373,
  "checking_status": 374,
  "hecking_": 375,
  "hecking_s": 376,
  "hecking_st": 377,
  "hecking_sta": 378,
  "hecking_stat": 379,
  "hecking_statu": 380,
  "hecking_status": 381,
  "ecking_": 382,
  "ecking_s": 383,
  "ecking_st": 384,
  "ecking_sta": 385,
  "ecking_stat": 386,
  "ecking_statu": 387,
  "ecking_status": 388,
  "cking_": 389,
  "cking_s": 390,
  "cking_st": 391,
  "cking_sta": 392,
  "cking_stat": 393,
  "cking_statu": 394,
  "cking_status": 395,
  "king_": 396,
  "king_s": 397,
  "king_st": 398,
  "king_sta": 399,
  "king_stat": 400,
  "king_statu": 401,
  "king_status": 402,
  "ing_s": 403,
  "ing_st": 404,
  "ing_sta": 405,
  "ing_stat": 406,
  "ing_statu": 407,
  "ing_status": 408,
  "ng_s": 409,
  "ng_st": 410,
  "ng_sta": 411,
  "ng_stat": 412,
  "ng_statu": 413,
  "ng_status": 414,
  "g_s": 415,
  "g_st": 416,
  "g_sta": 417,
  "g_stat": 418,
  "g_statu": 419,
  "g_status": 420,
  "dur": 421,
  "dura": 422,
  "durat": 423,
  "durati": 424,
  "duratio": 425,
  "duration": 426,
  "urat": 427,
  "urati": 428,
  "uratio": 429,
  "uration": 430,
  "rat": 431,
  "rati": 432,
  "ratio": 433,
  "ration": 434,
  "credit_h": 435,
  "credit_hi": 436,
  "credit_his": 437,
  "credit_hist": 438,
  "credit_histo": 439,
  "credit_histor": 440,
  "credit_history": 441,
  "redit_h": 442,
  "redit_hi": 443,
  "redit_his": 444,
  "redit_hist": 445,
  "redit_histo": 446,
  "redit_histor": 447,
  "redit_history": 448,
  "edit_h": 449,
  "edit_hi": 450,
  "edit_his": 451,
  "edit_hist": 452,
  "edit_histo": 453,
  "edit_histor": 454,
  "edit_history": 455,
  "dit_h": 456,
  "dit_hi": 457,
  "dit_his": 458,
  "dit_hist": 459,
  "dit_histo": 460,
  "dit_histor": 461,
  "dit_history": 462,
  "it_h": 463,
  "it_hi": 464,
  "it_his": 465,
  "it_hist": 466,
  "it_histo": 467,
  "it_histor": 468,
  "it_history": 469,
  "t_h": 470,
  "t_hi": 471,
  "t_his": 472,
  "t_hist": 473,
  "t_histo": 474,
  "t_histor": 475,
  "t_history": 476,
  "_h": 477,
  "_hi": 478,
  "_his": 479,
  "_hist": 480,
  "_histo": 481,
  "_histor": 482,
  "_history": 483,
  "his": 484,
  "hist": 485,
  "histo": 486,
  "histor": 487,
  "history": 488,
  "isto": 489,
  "istor": 490,
  "istory": 491,
  "story": 492,
  "tory": 493,
  "ory": 494,
  "ry": 495,
  "pu": 496,
  "pur": 497,
  "purp": 498,
  "purpo": 499,
  "purpos": 500,
  "purpose": 501,
  "urp": 502,
  "urpo": 503,
  "urpos": 504,
  "urpose": 505,
  "rp": 506,
  "rpo": 507,
  "rpos": 508,
  "rpose": 509,
  "po": 510,
  "pos": 511,
  "pose": 512,
  "os": 513,
  "ose": 514,
  "credit_a": 515,
  "credit_am": 516,
  "credit_amo": 517,
  "credit_amou": 518,
  "credit_amoun": 519,
  "credit_amount": 520,
  "redit_a": 521,
  "redit_am": 522,
  "redit_amo": 523,
  "redit_amou": 524,
  "redit_amoun": 525,
  "redit_amount": 526,
  "edit_a": 527,
  "edit_am": 528,
  "edit_amo": 529,
  "edit_amou": 530,
  "edit_amoun": 531,
  "edit_amount": 532,
  "dit_a": 533,
  "dit_am": 534,
  "dit_amo": 535,
  "dit_amou": 536,
  "dit_amoun": 537,
  "dit_amount": 538,
  "it_a": 539,
  "it_am": 540,
  "it_amo": 541,
  "it_amou": 542,
  "it_amoun": 543,
  "it_amount": 544,
  "t_a": 545,
  "t_am": 546,
  "t_amo": 547,
  "t_amou": 548,
  "t_amoun": 549,
  "t_amount": 550,
  "_a": 551,
  "_am": 552,
  "_amo": 553,
  "_amou": 554,
  "_amoun": 555,
  "_amount": 556,
  "am": 557,
  "amo": 558,
  "amou": 559,
  "amoun": 560,
  "amount": 561,
  "mo": 562,
  "mou": 563,
  "moun": 564,
  "mount": 565,
  "oun": 566,
  "ount": 567,
  "unt": 568,
  ".": 569,
  ".0": 570,
  "savings_": 571,
  "savings_s": 572,
  "savings_st": 573,
  "savings_sta": 574,
  "savings_stat": 575,
  "savings_statu": 576,
  "savings_status": 577,
  "avings_": 578,
  "avings_s": 579,
  "avings_st": 580,
  "avings_sta": 581,
  "avings_stat": 582,
  "avings_statu": 583,
  "avings_status": 584,
  "vings_": 585,
  "vings_s": 586,
  "vings_st": 587,
  "vings_sta": 588,
  "vings_stat": 589,
  "vings_statu": 590,
  "vings_status": 591,
  "ings_": 592,
  "ings_s": 593,
  "ings_st": 594,
  "ings_sta": 595,
  "ings_stat": 596,
  "ings_statu": 597,
  "ings_status": 598,
  "ngs_": 599,
  "ngs_s": 600,
  "ngs_st": 601,
  "ngs_sta": 602,
  "ngs_stat": 603,
  "ngs_statu": 604,
  "ngs_status": 605,
  "gs_": 606,
  "gs_s": 607,
  "gs_st": 608,
  "gs_sta": 609,
  "gs_stat": 610,
  "gs_statu": 611,
  "gs_status": 612,
  "s_": 613,
  "s_s": 614,
  "s_st": 615,
  "s_sta": 616,
  "s_stat": 617,
  "s_statu": 618,
  "s_status": 619,
  "employm": 620,
  "employme": 621,
  "employmen": 622,
  "employment": 623,
  "mploym": 624,
  "mployme": 625,
  "mploymen": 626,
  "mployment": 627,
  "ploym": 628,
  "ployme": 629,
  "ploymen": 630,
  "ployment": 631,
  "loym": 632,
  "loyme": 633,
  "loymen": 634,
  "loyment": 635,
  "oym": 636,
  "oyme": 637,
  "oymen": 638,
  "oyment": 639,
  "inst": 640,
  "insta": 641,
  "instal": 642,
  "install": 643,
  "installm": 644,
  "installme": 645,
  "installmen": 646,
  "installment": 647,
  "installment_": 648,
  "installment_c": 649,
  "installment_co": 650,
  "installment_com": 651,
  "installment_comm": 652,
  "nst": 653,
  "nsta": 654,
  "nstal": 655,
  "nstall": 656,
  "nstallm": 657,
  "nstallme": 658,
  "nstallmen": 659,
  "nstallment": 660,
  "nstallment_": 661,
  "nstallment_c": 662,
  "nstallment_co": 663,
  "nstallment_com": 664,
  "nstallment_comm": 665,
  "nstallment_commi": 666,
  "stal": 667,
  "stall": 668,
  "stallm": 669,
  "stallme": 670,
  "stallmen": 671,
  "stallment": 672,
  "stallment_": 673,
  "stallment_c": 674,
  "stallment_co": 675,
  "stallment_com": 676,
  "stallment_comm": 677,
  "stallment_commi": 678,
  "stallment_commit": 679,
  "tal": 680,
  "tall": 681,
  "tallm": 682,
  "tallme": 683,
  "tallmen": 684,
  "tallment": 685,
  "tallment_": 686,
  "tallment_c": 687,
  "tallment_co": 688,
  "tallment_com": 689,
  "tallment_comm": 690,
  "tallment_commi": 691,
  "tallment_commit": 692,
  "tallment_commitm": 693,
  "allm": 694,
  "allme": 695,
  "allmen": 696,
  "allment": 697,
  "allment_": 698,
  "allment_c": 699,
  "allment_co": 700,
  "allment_com": 701,
  "allment_comm": 702,
  "allment_commi": 703,
  "allment_commit": 704,
  "allment_commitm": 705,
  "allment_commitme": 706,
  "llm": 707,
  "llme": 708,
  "llmen": 709,
  "llment": 710,
  "llment_": 711,
  "llment_c": 712,
  "llment_co": 713,
  "llment_com": 714,
  "llment_comm": 715,
  "llment_commi": 716,
  "llment_commit": 717,
  "llment_commitm": 718,
  "llment_commitme": 719,
  "llment_commitmen": 720,
  "lm": 721,
  "lme": 722,
  "lmen": 723,
  "lment": 724,
  "lment_": 725,
  "lment_c": 726,
  "lment_co": 727,
  "lment_com": 728,
  "lment_comm": 729,
  "lment_commi": 730,
  "lment_commit": 731,
  "lment_commitm": 732,
  "lment_commitme": 733,
  "lment_commitmen": 734,
  "lment_commitment": 735,
  "ment_c": 736,
  "ment_co": 737,
  "ment_com": 738,
  "ment_comm": 739,
  "ment_commi": 740,
  "ment_commit": 741,
  "ment_commitm": 742,
  "ment_commitme": 743,
  "ment_commitmen": 744,
  "ment_commitment": 745,
  "ent_c": 746,
  "ent_co": 747,
  "ent_com": 748,
  "ent_comm": 749,
  "ent_commi": 750,
  "ent_commit": 751,
  "ent_commitm": 752,
  "ent_commitme": 753,
  "ent_commitmen": 754,
  "ent_commitment": 755,
  "nt_c": 756,
  "nt_co": 757,
  "nt_com": 758,
  "nt_comm": 759,
  "nt_commi": 760,
  "nt_commit": 761,
  "nt_commitm": 762,
  "nt_commitme": 763,
  "nt_commitmen": 764,
  "nt_commitment": 765,
  "t_c": 766,
  "t_co": 767,
  "t_com": 768,
  "t_comm": 769,
  "t_commi": 770,
  "t_commit": 771,
  "t_commitm": 772,
  "t_commitme": 773,
  "t_commitmen": 774,
  "t_commitment": 775,
  "_co": 776,
  "_com": 777,
  "_comm": 778,
  "_commi": 779,
  "_commit": 780,
  "_commitm": 781,
  "_commitme": 782,
  "_commitmen": 783,
  "_commitment": 784,
  "com": 785,
  "comm": 786,
  "commi": 787,
  "commit": 788,
  "commitm": 789,
  "commitme": 790,
  "commitmen": 791,
  "commitment": 792,
  "omm": 793,
  "ommi": 794,
  "ommit": 795,
  "ommitm": 796,
  "ommitme": 797,
  "ommitmen": 798,
  "ommitment": 799,
  "mm": 800,
  "mmi": 801,
  "mmit": 802,
  "mmitm": 803,
  "mmitme": 804,
  "mmitmen": 805,
  "mmitment": 806,
  "mi": 807,
  "mit": 808,
  "mitm": 809,
  "mitme": 810,
  "mitmen": 811,
  "mitment": 812,
  "itm": 813,
  "itme": 814,
  "itmen": 815,
  "itment": 816,
  "tm": 817,
  "tme": 818,
  "tmen": 819,
  "tment": 820,
  "pers": 821,
  "perso": 822,
  "person": 823,
  "persona": 824,
  "personal": 825,
  "personal_": 826,
  "personal_s": 827,
  "personal_st": 828,
  "personal_sta": 829,
  "personal_stat": 830,
  "personal_statu": 831,
  "personal_status": 832,
  "ers": 833,
  "erso": 834,
  "erson": 835,
  "ersona": 836,
  "ersonal": 837,
  "ersonal_": 838,
  "ersonal_s": 839,
  "ersonal_st": 840,
  "ersonal_sta": 841,
  "ersonal_stat": 842,
  "ersonal_statu": 843,
  "ersonal_status": 844,
  "rso": 845,
  "rson": 846,
  "rsona": 847,
  "rsonal": 848,
  "rsonal_": 849,
  "rsonal_s": 850,
  "rsonal_st": 851,
  "rsonal_sta": 852,
  "rsonal_stat": 853,
  "rsonal_statu": 854,
  "rsonal_status": 855,
  "so": 856,
  "son": 857,
  "sona": 858,
  "sonal": 859,
  "sonal_": 860,
  "sonal_s": 861,
  "sonal_st": 862,
  "sonal_sta": 863,
  "sonal_stat": 864,
  "sonal_statu": 865,
  "sonal_status": 866,
  "ona": 867,
  "onal": 868,
  "onal_": 869,
  "onal_s": 870,
  "onal_st": 871,
  "onal_sta": 872,
  "onal_stat": 873,
  "onal_statu": 874,
  "onal_status": 875,
  "na": 876,
  "nal": 877,
  "nal_": 878,
  "nal_s": 879,
  "nal_st": 880,
  "nal_sta": 881,
  "nal_stat": 882,
  "nal_statu": 883,
  "nal_status": 884,
  "al_": 885,
  "al_s": 886,
  "al_st": 887,
  "al_sta": 888,
  "al_stat": 889,
  "al_statu": 890,
  "al_status": 891,
  "l_": 892,
  "l_s": 893,
  "l_st": 894,
  "l_sta": 895,
  "l_stat": 896,
  "l_statu": 897,
  "l_status": 898,
  "mal": 899,
  "male": 900,
  "ale": 901,
  "other_par": 902,
  "other_part": 903,
  "other_parti": 904,
  "other_partie": 905,
  "other_parties": 906,
  "ther_par": 907,
  "ther_part": 908,
  "ther_parti": 909,
  "ther_partie": 910,
  "ther_parties": 911,
  "her_par": 912,
  "her_part": 913,
  "her_parti": 914,
  "her_partie": 915,
  "her_parties": 916,
  "er_par": 917,
  "er_part": 918,
  "er_parti": 919,
  "er_partie": 920,
  "er_parties": 921,
  "r_par": 922,
  "r_part": 923,
  "r_parti": 924,
  "r_partie": 925,
  "r_parties": 926,
  "_par": 927,
  "_part": 928,
  "_parti": 929,
  "_partie": 930,
  "_parties": 931,
  "par": 932,
  "part": 933,
  "parti": 934,
  "partie": 935,
  "parties": 936,
  "art": 937,
  "arti": 938,
  "artie": 939,
  "arties": 940,
  "rti": 941,
  "rtie": 942,
  "rties": 943,
  "tie": 944,
  "ties": 945,
  "ie": 946,
  "ies": 947,
  "residenc": 948,
  "residence": 949,
  "residence_": 950,
  "residence_s": 951,
  "residence_si": 952,
  "residence_sin": 953,
  "residence_sinc": 954,
  "residence_since": 955,
  "esidenc": 956,
  "esidence": 957,
  "esidence_": 958,
  "esidence_s": 959,
  "esidence_si": 960,
  "esidence_sin": 961,
  "esidence_sinc": 962,
  "esidence_since": 963,
  "sidenc": 964,
  "sidence": 965,
  "sidence_": 966,
  "sidence_s": 967,
  "sidence_si": 968,
  "sidence_sin": 969,
  "sidence_sinc": 970,
  "sidence_since": 971,
  "idenc": 972,
  "idence": 973,
  "idence_": 974,
  "idence_s": 975,
  "idence_si": 976,
  "idence_sin": 977,
  "idence_sinc": 978,
  "idence_since": 979,
  "denc": 980,
  "dence": 981,
  "dence_": 982,
  "dence_s": 983,
  "dence_si": 984,
  "dence_sin": 985,
  "dence_sinc": 986,
  "dence_since": 987,
  "enc": 988,
  "ence": 989,
  "ence_": 990,
  "ence_s": 991,
  "ence_si": 992,
  "ence_sin": 993,
  "ence_sinc": 994,
  "ence_since": 995,
  "nce_": 996,
  "nce_s": 997,
  "nce_si": 998,
  "nce_sin": 999,
  "nce_sinc": 1000,
  "nce_since": 1001,
  "ce_": 1002,
  "ce_s": 1003,
  "ce_si": 1004,
  "ce_sin": 1005,
  "ce_sinc": 1006,
  "ce_since": 1007,
  "e_": 1008,
  "e_s": 1009,
  "e_si": 1010,
  "e_sin": 1011,
  "e_sinc": 1012,
  "e_since": 1013,
  "_si": 1014,
  "_sin": 1015,
  "_sinc": 1016,
  "_since": 1017,
  "sinc": 1018,
  "since": 1019,
  "inc": 1020,
  "ince": 1021,
  "property_": 1022,
  "property_m": 1023,
  "property_ma": 1024,
  "property_mag": 1025,
  "property_magn": 1026,
  "property_magni": 1027,
  "property_magnit": 1028,
  "property_magnitu": 1029,
  "roperty_": 1030,
  "roperty_m": 1031,
  "roperty_ma": 1032,
  "roperty_mag": 1033,
  "roperty_magn": 1034,
  "roperty_magni": 1035,
  "roperty_magnit": 1036,
  "roperty_magnitu": 1037,
  "roperty_magnitud": 1038,
  "operty_": 1039,
  "operty_m": 1040,
  "operty_ma": 1041,
  "operty_mag": 1042,
  "operty_magn": 1043,
  "operty_magni": 1044,
  "operty_magnit": 1045,
  "operty_magnitu": 1046,
  "operty_magnitud": 1047,
  "operty_magnitude": 1048,
  "perty_": 1049,
  "perty_m": 1050,
  "perty_ma": 1051,
  "perty_mag": 1052,
  "perty_magn": 1053,
  "perty_magni": 1054,
  "perty_magnit": 1055,
  "perty_magnitu": 1056,
  "perty_magnitud": 1057,
  "perty_magnitude": 1058,
  "erty_": 1059,
  "erty_m": 1060,
  "erty_ma": 1061,
  "erty_mag": 1062,
  "erty_magn": 1063,
  "erty_magni": 1064,
  "erty_magnit": 1065,
  "erty_magnitu": 1066,
  "erty_magnitud": 1067,
  "erty_magnitude": 1068,
  "rty_": 1069,
  "rty_m": 1070,
  "rty_ma": 1071,
  "rty_mag": 1072,
  "rty_magn": 1073,
  "rty_magni": 1074,
  "rty_magnit": 1075,
  "rty_magnitu": 1076,
  "rty_magnitud": 1077,
  "rty_magnitude": 1078,
  "ty_": 1079,
  "ty_m": 1080,
  "ty_ma": 1081,
  "ty_mag": 1082,
  "ty_magn": 1083,
  "ty_magni": 1084,
  "ty_magnit": 1085,
  "ty_magnitu": 1086,
  "ty_magnitud": 1087,
  "ty_magnitude": 1088,
  "y_": 1089,
  "y_m": 1090,
  "y_ma": 1091,
  "y_mag": 1092,
  "y_magn": 1093,
  "y_magni": 1094,
  "y_magnit": 1095,
  "y_magnitu": 1096,
  "y_magnitud": 1097,
  "y_magnitude": 1098,
  "_m": 1099,
  "_ma": 1100,
  "_mag": 1101,
  "_magn": 1102,
  "_magni": 1103,
  "_magnit": 1104,
  "_magnitu": 1105,
  "_magnitud": 1106,
  "_magnitude": 1107,
  "mag": 1108,
  "magn": 1109,
  "magni": 1110,
  "magnit": 1111,
  "magnitu": 1112,
  "magnitud": 1113,
  "magnitude": 1114,
  "agn": 1115,
  "agni": 1116,
  "agnit": 1117,
  "agnitu": 1118,
  "agnitud": 1119,
  "agnitude": 1120,
  "gni": 1121,
  "gnit": 1122,
  "gnitu": 1123,
  "gnitud": 1124,
  "gnitude": 1125,
  "nitud": 1126,
  "nitude": 1127,
  "itud": 1128,
  "itude": 1129,
  "tud": 1130,
  "tude": 1131,
  "ud": 1132,
  "ude": 1133,
  "age": 1134,
  "ge": 1135,
  "other_pay": 1136,
  "other_paym": 1137,
  "other_payme": 1138,
  "other_paymen": 1139,
  "other_payment": 1140,
  "other_payment_": 1141,
  "other_payment_p": 1142,
  "other_payment_pl": 1143,
  "ther_pay": 1144,
  "ther_paym": 1145,
  "ther_payme": 1146,
  "ther_paymen": 1147,
  "ther_payment": 1148,
  "ther_payment_": 1149,
  "ther_payment_p": 1150,
  "ther_payment_pl": 1151,
  "ther_payment_pla": 1152,
  "her_pay": 1153,
  "her_paym": 1154,
  "her_payme": 1155,
  "her_paymen": 1156,
  "her_payment": 1157,
  "her_payment_": 1158,
  "her_payment_p": 1159,
  "her_payment_pl": 1160,
  "her_payment_pla": 1161,
  "her_payment_plan": 1162,
  "er_pay": 1163,
  "er_paym": 1164,
  "er_payme": 1165,
  "er_paymen": 1166,
  "er_payment": 1167,
  "er_payment_": 1168,
  "er_payment_p": 1169,
  "er_payment_pl": 1170,
  "er_payment_pla": 1171,
  "er_payment_plan": 1172,
  "er_payment_plans": 1173,
  "r_pay": 1174,
  "r_paym": 1175,
  "r_payme": 1176,
  "r_paymen": 1177,
  "r_payment": 1178,
  "r_payment_": 1179,
  "r_payment_p": 1180,
  "r_payment_pl": 1181,
  "r_payment_pla": 1182,
  "r_payment_plan": 1183,
  "r_payment_plans": 1184,
  "_pay": 1185,
  "_paym": 1186,
  "_payme": 1187,
  "_paymen": 1188,
  "_payment": 1189,
  "_payment_": 1190,
  "_payment_p": 1191,
  "_payment_pl": 1192,
  "_payment_pla": 1193,
  "_payment_plan": 1194,
  "_payment_plans": 1195,
  "pay": 1196,
  "paym": 1197,
  "payme": 1198,
  "paymen": 1199,
  "payment": 1200,
  "payment_": 1201,
  "payment_p": 1202,
  "payment_pl": 1203,
  "payment_pla": 1204,
  "payment_plan": 1205,
  "payment_plans": 1206,
  "aym": 1207,
  "ayme": 1208,
  "aymen": 1209,
  "ayment": 1210,
  "ayment_": 1211,
  "ayment_p": 1212,
  "ayment_pl": 1213,
  "ayment_pla": 1214,
  "ayment_plan": 1215,
  "ayment_plans": 1216,
  "yment_": 1217,
  "yment_p": 1218,
  "yment_pl": 1219,
  "yment_pla": 1220,
  "yment_plan": 1221,
  "yment_plans": 1222,
  "ment_p": 1223,
  "ment_pl": 1224,
  "ment_pla": 1225,
  "ment_plan": 1226,
  "ment_plans": 1227,
  "ent_p": 1228,
  "ent_pl": 1229,
  "ent_pla": 1230,
  "ent_plan": 1231,
  "ent_plans": 1232,
  "nt_p": 1233,
  "nt_pl": 1234,
  "nt_pla": 1235,
  "nt_plan": 1236,
  "nt_plans": 1237,
  "t_p": 1238,
  "t_pl": 1239,
  "t_pla": 1240,
  "t_plan": 1241,
  "t_plans": 1242,
  "_pl": 1243,
  "_pla": 1244,
  "_plan": 1245,
  "_plans": 1246,
  "pla": 1247,
  "plan": 1248,
  "plans": 1249,
  "lan": 1250,
  "lans": 1251,
  "ans": 1252,
  "hou": 1253,
  "hous": 1254,
  "housi": 1255,
  "housin": 1256,
  "housing": 1257,
  "ousi": 1258,
  "ousin": 1259,
  "ousing": 1260,
  "using": 1261,
  "existing_": 1262,
  "existing_c": 1263,
  "existing_cr": 1264,
  "existing_cre": 1265,
  "existing_cred": 1266,
  "existing_credi": 1267,
  "existing_credit": 1268,
  "existing_credits": 1269,
  "xisting_": 1270,
  "xisting_c": 1271,
  "xisting_cr": 1272,
  "xisting_cre": 1273,
  "xisting_cred": 1274,
  "xisting_credi": 1275,
  "xisting_credit": 1276,
  "xisting_credits": 1277,
  "isting_": 1278,
  "isting_c": 1279,
  "isting_cr": 1280,
  "isting_cre": 1281,
  "isting_cred": 1282,
  "isting_credi": 1283,
  "isting_credit": 1284,
  "isting_credits": 1285,
  "sting_": 1286,
  "sting_c": 1287,
  "sting_cr": 1288,
  "sting_cre": 1289,
  "sting_cred": 1290,
  "sting_credi": 1291,
  "sting_credit": 1292,
  "sting_credits": 1293,
  "ting_": 1294,
  "ting_c": 1295,
  "ting_cr": 1296,
  "ting_cre": 1297,
  "ting_cred": 1298,
  "ting_credi": 1299,
  "ting_credit": 1300,
  "ting_credits": 1301,
  "ing_c": 1302,
  "ing_cr": 1303,
  "ing_cre": 1304,
  "ing_cred": 1305,
  "ing_credi": 1306,
  "ing_credit": 1307,
  "ing_credits": 1308,
  "ng_c": 1309,
  "ng_cr": 1310,
  "ng_cre": 1311,
  "ng_cred": 1312,
  "ng_credi": 1313,
  "ng_credit": 1314,
  "ng_credits": 1315,
  "g_c": 1316,
  "g_cr": 1317,
  "g_cre": 1318,
  "g_cred": 1319,
  "g_credi": 1320,
  "g_credit": 1321,
  "g_credits": 1322,
  "_cr": 1323,
  "_cre": 1324,
  "_cred": 1325,
  "_credi": 1326,
  "_credit": 1327,
  "_credits": 1328,
  "j": 1329,
  "jo": 1330,
  "job": 1331,
  "ob": 1332,
  "nu": 1333,
  "num": 1334,
  "num_": 1335,
  "num_d": 1336,
  "num_de": 1337,
  "num_dep": 1338,
  "num_depe": 1339,
  "num_depen": 1340,
  "num_depend": 1341,
  "num_depende": 1342,
  "num_dependen": 1343,
  "num_dependent": 1344,
  "num_dependents": 1345,
  "um": 1346,
  "um_": 1347,
  "um_d": 1348,
  "um_de": 1349,
  "um_dep": 1350,
  "um_depe": 1351,
  "um_depen": 1352,
  "um_depend": 1353,
  "um_depende": 1354,
  "um_dependen": 1355,
  "um_dependent": 1356,
  "um_dependents": 1357,
  "m_": 1358,
  "m_d": 1359,
  "m_de": 1360,
  "m_dep": 1361,
  "m_depe": 1362,
  "m_depen": 1363,
  "m_depend": 1364,
  "m_depende": 1365,
  "m_dependen": 1366,
  "m_dependent": 1367,
  "m_dependents": 1368,
  "_d": 1369,
  "_de": 1370,
  "_dep": 1371,
  "_depe": 1372,
  "_depen": 1373,
  "_depend": 1374,
  "_depende": 1375,
  "_dependen": 1376,
  "_dependent": 1377,
  "_dependents": 1378,
  "depe": 1379,
  "depen": 1380,
  "depend": 1381,
  "depende": 1382,
  "dependen": 1383,
  "dependent": 1384,
  "dependents": 1385,
  "epe": 1386,
  "epen": 1387,
  "epend": 1388,
  "epende": 1389,
  "ependen": 1390,
  "ependent": 1391,
  "ependents": 1392,
  "pen": 1393,
  "pend": 1394,
  "pende": 1395,
  "penden": 1396,
  "pendent": 1397,
  "pendents": 1398,
  "end": 1399,
  "ende": 1400,
  "enden": 1401,
  "endent": 1402,
  "endents": 1403,
  "nd": 1404,
  "nde": 1405,
  "nden": 1406,
  "ndent": 1407,
  "ndents": 1408,
  "dents": 1409,
  "ents": 1410,
  "nts": 1411,
  "own_": 1412,
  "own_t": 1413,
  "own_te": 1414,
  "own_tel": 1415,
  "own_tele": 1416,
  "own_telep": 1417,
  "own_teleph": 1418,
  "own_telepho": 1419,
  "own_telephon": 1420,
  "own_telephone": 1421,
  "wn_": 1422,
  "wn_t": 1423,
  "wn_te": 1424,
  "wn_tel": 1425,
  "wn_tele": 1426,
  "wn_telep": 1427,
  "wn_teleph": 1428,
  "wn_telepho": 1429,
  "wn_telephon": 1430,
  "wn_telephone": 1431,
  "n_t": 1432,
  "n_te": 1433,
  "n_tel": 1434,
  "n_tele": 1435,
  "n_telep": 1436,
  "n_teleph": 1437,
  "n_telepho": 1438,
  "n_telephon": 1439,
  "n_telephone": 1440,
  "_t": 1441,
  "_te": 1442,
  "_tel": 1443,
  "_tele": 1444,
  "_telep": 1445,
  "_teleph": 1446,
  "_telepho": 1447,
  "_telephon": 1448,
  "_telephone": 1449,
  "tel": 1450,
  "tele": 1451,
  "telep": 1452,
  "teleph": 1453,
  "telepho": 1454,
  "telephon": 1455,
  "telephone": 1456,
  "ele": 1457,
  "elep": 1458,
  "eleph": 1459,
  "elepho": 1460,
  "elephon": 1461,
  "elephone": 1462,
  "lep": 1463,
  "leph": 1464,
  "lepho": 1465,
  "lephon": 1466,
  "lephone": 1467,
  "eph": 1468,
  "epho": 1469,
  "ephon": 1470,
  "ephone": 1471,
  "ph": 1472,
  "pho": 1473,
  "phon": 1474,
  "phone": 1475,
  "hon": 1476,
  "hone": 1477,
  "fore": 1478,
  "forei": 1479,
  "foreig": 1480,
  "foreign": 1481,
  "foreign_": 1482,
  "foreign_w": 1483,
  "foreign_wo": 1484,
  "foreign_wor": 1485,
  "foreign_work": 1486,
  "foreign_worke": 1487,
  "foreign_worker": 1488,
  "orei": 1489,
  "oreig": 1490,
  "oreign": 1491,
  "oreign_": 1492,
  "oreign_w": 1493,
  "oreign_wo": 1494,
  "oreign_wor": 1495,
  "oreign_work": 1496,
  "oreign_worke": 1497,
  "oreign_worker": 1498,
  "rei": 1499,
  "reig": 1500,
  "reign": 1501,
  "reign_": 1502,
  "reign_w": 1503,
  "reign_wo": 1504,
  "reign_wor": 1505,
  "reign_work": 1506,
  "reign_worke": 1507,
  "reign_worker": 1508,
  "ei": 1509,
  "eig": 1510,
  "eign": 1511,
  "eign_": 1512,
  "eign_w": 1513,
  "eign_wo": 1514,
  "eign_wor": 1515,
  "eign_work": 1516,
  "eign_worke": 1517,
  "eign_worker": 1518,
  "ign": 1519,
  "ign_": 1520,
  "ign_w": 1521,
  "ign_wo": 1522,
  "ign_wor": 1523,
  "ign_work": 1524,
  "ign_worke": 1525,
  "ign_worker": 1526,
  "gn_": 1527,
  "gn_w": 1528,
  "gn_wo": 1529,
  "gn_wor": 1530,
  "gn_work": 1531,
  "gn_worke": 1532,
  "gn_worker": 1533,
  "n_w": 1534,
  "n_wo": 1535,
  "n_wor": 1536,
  "n_work": 1537,
  "n_worke": 1538,
  "n_worker": 1539,
  "_w": 1540,
  "_wo": 1541,
  "_wor": 1542,
  "_work": 1543,
  "_worke": 1544,
  "_worker": 1545,
  "wo": 1546,
  "wor": 1547,
  "work": 1548,
  "worke": 1549,
  "worker": 1550,
  "ork": 1551,
  "orke": 1552,
  "orker": 1553,
  "rk": 1554,
  "rke": 1555,
  "rker": 1556,
  "ke": 1557,
  "ker": 1558,
  "<<": 1559,
  "<<E": 1560,
  "<<ES": 1561,
  "<<ESC": 1562,
  "<<ESC_": 1563,
  "<<ESC_E": 1564,
  "<<ESC_EQ": 1565,
  "<<ESC_EQ>": 1566,
  "<<ESC_EQ>X": 1567,
  "<<ESC_EQ>X<": 1568,
  "<ESC_EQ>X": 1569,
  "<ESC_EQ>X<": 1570,
  "ESC_EQ>X": 1571,
  "ESC_EQ>X<": 1572,
  "SC_EQ>X": 1573,
  "SC_EQ>X<": 1574,
  "C_EQ>X": 1575,
  "C_EQ>X<": 1576,
  "_EQ>X": 1577,
  "_EQ>X<": 1578,
  "EQ>X": 1579,
  "EQ>X<": 1580,
  "Q>X": 1581,
  "Q>X<": 1582,
  ">X": 1583,
  ">X<": 1584,
  "X": 1585,
  "X<": 1586,
  "10": 1587,
  "7": 1588,
  "sk": 1589,
  "ski": 1590,
  "skil": 1591,
  "skill": 1592,
  "skille": 1593,
  "skilled": 1594,
  "kil": 1595,
  "kill": 1596,
  "kille": 1597,
  "killed": 1598,
  "il": 1599,
  "ill": 1600,
  "ille": 1601,
  "illed": 1602,
  "lle": 1603,
  "lled": 1604,
  "led": 1605,
  "<1": 1606,
  "100": 1607,
  "5": 1608,
  "car": 1609,
  "<10": 1610,
  "<100": 1611,
  "6": 1612,
  "ai": 1613,
  "pai": 1614,
  "paid": 1615,
  "aid": 1616,
  "8": 1617,
  "singl": 1618,
  "single": 1619,
  "ingl": 1620,
  "ingle": 1621,
  "ngl": 1622,
  "ngle": 1623,
  "gl": 1624,
  "gle": 1625,
  "fe": 1626,
  "p/": 1627,
  "p/m": 1628,
  "/m": 1629,
  "9": 1630,
  "li": 1631,
  "0<": 1632,
  "0<<": 1633,
  "0<<E": 1634,
  "0<<ES": 1635,
  "0<<ESC": 1636,
  "0<<ESC_": 1637,
  "0<<ESC_E": 1638,
  "0<<ESC_EQ": 1639,
  "0<<ESC_EQ>": 1640,
  "0<<ESC_EQ>X": 1641,
  "0<<ESC_EQ>X<": 1642,
  "mar": 1643,
  "lif": 1644,
  "if": 1645,
  "20": 1646,
  "><": 1647,
  "><E": 1648,
  "><ES": 1649,
  "><ESC": 1650,
  "><ESC_": 1651,
  "><ESC_E": 1652,
  "><ESC_EQ": 1653,
  "><ESC_EQ>": 1654,
  "div": 1655,
  "div/": 1656,
  "iv": 1657,
  "iv/": 1658,
  "v/": 1659,
  "ic": 1660,
  "1<": 1661,
  "1<<": 1662,
  "1<<E": 1663,
  "1<<ES": 1664,
  "1<<ESC": 1665,
  "1<<ESC_": 1666,
  "1<<ESC_E": 1667,
  "1<<ESC_EQ": 1668,
  "1<<ESC_EQ>": 1669,
  "1<<ESC_EQ>X": 1670,
  "1<<ESC_EQ>X<": 1671,
  "1<<ESC_EQ>X<4": 1672,
  "<<ESC_EQ>X<4": 1673,
  "<ESC_EQ>X<4": 1674,
  "ESC_EQ>X<4": 1675,
  "SC_EQ>X<4": 1676,
  "C_EQ>X<4": 1677,
  "_EQ>X<4": 1678,
  "EQ>X<4": 1679,
  "Q>X<4": 1680,
  ">X<4": 1681,
  "X<4": 1682,
  "<4": 1683,
  "kn": 1684,
  "kno": 1685,
  "know": 1686,
  "known": 1687,
  "now": 1688,
  "nown": 1689,
  "ica": 1690,
  "200": 1691,
  "q": 1692,
  "qu": 1693,
  "tic": 1694,
  "fem": 1695,
  "fema": 1696,
  "femal": 1697,
  "female": 1698,
  "ema": 1699,
  "emal": 1700,
  "emale": 1701,
  "div/d": 1702,
  "div/de": 1703,
  "div/dep": 1704,
  "div/dep/": 1705,
  "div/dep/m": 1706,
  "div/dep/ma": 1707,
  "div/dep/mar": 1708,
  "iv/d": 1709,
  "iv/de": 1710,
  "iv/dep": 1711,
  "iv/dep/": 1712,
  "iv/dep/m": 1713,
  "iv/dep/ma": 1714,
  "iv/dep/mar": 1715,
  "v/d": 1716,
  "v/de": 1717,
  "v/dep": 1718,
  "v/dep/": 1719,
  "v/dep/m": 1720,
  "v/dep/ma": 1721,
  "v/dep/mar": 1722,
  "/d": 1723,
  "/de": 1724,
  "/dep": 1725,
  "/dep/": 1726,
  "/dep/m": 1727,
  "/dep/ma": 1728,
  "/dep/mar": 1729,
  "dep/": 1730,
  "dep/m": 1731,
  "dep/ma": 1732,
  "dep/mar": 1733,
  "ep/": 1734,
  "ep/m": 1735,
  "ep/ma": 1736,
  "ep/mar": 1737,
  "p/ma": 1738,
  "p/mar": 1739,
  "/ma": 1740,
  "/mar": 1741,
  "cri": 1742,
  "crit": 1743,
  "criti": 1744,
  "critic": 1745,
  "critica": 1746,
  "critical": 1747,
  "critical/": 1748,
  "critical/o": 1749,
  "critical/ot": 1750,
  "critical/oth": 1751,
  "critical/othe": 1752,
  "critical/other": 1753,
  "ri": 1754,
  "rit": 1755,
  "riti": 1756,
  "ritic": 1757,
  "ritica": 1758,
  "ritical": 1759,
  "ritical/": 1760,
  "ritical/o": 1761,
  "ritical/ot": 1762,
  "ritical/oth": 1763,
  "ritical/othe": 1764,
  "ritical/other": 1765,
  "iti": 1766,
  "itic": 1767,
  "itica": 1768,
  "itical": 1769,
  "itical/": 1770,
  "itical/o": 1771,
  "itical/ot": 1772,
  "itical/oth": 1773,
  "itical/othe": 1774,
  "itical/other": 1775,
  "tica": 1776,
  "tical": 1777,
  "tical/": 1778,
  "tical/o": 1779,
  "tical/ot": 1780,
  "tical/oth": 1781,
  "tical/othe": 1782,
  "tical/other": 1783,
  "ical": 1784,
  "ical/": 1785,
  "ical/o": 1786,
  "ical/ot": 1787,
  "ical/oth": 1788,
  "ical/othe": 1789,
  "ical/other": 1790,
  "cal": 1791,
  "cal/": 1792,
  "cal/o": 1793,
  "cal/ot": 1794,
  "cal/oth": 1795,
  "cal/othe": 1796,
  "cal/other": 1797,
  "al/": 1798,
  "al/o": 1799,
  "al/ot": 1800,
  "al/oth": 1801,
  "al/othe": 1802,
  "al/other": 1803,
  "l/": 1804,
  "l/o": 1805,
  "l/ot": 1806,
  "l/oth": 1807,
  "l/othe": 1808,
  "l/other": 1809,
  "/o": 1810,
  "/ot": 1811,
  "/oth": 1812,
  "/othe": 1813,
  "/other": 1814,
  "est": 1815,
  "ran": 1816,
  "rea": 1817,
  "real": 1818,
  "ea": 1819,
  "eal": 1820,
  "esta": 1821,
  "estat": 1822,
  "estate": 1823,
  "state": 1824,
  "tate": 1825,
  "ate": 1826,
  "rad": 1827,
  "radi": 1828,
  "radio": 1829,
  "radio/": 1830,
  "radio/t": 1831,
  "radio/tv": 1832,
  "ad": 1833,
  "adi": 1834,
  "adio": 1835,
  "adio/": 1836,
  "adio/t": 1837,
  "adio/tv": 1838,
  "dio": 1839,
  "dio/": 1840,
  "dio/t": 1841,
  "dio/tv": 1842,
  "io/": 1843,
  "io/t": 1844,
  "io/tv": 1845,
  "o/": 1846,
  "o/t": 1847,
  "o/tv": 1848,
  "/t": 1849,
  "/tv": 1850,
  "tv": 1851,
  "<0": 1852,
  "24": 1853,
  "0<<ESC_EQ>X<2": 1854,
  "0<<ESC_EQ>X<20": 1855,
  "0<<ESC_EQ>X<200": 1856,
  "<<ESC_EQ>X<2": 1857,
  "<<ESC_EQ>X<20": 1858,
  "<<ESC_EQ>X<200": 1859,
  "<ESC_EQ>X<2": 1860,
  "<ESC_EQ>X<20": 1861,
  "<ESC_EQ>X<200": 1862,
  "ESC_EQ>X<2": 1863,
  "ESC_EQ>X<20": 1864,
  "ESC_EQ>X<200": 1865,
  "SC_EQ>X<2": 1866,
  "SC_EQ>X<20": 1867,
  "SC_EQ>X<200": 1868,
  "C_EQ>X<2": 1869,
  "C_EQ>X<20": 1870,
  "C_EQ>X<200": 1871,
  "_EQ>X<2": 1872,
  "_EQ>X<20": 1873,
  "_EQ>X<200": 1874,
  "EQ>X<2": 1875,
  "EQ>X<20": 1876,
  "EQ>X<200": 1877,
  "Q>X<2": 1878,
  "Q>X<20": 1879,
  "Q>X<200": 1880,
  ">X<2": 1881,
  ">X<20": 1882,
  ">X<200": 1883,
  "X<2": 1884,
  "X<20": 1885,
  "X<200": 1886,
  "<2": 1887,
  "<20": 1888,
  "<200": 1889,
  "><ESC_EQ>7": 1890,
  "<ESC_EQ>7": 1891,
  "ESC_EQ>7": 1892,
  "SC_EQ>7": 1893,
  "C_EQ>7": 1894,
  "_EQ>7": 1895,
  "EQ>7": 1896,
  "Q>7": 1897,
  ">7": 1898,
  "12": 1899,
  "anc": 1900,
  "ance": 1901,
  "new": 1902,
  "ew": 1903,
  "life": 1904,
  "ife": 1905,
  "insu": 1906,
  "insur": 1907,
  "insura": 1908,
  "insuran": 1909,
  "insuranc": 1910,
  "insurance": 1911,
  "nsu": 1912,
  "nsur": 1913,
  "nsura": 1914,
  "nsuran": 1915,
  "nsuranc": 1916,
  "nsurance": 1917,
  "su": 1918,
  "sur": 1919,
  "sura": 1920,
  "suran": 1921,
  "suranc": 1922,
  "surance": 1923,
  "uran": 1924,
  "uranc": 1925,
  "urance": 1926,
  "ranc": 1927,
  "rance": 1928,
  "uns": 1929,
  "unsk": 1930,
  "unski": 1931,
  "unskil": 1932,
  "unskill": 1933,
  "unskille": 1934,
  "unskilled": 1935,
  "nsk": 1936,
  "nski": 1937,
  "nskil": 1938,
  "nskill": 1939,
  "nskille": 1940,
  "nskilled": 1941,
  "50": 1942,
  "ua": 1943,
  "/s": 1944,
  "/se": 1945,
  "resident": 1946,
  "esident": 1947,
  "sident": 1948,
  "ident": 1949,
  "ren": 1950,
  "rent": 1951,
  "emp/": 1952,
  "mp/": 1953,
  "4<": 1954,
  "4<<": 1955,
  "4<<E": 1956,
  "4<<ES": 1957,
  "4<<ESC": 1958,
  "4<<ESC_": 1959,
  "4<<ESC_E": 1960,
  "4<<ESC_EQ": 1961,
  "4<<ESC_EQ>": 1962,
  "4<<ESC_EQ>X": 1963,
  "4<<ESC_EQ>X<": 1964,
  "4<<ESC_EQ>X<7": 1965,
  "<<ESC_EQ>X<7": 1966,
  "<ESC_EQ>X<7": 1967,
  "ESC_EQ>X<7": 1968,
  "SC_EQ>X<7": 1969,
  "C_EQ>X<7": 1970,
  "_EQ>X<7": 1971,
  "EQ>X<7": 1972,
  "Q>X<7": 1973,
  ">X<7": 1974,
  "X<7": 1975,
  "<7": 1976,
  "fu": 1977,
  "fur": 1978,
  "furn": 1979,
  "furni": 1980,
  "furnit": 1981,
  "furnitu": 1982,
  "furnitur": 1983,
  "furniture": 1984,
  "furniture/": 1985,
  "furniture/e": 1986,
  "furniture/eq": 1987,
  "furniture/equ": 1988,
  "furniture/equi": 1989,
  "furniture/equip": 1990,
  "furniture/equipm": 1991,
  "urn": 1992,
  "urni": 1993,
  "urnit": 1994,
  "urnitu": 1995,
  "urnitur": 1996,
  "urniture": 1997,
  "urniture/": 1998,
  "urniture/e": 1999,
  "urniture/eq": 2000,
  "urniture/equ": 2001,
  "urniture/equi": 2002,
  "urniture/equip": 2003,
  "urniture/equipm": 2004,
  "urniture/equipme": 2005,
  "rn": 2006,
  "rni": 2007,
  "rnit": 2008,
  "rnitu": 2009,
  "rnitur": 2010,
  "rniture": 2011,
  "rniture/": 2012,
  "rniture/e": 2013,
  "rniture/eq": 2014,
  "rniture/equ": 2015,
  "rniture/equi": 2016,
  "rniture/equip": 2017,
  "rniture/equipm": 2018,
  "rniture/equipme": 2019,
  "rniture/equipmen": 2020,
  "nitur": 2021,
  "niture": 2022,
  "niture/": 2023,
  "niture/e": 2024,
  "niture/eq": 2025,
  "niture/equ": 2026,
  "niture/equi": 2027,
  "niture/equip": 2028,
  "niture/equipm": 2029,
  "niture/equipme": 2030,
  "niture/equipmen": 2031,
  "niture/equipment": 2032,
  "itur": 2033,
  "iture": 2034,
  "iture/": 2035,
  "iture/e": 2036,
  "iture/eq": 2037,
  "iture/equ": 2038,
  "iture/equi": 2039,
  "iture/equip": 2040,
  "iture/equipm": 2041,
  "iture/equipme": 2042,
  "iture/equipmen": 2043,
  "iture/equipment": 2044,
  "tur": 2045,
  "ture": 2046,
  "ture/": 2047
}