{
  "version": "1.0",
  "truncation": null,
  "padding": null,
  "added_tokens": [
    {
      "id": 0,
      "content": "[PAD]",
      "single_word": false,
      "lstrip": false,
      "rstrip": false,
      "normalized": false,
      "special": true
    },
    {
      "id": 1,
      "content": "[UNK]",
      "single_word": false,
      "lstrip": false,
      "rstrip": false,
      "normalized": false,
      "special": true
    },
    {
      "id": 2,
      "content": "[CLS]",
      "single_word": false,
      "lstrip": false,
      "rstrip": false,
      "normalized": false,
      "special": true
    },
    {
      "id": 3,
      "content": "[SEP]",
      "single_word": false,
      "lstrip": false,
      "rstrip": false,
      "normalized": false,
      "special": true
    },
    {
      "id": 4,
      "content": "[MASK]",
      "single_word": false,
      "lstrip": false,
      "rstrip": false,
      "normalized": false,
      "special": true
    }
  ],
  "normalizer": {
    "type": "NFKC"
  },
  "pre_tokenizer": {
    "type": "Whitespace"
  },
  "post_processor": null,
  "decoder": null,
  "model": {
    "type": "Unigram",
    "unk_id": null,
    "vocab": [
      [
        "[PAD]",
        0.0
      ],
      [
        "[UNK]",
        0.0
      ],
      [
        "[CLS]",
        0.0
      ],
      [
        "[SEP]",
        0.0
      ],
      [
        "[MASK]",
        0.0
      ],
      [
        "<",
        -2.821763566985063
      ],
      [
        ">",
        -2.821763566985063
      ],
      [
        "E",
        -3.0005381481477933
      ],
      [
        "P",
        -3.319862952431415
      ],
      [
        "=",
        -3.497731434505253
      ],
      [
        "SE",
        -3.4992359508451285
      ],
      [
        "-",
        -3.558517178596065
      ],
      [
        "/",
        -3.7078205382604095
      ],
      [
        ".",
        -3.775658484370857
      ],
      [
        "Q",
        -3.8087409535462484
      ],
      [
        "_",
        -3.812006683253527
      ],
      [
        "SC",
        -3.839928652141311
      ],
      [
        "t",
        -4.0727993373389975
      ],
      [
        "L",
        -4.096832518454074
      ],
      [
        "0",
        -4.168204830297054
      ],
      [
        ";",
        -4.245347131005843
      ],
      [
        "5",
        -4.3219171404883445
      ],
      [
        ",",
        -4.360928531190513
      ],
      [
        "C",
        -4.48775667755445
      ],
      [
        "8",
        -4.54766993580754
      ],
      [
        "o",
        -4.590644502516183
      ],
      [
        "U",
        -4.602035037318755
      ],
      [
        "e",
        -4.639049021032158
      ],
      [
        "q",
        -4.639222823263439
      ],
      [
        "A",
        -4.678259258477568
      ],
      [
        "p",
        -4.729086305296116
      ],
      [
        "l",
        -4.782467751632808
      ],
      [
        "T",
        -4.831374068109794
      ],
      [
        "1",
        -4.847832188834931
      ],
      [
        "&",
        -4.896564303744092
      ],
      [
        "H",
        -4.94483921629805
      ],
      [
        "3",
        -4.956081550454456
      ],
      [
        "N",
        -5.046082585765427
      ],
      [
        "M",
        -5.075991315945061
      ],
      [
        "a",
        -5.101324282855944
      ],
      [
        "D",
        -5.109238042915855
      ],
      [
        "G",
        -5.139630992043374
      ],
      [
        "ccept",
        -5.152027846521825
      ],
      [
        "u",
        -5.198132671485764
      ],
      [
        "9",
        -5.234684446094611
      ],
      [
        "%",
        -5.309301616711008
      ],
      [
        "ex",
        -5.409201926471699
      ],
      [
        "xml",
        -5.439030829979716
      ],
      [
        "r",
        -5.456682352073254
      ],
      [
        "+",
        -5.462690669342867
      ],
      [
        "no",
        -5.496213548569953
      ],
      [
        "tent",
        -5.553787996340033
      ],
      [
        "y",
        -5.5577332450721535
      ],
      [
        "Con",
        -5.565368467132235
      ],
      [
        "st",
        -5.594169389363698
      ],
      [
        "x",
        -5.5965399963457845
      ],
      [
        "li",
        -5.597610338897759
      ],
      [
        "K",
        -5.614161196999085
      ],
      [
        "cation",
        -5.6547778216144495
      ],
      [
        "(",
        -5.668411578700282
      ],
      [
        "ap",
        -5.669227212763969
      ],
      [
        ")",
        -5.675404585693289
      ],
      [
        "k",
        -5.697025814175401
      ],
      [
        "HT",
        -5.713792825065901
      ],
      [
        "n",
        -5.716416181031944
      ],
      [
        "c",
        -5.7175094975462395
      ],
      [
        "cache",
        -5.720355122987605
      ],
      [
        "7",
        -5.737471897215536
      ],
      [
        "4",
        -5.737504888158345
      ],
      [
        "80",
        -5.7877905777360406
      ],
      [
        "htm",
        -5.794534497215878
      ],
      [
        "6",
        -5.800144186643938
      ],
      [
        "tf",
        -5.818282275948451
      ],
      [
        "b",
        -5.827852153236067
      ],
      [
        "ET",
        -5.831128613611304
      ],
      [
        "S",
        -5.890772763029
      ],
      [
        "od",
        -5.896382068112662
      ],
      [
        "w",
        -5.899667071291557
      ],
      [
        "2",
        -5.9783310160615635
      ],
      [
        "os",
        -5.9790853294119035
      ],
      [
        "an",
        -6.000277695890774
      ],
      [
        "ie",
        -6.000685582702194
      ],
      [
        "er",
        -6.005577678268962
      ],
      [
        "s",
        -6.005850992422817
      ],
      [
        "i",
        -6.0119940852689595
      ],
      [
        "ma",
        -6.013577505265561
      ],
      [
        "OS",
        -6.015768098840224
      ],
      [
        "or",
        -6.029699870172202
      ],
      [
        "I",
        -6.065333199635561
      ],
      [
        "h",
        -6.125316331426431
      ],
      [
        "ion",
        -6.131371646061004
      ],
      [
        "ge",
        -6.1398016122095145
      ],
      [
        "pe",
        -6.148448404678483
      ],
      [
        "ent",
        -6.1654772656128545
      ],
      [
        "d",
        -6.165513764140232
      ],
      [
        "th",
        -6.175554082807054
      ],
      [
        "g",
        -6.180088836079578
      ],
      [
        "J",
        -6.1862265617319725
      ],
      [
        "ec",
        -6.190566519613317
      ],
      [
        ":",
        -6.197991267614325
      ],
      [
        "en",
        -6.199608463279899
      ],
      [
        "B",
        -6.202603051927607
      ],
      [
        "m",
        -6.210392841813844
      ],
      [
        "ti",
        -6.233878048271916
      ],
      [
        "RI",
        -6.235609289883566
      ],
      [
        "ser",
        -6.237984061204155
      ],
      [
        "ead",
        -6.23869239062199
      ],
      [
        "set",
        -6.240587053554602
      ],
      [
        "rag",
        -6.24609399636802
      ],
      [
        "onnect",
        -6.246508867729041
      ],
      [
        "gua",
        -6.246603371704821
      ],
      [
        "con",
        -6.24705527149749
      ],
      [
        "har",
        -6.2486763968355525
      ],
      [
        "tro",
        -6.249014588787582
      ],
      [
        "eng",
        -6.249706669131915
      ],
      [
        "ok",
        -6.251815056045328
      ],
      [
        "in",
        -6.2536471290904165
      ],
      [
        "ND",
        -6.254244226162125
      ],
      [
        "ache",
        -6.256107960044848
      ],
      [
        "Ag",
        -6.256157971379907
      ],
      [
        "eth",
        -6.257201448985719
      ],
      [
        "ata",
        -6.25911232873543
      ],
      [
        "RE",
        -6.278885375152217
      ],
      [
        "ry",
        -6.283324466762337
      ],
      [
        "Que",
        -6.284521523052471
      ],
      [
        "Co",
        -6.292679872120139
      ],
      [
        "ill",
        -6.347490010638734
      ],
      [
        "image",
        -6.351162701346066
      ],
      [
        "oz",
        -6.3586863945971865
      ],
      [
        "*",
        -6.392612276870603
      ],
      [
        "cl",
        -6.4032165521351265
      ],
      [
        "ose",
        -6.445334053746673
      ],
      [
        "pat",
        -6.4547018333727415
      ],
      [
        "uer",
        -6.462292941922311
      ],
      [
        "com",
        -6.468116631225274
      ],
      [
        "F",
        -6.472415314405943
      ],
      [
        "ibl",
        -6.4837418889580976
      ],
      [
        "pla",
        -6.4862968316608915
      ],
      [
        "ng",
        -6.495226408742217
      ],
      [
        "ux",
        -6.497356325113367
      ],
      [
        "onq",
        -6.501616761419538
      ],
      [
        "*/*",
        -6.516132346398613
      ],
      [
        "SI",
        -6.520083034166193
      ],
      [
        "Lin",
        -6.5213320343450185
      ],
      [
        "a1",
        -6.531756838497541
      ],
      [
        "lho",
        -6.532362059855853
      ],
      [
        "end",
        -6.535167643372161
      ],
      [
        "ON",
        -6.536339977947387
      ],
      [
        "lik",
        -6.540794232889213
      ],
      [
        "loca",
        -6.548397456840113
      ],
      [
        "ar",
        -6.582598912951223
      ],
      [
        "f",
        -6.587107525201501
      ],
      [
        "js",
        -6.687920447036698
      ],
      [
        "R",
        -6.698369844457894
      ],
      [
        "z",
        -6.779968181214786
      ],
      [
        "j",
        -6.8628406905575865
      ],
      [
        "v",
        -6.892506642618001
      ],
      [
        "lic",
        -6.924962409619833
      ],
      [
        "O",
        -6.95823277204083
      ],
      [
        "pu",
        -6.958390380911771
      ],
      [
        "ww",
        -6.988387010367848
      ],
      [
        "al",
        -7.079620428961729
      ],
      [
        "W",
        -7.149100909958365
      ],
      [
        "X",
        -7.216971716844268
      ],
      [
        "29",
        -7.224337663529587
      ],
      [
        "ed",
        -7.237216126220091
      ],
      [
        "ad",
        -7.24198229709818
      ],
      [
        "B1",
        -7.263106231794633
      ],
      [
        "28",
        -7.304495330387686
      ],
      [
        "form",
        -7.32052072334128
      ],
      [
        "mbr",
        -7.329996245300302
      ],
      [
        "27",
        -7.3300460488065715
      ],
      [
        "ur",
        -7.394103086160181
      ],
      [
        "dir",
        -7.397200569768053
      ],
      [
        "Z",
        -7.427244656291959
      ],
      [
        "egistr",
        -7.436019329706443
      ],
      [
        "Y",
        -7.473732550744272
      ],
      [
        "V",
        -7.510685538550955
      ],
      [
        "nt",
        -7.513817249661633
      ],
      [
        "modo",
        -7.52125693871586
      ],
      [
        "lenc",
        -7.566378786834179
      ],
      [
        "car",
        -7.638035367037408
      ],
      [
        "es",
        -7.646885773017712
      ],
      [
        "cia",
        -7.649854412531652
      ],
      [
        "26",
        -7.655422943404531
      ],
      [
        "lo",
        -7.680544637353124
      ],
      [
        "40",
        -7.7334569209979005
      ],
      [
        "as",
        -7.758847497164705
      ],
      [
        "3D",
        -7.776040112124916
      ],
      [
        "ito",
        -7.787964123142503
      ],
      [
        "2F",
        -7.791968038831884
      ],
      [
        "is",
        -7.810533088192432
      ],
      [
        "@",
        -7.831235308970265
      ],
      [
        "precio",
        -7.831235342987703
      ],
      [
        "ea",
        -7.846850014150569
      ],
      [
        "de",
        -7.876138280180559
      ],
      [
        "'",
        -7.893735308970269
      ],
      [
        "2C",
        -7.901984526874055
      ],
      [
        "ci",
        -7.910374403402105
      ],
      [
        "19",
        -7.947617277574446
      ],
      [
        "te",
        -7.994244211053013
      ],
      [
        "il",
        -8.019262426221013
      ],
      [
        "se",
        -8.02331251944269
      ],
      [
        "am",
        -8.035465816355078
      ],
      [
        "gin",
        -8.04465327349623
      ],
      [
        "=*",
        -8.045471566822513
      ],
      [
        "ei",
        -8.051811074618078
      ],
      [
        "66",
        -8.06887141166738
      ],
      [
        "86",
        -8.08991969712307
      ],
      [
        "so",
        -8.09441469555067
      ],
      [
        "id",
        -8.125616239013645
      ],
      [
        "07",
        -8.13455326406082
      ],
      [
        "re",
        -8.152497429529063
      ],
      [
        "va",
        -8.159047110830084
      ],
      [
        "on",
        -8.17566000663409
      ],
      [
        "67",
        -8.177674081057644
      ],
      [
        "99",
        -8.185647397701242
      ],
      [
        "ag",
        -8.191312560404405
      ],
      [
        "41",
        -8.218651328515975
      ],
      [
        "bi",
        -8.22007399331328
      ],
      [
        "33",
        -8.239590572795514
      ],
      [
        "ne",
        -8.241263116085033
      ],
      [
        "jp",
        -8.27039025243599
      ],
      [
        "2B",
        -8.280736037983319
      ],
      [
        "3F",
        -8.282357389041485
      ],
      [
        "provin",
        -8.282996066128268
      ],
      [
        "insert",
        -8.28457993424452
      ],
      [
        "rn",
        -8.286287353994325
      ],
      [
        "253",
        -8.287635666712234
      ],
      [
        "3A",
        -8.289438682535858
      ],
      [
        "la",
        -8.295928178729504
      ],
      [
        "ud",
        -8.296476151212302
      ],
      [
        "49",
        -8.314327950893503
      ],
      [
        "mac",
        -8.317264416123137
      ],
      [
        "94",
        -8.31919226058713
      ],
      [
        "24",
        -8.31920230884478
      ],
      [
        "ana",
        -8.325061459104859
      ],
      [
        "ss",
        -8.362503893981529
      ],
      [
        "he",
        -8.369070738759625
      ],
      [
        "dni",
        -8.377764145690412
      ],
      [
        "32",
        -8.379064537882593
      ],
      [
        "passw",
        -8.37948804656067
      ],
      [
        "apellidos",
        -8.382996048278722
      ],
      [
        "ja",
        -8.384596025740354
      ],
      [
        "nes",
        -8.386010409742688
      ],
      [
        "ls",
        -8.393738312182421
      ],
      [
        "ca",
        -8.400066893985148
      ],
      [
        "rv",
        -8.402925090411323
      ],
      [
        "em",
        -8.407309024160003
      ],
      [
        "ch",
        -8.40768327280367
      ],
      [
        "1B",
        -8.411507404588463
      ],
      [
        "B2",
        -8.442205914331367
      ],
      [
        "au",
        -8.453564936568212
      ],
      [
        "++",
        -8.458890394345183
      ],
      [
        "go",
        -8.465917551716217
      ],
      [
        "11",
        -8.469384923817477
      ],
      [
        "25",
        -8.47131459545173
      ],
      [
        "ts",
        -8.493698150766402
      ],
      [
        "4B",
        -8.494751523725125
      ],
      [
        "859",
        -8.49801024022496
      ],
      [
        "si",
        -8.502126596061055
      ],
      [
        "39",
        -8.506516272070316
      ],
      [
        "mi",
        -8.515687065220542
      ],
      [
        "46",
        -8.531946846434462
      ],
      [
        "42",
        -8.534361604965541
      ],
      [
        "ce",
        -8.534369176763478
      ],
      [
        "rd",
        -8.5430133904154
      ],
      [
        "17",
        -8.55649545512492
      ],
      [
        "5D",
        -8.593058968586332
      ],
      [
        "ns",
        -8.59777113217702
      ],
      [
        "++++",
        -8.616705969625125
      ],
      [
        "=*/*",
        -8.617562538882622
      ],
      [
        "F1a",
        -8.619538781800584
      ],
      [
        "eep",
        -8.62537982736296
      ],
      [
        "sh",
        -8.626382809326113
      ],
      [
        "5B",
        -8.640739154947486
      ],
      [
        "45",
        -8.644433566974728
      ],
      [
        "ro",
        -8.670129556017535
      ],
      [
        "Va",
        -8.671393287982825
      ],
      [
        "77",
        -8.678361750931586
      ],
      [
        "7C",
        -8.689890878240856
      ],
      [
        "cu",
        -8.690673437644456
      ],
      [
        "72",
        -8.710879327982386
      ],
      [
        "rs",
        -8.716449277161201
      ],
      [
        "ai",
        -8.722411662498073
      ],
      [
        "7F",
        -8.723433181504959
      ],
      [
        "3B",
        -8.731885561681258
      ],
      [
        "61",
        -8.739157962107006
      ],
      [
        "tid",
        -8.74660481312967
      ],
      [
        "ive",
        -8.763569542615333
      ],
      [
        "16",
        -8.764382809450009
      ],
      [
        "be",
        -8.77085939996341
      ],
      [
        "18",
        -8.772051314493876
      ],
      [
        "chi",
        -8.783135092862159
      ],
      [
        "64",
        -8.78345870911935
      ],
      [
        "84",
        -8.786388946608442
      ],
      [
        "ih",
        -8.797992380719267
      ],
      [
        "di",
        -8.80093317402999
      ],
      [
        "if",
        -8.806555197791125
      ],
      [
        "FD",
        -8.82743739639295
      ],
      [
        "cn",
        -8.828085554201403
      ],
      [
        "ld",
        -8.83526311386972
      ],
      [
        "ui",
        -8.841533610716542
      ],
      [
        "nl",
        -8.841994020737879
      ],
      [
        "ga",
        -8.848989534533548
      ],
      [
        "F2",
        -8.853223469071224
      ],
      [
        "hn",
        -8.87794194405324
      ],
      [
        "fi",
        -8.878299570001692
      ],
      [
        "44",
        -8.879783698150401
      ],
      [
        "8F",
        -8.882812996962702
      ],
      [
        "/*",
        -8.900526762950095
      ],
      [
        "sd",
        -8.906770315902653
      ],
      [
        "Confirmar",
        -8.928630969132946
      ],
      [
        "position",
        -8.928630991327921
      ],
      [
        "window",
        -8.93053980163215
      ],
      [
        "+++",
        -8.934493475524931
      ],
      [
        "+++++",
        -8.941865906496169
      ],
      [
        "sp",
        -8.947615710961578
      ],
      [
        "min",
        -8.979292053307104
      ],
      [
        "74",
        -8.98619332487334
      ],
      [
        "tra",
        -8.995106066947065
      ],
      [
        "ara",
        -9.007190332672893
      ],
      [
        "fr",
        -9.020093560801566
      ],
      [
        "F7",
        -9.077863510508422
      ],
      [
        "emb",
        -9.081273648659815
      ],
      [
        "im",
        -9.10491874186933
      ],
      [
        "|",
        -9.128630968918685
      ],
      [
        "F3n",
        -9.128997249929922
      ],
      [
        "encia",
        -9.140909723835385
      ],
      [
        "100",
        -9.14807456042621
      ],
      [
        "node",
        -9.151576631211945
      ],
      [
        "hi",
        -9.200560046085712
      ],
      [
        "Ib",
        -9.20114074804357
      ],
      [
        "av",
        -9.212337158735744
      ],
      [
        "270",
        -9.234469922810309
      ],
      [
        "ita",
        -9.260824179318703
      ],
      [
        "edi",
        -9.271896691652
      ],
      [
        "sb",
        -9.339029823111865
      ],
      [
        "indow",
        -9.375763593097817
      ],
      [
        "]",
        -9.378630968918685
      ],
      [
        "script",
        -9.378630992968175
      ],
      [
        "Rio",
        -9.379040850004182
      ],
      [
        "A76",
        -9.379987896953317
      ],
      [
        "aoh",
        -9.382671260626163
      ],
      [
        "ric",
        -9.38394551095227
      ],
      [
        "F3A",
        -9.385031913901964
      ],
      [
        "ach",
        -9.394073308721595
      ],
      [
        "Win",
        -9.395034984377544
      ],
      [
        "into",
        -9.39603785370345
      ],
      [
        "130",
        -9.399567327154312
      ],
      [
        "767",
        -9.409687421336155
      ],
      [
        "ff",
        -9.41012445286691
      ],
      [
        "aj",
        -9.433458213943902
      ],
      [
        "sg",
        -9.438477925433931
      ],
      [
        "ind",
        -9.440231816369185
      ],
      [
        "gh",
        -9.441556933998074
      ],
      [
        "eta",
        -9.456862017972108
      ],
      [
        "gs",
        -9.457206748196452
      ],
      [
        "sI",
        -9.462192644793648
      ],
      [
        "hd",
        -9.474685521790601
      ],
      [
        "css",
        -9.479419700348666
      ],
      [
        "17B",
        -9.566500021913301
      ],
      [
        "md",
        -9.59974200500799
      ],
      [
        "Vi",
        -9.655924789869939
      ],
      [
        "ias",
        -9.666339789897538
      ],
      [
        "http",
        -9.712073136122171
      ],
      [
        "pwd",
        -9.712945404220196
      ],
      [
        "2D6",
        -9.713187850332291
      ],
      [
        "eval",
        -9.713435531052339
      ],
      [
        "213",
        -9.714724351400317
      ],
      [
        "D73",
        -9.7147718506295
      ],
      [
        "047",
        -9.715084242361709
      ],
      [
        "dol",
        -9.715420986795557
      ],
      [
        "cou",
        -9.715596866289003
      ],
      [
        "217",
        -9.718997486066655
      ],
      [
        "601",
        -9.719201829563433
      ],
      [
        "6FA",
        -9.720583313731813
      ],
      [
        "54F",
        -9.721805801260114
      ],
      [
        "759",
        -9.722156389816684
      ],
      [
        "passwd",
        -9.725268206274784
      ],
      [
        "F53",
        -9.725655623085505
      ],
      [
        "136",
        -9.726671237130113
      ],
      [
        "238",
        -9.727400862334026
      ],
      [
        "1A9",
        -9.72795341187063
      ],
      [
        "8AA",
        -9.730100793618831
      ],
      [
        "8C1",
        -9.730450902175406
      ],
      [
        "mper",
        -9.735368263772962
      ],
      [
        "252",
        -9.737734263418247
      ],
      [
        "erra",
        -9.739101411663428
      ],
      [
        "bht",
        -9.746607943466577
      ],
      [
        "aee",
        -9.747559476820035
      ],
      [
        "aoe",
        -9.749377564765064
      ],
      [
        "789",
        -9.760098947712056
      ],
      [
        "477",
        -9.762807004796999
      ],
      [
        "416",
        -9.788732705660564
      ],
      [
        "F5D",
        -9.803401806302908
      ],
      [
        "DA2",
        -9.808722773853166
      ],
      [
        "666",
        -9.840614925293016
      ],
      [
        "ass",
        -10.025512729347007
      ],
      [
        "202",
        -10.211633682447488
      ],
      [
        "~",
        -10.211964302252017
      ],
      [
        "?",
        -10.211964302252017
      ],
      [
        "[",
        -10.211964302252017
      ],
      [
        "\\",
        -10.211964302252017
      ],
      [
        "ablanca",
        -10.211964305556677
      ],
      [
        "between",
        -10.211964308320535
      ],
      [
        "4428634",
        -10.211964310878699
      ],
      [
        "update",
        -10.211964313138191
      ],
      [
        "2ECC9C",
        -10.211964335908506
      ],
      [
        "A059D",
        -10.211966475087335
      ],
      [
        "system",
        -10.21196702816044
      ],
      [
        "aynm",
        -10.211969653941772
      ],
      [
        "where",
        -10.211977387295194
      ],
      [
        "BAF0",
        -10.211979992120614
      ],
      [
        "Barcel",
        -10.211994554095906
      ],
      [
        "7688",
        -10.212002457213071
      ],
      [
        "65138",
        -10.212016512557938
      ],
      [
        "BAE7",
        -10.212069025534067
      ],
      [
        "from",
        -10.212069842712564
      ],
      [
        "XgB",
        -10.212071609102622
      ],
      [
        "F993",
        -10.212077439516756
      ],
      [
        "2074",
        -10.2122422223431
      ],
      [
        "A908",
        -10.212277814464153
      ],
      [
        "5232",
        -10.212297955235071
      ],
      [
        "7078",
        -10.212374803658555
      ],
      [
        "hmoe",
        -10.212400089247406
      ],
      [
        "319DD",
        -10.212430696116414
      ],
      [
        "3816",
        -10.212435121051504
      ],
      [
        "9367",
        -10.212458600227189
      ],
      [
        "CD49",
        -10.212581290279848
      ],
      [
        "shut",
        -10.212581465293232
      ],
      [
        "mont",
        -10.212724695437082
      ],
      [
        "E6A0",
        -10.212727380470293
      ],
      [
        "stdin",
        -10.212746372281888
      ],
      [
        "3315",
        -10.213067878201755
      ],
      [
        "body",
        -10.21306811924036
      ],
      [
        "a2h",
        -10.213137356528984
      ],
      [
        "cew8",
        -10.21323682537886
      ],
      [
        "und",
        -10.21328988030643
      ],
      [
        "hah",
        -10.213307244066112
      ],
      [
        "E2CB",
        -10.2133719047014
      ],
      [
        "hom",
        -10.213515908537454
      ],
      [
        "4317",
        -10.213570244650697
      ],
      [
        "212",
        -10.213737195290093
      ],
      [
        "078F",
        -10.213826638847255
      ],
      [
        "5D7C",
        -10.213938899720997
      ],
      [
        "nbu",
        -10.213946607288388
      ],
      [
        "cme",
        -10.21429466921174
      ],
      [
        "lhs",
        -10.214366637472455
      ],
      [
        "F93",
        -10.214494758364598
      ],
      [
        "sfe",
        -10.214616261778962
      ],
      [
        "1532",
        -10.214791147402797
      ],
      [
        "niv",
        -10.215019425887794
      ],
      [
        "9675",
        -10.215101986077915
      ],
      [
        "4449",
        -10.215350630750176
      ],
      [
        "stica",
        -10.215407870690212
      ],
      [
        "F2C1",
        -10.21542684446975
      ],
      [
        "9BA",
        -10.215499974582045
      ],
      [
        "mue",
        -10.215707201142376
      ],
      [
        "yeb",
        -10.21582148481694
      ],
      [
        "ADB",
        -10.215943099258878
      ],
      [
        "963",
        -10.216014497689835
      ],
      [
        "foto",
        -10.216287620603763
      ],
      [
        "756",
        -10.216494843024469
      ],
      [
        "5ej",
        -10.216696721589086
      ],
      [
        "2500",
        -10.216861055655226
      ],
      [
        "F0D",
        -10.21703264892443
      ],
      [
        "eeF",
        -10.217048854417392
      ],
      [
        "2D8",
        -10.217669757513814
      ],
      [
        "28C0",
        -10.218219998583798
      ],
      [
        "9821",
        -10.21872013464992
      ],
      [
        "9C7",
        -10.21875785120874
      ],
      [
        "D43",
        -10.218831789213297
      ],
      [
        "B09",
        -10.219613135048771
      ],
      [
        "tji",
        -10.220854165156338
      ],
      [
        "open",
        -10.221042492138812
      ],
      [
        "B3C",
        -10.22129471315579
      ],
      [
        "B9F",
        -10.221808650748436
      ],
      [
        "usu",
        -10.223200858143073
      ],
      [
        "96F",
        -10.223513727780931
      ],
      [
        "ruj",
        -10.224155369116449
      ],
      [
        "DE53",
        -10.224501268279566
      ],
      [
        "dhs",
        -10.227452426776717
      ],
      [
        "436",
        -10.230016934414422
      ],
      [
        "Osa",
        -10.230201358532634
      ],
      [
        "F68",
        -10.234935976299328
      ],
      [
        "E2531",
        -10.239688745303054
      ],
      [
        "euz",
        -10.240557772512279
      ],
      [
        "Rom",
        -10.240944466634595
      ],
      [
        "7036",
        -10.242160081046116
      ],
      [
        "4C6",
        -10.24598577783862
      ],
      [
        "input",
        -10.246330211742114
      ],
      [
        "9405",
        -10.248032813135078
      ],
      [
        "2D9",
        -10.249464200357105
      ],
      [
        "tnae",
        -10.25190143064852
      ],
      [
        "BCF",
        -10.252348844305843
      ],
      [
        "iya",
        -10.256747788496549
      ],
      [
        "rfs",
        -10.26332619306218
      ],
      [
        "drr",
        -10.264154455736634
      ],
      [
        "aoc",
        -10.270153544121824
      ],
      [
        "n9s",
        -10.275858800090964
      ],
      [
        "Zara",
        -10.282651510415555
      ],
      [
        "einn",
        -10.28671755263199
      ],
      [
        "nix",
        -10.336718023508391
      ],
      [
        "nmt",
        -10.36059946103081
      ],
      [
        "dcd",
        -10.381379058598126
      ],
      [
        "FEF",
        -10.430301353723122
      ],
      [
        "5374",
        -10.451138778399356
      ],
      [
        "eyn",
        -10.468373460747653
      ],
      [
        "B9C",
        -10.527797154058998
      ],
      [
        "glr",
        -10.803734749150145
      ],
      [
        "$",
        -11.211964302252017
      ]
    ],
    "byte_fallback": false
  }
}