{
  "[PAD]": 0,
  "[UNK]": 1,
  "[CLS]": 2,
  "[SEP]": 3,
  "[MASK]": 4,
  "<END>": 5,
  "<ID_LONG>": 6,
  "<NULL>": 7,
  "<NUM_LONG>": 8,
  "<REC>": 9,
  "<SEP>": 10,
  "=": 11,
  "a": 12,
  "t": 13,
  "e": 14,
  "i": 15,
  "c": 16,
  "n": 17,
  "s": 18,
  "o": 19,
  "l": 20,
  "r": 21,
  "-": 22,
  "u": 23,
  "at": 24,
  "d": 25,
  "ta": 26,
  "it": 27,
  "al": 28,
  "N": 29,
  "ca": 30,
  "p": 31,
  "ti": 32,
  "ati": 33,
  "ed": 34,
  "g": 35,
  "m": 36,
  "te": 37,
  "0": 38,
  "L": 39,
  "O": 40,
  "v": 41,
  "tal": 42,
  "on": 43,
  "atio": 44,
  "ation": 45,
  "tio": 46,
  "tion": 47,
  "io": 48,
  "ion": 49,
  "ita": 50,
  "ital": 51,
  "<": 52,
  ">": 53,
  "ri": 54,
  "G": 55,
  "_": 56,
  "_L": 57,
  "_LO": 58,
  "_LON": 59,
  "_LONG": 60,
  "_LONG>": 61,
  "LO": 62,
  "LON": 63,
  "LONG": 64,
  "LONG>": 65,
  "ON": 66,
  "ONG": 67,
  "ONG>": 68,
  "NG": 69,
  "NG>": 70,
  "G>": 71,
  "iv": 72,
  "w": 73,
  "D": 74,
  "M": 75,
  "ss": 76,
  "I": 77,
  "pi": 78,
  "ap": 79,
  "du": 80,
  "edu": 81,
  "educ": 82,
  "educa": 83,
  "educat": 84,
  "educati": 85,
  "educatio": 86,
  "education": 87,
  "duc": 88,
  "duca": 89,
  "ducat": 90,
  "ducati": 91,
  "ducatio": 92,
  "ducation": 93,
  "uc": 94,
  "uca": 95,
  "ucat": 96,
  "ucati": 97,
  "ucatio": 98,
  "ucation": 99,
  "cat": 100,
  "cati": 101,
  "catio": 102,
  "cation": 103,
  "<I": 104,
  "<ID": 105,
  "<ID_": 106,
  "<ID_L": 107,
  "<ID_LO": 108,
  "<ID_LON": 109,
  "<ID_LONG": 110,
  "ID": 111,
  "ID_": 112,
  "ID_L": 113,
  "ID_LO": 114,
  "ID_LON": 115,
  "ID_LONG": 116,
  "ID_LONG>": 117,
  "D_": 118,
  "D_L": 119,
  "D_LO": 120,
  "D_LON": 121,
  "D_LONG": 122,
  "D_LONG>": 123,
  "cap": 124,
  "capi": 125,
  "capit": 126,
  "capita": 127,
  "capital": 128,
  "api": 129,
  "apit": 130,
  "apita": 131,
  "apital": 132,
  "pit": 133,
  "pita": 134,
  "pital": 135,
  "-c": 136,
  "ar": 137,
  "U": 138,
  "tat": 139,
  "ma": 140,
  "us": 141,
  "-s": 142,
  "ite": 143,
  "S": 144,
  "f": 145,
  "ate": 146,
  "h": 147,
  "se": 148,
  "in": 149,
  "ra": 150,
  "le": 151,
  "ou": 152,
  "n-": 153,
  "mar": 154,
  "or": 155,
  "y": 156,
  "ac": 157,
  "ve": 158,
  "d-": 159,
  "ed-": 160,
  "e-": 161,
  "ge": 162,
  "Ma": 163,
  "co": 164,
  "ce": 165,
  "ll": 166,
  "e-c": 167,
  "e-co": 168,
  "-co": 169,
  "oc": 170,
  "1": 171,
  "la": 172,
  "lo": 173,
  "pa": 174,
  "cl": 175,
  "x": 176,
  "na": 177,
  "ai": 178,
  "ag": 179,
  "age": 180,
  "hi": 181,
  "ale": 182,
  "k": 183,
  "l-": 184,
  "al-": 185,
  "-n": 186,
  "st": 187,
  "as": 188,
  "tiv": 189,
  "tive": 190,
  "ive": 191,
  "er": 192,
  "ativ": 193,
  "ative": 194,
  "up": 195,
  "tive-": 196,
  "ive-": 197,
  "ve-": 198,
  "ex": 199,
  "nt": 200,
  "es": 201,
  "ga": 202,
  "um": 203,
  "tu": 204,
  "cu": 205,
  "os": 206,
  "un": 207,
  "ry": 208,
  "2": 209,
  "Un": 210,
  "wo": 211,
  "wor": 212,
  "work": 213,
  "ork": 214,
  "rk": 215,
  "workc": 216,
  "workcl": 217,
  "workcla": 218,
  "workclas": 219,
  "workclass": 220,
  "orkc": 221,
  "orkcl": 222,
  "orkcla": 223,
  "orkclas": 224,
  "orkclass": 225,
  "rkc": 226,
  "rkcl": 227,
  "rkcla": 228,
  "rkclas": 229,
  "rkclass": 230,
  "kc": 231,
  "kcl": 232,
  "kcla": 233,
  "kclas": 234,
  "kclass": 235,
  "cla": 236,
  "clas": 237,
  "class": 238,
  "las": 239,
  "lass": 240,
  "ass": 241,
  "fn": 242,
  "fnl": 243,
  "fnlw": 244,
  "fnlwg": 245,
  "fnlwgt": 246,
  "nl": 247,
  "nlw": 248,
  "nlwg": 249,
  "nlwgt": 250,
  "lw": 251,
  "lwg": 252,
  "lwgt": 253,
  "wg": 254,
  "wgt": 255,
  "gt": 256,
  ".": 257,
  ".0": 258,
  "education-": 259,
  "education-n": 260,
  "education-nu": 261,
  "education-num": 262,
  "ducation-": 263,
  "ducation-n": 264,
  "ducation-nu": 265,
  "ducation-num": 266,
  "ucation-": 267,
  "ucation-n": 268,
  "ucation-nu": 269,
  "ucation-num": 270,
  "cation-": 271,
  "cation-n": 272,
  "cation-nu": 273,
  "cation-num": 274,
  "ation-": 275,
  "ation-n": 276,
  "ation-nu": 277,
  "ation-num": 278,
  "tion-": 279,
  "tion-n": 280,
  "tion-nu": 281,
  "tion-num": 282,
  "ion-": 283,
  "ion-n": 284,
  "ion-nu": 285,
  "ion-num": 286,
  "on-": 287,
  "on-n": 288,
  "on-nu": 289,
  "on-num": 290,
  "n-n": 291,
  "n-nu": 292,
  "n-num": 293,
  "-nu": 294,
  "-num": 295,
  "nu": 296,
  "num": 297,
  "mari": 298,
  "marit": 299,
  "marita": 300,
  "marital": 301,
  "marital-": 302,
  "marital-s": 303,
  "marital-st": 304,
  "marital-sta": 305,
  "marital-stat": 306,
  "marital-statu": 307,
  "marital-status": 308,
  "ari": 309,
  "arit": 310,
  "arita": 311,
  "arital": 312,
  "arital-": 313,
  "arital-s": 314,
  "arital-st": 315,
  "arital-sta": 316,
  "arital-stat": 317,
  "arital-statu": 318,
  "arital-status": 319,
  "rit": 320,
  "rita": 321,
  "rital": 322,
  "rital-": 323,
  "rital-s": 324,
  "rital-st": 325,
  "rital-sta": 326,
  "rital-stat": 327,
  "rital-statu": 328,
  "rital-status": 329,
  "ital-": 330,
  "ital-s": 331,
  "ital-st": 332,
  "ital-sta": 333,
  "ital-stat": 334,
  "ital-statu": 335,
  "ital-status": 336,
  "tal-": 337,
  "tal-s": 338,
  "tal-st": 339,
  "tal-sta": 340,
  "tal-stat": 341,
  "tal-statu": 342,
  "tal-status": 343,
  "al-s": 344,
  "al-st": 345,
  "al-sta": 346,
  "al-stat": 347,
  "al-statu": 348,
  "al-status": 349,
  "l-s": 350,
  "l-st": 351,
  "l-sta": 352,
  "l-stat": 353,
  "l-statu": 354,
  "l-status": 355,
  "-st": 356,
  "-sta": 357,
  "-stat": 358,
  "-statu": 359,
  "-status": 360,
  "sta": 361,
  "stat": 362,
  "statu": 363,
  "status": 364,
  "tatu": 365,
  "tatus": 366,
  "atu": 367,
  "atus": 368,
  "tus": 369,
  "occ": 370,
  "occu": 371,
  "occup": 372,
  "occupa": 373,
  "occupat": 374,
  "occupati": 375,
  "occupatio": 376,
  "occupation": 377,
  "cc": 378,
  "ccu": 379,
  "ccup": 380,
  "ccupa": 381,
  "ccupat": 382,
  "ccupati": 383,
  "ccupatio": 384,
  "ccupation": 385,
  "cup": 386,
  "cupa": 387,
  "cupat": 388,
  "cupati": 389,
  "cupatio": 390,
  "cupation": 391,
  "upa": 392,
  "upat": 393,
  "upati": 394,
  "upatio": 395,
  "upation": 396,
  "pat": 397,
  "pati": 398,
  "patio": 399,
  "pation": 400,
  "rac": 401,
  "race": 402,
  "ace": 403,
  "sex": 404,
  "capitalg": 405,
  "capitalga": 406,
  "capitalgai": 407,
  "capitalgain": 408,
  "apitalg": 409,
  "apitalga": 410,
  "apitalgai": 411,
  "apitalgain": 412,
  "pitalg": 413,
  "pitalga": 414,
  "pitalgai": 415,
  "pitalgain": 416,
  "italg": 417,
  "italga": 418,
  "italgai": 419,
  "italgain": 420,
  "talg": 421,
  "talga": 422,
  "talgai": 423,
  "talgain": 424,
  "alg": 425,
  "alga": 426,
  "algai": 427,
  "algain": 428,
  "lg": 429,
  "lga": 430,
  "lgai": 431,
  "lgain": 432,
  "gai": 433,
  "gain": 434,
  "ain": 435,
  "capitall": 436,
  "capitallo": 437,
  "capitallos": 438,
  "capitalloss": 439,
  "apitall": 440,
  "apitallo": 441,
  "apitallos": 442,
  "apitalloss": 443,
  "pitall": 444,
  "pitallo": 445,
  "pitallos": 446,
  "pitalloss": 447,
  "itall": 448,
  "itallo": 449,
  "itallos": 450,
  "italloss": 451,
  "tall": 452,
  "tallo": 453,
  "tallos": 454,
  "talloss": 455,
  "all": 456,
  "allo": 457,
  "allos": 458,
  "alloss": 459,
  "llo": 460,
  "llos": 461,
  "lloss": 462,
  "los": 463,
  "loss": 464,
  "oss": 465,
  "nat": 466,
  "nati": 467,
  "nativ": 468,
  "native": 469,
  "native-": 470,
  "native-c": 471,
  "native-co": 472,
  "native-cou": 473,
  "native-coun": 474,
  "native-count": 475,
  "native-countr": 476,
  "native-country": 477,
  "ative-": 478,
  "ative-c": 479,
  "ative-co": 480,
  "ative-cou": 481,
  "ative-coun": 482,
  "ative-count": 483,
  "ative-countr": 484,
  "ative-country": 485,
  "tive-c": 486,
  "tive-co": 487,
  "tive-cou": 488,
  "tive-coun": 489,
  "tive-count": 490,
  "tive-countr": 491,
  "tive-country": 492,
  "ive-c": 493,
  "ive-co": 494,
  "ive-cou": 495,
  "ive-coun": 496,
  "ive-count": 497,
  "ive-countr": 498,
  "ive-country": 499,
  "ve-c": 500,
  "ve-co": 501,
  "ve-cou": 502,
  "ve-coun": 503,
  "ve-count": 504,
  "ve-countr": 505,
  "ve-country": 506,
  "e-cou": 507,
  "e-coun": 508,
  "e-count": 509,
  "e-countr": 510,
  "e-country": 511
}